<unk>	0
<s>	0
</s>	0
▁d	-0
es	-1
▁l	-2
on	-3
en	-4
ti	-5
▁p	-6
▁de	-7
an	-8
▁c	-9
▁s	-10
re	-11
▁a	-12
er	-13
tion	-14
ou	-15
ent	-16
qu	-17
in	-18
is	-19
et	-20
it	-21
▁la	-22
ra	-23
▁et	-24
▁des	-25
le	-26
ur	-27
or	-28
ar	-29
▁m	-30
ation	-31
ment	-32
▁le	-33
ré	-34
▁qu	-35
▁les	-36
om	-37
te	-38
un	-39
▁à	-40
▁n	-41
ro	-42
▁f	-43
▁t	-44
il	-45
▁en	-46
▁au	-47
our	-48
ant	-49
si	-50
▁du	-51
al	-52
▁con	-53
el	-54
▁C	-55
res	-56
ce	-57
ta	-58
ri	-59
▁é	-60
li	-61
▁v	-62
▁par	-63
ans	-64
▁un	-65
au	-66
▁dé	-67
▁L	-68
té	-69
me	-70
▁in	-71
ci	-72
ité	-73
ai	-74
▁pro	-75
pp	-76
▁pour	-77
ement	-78
▁ré	-79
us	-80
ont	-81
▁que	-82
▁re	-83
que	-84
tre	-85
▁dans	-86
ec	-87
▁com	-88
▁g	-89
▁e	-90
se	-91
▁sur	-92
▁pa	-93
▁b	-94
ch	-95
▁P	-96
oi	-97
di	-98
ol	-99
est	-100
ter	-101
ous	-102
▁2	-103
ations	-104
les	-105
▁1	-106
tu	-107
ff	-108
▁(	-109
▁S	-110
ts	-111
▁qui	-112
ouv	-113
né	-114
la	-115
eu	-116
ons	-117
ces	-118
▁j	-119
00	-120
de	-121
▁M	-122
ale	-123
▁av	-124
▁une	-125
pé	-126
ni	-127
tions	-128
mp	-129
ne	-130
mes	-131
▁o	-132
ac	-133
▁aux	-134
▁est	-135
▁pré	-136
▁D	-137
sion	-138
mb	-139
os	-140
ren	-141
▁A	-142
ers	-143
ul	-144
ag	-145
ée	-146
▁pl	-147
urs	-148
vi	-149
és	-150
aire	-151
▁N	-152
ques	-153
▁ex	-154
tiv	-155
gi	-156
ort	-157
ait	-158
▁ac	-159
elle	-160
cu	-161
▁ou	-162
ère	-163
▁ch	-164
▁I	-165
ys	-166
▁ra	-167
▁R	-168
▁200	-169
▁Le	-170
du	-171
aux	-172
▁su	-173
ab	-174
▁ma	-175
▁se	-176
fi	-177
▁tra	-178
for	-179
ance	-180
▁pas	-181
▁po	-182
▁di	-183
▁Com	-184
▁parti	-185
▁h	-186
▁E	-187
▁Con	-188
tes	-189
ration	-190
ten	-191
onn	-192
▁inter	-193
and	-194
at	-195
▁ce	-196
am	-197
as	-198
ées	-199
ins	-200
ig	-201
▁mo	-202
▁comp	-203
roit	-204
mis	-205
sent	-206
dre	-207
▁cons	-208
gra	-209
ction	-210
ants	-211
▁pr	-212
▁sont	-213
▁plus	-214
ès	-215
ven	-216
aires	-217
▁droit	-218
iv	-219
anis	-220
lé	-221
bli	-222
▁U	-223
▁G	-224
ités	-225
tif	-226
▁tou	-227
ist	-228
▁app	-229
ex	-230
ème	-231
▁avec	-232
éné	-233
tr	-234
▁T	-235
▁ser	-236
ie	-237
▁i	-238
Éta	-239
▁res	-240
▁ont	-241
▁été	-242
▁B	-243
▁sa	-244
▁tr	-245
ales	-246
min	-247
▁so	-248
nation	-249
ern	-250
oc	-251
ir	-252
▁no	-253
entre	-254
ue	-255
éc	-256
▁te	-257
une	-258
ens	-259
▁ne	-260
▁comm	-261
oir	-262
▁La	-263
▁il	-264
pe	-265
▁Les	-266
iss	-267
être	-268
ganis	-269
▁pays	-270
▁ses	-271
ine	-272
▁dis	-273
▁conc	-274
ge	-275
ure	-276
mé	-277
▁ca	-278
ord	-279
cation	-280
▁li	-281
▁internation	-282
▁géné	-283
▁r	-284
ite	-285
opp	-286
ette	-287
vel	-288
▁rés	-289
ures	-290
sid	-291
ise	-292
▁généra	-293
lement	-294
▁rapp	-295
app	-296
velopp	-297
va	-298
▁for	-299
jet	-300
ux	-301
▁développ	-302
tres	-303
▁co	-304
ence	-305
elles	-306
▁peu	-307
▁déc	-308
ire	-309
▁or	-310
▁F	-311
ca	-312
titu	-313
▁ad	-314
ond	-315
▁an	-316
pr	-317
▁per	-318
▁être	-319
po	-320
tra	-321
ve	-322
▁Il	-323
end	-324
▁Éta	-325
isi	-326
tique	-327
ui	-328
seil	-329
▁:	-330
▁ren	-331
▁nous	-332
▁rec	-333
▁pers	-334
olu	-335
opé	-336
ad	-337
▁développement	-338
ss	-339
▁entre	-340
gram	-341
▁sou	-342
▁gr	-343
▁3	-344
ubli	-345
ements	-346
teur	-347
man	-348
▁droits	-349
▁eff	-350
▁ces	-351
▁éta	-352
cip	-353
nies	-354
ture	-355
▁leur	-356
▁fin	-357
▁ins	-358
mi	-359
▁Nations	-360
mission	-361
▁fait	-362
▁do	-363
▁États	-364
▁J	-365
tiques	-366
op	-367
tri	-368
▁son	-369
form	-370
▁Conseil	-371
▁Unies	-372
ég	-373
▁ter	-374
ble	-375
▁19	-376
▁poli	-377
bre	-378
▁ég	-379
▁mon	-380
▁cette	-381
▁En	-382
ais	-383
ours	-384
▁me	-385
▁mes	-386
▁si	-387
vail	-388
uni	-389
▁ques	-390
teurs	-391
▁nom	-392
▁éc	-393
ouvern	-394
arti	-395
cé	-396
alement	-397
▁travail	-398
▁V	-399
age	-400
ph	-401
▁soci	-402
▁dev	-403
▁présent	-404
▁don	-405
éri	-406
ari	-407
lis	-408
eau	-409
rer	-410
▁imp	-411
che	-412
ang	-413
▁rapport	-414
▁Comité	-415
vent	-416
cess	-417
lo	-418
▁vi	-419
fin	-420
onom	-421
ép	-422
ma	-423
▁ar	-424
ique	-425
▁personn	-426
vention	-427
▁bi	-428
alis	-429
▁nation	-430
▁ob	-431
olution	-432
mbres	-433
eux	-434
fé	-435
▁régi	-436
▁pri	-437
▁Commission	-438
écur	-439
ient	-440
semb	-441
uti	-442
posi	-443
▁-	-444
▁program	-445
ille	-446
ut	-447
tin	-448
▁servi	-449
écurité	-450
▁organis	-451
ois	-452
ines	-453
ères	-454
mand	-455
péci	-456
▁comme	-457
tru	-458
ors	-459
▁O	-460
▁5	-461
insi	-462
int	-463
pré	-464
enne	-465
).	-466
▁pos	-467
▁sécurité	-468
▁vous	-469
mbre	-470
),	-471
▁trans	-472
▁sec	-473
av	-474
▁dép	-475
ents	-476
▁spéci	-477
em	-478
tive	-479
ments	-480
tives	-481
▁projet	-482
▁«	-483
tifs	-484
bl	-485
▁nouv	-486
▁4	-487
met	-488
▁également	-489
▁tous	-490
▁y	-491
els	-492
▁acc	-493
▁resp	-494
cle	-495
able	-496
ouvernement	-497
rait	-498
▁ainsi	-499
bil	-500
nées	-501
▁mar	-502
ante	-503
rit	-504
ign	-505
▁contre	-506
sie	-507
ême	-508
▁ju	-509
uis	-510
▁H	-511
▁es	-512
alité	-513
ard	-514
▁non	-515
tés	-516
oupe	-517
mment	-518
▁publi	-519
enti	-520
itu	-521
ffi	-522
▁fem	-523
orts	-524
▁leurs	-525
▁ti	-526
▁faire	-527
présent	-528
▁cré	-529
▁at	-530
▁vo	-531
ssi	-532
omme	-533
aut	-534
rence	-535
200	-536
sident	-537
taire	-538
én	-539
NU	-540
ill	-541
bu	-542
▁deux	-543
▁économ	-544
▁nombre	-545
▁produ	-546
▁rela	-547
▁aut	-548
▁sys	-549
vre	-550
▁mais	-551
▁prop	-552
▁Sec	-553
▁eur	-554
utilis	-555
ct	-556
dé	-557
▁inté	-558
▁ass	-559
lu	-560
▁général	-561
▁né	-562
▁particu	-563
▁cer	-564
lée	-565
ani	-566
près	-567
ér	-568
▁je	-569
des	-570
emp	-571
▁fond	-572
▁particuli	-573
ser	-574
homme	-575
▁pla	-576
▁activ	-577
▁exp	-578
▁Pré	-579
▁mesures	-580
its	-581
fants	-582
ises	-583
èg	-584
▁europé	-585
bles	-586
sions	-587
▁résolution	-588
▁Pro	-589
▁session	-590
graph	-591
cer	-592
▁peut	-593
ues	-594
▁prin	-595
▁fa	-596
▁femmes	-597
▁région	-598
▁tout	-599
▁syst	-600
aient	-601
▁Secré	-602
▁dire	-603
ass	-604
▁dom	-605
▁199	-606
▁mé	-607
▁Gr	-608
oire	-609
▁membres	-610
tant	-611
ganisation	-612
▁cha	-613
tis	-614
tement	-615
ision	-616
tamment	-617
▁rép	-618
▁pre	-619
ssemb	-620
▁représent	-621
tière	-622
▁situ	-623
▁ten	-624
▁bien	-625
▁6	-626
▁vis	-627
▁mil	-628
▁Ch	-629
▁form	-630
▁nécess	-631
▁aussi	-632
éta	-633
id	-634
ud	-635
▁jour	-636
▁internationale	-637
éli	-638
.1	-639
▁services	-640
▁al	-641
férence	-642
▁dont	-643
▁générale	-644
▁certa	-645
▁Président	-646
▁fon	-647
▁Convention	-648
▁para	-649
oy	-650
▁autres	-651
olo	-652
erci	-653
▁commun	-654
▁tech	-655
▁enfants	-656
lar	-657
autres	-658
▁activités	-659
ssemblée	-660
oris	-661
acc	-662
jec	-663
▁même	-664
▁jus	-665
▁cas	-666
▁sé	-667
▁concern	-668
▁question	-669
qui	-670
gie	-671
▁pai	-672
co	-673
oup	-674
▁sous	-675
ob	-676
▁Nous	-677
▁pren	-678
lle	-679
▁K	-680
▁personnes	-681
▁Par	-682
▁mondi	-683
ôle	-684
▁col	-685
ources	-686
ouver	-687
▁niv	-688
▁indi	-689
th	-690
▁notamment	-691
▁mise	-692
oci	-693
cri	-694
rie	-695
▁partie	-696
▁doit	-697
ande	-698
▁diff	-699
▁import	-700
mande	-701
▁finan	-702
lication	-703
iter	-704
▁disposi	-705
ils	-706
▁four	-707
▁ress	-708
▁»	-709
née	-710
ulta	-711
▁permet	-712
▁particip	-713
cep	-714
▁concernant	-715
article	-716
vers	-717
▁coopé	-718
Assemblée	-719
lab	-720
▁international	-721
▁toutes	-722
im	-723
exp	-724
▁sans	-725
▁questions	-726
▁recom	-727
▁cadre	-728
vir	-729
▁renfor	-730
ente	-731
cher	-732
▁hu	-733
▁Secrétaire	-734
▁premi	-735
▁min	-736
pa	-737
▁pouv	-738
▁doma	-739
ris	-740
par	-741
Uni	-742
voir	-743
action	-744
▁men	-745
ver	-746
▁lors	-747
▁princip	-748
▁docu	-749
tribu	-750
▁compte	-751
rganisation	-752
ances	-753
▁aff	-754
▁adop	-755
minist	-756
▁sta	-757
ves	-758
rations	-759
▁système	-760
▁Dans	-761
▁7	-762
tection	-763
▁inform	-764
év	-765
antes	-766
ettre	-767
▁paix	-768
▁afin	-769
▁Groupe	-770
▁matière	-771
▁soit	-772
anti	-773
▁%	-774
▁De	-775
ctions	-776
▁politique	-777
gé	-778
▁contin	-779
▁In	-780
▁concer	-781
cul	-782
èmes	-783
▁possi	-784
▁viol	-785
▁ci	-786
ariat	-787
▁paragraph	-788
▁À	-789
État	-790
inform	-791
▁cap	-792
ables	-793
▁programme	-794
▁Je	-795
fication	-796
endant	-797
▁moy	-798
▁prom	-799
uer	-800
onnement	-801
rique	-802
▁coopération	-803
ième	-804
nis	-805
ing	-806
▁procé	-807
▁main	-808
Organisation	-809
vis	-810
▁ba	-811
▁cours	-812
▁th	-813
▁char	-814
lég	-815
imp	-816
tionn	-817
▁9	-818
▁protection	-819
▁déb	-820
▁politiques	-821
▁mis	-822
▁économique	-823
▁ressources	-824
entes	-825
▁fonction	-826
▁dém	-827
onne	-828
ode	-829
tég	-830
▁utilis	-831
▁situation	-832
▁toute	-833
enn	-834
ez	-835
▁contribu	-836
▁suiv	-837
abil	-838
iste	-839
xe	-840
orte	-841
formé	-842
mination	-843
œu	-844
quer	-845
▁probl	-846
▁tro	-847
ong	-848
▁recommand	-849
▁prév	-850
▁lég	-851
▁réuni	-852
▁éle	-853
ili	-854
ap	-855
oivent	-856
▁respons	-857
labo	-858
▁niveau	-859
amen	-860
▁consid	-861
▁programmes	-862
ublique	-863
▁W	-864
uri	-865
rés	-866
ellement	-867
▁8	-868
▁Pour	-869
pul	-870
épublique	-871
▁10	-872
▁der	-873
.2	-874
seign	-875
▁européenne	-876
raient	-877
og	-878
tention	-879
▁point	-880
▁mani	-881
▁direc	-882
bilité	-883
▁financi	-884
▁ag	-885
▁respec	-886
▁règ	-887
▁particulier	-888
▁constitu	-889
▁vue	-890
ot	-891
▁tel	-892
▁nu	-893
tée	-894
▁seu	-895
▁fac	-896
/1	-897
▁où	-898
▁paragraphe	-899
▁cel	-900
▁demand	-901
▁doivent	-902
traté	-903
mps	-904
iques	-905
ler	-906
▁év	-907
um	-908
lè	-909
..	-910
▁gar	-911
▁cet	-912
▁communau	-913
▁derni	-914
ordin	-915
▁Au	-916
gag	-917
été	-918
anté	-919
▁objec	-920
▁na	-921
œuvre	-922
ress	-923
urer	-924
▁demande	-925
▁pe	-926
tien	-927
▁conf	-928
▁car	-929
▁popul	-930
estion	-931
amin	-932
▁institu	-933
tel	-934
pec	-935
▁soi	-936
▁réalis	-937
ru	-938
▁loi	-939
▁disp	-940
ences	-941
▁était	-942
vironnement	-943
vé	-944
ites	-945
▁lib	-946
ner	-947
▁très	-948
▁Ce	-949
▁march	-950
▁Q	-951
▁techni	-952
▁rég	-953
▁notre	-954
▁condi	-955
ureau	-956
▁gouvernement	-957
▁prof	-958
ora	-959
▁péri	-960
écu	-961
▁on	-962
elon	-963
rée	-964
▁données	-965
▁Si	-966
ali	-967
formément	-968
▁elle	-969
eso	-970
▁Gouvernement	-971
▁communi	-972
▁santé	-973
▁15	-974
rê	-975
ole	-976
▁cor	-977
▁plu	-978
▁beso	-979
su	-980
▁ver	-981
▁votre	-982
ordre	-983
/200	-984
▁République	-985
▁pra	-986
▁place	-987
▁parties	-988
st	-989
▁lui	-990
▁ent	-991
▁gestion	-992
▁avant	-993
Union	-994
ats	-995
alu	-996
tation	-997
▁œuvre	-998
équ	-999
▁straté	-1000
iti	-1001
▁actu	-1002
cessus	-1003
ffici	-1004
▁organisations	-1005
▁contra	-1006
▁public	-1007
gr	-1008
▁plan	-1009
▁grand	-1010
▁moins	-1011
issement	-1012
puis	-1013
application	-1014
core	-1015
uses	-1016
▁Rapp	-1017
▁mont	-1018
▁accord	-1019
information	-1020
ate	-1021
▁20	-1022
▁sera	-1023
▁peuvent	-1024
▁considé	-1025
▁cent	-1026
▁processus	-1027
▁mettre	-1028
▁ans	-1029
▁contr	-1030
▁ph	-1031
▁encore	-1032
▁base	-1033
▁fam	-1034
▁avait	-1035
ES	-1036
▁opé	-1037
▁Conférence	-1038
ara	-1039
▁milli	-1040
lic	-1041
vaux	-1042
lig	-1043
venir	-1044
▁loc	-1045
ica	-1046
orités	-1047
gramme	-1048
▁dispositions	-1049
▁dol	-1050
▁bud	-1051
▁ind	-1052
ONU	-1053
▁dollar	-1054
laration	-1055
▁cul	-1056
▁rédu	-1057
lément	-1058
▁prendre	-1059
der	-1060
ologi	-1061
▁appro	-1062
▁titre	-1063
issance	-1064
▁pres	-1065
xte	-1066
▁ab	-1067
istance	-1068
▁inc	-1069
▁vou	-1070
uridi	-1071
▁sub	-1072
▁lut	-1073
ada	-1074
ran	-1075
▁exemp	-1076
▁"	-1077
▁travaux	-1078
eaux	-1079
toc	-1080
▁juridi	-1081
▁cri	-1082
ets	-1083
▁décision	-1084
ires	-1085
cement	-1086
eure	-1087
▁propos	-1088
▁amé	-1089
▁déf	-1090
▁compris	-1091
/5	-1092
▁dollars	-1093
▁conn	-1094
itaire	-1095
▁nor	-1096
aff	-1097
téri	-1098
tariat	-1099
▁efforts	-1100
▁emp	-1101
sieurs	-1102
loi	-1103
▁document	-1104
tent	-1105
ages	-1106
▁domaine	-1107
▁gra	-1108
abilité	-1109
ommes	-1110
inter	-1111
▁lieu	-1112
▁défin	-1113
▁délég	-1114
▁fi	-1115
occu	-1116
▁devrait	-1117
tées	-1118
tenir	-1119
uro	-1120
▁vie	-1121
▁quel	-1122
▁national	-1123
▁té	-1124
/2	-1125
ones	-1126
▁résulta	-1127
▁2006	-1128
▁proposi	-1129
▁cl	-1130
▁2005	-1131
▁Un	-1132
▁capac	-1133
▁rais	-1134
▁informations	-1135
0,	-1136
▁inf	-1137
▁ess	-1138
▁compé	-1139
▁part	-1140
omp	-1141
CE	-1142
▁temps	-1143
blig	-1144
▁formation	-1145
▁transp	-1146
oute	-1147
▁supp	-1148
▁13	-1149
▁2004	-1150
▁nos	-1151
one	-1152
▁cro	-1153
▁monde	-1154
▁personnel	-1155
▁conformément	-1156
ducation	-1157
▁12	-1158
▁effec	-1159
mer	-1160
out	-1161
nexe	-1162
pte	-1163
▁cli	-1164
▁tant	-1165
▁différ	-1166
semble	-1167
issant	-1168
lation	-1169
▁justi	-1170
ges	-1171
▁produits	-1172
▁por	-1173
cembre	-1174
▁Mon	-1175
ancement	-1176
▁Can	-1177
▁manière	-1178
▁autre	-1179
sition	-1180
▁budg	-1181
nés	-1182
turel	-1183
▁garanti	-1184
oura	-1185
isation	-1186
▁décembre	-1187
▁rôle	-1188
rais	-1189
▁[	-1190
▁z	-1191
orité	-1192
fier	-1193
oni	-1194
hi	-1195
qué	-1196
▁spécial	-1197
▁donc	-1198
▁concerne	-1199
▁recher	-1200
urope	-1201
▁examin	-1202
▁objectifs	-1203
roris	-1204
▁préc	-1205
▁entrepr	-1206
▁sex	-1207
▁groupe	-1208
rib	-1209
▁sal	-1210
▁off	-1211
▁dés	-1212
gan	-1213
▁avoir	-1214
▁vers	-1215
▁pén	-1216
illes	-1217
jour	-1218
yant	-1219
laboration	-1220
▁après	-1221
▁légis	-1222
▁pris	-1223
▁internationales	-1224
▁conditions	-1225
▁Parti	-1226
fic	-1227
▁É	-1228
rieur	-1229
▁Des	-1230
▁trait	-1231
▁confl	-1232
rable	-1233
frique	-1234
▁vol	-1235
▁secteur	-1236
▁puis	-1237
▁mi	-1238
▁2002	-1239
▁w	-1240
▁consul	-1241
▁fonctionn	-1242
▁lim	-1243
examen	-1244
oupes	-1245
▁Min	-1246
▁fois	-1247
tal	-1248
▁visant	-1249
ON	-1250
ocra	-1251
era	-1252
▁18	-1253
itaires	-1254
▁im	-1255
▁mesure	-1256
▁divers	-1257
▁reconn	-1258
ense	-1259
▁2003	-1260
▁11	-1261
▁depuis	-1262
.3	-1263
▁Bureau	-1264
▁territ	-1265
▁pau	-1266
▁rapports	-1267
▁Cette	-1268
▁période	-1269
▁nég	-1270
▁société	-1271
▁contrôle	-1272
▁parten	-1273
▁long	-1274
▁soient	-1275
rica	-1276
▁cin	-1277
oli	-1278
ches	-1279
environnement	-1280
isions	-1281
▁Une	-1282
▁huma	-1283
ori	-1284
quement	-1285
▁2007	-1286
istre	-1287
▁certains	-1288
èrement	-1289
▁2001	-1290
▁administ	-1291
▁renforcer	-1292
▁projets	-1293
Unis	-1294
▁relatives	-1295
▁offici	-1296
▁engag	-1297
▁institutions	-1298
gment	-1299
▁Me	-1300
▁ceux	-1301
▁outre	-1302
éducation	-1303
▁chaque	-1304
▁discri	-1305
/6	-1306
▁affaires	-1307
▁démocra	-1308
▁mal	-1309
▁ty	-1310
grès	-1311
▁terroris	-1312
▁souh	-1313
oles	-1314
erts	-1315
▁No	-1316
▁problèmes	-1317
coura	-1318
çon	-1319
▁modi	-1320
▁selon	-1321
▁ris	-1322
▁sujet	-1323
▁initi	-1324
▁14	-1325
▁Re	-1326
cc	-1327
ribun	-1328
cid	-1329
▁résultats	-1330
aluation	-1331
▁On	-1332
▁social	-1333
▁Programme	-1334
▁séance	-1335
orer	-1336
▁fourni	-1337
▁pouvoir	-1338
▁nouveau	-1339
▁he	-1340
▁groupes	-1341
▁effica	-1342
▁trois	-1343
ger	-1344
▁mondiale	-1345
▁lutte	-1346
▁oc	-1347
onner	-1348
urant	-1349
▁plusieurs	-1350
▁déj	-1351
▁jou	-1352
ov	-1353
fois	-1354
▁2008	-1355
trang	-1356
▁poursu	-1357
▁nationale	-1358
ba	-1359
pi	-1360
▁réc	-1361
pro	-1362
▁possible	-1363
▁réunion	-1364
▁répon	-1365
hui	-1366
▁établi	-1367
quelle	-1368
▁can	-1369
non	-1370
▁Canada	-1371
▁laquelle	-1372
▁gouvern	-1373
▁auc	-1374
aide	-1375
▁Déc	-1376
lan	-1377
▁population	-1378
use	-1379
▁méc	-1380
truc	-1381
itation	-1382
erce	-1383
tations	-1384
tro	-1385
▁qualité	-1386
▁souhait	-1387
ral	-1388
▁as	-1389
▁30	-1390
olutions	-1391
▁médi	-1392
▁Elle	-1393
▁recommandations	-1394
▁améli	-1395
tiss	-1396
▁(1	-1397
▁ple	-1398
▁peup	-1399
▁cour	-1400
quê	-1401
▁confi	-1402
▁Ces	-1403
ître	-1404
adi	-1405
▁An	-1406
▁première	-1407
▁juin	-1408
▁perman	-1409
▁années	-1410
▁Ré	-1411
▁exemple	-1412
ercice	-1413
▁vé	-1414
mo	-1415
loy	-1416
▁communauté	-1417
▁note	-1418
enf	-1419
▁avons	-1420
▁peti	-1421
▁oblig	-1422
éch	-1423
atri	-1424
▁mul	-1425
▁façon	-1426
unes	-1427
cue	-1428
000	-1429
▁conséqu	-1430
▁étu	-1431
...	-1432
clé	-1433
rale	-1434
▁inv	-1435
▁faut	-1436
▁savoir	-1437
▁mand	-1438
▁éch	-1439
rent	-1440
▁béné	-1441
▁service	-1442
▁moyens	-1443
miss	-1444
▁déci	-1445
inté	-1446
▁trouv	-1447
cles	-1448
ron	-1449
▁grande	-1450
az	-1451
serv	-1452
lations	-1453
▁justice	-1454
ennes	-1455
occup	-1456
▁réf	-1457
▁chang	-1458
be	-1459
oint	-1460
érie	-1461
illet	-1462
nes	-1463
▁techn	-1464
pose	-1465
lec	-1466
▁mécanis	-1467
▁stratégi	-1468
▁sus	-1469
In	-1470
▁réser	-1471
▁seront	-1472
▁organismes	-1473
ministration	-1474
ôtel	-1475
▁essenti	-1476
▁ils	-1477
agne	-1478
ert	-1479
▁participation	-1480
▁nécessaire	-1481
▁nuclé	-1482
cti	-1483
▁Mme	-1484
nu	-1485
▁discrimination	-1486
▁sign	-1487
ange	-1488
▁soulig	-1489
▁déjà	-1490
▁to	-1491
▁conna	-1492
▁mondial	-1493
▁mod	-1494
▁règlement	-1495
▁sui	-1496
▁durable	-1497
▁pendant	-1498
▁Qu	-1499
▁technique	-1500
▁commerce	-1501
▁millions	-1502
▁multi	-1503
▁déter	-1504
▁rem	-1505
▁fig	-1506
▁recherche	-1507
▁16	-1508
▁pass	-1509
▁progrès	-1510
péri	-1511
fici	-1512
▁important	-1513
▁besoins	-1514
▁instru	-1515
▁Parlement	-1516
ession	-1517
tenant	-1518
seignements	-1519
ût	-1520
▁che	-1521
▁esti	-1522
▁human	-1523
▁Y	-1524
oires	-1525
sieur	-1526
▁nouvelles	-1527
▁débat	-1528
édé	-1529
▁nécessaires	-1530
▁heures	-1531
▁fonds	-1532
.4	-1533
▁cau	-1534
▁voi	-1535
▁représentants	-1536
▁Monsieur	-1537
dure	-1538
▁premier	-1539
élic	-1540
);	-1541
médi	-1542
▁suivi	-1543
▁compren	-1544
alesti	-1545
▁organ	-1546
▁financement	-1547
forme	-1548
▁victi	-1549
▁the	-1550
▁cela	-1551
▁fonda	-1552
▁étaient	-1553
▁meille	-1554
ression	-1555
AN	-1556
▁appli	-1557
ouvoir	-1558
▁télé	-1559
ront	-1560
otion	-1561
▁économiques	-1562
ints	-1563
hé	-1564
▁vale	-1565
▁17	-1566
▁domaines	-1567
▁dit	-1568
ordination	-1569
fs	-1570
▁fer	-1571
▁facil	-1572
▁is	-1573
ind	-1574
▁tenu	-1575
adop	-1576
veur	-1577
▁commerci	-1578
▁juillet	-1579
ustri	-1580
truction	-1581
tern	-1582
▁budget	-1583
appui	-1584
pri	-1585
▁liber	-1586
▁violence	-1587
gu	-1588
art	-1589
▁Cons	-1590
▁suite	-1591
rées	-1592
▁prises	-1593
TI	-1594
▁Fond	-1595
▁seulement	-1596
▁secré	-1597
ay	-1598
▁devraient	-1599
▁priv	-1600
▁création	-1601
▁jusqu	-1602
nie	-1603
▁ayant	-1604
fique	-1605
▁Membres	-1606
▁Parties	-1607
ative	-1608
▁serait	-1609
ain	-1610
quel	-1611
▁ri	-1612
▁fondament	-1613
jours	-1614
▁administra	-1615
jourd	-1616
ptembre	-1617
▁pauvre	-1618
▁félic	-1619
▁étrang	-1620
▁procédure	-1621
▁autorités	-1622
▁internationaux	-1623
▁présente	-1624
▁opérations	-1625
▁coordination	-1626
▁documents	-1627
▁personne	-1628
utilisation	-1629
▁nationales	-1630
exercice	-1631
▁marché	-1632
▁mois	-1633
▁000	-1634
import	-1635
blissement	-1636
▁terme	-1637
▁(200	-1638
rier	-1639
9,	-1640
ateurs	-1641
OM	-1642
cés	-1643
▁atte	-1644
▁site	-1645
▁septembre	-1646
▁pauvreté	-1647
lande	-1648
▁effet	-1649
▁sociale	-1650
rêt	-1651
égalité	-1652
▁promouvoir	-1653
miner	-1654
ffis	-1655
▁méth	-1656
▁dou	-1657
▁égard	-1658
UN	-1659
▁exécu	-1660
épar	-1661
▁man	-1662
après	-1663
tocole	-1664
▁fav	-1665
▁armes	-1666
ption	-1667
▁date	-1668
▁entreprises	-1669
emploi	-1670
atives	-1671
lais	-1672
▁conclu	-1673
accès	-1674
▁encoura	-1675
urg	-1676
▁jeunes	-1677
▁négoci	-1678
tie	-1679
ensemble	-1680
▁capacités	-1681
tisf	-1682
istère	-1683
▁nouvelle	-1684
administration	-1685
▁cit	-1686
▁problème	-1687
▁prévention	-1688
▁adopté	-1689
vembre	-1690
▁mandat	-1691
▁ven	-1692
▁promotion	-1693
▁défini	-1694
▁civ	-1695
ak	-1696
▁oct	-1697
▁2000	-1698
▁pourrait	-1699
▁cla	-1700
▁Al	-1701
-1	-1702
▁formul	-1703
▁toujours	-1704
▁satisf	-1705
alisation	-1706
ateur	-1707
▁sy	-1708
▁délégation	-1709
▁nouveaux	-1710
▁maintien	-1711
ultatif	-1712
▁normes	-1713
men	-1714
▁of	-1715
▁cara	-1716
▁novembre	-1717
▁faveur	-1718
▁texte	-1719
cées	-1720
isième	-1721
▁disponi	-1722
▁desti	-1723
enses	-1724
ège	-1725
obre	-1726
sence	-1727
▁raison	-1728
▁proposition	-1729
▁décisions	-1730
▁sein	-1731
cipe	-1732
▁prépa	-1733
avant	-1734
Europe	-1735
frica	-1736
omm	-1737
▁secrétariat	-1738
▁renforcement	-1739
▁terrorisme	-1740
▁celui	-1741
▁reç	-1742
▁convi	-1743
mement	-1744
ril	-1745
▁ni	-1746
▁Cour	-1747
▁mai	-1748
évaluation	-1749
▁and	-1750
▁comb	-1751
▁représentant	-1752
▁montant	-1753
▁pratiques	-1754
tières	-1755
dici	-1756
orter	-1757
-200	-1758
ensi	-1759
▁eu	-1760
▁moyen	-1761
▁taux	-1762
reg	-1763
▁déclaration	-1764
▁arti	-1765
▁elles	-1766
▁plein	-1767
▁dist	-1768
▁auprès	-1769
ribunal	-1770
▁Ser	-1771
99	-1772
▁VI	-1773
▁bénéfici	-1774
▁responsabilité	-1775
léments	-1776
alog	-1777
▁II	-1778
▁principes	-1779
▁type	-1780
▁remp	-1781
▁continuer	-1782
▁appel	-1783
▁beau	-1784
étu	-1785
▁européen	-1786
accord	-1787
▁renseignements	-1788
enfant	-1789
▁mars	-1790
ib	-1791
▁certaines	-1792
rog	-1793
▁procéd	-1794
▁lar	-1795
▁conseil	-1796
eur	-1797
ras	-1798
▁victimes	-1799
▁donner	-1800
▁intég	-1801
▁respect	-1802
▁associ	-1803
▁relative	-1804
▁civi	-1805
tivement	-1806
▁avaient	-1807
vier	-1808
âce	-1809
▁Fonds	-1810
▁pu	-1811
▁production	-1812
▁Ar	-1813
ivre	-1814
▁voud	-1815
▁transport	-1816
épend	-1817
améli	-1818
ôt	-1819
alestini	-1820
▁assurer	-1821
▁gouvernements	-1822
inte	-1823
titution	-1824
▁rep	-1825
▁sig	-1826
▁celle	-1827
fiques	-1828
orteur	-1829
Afrique	-1830
▁octobre	-1831
per	-1832
od	-1833
Ad	-1834
omb	-1835
▁25	-1836
▁vertu	-1837
▁port	-1838
intég	-1839
ivers	-1840
▁sommes	-1841
▁famille	-1842
▁deuxième	-1843
▁collec	-1844
▁nombreux	-1845
tivité	-1846
dit	-1847
▁sc	-1848
▁conven	-1849
eff	-1850
▁systèmes	-1851
▁dépenses	-1852
aly	-1853
▁consac	-1854
▁civile	-1855
▁besoin	-1856
▁augment	-1857
▁aid	-1858
▁liste	-1859
▁étant	-1860
lob	-1861
coup	-1862
▁matéri	-1863
alités	-1864
▁sol	-1865
▁21	-1866
gne	-1867
▁ai	-1868
▁conférence	-1869
▁profession	-1870
▁prix	-1871
▁nécessité	-1872
▁soutien	-1873
▁réunions	-1874
▁k	-1875
▁;	-1876
tenu	-1877
▁•	-1878
▁techniques	-1879
▁nationaux	-1880
▁équi	-1881
▁reli	-1882
▁sci	-1883
acité	-1884
cht	-1885
▁citoy	-1886
▁fais	-1887
vant	-1888
indre	-1889
▁Déclaration	-1890
ic	-1891
cont	-1892
▁fins	-1893
▁pertin	-1894
▁fournir	-1895
▁mieux	-1896
▁accomp	-1897
▁organes	-1898
▁lesqu	-1899
▁décla	-1900
▁24	-1901
iser	-1902
seignement	-1903
▁.	-1904
jou	-1905
ueur	-1906
▁ali	-1907
▁Su	-1908
▁cir	-1909
économ	-1910
▁communication	-1911
pes	-1912
▁volon	-1913
▁équ	-1914
lus	-1915
ugi	-1916
▁op	-1917
▁donné	-1918
rim	-1919
rez	-1920
▁ru	-1921
▁exig	-1922
▁élec	-1923
▁procédures	-1924
-2	-1925
anvier	-1926
AC	-1927
exécu	-1928
▁vig	-1929
▁déta	-1930
▁avril	-1931
▁législation	-1932
▁distri	-1933
uy	-1934
▁For	-1935
mérique	-1936
eb	-1937
ose	-1938
▁territoire	-1939
▁Protocole	-1940
ela	-1941
▁gé	-1942
▁certain	-1943
▁cr	-1944
illeurs	-1945
EN	-1946
dica	-1947
vement	-1948
▁reconna	-1949
▁ret	-1950
▁Vi	-1951
▁conte	-1952
▁celles	-1953
▁chi	-1954
cueil	-1955
▁police	-1956
inc	-1957
▁janvier	-1958
ception	-1959
lant	-1960
▁réfugi	-1961
▁État	-1962
▁alors	-1963
▁ouver	-1964
▁publique	-1965
▁présenté	-1966
▁Ex	-1967
▁Sud	-1968
▁simp	-1969
▁soumis	-1970
hicu	-1971
▁hau	-1972
rir	-1973
▁tels	-1974
▁provis	-1975
▁Ministère	-1976
▁ref	-1977
▁beaucoup	-1978
IT	-1979
▁sensi	-1980
▁principe	-1981
iller	-1982
da	-1983
rouv	-1984
▁met	-1985
isme	-1986
▁juridique	-1987
▁souv	-1988
▁tot	-1989
▁judici	-1990
▁professionn	-1991
▁rése	-1992
▁,	-1993
▁qua	-1994
assistance	-1995
alogue	-1996
▁commis	-1997
lent	-1998
▁maj	-1999
▁ve	-2000
▁éléments	-2001
▁permettre	-2002
rales	-2003
▁supplément	-2004
▁tour	-2005
▁différents	-2006
objet	-2007
▁stratégie	-2008
élaboration	-2009
▁22	-2010
▁devant	-2011
▁Tra	-2012
.5	-2013
▁mer	-2014
▁condu	-2015
▁statis	-2016
▁auto	-2017
tut	-2018
are	-2019
▁“	-2020
▁spécialis	-2021
▁id	-2022
▁Mis	-2023
▁règles	-2024
▁technologi	-2025
▁effectu	-2026
adoption	-2027
▁moment	-2028
rences	-2029
▁Règ	-2030
▁protég	-2031
▁prise	-2032
▁créer	-2033
▁spéciale	-2034
▁Dire	-2035
▁aujourd	-2036
▁traitement	-2037
▁uti	-2038
▁précé	-2039
armement	-2040
ograph	-2041
▁exc	-2042
▁zones	-2043
▁haut	-2044
▁véhicu	-2045
▁forme	-2046
▁conflits	-2047
ien	-2048
▁extra	-2049
▁régions	-2050
vestiss	-2051
▁décidé	-2052
taires	-2053
/3	-2054
ologie	-2055
ennent	-2056
ffic	-2057
casion	-2058
ion	-2059
mun	-2060
▁préoccup	-2061
▁ang	-2062
▁vos	-2063
▁Rapport	-2064
ess	-2065
UE	-2066
bilisation	-2067
rom	-2068
ow	-2069
▁charg	-2070
▁face	-2071
▁actuellement	-2072
▁Ad	-2073
▁proch	-2074
▁nucléaires	-2075
naire	-2076
▁compéten	-2077
égard	-2078
pit	-2079
osé	-2080
▁cal	-2081
▁transf	-2082
▁grâce	-2083
▁quelques	-2084
▁requ	-2085
▁devons	-2086
▁viv	-2087
▁23	-2088
▁bas	-2089
▁liberté	-2090
IS	-2091
org	-2092
▁proc	-2093
▁chargé	-2094
dess	-2095
▁application	-2096
▁lo	-2097
dent	-2098
rance	-2099
organisation	-2100
▁lorsque	-2101
▁31	-2102
iles	-2103
▁points	-2104
▁autocht	-2105
exécution	-2106
▁Secrétariat	-2107
▁humanitaire	-2108
▁centre	-2109
explo	-2110
▁lang	-2111
bes	-2112
▁africa	-2113
▁contributions	-2114
▁pratique	-2115
resp	-2116
▁ét	-2117
▁dési	-2118
▁Mar	-2119
ommet	-2120
▁glob	-2121
▁CE	-2122
importance	-2123
tième	-2124
▁Th	-2125
autre	-2126
▁ara	-2127
cations	-2128
▁présid	-2129
chi	-2130
igne	-2131
alyse	-2132
arm	-2133
▁appropri	-2134
▁aspec	-2135
▁comment	-2136
▁Mission	-2137
▁telles	-2138
▁continu	-2139
▁Sa	-2140
▁Toute	-2141
▁sû	-2142
▁réfugiés	-2143
épartement	-2144
▁culture	-2145
nent	-2146
Com	-2147
▁san	-2148
▁Vous	-2149
arte	-2150
ret	-2151
acte	-2152
▁vigueur	-2153
ène	-2154
▁demandé	-2155
iné	-2156
rables	-2157
▁fran	-2158
gion	-2159
▁démocratique	-2160
urée	-2161
▁désarmement	-2162
7,	-2163
▁relatifs	-2164
▁Mal	-2165
pendant	-2166
▁relations	-2167
établissement	-2168
▁conflit	-2169
affir	-2170
▁accep	-2171
▁voudrais	-2172
sse	-2173
▁mécanismes	-2174
▁palestini	-2175
▁conta	-2176
▁année	-2177
▁approuv	-2178
appli	-2179
quête	-2180
▁am	-2181
avantage	-2182
▁hommes	-2183
▁sexu	-2184
inf	-2185
▁suffis	-2186
agit	-2187
▁Dé	-2188
▁provisoire	-2189
ew	-2190
odes	-2191
▁améliorer	-2192
▁Département	-2193
oût	-2194
▁niveaux	-2195
▁dernier	-2196
▁agri	-2197
▁univers	-2198
▁reven	-2199
▁réglement	-2200
▁résolutions	-2201
anie	-2202
▁fau	-2203
▁sau	-2204
▁lois	-2205
▁valeur	-2206
8,	-2207
▁fournis	-2208
▁prov	-2209
▁Ma	-2210
▁log	-2211
assurer	-2212
organis	-2213
ies	-2214
▁Cor	-2215
odi	-2216
▁font	-2217
ément	-2218
▁adress	-2219
▁croissance	-2220
experts	-2221
▁réalisation	-2222
▁dél	-2223
▁sociaux	-2224
▁voy	-2225
amb	-2226
▁consta	-2227
quent	-2228
▁obligations	-2229
▁corresp	-2230
▁propositions	-2231
▁intéress	-2232
fié	-2233
▁aliment	-2234
▁intitu	-2235
gh	-2236
▁souvent	-2237
til	-2238
▁relatif	-2239
▁disposition	-2240
▁fix	-2241
▁surve	-2242
▁reg	-2243
éner	-2244
oration	-2245
▁rendre	-2246
issements	-2247
/4	-2248
▁observ	-2249
crit	-2250
ditionn	-2251
▁participer	-2252
▁travaille	-2253
▁catég	-2254
▁occu	-2255
5,	-2256
▁culturel	-2257
évrier	-2258
▁annu	-2259
▁quatre	-2260
▁autochtones	-2261
▁trouver	-2262
tenus	-2263
▁cou	-2264
rant	-2265
▁bonne	-2266
▁Mais	-2267
ace	-2268
▁financières	-2269
vision	-2270
▁PNU	-2271
fications	-2272
AR	-2273
▁efficace	-2274
▁réduire	-2275
▁(2	-2276
▁exist	-2277
▁198	-2278
▁établ	-2279
▁postes	-2280
▁consultatif	-2281
année	-2282
▁mig	-2283
▁Comme	-2284
missaire	-2285
▁présenter	-2286
▁réduction	-2287
▁Règlement	-2288
nal	-2289
▁février	-2290
tient	-2291
▁Représent	-2292
▁recours	-2293
▁aider	-2294
tructure	-2295
▁pi	-2296
▁applic	-2297
▁rou	-2298
▁Pa	-2299
▁arm	-2300
▁formes	-2301
▁».	-2302
éd	-2303
▁citoyens	-2304
énergie	-2305
▁remerci	-2306
tification	-2307
état	-2308
aï	-2309
sra	-2310
▁autoris	-2311
▁disc	-2312
oma	-2313
▁actes	-2314
▁table	-2315
▁Z	-2316
▁salle	-2317
enseignement	-2318
▁voir	-2319
quées	-2320
▁nature	-2321
rain	-2322
▁dialogue	-2323
▁correspond	-2324
▁environnement	-2325
▁reste	-2326
cée	-2327
▁rele	-2328
▁fai	-2329
▁effets	-2330
▁tenue	-2331
tron	-2332
illé	-2333
ordinaire	-2334
xim	-2335
part	-2336
▁aucune	-2337
▁rap	-2338
▁davantage	-2339
▁posi	-2340
▁consultations	-2341
▁tenir	-2342
oser	-2343
▁véri	-2344
IC	-2345
▁diri	-2346
table	-2347
▁possibilité	-2348
▁faciliter	-2349
▁fourn	-2350
▁instruments	-2351
objec	-2352
▁série	-2353
voy	-2354
▁forces	-2355
▁garantir	-2356
ds	-2357
▁tran	-2358
▁Ils	-2359
▁défense	-2360
▁prê	-2361
laborer	-2362
gement	-2363
▁capacité	-2364
▁contexte	-2365
▁Haut	-2366
périence	-2367
ach	-2368
dam	-2369
quante	-2370
ève	-2371
▁semb	-2372
oit	-2373
▁X	-2374
▁mari	-2375
Add	-2376
▁lan	-2377
▁indiqué	-2378
▁aucun	-2379
▁déclar	-2380
▁traité	-2381
uve	-2382
▁initiatives	-2383
▁total	-2384
▁distribu	-2385
▁diffé	-2386
▁permis	-2387
▁différentes	-2388
▁jours	-2389
▁Sou	-2390
▁201	-2391
▁orient	-2392
▁collaboration	-2393
▁ailleurs	-2394
▁conj	-2395
▁régional	-2396
▁femme	-2397
▁cinq	-2398
appro	-2399
▁partenaires	-2400
▁da	-2401
▁biens	-2402
▁anti	-2403
▁fonctions	-2404
▁mission	-2405
▁enti	-2406
▁pénale	-2407
▁régionales	-2408
▁opération	-2409
▁atten	-2410
▁fut	-2411
air	-2412
istan	-2413
▁?	-2414
6,	-2415
▁nombreuses	-2416
▁Centre	-2417
01	-2418
lection	-2419
▁bon	-2420
▁maintenant	-2421
cteur	-2422
▁suis	-2423
▁soins	-2424
▁2009	-2425
▁coord	-2426
▁sens	-2427
▁envis	-2428
fficacité	-2429
▁coû	-2430
prise	-2431
▁lequel	-2432
▁esp	-2433
▁eux	-2434
élimination	-2435
▁trouve	-2436
▁sais	-2437
▁dépla	-2438
▁naturel	-2439
▁aspects	-2440
▁membre	-2441
ché	-2442
urgence	-2443
▁propri	-2444
▁déli	-2445
▁sorte	-2446
▁VIH	-2447
▁peuples	-2448
igine	-2449
▁parce	-2450
▁risque	-2451
▁délégations	-2452
aume	-2453
pace	-2454
▁Cela	-2455
▁propre	-2456
▁enreg	-2457
▁réforme	-2458
▁but	-2459
go	-2460
êmes	-2461
▁avan	-2462
▁guer	-2463
oix	-2464
▁Lors	-2465
férences	-2466
4,	-2467
▁pleinement	-2468
viron	-2469
CN	-2470
truct	-2471
atrième	-2472
ber	-2473
ork	-2474
▁capit	-2475
▁vote	-2476
3,	-2477
intention	-2478
▁DE	-2479
xes	-2480
▁Point	-2481
▁commission	-2482
AP	-2483
ussie	-2484
▁telle	-2485
tage	-2486
▁commen	-2487
▁Se	-2488
▁oeu	-2489
▁Pacte	-2490
▁participants	-2491
▁août	-2492
act	-2493
▁crimin	-2494
▁Servi	-2495
▁28	-2496
▁pourraient	-2497
▁Do	-2498
2,	-2499
ccord	-2500
fficul	-2501
efficacité	-2502
▁répondre	-2503
matiques	-2504
▁six	-2505
▁accès	-2506
▁protéger	-2507
intes	-2508
auteur	-2509
▁cô	-2510
uli	-2511
vée	-2512
UR	-2513
rai	-2514
▁négociations	-2515
▁plani	-2516
▁statut	-2517
▁termes	-2518
quoi	-2519
▁suivants	-2520
▁27	-2521
▁plupart	-2522
▁Roy	-2523
▁fédé	-2524
▁peuple	-2525
▁électron	-2526
▁Afrique	-2527
▁législa	-2528
▁difficul	-2529
▁Gen	-2530
ses	-2531
▁val	-2532
▁partir	-2533
▁marchés	-2534
avoir	-2535
▁camp	-2536
cent	-2537
▁financière	-2538
▁claire	-2539
▁26	-2540
▁Représentant	-2541
ît	-2542
▁rend	-2543
▁juridiques	-2544
▁anglais	-2545
▁»,	-2546
▁position	-2547
▁sexes	-2548
▁régime	-2549
ctu	-2550
▁manif	-2551
▁parmi	-2552
▁fonctionnaires	-2553
▁Web	-2554
▁succ	-2555
gré	-2556
▁charge	-2557
matique	-2558
▁accords	-2559
▁rev	-2560
▁indivi	-2561
▁énon	-2562
mation	-2563
intégration	-2564
loyés	-2565
aine	-2566
▁Toutefois	-2567
ager	-2568
dation	-2569
▁Chine	-2570
▁seul	-2571
▁appui	-2572
▁industri	-2573
▁privé	-2574
Amérique	-2575
▁chambres	-2576
▁crise	-2577
▁ligne	-2578
▁diverses	-2579
▁produit	-2580
▁dernières	-2581
▁lorsqu	-2582
▁missions	-2583
tan	-2584
suite	-2585
▁technologies	-2586
ER	-2587
▁créé	-2588
remi	-2589
engag	-2590
▁importante	-2591
ici	-2592
▁El	-2593
stitu	-2594
mettre	-2595
▁constitue	-2596
union	-2597
ade	-2598
▁entra	-2599
raux	-2600
▁Code	-2601
▁Mes	-2602
▁Gu	-2603
resse	-2604
▁large	-2605
usement	-2606
abit	-2607
▁publics	-2608
ossi	-2609
all	-2610
▁han	-2611
▁pol	-2612
▁fra	-2613
illance	-2614
vie	-2615
▁instal	-2616
▁ban	-2617
▁permettant	-2618
▁Europe	-2619
annexe	-2620
▁â	-2621
▁Sal	-2622
con	-2623
▁contribuer	-2624
▁Russie	-2625
▁prog	-2626
▁principaux	-2627
étaires	-2628
erre	-2629
rat	-2630
▁mu	-2631
▁Rec	-2632
urent	-2633
▁dernière	-2634
tivités	-2635
ède	-2636
quième	-2637
▁atta	-2638
examin	-2639
apon	-2640
▁changements	-2641
▁handica	-2642
▁cause	-2643
▁aide	-2644
abri	-2645
▁annexe	-2646
▁stratégies	-2647
▁risques	-2648
▁bureau	-2649
lage	-2650
origine	-2651
▁déclarations	-2652
▁veiller	-2653
acqu	-2654
▁favoris	-2655
gn	-2656
▁convient	-2657
1,	-2658
pés	-2659
▁guerre	-2660
ettes	-2661
▁dispose	-2662
▁zone	-2663
▁drog	-2664
▁compét	-2665
TION	-2666
▁touch	-2667
qués	-2668
▁lu	-2669
▁examen	-2670
▁arri	-2671
▁Sous	-2672
sta	-2673
▁va	-2674
armes	-2675
étés	-2676
▁méthodes	-2677
▁ville	-2678
quant	-2679
▁tor	-2680
hôtel	-2681
formes	-2682
rêts	-2683
▁50	-2684
▁compos	-2685
dition	-2686
▁poursuivre	-2687
▁proposé	-2688
▁uni	-2689
ternet	-2690
▁disponibles	-2691
▁réponse	-2692
▁famili	-2693
▁violations	-2694
▁Royaume	-2695
ana	-2696
▁observations	-2697
▁rendu	-2698
▁permanent	-2699
▁plans	-2700
égi	-2701
ingt	-2702
▁responsables	-2703
▁sociales	-2704
▁régionaux	-2705
gation	-2706
▁rece	-2707
usion	-2708
▁oeuvre	-2709
▁chac	-2710
hu	-2711
rimer	-2712
DE	-2713
économie	-2714
▁crit	-2715
▁examiné	-2716
▁2005,	-2717
exploitation	-2718
euxième	-2719
osition	-2720
▁caract	-2721
▁France	-2722
▁New	-2723
ila	-2724
▁centres	-2725
▁indépend	-2726
▁Co	-2727
▁secteurs	-2728
CI	-2729
▁tâ	-2730
▁réserve	-2731
▁explo	-2732
▁sema	-2733
duction	-2734
ok	-2735
▁Tribunal	-2736
anda	-2737
▁contribution	-2738
▁Cha	-2739
ieu	-2740
▁29	-2741
▁Premi	-2742
▁consoli	-2743
roph	-2744
tock	-2745
▁aura	-2746
▁articles	-2747
▁Lib	-2748
istes	-2749
▁troisième	-2750
cident	-2751
fgh	-2752
▁référence	-2753
équi	-2754
ource	-2755
tructures	-2756
▁statistiques	-2757
ventions	-2758
rons	-2759
issances	-2760
▁supplémentaires	-2761
▁faits	-2762
▁prend	-2763
▁judiciaire	-2764
èle	-2765
▁ensemble	-2766
▁auxqu	-2767
▁deme	-2768
▁mort	-2769
▁fournit	-2770
▁Genève	-2771
ell	-2772
▁mention	-2773
▁vari	-2774
▁traite	-2775
▁étudi	-2776
▁rapi	-2777
▁Rapporteur	-2778
rec	-2779
▁conser	-2780
▁rappel	-2781
ju	-2782
laté	-2783
.6	-2784
onde	-2785
▁émis	-2786
lir	-2787
▁!	-2788
examiner	-2789
onie	-2790
ffice	-2791
▁précis	-2792
▁voie	-2793
▁pourquoi	-2794
▁Réunion	-2795
crip	-2796
▁bar	-2797
endre	-2798
▁près	-2799
labor	-2800
▁continue	-2801
attention	-2802
bilités	-2803
▁succès	-2804
▁rencont	-2805
sique	-2806
▁cher	-2807
▁obser	-2808
▁veu	-2809
▁réseau	-2810
édération	-2811
▁commune	-2812
était	-2813
mique	-2814
cription	-2815
dem	-2816
▁existe	-2817
▁traités	-2818
▁début	-2819
agn	-2820
▁candi	-2821
▁Constitution	-2822
▁rapid	-2823
▁directement	-2824
ICE	-2825
▁solution	-2826
pati	-2827
▁donne	-2828
objectif	-2829
gent	-2830
CR	-2831
culture	-2832
▁opérationn	-2833
▁Sur	-2834
▁concur	-2835
▁état	-2836
esp	-2837
▁financiers	-2838
▁grandes	-2839
étude	-2840
▁transpar	-2841
▁condition	-2842
blement	-2843
tout	-2844
▁civils	-2845
▁soli	-2846
▁maladi	-2847
▁établissements	-2848
▁travailleurs	-2849
▁Ministre	-2850
tait	-2851
intérêt	-2852
heure	-2853
▁cata	-2854
quie	-2855
▁scol	-2856
▁faisant	-2857
▁complè	-2858
▁2003,	-2859
▁condam	-2860
».	-2861
▁locales	-2862
euses	-2863
▁demandes	-2864
▁2004,	-2865
▁dès	-2866
cessi	-2867
▁surveillance	-2868
▁torture	-2869
vés	-2870
▁rempla	-2871
▁cinquante	-2872
▁suit	-2873
▁signi	-2874
▁Ban	-2875
ase	-2876
▁scienti	-2877
sez	-2878
▁limité	-2879
▁fron	-2880
▁offre	-2881
▁Nord	-2882
stroph	-2883
▁thé	-2884
▁fonctionnement	-2885
▁portant	-2886
informations	-2887
▁coûts	-2888
▁matériel	-2889
▁2006,	-2890
▁planification	-2891
seurs	-2892
▁canadi	-2893
▁1999	-2894
quée	-2895
▁force	-2896
▁réguli	-2897
moins	-2898
▁libé	-2899
raq	-2900
▁Plan	-2901
▁multilaté	-2902
▁2000,	-2903
▁vul	-2904
▁catastroph	-2905
▁détermin	-2906
rage	-2907
▁pense	-2908
▁amend	-2909
endra	-2910
▁Millé	-2911
▁hôtel	-2912
▁ait	-2913
▁Millénaire	-2914
▁interne	-2915
▁difficultés	-2916
▁mine	-2917
EM	-2918
▁2002,	-2919
▁centrale	-2920
▁filles	-2921
▁direction	-2922
▁2001,	-2923
▁pouvez	-2924
▁appar	-2925
▁libre	-2926
blir	-2927
▁étroit	-2928
▁ta	-2929
▁responsabil	-2930
▁demander	-2931
▁preuve	-2932
2)	-2933
off	-2934
▁chapit	-2935
▁immédi	-2936
▁ici	-2937
▁all	-2938
▁durée	-2939
ablement	-2940
▁sp	-2941
▁peine	-2942
▁cy	-2943
▁phy	-2944
trait	-2945
ouverture	-2946
▁porte	-2947
▁examiner	-2948
▁Charte	-2949
▁distin	-2950
isc	-2951
▁déterminer	-2952
▁navi	-2953
améliorer	-2954
sp	-2955
▁tex	-2956
cté	-2957
ICEF	-2958
▁frais	-2959
▁faud	-2960
▁tu	-2961
▁recru	-2962
eurs	-2963
▁caractère	-2964
occasion	-2965
▁propres	-2966
ociation	-2967
▁convention	-2968
▁éner	-2969
orie	-2970
éni	-2971
IN	-2972
bi	-2973
▁moi	-2974
▁recommande	-2975
▁mécanisme	-2976
▁minim	-2977
dessus	-2978
▁conclusions	-2979
▁populations	-2980
▁signal	-2981
▁assistance	-2982
▁Sommet	-2983
▁PNUD	-2984
▁sources	-2985
▁supé	-2986
parle	-2987
▁félicite	-2988
▁Div	-2989
▁rapidement	-2990
ah	-2991
▁appuy	-2992
▁militaires	-2993
0/	-2994
anci	-2995
▁illic	-2996
ilaté	-2997
▁Cer	-2998
gouvernement	-2999
ologique	-3000
▁Inter	-3001
▁conséquences	-3002
▁enregist	-3003
▁liées	-3004
▁100	-3005
vres	-3006
▁adoptée	-3007
▁ro	-3008
▁Fédération	-3009
ticle	-3010
magne	-3011
▁intérieur	-3012
rè	-3013
▁financier	-3014
▁communautés	-3015
▁toutefois	-3016
▁objectif	-3017
▁actuelle	-3018
▁App	-3019
▁engagements	-3020
▁évent	-3021
llemagne	-3022
prit	-3023
▁tend	-3024
▁propose	-3025
tim	-3026
▁obtenir	-3027
▁Isra	-3028
▁surtout	-3029
▁humains	-3030
▁contrô	-3031
AD	-3032
Ar	-3033
▁détention	-3034
▁directives	-3035
▁publiques	-3036
INU	-3037
ureaux	-3038
▁crime	-3039
▁comptes	-3040
▁possibilités	-3041
▁franç	-3042
▁souligné	-3043
▁chez	-3044
▁York	-3045
enfants	-3046
endu	-3047
▁là	-3048
▁clairement	-3049
cifique	-3050
ards	-3051
▁terres	-3052
ps	-3053
▁terrain	-3054
▁satisfaction	-3055
▁abs	-3056
ions	-3057
.,	-3058
issent	-3059
▁pê	-3060
industri	-3061
▁section	-3062
▁Docu	-3063
▁provin	-3064
▁coup	-3065
▁vulné	-3066
lure	-3067
rou	-3068
▁suivant	-3069
▁fondamentaux	-3070
ralis	-3071
▁appor	-3072
ciale	-3073
tir	-3074
otel	-3075
titude	-3076
CO	-3077
lex	-3078
gique	-3079
▁fabri	-3080
▁avis	-3081
▁approche	-3082
sida	-3083
▁Tur	-3084
identi	-3085
▁périodi	-3086
▁radi	-3087
▁prim	-3088
▁0	-3089
▁affec	-3090
▁réparti	-3091
même	-3092
▁humaines	-3093
absence	-3094
▁critères	-3095
▁ajou	-3096
▁quant	-3097
▁Col	-3098
▁poste	-3099
▁incid	-3100
com	-3101
ule	-3102
▁arabe	-3103
▁organisation	-3104
▁numé	-3105
▁minist	-3106
▁liv	-3107
▁transition	-3108
▁Tout	-3109
pens	-3110
▁Or	-3111
time	-3112
▁Nouv	-3113
▁volonté	-3114
rin	-3115
programme	-3116
▁écrit	-3117
hésion	-3118
▁actions	-3119
▁lesquelles	-3120
▁discus	-3121
▁Division	-3122
tances	-3123
▁infra	-3124
▁Bien	-3125
▁suivantes	-3126
agissant	-3127
▁président	-3128
▁biennal	-3129
▁Selon	-3130
▁produc	-3131
IR	-3132
▁trafic	-3133
▁respecter	-3134
▁pouvoirs	-3135
yn	-3136
▁acqu	-3137
cons	-3138
▁action	-3139
▁Fin	-3140
espace	-3141
▁quo	-3142
▁locaux	-3143
▁isra	-3144
tenti	-3145
▁bureaux	-3146
▁transports	-3147
▁suivre	-3148
▁maxim	-3149
▁dispos	-3150
SI	-3151
▁militaire	-3152
▁norm	-3153
▁prévoit	-3154
▁aurait	-3155
▁opp	-3156
▁sociétés	-3157
▁Ou	-3158
▁pléni	-3159
▁raisons	-3160
dis	-3161
▁compétences	-3162
oph	-3163
▁recommandation	-3164
▁second	-3165
▁Depuis	-3166
▁marchand	-3167
avenir	-3168
▁combat	-3169
▁porter	-3170
▁prévenir	-3171
▁rapide	-3172
bit	-3173
▁conférences	-3174
▁lettre	-3175
▁quelque	-3176
dats	-3177
auté	-3178
▁relè	-3179
▁version	-3180
Accord	-3181
▁élabor	-3182
▁éli	-3183
pl	-3184
ros	-3185
▁fil	-3186
▁Conformément	-3187
▁choix	-3188
abord	-3189
▁subst	-3190
▁encourage	-3191
TR	-3192
roître	-3193
▁révis	-3194
▁pertinentes	-3195
▁intérêts	-3196
emb	-3197
▁perspec	-3198
arité	-3199
▁stabilité	-3200
ension	-3201
érant	-3202
▁coll	-3203
▁tota	-3204
▁stock	-3205
fie	-3206
▁avez	-3207
▁gaz	-3208
atoire	-3209
▁resta	-3210
gés	-3211
▁us	-3212
▁priorité	-3213
▁prévu	-3214
▁attention	-3215
▁exer	-3216
▁procès	-3217
▁étrangères	-3218
diction	-3219
▁confir	-3220
▁jam	-3221
▁liés	-3222
▁solutions	-3223
aluer	-3224
▁nucléaire	-3225
▁caracté	-3226
UNICEF	-3227
▁importants	-3228
let	-3229
▁petit	-3230
0.	-3231
miques	-3232
▁2007,	-3233
▁cé	-3234
▁intitulé	-3235
▁dû	-3236
▁régionale	-3237
▁durant	-3238
▁trop	-3239
▁utiliser	-3240
▁priorités	-3241
▁déclaré	-3242
▁obsta	-3243
▁véhicules	-3244
▁pénal	-3245
▁graves	-3246
▁super	-3247
▁visite	-3248
cemment	-3249
lie	-3250
xième	-3251
▁mag	-3252
▁stratégique	-3253
uba	-3254
▁travers	-3255
hni	-3256
▁--	-3257
▁spécifiques	-3258
ouvrir	-3259
▁médic	-3260
NG	-3261
▁diffici	-3262
▁1,	-3263
tiquement	-3264
▁violation	-3265
▁lesquels	-3266
▁muni	-3267
▁auteurs	-3268
activité	-3269
ribunaux	-3270
rendre	-3271
dan	-3272
resser	-3273
fica	-3274
▁préoccu	-3275
▁retour	-3276
industrie	-3277
mar	-3278
onnes	-3279
cure	-3280
▁grands	-3281
▁paragraphes	-3282
▁Voir	-3283
do	-3284
▁clients	-3285
▁197	-3286
tionnelle	-3287
▁pron	-3288
OR	-3289
▁familles	-3290
inéa	-3291
lier	-3292
▁consci	-3293
▁matières	-3294
▁tribunal	-3295
▁soix	-3296
▁Congo	-3297
lait	-3298
▁précéd	-3299
▁st	-3300
....	-3301
▁Service	-3302
stitut	-3303
Al	-3304
▁vente	-3305
▁études	-3306
▁chapitre	-3307
oun	-3308
▁unique	-3309
▁responsabilités	-3310
bé	-3311
riculture	-3312
▁évi	-3313
élar	-3314
lique	-3315
▁sûre	-3316
▁Banque	-3317
▁reçu	-3318
▁pronon	-3319
venant	-3320
▁résid	-3321
▁électronique	-3322
▁Japon	-3323
▁israéli	-3324
dire	-3325
▁agents	-3326
▁empê	-3327
▁annon	-3328
ologiques	-3329
▁puisse	-3330
amélioration	-3331
▁experts	-3332
▁Traité	-3333
▁adoptées	-3334
▁présence	-3335
intérieur	-3336
gal	-3337
▁territoires	-3338
land	-3339
▁parents	-3340
▁voul	-3341
▁tradu	-3342
augment	-3343
▁changement	-3344
atta	-3345
▁seraient	-3346
expérience	-3347
▁démar	-3348
/7	-3349
▁voyage	-3350
▁ach	-3351
▁recommandé	-3352
▁individu	-3353
An	-3354
▁jamais	-3355
dite	-3356
▁hist	-3357
▁pens	-3358
avis	-3359
▁indica	-3360
▁vérit	-3361
uré	-3362
▁exécutif	-3363
ya	-3364
▁présidence	-3365
▁conjo	-3366
▁construction	-3367
▁technologie	-3368
▁textes	-3369
▁ir	-3370
ore	-3371
▁dirige	-3372
armon	-3373
▁faites	-3374
▁complément	-3375
▁communications	-3376
national	-3377
▁donateurs	-3378
mpora	-3379
ote	-3380
adap	-3381
undi	-3382
èque	-3383
▁Rés	-3384
▁quand	-3385
leur	-3386
▁traditionn	-3387
gence	-3388
▁conséquent	-3389
▁efficaces	-3390
▁Para	-3391
▁ii	-3392
▁40	-3393
mig	-3394
▁consom	-3395
▁etc	-3396
sé	-3397
èces	-3398
▁responsable	-3399
initi	-3400
▁lutter	-3401
▁administratives	-3402
▁permanente	-3403
▁dimin	-3404
▁adap	-3405
▁passé	-3406
▁valeurs	-3407
▁Sta	-3408
▁identi	-3409
▁rati	-3410
▁situations	-3411
▁transfert	-3412
▁(199	-3413
▁enf	-3414
▁parvenir	-3415
▁60	-3416
dits	-3417
▁affir	-3418
trême	-3419
▁difficile	-3420
▁Loi	-3421
▁essentiel	-3422
oug	-3423
▁appliquer	-3424
rants	-3425
anger	-3426
▁jeu	-3427
▁chef	-3428
ariats	-3429
ka	-3430
▁Rappel	-3431
▁favora	-3432
▁récemment	-3433
▁américa	-3434
jus	-3435
cipé	-3436
orm	-3437
▁Internet	-3438
▁armés	-3439
▁jouer	-3440
ANS	-3441
▁ww	-3442
▁démocratie	-3443
quêtes	-3444
vestissement	-3445
▁adressée	-3446
▁www	-3447
▁réaffir	-3448
gées	-3449
▁majorité	-3450
▁coût	-3451
▁caractéris	-3452
▁directive	-3453
vez	-3454
ister	-3455
alys	-3456
▁Annexe	-3457
▁réaliser	-3458
▁Directeur	-3459
▁tiers	-3460
vous	-3461
itter	-3462
▁élevé	-3463
AL	-3464
▁confiance	-3465
AS	-3466
entrée	-3467
▁Et	-3468
▁vrai	-3469
▁apporter	-3470
▁présentation	-3471
▁désig	-3472
▁liens	-3473
▁Cin	-3474
▁chiff	-3475
▁Certa	-3476
▁élections	-3477
63	-3478
▁seule	-3479
IE	-3480
moi	-3481
▁structure	-3482
région	-3483
▁chefs	-3484
lin	-3485
▁principal	-3486
amment	-3487
nov	-3488
unité	-3489
▁juste	-3490
▁eng	-3491
▁tribunaux	-3492
▁Bel	-3493
▁datée	-3494
▁donn	-3495
▁propriété	-3496
▁page	-3497
▁ax	-3498
tric	-3499
▁...	-3500
▁Enfin	-3501
▁comprend	-3502
▁circons	-3503
▁souff	-3504
▁contrat	-3505
lifé	-3506
▁marchandises	-3507
ala	-3508
▁mobil	-3509
▁estime	-3510
tence	-3511
gar	-3512
▁alimentaire	-3513
▁cru	-3514
▁Cependant	-3515
▁concurrence	-3516
▁prob	-3517
▁chacun	-3518
zième	-3519
oblig	-3520
analyse	-3521
AT	-3522
▁manifest	-3523
OP	-3524
fiée	-3525
▁pé	-3526
▁manque	-3527
▁indis	-3528
▁minu	-3529
WP	-3530
▁potenti	-3531
lifération	-3532
▁Forum	-3533
▁menées	-3534
▁Mont	-3535
▁meilleure	-3536
▁africaine	-3537
tte	-3538
▁parole	-3539
▁circul	-3540
▁médias	-3541
▁émissions	-3542
▁mener	-3543
▁concrè	-3544
▁CNU	-3545
ruption	-3546
▁Après	-3547
▁déch	-3548
▁principales	-3549
ête	-3550
▁spéciales	-3551
vestissements	-3552
.9	-3553
asse	-3554
▁Table	-3555
▁éventu	-3556
▁organisé	-3557
Ori	-3558
▁humanitaires	-3559
▁spati	-3560
èce	-3561
▁quali	-3562
▁entraî	-3563
tionnel	-3564
itant	-3565
▁semble	-3566
▁syn	-3567
mateurs	-3568
▁contient	-3569
lam	-3570
yst	-3571
▁définition	-3572
ry	-3573
▁noté	-3574
▁Commun	-3575
▁partenariat	-3576
pées	-3577
Office	-3578
ensus	-3579
ètres	-3580
.7	-3581
▁environ	-3582
▁abord	-3583
exc	-3584
▁constituent	-3585
▁approuvé	-3586
▁2008,	-3587
▁catégorie	-3588
▁forê	-3589
▁collèg	-3590
Asie	-3591
ht	-3592
utôt	-3593
▁rac	-3594
▁développer	-3595
cole	-3596
mat	-3597
▁CEE	-3598
▁étrangers	-3599
▁tableau	-3600
port	-3601
èrent	-3602
▁souhaite	-3603
eté	-3604
▁traitements	-3605
rlande	-3606
oh	-3607
▁faite	-3608
▁systé	-3609
▁délai	-3610
évolution	-3611
affec	-3612
▁importance	-3613
agriculture	-3614
-0	-3615
▁importantes	-3616
▁Rappelant	-3617
▁participé	-3618
1)	-3619
istence	-3620
fghanis	-3621
▁indispens	-3622
▁sanctions	-3623
fghanistan	-3624
mentation	-3625
minaire	-3626
▁phot	-3627
opie	-3628
▁conséquence	-3629
▁conç	-3630
▁ethni	-3631
▁Article	-3632
aisse	-3633
▁Note	-3634
réci	-3635
tisation	-3636
▁connaissances	-3637
▁véhicule	-3638
▁soutenir	-3639
tables	-3640
50	-3641
▁conseils	-3642
▁tard	-3643
▁tent	-3644
missariat	-3645
échelle	-3646
▁class	-3647
tibles	-3648
lise	-3649
anges	-3650
▁Projet	-3651
▁1998	-3652
▁petits	-3653
térieure	-3654
▁raciale	-3655
Est	-3656
éro	-3657
▁tri	-3658
tine	-3659
▁pêche	-3660
▁naturelles	-3661
▁figurant	-3662
▁puissent	-3663
joint	-3664
fiés	-3665
angere	-3666
▁consomm	-3667
établir	-3668
▁palestinien	-3669
▁vise	-3670
▁atteindre	-3671
▁plutôt	-3672
▁entière	-3673
▁particulière	-3674
bie	-3675
▁dipl	-3676
▁sites	-3677
rend	-3678
▁accomplis	-3679
▁thème	-3680
ane	-3681
▁dangere	-3682
▁hy	-3683
urance	-3684
▁crimes	-3685
▁inscrit	-3686
▁favoriser	-3687
▁outil	-3688
▁Cro	-3689
tic	-3690
▁réalisés	-3691
ze	-3692
▁prévues	-3693
▁consolidation	-3694
▁extraordinaire	-3695
▁conne	-3696
▁exclu	-3697
▁ul	-3698
▁2,	-3699
▁drogues	-3700
▁gratu	-3701
▁séjour	-3702
▁types	-3703
▁Ob	-3704
▁local	-3705
▁invité	-3706
▁article	-3707
▁mouv	-3708
▁gouvernance	-3709
rateurs	-3710
▁ur	-3711
▁neu	-3712
éria	-3713
appel	-3714
criptions	-3715
▁illég	-3716
▁instamment	-3717
»,	-3718
▁faible	-3719
engagement	-3720
▁privée	-3721
ina	-3722
▁multip	-3723
▁br	-3724
▁mises	-3725
▁répond	-3726
inion	-3727
▁pollu	-3728
▁représente	-3729
▁chois	-3730
▁inten	-3731
▁contenu	-3732
▁débats	-3733
▁The	-3734
▁culturels	-3735
▁sep	-3736
ories	-3737
indi	-3738
▁travailler	-3739
Ou	-3740
ME	-3741
▁pauvres	-3742
▁équit	-3743
▁final	-3744
accent	-3745
▁Commissaire	-3746
▁Kos	-3747
▁deven	-3748
▁milieu	-3749
ovo	-3750
▁élément	-3751
talie	-3752
▁Elles	-3753
ier	-3754
▁parlement	-3755
Institut	-3756
lois	-3757
▁civil	-3758
vient	-3759
▁cependant	-3760
▁faci	-3761
▁pouvons	-3762
▁mess	-3763
▁source	-3764
amend	-3765
▁langues	-3766
▁utile	-3767
▁langue	-3768
▁pie	-3769
▁poss	-3770
▁mineurs	-3771
▁Tous	-3772
▁phase	-3773
euse	-3774
vation	-3775
▁réus	-3776
▁Présidente	-3777
▁procéder	-3778
gy	-3779
▁défis	-3780
▁refus	-3781
▁feu	-3782
▁budgétaires	-3783
térie	-3784
▁menace	-3785
oth	-3786
pre	-3787
▁devait	-3788
rité	-3789
âge	-3790
mage	-3791
▁objet	-3792
CED	-3793
▁écoles	-3794
▁quelle	-3795
▁contact	-3796
▁isla	-3797
ouvre	-3798
appliquer	-3799
tenue	-3800
▁modifier	-3801
▁utilisés	-3802
inée	-3803
▁lit	-3804
-3	-3805
▁commerciales	-3806
▁vu	-3807
fon	-3808
▁red	-3809
▁quanti	-3810
▁publié	-3811
▁séances	-3812
▁repro	-3813
âti	-3814
▁connaître	-3815
▁aéri	-3816
vo	-3817
uisse	-3818
▁arrê	-3819
osla	-3820
▁figure	-3821
▁libertés	-3822
▁suscep	-3823
▁supérieur	-3824
fait	-3825
▁voix	-3826
▁terroristes	-3827
▁dossi	-3828
▁envoy	-3829
▁importe	-3830
instal	-3831
sy	-3832
▁Ainsi	-3833
▁Tro	-3834
▁établir	-3835
▁ensuite	-3836
épendance	-3837
amp	-3838
gici	-3839
▁Prie	-3840
servation	-3841
▁Corée	-3842
▁détaill	-3843
▁crédit	-3844
▁français	-3845
▁diffusion	-3846
obligation	-3847
▁organisée	-3848
aider	-3849
▁remar	-3850
ète	-3851
médiaire	-3852
▁55	-3853
temps	-3854
▁transparence	-3855
ENT	-3856
ougosla	-3857
investissement	-3858
▁facteurs	-3859
▁PR	-3860
▁globale	-3861
▁sor	-3862
▁déployés	-3863
▁comprendre	-3864
▁entendu	-3865
issue	-3866
▁évén	-3867
▁passe	-3868
issons	-3869
▁minorités	-3870
▁sensibilisation	-3871
▁compétence	-3872
exique	-3873
▁sexe	-3874
▁Turquie	-3875
▁préoccupé	-3876
▁évaluation	-3877
DI	-3878
Iraq	-3879
▁sug	-3880
ature	-3881
▁revenu	-3882
▁vingt	-3883
auc	-3884
▁Mada	-3885
▁mêmes	-3886
ed	-3887
▁bou	-3888
▁Bar	-3889
▁Bur	-3890
▁criminalité	-3891
▁contraire	-3892
▁permettra	-3893
enquête	-3894
▁Cara	-3895
échange	-3896
vées	-3897
▁Pays	-3898
▁fré	-3899
auva	-3900
▁Deuxième	-3901
▁investissements	-3902
▁passer	-3903
▁Communauté	-3904
▁habit	-3905
entreprise	-3906
▁modèle	-3907
osés	-3908
tures	-3909
▁Kosovo	-3910
▁gui	-3911
existence	-3912
▁consommation	-3913
ination	-3914
▁Madame	-3915
▁légi	-3916
/8	-3917
▁sessions	-3918
▁acte	-3919
▁amb	-3920
▁préoccupation	-3921
▁Av	-3922
don	-3923
isse	-3924
▁Cet	-3925
▁ONG	-3926
▁accé	-3927
▁préal	-3928
▁III	-3929
".	-3930
spagne	-3931
cadre	-3932
▁siè	-3933
iliation	-3934
osph	-3935
ustra	-3936
▁vois	-3937
AM	-3938
▁préju	-3939
▁européens	-3940
▁employ	-3941
▁concernés	-3942
▁uniquement	-3943
▁Nor	-3944
▁chargée	-3945
▁rejet	-3946
▁téléph	-3947
Orient	-3948
▁quatrième	-3949
erait	-3950
▁instrument	-3951
▁générales	-3952
▁mauva	-3953
prises	-3954
ôte	-3955
▁classi	-3956
▁Di	-3957
▁International	-3958
rite	-3959
ck	-3960
▁consultation	-3961
▁diversité	-3962
telle	-3963
▁rien	-3964
▁venir	-3965
illez	-3966
▁blan	-3967
▁faudrait	-3968
▁fondée	-3969
▁sexuelle	-3970
▁décou	-3971
▁utilisé	-3972
▁indicateurs	-3973
▁Assemblée	-3974
▁avantages	-3975
▁traiter	-3976
▁partenariats	-3977
▁bilaté	-3978
ssociation	-3979
ressi	-3980
dus	-3981
▁généralement	-3982
▁Notre	-3983
▁Ac	-3984
▁Ques	-3985
▁minutes	-3986
États	-3987
▁renouv	-3988
▁garanties	-3989
▁anci	-3990
▁sim	-3991
▁adopter	-3992
atique	-3993
▁Ph	-3994
▁destruction	-3995
olér	-3996
cide	-3997
ST	-3998
uel	-3999
▁termin	-4000
unis	-4001
▁soixante	-4002
▁numéro	-4003
▁expri	-4004
▁généraux	-4005
uffis	-4006
▁calcul	-4007
▁portée	-4008
assade	-4009
▁forêts	-4010
çant	-4011
versité	-4012
▁partage	-4013
EP	-4014
▁Uni	-4015
▁/	-4016
▁pros	-4017
▁réglementation	-4018
▁corruption	-4019
▁ant	-4020
ity	-4021
▁DES	-4022
▁intérêt	-4023
▁maintenir	-4024
▁estim	-4025
▁MINU	-4026
vième	-4027
▁logement	-4028
aines	-4029
impact	-4030
▁préoccupations	-4031
▁derniers	-4032
▁augmentation	-4033
Bas	-4034
▁45	-4035
▁chambre	-4036
▁Moy	-4037
anmoins	-4038
▁méthode	-4039
çons	-4040
▁juge	-4041
▁évalu	-4042
del	-4043
▁étude	-4044
ett	-4045
▁adéqu	-4046
▁ê	-4047
II	-4048
▁complète	-4049
ww	-4050
▁résul	-4051
▁semaine	-4052
▁intérim	-4053
▁196	-4054
▁pay	-4055
▁connaissance	-4056
expression	-4057
ha	-4058
nant	-4059
▁acteurs	-4060
ATION	-4061
▁autant	-4062
▁comprom	-4063
▁considérée	-4064
▁ate	-4065
esprit	-4066
▁diffus	-4067
▁populaire	-4068
▁dépend	-4069
▁urba	-4070
▁chimiques	-4071
▁consensus	-4072
▁auxquels	-4073
▁prior	-4074
position	-4075
▁climatiques	-4076
esse	-4077
/9	-4078
gir	-4079
▁extrême	-4080
▁meilleur	-4081
▁facultatif	-4082
neu	-4083
▁disponible	-4084
▁permettent	-4085
▁immédia	-4086
▁end	-4087
▁catastrophes	-4088
aison	-4089
▁concep	-4090
www	-4091
▁frontières	-4092
istéri	-4093
▁Man	-4094
▁dégra	-4095
▁conva	-4096
▁biais	-4097
▁Ren	-4098
▁modifications	-4099
▁dirigeants	-4100
aise	-4101
▁presse	-4102
▁Tr	-4103
bation	-4104
▁éché	-4105
he	-4106
▁présentés	-4107
▁donnée	-4108
▁migrants	-4109
▁ordinaire	-4110
▁amendements	-4111
▁Tou	-4112
▁sud	-4113
erra	-4114
▁applicables	-4115
cts	-4116
omolo	-4117
ormais	-4118
▁expli	-4119
▁résultat	-4120
▁modalités	-4121
▁doute	-4122
▁conform	-4123
▁catégories	-4124
osées	-4125
▁Cuba	-4126
▁fichi	-4127
ographique	-4128
avait	-4129
initiative	-4130
accep	-4131
▁exigences	-4132
résil	-4133
▁prochaine	-4134
asi	-4135
augmentation	-4136
▁recevoir	-4137
mière	-4138
▁réseaux	-4139
lées	-4140
vateurs	-4141
ignes	-4142
▁siège	-4143
▁sûreté	-4144
▁principalement	-4145
▁subs	-4146
▁*	-4147
contre	-4148
▁diminu	-4149
▁sûr	-4150
▁annuel	-4151
dice	-4152
▁installations	-4153
▁route	-4154
▁tient	-4155
voi	-4156
ki	-4157
AO	-4158
▁Tim	-4159
▁conduite	-4160
▁comple	-4161
▁recons	-4162
▁remercier	-4163
▁dette	-4164
▁conventions	-4165
▁fort	-4166
▁Bos	-4167
▁sélection	-4168
ynam	-4169
péra	-4170
interdiction	-4171
▁compara	-4172
affectation	-4173
▁illicite	-4174
▁considération	-4175
▁publication	-4176
ama	-4177
ratoire	-4178
▁pourra	-4179
▁Siège	-4180
no	-4181
▁entités	-4182
▁élar	-4183
▁circonstances	-4184
▁occasion	-4185
▁islamique	-4186
ke	-4187
autorité	-4188
onses	-4189
73	-4190
coles	-4191
onc	-4192
térieur	-4193
tants	-4194
tenues	-4195
▁informé	-4196
▁ministres	-4197
oudre	-4198
▁préparation	-4199
orique	-4200
▁consommateurs	-4201
▁côté	-4202
alinéa	-4203
▁plénière	-4204
▁Slo	-4205
▁Mexique	-4206
OC	-4207
blis	-4208
olérance	-4209
__	-4210
▁définir	-4211
▁terre	-4212
▁vulnérables	-4213
ustralie	-4214
▁vil	-4215
▁situé	-4216
▁Caraï	-4217
▁solid	-4218
▁communiquer	-4219
actions	-4220
▁logici	-4221
▁intro	-4222
mise	-4223
enfance	-4224
institu	-4225
▁construc	-4226
▁encourager	-4227
▁accus	-4228
▁parc	-4229
▁avancés	-4230
▁fondamentales	-4231
accueil	-4232
lusion	-4233
▁campagne	-4234
▁psy	-4235
▁Comment	-4236
▁CNUCED	-4237
fondi	-4238
▁vas	-4239
▁quar	-4240
▁intégra	-4241
▁largement	-4242
tance	-4243
ordonn	-4244
umé	-4245
▁ouvert	-4246
liers	-4247
▁prochain	-4248
aliser	-4249
République	-4250
▁destinés	-4251
▁classe	-4252
▁Caraïbes	-4253
owe	-4254
gin	-4255
▁Soudan	-4256
inv	-4257
▁fisc	-4258
adopter	-4259
▁ordre	-4260
▁parta	-4261
affaires	-4262
▁fal	-4263
▁méd	-4264
▁particuliers	-4265
▁suivante	-4266
▁souligner	-4267
▁désormais	-4268
▁analys	-4269
▁Saint	-4270
hér	-4271
▁excep	-4272
▁1999,	-4273
▁entreprise	-4274
▁Rom	-4275
▁obstacles	-4276
visi	-4277
▁distribution	-4278
▁minimum	-4279
▁simple	-4280
▁aur	-4281
▁élect	-4282
▁chau	-4283
▁physique	-4284
tagne	-4285
▁lic	-4286
▁vues	-4287
▁lancé	-4288
▁Avec	-4289
▁Suisse	-4290
organisations	-4291
▁actuel	-4292
▁agricoles	-4293
essai	-4294
▁considère	-4295
▁x	-4296
▁pied	-4297
▁Moyen	-4298
▁restri	-4299
▁tempora	-4300
▁iss	-4301
▁dérou	-4302
crire	-4303
▁prison	-4304
ms	-4305
▁Partie	-4306
andis	-4307
oses	-4308
▁commissions	-4309
assurance	-4310
▁maladies	-4311
▁bénéficier	-4312
▁candidats	-4313
chement	-4314
ton	-4315
▁bre	-4316
mosph	-4317
▁chose	-4318
▁command	-4319
.8	-4320
opération	-4321
▁siècle	-4322
cro	-4323
▁occident	-4324
▁réformes	-4325
registre	-4326
▁demeure	-4327
ocation	-4328
rière	-4329
▁orig	-4330
▁(21	-4331
▁éviter	-4332
option	-4333
▁Salle	-4334
je	-4335
étaire	-4336
▁tenant	-4337
▁agricole	-4338
▁immédiatement	-4339
▁cycle	-4340
▁officieuses	-4341
▁lumière	-4342
activités	-4343
▁délais	-4344
raine	-4345
▁énergé	-4346
▁ouverte	-4347
▁rurales	-4348
▁analyse	-4349
olesc	-4350
▁enquêtes	-4351
akistan	-4352
▁Section	-4353
▁amp	-4354
▁composition	-4355
dessous	-4356
▁ordin	-4357
oz	-4358
ulation	-4359
▁vérification	-4360
tp	-4361
▁juges	-4362
▁pen	-4363
▁transform	-4364
▁communautaire	-4365
indépendance	-4366
acquitter	-4367
▁reti	-4368
▁provenant	-4369
▁auquel	-4370
▁attend	-4371
▁enfant	-4372
▁modern	-4373
▁simplement	-4374
▁autonom	-4375
▁tâches	-4376
▁Nig	-4377
▁réponses	-4378
sidi	-4379
▁dix	-4380
▁compter	-4381
▁arabes	-4382
adaptation	-4383
▁budgé	-4384
▁aient	-4385
▁loin	-4386
▁gen	-4387
▁souligne	-4388
▁voit	-4389
▁engagement	-4390
▁Car	-4391
▁infras	-4392
▁efficacement	-4393
insta	-4394
▁essentiellement	-4395
▁espé	-4396
/2001	-4397
▁impli	-4398
▁officiels	-4399
5.	-4400
▁bu	-4401
▁2005.	-4402
▁complet	-4403
▁estimé	-4404
ésie	-4405
ortement	-4406
▁comité	-4407
▁petites	-4408
oweï	-4409
▁équitable	-4410
▁activement	-4411
élaborer	-4412
▁sommet	-4413
▁Br	-4414
▁carte	-4415
▁vit	-4416
▁incom	-4417
▁ministéri	-4418
En	-4419
▁diver	-4420
▁nord	-4421
▁dynam	-4422
/59	-4423
▁souver	-4424
orient	-4425
▁relevant	-4426
équipe	-4427
▁attribu	-4428
▁circulation	-4429
▁rester	-4430
▁Comm	-4431
EC	-4432
▁forte	-4433
▁collecte	-4434
▁milliards	-4435
▁laiss	-4436
▁global	-4437
▁0,	-4438
ourg	-4439
mant	-4440
▁Lorsque	-4441
▁inves	-4442
gée	-4443
▁ache	-4444
▁fl	-4445
▁approfondi	-4446
▁échanges	-4447
/58	-4448
cre	-4449
ati	-4450
ting	-4451
▁prié	-4452
▁recettes	-4453
▁téléc	-4454
▁exprim	-4455
adresse	-4456
▁Brésil	-4457
▁appara	-4458
▁transit	-4459
▁moyenne	-4460
▁intégrée	-4461
étrang	-4462
▁reconnu	-4463
▁indispensable	-4464
▁continuent	-4465
▁spéciaux	-4466
tons	-4467
anni	-4468
▁appréci	-4469
obtenir	-4470
aces	-4471
//	-4472
▁heure	-4473
▁crois	-4474
lés	-4475
▁déploi	-4476
▁Du	-4477
▁humaine	-4478
",	-4479
▁Son	-4480
▁éliminer	-4481
▁compéti	-4482
▁limite	-4483
▁Ab	-4484
▁accueil	-4485
▁lieux	-4486
ath	-4487
▁Compte	-4488
▁dimen	-4489
este	-4490
▁matern	-4491
ev	-4492
▁décrit	-4493
▁constru	-4494
▁détenus	-4495
▁amélior	-4496
▁internes	-4497
▁subsidi	-4498
▁Ri	-4499
▁suffisamment	-4500
▁tch	-4501
CP	-4502
▁TR	-4503
▁exige	-4504
5/	-4505
▁massi	-4506
▁initiative	-4507
▁introdu	-4508
▁rapporteur	-4509
▁reconnaissance	-4510
▁33	-4511
▁1997	-4512
Allemagne	-4513
▁garantie	-4514
▁crédits	-4515
▁intitulée	-4516
▁pil	-4517
▁modification	-4518
▁vac	-4519
://	-4520
▁nationalité	-4521
▁professionnelle	-4522
▁considéré	-4523
▁Nouvelle	-4524
▁municip	-4525
tionnelles	-4526
▁Timor	-4527
▁Eta	-4528
esti	-4529
4)	-4530
▁code	-4531
▁pression	-4532
▁exclusi	-4533
erz	-4534
/199	-4535
MA	-4536
éb	-4537
▁résoudre	-4538
▁500	-4539
▁fru	-4540
▁limites	-4541
▁Bosnie	-4542
▁structures	-4543
▁commencer	-4544
▁idé	-4545
▁32	-4546
▁champ	-4547
▁régulièrement	-4548
▁substances	-4549
▁Be	-4550
▁décide	-4551
rang	-4552
▁certi	-4553
kraine	-4554
ovine	-4555
utiliser	-4556
ID	-4557
▁Paris	-4558
▁incidences	-4559
cin	-4560
▁activité	-4561
▁profit	-4562
▁tirer	-4563
alimentation	-4564
ban	-4565
▁lignes	-4566
▁racisme	-4567
▁LA	-4568
argent	-4569
▁répartition	-4570
▁envisag	-4571
enregistre	-4572
▁dispositif	-4573
▁revenus	-4574
▁révision	-4575
émin	-4576
▁atteint	-4577
▁voulu	-4578
ly	-4579
▁spécialisées	-4580
▁lac	-4581
▁Vienne	-4582
▁(212)	-4583
▁Rou	-4584
▁pouvait	-4585
istant	-4586
▁conception	-4587
▁35	-4588
vège	-4589
▁mines	-4590
▁ET	-4591
▁36	-4592
intervention	-4593
▁mots	-4594
▁clair	-4595
▁propor	-4596
▁formulées	-4597
gane	-4598
▁Sh	-4599
▁diploma	-4600
▁figurent	-4601
énom	-4602
▁lien	-4603
▁Li	-4604
instru	-4605
▁carb	-4606
▁retard	-4607
▁recueil	-4608
▁Colomb	-4609
tori	-4610
▁soumettre	-4611
▁montre	-4612
▁villes	-4613
▁Pakistan	-4614
▁mondialisation	-4615
▁tâche	-4616
▁automa	-4617
intermédiaire	-4618
épendant	-4619
▁collègues	-4620
▁dépu	-4621
▁pertinents	-4622
oure	-4623
▁963	-4624
▁servir	-4625
▁électora	-4626
▁réserves	-4627
▁entier	-4628
char	-4629
erie	-4630
▁chargés	-4631
1.	-4632
prétation	-4633
▁équili	-4634
hy	-4635
▁indem	-4636
▁conclusion	-4637
▁appropriées	-4638
▁Cont	-4639
▁paiement	-4640
▁religie	-4641
▁pleine	-4642
tendre	-4643
2.	-4644
▁anim	-4645
OIT	-4646
▁consiste	-4647
▁statistique	-4648
▁mode	-4649
▁financer	-4650
Agence	-4651
/57	-4652
▁extrêmement	-4653
atte	-4654
▁origin	-4655
▁événements	-4656
▁réalité	-4657
▁départ	-4658
▁grave	-4659
cureur	-4660
▁allant	-4661
aration	-4662
▁combattre	-4663
▁coordon	-4664
▁haute	-4665
Irlande	-4666
▁Pacifique	-4667
demment	-4668
▁réun	-4669
▁psych	-4670
ario	-4671
ji	-4672
▁commercial	-4673
▁latine	-4674
▁maximum	-4675
▁Premier	-4676
hist	-4677
▁édu	-4678
▁information	-4679
llè	-4680
▁prescriptions	-4681
▁adjoint	-4682
sep	-4683
▁maison	-4684
▁profond	-4685
▁saisi	-4686
▁infractions	-4687
▁Tableau	-4688
istique	-4689
▁Dar	-4690
tidi	-4691
▁48	-4692
▁fu	-4693
▁mus	-4694
▁3,	-4695
▁poursuite	-4696
▁arbit	-4697
▁poursuiv	-4698
mêmes	-4699
▁accr	-4700
▁scientifiques	-4701
▁IN	-4702
▁tandis	-4703
▁1996	-4704
▁choses	-4705
▁règlements	-4706
trice	-4707
adhésion	-4708
we	-4709
▁convenu	-4710
▁directeur	-4711
onneur	-4712
nement	-4713
▁déchets	-4714
delà	-4715
▁Jus	-4716
▁prévue	-4717
osta	-4718
▁Liban	-4719
▁progressi	-4720
▁humain	-4721
abitu	-4722
mette	-4723
▁professionnels	-4724
▁effectivement	-4725
lèves	-4726
▁Prin	-4727
▁veut	-4728
études	-4729
▁concrètes	-4730
▁concernées	-4731
▁élaborer	-4732
▁supplémentaire	-4733
▁limitée	-4734
erzég	-4735
▁officielles	-4736
erzégovine	-4737
prolifération	-4738
▁longue	-4739
▁tiendra	-4740
▁déplacées	-4741
▁religion	-4742
▁2006.	-4743
entine	-4744
▁utilisées	-4745
▁journ	-4746
gypte	-4747
▁Hotel	-4748
▁scientifique	-4749
OS	-4750
▁UN	-4751
▁gard	-4752
▁sort	-4753
minaires	-4754
▁emploi	-4755
▁développés	-4756
fiées	-4757
tendu	-4758
▁comporte	-4759
cap	-4760
▁indépendant	-4761
▁privil	-4762
tar	-4763
Herzégovine	-4764
main	-4765
▁devra	-4766
▁bâti	-4767
▁signature	-4768
▁connexes	-4769
0)	-4770
▁échéant	-4771
ech	-4772
RE	-4773
▁indique	-4774
▁véritable	-4775
uie	-4776
▁client	-4777
encontre	-4778
▁gu	-4779
▁volu	-4780
▁établis	-4781
vabilité	-4782
▁pouvant	-4783
▁familiale	-4784
▁devenir	-4785
ologne	-4786
▁renouvel	-4787
▁gens	-4788
manie	-4789
gentine	-4790
migration	-4791
rions	-4792
▁totale	-4793
▁règle	-4794
▁recens	-4795
▁Jour	-4796
effor	-4797
/61	-4798
▁quotidi	-4799
▁partis	-4800
affaire	-4801
▁requérant	-4802
▁Sierra	-4803
▁mutu	-4804
▁2004.	-4805
▁soup	-4806
▁extérie	-4807
▁principale	-4808
▁évo	-4809
▁Organisation	-4810
▁Plu	-4811
ritanni	-4812
rateur	-4813
▁phénom	-4814
▁garde	-4815
▁effective	-4816
quet	-4817
▁57	-4818
▁accessi	-4819
résolution	-4820
▁présentées	-4821
eng	-4822
▁Certains	-4823
zer	-4824
▁export	-4825
▁menée	-4826
ith	-4827
▁expérience	-4828
avi	-4829
▁pétro	-4830
▁régler	-4831
▁cad	-4832
laire	-4833
▁Réaffir	-4834
▁discussions	-4835
▁destinées	-4836
▁additionn	-4837
▁communes	-4838
▁Questions	-4839
▁compétentes	-4840
▁Suède	-4841
asile	-4842
▁accroître	-4843
▁esc	-4844
▁concent	-4845
▁nouvel	-4846
▁commencé	-4847
▁Hong	-4848
▁mettant	-4849
▁interventions	-4850
▁fournisseurs	-4851
▁rév	-4852
▁entend	-4853
▁stu	-4854
▁témoi	-4855
réh	-4856
▁auront	-4857
▁56	-4858
▁(19	-4859
/56	-4860
▁fourniture	-4861
▁mot	-4862
▁mén	-4863
▁climat	-4864
▁Mac	-4865
▁entrep	-4866
▁2009,	-4867
▁appuyer	-4868
▁consacré	-4869
▁HCR	-4870
dor	-4871
▁employés	-4872
▁Por	-4873
▁Mi	-4874
▁hors	-4875
▁37	-4876
▁Leone	-4877
▁inqui	-4878
ark	-4879
▁parfois	-4880
▁espagn	-4881
▁Norvège	-4882
novation	-4883
tiennent	-4884
gents	-4885
tente	-4886
▁secours	-4887
▁urg	-4888
▁retr	-4889
▁volontaires	-4890
▁peines	-4891
LE	-4892
▁chô	-4893
▁équip	-4894
▁adolesc	-4895
▁contribué	-4896
▁évaluer	-4897
▁meilleures	-4898
▁périodique	-4899
▁2007.	-4900
donésie	-4901
▁causes	-4902
▁raisonn	-4903
▁Grande	-4904
▁ira	-4905
infras	-4906
▁Colombie	-4907
amme	-4908
▁Plusieurs	-4909
▁conforme	-4910
riel	-4911
▁central	-4912
▁emb	-4913
équip	-4914
guay	-4915
.1,	-4916
▁concours	-4917
étranger	-4918
▁allég	-4919
▁calend	-4920
▁58	-4921
▁accue	-4922
▁préser	-4923
▁utilisation	-4924
-201	-4925
▁tiens	-4926
▁réfé	-4927
▁mém	-4928
▁Chy	-4929
▁COM	-4930
▁complé	-4931
▁exam	-4932
ilipp	-4933
▁active	-4934
▁reprodu	-4935
triche	-4936
▁solidarité	-4937
▁invite	-4938
▁Demande	-4939
5)	-4940
▁réta	-4941
ef	-4942
▁Dan	-4943
▁Afin	-4944
▁signifie	-4945
ennie	-4946
mbassade	-4947
▁contrats	-4948
▁remb	-4949
/62	-4950
jan	-4951
▁54	-4952
▁34	-4953
▁Recom	-4954
▁soule	-4955
▁énoncés	-4956
▁entrepris	-4957
▁augmenté	-4958
▁signé	-4959
▁tchèque	-4960
effec	-4961
ertion	-4962
▁2010	-4963
3)	-4964
▁ratification	-4965
▁handicapés	-4966
▁2003.	-4967
▁susceptibles	-4968
▁exprimé	-4969
orde	-4970
▁Toutes	-4971
▁élaboré	-4972
▁juridiction	-4973
pection	-4974
trices	-4975
▁éduca	-4976
occupation	-4977
▁eau	-4978
èles	-4979
septième	-4980
▁maladie	-4981
▁enquête	-4982
▁interven	-4983
/63	-4984
isant	-4985
▁devoir	-4986
▁Etats	-4987
neuvième	-4988
▁vidé	-4989
itent	-4990
▁réd	-4991
▁vraiment	-4992
▁relation	-4993
▁obligatoire	-4994
▁utilisateurs	-4995
▁semaines	-4996
▁fédéral	-4997
thi	-4998
▁coopérer	-4999
▁européennes	-5000
▁observer	-5001
▁Vice	-5002
▁répression	-5003
chés	-5004
▁div	-5005
▁appelle	-5006
troisième	-5007
▁pièces	-5008
chent	-5009
▁étroite	-5010
RC	-5011
▁réception	-5012
▁Chaque	-5013
▁empêcher	-5014
▁visées	-5015
teau	-5016
▁Troisième	-5017
▁commerciaux	-5018
▁fémin	-5019
▁î	-5020
▁vient	-5021
▁précédent	-5022
▁accompag	-5023
▁associations	-5024
uration	-5025
lité	-5026
▁invités	-5027
huitième	-5028
mie	-5029
sc	-5030
ood	-5031
▁judiciaires	-5032
▁représentent	-5033
ox	-5034
▁quarante	-5035
▁pourront	-5036
gol	-5037
▁syri	-5038
para	-5039
itations	-5040
▁conscience	-5041
export	-5042
▁Documents	-5043
▁Supp	-5044
▁fabrication	-5045
▁influ	-5046
▁stratégiques	-5047
▁sépar	-5048
20	-5049
▁Som	-5050
▁quarti	-5051
▁Plus	-5052
/2004	-5053
▁démont	-5054
quipe	-5055
▁Guinée	-5056
▁senti	-5057
▁déliv	-5058
▁patri	-5059
kistan	-5060
▁couver	-5061
▁africains	-5062
ralisation	-5063
3.	-5064
ystème	-5065
▁établie	-5066
viennent	-5067
▁légères	-5068
▁différen	-5069
ga	-5070
▁appare	-5071
9)	-5072
▁ressor	-5073
▁chances	-5074
face	-5075
▁pertes	-5076
étaient	-5077
▁occupé	-5078
conque	-5079
tellectu	-5080
▁Ven	-5081
▁court	-5082
▁Ca	-5083
▁bois	-5084
▁tourisme	-5085
tiens	-5086
▁compag	-5087
▁Examen	-5088
école	-5089
▁budgétaire	-5090
▁auxquelles	-5091
▁handicapées	-5092
▁rang	-5093
amer	-5094
▁ministre	-5095
▁noter	-5096
histoire	-5097
▁commentaires	-5098
▁essentiels	-5099
▁90	-5100
▁comportement	-5101
▁fre	-5102
encoura	-5103
EL	-5104
▁susc	-5105
▁regret	-5106
▁occup	-5107
œur	-5108
▁rus	-5109
▁Soulig	-5110
muné	-5111
▁exportations	-5112
tend	-5113
▁trouvent	-5114
▁sept	-5115
▁regard	-5116
▁Sé	-5117
▁train	-5118
▁perspectives	-5119
ld	-5120
atie	-5121
enregistrement	-5122
cs	-5123
▁directeurs	-5124
▁rembours	-5125
▁radio	-5126
▁malgré	-5127
▁correspondant	-5128
▁administratif	-5129
▁perspective	-5130
▁entièrement	-5131
▁2000.	-5132
▁agré	-5133
▁remercie	-5134
▁expéri	-5135
▁préparatoire	-5136
▁vendre	-5137
ènes	-5138
▁bo	-5139
▁documentation	-5140
▁intellectu	-5141
vateur	-5142
Iran	-5143
▁Asie	-5144
▁2008.	-5145
isent	-5146
ll	-5147
▁alle	-5148
▁gratuit	-5149
▁longtemps	-5150
tié	-5151
▁privés	-5152
atoires	-5153
▁auraient	-5154
insertion	-5155
èse	-5156
▁élèves	-5157
▁Nom	-5158
bler	-5159
▁enseign	-5160
opinion	-5161
▁double	-5162
▁insuffis	-5163
CC	-5164
▁recrutement	-5165
▁perte	-5166
oweït	-5167
▁2002.	-5168
▁outils	-5169
biliser	-5170
▁Bang	-5171
▁77	-5172
▁rappelle	-5173
▁organe	-5174
▁ment	-5175
amendement	-5176
▁souverain	-5177
▁transmis	-5178
▁CON	-5179
▁retra	-5180
▁61	-5181
▁prestations	-5182
60	-5183
▁80	-5184
▁petite	-5185
▁parfait	-5186
▁Décide	-5187
/2002	-5188
ste	-5189
▁rémuné	-5190
uler	-5191
Isra	-5192
▁susp	-5193
idée	-5194
▁appartenant	-5195
▁privées	-5196
alestine	-5197
▁respectivement	-5198
▁pan	-5199
human	-5200
▁bonnes	-5201
▁infrastructures	-5202
test	-5203
▁envisager	-5204
▁Cinquième	-5205
laires	-5206
NUAP	-5207
wanda	-5208
mention	-5209
▁fédérale	-5210
Pré	-5211
▁reprise	-5212
eter	-5213
US	-5214
▁supr	-5215
▁devaient	-5216
▁tari	-5217
▁Bo	-5218
alie	-5219
▁médec	-5220
▁Lettre	-5221
▁existants	-5222
▁correc	-5223
autoris	-5224
▁vaste	-5225
/2003	-5226
èges	-5227
obser	-5228
▁universelle	-5229
rabilité	-5230
chant	-5231
isté	-5232
actes	-5233
intro	-5234
vage	-5235
ougoslavie	-5236
▁proxim	-5237
Commissariat	-5238
accomp	-5239
tell	-5240
ago	-5241
▁déclare	-5242
nité	-5243
▁science	-5244
▁cultures	-5245
▁discussion	-5246
Or	-5247
mbassadeur	-5248
▁Koweït	-5249
▁meilleurs	-5250
▁menaces	-5251
las	-5252
▁47	-5253
times	-5254
applique	-5255
▁aus	-5256
▁âgées	-5257
▁intéressés	-5258
▁susmention	-5259
▁restrictions	-5260
▁Pologne	-5261
▁intégré	-5262
▁Roumanie	-5263
▁continent	-5264
▁bal	-5265
▁pal	-5266
▁tendant	-5267
▁Bul	-5268
bid	-5269
mages	-5270
▁Belgique	-5271
30	-5272
▁revê	-5273
▁premières	-5274
▁ép	-5275
▁sujets	-5276
▁religi	-5277
▁prenant	-5278
▁39	-5279
6)	-5280
▁reconstruction	-5281
▁premiers	-5282
▁Palestine	-5283
▁Aux	-5284
to	-5285
▁reçues	-5286
▁Allemagne	-5287
▁équipe	-5288
▁2001.	-5289
▁assez	-5290
rablement	-5291
deuxième	-5292
lages	-5293
▁discrimin	-5294
▁commissaire	-5295
Inde	-5296
▁abou	-5297
▁compétents	-5298
▁temporaire	-5299
▁calendrier	-5300
▁artis	-5301
▁eaux	-5302
installation	-5303
▁quoi	-5304
▁relever	-5305
▁Adoption	-5306
apit	-5307
wa	-5308
▁cle	-5309
▁offrir	-5310
▁plaintes	-5311
ditions	-5312
▁disposer	-5313
▁législatives	-5314
▁danger	-5315
seur	-5316
éle	-5317
▁stocks	-5318
▁it	-5319
▁locale	-5320
ulaires	-5321
▁constituer	-5322
▁Chypre	-5323
▁direct	-5324
denti	-5325
éra	-5326
▁économies	-5327
exportation	-5328
mont	-5329
harmon	-5330
▁49	-5331
▁lec	-5332
accé	-5333
▁présentée	-5334
▁produire	-5335
▁contract	-5336
▁tendance	-5337
honneur	-5338
heureusement	-5339
▁gro	-5340
▁violences	-5341
▁rapportant	-5342
▁Consul	-5343
▁prenantes	-5344
▁trente	-5345
▁assure	-5346
▁bord	-5347
humanité	-5348
▁Straté	-5349
indem	-5350
▁évid	-5351
▁drogue	-5352
▁exercice	-5353
▁Auc	-5354
DA	-5355
▁discu	-5356
/10	-5357
▁sav	-5358
▁unième	-5359
▁moteur	-5360
cieux	-5361
▁42	-5362
▁conver	-5363
▁marque	-5364
agir	-5365
▁Afghanistan	-5366
▁manifestations	-5367
▁moitié	-5368
▁dign	-5369
▁prêts	-5370
ographie	-5371
Association	-5372
▁jur	-5373
▁sti	-5374
▁chiffres	-5375
▁opérationnelles	-5376
immigration	-5377
▁pourcent	-5378
▁applicable	-5379
▁armées	-5380
▁regr	-5381
▁iraqui	-5382
▁transfé	-5383
olon	-5384
issante	-5385
▁Paragraph	-5386
.10	-5387
por	-5388
▁représentation	-5389
-4	-5390
▁prie	-5391
▁mariage	-5392
gissement	-5393
▁rédaction	-5394
▁dommages	-5395
▁parler	-5396
orientation	-5397
▁alimentaires	-5398
▁voté	-5399
▁favorable	-5400
▁consacrée	-5401
▁genre	-5402
▁socio	-5403
four	-5404
car	-5405
▁affi	-5406
▁exh	-5407
▁sauf	-5408
▁Direc	-5409
ïd	-5410
▁fallait	-5411
▁récente	-5412
▁59	-5413
▁chaî	-5414
▁possibles	-5415
▁Serbie	-5416
cession	-5417
▁enfin	-5418
▁My	-5419
▁historique	-5420
auto	-5421
▁télévision	-5422
offre	-5423
▁4,	-5424
OMC	-5425
▁Conc	-5426
/2006	-5427
▁300	-5428
▁préparer	-5429
▁Nam	-5430
espère	-5431
▁44	-5432
▁lour	-5433
▁dispens	-5434
ordanie	-5435
▁Croatie	-5436
▁relève	-5437
▁vivant	-5438
▁limiter	-5439
tice	-5440
▁bles	-5441
▁effectué	-5442
▁maî	-5443
▁prol	-5444
niti	-5445
▁provo	-5446
▁énergétique	-5447
▁corps	-5448
visionnement	-5449
extra	-5450
▁préli	-5451
▁obtenus	-5452
▁rappeler	-5453
▁gén	-5454
▁41	-5455
enir	-5456
artements	-5457
uyer	-5458
▁recti	-5459
ls	-5460
antième	-5461
7)	-5462
Comité	-5463
▁Gaz	-5464
institutions	-5465
osent	-5466
arch	-5467
rangements	-5468
▁procédé	-5469
▁primaire	-5470
▁Ass	-5471
▁38	-5472
gue	-5473
agement	-5474
▁scolaire	-5475
▁51	-5476
▁milliers	-5477
dic	-5478
élande	-5479
▁cœur	-5480
▁flux	-5481
octro	-5482
▁gamme	-5483
▁enregistré	-5484
ia	-5485
-5	-5486
tugal	-5487
▁suprême	-5488
achat	-5489
▁communs	-5490
uves	-5491
▁70	-5492
▁adolescents	-5493
▁remédi	-5494
▁relativement	-5495
▁Rwanda	-5496
observation	-5497
▁Que	-5498
▁Sch	-5499
▁Fran	-5500
▁cherche	-5501
▁proximité	-5502
lor	-5503
▁Maroc	-5504
▁contenant	-5505
▁souhaitent	-5506
▁exposé	-5507
▁Parmi	-5508
▁chômage	-5509
▁spécifique	-5510
▁km	-5511
▁adul	-5512
▁compta	-5513
▁réconc	-5514
▁faibles	-5515
▁nour	-5516
▁195	-5517
▁essais	-5518
▁poi	-5519
▁DU	-5520
▁compréh	-5521
▁atti	-5522
▁îles	-5523
▁députés	-5524
▁admis	-5525
landais	-5526
▁établissement	-5527
Ouest	-5528
▁message	-5529
TE	-5530
▁prévus	-5531
agnes	-5532
▁démarche	-5533
▁équipes	-5534
tible	-5535
▁%.	-5536
▁ouv	-5537
étudi	-5538
▁médica	-5539
▁chin	-5540
▁instance	-5541
▁Est	-5542
▁emplois	-5543
▁Gé	-5544
aïti	-5545
Aut	-5546
▁dispar	-5547
▁Né	-5548
cial	-5549
ties	-5550
baïd	-5551
tocoles	-5552
▁Burundi	-5553
Zélande	-5554
Université	-5555
▁Recommand	-5556
▁autour	-5557
▁prépar	-5558
zerbaïd	-5559
▁indiquer	-5560
▁Pla	-5561
▁dossier	-5562
retagne	-5563
▁province	-5564
atif	-5565
▁obtenu	-5566
▁mauvais	-5567
▁aller	-5568
▁communautaires	-5569
ail	-5570
quatrième	-5571
▁discip	-5572
▁conformité	-5573
▁ethniques	-5574
▁associés	-5575
▁spécialistes	-5576
htm	-5577
▁recherches	-5578
▁Princip	-5579
▁puisque	-5580
▁détermination	-5581
▁Mad	-5582
▁baisse	-5583
apporter	-5584
▁bases	-5585
issait	-5586
▁ministère	-5587
▁Somalie	-5588
jo	-5589
▁territori	-5590
▁micro	-5591
▁1998,	-5592
▁préfé	-5593
▁Joh	-5594
▁pollution	-5595
▁rappelé	-5596
▁reconnaître	-5597
▁consent	-5598
''	-5599
▁change	-5600
tionnels	-5601
▁cra	-5602
▁vont	-5603
▁bil	-5604
▁Services	-5605
▁gérer	-5606
▁Finlande	-5607
▁allou	-5608
▁préalable	-5609
sec	-5610
▁volume	-5611
identité	-5612
umer	-5613
▁Chambre	-5614
▁négociation	-5615
▁modèles	-5616
▁destiné	-5617
▁Stratégie	-5618
aucune	-5619
▁devront	-5620
erte	-5621
omologation	-5622
▁habitants	-5623
▁tox	-5624
roits	-5625
▁incor	-5626
▁dispositifs	-5627
▁obligation	-5628
▁engagé	-5629
▁frontière	-5630
▁parven	-5631
▁stade	-5632
Équipe	-5633
infrastructure	-5634
▁accordée	-5635
▁restaurant	-5636
inscription	-5637
▁personnels	-5638
▁délibé	-5639
▁Procureur	-5640
4.	-5641
▁cuis	-5642
▁organisées	-5643
▁passage	-5644
val	-5645
▁producteurs	-5646
▁campagnes	-5647
▁capitale	-5648
▁écou	-5649
lers	-5650
sés	-5651
yle	-5652
▁proposer	-5653
▁confor	-5654
▁britanni	-5655
▁préven	-5656
▁stric	-5657
▁orateurs	-5658
▁dess	-5659
iner	-5660
▁dignité	-5661
▁1995	-5662
▁jo	-5663
éviter	-5664
▁annuelle	-5665
▁ht	-5666
▁Ni	-5667
▁coordonner	-5668
▁supéri	-5669
▁électroniques	-5670
élarus	-5671
▁utilisant	-5672
▁presque	-5673
anes	-5674
euillez	-5675
emark	-5676
▁équiv	-5677
▁Force	-5678
uner	-5679
Rev	-5680
/11	-5681
▁remplacer	-5682
sixième	-5683
▁déploiement	-5684
▁révisé	-5685
▁réconciliation	-5686
poque	-5687
olé	-5688
▁Philipp	-5689
▁utiles	-5690
▁coloni	-5691
▁modifié	-5692
▁IV	-5693
▁pourcentage	-5694
▁Côte	-5695
▁élevés	-5696
accroître	-5697
▁poursuites	-5698
▁appelé	-5699
▁riches	-5700
oto	-5701
▁réussi	-5702
▁satell	-5703
OL	-5704
▁comprennent	-5705
hérence	-5706
▁Ber	-5707
▁réalisé	-5708
▁express	-5709
▁utilisée	-5710
orgie	-5711
▁tur	-5712
▁harmon	-5713
▁confron	-5714
▁remédier	-5715
▁Chili	-5716
▁simil	-5717
uivi	-5718
▁choisir	-5719
za	-5720
▁mouvement	-5721
ains	-5722
▁fera	-5723
actu	-5724
ft	-5725
▁reconnaît	-5726
▁mandats	-5727
▁prévoy	-5728
IB	-5729
ourir	-5730
▁Bi	-5731
cter	-5732
▁intensi	-5733
endrait	-5734
▁séri	-5735
▁Grèce	-5736
fiants	-5737
▁Soci	-5738
▁récla	-5739
net	-5740
évaluer	-5741
rets	-5742
nous	-5743
IL	-5744
cte	-5745
▁détail	-5746
▁Pendant	-5747
ulsion	-5748
▁cadres	-5749
▁décider	-5750
▁vérifier	-5751
▁infraction	-5752
pect	-5753
▁habitu	-5754
▁rassemb	-5755
▁individus	-5756
▁FNUAP	-5757
▁Mé	-5758
▁Mesures	-5759
▁taille	-5760
▁téléphone	-5761
▁accrue	-5762
▁disposent	-5763
approche	-5764
.29	-5765
▁mortalité	-5766
gro	-5767
▁53	-5768
▁capital	-5769
▁continué	-5770
▁prennent	-5771
▁dangereuses	-5772
▁http	-5773
andon	-5774
▁appliquées	-5775
▁Document	-5776
▁préserver	-5777
zerbaïdjan	-5778
▁Portugal	-5779
▁conclure	-5780
▁continuera	-5781
▁connu	-5782
▁voisins	-5783
▁liaison	-5784
gies	-5785
▁chemin	-5786
▁prévoir	-5787
alistes	-5788
interprétation	-5789
▁culturelle	-5790
▁Per	-5791
olument	-5792
▁touchés	-5793
XI	-5794
avec	-5795
▁banc	-5796
appuyer	-5797
veloppement	-5798
▁adoptés	-5799
dum	-5800
▁géographique	-5801
▁contingents	-5802
▁Veuillez	-5803
▁atteinte	-5804
▁52	-5805
▁huit	-5806
intégrité	-5807
▁thèmes	-5808
▁intérie	-5809
▁suc	-5810
mobil	-5811
riques	-5812
▁cinquième	-5813
andes	-5814
thiopie	-5815
Autorité	-5816
isé	-5817
▁commande	-5818
garie	-5819
▁victime	-5820
▁apporté	-5821
▁titu	-5822
agers	-5823
octroi	-5824
stan	-5825
▁consulter	-5826
▁révé	-5827
▁spatiales	-5828
▁rédi	-5829
▁dûment	-5830
▁vivent	-5831
verb	-5832
▁applications	-5833
▁défi	-5834
▁amen	-5835
▁Situ	-5836
jouter	-5837
▁brut	-5838
▁inclu	-5839
▁pacifique	-5840
▁norme	-5841
arri	-5842
▁St	-5843
▁saisie	-5844
▁formuler	-5845
équili	-5846
▁manu	-5847
▁inférie	-5848
▁TRANS	-5849
hors	-5850
▁opport	-5851
gérie	-5852
40	-5853
▁montré	-5854
ophob	-5855
▁tendances	-5856
▁u	-5857
▁voulons	-5858
▁potentiel	-5859
tta	-5860
Bretagne	-5861
itons	-5862
exemp	-5863
ast	-5864
▁parallè	-5865
moine	-5866
fec	-5867
▁futures	-5868
▁avoc	-5869
feu	-5870
▁protocole	-5871
▁physi	-5872
▁puissance	-5873
ganda	-5874
▁appuie	-5875
▁durables	-5876
IP	-5877
▁évaluations	-5878
nisation	-5879
▁facilement	-5880
cinquième	-5881
▁initial	-5882
▁stand	-5883
▁réclam	-5884
entrer	-5885
▁tem	-5886
▁totalement	-5887
▁conformes	-5888
akh	-5889
▁précise	-5890
OU	-5891
▁utilise	-5892
▁phénomène	-5893
▁valoir	-5894
érou	-5895
nationale	-5896
▁existantes	-5897
lub	-5898
raire	-5899
ciers	-5900
▁tenues	-5901
▁conservation	-5902
voire	-5903
▁Inv	-5904
▁Vo	-5905
gouvernementales	-5906
fond	-5907
desh	-5908
▁paci	-5909
▁commerciale	-5910
8)	-5911
▁Res	-5912
▁prati	-5913
▁certaine	-5914
abitat	-5915
▁Statut	-5916
▁effectifs	-5917
▁46	-5918
▁struc	-5919
Au	-5920
▁restent	-5921
çu	-5922
èvement	-5923
dio	-5924
/55	-5925
▁rural	-5926
OT	-5927
▁lecture	-5928
blioth	-5929
arc	-5930
intement	-5931
▁Eur	-5932
bres	-5933
▁satisfaire	-5934
▁constitution	-5935
▁indépendante	-5936
/0	-5937
▁5,	-5938
▁économie	-5939
DC	-5940
▁Avant	-5941
▁appropriée	-5942
▁insta	-5943
▁Italie	-5944
▁réinsertion	-5945
inqu	-5946
▁plais	-5947
édo	-5948
▁issus	-5949
▁Hu	-5950
trib	-5951
▁administrative	-5952
▁découlant	-5953
▁mondiaux	-5954
tiers	-5955
aisie	-5956
▁satisfait	-5957
▁Gaza	-5958
▁espagnol	-5959
▁considérer	-5960
taient	-5961
▁joué	-5962
▁migrations	-5963
▁proportion	-5964
▁PNUE	-5965
▁intellectuelle	-5966
▁chap	-5967
▁accélé	-5968
▁bl	-5969
▁comités	-5970
▁profonde	-5971
▁Communi	-5972
▁degré	-5973
▁ajouter	-5974
inscrire	-5975
▁Danemark	-5976
▁officielle	-5977
▁ateliers	-5978
▁législatif	-5979
erc	-5980
▁néanmoins	-5981
▁vites	-5982
▁mini	-5983
▁constate	-5984
▁journée	-5985
Ivoire	-5986
▁accorder	-5987
▁témoins	-5988
aw	-5989
Italie	-5990
▁unités	-5991
▁féliciter	-5992
dez	-5993
........	-5994
▁Comp	-5995
CON	-5996
Ambassadeur	-5997
ESCO	-5998
Commission	-5999
▁Système	-6000
▁souci	-6001
▁Darfour	-6002
▁banques	-6003
▁Dis	-6004
▁ressort	-6005
▁illicites	-6006
▁plainte	-6007
▁Té	-6008
▁bout	-6009
Australie	-6010
▁hé	-6011
▁ethnique	-6012
TRANS	-6013
▁profiter	-6014
25	-6015
▁mobilisation	-6016
orat	-6017
▁modes	-6018
▁renvoy	-6019
▁nations	-6020
▁coordonn	-6021
▁intégr	-6022
ébec	-6023
Président	-6024
▁Étant	-6025
▁voyages	-6026
▁2009.	-6027
▁Palestini	-6028
▁actuelles	-6029
▁conjointement	-6030
urants	-6031
▁orientations	-6032
▁Venez	-6033
▁compromis	-6034
IF	-6035
▁canadienne	-6036
▁quelles	-6037
▁prioritaires	-6038
▁effort	-6039
▁armé	-6040
▁travaillent	-6041
▁étudiants	-6042
▁expressément	-6043
gen	-6044
▁participent	-6045
▁consulta	-6046
▁énoncées	-6047
▁US	-6048
▁souveraineté	-6049
homologation	-6050
tario	-6051
nitiative	-6052
▁explic	-6053
▁supérieure	-6054
oyer	-6055
▁voies	-6056
▁194	-6057
osée	-6058
réal	-6059
▁cohér	-6060
▁exercer	-6061
itée	-6062
▁concept	-6063
▁équipements	-6064
▁motifs	-6065
▁gag	-6066
▁médicaments	-6067
▁étape	-6068
▁diminution	-6069
agent	-6070
ano	-6071
▁hausse	-6072
▁stupé	-6073
▁multiples	-6074
▁frapp	-6075
▁affaire	-6076
/2005	-6077
▁Am	-6078
▁fondamental	-6079
▁cho	-6080
▁sida	-6081
▁fournies	-6082
▁proche	-6083
aie	-6084
▁officiel	-6085
▁extérieure	-6086
▁quartier	-6087
▁vir	-6088
▁fondé	-6089
▁compréhension	-6090
inten	-6091
▁Même	-6092
▁touchant	-6093
derne	-6094
▁hos	-6095
▁test	-6096
▁directe	-6097
érique	-6098
▁43	-6099
line	-6100
alisés	-6101
cal	-6102
▁observateurs	-6103
▁notification	-6104
▁insulaires	-6105
▁vision	-6106
▁modu	-6107
ressé	-6108
▁états	-6109
▁culturelles	-6110
antis	-6111
atem	-6112
▁Ken	-6113
TS	-6114
credi	-6115
▁GR	-6116
▁secondaire	-6117
▁pous	-6118
▁dynamique	-6119
ira	-6120
▁ap	-6121
tré	-6122
ja	-6123
▁régissant	-6124
▁Direction	-6125
▁Libéria	-6126
AB	-6127
anz	-6128
▁Géorgie	-6129
7.	-6130
▁tenus	-6131
▁salu	-6132
érieure	-6133
▁confidenti	-6134
.2.1	-6135
▁contrôles	-6136
▁menac	-6137
▁envisage	-6138
▁spec	-6139
▁envers	-6140
ann	-6141
▁finales	-6142
kh	-6143
▁Trans	-6144
▁complexe	-6145
▁dépit	-6146
▁Bulgarie	-6147
▁nuit	-6148
atemala	-6149
▁requis	-6150
▁options	-6151
▁positive	-6152
infra	-6153
aus	-6154
▁espérons	-6155
isition	-6156
▁autorisé	-6157
oss	-6158
▁mouvements	-6159
▁publications	-6160
échelon	-6161
cy	-6162
approbation	-6163
▁constaté	-6164
▁biologique	-6165
▁logistique	-6166
cla	-6167
usage	-6168
▁précisément	-6169
▁dimension	-6170
▁Ne	-6171
▁Messieurs	-6172
▁étroitement	-6173
▁Pal	-6174
▁structurel	-6175
▁créanci	-6176
▁préciser	-6177
▁prés	-6178
▁domin	-6179
▁faudra	-6180
avaient	-6181
▁remise	-6182
8.	-6183
▁essentielle	-6184
aïlande	-6185
▁exter	-6186
▁facile	-6187
▁rub	-6188
▁Nigéria	-6189
lez	-6190
inspection	-6191
orise	-6192
▁récentes	-6193
▁perpé	-6194
▁pages	-6195
▁Entre	-6196
▁catastrophe	-6197
ettres	-6198
existe	-6199
▁significa	-6200
▁arrangements	-6201
▁naissance	-6202
▁distance	-6203
▁Nos	-6204
▁dégrad	-6205
Le	-6206
Espagne	-6207
dames	-6208
▁monétaire	-6209
▁approprié	-6210
Afghanistan	-6211
▁noms	-6212
/13	-6213
exception	-6214
▁maîtr	-6215
▁consentement	-6216
mée	-6217
▁porté	-6218
▁(3	-6219
ores	-6220
▁Montréal	-6221
orté	-6222
▁détru	-6223
▁62	-6224
lut	-6225
▁Costa	-6226
▁CO	-6227
apitre	-6228
▁visi	-6229
▁visites	-6230
tier	-6231
▁Amé	-6232
▁indépendants	-6233
▁Grâce	-6234
▁dehors	-6235
▁massive	-6236
▁Espagne	-6237
▁stupéfiants	-6238
tur	-6239
▁exemples	-6240
▁détails	-6241
▁scolaires	-6242
▁assur	-6243
▁retrait	-6244
▁ultérieure	-6245
PL	-6246
▁exposés	-6247
▁cohérence	-6248
▁réparation	-6249
▁palestinienne	-6250
▁mach	-6251
antill	-6252
▁Hongrie	-6253
abs	-6254
▁Inde	-6255
▁prolong	-6256
▁tôt	-6257
▁complémentaires	-6258
▁pose	-6259
▁orientale	-6260
▁joue	-6261
▁xén	-6262
▁chacune	-6263
▁Iraq	-6264
▁Autres	-6265
▁formulation	-6266
▁visés	-6267
ographiques	-6268
)]	-6269
▁défaut	-6270
▁Philippines	-6271
▁xénophob	-6272
nels	-6273
▁moderne	-6274
auche	-6275
rats	-6276
▁bénéficient	-6277
▁adressées	-6278
▁irré	-6279
itec	-6280
ladesh	-6281
▁réjou	-6282
▁musique	-6283
▁destination	-6284
organiser	-6285
employ	-6286
encourager	-6287
identification	-6288
atiques	-6289
▁Pérou	-6290
▁finances	-6291
sh	-6292
environ	-6293
▁civiles	-6294
▁usage	-6295
▁interdit	-6296
dat	-6297
▁palestiniens	-6298
▁établies	-6299
▁concernent	-6300
▁cuisine	-6301
▁antérie	-6302
uxemb	-6303
▁sollic	-6304
▁visent	-6305
▁Pri	-6306
▁multilatéraux	-6307
▁fixé	-6308
▁accepté	-6309
▁livrais	-6310
▁supprimer	-6311
▁pourrez	-6312
inguis	-6313
▁Prom	-6314
tribue	-6315
endi	-6316
onnel	-6317
économique	-6318
▁maritime	-6319
▁êtres	-6320
▁russe	-6321
▁réuss	-6322
▁Mesdames	-6323
▁bru	-6324
▁vivre	-6325
▁inhu	-6326
▁incombe	-6327
▁médicaux	-6328
▁navigation	-6329
▁portent	-6330
anmar	-6331
▁déploy	-6332
sidents	-6333
▁crédi	-6334
9.	-6335
▁Résolution	-6336
gua	-6337
inage	-6338
équipement	-6339
▁web	-6340
élargissement	-6341
▁pouvaient	-6342
SR	-6343
▁ONU	-6344
▁contrôler	-6345
oiles	-6346
▁courriel	-6347
▁jeunesse	-6348
▁présentes	-6349
▁cartes	-6350
▁fréqu	-6351
▁vacc	-6352
▁Lan	-6353
ocs	-6354
▁convain	-6355
▁préjudice	-6356
▁Dieu	-6357
pris	-6358
▁reprises	-6359
ailleurs	-6360
▁fichiers	-6361
▁patrimoine	-6362
renant	-6363
▁poids	-6364
▁ministères	-6365
ommuni	-6366
ryth	-6367
▁apparti	-6368
artement	-6369
harmonisation	-6370
▁anne	-6371
▁arme	-6372
alisé	-6373
▁hon	-6374
▁statu	-6375
itées	-6376
illant	-6377
venue	-6378
▁Ky	-6379
▁adultes	-6380
▁Bélarus	-6381
éroport	-6382
▁collectivités	-6383
CD	-6384
▁déser	-6385
atteindre	-6386
▁iii	-6387
▁pénit	-6388
▁erre	-6389
▁6,	-6390
▁stim	-6391
effet	-6392
intolérance	-6393
▁dég	-6394
atifs	-6395
fiant	-6396
▁éman	-6397
▁capitaux	-6398
▁résidence	-6399
asser	-6400
▁Exp	-6401
/2007	-6402
▁Palestiniens	-6403
/2008	-6404
▁accepter	-6405
pie	-6406
▁village	-6407
igh	-6408
▁idées	-6409
▁Congrès	-6410
▁électri	-6411
▁climatique	-6412
▁Supplément	-6413
empê	-6414
▁ressortiss	-6415
▁parent	-6416
▁Gui	-6417
▁volontaire	-6418
▁nette	-6419
▁Amérique	-6420
vaquie	-6421
▁Aujourd	-6422
▁quantité	-6423
ij	-6424
ellent	-6425
▁libération	-6426
uela	-6427
▁intéressées	-6428
▁ministérielle	-6429
▁arch	-6430
▁impact	-6431
La	-6432
▁neuf	-6433
olue	-6434
▁décent	-6435
▁bénéficiaires	-6436
▁lab	-6437
▁étoiles	-6438
▁location	-6439
▁Renfor	-6440
▁différences	-6441
roissement	-6442
▁convo	-6443
▁pétrole	-6444
▁Sy	-6445
▁permettrait	-6446
▁Ayant	-6447
innovation	-6448
/23	-6449
▁interpré	-6450
association	-6451
▁considérable	-6452
PE	-6453
▁systématique	-6454
▁Tunis	-6455
):	-6456
▁Chapitre	-6457
déter	-6458
▁canadien	-6459
▁adhé	-6460
▁soldats	-6461
▁lancer	-6462
▁Paragraphe	-6463
▁buts	-6464
▁commiss	-6465
▁saou	-6466
/12	-6467
6.	-6468
▁fonctionnaire	-6469
▁Québec	-6470
▁Guatemala	-6471
▁mm	-6472
iterran	-6473
▁prêt	-6474
▁lundi	-6475
rid	-6476
▁logiciel	-6477
▁simpli	-6478
engager	-6479
▁élu	-6480
▁liée	-6481
més	-6482
▁répondu	-6483
▁gouvernementaux	-6484
▁impu	-6485
tissage	-6486
▁participant	-6487
tante	-6488
▁hô	-6489
avons	-6490
▁permanents	-6491
▁satisfais	-6492
▁périodiques	-6493
▁enseignants	-6494
IM	-6495
▁diss	-6496
▁plaisir	-6497
▁décès	-6498
▁Pe	-6499
▁fas	-6500
▁Myanmar	-6501
Internet	-6502
▁jugement	-6503
▁400	-6504
▁essentielles	-6505
ide	-6506
▁Rome	-6507
▁transfron	-6508
▁distinction	-6509
▁%,	-6510
▁vouloir	-6511
UNESCO	-6512
vénie	-6513
imb	-6514
ix	-6515
étudier	-6516
érer	-6517
▁remplir	-6518
▁Bah	-6519
▁proposées	-6520
▁2.	-6521
▁mili	-6522
bat	-6523
▁subventions	-6524
▁constitué	-6525
▁Thaïlande	-6526
▁Is	-6527
▁prostitution	-6528
aises	-6529
▁Malgré	-6530
▁Kenya	-6531
guer	-6532
ONUDI	-6533
▁formule	-6534
▁intéressant	-6535
▁êtes	-6536
▁souhaiter	-6537
▁partout	-6538
▁requises	-6539
▁sciences	-6540
▁proposés	-6541
▁hyd	-6542
/2000	-6543
▁chale	-6544
▁appropriés	-6545
▁pénitenti	-6546
ètre	-6547
armée	-6548
ars	-6549
▁actuels	-6550
▁voter	-6551
▁Malaisie	-6552
tour	-6553
▁ord	-6554
arrêt	-6555
olf	-6556
▁mondiales	-6557
▁particulières	-6558
▁attaques	-6559
▁décret	-6560
▁vidéo	-6561
▁Ceci	-6562
▁Alors	-6563
▁param	-6564
▁mobiliser	-6565
tront	-6566
▁régimes	-6567
nel	-6568
orteurs	-6569
▁perform	-6570
lai	-6571
▁enregistre	-6572
▁différence	-6573
▁ferme	-6574
Sud	-6575
▁mené	-6576
▁Union	-6577
Ukraine	-6578
▁vitesse	-6579
énégal	-6580
▁pours	-6581
entrep	-6582
▁mère	-6583
▁sép	-6584
igné	-6585
rovi	-6586
rentissage	-6587
téné	-6588
élec	-6589
ades	-6590
▁Mol	-6591
▁étrangère	-6592
▁duquel	-6593
▁Première	-6594
▁lancement	-6595
▁séminaires	-6596
▁pacifiques	-6597
▁progresser	-6598
▁créés	-6599
améri	-6600
▁inég	-6601
rouver	-6602
▁Cent	-6603
ussions	-6604
▁rapatri	-6605
▁dégag	-6606
ami	-6607
ralement	-6608
ambie	-6609
▁seuls	-6610
▁bénéfi	-6611
leurs	-6612
▁impossi	-6613
▁proposée	-6614
thèse	-6615
▁évidence	-6616
▁présentent	-6617
▁critique	-6618
orta	-6619
▁offrent	-6620
▁atmosph	-6621
▁augmenter	-6622
▁passi	-6623
tora	-6624
▁enseignements	-6625
▁Cas	-6626
▁Certaines	-6627
ôts	-6628
liance	-6629
▁œu	-6630
associ	-6631
exer	-6632
▁Bu	-6633
▁réel	-6634
idité	-6635
▁Quel	-6636
▁Poli	-6637
▁informer	-6638
▁futurs	-6639
▁motiv	-6640
▁réellement	-6641
▁with	-6642
▁constater	-6643
épal	-6644
▁conçu	-6645
▁convainc	-6646
azakh	-6647
aissent	-6648
▁Grand	-6649
▁dépass	-6650
▁objets	-6651
▁restre	-6652
▁tête	-6653
américa	-6654
▁dotés	-6655
terroris	-6656
/21	-6657
▁annoncé	-6658
▁Outre	-6659
▁75	-6660
ôture	-6661
▁Bangladesh	-6662
▁1997,	-6663
▁déje	-6664
▁institution	-6665
▁réelle	-6666
▁commises	-6667
▁Ara	-6668
▁effectués	-6669
▁Add	-6670
autonom	-6671
▁futur	-6672
GR	-6673
▁conduit	-6674
▁administratifs	-6675
▁Chef	-6676
versaire	-6677
▁dossiers	-6678
▁2002-200	-6679
▁excessi	-6680
▁VII	-6681
▁réflex	-6682
▁axée	-6683
introduction	-6684
▁fournissent	-6685
▁définis	-6686
▁trouvera	-6687
extérieur	-6688
▁salles	-6689
▁suff	-6690
▁fortement	-6691
cements	-6692
▁Slovénie	-6693
▁7,	-6694
▁facteur	-6695
▁Soix	-6696
▁Suite	-6697
ende	-6698
ainissement	-6699
▁présents	-6700
quateur	-6701
▁diffuser	-6702
▁téléchar	-6703
▁montants	-6704
chir	-6705
▁contraign	-6706
▁allégations	-6707
▁israéliennes	-6708
▁répé	-6709
euros	-6710
▁masse	-6711
lacement	-6712
risonnement	-6713
▁défendre	-6714
▁we	-6715
orations	-6716
ume	-6717
▁engage	-6718
yth	-6719
▁]	-6720
▁be	-6721
ortent	-6722
▁AU	-6723
/24	-6724
▁affirme	-6725
effectu	-6726
▁Lorsqu	-6727
▁remplacement	-6728
otes	-6729
▁exprimer	-6730
ça	-6731
phab	-6732
omé	-6733
ténégro	-6734
▁Char	-6735
run	-6736
mestre	-6737
king	-6738
▁payer	-6739
▁choisi	-6740
▁foi	-6741
udence	-6742
▁vendredi	-6743
▁intérimaire	-6744
▁probablement	-6745
aliste	-6746
▁TIR	-6747
▁religieuses	-6748
▁syrienne	-6749
▁Venezuela	-6750
point	-6751
▁compétitivité	-6752
entiel	-6753
▁Mo	-6754
▁notion	-6755
▁couleur	-6756
▁laisser	-6757
instruction	-6758
▁jard	-6759
▁commence	-6760
▁forum	-6761
▁fichier	-6762
trition	-6763
OCDE	-6764
▁commissaires	-6765
▁donnent	-6766
PR	-6767
▁signalé	-6768
▁lire	-6769
AIE	-6770
▁diam	-6771
▁Coopération	-6772
▁inscrits	-6773
pore	-6774
▁optim	-6775
yer	-6776
▁sensibiliser	-6777
▁contribue	-6778
olvabilité	-6779
▁trouverez	-6780
▁1994	-6781
▁différends	-6782
▁Na	-6783
alisme	-6784
▁venti	-6785
▁kil	-6786
ercussions	-6787
▁Lu	-6788
▁recouvre	-6789
▁agir	-6790
▁Voi	-6791
▁nul	-6792
▁Rica	-6793
▁librement	-6794
▁matin	-6795
▁Inform	-6796
cra	-6797
▁bilatéraux	-6798
▁compens	-6799
▁crises	-6800
audit	-6801
▁privilégi	-6802
▁PMA	-6803
▁Pi	-6804
▁San	-6805
▁vivement	-6806
▁échange	-6807
▁station	-6808
▁Lis	-6809
▁Haïti	-6810
importe	-6811
▁rom	-6812
mettez	-6813
▁pror	-6814
▁composé	-6815
▁réclamations	-6816
▁surface	-6817
▁clau	-6818
▁reflè	-6819
ITÉ	-6820
▁sac	-6821
▁contribuent	-6822
▁obstacle	-6823
▁instances	-6824
▁prévisions	-6825
univers	-6826
▁pénales	-6827
▁présentant	-6828
▁professionnel	-6829
▁universel	-6830
▁pensons	-6831
▁conten	-6832
entreprises	-6833
▁cu	-6834
▁essay	-6835
▁fondées	-6836
▁informel	-6837
édoine	-6838
osant	-6839
▁contacts	-6840
III	-6841
▁navires	-6842
OUR	-6843
▁Ibid	-6844
cidents	-6845
▁séminaire	-6846
▁Encoura	-6847
▁frau	-6848
▁considérés	-6849
gouvernemental	-6850
▁accompli	-6851
érité	-6852
▁considérables	-6853
▁chauff	-6854
▁couverture	-6855
▁résultant	-6856
alem	-6857
▁Macédoine	-6858
accorder	-6859
▁espèces	-6860
▁achats	-6861
▁consacrés	-6862
▁soumises	-6863
▁chinois	-6864
▁communiqué	-6865
▁aérien	-6866
▁rig	-6867
▁nomination	-6868
▁Deux	-6869
▁Justice	-6870
positions	-6871
-10	-6872
▁budgets	-6873
▁Pers	-6874
uxembourg	-6875
bo	-6876
▁ratifié	-6877
Initiative	-6878
▁démocratiques	-6879
▁transmission	-6880
ouvement	-6881
▁1.	-6882
ituanie	-6883
▁inhuma	-6884
▁guide	-6885
▁2004-200	-6886
▁enregistrés	-6887
▁spécialement	-6888
abus	-6889
▁xénophobie	-6890
▁intégrer	-6891
▁débou	-6892
▁supérie	-6893
▁was	-6894
▁célé	-6895
gola	-6896
Administration	-6897
▁Parten	-6898
ratifs	-6899
▁dév	-6900
tionner	-6901
▁unilaté	-6902
ows	-6903
▁invo	-6904
▁Néanmoins	-6905
▁courant	-6906
▁fixés	-6907
▁images	-6908
▁physiques	-6909
▁publiés	-6910
▁Notant	-6911
insolvabilité	-6912
rase	-6913
▁ann	-6914
▁cote	-6915
▁associée	-6916
▁Po	-6917
érir	-6918
▁manifes	-6919
▁précédente	-6920
▁corri	-6921
ek	-6922
▁Slovaquie	-6923
▁répercussions	-6924
▁Commissariat	-6925
▁retraite	-6926
▁combin	-6927
bonne	-6928
▁engagés	-6929
▁espère	-6930
▁sait	-6931
▁CC	-6932
▁matériels	-6933
zi	-6934
▁illus	-6935
▁tre	-6936
▁conserver	-6937
▁cibl	-6938
ash	-6939
niers	-6940
titudes	-6941
pule	-6942
ciens	-6943
▁examinées	-6944
azakhstan	-6945
▁Conseiller	-6946
sig	-6947
▁Rép	-6948
▁faute	-6949
▁prolifération	-6950
▁Cinquante	-6951
▁certainement	-6952
▁prestation	-6953
▁penser	-6954
assin	-6955
▁én	-6956
giques	-6957
▁pension	-6958
OMS	-6959
▁scène	-6960
▁équilib	-6961
▁aliments	-6962
▁intéri	-6963
▁mentionné	-6964
▁agissant	-6965
pérature	-6966
▁critiques	-6967
▁sexos	-6968
▁Tch	-6969
▁Gh	-6970
▁escomp	-6971
SC	-6972
▁combus	-6973
▁Fondation	-6974
▁bat	-6975
▁linguis	-6976
▁favorables	-6977
▁rendus	-6978
▁impossible	-6979
AIEA	-6980
▁Consultations	-6981
▁âge	-6982
cier	-6983
▁brev	-6984
tén	-6985
▁sexospéci	-6986
▁afgh	-6987
▁subsidiaires	-6988
exig	-6989
usalem	-6990
ile	-6991
réd	-6992
▁Ins	-6993
▁rue	-6994
▁(4	-6995
▁changer	-6996
▁atelier	-6997
▁intérieure	-6998
▁accordé	-6999
chée	-7000
urice	-7001
▁Mouvement	-7002
istres	-7003
▁candidat	-7004
▁Bal	-7005
▁coutu	-7006
▁proven	-7007
▁existant	-7008
Ex	-7009
▁lettres	-7010
▁stockage	-7011
▁symb	-7012
▁autorité	-7013
appliquent	-7014
▁récip	-7015
▁quels	-7016
▁Prend	-7017
▁éducation	-7018
▁fruits	-7019
efforts	-7020
ussi	-7021
rontali	-7022
▁inspec	-7023
▁anni	-7024
▁sortie	-7025
expert	-7026
▁créée	-7027
▁2006-200	-7028
/60	-7029
▁63	-7030
▁défav	-7031
ock	-7032
▁fournie	-7033
▁sixième	-7034
autorisation	-7035
▁organisme	-7036
ondu	-7037
atrice	-7038
▁ronde	-7039
▁Lituanie	-7040
Sec	-7041
na	-7042
▁tomb	-7043
alent	-7044
culteurs	-7045
istent	-7046
chiment	-7047
▁Accord	-7048
▁Invite	-7049
DP	-7050
▁programmation	-7051
▁Kh	-7052
▁FAO	-7053
Les	-7054
▁intervention	-7055
timis	-7056
lève	-7057
arition	-7058
▁phrase	-7059
▁fla	-7060
ouse	-7061
▁del	-7062
entra	-7063
ack	-7064
▁déjeuner	-7065
▁appliquée	-7066
économiques	-7067
▁Lanka	-7068
▁gross	-7069
▁quelconque	-7070
▁prioritaire	-7071
▁réduit	-7072
▁citer	-7073
oriz	-7074
▁effic	-7075
▁million	-7076
▁suggé	-7077
▁sérieux	-7078
▁examine	-7079
▁provinces	-7080
▁Luxembourg	-7081
▁oubli	-7082
▁somme	-7083
Signé	-7084
▁entrée	-7085
▁poser	-7086
▁Jér	-7087
▁actif	-7088
▁fermement	-7089
▁précédentes	-7090
▁réalisations	-7091
▁%)	-7092
SO	-7093
NP	-7094
▁douani	-7095
▁Nation	-7096
▁finale	-7097
SP	-7098
détermination	-7099
▁Indi	-7100
▁bande	-7101
▁sauve	-7102
▁efficacité	-7103
EMENT	-7104
AU	-7105
▁PAR	-7106
aujourd	-7107
ÉR	-7108
▁retrouv	-7109
▁ST	-7110
▁papi	-7111
▁acquis	-7112
ates	-7113
vité	-7114
▁préliminaire	-7115
aniques	-7116
▁donnant	-7117
▁amélioration	-7118
intégrer	-7119
ortant	-7120
▁Aff	-7121
▁logements	-7122
▁démo	-7123
▁définies	-7124
▁positif	-7125
rise	-7126
▁effectif	-7127
▁due	-7128
▁péd	-7129
▁aim	-7130
10	-7131
▁délinqu	-7132
envis	-7133
▁Gre	-7134
ampleur	-7135
IG	-7136
▁directrices	-7137
▁specta	-7138
▁passant	-7139
▁antiterroris	-7140
▁Tunisie	-7141
▁prochaines	-7142
▁renvoi	-7143
aéroport	-7144
èlement	-7145
▁diffic	-7146
▁complexes	-7147
▁projec	-7148
▁trou	-7149
▁devenu	-7150
▁mac	-7151
▁voire	-7152
▁possède	-7153
▁sanitaires	-7154
▁munitions	-7155
▁approfondie	-7156
IV	-7157
▁absolument	-7158
▁jeune	-7159
rythrée	-7160
lèvement	-7161
▁chaîne	-7162
▁difficiles	-7163
exclusion	-7164
▁600	-7165
▁esprit	-7166
inqui	-7167
▁organisés	-7168
emprisonnement	-7169
tez	-7170
WG	-7171
▁prononcer	-7172
▁apportées	-7173
▁classes	-7174
▁suffisantes	-7175
arbit	-7176
▁actifs	-7177
▁indirec	-7178
xi	-7179
▁occupés	-7180
▁nommé	-7181
▁céré	-7182
▁oriental	-7183
isés	-7184
▁transformation	-7185
▁blanchiment	-7186
teaux	-7187
▁garantis	-7188
▁française	-7189
apprentissage	-7190
▁convenus	-7191
On	-7192
assainissement	-7193
▁fr	-7194
▁inclure	-7195
Ch	-7196
ménie	-7197
▁organiser	-7198
ports	-7199
aucun	-7200
▁bons	-7201
île	-7202
▁classiques	-7203
▁As	-7204
▁cat	-7205
▁savons	-7206
▁desqu	-7207
▁tonnes	-7208
oul	-7209
▁peux	-7210
▁seconde	-7211
▁tolérance	-7212
Commissaire	-7213
cum	-7214
▁couvrir	-7215
▁traditionnelles	-7216
▁occidentale	-7217
tendue	-7218
uxelles	-7219
▁indiquant	-7220
80	-7221
▁précon	-7222
▁net	-7223
▁formulaire	-7224
atmosph	-7225
▁maximale	-7226
ameroun	-7227
▁mètres	-7228
▁Jérusalem	-7229
▁alig	-7230
▁température	-7231
▁impéra	-7232
▁appliqué	-7233
▁livraison	-7234
▁avenir	-7235
équilibre	-7236
Égypte	-7237
▁(2001)	-7238
instauration	-7239
▁saoudite	-7240
fiquement	-7241
▁livre	-7242
▁compléter	-7243
ystèmes	-7244
▁ajus	-7245
acquisition	-7246
▁marche	-7247
▁surmont	-7248
▁65	-7249
▁Sri	-7250
▁vacances	-7251
▁itali	-7252
▁chiffre	-7253
exercer	-7254
▁dangereux	-7255
SE	-7256
▁raisonnable	-7257
▁prescrit	-7258
▁ordinaires	-7259
ïn	-7260
▁étudier	-7261
espoir	-7262
▁incomb	-7263
▁sécur	-7264
▁devient	-7265
lisation	-7266
▁évolution	-7267
organe	-7268
▁anciens	-7269
Leste	-7270
▁détaillées	-7271
▁maternelle	-7272
▁perfec	-7273
ame	-7274
▁imposées	-7275
▁spécialisés	-7276
▁Camb	-7277
▁collective	-7278
▁modernes	-7279
orld	-7280
____	-7281
anim	-7282
▁listes	-7283
crite	-7284
▁Non	-7285
inions	-7286
▁Décennie	-7287
▁découver	-7288
▁Kazakhstan	-7289
▁requête	-7290
▁sièges	-7291
tisme	-7292
▁hauteur	-7293
▁Pan	-7294
▁logiciels	-7295
▁Qui	-7296
▁biblioth	-7297
▁Réaffirmant	-7298
▁existent	-7299
crimination	-7300
seau	-7301
▁télécommuni	-7302
▁considérées	-7303
▁garder	-7304
▁effectuer	-7305
▁réaffirmé	-7306
▁Lisbonne	-7307
ville	-7308
▁anniversaire	-7309
▁Sénégal	-7310
▁mettent	-7311
▁chargées	-7312
▁Objec	-7313
SION	-7314
entretien	-7315
ratoires	-7316
▁infec	-7317
▁suffisant	-7318
attaquer	-7319
70	-7320
▁former	-7321
▁margin	-7322
fricaine	-7323
▁licence	-7324
21	-7325
▁vice	-7326
▁transmettre	-7327
▁sanction	-7328
▁style	-7329
▁montrent	-7330
▁heureux	-7331
articles	-7332
len	-7333
▁iv	-7334
▁multilatéral	-7335
▁Mu	-7336
▁clôture	-7337
▁préparatifs	-7338
ataires	-7339
▁couv	-7340
turation	-7341
▁800	-7342
▁confort	-7343
/64	-7344
▁systéma	-7345
▁fondamentale	-7346
fer	-7347
phabé	-7348
▁Voici	-7349
▁extérieurs	-7350
▁respectifs	-7351
▁engagées	-7352
▁amples	-7353
▁amendement	-7354
▁ration	-7355
atar	-7356
▁collabo	-7357
ulaire	-7358
appare	-7359
▁religieux	-7360
pers	-7361
endice	-7362
▁Tanz	-7363
▁garçons	-7364
▁regroup	-7365
▁austra	-7366
▁ratifier	-7367
▁Sing	-7368
▁rencontre	-7369
ordonnance	-7370
▁rent	-7371
▁devi	-7372
▁plai	-7373
▁étapes	-7374
▁Cap	-7375
toral	-7376
▁motif	-7377
▁surmonter	-7378
verbal	-7379
▁magist	-7380
▁opportun	-7381
▁Souligne	-7382
▁sexuelles	-7383
▁tirés	-7384
illa	-7385
▁vulnérabilité	-7386
▁transactions	-7387
renti	-7388
▁yeux	-7389
▁transferts	-7390
▁Val	-7391
▁propi	-7392
odge	-7393
▁Maurice	-7394
▁devrions	-7395
ung	-7396
▁ménages	-7397
▁communiquées	-7398
▁saisir	-7399
▁reconnus	-7400
▁dil	-7401
geant	-7402
▁veuillez	-7403
▁Mer	-7404
▁mobilité	-7405
▁1996,	-7406
▁EN	-7407
▁gros	-7408
▁lié	-7409
▁exclusivement	-7410
▁pisc	-7411
▁Nouveau	-7412
.1.	-7413
ino	-7414
▁Kyoto	-7415
--	-7416
tricité	-7417
▁bilan	-7418
▁flo	-7419
▁Décision	-7420
▁adopte	-7421
orteuse	-7422
▁jeux	-7423
▁positions	-7424
issiles	-7425
▁Membre	-7426
▁ferrovi	-7427
MI	-7428
▁district	-7429
▁Jam	-7430
olie	-7431
▁pati	-7432
▁sectori	-7433
▁He	-7434
▁rappro	-7435
QUE	-7436
▁1990	-7437
SG	-7438
▁Ordre	-7439
▁preuves	-7440
▁partager	-7441
locu	-7442
▁animaux	-7443
▁dixième	-7444
▁)	-7445
ley	-7446
▁inhumains	-7447
/25	-7448
ettonie	-7449
numé	-7450
▁adoption	-7451
ribu	-7452
riture	-7453
▁confirmé	-7454
▁industriel	-7455
▁protocoles	-7456
▁registre	-7457
tements	-7458
▁rémunération	-7459
▁soumise	-7460
▁expériences	-7461
▁Guide	-7462
▁garantit	-7463
▁élus	-7464
▁souhaitez	-7465
▁1)	-7466
▁améliorations	-7467
▁terminer	-7468
▁Canadi	-7469
▁recouvrement	-7470
▁exac	-7471
▁yougosla	-7472
anche	-7473
PI	-7474
ficat	-7475
▁génoci	-7476
▁diversi	-7477
ouer	-7478
▁télécopie	-7479
▁autonomes	-7480
▁Tanzanie	-7481
extradition	-7482
image	-7483
▁surveiller	-7484
▁Bruxelles	-7485
▁biologiques	-7486
▁aggra	-7487
Ob	-7488
her	-7489
sifs	-7490
▁énor	-7491
▁Puis	-7492
▁salari	-7493
▁obli	-7494
éliminer	-7495
-9	-7496
▁altern	-7497
▁sexuels	-7498
▁opinion	-7499
▁corre	-7500
▁promul	-7501
▁examinée	-7502
▁Deuxièmement	-7503
▁renforcé	-7504
▁Ter	-7505
▁amis	-7506
▁Cop	-7507
▁tiennent	-7508
ary	-7509
▁redou	-7510
itte	-7511
▁libéralisation	-7512
tenance	-7513
▁composante	-7514
lexi	-7515
érants	-7516
▁analy	-7517
ijing	-7518
▁chercher	-7519
arienne	-7520
▁lacunes	-7521
▁MA	-7522
oran	-7523
▁dégradation	-7524
▁intégrés	-7525
▁Sam	-7526
▁désertification	-7527
accus	-7528
aul	-7529
▁soutient	-7530
▁bel	-7531
▁poursuivi	-7532
▁Autriche	-7533
▁étranger	-7534
▁Népal	-7535
èques	-7536
▁montrer	-7537
▁armements	-7538
▁Australie	-7539
ruguay	-7540
▁productivité	-7541
Indonésie	-7542
ansion	-7543
emplois	-7544
▁perdu	-7545
▁bâtiment	-7546
▁matériaux	-7547
ague	-7548
cevoir	-7549
▁effectuées	-7550
▁clos	-7551
▁communiqués	-7552
▁croissante	-7553
▁Liste	-7554
▁camps	-7555
apour	-7556
▁Travail	-7557
▁instructions	-7558
▁émanant	-7559
▁jouent	-7560
/19	-7561
iteur	-7562
ministrateur	-7563
▁positifs	-7564
▁conjointe	-7565
▁Jordanie	-7566
impunité	-7567
▁lumin	-7568
▁dégradants	-7569
▁ral	-7570
▁disponibilité	-7571
▁britannique	-7572
▁espace	-7573
▁réflexion	-7574
▁fabric	-7575
▁demandeurs	-7576
▁noti	-7577
▁Lettonie	-7578
▁jugé	-7579
.2.2	-7580
67	-7581
▁solde	-7582
▁solide	-7583
▁poursuit	-7584
abin	-7585
▁devez	-7586
▁reçoivent	-7587
▁heur	-7588
▁bul	-7589
▁précises	-7590
▁via	-7591
▁résumé	-7592
▁transnationale	-7593
▁levée	-7594
▁appels	-7595
instruments	-7596
èdent	-7597
▁Partenariat	-7598
▁questionnaire	-7599
isées	-7600
fa	-7601
▁2)	-7602
▁parlementaires	-7603
▁traduction	-7604
▁Activités	-7605
▁comprenant	-7606
▁Irlande	-7607
▁évolu	-7608
▁charges	-7609
onna	-7610
▁signaler	-7611
▁remis	-7612
xion	-7613
▁mens	-7614
incid	-7615
aso	-7616
▁yougoslave	-7617
kina	-7618
indica	-7619
▁relèvement	-7620
tension	-7621
▁croy	-7622
▁Salva	-7623
▁blo	-7624
dova	-7625
▁littoral	-7626
▁encouragé	-7627
aïque	-7628
▁Aut	-7629
61	-7630
75	-7631
▁voyageurs	-7632
▁ambi	-7633
▁consistant	-7634
▁technologique	-7635
TM	-7636
▁Beijing	-7637
▁dépôt	-7638
▁-,	-7639
▁légitime	-7640
ub	-7641
▁reb	-7642
▁immobil	-7643
nom	-7644
Organe	-7645
▁offrant	-7646
▁pes	-7647
▁aspect	-7648
▁repose	-7649
▁intervenants	-7650
▁Jean	-7651
tration	-7652
▁achevé	-7653
▁Journal	-7654
▁Financement	-7655
▁rubrique	-7656
▁ressortissants	-7657
▁LE	-7658
▁meur	-7659
▁jeudi	-7660
▁investis	-7661
banie	-7662
missions	-7663
▁dra	-7664
▁transmet	-7665
publi	-7666
▁consolider	-7667
▁familiales	-7668
▁gauche	-7669
▁précédemment	-7670
perçu	-7671
burg	-7672
arisation	-7673
▁accueille	-7674
-8	-7675
▁départements	-7676
▁conviction	-7677
▁institutionnel	-7678
icara	-7679
▁destinée	-7680
▁adresse	-7681
▁1999.	-7682
▁agriculteurs	-7683
atrices	-7684
avance	-7685
pération	-7686
▁approches	-7687
▁diplomatique	-7688
instrument	-7689
▁monn	-7690
▁idéal	-7691
imbab	-7692
▁accessibles	-7693
▁parfaitement	-7694
▁paiements	-7695
rement	-7696
ini	-7697
▁réaction	-7698
▁from	-7699
▁contempora	-7700
stance	-7701
▁idée	-7702
▁autom	-7703
▁opérationnel	-7704
▁apporte	-7705
▁consacrées	-7706
cipation	-7707
▁collaborer	-7708
▁Tor	-7709
▁abus	-7710
ild	-7711
▁Corr	-7712
▁Association	-7713
▁initiale	-7714
équité	-7715
ténuer	-7716
▁découvrir	-7717
ive	-7718
▁détaillée	-7719
▁sert	-7720
▁réadaptation	-7721
▁Dép	-7722
/2009	-7723
▁1993	-7724
▁écos	-7725
▁cohésion	-7726
▁8,	-7727
Argentine	-7728
envisager	-7729
▁placement	-7730
iver	-7731
▁150	-7732
▁Salvador	-7733
▁modé	-7734
▁Cré	-7735
accélé	-7736
sur	-7737
▁Moldova	-7738
▁prière	-7739
▁parlementaire	-7740
▁Soixante	-7741
empêcher	-7742
▁renon	-7743
▁félicitons	-7744
▁sh	-7745
▁Ju	-7746
▁âgés	-7747
irs	-7748
▁placé	-7749
▁corpore	-7750
▁compati	-7751
paravant	-7752
avancement	-7753
▁euros	-7754
▁puisqu	-7755
▁performance	-7756
▁incidence	-7757
▁Eng	-7758
▁majeur	-7759
▁Rapporteuse	-7760
▁symp	-7761
élection	-7762
▁signer	-7763
▁Mise	-7764
▁destin	-7765
▁compagnie	-7766
▁américain	-7767
▁kilom	-7768
▁messages	-7769
▁sil	-7770
▁participe	-7771
cha	-7772
▁imparti	-7773
▁soutenu	-7774
▁conjoint	-7775
▁Publi	-7776
▁défic	-7777
▁sport	-7778
admission	-7779
▁compétente	-7780
▁saison	-7781
▁distribuer	-7782
▁1373	-7783
▁opinions	-7784
▁extérieures	-7785
▁correctement	-7786
▁Application	-7787
▁accessible	-7788
isson	-7789
airo	-7790
ommage	-7791
▁satellite	-7792
▁israélien	-7793
▁Nombre	-7794
▁assor	-7795
▁trouvé	-7796
▁recourir	-7797
▁estimations	-7798
▁effectuée	-7799
▁génocide	-7800
déc	-7801
▁américains	-7802
▁ceci	-7803
oré	-7804
▁Lond	-7805
/20	-7806
▁déplacements	-7807
▁permettront	-7808
▁hauts	-7809
▁exprimées	-7810
▁salaire	-7811
Pro	-7812
▁inférieur	-7813
▁Ra	-7814
▁dérog	-7815
▁tab	-7816
tionnement	-7817
anisme	-7818
▁liban	-7819
▁approbation	-7820
▁thématiques	-7821
bile	-7822
▁mass	-7823
▁1995,	-7824
▁Malte	-7825
▁complètement	-7826
▁flexi	-7827
-199	-7828
AG	-7829
▁illégale	-7830
▁At	-7831
▁TIC	-7832
▁voulues	-7833
▁concrets	-7834
▁décisi	-7835
▁gagner	-7836
▁Inc	-7837
▁automatiquement	-7838
▁plage	-7839
époque	-7840
oirs	-7841
▁argu	-7842
▁verser	-7843
▁interd	-7844
.11	-7845
isible	-7846
tale	-7847
▁allemand	-7848
▁remboursement	-7849
ancien	-7850
▁excellent	-7851
▁congé	-7852
▁Indonésie	-7853
▁2008-200	-7854
▁Date	-7855
▁énumé	-7856
▁bénéficié	-7857
▁Réseau	-7858
ison	-7859
rasse	-7860
▁entraîner	-7861
olivie	-7862
rire	-7863
▁recev	-7864
▁gravement	-7865
▁hui	-7866
stein	-7867
▁avions	-7868
/60/	-7869
▁veulent	-7870
▁réalisées	-7871
▁Ses	-7872
QU	-7873
▁ça	-7874
▁définit	-7875
▁assuré	-7876
▁associé	-7877
▁demeurent	-7878
▁équilibre	-7879
sibles	-7880
▁assi	-7881
▁bri	-7882
▁officiellement	-7883
énin	-7884
ws	-7885
▁condamné	-7886
arma	-7887
▁Viet	-7888
▁croissant	-7889
▁rectifications	-7890
get	-7891
/18	-7892
▁administrations	-7893
ko	-7894
▁cruels	-7895
lies	-7896
▁administrateurs	-7897
▁abouti	-7898
▁mesurer	-7899
▁Wind	-7900
quez	-7901
duire	-7902
▁suffisante	-7903
▁inclus	-7904
êtes	-7905
▁moyennes	-7906
▁prisonniers	-7907
lah	-7908
icaine	-7909
▁dénon	-7910
▁définitive	-7911
▁provenance	-7912
offrir	-7913
▁droite	-7914
▁éventuellement	-7915
tat	-7916
rément	-7917
airobi	-7918
*,	-7919
▁arrêté	-7920
▁majeure	-7921
▁examinés	-7922
▁stable	-7923
▁nett	-7924
▁Év	-7925
▁réflé	-7926
▁carbone	-7927
▁suivie	-7928
ilier	-7929
▁japon	-7930
▁CD	-7931
arer	-7932
▁proté	-7933
▁remarqu	-7934
▁Cambodge	-7935
.1)	-7936
▁surven	-7937
▁interdis	-7938
▁bâtiments	-7939
exemple	-7940
▁conduire	-7941
arde	-7942
▁détaillé	-7943
▁'	-7944
▁appareils	-7945
▁fournissant	-7946
▁traduire	-7947
oriques	-7948
▁fonctionner	-7949
▁menés	-7950
▁maisons	-7951
▁intervenir	-7952
▁équipé	-7953
▁numérique	-7954
▁mér	-7955
▁véritablement	-7956
Ontario	-7957
▁ence	-7958
ty	-7959
velop	-7960
ellence	-7961
▁procré	-7962
▁homolo	-7963
▁Faso	-7964
infraction	-7965
▁PIB	-7966
AF	-7967
▁spor	-7968
▁utilisations	-7969
▁innov	-7970
▁art	-7971
▁marques	-7972
▁vérité	-7973
▁piscine	-7974
▁réussite	-7975
Rou	-7976
▁Sans	-7977
▁ventes	-7978
▁certificat	-7979
ténu	-7980
▁moindre	-7981
▁incorpor	-7982
arbitrage	-7983
6).	-7984
▁Ghana	-7985
▁susceptible	-7986
▁Es	-7987
▁Consid	-7988
nelle	-7989
▁accéder	-7990
▁déterminé	-7991
▁appuyé	-7992
istiques	-7993
▁résidents	-7994
▁macro	-7995
▁ouverts	-7996
ache	-7997
▁Principes	-7998
ula	-7999
enci	-8000
▁reconnaissant	-8001
▁Ukraine	-8002
▁égal	-8003
▁traditionnels	-8004
▁combien	-8005
ho	-8006
▁océ	-8007
▁MONU	-8008
▁modifiée	-8009
ited	-8010
▁réclamation	-8011
▁unies	-8012
istait	-8013
▁Cameroun	-8014
▁musul	-8015
▁3.	-8016
rages	-8017
Autriche	-8018
restation	-8019
▁progressivement	-8020
▁liby	-8021
▁Ag	-8022
▁Source	-8023
ET	-8024
▁entendre	-8025
▁contraintes	-8026
allage	-8027
▁rigoure	-8028
▁indiquées	-8029
▁périodes	-8030
ogo	-8031
▁pilote	-8032
▁familial	-8033
▁autorisés	-8034
▁antiterroriste	-8035
amas	-8036
▁autonome	-8037
▁saurait	-8038
▁importations	-8039
▁mercredi	-8040
▁subsistance	-8041
indemnisation	-8042
▁rendement	-8043
lair	-8044
CH	-8045
ayant	-8046
rs	-8047
isée	-8048
▁religieuse	-8049
glise	-8050
▁Ge	-8051
▁Aucune	-8052
▁Nairobi	-8053
▁considérations	-8054
▁race	-8055
▁revanche	-8056
▁64	-8057
▁figurer	-8058
▁fixer	-8059
▁Lig	-8060
▁adéquate	-8061
▁future	-8062
▁photos	-8063
93	-8064
▁médical	-8065
STA	-8066
▁mémoire	-8067
▁iden	-8068
▁touche	-8069
▁discours	-8070
▁homme	-8071
▁consultatifs	-8072
▁concerné	-8073
▁électorale	-8074
Yougoslavie	-8075
▁rel	-8076
éti	-8077
▁Dj	-8078
▁placés	-8079
▁profondément	-8080
▁prévoi	-8081
issau	-8082
quait	-8083
▁DR	-8084
▁relevé	-8085
▁coeur	-8086
▁fixe	-8087
▁maîtrise	-8088
▁description	-8089
▁poly	-8090
Article	-8091
alisées	-8092
▁prouv	-8093
▁PME	-8094
tissement	-8095
▁sent	-8096
observateur	-8097
▁sensiblement	-8098
▁Van	-8099
icile	-8100
amén	-8101
▁Singapour	-8102
▁africain	-8103
▁soin	-8104
▁contractantes	-8105
ultan	-8106
▁faim	-8107
▁hôte	-8108
▁juger	-8109
▁fasse	-8110
ressions	-8111
▁Mic	-8112
ajouter	-8113
▁conseiller	-8114
side	-8115
▁Recommandation	-8116
▁demain	-8117
▁calme	-8118
▁faisait	-8119
▁lux	-8120
▁Prenant	-8121
▁tarif	-8122
ilà	-8123
▁détéri	-8124
▁relèvent	-8125
App	-8126
▁retirer	-8127
▁réunir	-8128
intensi	-8129
▁recueillir	-8130
▁musi	-8131
mén	-8132
▁dommage	-8133
▁souscrit	-8134
▁encourageant	-8135
▁célè	-8136
▁Doha	-8137
▁subi	-8138
▁permanentes	-8139
alphabé	-8140
oise	-8141
dex	-8142
▁sang	-8143
imbabwe	-8144
sidence	-8145
▁résistance	-8146
mateur	-8147
▁den	-8148
parti	-8149
wan	-8150
vices	-8151
▁méta	-8152
▁Quand	-8153
▁déchar	-8154
▁700	-8155
▁hotel	-8156
▁Bolivie	-8157
▁Cadre	-8158
ader	-8159
▁chev	-8160
▁pensions	-8161
▁analyses	-8162
▁domicile	-8163
▁renouvelables	-8164
▁autrement	-8165
▁réaffirme	-8166
▁iraquien	-8167
▁personnelles	-8168
opposition	-8169
▁bénéficie	-8170
ellé	-8171
▁clefs	-8172
▁partenaire	-8173
exprimer	-8174
▁gre	-8175
▁conseillers	-8176
évent	-8177
où	-8178
▁bro	-8179
bud	-8180
rances	-8181
▁voiture	-8182
▁ray	-8183
démie	-8184
▁expliquer	-8185
▁1992	-8186
▁évidemment	-8187
▁livres	-8188
istants	-8189
▁standard	-8190
▁difficulté	-8191
▁9,	-8192
▁reprendre	-8193
▁territoriale	-8194
▁laborat	-8195
fort	-8196
deur	-8197
▁Quant	-8198
▁suffit	-8199
▁consenti	-8200
tenstein	-8201
▁pourtant	-8202
▁préalables	-8203
▁LES	-8204
▁située	-8205
▁compli	-8206
▁remettre	-8207
/15	-8208
dia	-8209
und	-8210
▁préval	-8211
▁forcé	-8212
▁industriels	-8213
PA	-8214
▁totalité	-8215
▁récu	-8216
cour	-8217
▁récents	-8218
importation	-8219
▁ladite	-8220
als	-8221
ives	-8222
▁2.1	-8223
expulsion	-8224
▁Qatar	-8225
vrer	-8226
▁1991	-8227
▁pun	-8228
▁évident	-8229
▁gratuitement	-8230
▁Télé	-8231
▁septième	-8232
▁chance	-8233
▁multilatérales	-8234
▁souples	-8235
▁propag	-8236
RES	-8237
▁intégrante	-8238
▁dois	-8239
aud	-8240
▁facilitation	-8241
letin	-8242
▁constitutionnel	-8243
appareil	-8244
▁entrer	-8245
▁vra	-8246
▁Droit	-8247
▁délibérations	-8248
▁parité	-8249
ispr	-8250
▁infanti	-8251
▁identifier	-8252
▁Argentine	-8253
▁engagée	-8254
▁salaires	-8255
▁reflé	-8256
▁accorde	-8257
▁Burkina	-8258
▁polluants	-8259
▁mérite	-8260
tél	-8261
▁intérieures	-8262
▁(«	-8263
▁sinc	-8264
adji	-8265
pour	-8266
▁libres	-8267
▁Développement	-8268
▁Mali	-8269
▁sin	-8270
▁vieill	-8271
icaragua	-8272
Secré	-8273
rist	-8274
▁toxic	-8275
mail	-8276
echtenstein	-8277
▁capable	-8278
▁visiter	-8279
▁limitées	-8280
ortés	-8281
lantique	-8282
▁élevée	-8283
▁rechercher	-8284
▁(5	-8285
autant	-8286
vait	-8287
▁similaires	-8288
lications	-8289
Instance	-8290
▁touchées	-8291
▁Malheureusement	-8292
▁Kir	-8293
▁revue	-8294
▁Coordonn	-8295
▁planète	-8296
▁Réaffirme	-8297
tag	-8298
▁syner	-8299
▁posent	-8300
▁agences	-8301
▁navig	-8302
régional	-8303
aimer	-8304
▁discuter	-8305
▁domes	-8306
▁affér	-8307
▁cellu	-8308
▁mixte	-8309
ondes	-8310
lit	-8311
▁mène	-8312
ôles	-8313
cides	-8314
▁XXI	-8315
ava	-8316
▁Port	-8317
▁aborder	-8318
▁limitation	-8319
▁Mus	-8320
▁Yougoslavie	-8321
4).	-8322
/22	-8323
▁ryth	-8324
▁détour	-8325
▁mobile	-8326
raires	-8327
▁routes	-8328
▁bloc	-8329
▁injus	-8330
▁visiteurs	-8331
▁concré	-8332
▁occidental	-8333
outil	-8334
▁intention	-8335
VI	-8336
▁comptabilité	-8337
▁mas	-8338
annu	-8339
▁justifier	-8340
▁intégration	-8341
pects	-8342
▁paramètres	-8343
▁Zimbabwe	-8344
issez	-8345
▁asi	-8346
dification	-8347
▁quin	-8348
▁établit	-8349
igu	-8350
ye	-8351
▁mentionnés	-8352
erti	-8353
itez	-8354
▁concert	-8355
riya	-8356
▁COMM	-8357
▁cam	-8358
▁construire	-8359
mon	-8360
▁prorog	-8361
▁centra	-8362
▁course	-8363
▁sentiment	-8364
UL	-8365
▁sortir	-8366
zbé	-8367
▁fonctionne	-8368
▁cens	-8369
▁substanti	-8370
▁méthod	-8371
▁som	-8372
▁ultérieurement	-8373
zbékistan	-8374
SS	-8375
▁doc	-8376
▁spécifiquement	-8377
▁immig	-8378
ordi	-8379
grammes	-8380
efforcer	-8381
▁malheureusement	-8382
▁mérit	-8383
▁format	-8384
alogues	-8385
▁référen	-8386
/17	-8387
MD	-8388
▁engager	-8389
▁Cli	-8390
tentes	-8391
utation	-8392
▁apparaître	-8393
▁revenir	-8394
rera	-8395
▁maritimes	-8396
▁viennent	-8397
▁travaillant	-8398
MP	-8399
▁réalisée	-8400
▁américaine	-8401
▁Pos	-8402
électricité	-8403
ator	-8404
▁démobilisation	-8405
▁généralis	-8406
▁Durant	-8407
▁Forces	-8408
▁sections	-8409
▁gouvernementale	-8410
▁dur	-8411
orateur	-8412
incidence	-8413
▁père	-8414
augmenter	-8415
verse	-8416
▁ami	-8417
▁marge	-8418
▁magni	-8419
garde	-8420
esses	-8421
▁convaincu	-8422
▁pluri	-8423
▁égale	-8424
▁stipule	-8425
▁implique	-8426
90	-8427
▁accueilli	-8428
▁délégu	-8429
▁sols	-8430
▁om	-8431
atelier	-8432
▁extérieur	-8433
atre	-8434
FOR	-8435
▁jurispr	-8436
▁Premièrement	-8437
▁Égypte	-8438
▁exemplaire	-8439
▁bran	-8440
▁dimensions	-8441
▁utilisent	-8442
▁Ver	-8443
étant	-8444
▁Cal	-8445
abinet	-8446
▁sugg	-8447
dom	-8448
▁fro	-8449
▁Consci	-8450
▁indispensables	-8451
▁alinéa	-8452
▁Renforcement	-8453
▁papier	-8454
▁contacter	-8455
▁avantage	-8456
isses	-8457
▁nécessairement	-8458
▁attent	-8459
estiv	-8460
▁terrasse	-8461
▁sté	-8462
oyers	-8463
▁constante	-8464
▁envoyé	-8465
▁revoir	-8466
▁stabilisation	-8467
lons	-8468
tienne	-8469
gner	-8470
▁demandons	-8471
▁viabilité	-8472
▁teneur	-8473
▁Fac	-8474
▁grec	-8475
▁soixantième	-8476
▁affectés	-8477
▁68	-8478
accroissement	-8479
▁Bud	-8480
impression	-8481
▁imm	-8482
▁libyenne	-8483
▁sit	-8484
cteurs	-8485
annes	-8486
▁Nicaragua	-8487
▁ECE	-8488
izième	-8489
joute	-8490
▁quantités	-8491
▁primaires	-8492
▁salon	-8493
▁Journée	-8494
▁ordinateur	-8495
▁rapporteurs	-8496
▁photo	-8497
▁assumer	-8498
▁Ro	-8499
▁Présent	-8500
▁inaccep	-8501
▁confé	-8502
▁Im	-8503
▁salue	-8504
lass	-8505
▁traitées	-8506
orce	-8507
roy	-8508
▁John	-8509
▁WP	-8510
uels	-8511
aimerais	-8512
▁SB	-8513
ONG	-8514
▁cesse	-8515
▁mains	-8516
▁avancer	-8517
▁bless	-8518
ét	-8519
▁décennie	-8520
▁concentration	-8521
▁Hay	-8522
émission	-8523
▁précédents	-8524
▁21,	-8525
▁couvre	-8526
▁ign	-8527
illon	-8528
▁sécher	-8529
agas	-8530
émen	-8531
quêter	-8532
▁Four	-8533
▁kilomètres	-8534
▁semblent	-8535
▁Seu	-8536
▁by	-8537
▁présidents	-8538
▁restruc	-8539
12	-8540
▁classification	-8541
▁coura	-8542
▁priva	-8543
▁journalistes	-8544
▁villages	-8545
▁Zambie	-8546
▁félicitant	-8547
chées	-8548
ington	-8549
▁renforcée	-8550
uss	-8551
▁cess	-8552
▁collègue	-8553
ÉS	-8554
▁portu	-8555
là	-8556
▁déplacement	-8557
▁mardi	-8558
▁Liechtenstein	-8559
ghi	-8560
▁fou	-8561
▁personnelle	-8562
discrimination	-8563
iration	-8564
▁accidents	-8565
ernant	-8566
Bissau	-8567
bergement	-8568
▁département	-8569
▁recommander	-8570
▁unis	-8571
obile	-8572
▁mentale	-8573
▁avocats	-8574
▁copie	-8575
▁chaleure	-8576
▁connaît	-8577
▁TV	-8578
rak	-8579
5).	-8580
▁sugges	-8581
▁invent	-8582
▁fermet	-8583
▁prospé	-8584
8),	-8585
▁isol	-8586
▁citoyen	-8587
▁trib	-8588
▁appartient	-8589
▁titres	-8590
▁déterminée	-8591
uyant	-8592
entraî	-8593
▁Bénin	-8594
▁Caisse	-8595
ECE	-8596
▁inscrites	-8597
▁Windows	-8598
▁compagnies	-8599
▁jurisprudence	-8600
▁chu	-8601
▁doter	-8602
/14	-8603
▁restaurants	-8604
utilisateur	-8605
▁rétablissement	-8606
fe	-8607
▁Air	-8608
naires	-8609
▁Bus	-8610
▁Moz	-8611
▁créanciers	-8612
▁révisée	-8613
▁Law	-8614
▁écrite	-8615
▁recensement	-8616
▁World	-8617
▁mineur	-8618
▁affirmé	-8619
itecture	-8620
▁Sw	-8621
▁hommage	-8622
▁opérationnelle	-8623
▁publicité	-8624
▁Ste	-8625
▁inégalités	-8626
▁déte	-8627
orandum	-8628
êtres	-8629
▁désigné	-8630
▁feux	-8631
▁examens	-8632
éré	-8633
▁manuel	-8634
▁immédiate	-8635
die	-8636
▁spa	-8637
amahi	-8638
amendements	-8639
▁céléb	-8640
dicats	-8641
▁précisions	-8642
▁approuvés	-8643
▁intégrées	-8644
▁centaines	-8645
/16	-8646
Habitat	-8647
▁Encourage	-8648
oft	-8649
amahiriya	-8650
▁complémentaire	-8651
▁avancées	-8652
▁entraîné	-8653
Unie	-8654
▁magas	-8655
▁crucial	-8656
▁débit	-8657
▁cessez	-8658
▁annuels	-8659
▁nomin	-8660
lue	-8661
▁Gra	-8662
cend	-8663
▁tort	-8664
▁agent	-8665
▁alli	-8666
▁10,	-8667
▁Sah	-8668
▁73	-8669
▁commentaire	-8670
élément	-8671
▁formulée	-8672
▁industrielle	-8673
informer	-8674
meu	-8675
▁situés	-8676
▁exemplaires	-8677
▁défenseurs	-8678
▁surp	-8679
▁attendant	-8680
▁potentiels	-8681
Rouge	-8682
▁Ress	-8683
▁bateaux	-8684
▁Aucun	-8685
▁accru	-8686
▁quasi	-8687
▁Société	-8688
▁Jamaïque	-8689
▁design	-8690
▁fiscale	-8691
noc	-8692
▁traduit	-8693
▁soumission	-8694
CONF	-8695
▁opérationnels	-8696
▁fraude	-8697
▁diminué	-8698
▁portées	-8699
▁prot	-8700
▁Hôtel	-8701
▁supervision	-8702
éléments	-8703
▁provisoires	-8704
▁Sixième	-8705
▁Pra	-8706
▁support	-8707
▁Dur	-8708
alisée	-8709
▁préoccupée	-8710
▁problé	-8711
guration	-8712
▁ajoutée	-8713
itants	-8714
▁concentrer	-8715
▁jardin	-8716
cule	-8717
▁inférieure	-8718
Pa	-8719
▁suggéré	-8720
▁contractu	-8721
▁policiers	-8722
▁Ten	-8723
▁conclus	-8724
▁Acc	-8725
▁détection	-8726
▁5.	-8727
influ	-8728
▁conçus	-8729
▁graph	-8730
accords	-8731
terdam	-8732
enneté	-8733
▁syndicats	-8734
▁harc	-8735
▁solides	-8736
▁mur	-8737
▁échelle	-8738
son	-8739
ennal	-8740
▁antérieures	-8741
.».	-8742
▁euro	-8743
▁liqu	-8744
▁division	-8745
fas	-8746
cie	-8747
▁gravité	-8748
▁2010.	-8749
▁parle	-8750
ressent	-8751
▁pér	-8752
8).	-8753
Etat	-8754
▁fondement	-8755
▁prisons	-8756
PC	-8757
▁génération	-8758
cité	-8759
▁procu	-8760
▁Wi	-8761
▁retenue	-8762
▁Mc	-8763
▁administration	-8764
▁conviendrait	-8765
▁financé	-8766
▁DROIT	-8767
▁assurant	-8768
hol	-8769
eront	-8770
▁clima	-8771
ouest	-8772
▁publiée	-8773
Con	-8774
▁allons	-8775
servations	-8776
▁défavoris	-8777
▁chers	-8778
▁finalement	-8779
▁sév	-8780
▁pratiquement	-8781
oty	-8782
▁Conventions	-8783
14	-8784
▁Cel	-8785
ajus	-8786
▁diplô	-8787
▁avoirs	-8788
▁4.	-8789
arts	-8790
▁infantile	-8791
POR	-8792
▁revêt	-8793
▁Statis	-8794
matif	-8795
▁Aussi	-8796
▁Yémen	-8797
▁porn	-8798
19	-8799
▁Ben	-8800
▁condamnation	-8801
▁doté	-8802
▁1994,	-8803
▁Dès	-8804
▁indications	-8805
▁financés	-8806
▁veille	-8807
uffisance	-8808
▁bain	-8809
▁composantes	-8810
poration	-8811
▁National	-8812
olonisation	-8813
enda	-8814
▁recruté	-8815
▁banque	-8816
▁déposé	-8817
▁urbaines	-8818
ozone	-8819
oyage	-8820
▁normalement	-8821
▁org	-8822
▁soir	-8823
inves	-8824
▁risquent	-8825
▁tradition	-8826
/58/	-8827
▁publiées	-8828
▁passagers	-8829
▁transporteur	-8830
▁notes	-8831
▁demi	-8832
appar	-8833
▁accusés	-8834
▁suggestions	-8835
▁technologiques	-8836
PS	-8837
▁viable	-8838
▁générations	-8839
▁comportements	-8840
▁cali	-8841
endront	-8842
▁informatique	-8843
▁auparavant	-8844
▁connec	-8845
▁mentionner	-8846
▁Ligue	-8847
yc	-8848
ANT	-8849
ony	-8850
ètes	-8851
arrivée	-8852
▁débu	-8853
▁industries	-8854
▁certification	-8855
oraires	-8856
UNIT	-8857
▁900	-8858
▁Gol	-8859
72	-8860
▁directs	-8861
mil	-8862
▁nourriture	-8863
▁subsidiaire	-8864
▁fili	-8865
gué	-8866
▁fils	-8867
▁Reg	-8868
▁universités	-8869
ueil	-8870
organisme	-8871
▁écosystèmes	-8872
▁intégralement	-8873
Mar	-8874
giène	-8875
▁Méc	-8876
annon	-8877
▁détente	-8878
▁urgent	-8879
▁acquise	-8880
▁coûte	-8881
▁Corps	-8882
pire	-8883
édition	-8884
▁Ressources	-8885
▁prévoyant	-8886
▁sanitaire	-8887
▁intégrale	-8888
▁décolonisation	-8889
▁Rob	-8890
opérations	-8891
▁Uti	-8892
PNU	-8893
▁foresti	-8894
▁Coordonnateur	-8895
arrê	-8896
▁externes	-8897
.2,	-8898
▁reflète	-8899
▁suppression	-8900
▁concertation	-8901
▁contes	-8902
▁rendue	-8903
quets	-8904
aute	-8905
▁annexes	-8906
▁bis	-8907
ardi	-8908
▁arrive	-8909
SCI	-8910
▁unité	-8911
▁israélienne	-8912
▁survie	-8913
▁tableaux	-8914
15	-8915
▁contenues	-8916
▁simples	-8917
▁Directrice	-8918
tas	-8919
adapter	-8920
ouverne	-8921
▁attentes	-8922
▁logique	-8923
▁témoign	-8924
timité	-8925
▁suivent	-8926
▁institutionnels	-8927
▁côte	-8928
ibie	-8929
dev	-8930
rich	-8931
▁tun	-8932
actif	-8933
▁prête	-8934
entend	-8935
▁carburant	-8936
agnos	-8937
▁situe	-8938
▁municipalités	-8939
▁Pu	-8940
effectuer	-8941
exposition	-8942
hen	-8943
1).	-8944
▁explique	-8945
fini	-8946
▁fores	-8947
▁prévoient	-8948
▁Peu	-8949
▁Tu	-8950
▁plate	-8951
▁85	-8952
velopment	-8953
▁offerts	-8954
gues	-8955
▁achet	-8956
▁expériment	-8957
▁subvention	-8958
duit	-8959
▁félicité	-8960
▁option	-8961
ainte	-8962
▁ajouté	-8963
▁devenue	-8964
▁refuser	-8965
OMI	-8966
ralisme	-8967
romp	-8968
▁Europé	-8969
▁cesser	-8970
Secrétaire	-8971
▁consacrer	-8972
▁correspondants	-8973
échapp	-8974
▁syndic	-8975
▁finance	-8976
ED	-8977
acceptation	-8978
▁perç	-8979
udisme	-8980
▁transfrontières	-8981
enh	-8982
angers	-8983
▁connexion	-8984
6),	-8985
âtre	-8986
engage	-8987
nelles	-8988
▁primordi	-8989
▁cohérente	-8990
▁universitaires	-8991
identifier	-8992
DCI	-8993
tionnaires	-8994
▁vieillissement	-8995
Azerbaïdjan	-8996
pol	-8997
▁CES	-8998
▁95	-8999
▁restructuration	-9000
▁pédago	-9001
▁criminels	-9002
den	-9003
issants	-9004
▁titulaires	-9005
acu	-9006
nationales	-9007
▁Tchad	-9008
ourses	-9009
▁vite	-9010
▁Communication	-9011
▁crédibilité	-9012
▁monnaie	-9013
▁réduite	-9014
▁clé	-9015
▁indé	-9016
▁meu	-9017
▁revient	-9018
▁attirer	-9019
▁souffrances	-9020
▁tentative	-9021
▁POUR	-9022
aménagement	-9023
▁rythme	-9024
▁routière	-9025
écart	-9026
▁milieux	-9027
▁envoyer	-9028
▁dates	-9029
▁chré	-9030
▁canadiens	-9031
▁post	-9032
▁Algérie	-9033
▁pénitentiaire	-9034
▁flu	-9035
attribu	-9036
▁agréable	-9037
▁propriétaires	-9038
ditif	-9039
ights	-9040
idation	-9041
vin	-9042
▁accélérer	-9043
▁PRO	-9044
oa	-9045
▁Pas	-9046
onduras	-9047
▁terrestres	-9048
▁cible	-9049
▁guère	-9050
aller	-9051
▁inscrite	-9052
▁serre	-9053
▁libellé	-9054
▁belle	-9055
▁urbain	-9056
sa	-9057
▁attendre	-9058
▁Concernant	-9059
3),	-9060
isations	-9061
▁évoqué	-9062
▁paludisme	-9063
▁Panama	-9064
▁Londres	-9065
▁4.1	-9066
▁protégés	-9067
▁indiquent	-9068
▁crée	-9069
▁téléphon	-9070
▁Éthiopie	-9071
▁éventail	-9072
achèvement	-9073
▁flé	-9074
orable	-9075
ennies	-9076
▁verb	-9077
▁formulé	-9078
▁versées	-9079
▁candida	-9080
ertes	-9081
▁rendent	-9082
▁mentionnées	-9083
agissait	-9084
▁Commentaires	-9085
▁image	-9086
oxy	-9087
fient	-9088
2).	-9089
alerte	-9090
ténuation	-9091
▁mè	-9092
ssant	-9093
4),	-9094
▁endroit	-9095
▁définie	-9096
aliment	-9097
▁air	-9098
ttes	-9099
▁fiables	-9100
onnements	-9101
-19	-9102
▁additionnel	-9103
▁néfas	-9104
alth	-9105
▁estimons	-9106
▁résident	-9107
▁échantill	-9108
▁Mong	-9109
vasion	-9110
cool	-9111
▁rétablir	-9112
ffre	-9113
landa	-9114
▁visée	-9115
1),	-9116
▁aidé	-9117
▁regrette	-9118
▁courrier	-9119
▁Fid	-9120
▁excell	-9121
▁ambiti	-9122
▁superfici	-9123
▁investi	-9124
▁distribué	-9125
▁patients	-9126
oubli	-9127
▁Terre	-9128
▁montagne	-9129
▁constituant	-9130
Algérie	-9131
▁vég	-9132
▁conformer	-9133
▁hôpit	-9134
▁trimestre	-9135
alition	-9136
▁délinquants	-9137
▁décennies	-9138
▁autorisation	-9139
▁différente	-9140
▁Promotion	-9141
▁bient	-9142
▁axé	-9143
▁dépasser	-9144
▁club	-9145
allég	-9146
▁onzième	-9147
▁employeurs	-9148
▁amén	-9149
▁soumet	-9150
bon	-9151
organismes	-9152
ky	-9153
▁définitions	-9154
▁Jamahiriya	-9155
▁acceptable	-9156
▁certes	-9157
▁psychologique	-9158
▁gel	-9159
Mon	-9160
▁concevoir	-9161
▁copi	-9162
▁enseignement	-9163
oo	-9164
▁exécutive	-9165
landaise	-9166
▁tarifs	-9167
ambique	-9168
▁association	-9169
.3.1	-9170
▁spécialisée	-9171
▁confis	-9172
▁offert	-9173
▁atteintes	-9174
sible	-9175
▁titulaire	-9176
▁profondes	-9177
ases	-9178
nez	-9179
▁assisté	-9180
▁naturelle	-9181
▁arbitraire	-9182
▁inuti	-9183
▁dominicaine	-9184
▁thématique	-9185
▁complex	-9186
anglais	-9187
ulé	-9188
▁juridictions	-9189
▁bus	-9190
▁synthèse	-9191
▁centrafricaine	-9192
terie	-9193
▁poissons	-9194
épre	-9195
▁égalité	-9196
▁XXIe	-9197
▁sérieusement	-9198
▁expul	-9199
▁Niger	-9200
▁(2004)	-9201
orizon	-9202
▁pressions	-9203
▁attra	-9204
accéder	-9205
▁électrique	-9206
▁apparaît	-9207
▁12,	-9208
7).	-9209
AIR	-9210
▁reçoit	-9211
▁possession	-9212
▁2.2	-9213
▁chron	-9214
▁entreprendre	-9215
▁renseignement	-9216
▁exécuter	-9217
▁Ang	-9218
▁aides	-9219
▁carrière	-9220
▁prospérité	-9221
▁adressé	-9222
animité	-9223
▁bientôt	-9224
▁codes	-9225
▁module	-9226
▁arriver	-9227
▁sexuel	-9228
▁entrepren	-9229
▁el	-9230
▁Bra	-9231
▁confrontés	-9232
▁délits	-9233
▁Angola	-9234
▁constamment	-9235
CCC	-9236
aco	-9237
▁couleurs	-9238
▁confidentialité	-9239
ortait	-9240
▁investisseurs	-9241
▁laisse	-9242
▁concrète	-9243
▁contiennent	-9244
monie	-9245
▁pièce	-9246
▁légitimes	-9247
▁ancien	-9248
▁secret	-9249
▁chercheurs	-9250
▁contenus	-9251
▁PC	-9252
▁Fre	-9253
▁mutuelle	-9254
régionales	-9255
▁Beau	-9256
▁apportée	-9257
▁quit	-9258
▁constructif	-9259
▁CNUDCI	-9260
▁secondaires	-9261
ize	-9262
culation	-9263
▁bancaire	-9264
▁DÉ	-9265
▁simultan	-9266
▁enj	-9267
▁fréquent	-9268
▁plénières	-9269
lore	-9270
▁oralement	-9271
▁réglementations	-9272
▁franc	-9273
▁combler	-9274
▁critère	-9275
estime	-9276
inclure	-9277
▁pilotes	-9278
▁autorisée	-9279
▁hydro	-9280
▁écrites	-9281
reïn	-9282
▁informatiques	-9283
hon	-9284
▁mélan	-9285
▁développé	-9286
▁Namibie	-9287
▁représenter	-9288
▁serveur	-9289
▁lou	-9290
capacité	-9291
organ	-9292
autonomie	-9293
nités	-9294
▁proches	-9295
▁éventuelle	-9296
▁Soulignant	-9297
▁souhaitable	-9298
itement	-9299
▁recrutés	-9300
mirats	-9301
effici	-9302
prouv	-9303
▁propriétaire	-9304
▁arrière	-9305
▁mauvaise	-9306
▁canadiennes	-9307
▁morale	-9308
▁souha	-9309
▁répert	-9310
▁expliqué	-9311
▁dangers	-9312
▁procurer	-9313
▁clari	-9314
▁portes	-9315
▁tensions	-9316
24	-9317
/54	-9318
▁individuels	-9319
▁préco	-9320
▁législative	-9321
▁réglementaires	-9322
▁Rio	-9323
quemment	-9324
▁instaurer	-9325
▁veux	-9326
▁repris	-9327
▁cessation	-9328
▁Méd	-9329
▁influence	-9330
83	-9331
▁Go	-9332
▁assurée	-9333
▁tutelle	-9334
onné	-9335
▁Iran	-9336
▁coordonnée	-9337
▁résolu	-9338
▁migration	-9339
▁Honduras	-9340
▁3.1	-9341
▁consig	-9342
▁profes	-9343
▁acquit	-9344
65	-9345
].	-9346
▁priées	-9347
▁Tok	-9348
▁trés	-9349
▁visé	-9350
▁morts	-9351
▁rapides	-9352
▁paquet	-9353
essentiel	-9354
▁histoire	-9355
▁blanc	-9356
▁erreur	-9357
▁vols	-9358
▁Mil	-9359
informatique	-9360
▁strictement	-9361
immun	-9362
mante	-9363
gouvernementale	-9364
▁cuba	-9365
▁Reconna	-9366
can	-9367
▁fournisseur	-9368
http	-9369
▁Human	-9370
▁manifestation	-9371
ection	-9372
Ouganda	-9373
outi	-9374
▁Mongolie	-9375
▁demandent	-9376
▁introduit	-9377
▁néglig	-9378
▁parking	-9379
▁rapatriement	-9380
Is	-9381
▁extrabud	-9382
▁historiques	-9383
▁Imp	-9384
▁quitter	-9385
▁dues	-9386
adjikistan	-9387
▁hom	-9388
▁Sainte	-9389
▁120	-9390
cén	-9391
▁Vis	-9392
9),	-9393
▁précision	-9394
▁Gouvern	-9395
▁centrales	-9396
▁hi	-9397
▁Gren	-9398
▁potable	-9399
▁récent	-9400
▁ther	-9401
inéas	-9402
Éthiopie	-9403
▁libanais	-9404
▁suppose	-9405
tiser	-9406
▁appelée	-9407
▁Environ	-9408
oeu	-9409
OPS	-9410
▁requise	-9411
▁room	-9412
9).	-9413
▁foyers	-9414
▁annonce	-9415
▁socioéconomique	-9416
FC	-9417
▁exhaus	-9418
▁Pres	-9419
▁explosifs	-9420
▁nécessite	-9421
▁servent	-9422
▁Mozambique	-9423
▁Présidence	-9424
▁ble	-9425
▁pure	-9426
▁are	-9427
appréci	-9428
▁Rights	-9429
▁sensibles	-9430
urit	-9431
▁vais	-9432
▁descrip	-9433
▁publier	-9434
embar	-9435
▁bateau	-9436
▁Stock	-9437
▁fassent	-9438
▁versement	-9439
▁bienvenue	-9440
2),	-9441
▁Gestion	-9442
▁incompati	-9443
▁Institu	-9444
▁cessé	-9445
▁demandant	-9446
▁perdre	-9447
▁souhaitons	-9448
escla	-9449
adresser	-9450
▁votes	-9451
▁Exc	-9452
▁TNP	-9453
▁croire	-9454
▁Haye	-9455
ortateurs	-9456
ologies	-9457
▁légale	-9458
▁compétent	-9459
84	-9460
▁pluriannu	-9461
▁contribuera	-9462
cev	-9463
▁représentante	-9464
▁aérienne	-9465
▁DROITS	-9466
▁harcèlement	-9467
▁seuil	-9468
▁film	-9469
▁11,	-9470
▁positives	-9471
Qu	-9472
▁virus	-9473
lissement	-9474
▁hypo	-9475
bureau	-9476
▁délit	-9477
espé	-9478
ataire	-9479
▁1993,	-9480
▁Madrid	-9481
▁Prof	-9482
fir	-9483
▁Moh	-9484
▁Lin	-9485
▁bourses	-9486
ocations	-9487
▁huitième	-9488
▁Tadjikistan	-9489
▁décideurs	-9490
armonie	-9491
▁reporter	-9492
▁éducatif	-9493
ks	-9494
agression	-9495
urés	-9496
extrême	-9497
éth	-9498
▁caus	-9499
▁accueillir	-9500
insuffisance	-9501
ost	-9502
occuper	-9503
▁causés	-9504
hygiène	-9505
SIDA	-9506
▁répondent	-9507
▁coordonnées	-9508
imm	-9509
▁seules	-9510
ker	-9511
▁Santé	-9512
▁file	-9513
▁Palais	-9514
▁oublier	-9515
▁équival	-9516
▁travaillé	-9517
▁ouvertes	-9518
▁approuvée	-9519
▁Ah	-9520
affi	-9521
▁automatique	-9522
▁pare	-9523
▁Droits	-9524
président	-9525
▁roy	-9526
parts	-9527
▁répondant	-9528
atténuation	-9529
▁Votre	-9530
tentions	-9531
▁Leur	-9532
▁conju	-9533
▁Camp	-9534
▁places	-9535
mid	-9536
▁gare	-9537
indivi	-9538
errey	-9539
▁bains	-9540
▁Ko	-9541
impôt	-9542
▁Recueil	-9543
▁événement	-9544
▁sécheresse	-9545
▁districts	-9546
▁néer	-9547
▁tiss	-9548
capitu	-9549
rantes	-9550
▁adaptés	-9551
analys	-9552
gétaires	-9553
▁offres	-9554
▁procure	-9555
▁maternité	-9556
▁juridiquement	-9557
▁Paraguay	-9558
▁milliard	-9559
▁signe	-9560
efforce	-9561
▁Séance	-9562
▁élargi	-9563
▁repas	-9564
▁soudan	-9565
.-	-9566
otech	-9567
intérêts	-9568
▁fondant	-9569
▁normalisation	-9570
▁atom	-9571
▁nov	-9572
▁voulez	-9573
▁Protection	-9574
▁troubles	-9575
▁Équateur	-9576
▁récapitu	-9577
vid	-9578
▁2000-200	-9579
▁séparation	-9580
▁(1999)	-9581
▁linguistiques	-9582
rench	-9583
▁Manuel	-9584
ficatif	-9585
▁clause	-9586
reux	-9587
▁prêter	-9588
▁océans	-9589
▁Croix	-9590
▁Bh	-9591
▁feront	-9592
▁régulière	-9593
▁religions	-9594
▁bag	-9595
oné	-9596
unanimité	-9597
▁complexité	-9598
▁capables	-9599
▁propice	-9600
▁audio	-9601
TO	-9602
ginal	-9603
▁traditions	-9604
▁Canadiens	-9605
3).	-9606
midi	-9607
▁rationnelle	-9608
emballage	-9609
liquer	-9610
▁intermédiaire	-9611
▁créant	-9612
aisons	-9613
▁référendum	-9614
▁Monterrey	-9615
▁préservation	-9616
▁législatifs	-9617
▁ralenti	-9618
▁nettement	-9619
▁er	-9620
habil	-9621
▁quotes	-9622
▁viande	-9623
▁revendi	-9624
▁flagr	-9625
11	-9626
veurs	-9627
26	-9628
cis	-9629
▁Processus	-9630
▁Bro	-9631
▁présidenti	-9632
▁alignés	-9633
▁impré	-9634
texte	-9635
▁colonne	-9636
▁fen	-9637
▁paroles	-9638
importantes	-9639
▁qualifiés	-9640
institution	-9641
▁pointe	-9642
▁ouvrir	-9643
▁foyer	-9644
▁Christ	-9645
expansion	-9646
▁Durban	-9647
▁énergétiques	-9648
▁trouvant	-9649
▁retrouver	-9650
aria	-9651
▁facilité	-9652
▁ferroviaire	-9653
▁access	-9654
▁incidents	-9655
▁envir	-9656
▁médicale	-9657
▁perfor	-9658
▁émer	-9659
wana	-9660
▁moteurs	-9661
▁ISO	-9662
▁parlé	-9663
▁rouge	-9664
▁validité	-9665
rass	-9666
▁compil	-9667
▁fid	-9668
ondre	-9669
▁clientèle	-9670
▁comptables	-9671
Gu	-9672
▁suspension	-9673
▁scén	-9674
▁remarquer	-9675
▁réservation	-9676
orge	-9677
moni	-9678
▁INT	-9679
▁appliquant	-9680
▁diagnos	-9681
▁célèbre	-9682
5),	-9683
▁tables	-9684
pices	-9685
▁slo	-9686
▁Rapports	-9687
▁féminines	-9688
▁pou	-9689
▁reçus	-9690
▁diplomatiques	-9691
▁Johannes	-9692
▁riche	-9693
▁assu	-9694
▁MONUC	-9695
▁adresser	-9696
index	-9697
▁rejeté	-9698
▁fréquemment	-9699
ling	-9700
▁négatives	-9701
avez	-9702
inquiète	-9703
▁naissances	-9704
▁Ouganda	-9705
▁déficit	-9706
bus	-9707
▁mères	-9708
mans	-9709
IX	-9710
angle	-9711
▁soutenue	-9712
▁définitif	-9713
▁Recommandations	-9714
▁atténuer	-9715
▁imposer	-9716
illent	-9717
▁Del	-9718
▁illégales	-9719
-6	-9720
indicateurs	-9721
▁ving	-9722
▁habilité	-9723
▁fixée	-9724
▁United	-9725
▁renforçant	-9726
▁légal	-9727
▁2010,	-9728
▁rencontré	-9729
▁Sahara	-9730
▁mélange	-9731
▁condamnés	-9732
▁fournitures	-9733
▁favorisant	-9734
ciaux	-9735
▁Sant	-9736
onal	-9737
Ara	-9738
▁CN	-9739
ttawa	-9740
pd	-9741
▁disparités	-9742
culaire	-9743
▁reconnue	-9744
▁rues	-9745
▁associées	-9746
▁chauffage	-9747
▁ministériel	-9748
euro	-9749
▁confirmer	-9750
personnel	-9751
▁Élection	-9752
▁BSCI	-9753
pir	-9754
ernes	-9755
▁Bahreïn	-9756
▁Roms	-9757
▁progressive	-9758
▁sensible	-9759
▁haine	-9760
▁inflig	-9761
html	-9762
▁volet	-9763
▁marins	-9764
▁placer	-9765
▁Objectifs	-9766
▁Cl	-9767
▁composée	-9768
▁terroriste	-9769
agascar	-9770
ém	-9771
▁comparaison	-9772
▁représenté	-9773
CRP	-9774
orth	-9775
IA	-9776
▁insisté	-9777
▁74	-9778
ghiz	-9779
▁redoubler	-9780
onnage	-9781
casions	-9782
change	-9783
▁réform	-9784
omen	-9785
▁connaissent	-9786
yl	-9787
uelle	-9788
▁enle	-9789
dience	-9790
Année	-9791
ertise	-9792
▁intersec	-9793
▁Mécanisme	-9794
▁Merci	-9795
▁reproduction	-9796
▁requi	-9797
▁atteints	-9798
▁neuvième	-9799
▁alinéas	-9800
gure	-9801
▁Op	-9802
▁citoyenneté	-9803
ombe	-9804
▁14,	-9805
isser	-9806
iterrané	-9807
▁Émirats	-9808
agisse	-9809
▁marin	-9810
due	-9811
▁impliquant	-9812
▁promo	-9813
▁convaincus	-9814
▁boî	-9815
ick	-9816
▁Pourquoi	-9817
▁conciliation	-9818
▁Stra	-9819
▁dépens	-9820
âle	-9821
▁ramen	-9822
▁exécution	-9823
▁impression	-9824
▁couche	-9825
91	-9826
▁organiques	-9827
▁sembla	-9828
▁absolue	-9829
▁We	-9830
alit	-9831
▁diamants	-9832
▁clés	-9833
'«	-9834
................	-9835
paces	-9836
▁FMI	-9837
autom	-9838
▁250	-9839
▁Ceux	-9840
bade	-9841
SA	-9842
▁appliqués	-9843
7),	-9844
▁CH	-9845
rières	-9846
▁conventionnels	-9847
▁98	-9848
▁hôtels	-9849
▁indiqués	-9850
▁repos	-9851
▁Pap	-9852
▁présum	-9853
tor	-9854
▁divul	-9855
ressement	-9856
SB	-9857
rôle	-9858
▁épre	-9859
▁minor	-9860
▁bour	-9861
▁liti	-9862
▁souplesse	-9863
▁corporels	-9864
décision	-9865
▁Rot	-9866
▁mémorandum	-9867
EUR	-9868
▁spatiaux	-9869
▁élevées	-9870
▁presta	-9871
▁écologique	-9872
▁Considérant	-9873
.15	-9874
▁66	-9875
olus	-9876
▁MINUK	-9877
▁préjudici	-9878
▁quotidienne	-9879
TIONS	-9880
▁médiation	-9881
cieuse	-9882
▁ports	-9883
▁demandeur	-9884
nest	-9885
▁dotées	-9886
▁café	-9887
▁adaptées	-9888
atu	-9889
▁loisirs	-9890
olique	-9891
▁urbaine	-9892
intéressé	-9893
liquez	-9894
▁millé	-9895
▁diminuer	-9896
▁approuvées	-9897
cad	-9898
utin	-9899
lairage	-9900
▁métro	-9901
ISSION	-9902
▁négocier	-9903
▁optimis	-9904
ciales	-9905
▁incombent	-9906
oking	-9907
arme	-9908
▁1990,	-9909
érar	-9910
▁Règles	-9911
▁détenu	-9912
▁72	-9913
/57/	-9914
▁précisé	-9915
TC	-9916
eth	-9917
▁bancaires	-9918
établ	-9919
▁constatations	-9920
▁personnalités	-9921
▁modernisation	-9922
EE	-9923
▁that	-9924
by	-9925
▁pav	-9926
▁déposer	-9927
▁problématique	-9928
AV	-9929
view	-9930
▁liqui	-9931
▁temp	-9932
▁intérieurs	-9933
▁pharma	-9934
sif	-9935
▁Ali	-9936
▁exposées	-9937
▁élimin	-9938
▁Géné	-9939
▁jouissance	-9940
▁entité	-9941
utilité	-9942
▁législations	-9943
▁plas	-9944
▁annuelles	-9945
EPAD	-9946
▁coordonnateurs	-9947
▁envisagé	-9948
estival	-9949
▁reprend	-9950
▁individuelles	-9951
phel	-9952
OSCE	-9953
▁passation	-9954
▁Ann	-9955
▁avocat	-9956
illi	-9957
esclavage	-9958
▁consultants	-9959
▁retards	-9960
▁néfastes	-9961
▁sauv	-9962
▁aperçu	-9963
▁Ori	-9964
▁longues	-9965
▁Situation	-9966
▁pont	-9967
▁longueur	-9968
▁devenus	-9969
▁3)	-9970
Can	-9971
osc	-9972
▁clef	-9973
▁supérieurs	-9974
▁lance	-9975
▁barème	-9976
-03	-9977
▁biodi	-9978
▁attentats	-9979
▁prononcée	-9980
américaine	-9981
▁inspi	-9982
invitation	-9983
▁garantissant	-9984
▁faisons	-9985
▁serais	-9986
▁FEM	-9987
▁souhaitera	-9988
▁structurels	-9989
▁Johannesburg	-9990
▁passée	-9991
▁bénéfice	-9992
▁67	-9993
▁troupes	-9994
▁terminé	-9995
▁brevets	-9996
▁collabor	-9997
▁révolution	-9998
▁bulletin	-9999
allocation	-10000
▁sévices	-10001
▁taxes	-10002
Alliance	-10003
▁CR	-10004
.12	-10005
▁informés	-10006
▁discriminatoire	-10007
gnent	-10008
▁respecte	-10009
▁substance	-10010
▁Development	-10011
▁modules	-10012
▁recul	-10013
At	-10014
▁déclen	-10015
▁formations	-10016
▁sauvegarde	-10017
tswana	-10018
▁Lac	-10019
▁recevabilité	-10020
▁fiscales	-10021
▁courte	-10022
bourg	-10023
▁Azerbaïdjan	-10024
bian	-10025
ctuellement	-10026
Nouv	-10027
▁réductions	-10028
▁représentés	-10029
▁temporaires	-10030
▁rejo	-10031
▁causé	-10032
▁assister	-10033
▁prendra	-10034
mées	-10035
importants	-10036
▁voudrait	-10037
▁immun	-10038
▁résulte	-10039
▁Madagascar	-10040
▁struct	-10041
▁Consta	-10042
▁Action	-10043
▁Traités	-10044
emmes	-10045
▁employé	-10046
faire	-10047
▁Quelles	-10048
▁disciplin	-10049
▁Lo	-10050
▁pon	-10051
▁côtés	-10052
▁machine	-10053
▁élég	-10054
cours	-10055
▁normal	-10056
ashington	-10057
▁circu	-10058
▁incon	-10059
▁Situé	-10060
▁divis	-10061
▁Base	-10062
▁tenter	-10063
▁quotidien	-10064
.29/	-10065
▁enceintes	-10066
▁réfléchir	-10067
una	-10068
merce	-10069
▁Tour	-10070
▁raff	-10071
▁établissant	-10072
▁lancée	-10073
ATI	-10074
▁inacceptable	-10075
▁Te	-10076
▁not	-10077
▁Cis	-10078
44	-10079
▁rencontrer	-10080
tilités	-10081
▁débattre	-10082
cos	-10083
▁rôles	-10084
insécurité	-10085
yp	-10086
▁réagir	-10087
▁restriction	-10088
érés	-10089
▁déri	-10090
▁conducteur	-10091
▁offertes	-10092
▁adoptant	-10093
▁naturellement	-10094
▁cibles	-10095
▁commandes	-10096
ibouti	-10097
▁15,	-10098
▁examinera	-10099
obtention	-10100
▁deviennent	-10101
17	-10102
inclusion	-10103
▁excé	-10104
▁entraîne	-10105
▁légitimité	-10106
▁récol	-10107
▁effor	-10108
▁13,	-10109
▁Main	-10110
▁auspices	-10111
trémis	-10112
▁interrog	-10113
▁respectent	-10114
▁Estonie	-10115
dans	-10116
holm	-10117
▁compar	-10118
▁marqué	-10119
▁diz	-10120
▁bénév	-10121
ution	-10122
▁posées	-10123
▁obligé	-10124
▁XX	-10125
▁décid	-10126
épreuve	-10127
▁déplacés	-10128
▁Débat	-10129
▁situées	-10130
▁électoral	-10131
accélérer	-10132
▁voitures	-10133
GE	-10134
awi	-10135
▁bénéfices	-10136
otechn	-10137
▁atomique	-10138
/28	-10139
▁Ouver	-10140
▁rê	-10141
▁Voilà	-10142
▁exigent	-10143
▁issues	-10144
▁calibre	-10145
▁parvenu	-10146
▁Ont	-10147
▁emprun	-10148
▁vend	-10149
▁différent	-10150
hô	-10151
▁désigner	-10152
épi	-10153
6/	-10154
▁versions	-10155
▁constituée	-10156
▁mutuellement	-10157
/59/	-10158
▁manifeste	-10159
▁Parallè	-10160
▁permanence	-10161
▁pâ	-10162
▁vert	-10163
▁machines	-10164
ajustement	-10165
▁indépendamment	-10166
▁basée	-10167
attribution	-10168
▁nettoyage	-10169
▁int	-10170
▁phil	-10171
▁Participation	-10172
▁Site	-10173
▁Jusqu	-10174
▁Trois	-10175
▁accum	-10176
▁vin	-10177
▁Parallèlement	-10178
▁Bon	-10179
ambule	-10180
cl	-10181
▁registres	-10182
▁analyser	-10183
▁Togo	-10184
▁vaut	-10185
étendre	-10186
▁Engage	-10187
CL	-10188
▁douanes	-10189
employer	-10190
▁déclarer	-10191
▁vide	-10192
quette	-10193
lets	-10194
▁armée	-10195
indemnité	-10196
▁mobiles	-10197
▁stéré	-10198
▁endroits	-10199
▁confortable	-10200
▁handicap	-10201
▁câ	-10202
▁taxe	-10203
▁procède	-10204
▁soulignant	-10205
imposition	-10206
tablement	-10207
▁Monténégro	-10208
▁Guy	-10209
atori	-10210
▁cre	-10211
.4.1	-10212
▁additionnels	-10213
Monténégro	-10214
▁XV	-10215
hou	-10216
▁Monaco	-10217
aurait	-10218
▁jouir	-10219
▁élargir	-10220
.0	-10221
▁autorisées	-10222
▁puissances	-10223
▁démontré	-10224
cale	-10225
▁combattants	-10226
▁métal	-10227
▁énergie	-10228
▁2006-2007	-10229
▁optimales	-10230
régionaux	-10231
▁venu	-10232
▁Gouvernements	-10233
égide	-10234
▁1998.	-10235
37	-10236
oly	-10237
mier	-10238
▁savez	-10239
▁déployer	-10240
▁venant	-10241
▁abandon	-10242
▁médecins	-10243
rimé	-10244
▁coop	-10245
▁dérogation	-10246
▁internet	-10247
gouvernementaux	-10248
▁nutrition	-10249
extension	-10250
▁antipersonnel	-10251
.)	-10252
ola	-10253
▁ha	-10254
▁vertic	-10255
▁géographiques	-10256
▁Kirghiz	-10257
▁procla	-10258
▁récapitula	-10259
▁claires	-10260
pos	-10261
▁gas	-10262
étique	-10263
))	-10264
▁dus	-10265
▁servant	-10266
▁indemnités	-10267
▁nutri	-10268
EX	-10269
▁minimales	-10270
▁ultérie	-10271
▁incont	-10272
iers	-10273
cieuses	-10274
ffusion	-10275
▁Marti	-10276
▁élaborés	-10277
▁pertinente	-10278
▁exprime	-10279
▁consommateur	-10280
berg	-10281
illage	-10282
▁tuber	-10283
▁exactement	-10284
▁Améli	-10285
.1).	-10286
▁traditionnelle	-10287
▁impose	-10288
▁optique	-10289
▁installé	-10290
▁freinage	-10291
▁ventilées	-10292
ercices	-10293
▁moral	-10294
▁blessés	-10295
tellig	-10296
/1999	-10297
▁analogues	-10298
▁1992,	-10299
acteurs	-10300
onction	-10301
▁dirigé	-10302
▁inquiétude	-10303
▁préparé	-10304
▁occasions	-10305
▁réité	-10306
▁aspi	-10307
▁désignés	-10308
▁dépasse	-10309
duits	-10310
oux	-10311
▁coopéra	-10312
▁réglementaire	-10313
▁étendu	-10314
▁erreurs	-10315
▁West	-10316
Action	-10317
▁fixées	-10318
▁prononcé	-10319
▁phases	-10320
▁minorité	-10321
▁fréquence	-10322
/26	-10323
▁Djibouti	-10324
angi	-10325
▁décrites	-10326
MC	-10327
▁hautement	-10328
▁démin	-10329
▁transférer	-10330
▁DC	-10331
hip	-10332
▁châti	-10333
instaurer	-10334
▁qualifié	-10335
▁écologiques	-10336
▁soulevées	-10337
▁nav	-10338
accepter	-10339
▁équilibrée	-10340
▁Ve	-10341
respect	-10342
▁Barbade	-10343
▁discipline	-10344
rature	-10345
▁changé	-10346
▁fusion	-10347
▁Copenh	-10348
IFEM	-10349
▁boli	-10350
▁approuve	-10351
▁chapitres	-10352
▁précieux	-10353
▁journaux	-10354
▁fondés	-10355
▁COMMISSION	-10356
▁1.1	-10357
▁probable	-10358
uritanie	-10359
urie	-10360
ep	-10361
▁Gab	-10362
▁adhérer	-10363
ingé	-10364
▁récipro	-10365
▁Permettez	-10366
▁produisent	-10367
▁you	-10368
iterranée	-10369
▁normale	-10370
▁stations	-10371
hab	-10372
▁vies	-10373
▁Univers	-10374
▁réels	-10375
eto	-10376
olition	-10377
▁restitution	-10378
▁reconnues	-10379
▁Question	-10380
▁constant	-10381
▁78	-10382
▁denrées	-10383
▁sect	-10384
▁survenus	-10385
▁antérieure	-10386
▁déroulement	-10387
▁Cliquez	-10388
▁saisis	-10389
▁Stockholm	-10390
▁spatiale	-10391
mances	-10392
▁Dom	-10393
▁sports	-10394
▁comporter	-10395
▁profil	-10396
-7	-10397
▁Ind	-10398
arités	-10399
jordanie	-10400
▁médecin	-10401
habitat	-10402
▁particules	-10403
▁biodiversité	-10404
▁constructive	-10405
ONUDC	-10406
▁menu	-10407
keting	-10408
▁Description	-10409
▁américaines	-10410
▁Barc	-10411
▁remarquable	-10412
isibles	-10413
▁perpét	-10414
▁qualifications	-10415
▁désignation	-10416
isez	-10417
▁éclair	-10418
▁accomplir	-10419
hyd	-10420
▁champs	-10421
▁grossesse	-10422
cien	-10423
▁somm	-10424
▁Tech	-10425
▁préférence	-10426
Si	-10427
▁69	-10428
Ag	-10429
échantill	-10430
aders	-10431
sité	-10432
▁susciter	-10433
▁disparition	-10434
▁époque	-10435
▁cruciale	-10436
▁détérioration	-10437
ancienne	-10438
▁clandes	-10439
▁répu	-10440
esseur	-10441
▁concernée	-10442
explique	-10443
▁jouissent	-10444
▁emplacement	-10445
gard	-10446
▁99	-10447
DR	-10448
▁prenne	-10449
▁compose	-10450
▁Arabie	-10451
▁Cisjordanie	-10452
▁Net	-10453
Annexe	-10454
▁exécuté	-10455
▁Botswana	-10456
▁supprim	-10457
▁missiles	-10458
▁classement	-10459
▁Uruguay	-10460
chau	-10461
émie	-10462
▁Troisièmement	-10463
▁souffrent	-10464
▁magnifique	-10465
▁négatifs	-10466
▁suspens	-10467
13	-10468
envoi	-10469
▁formé	-10470
▁tests	-10471
▁Quatrième	-10472
▁(2000)	-10473
▁individuelle	-10474
cur	-10475
▁enregistrées	-10476
▁hostilités	-10477
dou	-10478
▁virtu	-10479
âteau	-10480
▁forcées	-10481
▁indemnité	-10482
▁passion	-10483
/63/	-10484
▁spir	-10485
▁millénaire	-10486
espèce	-10487
▁panne	-10488
ériques	-10489
▁Copenhague	-10490
▁frontali	-10491
▁tranqu	-10492
▁analytique	-10493
▁réaffirmer	-10494
ules	-10495
▁hautes	-10496
▁vendeur	-10497
actifs	-10498
▁hôpitaux	-10499
▁expé	-10500
▁redressement	-10501
habit	-10502
XX	-10503
▁basé	-10504
entiment	-10505
.4/	-10506
chage	-10507
▁restant	-10508
nesty	-10509
onnées	-10510
▁collection	-10511
▁performances	-10512
▁correspondent	-10513
gien	-10514
▁hiérar	-10515
jac	-10516
▁démographique	-10517
▁éprouv	-10518
oct	-10519
▁cart	-10520
▁civilisations	-10521
▁Har	-10522
▁Fait	-10523
▁refusé	-10524
▁mété	-10525
▁configuration	-10526
▁tranche	-10527
quetage	-10528
▁conscients	-10529
uk	-10530
▁Bâle	-10531
▁pourrons	-10532
▁touristiques	-10533
▁dotée	-10534
▁fermeture	-10535
▁gratitude	-10536
▁Protocoles	-10537
▁restauration	-10538
▁pornographie	-10539
mines	-10540
▁médecine	-10541
ciation	-10542
▁(6	-10543
▁inclut	-10544
▁printemps	-10545
docu	-10546
▁accident	-10547
conom	-10548
▁76	-10549
▁arrêtés	-10550
▁entam	-10551
▁initialement	-10552
▁sè	-10553
▁propagation	-10554
▁appeler	-10555
entreprendre	-10556
▁amélioré	-10557
tisé	-10558
Inter	-10559
▁augmente	-10560
▁identiques	-10561
▁doubles	-10562
▁Mauritanie	-10563
▁Ha	-10564
▁aéro	-10565
▁Affaires	-10566
▁industrielles	-10567
Arabie	-10568
▁remarques	-10569
▁Office	-10570
sive	-10571
▁Tali	-10572
▁hier	-10573
▁priés	-10574
▁disque	-10575
▁compatible	-10576
▁demandés	-10577
▁Berlin	-10578
▁multilatérale	-10579
▁83	-10580
▁prononcées	-10581
▁Méditerranée	-10582
▁6.	-10583
uelles	-10584
▁Arménie	-10585
▁légales	-10586
▁Coun	-10587
▁axés	-10588
auv	-10589
▁équipées	-10590
▁muti	-10591
▁EX	-10592
▁Gal	-10593
▁stimuler	-10594
invite	-10595
auf	-10596
▁bill	-10597
▁japonais	-10598
initiatives	-10599
▁occupe	-10600
▁stipul	-10601
▁habil	-10602
▁licences	-10603
activ	-10604
HOM	-10605
▁aériennes	-10606
▁cliquez	-10607
urées	-10608
▁Barcelon	-10609
▁douzième	-10610
▁Pourtant	-10611
▁pertur	-10612
▁golf	-10613
invasion	-10614
▁Pl	-10615
▁Fig	-10616
▁classique	-10617
▁affectées	-10618
▁Kirghizistan	-10619
MINU	-10620
▁arguments	-10621
▁commettre	-10622
▁similaire	-10623
locution	-10624
ortées	-10625
xtes	-10626
▁britanniques	-10627
▁séparément	-10628
instabilité	-10629
inviter	-10630
▁créancier	-10631
▁rurale	-10632
▁améliorée	-10633
own	-10634
▁désigne	-10635
▁Gar	-10636
▁chaînes	-10637
▁comportant	-10638
▁indiquée	-10639
▁éloi	-10640
▁Modi	-10641
▁pencher	-10642
êtements	-10643
▁adhésion	-10644
quettes	-10645
▁00	-10646
MENT	-10647
TP	-10648
▁Fidji	-10649
▁embar	-10650
▁plantes	-10651
▁concepts	-10652
▁grandement	-10653
fère	-10654
parlers	-10655
▁déclarée	-10656
CDH	-10657
▁soudanais	-10658
/30	-10659
emploie	-10660
andais	-10661
▁exceptionnel	-10662
▁marqu	-10663
▁tabac	-10664
aritions	-10665
▁adéquates	-10666
▁Érythrée	-10667
entendre	-10668
▁pand	-10669
▁Jeu	-10670
▁Franç	-10671
▁vastes	-10672
▁manuels	-10673
nutrition	-10674
agé	-10675
raide	-10676
▁tardi	-10677
▁externe	-10678
▁organise	-10679
▁16,	-10680
.3,	-10681
▁exécutés	-10682
▁Session	-10683
▁éventuelles	-10684
▁stéréoty	-10685
▁20,	-10686
cen	-10687
agents	-10688
▁incul	-10689
▁Washington	-10690
work	-10691
onais	-10692
▁peau	-10693
ceu	-10694
achet	-10695
▁visa	-10696
apport	-10697
▁réunit	-10698
alphabétisation	-10699
▁connue	-10700
▁survi	-10701
▁candidature	-10702
▁Trin	-10703
▁6.2	-10704
▁So	-10705
▁favorise	-10706
élargir	-10707
▁scr	-10708
▁spécialisé	-10709
▁Pr	-10710
▁bomb	-10711
DF	-10712
▁midi	-10713
ienne	-10714
agerie	-10715
cel	-10716
▁tentatives	-10717
▁84	-10718
véni	-10719
▁porta	-10720
▁intensifier	-10721
expé	-10722
issé	-10723
▁raisonnables	-10724
▁délivrance	-10725
▁pourparlers	-10726
▁Sol	-10727
expiration	-10728
▁transformer	-10729
▁manifestement	-10730
atmosphérique	-10731
▁composants	-10732
▁susmentionnées	-10733
▁suisse	-10734
▁criminelles	-10735
trique	-10736
▁interdisant	-10737
▁préliminaires	-10738
▁persistance	-10739
▁vigoure	-10740
▁adapté	-10741
▁gla	-10742
▁nommer	-10743
▁scrutin	-10744
▁variété	-10745
▁spiritu	-10746
▁féminine	-10747
▁ges	-10748
▁artistes	-10749
riez	-10750
roger	-10751
▁réintégration	-10752
▁adéquat	-10753
18	-10754
▁chimique	-10755
▁transfrontali	-10756
inflation	-10757
-15	-10758
▁hypoth	-10759
/27	-10760
▁exception	-10761
▁1991,	-10762
▁rares	-10763
moin	-10764
▁franch	-10765
▁hiérarch	-10766
rime	-10767
▁parallèlement	-10768
ram	-10769
▁débiteur	-10770
▁vaccination	-10771
▁permette	-10772
lles	-10773
▁verbale	-10774
tionnaire	-10775
iness	-10776
▁bâ	-10777
▁derrière	-10778
étend	-10779
.9/	-10780
▁Anti	-10781
opport	-10782
▁mercure	-10783
▁desquelles	-10784
Es	-10785
▁Wood	-10786
▁conjoints	-10787
alcool	-10788
influence	-10789
▁préparatoires	-10790
invent	-10791
▁barre	-10792
▁révélé	-10793
▁fabricant	-10794
▁collectivité	-10795
▁Présentation	-10796
Hôtel	-10797
▁colonies	-10798
▁créances	-10799
▁habituellement	-10800
intensifier	-10801
▁faisaient	-10802
60;	-10803
/62/	-10804
▁axées	-10805
/56/	-10806
▁diverg	-10807
▁Consciente	-10808
▁réservé	-10809
▁excellente	-10810
▁attitude	-10811
▁constituait	-10812
▁rencontrés	-10813
▁légèrement	-10814
.4,	-10815
▁suspendu	-10816
▁hôtes	-10817
▁entré	-10818
▁adhéré	-10819
▁légalité	-10820
▁87	-10821
▁édition	-10822
▁tes	-10823
▁2008-2009	-10824
▁tension	-10825
▁dépendance	-10826
Nouvelle	-10827
▁déminage	-10828
échappement	-10829
ata	-10830
▁very	-10831
▁toxicom	-10832
▁encouragés	-10833
▁cultiv	-10834
▁Contribu	-10835
Église	-10836
▁envisagées	-10837
outan	-10838
▁énoncé	-10839
▁espaces	-10840
▁suites	-10841
arrestation	-10842
AIS	-10843
▁coffre	-10844
▁termine	-10845
nier	-10846
▁uns	-10847
▁subir	-10848
▁douche	-10849
▁interprétation	-10850
▁coupable	-10851
arie	-10852
élève	-10853
▁exerce	-10854
▁équipés	-10855
ASE	-10856
INF	-10857
▁collectifs	-10858
▁flexibilité	-10859
▁possèdent	-10860
▁significative	-10861
▁habitant	-10862
▁déposés	-10863
▁orphel	-10864
anne	-10865
▁Mod	-10866
ider	-10867
▁parallèle	-10868
27	-10869
▁gal	-10870
▁93	-10871
▁plafond	-10872
▁permettez	-10873
▁And	-10874
▁supérieures	-10875
▁COMITÉ	-10876
▁Malawi	-10877
ffet	-10878
rira	-10879
▁acheter	-10880
▁quotas	-10881
▁kg	-10882
▁gratuite	-10883
▁préambule	-10884
pérer	-10885
incitation	-10886
▁ajoute	-10887
-01	-10888
▁Celui	-10889
▁desser	-10890
▁annonces	-10891
▁Rel	-10892
▁délégués	-10893
pital	-10894
▁compa	-10895
▁séjourner	-10896
▁bilatérales	-10897
▁Mas	-10898
olontaires	-10899
▁QU	-10900
vingt	-10901
aborder	-10902
▁couvert	-10903
▁Mag	-10904
blé	-10905
▁desquels	-10906
▁gré	-10907
▁voulue	-10908
▁accro	-10909
▁Institut	-10910
Canada	-10911
projet	-10912
-23	-10913
ted	-10914
▁intégral	-10915
▁exprimée	-10916
▁interpr	-10917
ficités	-10918
▁Observations	-10919
▁salariés	-10920
mod	-10921
QUES	-10922
.3.2	-10923
▁appris	-10924
▁appartements	-10925
occupent	-10926
▁ingé	-10927
▁recyc	-10928
▁has	-10929
▁(198	-10930
▁agro	-10931
▁courage	-10932
▁signalés	-10933
tiles	-10934
▁respecté	-10935
▁Actuellement	-10936
âts	-10937
▁Étu	-10938
▁joindre	-10939
▁innoc	-10940
actives	-10941
▁Informations	-10942
▁3.2	-10943
▁Glob	-10944
▁partiellement	-10945
▁%).	-10946
▁intersectori	-10947
chel	-10948
▁certifica	-10949
▁attendons	-10950
▁coordonnateur	-10951
Bar	-10952
▁Oui	-10953
▁clin	-10954
▁contraignant	-10955
▁israéliens	-10956
▁revit	-10957
▁figu	-10958
triques	-10959
▁touchent	-10960
▁parcours	-10961
▁détenues	-10962
▁apportent	-10963
▁correction	-10964
OTAN	-10965
▁transparente	-10966
▁témoigne	-10967
▁(8	-10968
éclairage	-10969
rains	-10970
▁Ajouter	-10971
dication	-10972
▁Davi	-10973
meurs	-10974
▁Ham	-10975
▁dénom	-10976
culose	-10977
▁consécu	-10978
▁théâtre	-10979
▁différend	-10980
▁Prix	-10981
COP	-10982
pres	-10983
wn	-10984
▁lits	-10985
53	-10986
incor	-10987
▁détaillés	-10988
/61/	-10989
▁signes	-10990
▁Kong	-10991
exploration	-10992
▁électriques	-10993
osoph	-10994
▁distinct	-10995
▁fructu	-10996
▁charbon	-10997
▁personnellement	-10998
anaise	-10999
▁rédigé	-11000
▁indépendance	-11001
ome	-11002
poli	-11003
cesseur	-11004
kans	-11005
ATIONS	-11006
▁rondes	-11007
▁partiel	-11008
▁88	-11009
▁avancée	-11010
▁souhaité	-11011
▁respectives	-11012
▁6.1	-11013
▁autorise	-11014
▁appareil	-11015
160;	-11016
▁lucra	-11017
▁profondeur	-11018
▁présentera	-11019
▁posé	-11020
▁médicales	-11021
▁suffisants	-11022
▁mou	-11023
judici	-11024
abandon	-11025
▁Budget	-11026
▁indépendantes	-11027
docs	-11028
▁aidera	-11029
▁lever	-11030
aviation	-11031
▁pêches	-11032
issantes	-11033
▁continuité	-11034
▁AC	-11035
▁Quelques	-11036
▁réservoir	-11037
▁Adop	-11038
UNITAR	-11039
▁Cla	-11040
organes	-11041
▁inscrire	-11042
▁minimale	-11043
BC	-11044
▁PRÉ	-11045
▁coupables	-11046
▁disparitions	-11047
sen	-11048
▁sole	-11049
ciplin	-11050
▁feuille	-11051
approuver	-11052
▁viables	-11053
▁descriptif	-11054
▁zéro	-11055
▁identité	-11056
▁2004-2005	-11057
▁Médi	-11058
▁Kar	-11059
pdf	-11060
ning	-11061
▁transaction	-11062
▁incer	-11063
tile	-11064
▁Syrie	-11065
▁Bri	-11066
▁conscient	-11067
/2000/	-11068
▁17,	-11069
▁corriger	-11070
vois	-11071
▁consister	-11072
▁bibliothèque	-11073
ulté	-11074
▁Bou	-11075
évén	-11076
▁correspondantes	-11077
▁97	-11078
▁spécialiste	-11079
obago	-11080
▁péné	-11081
▁épi	-11082
▁gains	-11083
▁Debian	-11084
▁pertinence	-11085
.1),	-11086
▁Taliban	-11087
▁demandées	-11088
Arménie	-11089
▁RÉ	-11090
▁exploitation	-11091
▁étatiques	-11092
▁Stu	-11093
▁pierre	-11094
▁magistrats	-11095
tain	-11096
▁Ram	-11097
▁obs	-11098
▁revi	-11099
▁Réser	-11100
▁SUR	-11101
fense	-11102
annulation	-11103
▁apprendre	-11104
▁incap	-11105
▁atmosphérique	-11106
endroit	-11107
▁australe	-11108
nir	-11109
entraide	-11110
▁incluant	-11111
▁brièvement	-11112
gements	-11113
▁dépos	-11114
▁dégager	-11115
▁confirmation	-11116
▁distinc	-11117
▁témoin	-11118
▁construit	-11119
▁légu	-11120
▁arbitraires	-11121
imposer	-11122
▁respectu	-11123
▁Résumé	-11124
▁origine	-11125
af	-11126
chet	-11127
▁allemande	-11128
entité	-11129
▁transmettant	-11130
accomplissement	-11131
▁supervis	-11132
comm	-11133
▁paraît	-11134
▁majeurs	-11135
▁impliqués	-11136
▁naturels	-11137
▁transfrontière	-11138
-29	-11139
objection	-11140
▁films	-11141
▁estimatif	-11142
atmosphère	-11143
OG	-11144
▁invitées	-11145
lobe	-11146
▁Emp	-11147
accessi	-11148
▁couverts	-11149
▁indemnisation	-11150
europé	-11151
elons	-11152
▁Turk	-11153
▁essai	-11154
ham	-11155
▁exécutions	-11156
▁stri	-11157
▁contrainte	-11158
▁anc	-11159
▁irre	-11160
▁963-5	-11161
▁procureur	-11162
▁requérants	-11163
▁valable	-11164
Érythrée	-11165
▁découlent	-11166
▁retourner	-11167
attacher	-11168
indiquer	-11169
▁approuver	-11170
▁uniforme	-11171
inscri	-11172
▁bref	-11173
▁décor	-11174
▁explications	-11175
riers	-11176
traitance	-11177
▁constructeur	-11178
▁réside	-11179
▁choc	-11180
▁Information	-11181
▁éducatifs	-11182
trer	-11183
▁journal	-11184
▁pourvoir	-11185
oua	-11186
uméro	-11187
▁tiré	-11188
▁préle	-11189
parcours	-11190
▁versé	-11191
▁protégées	-11192
▁broch	-11193
▁Police	-11194
▁réfugié	-11195
▁primauté	-11196
▁contenir	-11197
▁assurent	-11198
▁souhaiterais	-11199
▁consacre	-11200
▁références	-11201
embargo	-11202
▁recon	-11203
fume	-11204
▁faculta	-11205
▁exceptionnelle	-11206
▁décharge	-11207
▁souter	-11208
ters	-11209
▁Consensus	-11210
▁plaid	-11211
din	-11212
▁18,	-11213
▁Ouverture	-11214
▁attachement	-11215
▁imposé	-11216
▁pénitentiaires	-11217
cière	-11218
▁autochtone	-11219
▁Brun	-11220
▁tuberculose	-11221
inture	-11222
▁blessures	-11223
▁motion	-11224
▁réserver	-11225
▁facilite	-11226
▁Ti	-11227
▁laboratoire	-11228
/55/	-11229
administrateur	-11230
attente	-11231
▁parlements	-11232
▁avion	-11233
▁Beaucoup	-11234
alise	-11235
▁peur	-11236
▁morales	-11237
▁épuis	-11238
▁australi	-11239
▁antimines	-11240
▁7.	-11241
▁poursuivent	-11242
▁météor	-11243
diteurs	-11244
2/	-11245
ols	-11246
yo	-11247
▁Ensuite	-11248
▁hab	-11249
▁certificats	-11250
▁satisfaisante	-11251
▁partant	-11252
▁joueurs	-11253
▁contro	-11254
▁contest	-11255
▁préventive	-11256
▁confirme	-11257
▁leaders	-11258
▁94	-11259
▁périph	-11260
itoy	-11261
▁OMD	-11262
▁86	-11263
▁front	-11264
▁individuel	-11265
ignent	-11266
0),	-11267
vements	-11268
▁proposons	-11269
▁fri	-11270
▁quiconque	-11271
▁NEPAD	-11272
▁fos	-11273
AW	-11274
▁métaux	-11275
▁intéressée	-11276
▁clauses	-11277
▁%),	-11278
▁solliciter	-11279
iland	-11280
acheteur	-11281
▁gl	-11282
occupant	-11283
▁Albanie	-11284
▁révisées	-11285
▁stages	-11286
associer	-11287
▁scolarisation	-11288
▁philosoph	-11289
alién	-11290
▁Maison	-11291
▁défa	-11292
Opération	-11293
▁superficie	-11294
▁malnutrition	-11295
▁théra	-11296
▁ambitieux	-11297
▁surv	-11298
▁qualit	-11299
▁favorablement	-11300
▁fille	-11301
▁adaptée	-11302
▁fortes	-11303
ust	-11304
▁vali	-11305
▁bata	-11306
▁fiable	-11307
abou	-11308
▁impératif	-11309
▁pourv	-11310
▁affecté	-11311
medi	-11312
▁douce	-11313
architecture	-11314
▁NO	-11315
▁soleil	-11316
▁perpétu	-11317
▁phénomènes	-11318
▁plats	-11319
▁renforce	-11320
▁cité	-11321
▁tribu	-11322
développement	-11323
Tobago	-11324
▁Amer	-11325
▁Ontario	-11326
8/	-11327
▁connus	-11328
▁dégâts	-11329
financement	-11330
▁élection	-11331
▁vingtième	-11332
OCI	-11333
▁devoirs	-11334
▁colis	-11335
▁financées	-11336
▁périodiquement	-11337
▁Trinité	-11338
▁accompagnés	-11339
cales	-11340
▁procréation	-11341
▁susmentionnés	-11342
appuyant	-11343
effort	-11344
aggra	-11345
rosoft	-11346
fre	-11347
▁lao	-11348
▁veillant	-11349
iez	-11350
▁mor	-11351
▁touristique	-11352
▁19,	-11353
▁Balkans	-11354
▁inalién	-11355
iquement	-11356
rigé	-11357
▁obtenues	-11358
UNOPS	-11359
▁exempte	-11360
▁arrêt	-11361
VD	-11362
▁expert	-11363
▁ajustements	-11364
▁Faire	-11365
▁Page	-11366
▁SP	-11367
▁souten	-11368
scol	-11369
RD	-11370
▁Club	-11371
▁lende	-11372
▁déterminés	-11373
▁(7	-11374
▁inciter	-11375
▁extrajudici	-11376
▁accessoires	-11377
▁négli	-11378
abstenir	-11379
▁secrétaire	-11380
▁décrire	-11381
▁Bas	-11382
▁séqu	-11383
▁interdiction	-11384
▁compromettre	-11385
gné	-11386
▁commer	-11387
▁originale	-11388
▁rassembler	-11389
▁créées	-11390
▁ordonnance	-11391
rante	-11392
▁mènent	-11393
lière	-11394
▁pur	-11395
▁souhaiterait	-11396
▁cycles	-11397
▁fiabilité	-11398
▁estiment	-11399
▁diagnostic	-11400
3/	-11401
▁arrivée	-11402
▁contraires	-11403
infection	-11404
▁télécharger	-11405
appuie	-11406
timi	-11407
▁éti	-11408
▁verre	-11409
▁portug	-11410
▁chevau	-11411
▁fle	-11412
mber	-11413
yons	-11414
▁bouton	-11415
▁observé	-11416
▁signataires	-11417
▁stimul	-11418
▁recueillies	-11419
▁synergies	-11420
▁aboutir	-11421
ACT	-11422
▁dons	-11423
▁élabo	-11424
gations	-11425
▁réformer	-11426
▁doctr	-11427
▁école	-11428
▁lourds	-11429
▁afférentes	-11430
▁combinaison	-11431
ita	-11432
▁01	-11433
▁fléau	-11434
▁systématiques	-11435
▁éth	-11436
▁nommés	-11437
▁bibliothèques	-11438
ory	-11439
ulture	-11440
objectifs	-11441
▁candidatures	-11442
▁considèrent	-11443
mas	-11444
▁impôts	-11445
▁enjeux	-11446
▁biotechn	-11447
▁compatibles	-11448
▁PH	-11449
porer	-11450
▁violé	-11451
▁beauté	-11452
2-	-11453
▁Samoa	-11454
servateur	-11455
ypri	-11456
ouverneur	-11457
▁Tre	-11458
▁réjouis	-11459
▁démarches	-11460
▁novatrices	-11461
▁aident	-11462
▁Lou	-11463
▁exiger	-11464
▁pneu	-11465
▁multipli	-11466
eri	-11467
ologiquement	-11468
▁absor	-11469
▁Ty	-11470
érons	-11471
▁Chac	-11472
offici	-11473
▁Bhoutan	-11474
▁réinstallation	-11475
▁chute	-11476
▁Islande	-11477
▁cant	-11478
▁rendant	-11479
▁frag	-11480
▁applique	-11481
▁procureurs	-11482
▁asiatique	-11483
▁traditionnel	-11484
appropri	-11485
▁consulté	-11486
▁progressé	-11487
▁silence	-11488
▁Documentation	-11489
▁éventuels	-11490
▁forêt	-11491
▁réviser	-11492
▁réprimer	-11493
habitu	-11494
▁illégaux	-11495
Sub	-11496
▁sché	-11497
▁courants	-11498
▁litté	-11499
▁rejoindre	-11500
▁énorme	-11501
Cor	-11502
so	-11503
▁syrien	-11504
▁répartis	-11505
outils	-11506
▁réunis	-11507
.30	-11508
▁content	-11509
▁attest	-11510
▁Grands	-11511
▁universitaire	-11512
▁sexospécifique	-11513
TRE	-11514
▁Sécurité	-11515
▁afghan	-11516
▁frein	-11517
▁irani	-11518
▁cession	-11519
▁luxe	-11520
▁Jeudi	-11521
▁méritent	-11522
▁lendemain	-11523
▁redev	-11524
dy	-11525
▁démontrer	-11526
▁récipient	-11527
bum	-11528
▁AN	-11529
▁Fe	-11530
HOMME	-11531
tera	-11532
▁Mand	-11533
chen	-11534
▁propriétés	-11535
▁respectées	-11536
▁boliv	-11537
▁leçons	-11538
▁Rem	-11539
▁press	-11540
▁avancé	-11541
analyser	-11542
▁(1);	-11543
issaient	-11544
▁aspirations	-11545
/29	-11546
tiné	-11547
▁permettraient	-11548
▁échelons	-11549
cas	-11550
23	-11551
▁billets	-11552
/50	-11553
▁collectif	-11554
impose	-11555
lines	-11556
]]	-11557
▁cellules	-11558
France	-11559
▁prestataires	-11560
▁offerte	-11561
▁FCCC	-11562
▁concentrations	-11563
▁durabilité	-11564
▁130	-11565
▁5.1	-11566
▁cath	-11567
tronom	-11568
tariats	-11569
▁Quatre	-11570
▁privilèges	-11571
▁Mercredi	-11572
▁bai	-11573
▁Contrôle	-11574
▁inutilis	-11575
▁auteur	-11576
▁énergies	-11577
FR	-11578
aka	-11579
▁sour	-11580
▁défend	-11581
èses	-11582
▁renvoyer	-11583
▁Tit	-11584
▁gri	-11585
▁réalités	-11586
▁Dou	-11587
▁ferait	-11588
▁immédiat	-11589
▁tués	-11590
▁démarrage	-11591
imposent	-11592
zz	-11593
▁maintenu	-11594
4/	-11595
▁utilisez	-11596
atures	-11597
▁imprim	-11598
▁placements	-11599
▁prélèvement	-11600
▁progression	-11601
▁Renseignements	-11602
▁ciné	-11603
▁satellites	-11604
bri	-11605
▁numéros	-11606
▁incendi	-11607
▁méditerrané	-11608
**	-11609
▁VIII	-11610
autonomisation	-11611
▁Chris	-11612
auteurs	-11613
▁désir	-11614
▁suivies	-11615
assentiment	-11616
▁bolivarienne	-11617
▁respectés	-11618
▁ratta	-11619
▁exclusive	-11620
▁exercices	-11621
▁respectant	-11622
▁suscité	-11623
▁usagers	-11624
attaque	-11625
aci	-11626
▁It	-11627
▁typ	-11628
▁79	-11629
▁notant	-11630
ctoire	-11631
msterdam	-11632
▁attributions	-11633
▁2010-201	-11634
▁chypri	-11635
▁photograph	-11636
▁insister	-11637
Équateur	-11638
DEAO	-11639
onte	-11640
enquêtes	-11641
▁condamn	-11642
▁renoncer	-11643
▁cherchent	-11644
▁fonciers	-11645
▁Tel	-11646
▁140	-11647
▁Suivi	-11648
ministre	-11649
▁Act	-11650
/31	-11651
hos	-11652
liquent	-11653
▁Vendre	-11654
▁»;	-11655
▁pesti	-11656
trui	-11657
▁rencontres	-11658
nements	-11659
▁navire	-11660
▁71	-11661
los	-11662
ght	-11663
Albanie	-11664
▁disposons	-11665
▁(2003)	-11666
▁assurances	-11667
envoy	-11668
▁soupçon	-11669
appendice	-11670
mons	-11671
▁rivi	-11672
tendent	-11673
▁pertinent	-11674
▁Clients	-11675
▁Microsoft	-11676
▁fo	-11677
▁écoulée	-11678
ena	-11679
▁Paul	-11680
observateurs	-11681
▁soutiens	-11682
▁réputation	-11683
▁souvenir	-11684
peu	-11685
▁opposition	-11686
▁Organis	-11687
▁Autre	-11688
▁Hol	-11689
manche	-11690
comp	-11691
Guinée	-11692
▁posséd	-11693
▁incl	-11694
▁transitoire	-11695
▁indirectement	-11696
-20	-11697
pée	-11698
▁interdire	-11699
COM	-11700
▁2002-2003	-11701
dorre	-11702
incapacité	-11703
▁reproduites	-11704
kin	-11705
▁Ki	-11706
▁présidé	-11707
▁caractères	-11708
▁obligatoires	-11709
atti	-11710
rô	-11711
col	-11712
▁introduire	-11713
▁néerlandais	-11714
▁acquérir	-11715
▁congol	-11716
▁remplis	-11717
-12	-11718
Vert	-11719
autoriser	-11720
emplacement	-11721
active	-11722
▁Guyana	-11723
▁italien	-11724
▁confié	-11725
▁96	-11726
▁Techn	-11727
inscrit	-11728
▁vidéos	-11729
▁hyper	-11730
▁médiateur	-11731
▁personnalité	-11732
tagnes	-11733
▁absence	-11734
octobre	-11735
étiquetage	-11736
▁musulmans	-11737
▁douane	-11738
CA	-11739
▁délim	-11740
acquérir	-11741
▁précoce	-11742
▁vocation	-11743
41	-11744
▁magasins	-11745
▁Ja	-11746
▁persu	-11747
▁bio	-11748
▁simultanément	-11749
▁tac	-11750
▁Réuni	-11751
▁influen	-11752
iteurs	-11753
▁pieds	-11754
▁portefeu	-11755
ADR	-11756
▁substitution	-11757
Ouzbékistan	-11758
▁mex	-11759
dives	-11760
▁quelqu	-11761
▁illégal	-11762
________	-11763
ménistan	-11764
vergure	-11765
mal	-11766
lusions	-11767
hébergement	-11768
▁essayer	-11769
▁Points	-11770
▁réexamen	-11771
introduire	-11772
▁englob	-11773
▁Booking	-11774
▁digne	-11775
pt	-11776
années	-11777
▁cancer	-11778
▁convaincue	-11779
▁formés	-11780
▁routier	-11781
▁pensée	-11782
ffe	-11783
▁archives	-11784
▁criminelle	-11785
▁informe	-11786
mative	-11787
SIL	-11788
agrément	-11789
oeuvre	-11790
lèvements	-11791
mine	-11792
▁Barcelone	-11793
▁lumineuse	-11794
▁véritables	-11795
HRC	-11796
▁richesse	-11797
cence	-11798
▁lait	-11799
résili	-11800
NE	-11801
alo	-11802
océ	-11803
▁inhér	-11804
▁laissé	-11805
▁manipul	-11806
IST	-11807
▁voient	-11808
▁globales	-11809
▁David	-11810
▁identifiés	-11811
▁placées	-11812
▁routiers	-11813
▁guerres	-11814
ney	-11815
▁séparés	-11816
▁Bre	-11817
▁terrestre	-11818
oué	-11819
PT	-11820
aida	-11821
▁automobile	-11822
▁reposant	-11823
enquêter	-11824
▁(2005)	-11825
▁perd	-11826
eld	-11827
ige	-11828
▁ski	-11829
oud	-11830
▁débattu	-11831
▁exploiter	-11832
▁bilatérale	-11833
▁rectificatif	-11834
écran	-11835
exécuter	-11836
▁rebelles	-11837
▁envisagée	-11838
épidémie	-11839
▁commet	-11840
▁attaque	-11841
kok	-11842
▁dos	-11843
miser	-11844
publication	-11845
▁Gi	-11846
onnée	-11847
▁Utilis	-11848
▁donnera	-11849
▁remerciements	-11850
▁go	-11851
▁régulières	-11852
▁additionnelles	-11853
▁arrêter	-11854
▁van	-11855
▁annex	-11856
▁(2006)	-11857
gel	-11858
▁conçue	-11859
▁importait	-11860
▁sond	-11861
cré	-11862
▁193	-11863
▁minoritaires	-11864
▁négatif	-11865
▁Vendredi	-11866
▁30,	-11867
▁espérer	-11868
ssement	-11869
▁investissement	-11870
▁vec	-11871
Lu	-11872
emins	-11873
▁plant	-11874
▁fruit	-11875
▁Commerce	-11876
ÉN	-11877
▁Face	-11878
▁persécu	-11879
▁Quelle	-11880
MS	-11881
ium	-11882
▁parlant	-11883
▁palestiniennes	-11884
▁sûretés	-11885
▁réguliers	-11886
▁Bret	-11887
▁marine	-11888
▁retenir	-11889
▁Sign	-11890
▁informée	-11891
▁Vu	-11892
▁joint	-11893
▁complètes	-11894
▁divisions	-11895
▁informelles	-11896
APD	-11897
ball	-11898
échec	-11899
▁massac	-11900
igneur	-11901
▁Turkménistan	-11902
▁dépôts	-11903
▁group	-11904
mad	-11905
▁signale	-11906
ouss	-11907
▁dévas	-11908
avoc	-11909
▁punir	-11910
▁officiers	-11911
▁rencontrées	-11912
DU	-11913
énat	-11914
▁inond	-11915
▁Bahamas	-11916
▁dirigée	-11917
▁injusti	-11918
▁mettra	-11919
étendue	-11920
▁pouss	-11921
▁pacte	-11922
▁parvenus	-11923
▁exercé	-11924
actualité	-11925
▁découverte	-11926
▁livrer	-11927
▁ton	-11928
▁infrastructure	-11929
ALE	-11930
▁24,	-11931
▁Registre	-11932
----	-11933
▁dépendent	-11934
▁aménag	-11935
▁réelles	-11936
▁1997.	-11937
▁préoccupés	-11938
laise	-11939
▁inquiétudes	-11940
évit	-11941
▁fonde	-11942
▁compromet	-11943
▁vacants	-11944
▁brevet	-11945
▁échapp	-11946
▁licenci	-11947
.).	-11948
▁alloués	-11949
▁attache	-11950
▁réparties	-11951
▁restreint	-11952
▁Ret	-11953
▁chargement	-11954
ings	-11955
onnés	-11956
▁passés	-11957
▁dissu	-11958
▁OU	-11959
▁appartement	-11960
▁Mardi	-11961
▁accepte	-11962
▁dissi	-11963
▁autoriser	-11964
fumeurs	-11965
▁lancés	-11966
krain	-11967
▁concertée	-11968
up	-11969
ower	-11970
▁continueront	-11971
▁monu	-11972
ask	-11973
rop	-11974
▁oui	-11975
▁Gabon	-11976
▁complets	-11977
▁**	-11978
▁prévoyait	-11979
▁bilatéral	-11980
tionnellement	-11981
Eur	-11982
▁quator	-11983
ety	-11984
ADE	-11985
▁choisis	-11986
▁proposent	-11987
▁RE	-11988
PNUD	-11989
-11	-11990
▁inspecteurs	-11991
▁insiste	-11992
▁MANU	-11993
▁poisson	-11994
▁escomptées	-11995
▁persistants	-11996
▁inviter	-11997
CES	-11998
▁fabricants	-11999
ao	-12000
CS	-12001
▁comptent	-12002
ceau	-12003
▁récomp	-12004
dés	-12005
atch	-12006
▁pleins	-12007
▁savent	-12008
.17	-12009
ière	-12010
29	-12011
lections	-12012
sessions	-12013
▁prochainement	-12014
▁Chi	-12015
▁sauvegard	-12016
ares	-12017
▁venus	-12018
▁sem	-12019
▁trau	-12020
▁dén	-12021
▁allait	-12022
ordinateur	-12023
▁conviendra	-12024
tem	-12025
▁correspondance	-12026
▁quartiers	-12027
faits	-12028
ries	-12029
▁pluriannuel	-12030
▁montagnes	-12031
implication	-12032
érone	-12033
french	-12034
ursions	-12035
▁hoc	-12036
▁Haute	-12037
infractions	-12038
▁AP	-12039
▁diversification	-12040
▁AL	-12041
▁vêtements	-12042
oque	-12043
▁reproduit	-12044
El	-12045
bul	-12046
▁discré	-12047
gnant	-12048
43	-12049
▁strict	-12050
▁prouver	-12051
▁concurrenti	-12052
▁entretiens	-12053
SID	-12054
▁retenu	-12055
▁privation	-12056
▁instant	-12057
▁cérémonie	-12058
▁affili	-12059
▁simplifier	-12060
▁déterminant	-12061
▁lourd	-12062
▁limités	-12063
sses	-12064
▁exceptions	-12065
obs	-12066
fact	-12067
avais	-12068
▁Facil	-12069
▁prochains	-12070
▁circulaire	-12071
▁coups	-12072
▁précur	-12073
▁détruire	-12074
▁tél	-12075
édois	-12076
hiver	-12077
▁fini	-12078
▁dudit	-12079
istage	-12080
▁Ministres	-12081
▁variables	-12082
cor	-12083
émissions	-12084
▁AD	-12085
▁Fournir	-12086
▁congrès	-12087
▁élargie	-12088
▁requiert	-12089
Point	-12090
▁demeurer	-12091
océan	-12092
▁orphelins	-12093
▁reconnaissent	-12094
▁exercent	-12095
▁Formation	-12096
▁89	-12097
vise	-12098
AUX	-12099
45	-12100
ambi	-12101
▁bénéficiant	-12102
▁inad	-12103
▁Recher	-12104
▁Sci	-12105
▁obtenue	-12106
▁électeurs	-12107
▁pharmaceu	-12108
▁agit	-12109
▁adapter	-12110
ona	-12111
eral	-12112
▁marketing	-12113
bas	-12114
▁terri	-12115
▁fixation	-12116
élè	-12117
mu	-12118
▁EUR	-12119
▁regrettable	-12120
▁employées	-12121
▁Présidents	-12122
ppe	-12123
▁Lim	-12124
▁cm	-12125
▁retrouve	-12126
▁allocations	-12127
▁couvrant	-12128
▁placée	-12129
▁Cabinet	-12130
▁semestre	-12131
▁Tex	-12132
berge	-12133
▁causer	-12134
▁convoquer	-12135
▁appelés	-12136
ey	-12137
▁musulman	-12138
▁mette	-12139
ax	-12140
New	-12141
venu	-12142
▁conteneurs	-12143
way	-12144
ompe	-12145
ouasie	-12146
▁remercié	-12147
ther	-12148
nière	-12149
▁Woods	-12150
▁passées	-12151
Am	-12152
mann	-12153
▁koweï	-12154
cia	-12155
▁mercen	-12156
▁imag	-12157
chez	-12158
▁plateau	-12159
telier	-12160
grade	-12161
▁HCDH	-12162
▁arrivé	-12163
habilitation	-12164
ican	-12165
accusé	-12166
▁Rod	-12167
▁équitables	-12168
▁industrie	-12169
attendre	-12170
med	-12171
CONOMI	-12172
▁saluer	-12173
▁apportés	-12174
oria	-12175
▁buffet	-12176
bert	-12177
▁plages	-12178
▁meurtre	-12179
▁accompagné	-12180
▁charme	-12181
▁environnemental	-12182
▁cos	-12183
▁concurr	-12184
▁énonce	-12185
▁Jo	-12186
▁étudié	-12187
▁Assistance	-12188
▁encour	-12189
▁orientation	-12190
obil	-12191
▁Wal	-12192
▁Résolutions	-12193
▁relan	-12194
▁Renforcer	-12195
▁Séminaire	-12196
▁amende	-12197
▁pesticides	-12198
Original	-12199
▁combustible	-12200
▁Mor	-12201
▁abordé	-12202
▁contribuant	-12203
▁her	-12204
▁immeu	-12205
iname	-12206
anique	-12207
▁transparent	-12208
▁(1)	-12209
orisation	-12210
▁coloniaux	-12211
Angola	-12212
▁accordées	-12213
▁chaleur	-12214
▁indication	-12215
▁attendu	-12216
▁informelle	-12217
Prin	-12218
uns	-12219
ouvrez	-12220
▁aurez	-12221
allages	-12222
esa	-12223
▁maintes	-12224
enlèvement	-12225
▁lucratif	-12226
▁pandémie	-12227
▁requêtes	-12228
EB	-12229
▁écran	-12230
▁instituts	-12231
89	-12232
instant	-12233
▁forestiers	-12234
URE	-12235
▁180	-12236
▁décis	-12237
▁Golan	-12238
▁dépense	-12239
▁linguistique	-12240
▁Cau	-12241
▁aidant	-12242
▁Directive	-12243
▁accréd	-12244
anou	-12245
▁irrecev	-12246
▁règne	-12247
▁remarque	-12248
▁accroissement	-12249
cta	-12250
▁prime	-12251
▁assurés	-12252
▁Celle	-12253
▁provoquer	-12254
▁Cy	-12255
AI	-12256
opt	-12257
▁donnés	-12258
▁insérer	-12259
▁Eff	-12260
cript	-12261
▁mariages	-12262
iro	-12263
▁dizaines	-12264
▁domestique	-12265
▁regroupement	-12266
gs	-12267
Uruguay	-12268
▁demandée	-12269
22	-12270
▁goût	-12271
attend	-12272
▁Patri	-12273
▁voudrions	-12274
▁vieux	-12275
▁rendez	-12276
▁attendent	-12277
▁améliorant	-12278
▁Maldives	-12279
▁(10	-12280
▁explicitement	-12281
nique	-12282
▁visas	-12283
▁comportent	-12284
▁Puissance	-12285
orerie	-12286
▁juristes	-12287
ïs	-12288
mobilier	-12289
étail	-12290
▁conçues	-12291
accusation	-12292
nit	-12293
▁inévit	-12294
▁portés	-12295
▁contrairement	-12296
Qaida	-12297
▁compensation	-12298
▁vins	-12299
▁négative	-12300
vaient	-12301
▁conjointes	-12302
▁Vers	-12303
▁fissiles	-12304
▁intr	-12305
▁Fi	-12306
aharienne	-12307
ritage	-12308
▁José	-12309
▁meubles	-12310
dad	-12311
▁échec	-12312
onto	-12313
▁boissons	-12314
▁appauv	-12315
▁patr	-12316
▁abu	-12317
occupe	-12318
aj	-12319
▁stéréotypes	-12320
▁pira	-12321
sk	-12322
86	-12323
▁modifiés	-12324
alidité	-12325
▁guider	-12326
tch	-12327
▁Reconnaissant	-12328
installer	-12329
▁entrepreneurs	-12330
▁rempl	-12331
▁autri	-12332
▁toxiques	-12333
▁analytiques	-12334
att	-12335
amine	-12336
▁farde	-12337
▁apparent	-12338
▁convergence	-12339
inspire	-12340
▁Women	-12341
▁concession	-12342
▁Sp	-12343
▁10.	-12344
▁turc	-12345
▁fonder	-12346
▁chemins	-12347
iliers	-12348
▁planifier	-12349
quaient	-12350
/15/	-12351
▁précau	-12352
▁courante	-12353
▁recenser	-12354
CEE	-12355
▁8.	-12356
▁protest	-12357
▁équatori	-12358
▁divergences	-12359
yez	-12360
▁Che	-12361
▁légumes	-12362
▁restric	-12363
Atlantique	-12364
▁atmosphère	-12365
▁bass	-12366
▁rw	-12367
lises	-12368
▁quitté	-12369
▁étendue	-12370
hal	-12371
▁vaccin	-12372
ourant	-12373
▁Bretton	-12374
▁qualités	-12375
WA	-12376
▁Feu	-12377
▁climatisation	-12378
▁traitée	-12379
▁déont	-12380
▁aigu	-12381
▁francoph	-12382
▁proposant	-12383
élevage	-12384
▁variations	-12385
▁installation	-12386
illons	-12387
fast	-12388
▁PAM	-12389
▁Martin	-12390
▁écarts	-12391
▁Additif	-12392
pla	-12393
▁lés	-12394
comme	-12395
▁déposées	-12396
▁dilig	-12397
aziland	-12398
▁accusées	-12399
▁views	-12400
▁Région	-12401
chons	-12402
▁rédiger	-12403
Roy	-12404
idées	-12405
▁actives	-12406
estes	-12407
TD	-12408
/2,	-12409
viol	-12410
▁voisinage	-12411
▁Directives	-12412
CRC	-12413
TIC	-12414
▁décrite	-12415
fice	-12416
atriculation	-12417
▁fermes	-12418
▁excessive	-12419
▁vain	-12420
▁passible	-12421
▁conclut	-12422
▁traitant	-12423
▁dépistage	-12424
Administrateur	-12425
akar	-12426
▁mascul	-12427
ware	-12428
▁larges	-12429
▁ÉCONOMI	-12430
▁accordés	-12431
▁remet	-12432
47	-12433
▁sèche	-12434
▁(2002)	-12435
▁remplacé	-12436
▁couple	-12437
▁tourn	-12438
▁symbole	-12439
▁occupante	-12440
sias	-12441
▁tarder	-12442
▁réaliste	-12443
▁»)	-12444
▁minute	-12445
arrêter	-12446
▁chinoise	-12447
▁énumérés	-12448
▁signalisation	-12449
▁délica	-12450
▁exportateurs	-12451
▁Proche	-12452
▁inspections	-12453
▁AUX	-12454
▁Gro	-12455
▁collo	-12456
taine	-12457
▁malades	-12458
▁Remp	-12459
▁hospit	-12460
▁soigne	-12461
▁directes	-12462
indique	-12463
AE	-12464
immunité	-12465
▁dispenser	-12466
avril	-12467
▁tenons	-12468
▁arts	-12469
▁accusé	-12470
▁milices	-12471
▁contamin	-12472
▁Bag	-12473
▁relâ	-12474
assemb	-12475
▁presti	-12476
▁répan	-12477
▁visait	-12478
▁quantita	-12479
▁collectives	-12480
▁Resp	-12481
▁appartiennent	-12482
▁bruit	-12483
▁diriger	-12484
▁suédois	-12485
▁opérateurs	-12486
▁ouvre	-12487
▁ani	-12488
ocar	-12489
▁Vie	-12490
▁remor	-12491
▁91	-12492
▁provoqué	-12493
▁professeur	-12494
cendance	-12495
▁hor	-12496
▁Suriname	-12497
alam	-12498
▁volets	-12499
cueille	-12500
▁déclarés	-12501
▁bureaucra	-12502
▁Dialogue	-12503
▁invitation	-12504
▁Vingt	-12505
▁lecteur	-12506
▁Papouasie	-12507
▁4)	-12508
▁joi	-12509
▁formelle	-12510
▁écologiquement	-12511
▁bor	-12512
onge	-12513
▁Bangkok	-12514
autor	-12515
▁harmonie	-12516
▁this	-12517
▁peser	-12518
▁jouit	-12519
▁affai	-12520
▁Belize	-12521
▁sortes	-12522
▁4.2	-12523
▁miné	-12524
verbaux	-12525
aura	-12526
▁détri	-12527
optimis	-12528
▁Résulta	-12529
!!	-12530
▁asc	-12531
licité	-12532
▁recyclage	-12533
▁enregistrée	-12534
▁23,	-12535
▁dérouler	-12536
version	-12537
▁Swaziland	-12538
▁cab	-12539
▁immigrants	-12540
▁prévalence	-12541
▁commandement	-12542
▁inex	-12543
▁péti	-12544
audience	-12545
▁paraître	-12546
▁bienn	-12547
▁préjudiciables	-12548
▁conversion	-12549
88	-12550
hés	-12551
▁Lacs	-12552
▁Quar	-12553
▁concrètement	-12554
apparition	-12555
▁résum	-12556
▁recouv	-12557
▁structurelles	-12558
▁dite	-12559
▁faiblesse	-12560
▁reçue	-12561
▁anciennes	-12562
▁scolarité	-12563
Ab	-12564
iens	-12565
▁résolus	-12566
gc	-12567
▁Hy	-12568
▁œuv	-12569
▁décri	-12570
▁contradi	-12571
▁marquée	-12572
▁étendre	-12573
chev	-12574
épargne	-12575
▁préférable	-12576
Un	-12577
▁Celles	-12578
▁pénurie	-12579
▁urbains	-12580
▁transmises	-12581
▁25,	-12582
han	-12583
▁Villa	-12584
ossibilité	-12585
▁disposé	-12586
▁prévisible	-12587
▁Robert	-12588
▁promen	-12589
▁Seigneur	-12590
▁déplacer	-12591
▁comptait	-12592
▁clairs	-12593
ION	-12594
▁Sil	-12595
▁urgente	-12596
axe	-12597
▁paysage	-12598
▁spatial	-12599
opportunité	-12600
▁Promouvoir	-12601
otho	-12602
▁Médiateur	-12603
▁décrits	-12604
▁élaborées	-12605
▁dispara	-12606
▁ultra	-12607
MO	-12608
Observateur	-12609
oscou	-12610
▁équivalent	-12611
îtra	-12612
▁rétro	-12613
▁tropi	-12614
éla	-12615
▁favorisent	-12616
▁détriment	-12617
▁brésili	-12618
▁Lab	-12619
▁tente	-12620
33	-12621
▁signés	-12622
quants	-12623
rangement	-12624
interaction	-12625
ffier	-12626
▁ponctu	-12627
▁strictes	-12628
▁1989	-12629
▁adéquats	-12630
▁édi	-12631
dites	-12632
▁pratiquer	-12633
▁ciblées	-12634
▁sentir	-12635
▁appuyons	-12636
envoyer	-12637
représent	-12638
▁député	-12639
tit	-12640
exposé	-12641
▁noir	-12642
▁octroy	-12643
▁mentionnée	-12644
▁ultérieures	-12645
▁agi	-12646
▁vital	-12647
▁Lesotho	-12648
▁empêche	-12649
▁originaires	-12650
alier	-12651
phère	-12652
ordinaires	-12653
▁comptabil	-12654
enz	-12655
berta	-12656
lacer	-12657
▁prescription	-12658
instar	-12659
université	-12660
▁SBSTA	-12661
▁appliquent	-12662
Pour	-12663
attitude	-12664
▁authen	-12665
ettement	-12666
▁préférences	-12667
▁Sénat	-12668
▁Amnesty	-12669
▁garantissent	-12670
▁bac	-12671
▁fardeau	-12672
isons	-12673
▁escomptés	-12674
▁1.2	-12675
optique	-12676
▁plaidoyer	-12677
▁Jan	-12678
.19	-12679
▁exprimés	-12680
mocra	-12681
▁attente	-12682
▁démographiques	-12683
▁espagnole	-12684
▁incar	-12685
▁semi	-12686
▁numériques	-12687
▁forestières	-12688
▁CEA	-12689
▁Pau	-12690
▁(9	-12691
argu	-12692
▁combustibles	-12693
▁enregistrement	-12694
▁souple	-12695
conf	-12696
▁mutuel	-12697
▁relance	-12698
▁visible	-12699
▁Figure	-12700
femmes	-12701
▁façons	-12702
▁ordinateurs	-12703
-2010	-12704
istribu	-12705
▁supplé	-12706
-30	-12707
▁Mettre	-12708
ato	-12709
▁domestiques	-12710
▁vallée	-12711
▁moments	-12712
hommes	-12713
▁protège	-12714
▁référant	-12715
▁dédi	-12716
▁existait	-12717
▁accordant	-12718
▁Dés	-12719
▁Excellence	-12720
▁subord	-12721
individu	-12722
▁puni	-12723
▁aver	-12724
▁irrégu	-12725
▁Européens	-12726
Su	-12727
dir	-12728
▁FR	-12729
▁dimanche	-12730
▁enquê	-12731
▁occupent	-12732
▁socialiste	-12733
rouve	-12734
gnées	-12735
ostat	-12736
▁rej	-12737
▁successi	-12738
Islande	-12739
orig	-12740
▁Mel	-12741
annonce	-12742
▁doi	-12743
▁belles	-12744
▁institué	-12745
▁110	-12746
accum	-12747
▁Lundi	-12748
accueillir	-12749
▁1996.	-12750
verser	-12751
▁reposer	-12752
ières	-12753
▁Center	-12754
▁faux	-12755
▁Paragraphes	-12756
▁retenus	-12757
▁Peut	-12758
▁envoi	-12759
▁rapporte	-12760
5;	-12761
▁aqu	-12762
▁aériens	-12763
fr	-12764
▁manger	-12765
▁réexaminer	-12766
▁Représentante	-12767
Marin	-12768
▁itiné	-12769
▁bassin	-12770
carb	-12771
▁allouées	-12772
▁coeffici	-12773
▁clo	-12774
▁somali	-12775
effectif	-12776
rome	-12777
ennant	-12778
ere	-12779
▁),	-12780
▁assume	-12781
▁prévision	-12782
▁rappelant	-12783
▁effectives	-12784
▁mél	-12785
▁Toronto	-12786
)).	-12787
ater	-12788
▁tienne	-12789
▁Ess	-12790
issage	-12791
▁facilitant	-12792
▁concrétiser	-12793
▁préventives	-12794
aspect	-12795
▁piliers	-12796
▁DVD	-12797
ONUSIDA	-12798
▁Règlements	-12799
asa	-12800
▁confiscation	-12801
hotel	-12802
▁dan	-12803
▁endomm	-12804
▁éventuel	-12805
▁University	-12806
▁noy	-12807
▁week	-12808
cadrement	-12809
▁interromp	-12810
▁[[	-12811
▁Fer	-12812
oraire	-12813
▁CESAP	-12814
▁forcée	-12815
buda	-12816
orum	-12817
ura	-12818
▁observation	-12819
▁renouvellement	-12820
▁vent	-12821
▁dure	-12822
▁étage	-12823
▁sectorielles	-12824
ated	-12825
▁Micha	-12826
▁Quels	-12827
▁coerci	-12828
▁extraordinaires	-12829
▁Rev	-12830
▁Intro	-12831
rans	-12832
▁marines	-12833
▁améliore	-12834
▁méthodologie	-12835
▁investir	-12836
▁CAR	-12837
▁fondements	-12838
▁2.3	-12839
▁régulier	-12840
alimentaire	-12841
▁vive	-12842
▁démons	-12843
▁82	-12844
▁sélec	-12845
▁tenté	-12846
▁anglaise	-12847
▁particul	-12848
▁défavorisés	-12849
▁confortables	-12850
vain	-12851
▁attentivement	-12852
▁entrave	-12853
▁libérer	-12854
▁dettes	-12855
▁empêchent	-12856
▁populaires	-12857
▁ukrain	-12858
▁châtiments	-12859
▁Men	-12860
▁purement	-12861
▁développements	-12862
▁neutra	-12863
hypo	-12864
éthique	-12865
astre	-12866
pture	-12867
▁cade	-12868
▁Abd	-12869
▁tragé	-12870
▁auxili	-12871
▁sortant	-12872
uge	-12873
▁202	-12874
▁insuffisante	-12875
itude	-12876
▁proroger	-12877
TA	-12878
▁réactions	-12879
▁légère	-12880
▁précède	-12881
▁aéroports	-12882
▁répertoire	-12883
▁exhorte	-12884
▁renforcent	-12885
▁Maj	-12886
SIDENT	-12887
▁resser	-12888
ota	-12889
▁serez	-12890
▁reflètent	-12891
chets	-12892
▁définitivement	-12893
▁comparables	-12894
▁acceptée	-12895
▁oppos	-12896
▁douanières	-12897
▁Group	-12898
▁accent	-12899
▁immunités	-12900
▁ampleur	-12901
▁urgence	-12902
inventaire	-12903
▁und	-12904
▁transmissibles	-12905
▁délib	-12906
▁abstentions	-12907
ennement	-12908
59	-12909
offres	-12910
hor	-12911
▁intersessions	-12912
radi	-12913
▁Guer	-12914
▁Child	-12915
▁Sm	-12916
▁voudra	-12917
▁précurseurs	-12918
▁81	-12919
▁réservés	-12920
ful	-12921
arrière	-12922
ectar	-12923
▁intellig	-12924
▁coutumier	-12925
itar	-12926
impliquent	-12927
▁merve	-12928
.»	-12929
▁Musée	-12930
▁découle	-12931
▁manquer	-12932
▁protégé	-12933
▁envoyés	-12934
▁prier	-12935
▁décentralis	-12936
▁jet	-12937
▁Conclusions	-12938
▁Proposition	-12939
▁terrains	-12940
▁treizième	-12941
présidents	-12942
dont	-12943
▁noci	-12944
VE	-12945
▁touristes	-12946
ally	-12947
ctique	-12948
intimi	-12949
▁Moscou	-12950
pra	-12951
▁nécessiter	-12952
appartenance	-12953
Royaume	-12954
liques	-12955
▁comprise	-12956
▁sages	-12957
▁poursuivra	-12958
accessibilité	-12959
excell	-12960
▁intervenant	-12961
INUL	-12962
▁parallèles	-12963
▁5.2	-12964
▁crainte	-12965
▁saluons	-12966
▁sportives	-12967
▁uniformes	-12968
▁clandestin	-12969
▁blé	-12970
▁officieuse	-12971
médiaires	-12972
lim	-12973
▁restera	-12974
lège	-12975
▁Institute	-12976
avan	-12977
▁fluctu	-12978
▁criti	-12979
case	-12980
équiv	-12981
▁Ég	-12982
irait	-12983
ativité	-12984
▁rarement	-12985
▁collaborateurs	-12986
laient	-12987
▁major	-12988
cosse	-12989
▁cond	-12990
ffices	-12991
▁Er	-12992
▁1988	-12993
▁Golf	-12994
▁possé	-12995
▁délivré	-12996
▁concret	-12997
▁monétaires	-12998
▁SA	-12999
▁indemnis	-13000
▁exploitations	-13001
itt	-13002
alle	-13003
onési	-13004
▁tellement	-13005
▁92	-13006
hôpital	-13007
▁retomb	-13008
▁disposés	-13009
▁adjo	-13010
▁vieille	-13011
ound	-13012
▁parvi	-13013
olement	-13014
portion	-13015
▁PRÉSIDENT	-13016
▁Sim	-13017
▁résolument	-13018
▁105	-13019
▁artistique	-13020
▁africaines	-13021
chements	-13022
▁trésorerie	-13023
7/	-13024
▁prud	-13025
▁arrêtées	-13026
▁souffrant	-13027
LES	-13028
▁RAP	-13029
▁récapitulatif	-13030
tilité	-13031
édification	-13032
Barbuda	-13033
▁Econom	-13034
étape	-13035
▁paquets	-13036
▁prédé	-13037
lantation	-13038
eries	-13039
▁musée	-13040
▁accompagnée	-13041
élicopt	-13042
▁conv	-13043
lère	-13044
▁condamne	-13045
▁dynamiques	-13046
excellence	-13047
▁inventaires	-13048
henti	-13049
▁PPE	-13050
▁fossé	-13051
▁subsaharienne	-13052
earch	-13053
dar	-13054
▁équilibré	-13055
▁croit	-13056
▁réglementer	-13057
▁éclai	-13058
▁poursuivis	-13059
▁promesses	-13060
▁Park	-13061
▁distincte	-13062
▁concertées	-13063
▁coin	-13064
▁indonési	-13065
ogle	-13066
▁clar	-13067
▁centralis	-13068
▁viens	-13069
▁langage	-13070
▁posés	-13071
instance	-13072
▁renvoie	-13073
▁traitent	-13074
▁sympath	-13075
74	-13076
diteur	-13077
▁réduisant	-13078
▁Université	-13079
tics	-13080
▁passeport	-13081
▁sucre	-13082
▁légalement	-13083
▁rationaliser	-13084
▁détermine	-13085
▁justement	-13086
dule	-13087
▁Jeux	-13088
▁contrac	-13089
▁dî	-13090
▁mol	-13091
▁confier	-13092
▁soulevé	-13093
▁menant	-13094
▁produites	-13095
the	-13096
▁montée	-13097
▁intervenus	-13098
▁primordial	-13099
élé	-13100
▁fuite	-13101
vidence	-13102
▁entrées	-13103
▁formules	-13104
▁signaux	-13105
assi	-13106
▁aband	-13107
▁soigneusement	-13108
amour	-13109
▁Liber	-13110
▁proviennent	-13111
▁géor	-13112
jeuner	-13113
▁coalition	-13114
▁renfer	-13115
▁coauteurs	-13116
▁deg	-13117
▁Dr	-13118
éros	-13119
▁attaché	-13120
▁roulement	-13121
▁harmoniser	-13122
acts	-13123
voyé	-13124
pel	-13125
▁séries	-13126
▁sincèrement	-13127
investissements	-13128
▁ja	-13129
▁Décla	-13130
▁lente	-13131
▁norvé	-13132
.1/	-13133
▁cabinet	-13134
▁néglige	-13135
duc	-13136
▁projections	-13137
▁soutiennent	-13138
avère	-13139
▁jugés	-13140
▁substitu	-13141
any	-13142
wi	-13143
▁Instru	-13144
▁portait	-13145
▁secrétariats	-13146
éradication	-13147
dée	-13148
▁ense	-13149
▁budgétisation	-13150
▁échantillons	-13151
çait	-13152
▁génit	-13153
automne	-13154
▁attitudes	-13155
Estonie	-13156
▁annul	-13157
abolition	-13158
versement	-13159
35	-13160
éché	-13161
▁couverte	-13162
ender	-13163
▁stades	-13164
urb	-13165
ding	-13166
olymp	-13167
▁Évaluation	-13168
essence	-13169
▁INF	-13170
thé	-13171
▁Ouzbékistan	-13172
▁Tri	-13173
▁satisfaisant	-13174
▁différenci	-13175
▁électorales	-13176
▁compatibilité	-13177
▁marquage	-13178
▁épreuves	-13179
▁SG	-13180
énor	-13181
chauff	-13182
▁Procé	-13183
rol	-13184
/2004/	-13185
▁belge	-13186
▁originaux	-13187
▁confère	-13188
▁mauvaises	-13189
gués	-13190
▁Plaza	-13191
▁engins	-13192
▁Création	-13193
Lucie	-13194
▁Ru	-13195
▁forcés	-13196
▁puissions	-13197
▁radiodi	-13198
▁résolue	-13199
éi	-13200
/1373	-13201
▁péril	-13202
cil	-13203
▁procédés	-13204
tural	-13205
▁assurance	-13206
▁Mah	-13207
▁SE	-13208
▁ménage	-13209
▁prorogation	-13210
▁Global	-13211
▁maintenance	-13212
▁Met	-13213
▁tangi	-13214
▁considérons	-13215
▁extr	-13216
opol	-13217
ERN	-13218
▁PP	-13219
▁Ku	-13220
▁coul	-13221
ateliers	-13222
▁recruter	-13223
▁imposée	-13224
▁Politique	-13225
▁tourner	-13226
66	-13227
▁débar	-13228
▁intra	-13229
▁varie	-13230
▁continental	-13231
▁Africa	-13232
organisée	-13233
▁Front	-13234
▁rempli	-13235
▁tirées	-13236
▁Volontaires	-13237
incent	-13238
▁[...	-13239
▁sacri	-13240
▁optimale	-13241
▁panora	-13242
▁retiré	-13243
],	-13244
▁infir	-13245
▁côtes	-13246
enseur	-13247
▁sinon	-13248
▁1,5	-13249
▁simplification	-13250
akfast	-13251
▁déclin	-13252
▁chypriote	-13253
▁distincts	-13254
indice	-13255
▁salué	-13256
▁traduits	-13257
▁visibilité	-13258
engagent	-13259
▁9.	-13260
▁clarifier	-13261
▁fax	-13262
▁macroéconomique	-13263
IED	-13264
▁cellule	-13265
▁arriérés	-13266
▁have	-13267
▁œuvres	-13268
▁moyennant	-13269
▁apparemment	-13270
▁portefeuille	-13271
omon	-13272
▁antérieurs	-13273
vons	-13274
▁manufact	-13275
▁célébration	-13276
▁déploie	-13277
▁manifesté	-13278
▁proprement	-13279
▁Jac	-13280
▁pavillon	-13281
vues	-13282
NL	-13283
▁sexiste	-13284
Ins	-13285
▁ancienne	-13286
▁fenêtre	-13287
▁boîte	-13288
▁commandant	-13289
▁compilation	-13290
▁interaméricaine	-13291
▁enregistrer	-13292
▁Chargé	-13293
▁réussir	-13294
▁interdite	-13295
expéri	-13296
▁supporter	-13297
ple	-13298
ford	-13299
▁distribués	-13300
▁Mari	-13301
▁sovi	-13302
ambassade	-13303
mm	-13304
▁colomb	-13305
▁développe	-13306
tus	-13307
▁installés	-13308
yé	-13309
▁basse	-13310
▁assum	-13311
▁suggère	-13312
▁contractante	-13313
▁Administration	-13314
/40/	-13315
▁remercions	-13316
▁Communications	-13317
▁installer	-13318
bar	-13319
▁olymp	-13320
▁consciente	-13321
▁fier	-13322
currence	-13323
▁pè	-13324
guée	-13325
▁1540	-13326
RI	-13327
Re	-13328
▁égyp	-13329
▁collabore	-13330
▁épar	-13331
alk	-13332
▁forums	-13333
▁innovations	-13334
▁joints	-13335
▁justes	-13336
▁élimination	-13337
huile	-13338
▁Statistiques	-13339
▁voici	-13340
écou	-13341
▁considérant	-13342
▁USD	-13343
▁exploitants	-13344
▁Bay	-13345
▁faculté	-13346
▁Défense	-13347
▁Cir	-13348
▁caisse	-13349
▁transnationales	-13350
▁détecter	-13351
-14	-13352
▁déplore	-13353
obiles	-13354
▁lourde	-13355
▁2.4	-13356
PV	-13357
élaou	-13358
rég	-13359
aliers	-13360
▁convenues	-13361
van	-13362
mières	-13363
▁Pet	-13364
▁exposition	-13365
▁illégalement	-13366
▁saine	-13367
▁apparaissent	-13368
▁assujet	-13369
▁cass	-13370
▁puits	-13371
▁pédagogiques	-13372
intervenir	-13373
▁surcro	-13374
▁horizon	-13375
▁inscription	-13376
▁contreb	-13377
▁équipée	-13378
▁bé	-13379
ury	-13380
▁dig	-13381
inégalité	-13382
oba	-13383
accou	-13384
▁vigil	-13385
▁Bush	-13386
▁composés	-13387
▁Linux	-13388
enseign	-13389
▁Aspects	-13390
▁démocratisation	-13391
▁siècles	-13392
▁invitons	-13393
ish	-13394
▁architec	-13395
▁fermé	-13396
américain	-13397
▁maltraitance	-13398
▁prépare	-13399
▁surcroît	-13400
▁élaborée	-13401
chang	-13402
▁divorce	-13403
SL	-13404
▁pires	-13405
▁utilisateur	-13406
▁modélisation	-13407
▁devienne	-13408
▁Belgrade	-13409
▁territoriales	-13410
ronter	-13411
▁Vol	-13412
▁inondations	-13413
immatriculation	-13414
▁satisfaits	-13415
érante	-13416
No	-13417
▁Andorre	-13418
eck	-13419
▁Très	-13420
▁original	-13421
▁intentions	-13422
▁jointe	-13423
▁parrain	-13424
▁susmentionnée	-13425
▁pourrions	-13426
▁quinzième	-13427
▁rénovation	-13428
sun	-13429
▁renforcées	-13430
▁achevée	-13431
▁lancées	-13432
▁Livre	-13433
istante	-13434
accident	-13435
▁ferroviaires	-13436
URS	-13437
▁rare	-13438
▁forts	-13439
▁frères	-13440
tt	-13441
eug	-13442
▁Common	-13443
▁blocus	-13444
▁concentre	-13445
▁laboratoires	-13446
▁financements	-13447
▁cur	-13448
régionale	-13449
▁ressource	-13450
▁offrons	-13451
installations	-13452
▁ledit	-13453
▁restes	-13454
▁fournira	-13455
infrastructures	-13456
▁idéale	-13457
▁fédérales	-13458
▁prote	-13459
▁connues	-13460
▁indig	-13461
▁tolé	-13462
▁CIC	-13463
▁sauver	-13464
▁apprécie	-13465
▁exhaustive	-13466
pole	-13467
▁expositions	-13468
▁téléphonique	-13469
▁SC	-13470
▁Certes	-13471
▁CEI	-13472
▁Hos	-13473
▁Mul	-13474
▁représentées	-13475
PP	-13476
▁revêtent	-13477
▁sexuellement	-13478
▁valables	-13479
▁Her	-13480
▁côtières	-13481
▁entamé	-13482
▁verte	-13483
▁élabore	-13484
Corr	-13485
RF	-13486
▁désta	-13487
▁réfrigé	-13488
user	-13489
▁préscol	-13490
▁fallu	-13491
ool	-13492
▁190	-13493
▁déontologie	-13494
EMEP	-13495
▁Numéro	-13496
gov	-13497
ectares	-13498
▁Analyse	-13499
entente	-13500
▁présidentielle	-13501
mire	-13502
▁engend	-13503
caux	-13504
▁inutile	-13505
harmoniser	-13506
▁PE	-13507
.109	-13508
▁cum	-13509
eures	-13510
▁puissant	-13511
▁contemporaines	-13512
▁mentionne	-13513
Tra	-13514
▁marquer	-13515
▁intéressé	-13516
▁alg	-13517
▁relax	-13518
▁maximal	-13519
▁confusion	-13520
NI	-13521
▁Biblioth	-13522
▁récupération	-13523
dien	-13524
vants	-13525
▁occuper	-13526
occurrence	-13527
équipements	-13528
▁laté	-13529
▁Explo	-13530
▁versée	-13531
▁centraux	-13532
▁économiquement	-13533
28	-13534
▁sing	-13535
▁dévou	-13536
▁formalités	-13537
réditation	-13538
▁viser	-13539
expertise	-13540
'),	-13541
▁convictions	-13542
▁May	-13543
housias	-13544
▁déterminées	-13545
dies	-13546
▁Arti	-13547
▁fleuve	-13548
SM	-13549
/53	-13550
▁Quoi	-13551
▁Radi	-13552
assumer	-13553
▁uniques	-13554
▁globalement	-13555
▁intèg	-13556
▁dépositaire	-13557
adé	-13558
▁sauna	-13559
DG	-13560
▁Peter	-13561
PORTS	-13562
▁ordonn	-13563
▁rejeter	-13564
▁clarté	-13565
▁saisies	-13566
▁bra	-13567
▁équipement	-13568
▁propices	-13569
▁extrémis	-13570
élo	-13571
▁référer	-13572
▁opportunités	-13573
▁unilatérales	-13574
accompag	-13575
itère	-13576
éliens	-13577
▁identifié	-13578
▁coc	-13579
▁calculé	-13580
▁nouvellement	-13581
gera	-13582
▁morte	-13583
PORT	-13584
▁toucher	-13585
▁provinciaux	-13586
▁Sys	-13587
▁touché	-13588
▁grie	-13589
▁incluent	-13590
▁quatorzième	-13591
FI	-13592
▁musées	-13593
▁ambiance	-13594
FAO	-13595
entrepren	-13596
intimidation	-13597
ussalam	-13598
▁jardins	-13599
sw	-13600
▁énumérées	-13601
▁lent	-13602
▁alimentation	-13603
▁néo	-13604
▁municipales	-13605
▁libéri	-13606
▁représentaient	-13607
▁Star	-13608
▁nuire	-13609
▁signée	-13610
▁samedi	-13611
▁liquidation	-13612
▁mous	-13613
▁Conditions	-13614
▁Ros	-13615
▁Porto	-13616
▁offices	-13617
▁échanger	-13618
▁assis	-13619
habitants	-13620
aur	-13621
▁datées	-13622
▁Comores	-13623
▁ressortir	-13624
▁déni	-13625
▁relancer	-13626
▁Darussalam	-13627
/52	-13628
▁exigé	-13629
▁fonctionnent	-13630
Fédération	-13631
soit	-13632
▁audi	-13633
▁approfondies	-13634
▁issue	-13635
▁roues	-13636
tiendra	-13637
▁facilit	-13638
▁interlocu	-13639
▁report	-13640
▁navigateur	-13641
OPE	-13642
▁Pre	-13643
▁servira	-13644
▁majeures	-13645
ascendance	-13646
ERS	-13647
ègent	-13648
▁coré	-13649
▁argent	-13650
▁coopératives	-13651
onse	-13652
▁existante	-13653
▁rapprocher	-13654
oxyde	-13655
▁administrante	-13656
▁record	-13657
rag	-13658
▁italienne	-13659
osi	-13660
▁jugée	-13661
appelle	-13662
▁observe	-13663
▁Ev	-13664
ortée	-13665
▁parlons	-13666
expédition	-13667
▁Cat	-13668
▁Michael	-13669
▁Introduction	-13670
▁nés	-13671
étal	-13672
▁mers	-13673
▁rapatriés	-13674
▁pêcheurs	-13675
▁Inf	-13676
▁2006-0	-13677
▁AV	-13678
▁22,	-13679
▁were	-13680
▁citernes	-13681
▁bénévoles	-13682
▁indicateur	-13683
▁SBI	-13684
liste	-13685
▁omis	-13686
itoyens	-13687
▁prétexte	-13688
▁graphique	-13689
▁composant	-13690
exac	-13691
entremise	-13692
▁concernait	-13693
brer	-13694
eler	-13695
▁mille	-13696
▁).	-13697
▁renvoyé	-13698
▁convaincre	-13699
▁copies	-13700
▁incompatible	-13701
▁gouvernemental	-13702
office	-13703
▁diffusé	-13704
atten	-13705
▁déclarant	-13706
FACT	-13707
énon	-13708
▁vécu	-13709
▁Guerre	-13710
ube	-13711
▁PN	-13712
tino	-13713
▁signification	-13714
▁Ed	-13715
▁nécessitent	-13716
▁relief	-13717
élections	-13718
▁témoignent	-13719
▁disposant	-13720
erner	-13721
▁semblables	-13722
align	-13723
▁convivi	-13724
▁normales	-13725
intégra	-13726
▁Greffier	-13727
1/	-13728
▁rwandais	-13729
▁Industri	-13730
▁regrou	-13731
▁révèle	-13732
▁froid	-13733
▁agence	-13734
▁ordres	-13735
▁pond	-13736
copie	-13737
▁commise	-13738
▁analogue	-13739
▁coordonnés	-13740
ricains	-13741
▁appelons	-13742
▁commencent	-13743
▁Domin	-13744
.2.	-13745
▁serons	-13746
▁combats	-13747
▁Annan	-13748
▁insuffisant	-13749
▁sécuritaire	-13750
▁Réunions	-13751
▁plastique	-13752
▁Der	-13753
▁Jés	-13754
▁découra	-13755
The	-13756
▁significatif	-13757
▁autor	-13758
tisées	-13759
▁richesses	-13760
▁officieux	-13761
▁irrecevable	-13762
try	-13763
▁faill	-13764
▁finir	-13765
ongro	-13766
▁boute	-13767
▁variable	-13768
cessions	-13769
▁Gambie	-13770
▁espoir	-13771
▁notable	-13772
▁intermédiaires	-13773
cières	-13774
échanger	-13775
▁rubriques	-13776
▁succession	-13777
auts	-13778
▁décisif	-13779
▁AG	-13780
outs	-13781
▁forestière	-13782
▁Normes	-13783
▁Général	-13784
▁turque	-13785
tuelle	-13786
▁génére	-13787
employeur	-13788
urions	-13789
▁37,	-13790
▁charger	-13791
-31	-13792
▁égaux	-13793
▁surf	-13794
▁tempé	-13795
agnement	-13796
allégement	-13797
ritannique	-13798
▁bur	-13799
▁feuilles	-13800
olat	-13801
▁rigi	-13802
▁dispro	-13803
▁profits	-13804
▁reclass	-13805
▁réglés	-13806
onga	-13807
Japon	-13808
▁vacance	-13809
▁doctrine	-13810
▁amené	-13811
▁aurons	-13812
▁découvert	-13813
▁Produits	-13814
trans	-13815
ômes	-13816
▁prudence	-13817
▁Tai	-13818
▁Trente	-13819
▁essayé	-13820
cissements	-13821
▁160	-13822
▁CEDEAO	-13823
▁foc	-13824
▁imputable	-13825
OD	-13826
▁aimerait	-13827
▁merci	-13828
▁Google	-13829
▁spécifications	-13830
▁Défini	-13831
▁consentis	-13832
▁fir	-13833
▁pistes	-13834
▁Festival	-13835
toire	-13836
▁fant	-13837
▁Programmes	-13838
ness	-13839
▁autorisant	-13840
▁foot	-13841
▁objection	-13842
85	-13843
▁dirigeant	-13844
Ph	-13845
of	-13846
▁Flor	-13847
▁qualifiée	-13848
PRST	-13849
▁coordonné	-13850
▁justifie	-13851
▁entou	-13852
▁Recherche	-13853
banais	-13854
▁montage	-13855
▁mercenaires	-13856
▁CL	-13857
▁posée	-13858
▁fédéraux	-13859
▁encouragent	-13860
invalidité	-13861
▁déposée	-13862
nam	-13863
▁douze	-13864
▁maroc	-13865
▁aqui	-13866
expliquer	-13867
▁CF	-13868
▁Sir	-13869
▁objective	-13870
exige	-13871
amor	-13872
▁débris	-13873
culturel	-13874
▁formulaires	-13875
endettement	-13876
phone	-13877
▁boule	-13878
76	-13879
▁représentait	-13880
aptitude	-13881
▁Tokélaou	-13882
▁fiscal	-13883
▁suspendre	-13884
Armée	-13885
gnée	-13886
▁Gib	-13887
ciplinaire	-13888
▁Pop	-13889
▁Jésus	-13890
39	-13891
août	-13892
Rapp	-13893
▁versements	-13894
ado	-13895
▁génie	-13896
▁Chambres	-13897
▁90,	-13898
▁Oman	-13899
▁quinze	-13900
▁Hel	-13901
▁exercée	-13902
▁Objectif	-13903
▁acceptés	-13904
▁bénéficiaire	-13905
apprendre	-13906
-22	-13907
▁1990.	-13908
▁enquêter	-13909
AND	-13910
▁acceptées	-13911
▁expression	-13912
▁explica	-13913
appeler	-13914
fices	-13915
▁patrou	-13916
▁entrent	-13917
▁prévaloir	-13918
▁28,	-13919
▁leader	-13920
▁désire	-13921
▁plong	-13922
▁lamp	-13923
▁pensent	-13924
estri	-13925
▁pilier	-13926
cules	-13927
▁assimil	-13928
▁théorie	-13929
tisations	-13930
td	-13931
ANCE	-13932
▁sén	-13933
▁Divers	-13934
▁minimal	-13935
appréciation	-13936
▁constituerait	-13937
achever	-13938
▁créent	-13939
▁exécutées	-13940
▁emballages	-13941
▁scru	-13942
▁volontairement	-13943
▁discriminations	-13944
itra	-13945
avortement	-13946
▁défici	-13947
domad	-13948
▁gagn	-13949
tina	-13950
▁26,	-13951
leterre	-13952
▁IX	-13953
usse	-13954
▁liquide	-13955
▁UE	-13956
▁amener	-13957
▁disproportion	-13958
▁Territ	-13959
▁environs	-13960
inn	-13961
IDA	-13962
démi	-13963
▁stage	-13964
▁danois	-13965
▁liaisons	-13966
▁Déclarations	-13967
▁Bonn	-13968
▁gran	-13969
échanges	-13970
▁Nice	-13971
▁orale	-13972
▁disciplinaires	-13973
▁Agence	-13974
▁Eu	-13975
low	-13976
▁constituaient	-13977
▁évalué	-13978
tête	-13979
▁Décisions	-13980
▁Bibliothèque	-13981
▁AR	-13982
artis	-13983
adolesc	-13984
▁2005-200	-13985
▁Coalition	-13986
▁faune	-13987
▁Demand	-13988
▁segment	-13989
▁adh	-13990
▁furent	-13991
▁rendues	-13992
Sou	-13993
▁coïn	-13994
▁développées	-13995
▁publiquement	-13996
▁exceptionnelles	-13997
oile	-13998
▁octro	-13999
▁journées	-14000
▁progressif	-14001
hier	-14002
▁Environment	-14003
▁travailleuses	-14004
▁correspondante	-14005
.3.	-14006
▁clubs	-14007
▁pp	-14008
▁hongro	-14009
▁versés	-14010
▁apprécié	-14011
▁Exposé	-14012
▁féminin	-14013
anisation	-14014
▁russes	-14015
▁convenable	-14016
▁mépris	-14017
55	-14018
▁Caucase	-14019
▁déboucher	-14020
▁affecter	-14021
▁attribué	-14022
▁interactif	-14023
1;	-14024
▁quinqu	-14025
▁refléter	-14026
imparti	-14027
▁provincial	-14028
▁rapportent	-14029
▁inconn	-14030
▁éducatives	-14031
▁Quarante	-14032
▁partagent	-14033
▁refuse	-14034
▁Bla	-14035
▁tax	-14036
▁dites	-14037
▁quart	-14038
▁classé	-14039
notamment	-14040
▁délinquance	-14041
▁Amend	-14042
▁voyager	-14043
▁jugements	-14044
▁Rien	-14045
▁ambassade	-14046
▁vign	-14047
▁enne	-14048
▁confiées	-14049
laud	-14050
-13	-14051
▁slova	-14052
visions	-14053
hom	-14054
odé	-14055
giquement	-14056
illera	-14057
▁ouverture	-14058
▁fur	-14059
azz	-14060
FS	-14061
otent	-14062
▁réno	-14063
▁caractéristique	-14064
▁excédent	-14065
▁fragment	-14066
▁témoignage	-14067
▁privatisation	-14068
gma	-14069
ology	-14070
onnant	-14071
▁culte	-14072
▁dépassé	-14073
Min	-14074
▁Aide	-14075
▁1995.	-14076
▁boutiques	-14077
▁dangereuse	-14078
▁Court	-14079
▁instruction	-14080
▁IP	-14081
▁USA	-14082
▁roms	-14083
valle	-14084
▁Enfants	-14085
▁beaux	-14086
▁proro	-14087
▁q	-14088
actuel	-14089
▁tué	-14090
▁pire	-14091
▁transféré	-14092
arios	-14093
▁payé	-14094
wealth	-14095
etage	-14096
oriser	-14097
ardo	-14098
▁coupe	-14099
énération	-14100
-17	-14101
▁combiné	-14102
▁manières	-14103
▁disparues	-14104
▁répéter	-14105
▁varient	-14106
▁Ger	-14107
▁industrialisés	-14108
▁Pierre	-14109
▁chauss	-14110
▁désignée	-14111
azote	-14112
▁Brunéi	-14113
▁producteur	-14114
▁distinctes	-14115
restations	-14116
Ottawa	-14117
▁passent	-14118
▁Articles	-14119
▁chaud	-14120
mir	-14121
sbourg	-14122
observer	-14123
ket	-14124
École	-14125
vations	-14126
▁spectacle	-14127
▁cités	-14128
unece	-14129
▁délic	-14130
▁chanti	-14131
▁merveille	-14132
▁corro	-14133
▁Michel	-14134
▁exclus	-14135
▁notables	-14136
▁Remplacer	-14137
▁fondations	-14138
▁brû	-14139
▁classés	-14140
RA	-14141
Tous	-14142
▁sachant	-14143
télé	-14144
▁album	-14145
▁randon	-14146
▁soulign	-14147
()	-14148
▁émin	-14149
▁1980	-14150
16	-14151
▁admissibles	-14152
▁victoire	-14153
ITE	-14154
▁Tant	-14155
assinat	-14156
▁prescrites	-14157
▁Da	-14158
▁Champ	-14159
▁gratuits	-14160
▁forestier	-14161
▁rechange	-14162
taux	-14163
rimant	-14164
▁Grenade	-14165
▁réjouit	-14166
▁précieuse	-14167
/24,	-14168
▁Vict	-14169
▁[...]	-14170
▁reconstru	-14171
▁devises	-14172
▁erron	-14173
▁scand	-14174
▁empêché	-14175
▁FINUL	-14176
tégorie	-14177
▁doutes	-14178
▁dessus	-14179
Fi	-14180
ABLE	-14181
▁sûrs	-14182
▁125	-14183
▁réduits	-14184
▁irlandais	-14185
▁susmentionné	-14186
incer	-14187
▁château	-14188
/1,	-14189
▁Super	-14190
Hotel	-14191
épuis	-14192
▁excessif	-14193
▁entretien	-14194
▁condamner	-14195
▁Toujours	-14196
▁partagée	-14197
▁CCI	-14198
▁collectivement	-14199
▁serveurs	-14200
imag	-14201
illée	-14202
▁affron	-14203
▁émet	-14204
▁Conta	-14205
▁2003-200	-14206
icain	-14207
▁sembler	-14208
▁résidant	-14209
▁concurrents	-14210
▁régul	-14211
▁Feuille	-14212
▁forment	-14213
▁Lang	-14214
territ	-14215
▁réchauff	-14216
▁unani	-14217
aba	-14218
▁reposent	-14219
▁apportant	-14220
▁étudie	-14221
▁concilier	-14222
▁acceptables	-14223
Chine	-14224
/33	-14225
▁matérielles	-14226
87	-14227
aro	-14228
▁réglé	-14229
▁axes	-14230
associe	-14231
▁moratoire	-14232
▁conviennent	-14233
▁rentabilité	-14234
▁ais	-14235
▁professions	-14236
▁parquet	-14237
▁portail	-14238
▁décisive	-14239
onale	-14240
▁Alex	-14241
▁Art	-14242
▁crédible	-14243
▁reconnaissons	-14244
▁ec	-14245
▁chans	-14246
▁transporteurs	-14247
.5,	-14248
▁fus	-14249
▁magaz	-14250
alphabétisme	-14251
▁rivière	-14252
▁modifiant	-14253
▁tire	-14254
▁corré	-14255
▁fiscaux	-14256
▁prenons	-14257
▁généralisée	-14258
▁magistrature	-14259
vice	-14260
diens	-14261
▁soutenus	-14262
fères	-14263
▁(197	-14264
▁parfaite	-14265
▁défende	-14266
▁stricte	-14267
intensité	-14268
anium	-14269
▁pair	-14270
▁philosophie	-14271
INS	-14272
▁prétend	-14273
▁Council	-14274
▁Résultats	-14275
ressant	-14276
▁notions	-14277
▁desc	-14278
▁démontre	-14279
/5/	-14280
▁honn	-14281
▁intermin	-14282
presid	-14283
▁Aperçu	-14284
▁suspec	-14285
▁assemb	-14286
▁adresses	-14287
▁dessous	-14288
▁froide	-14289
lot	-14290
▁rav	-14291
▁trouvait	-14292
▁27,	-14293
▁Jose	-14294
partie	-14295
▁rejetée	-14296
▁expansion	-14297
cio	-14298
▁scénario	-14299
▁transférés	-14300
▁cercle	-14301
adhé	-14302
évalu	-14303
▁Méth	-14304
▁dessin	-14305
▁céréales	-14306
▁violents	-14307
▁coutumes	-14308
▁rupture	-14309
tionnalité	-14310
▁dicta	-14311
▁déséquili	-14312
▁rationalisation	-14313
▁affectant	-14314
▁Bern	-14315
intervenant	-14316
▁tru	-14317
▁Accès	-14318
▁étroits	-14319
▁brève	-14320
▁alloué	-14321
▁mutilations	-14322
▁carburants	-14323
▁interprètes	-14324
▁endet	-14325
▁déroule	-14326
EA	-14327
▁soulève	-14328
▁féc	-14329
▁jugées	-14330
▁représentatif	-14331
▁Fra	-14332
▁Accords	-14333
▁Commonwealth	-14334
▁Land	-14335
intégralité	-14336
▁fonctionnalités	-14337
▁fixes	-14338
▁staff	-14339
▁Report	-14340
▁diamètre	-14341
▁Ville	-14342
▁facultatifs	-14343
▁contradiction	-14344
▁revitalisation	-14345
▁tsun	-14346
▁degrés	-14347
bra	-14348
▁présu	-14349
▁prouvé	-14350
▁œuvrer	-14351
▁PL	-14352
▁lourdes	-14353
▁posséder	-14354
xy	-14355
▁vecteurs	-14356
▁aveug	-14357
▁racistes	-14358
▁Constatant	-14359
56	-14360
▁élarg	-14361
▁élargissement	-14362
.5.1	-14363
▁toit	-14364
[...]
