<unk>	0
<s>	0
</s>	0
▁t	-0
▁a	-1
he	-2
on	-3
in	-4
▁the	-5
re	-6
ti	-7
▁o	-8
en	-9
er	-10
▁of	-11
or	-12
nd	-13
es	-14
tion	-15
▁c	-16
▁s	-17
al	-18
▁p	-19
it	-20
ed	-21
▁in	-22
is	-23
at	-24
▁w	-25
▁and	-26
an	-27
▁f	-28
▁to	-29
ar	-30
ing	-31
ro	-32
▁b	-33
ation	-34
ent	-35
▁re	-36
▁d	-37
ic	-38
▁m	-39
ou	-40
ec	-41
le	-42
om	-43
▁th	-44
as	-45
ve	-46
▁C	-47
ment	-48
il	-49
▁h	-50
▁T	-51
▁S	-52
▁n	-53
▁e	-54
ce	-55
▁A	-56
▁for	-57
ra	-58
st	-59
si	-60
▁on	-61
▁be	-62
▁I	-63
▁pro	-64
ri	-65
ol	-66
▁con	-67
ly	-68
ur	-69
▁that	-70
lo	-71
ter	-72
▁is	-73
se	-74
ts	-75
▁The	-76
▁P	-77
im	-78
▁(	-79
te	-80
ul	-81
▁g	-82
▁M	-83
▁as	-84
ith	-85
▁l	-86
ver	-87
▁de	-88
ir	-89
ate	-90
▁with	-91
omm	-92
▁u	-93
▁2	-94
id	-95
et	-96
▁it	-97
ac	-98
gh	-99
ad	-100
ity	-101
por	-102
ations	-103
▁su	-104
res	-105
▁1	-106
ot	-107
▁al	-108
00	-109
▁by	-110
ab	-111
▁R	-112
ld	-113
▁E	-114
▁or	-115
▁N	-116
▁st	-117
ut	-118
▁ac	-119
tic	-120
▁U	-121
oun	-122
ers	-123
ff	-124
qu	-125
sion	-126
em	-127
▁an	-128
▁ex	-129
um	-130
her	-131
port	-132
▁G	-133
▁wh	-134
▁we	-135
▁are	-136
▁D	-137
ain	-138
ge	-139
end	-140
ion	-141
ial	-142
▁par	-143
ay	-144
▁F	-145
ess	-146
▁res	-147
op	-148
ren	-149
uc	-150
oc	-151
ational	-152
am	-153
▁v	-154
▁at	-155
▁In	-156
our	-157
ist	-158
ud	-159
un	-160
ill	-161
tive	-162
▁W	-163
▁im	-164
ect	-165
▁200	-166
pp	-167
▁en	-168
th	-169
▁B	-170
us	-171
ould	-172
ak	-173
▁ad	-174
▁y	-175
ties	-176
▁O	-177
od	-178
est	-179
and	-180
▁H	-181
▁Comm	-182
ary	-183
ch	-184
ure	-185
▁St	-186
▁sh	-187
ew	-188
ig	-189
iz	-190
rom	-191
ance	-192
▁Un	-193
▁not	-194
ore	-195
tern	-196
el	-197
▁com	-198
ther	-199
ber	-200
▁its	-201
ork	-202
▁from	-203
▁ha	-204
ow	-205
ated	-206
ution	-207
for	-208
ited	-209
ount	-210
ich	-211
▁inc	-212
▁le	-213
os	-214
if	-215
▁cont	-216
ven	-217
▁this	-218
▁was	-219
rou	-220
▁ch	-221
lop	-222
velop	-223
ant	-224
▁which	-225
gra	-226
ard	-227
▁me	-228
ments	-229
▁ag	-230
▁have	-231
lic	-232
ies	-233
ia	-234
▁he	-235
▁L	-236
all	-237
over	-238
ip	-239
ates	-240
ust	-241
ep	-242
▁Con	-243
▁reg	-244
red	-245
form	-246
▁imp	-247
igh	-248
eral	-249
▁app	-250
sid	-251
▁will	-252
able	-253
▁United	-254
▁has	-255
▁comp	-256
ternational	-257
pec	-258
ap	-259
▁prov	-260
ities	-261
ission	-262
▁develop	-263
▁their	-264
ans	-265
ted	-266
▁dis	-267
ub	-268
▁comm	-269
▁all	-270
so	-271
iv	-272
▁rec	-273
▁count	-274
ll	-275
ord	-276
per	-277
▁ne	-278
▁acc	-279
eneral	-280
ous	-281
tee	-282
pe	-283
▁Nations	-284
▁per	-285
nder	-286
tions	-287
ild	-288
▁ri	-289
age	-290
ittee	-291
▁also	-292
lud	-293
low	-294
min	-295
▁J	-296
ty	-297
duc	-298
▁co	-299
ble	-300
▁work	-301
overn	-302
ces	-303
▁righ	-304
tiv	-305
▁pre	-306
ace	-307
ress	-308
ice	-309
▁Sec	-310
▁other	-311
ence	-312
▁r	-313
ision	-314
▁pl	-315
▁ar	-316
mm	-317
ue	-318
▁Committee	-319
▁been	-320
erv	-321
uman	-322
▁under	-323
ry	-324
gan	-325
▁se	-326
▁States	-327
▁eff	-328
ome	-329
▁sub	-330
lement	-331
▁3	-332
▁pol	-333
▁19	-334
ries	-335
ult	-336
ie	-337
▁As	-338
cil	-339
ke	-340
ear	-341
▁includ	-342
pport	-343
▁un	-344
▁should	-345
resent	-346
▁report	-347
▁Th	-348
▁j	-349
ire	-350
▁international	-351
ree	-352
ign	-353
▁pe	-354
▁Coun	-355
olution	-356
▁provid	-357
▁sec	-358
▁int	-359
ari	-360
og	-361
▁ab	-362
hen	-363
▁tra	-364
▁inform	-365
ms	-366
▁ind	-367
gramm	-368
tit	-369
▁Council	-370
▁requ	-371
▁Ch	-372
ag	-373
▁partic	-374
ublic	-375
eren	-376
ret	-377
ct	-378
ric	-379
▁would	-380
▁exp	-381
uro	-382
▁dec	-383
ast	-384
▁ass	-385
▁Pro	-386
ish	-387
ganiz	-388
pon	-389
▁conc	-390
▁man	-391
ase	-392
ake	-393
ical	-394
ine	-395
ong	-396
▁had	-397
aw	-398
ession	-399
ost	-400
ual	-401
ose	-402
▁can	-403
eration	-404
ph	-405
reat	-406
▁Euro	-407
▁were	-408
▁you	-409
ative	-410
▁tr	-411
▁rel	-412
ech	-413
anc	-414
overnment	-415
di	-416
▁countries	-417
▁Commission	-418
out	-419
ures	-420
▁“	-421
▁It	-422
ote	-423
▁lo	-424
▁off	-425
ail	-426
▁out	-427
onom	-428
▁cons	-429
iew	-430
▁Europe	-431
▁am	-432
▁fin	-433
▁proc	-434
roup	-435
▁ob	-436
▁rights	-437
ors	-438
urity	-439
▁development	-440
vention	-441
eting	-442
▁Re	-443
rib	-444
pecial	-445
▁human	-446
▁Par	-447
),	-448
yst	-449
▁qu	-450
ember	-451
ular	-452
▁inv	-453
▁there	-454
ility	-455
▁implement	-456
▁resolution	-457
▁us	-458
ystem	-459
▁such	-460
▁child	-461
ern	-462
▁support	-463
mb	-464
▁K	-465
erson	-466
▁need	-467
▁-	-468
▁UN	-469
▁information	-470
).	-471
▁more	-472
ating	-473
▁5	-474
▁Mr	-475
act	-476
omen	-477
abl	-478
ach	-479
▁rep	-480
ru	-481
enc	-482
tical	-483
200	-484
und	-485
su	-486
▁4	-487
iti	-488
ection	-489
ade	-490
enti	-491
▁bet	-492
▁appro	-493
▁programm	-494
feren	-495
ory	-496
we	-497
rough	-498
▁year	-499
▁ro	-500
vel	-501
▁system	-502
ft	-503
▁V	-504
are	-505
rac	-506
▁po	-507
▁session	-508
▁our	-509
▁new	-510
▁national	-511
ex	-512
very	-513
hed	-514
▁any	-515
▁organiz	-516
▁We	-517
▁so	-518
▁consid	-519
pos	-520
onomic	-521
▁serv	-522
▁trans	-523
▁ter	-524
▁meeting	-525
▁one	-526
ood	-527
ten	-528
▁do	-529
▁Pre	-530
▁em	-531
▁Secret	-532
les	-533
au	-534
▁including	-535
▁tim	-536
▁soc	-537
▁cent	-538
▁li	-539
▁who	-540
li	-541
▁leg	-542
stit	-543
▁person	-544
▁State	-545
graph	-546
▁199	-547
▁disc	-548
▁but	-549
▁region	-550
▁law	-551
▁again	-552
▁k	-553
ollow	-554
▁European	-555
ices	-556
ference	-557
▁pri	-558
▁concern	-559
▁they	-560
▁This	-561
tain	-562
ight	-563
▁into	-564
ack	-565
ific	-566
semb	-567
▁contin	-568
▁di	-569
▁commun	-570
▁made	-571
▁est	-572
ased	-573
uring	-574
▁str	-575
▁General	-576
▁ec	-577
.1	-578
▁no	-579
▁whe	-580
ween	-581
▁sit	-582
▁sa	-583
air	-584
ame	-585
ide	-586
▁over	-587
ang	-588
sembly	-589
▁import	-590
▁activ	-591
orld	-592
▁through	-593
echn	-594
▁respon	-595
cc	-596
▁Convention	-597
▁part	-598
▁De	-599
▁Rep	-600
ian	-601
▁between	-602
▁dra	-603
▁than	-604
▁Af	-605
one	-606
▁ra	-607
▁women	-608
▁Assembly	-609
art	-610
der	-611
ural	-612
▁well	-613
▁them	-614
▁may	-615
fore	-616
▁inter	-617
mit	-618
▁inte	-619
▁establ	-620
▁particular	-621
▁meas	-622
ile	-623
▁follow	-624
dition	-625
▁aut	-626
▁must	-627
▁these	-628
▁polic	-629
▁peop	-630
get	-631
▁those	-632
sident	-633
ove	-634
▁up	-635
ticle	-636
▁prot	-637
ected	-638
ond	-639
▁6	-640
▁time	-641
irst	-642
▁para	-643
▁ref	-644
bers	-645
▁children	-646
als	-647
▁adop	-648
▁Dec	-649
ommend	-650
▁cl	-651
▁use	-652
ffic	-653
▁For	-654
▁des	-655
ens	-656
▁against	-657
ok	-658
man	-659
sible	-660
▁tw	-661
ved	-662
hor	-663
stitution	-664
tives	-665
ange	-666
▁International	-667
ective	-668
rimin	-669
▁add	-670
ful	-671
▁el	-672
rit	-673
▁implementation	-674
▁Government	-675
General	-676
int	-677
▁your	-678
ally	-679
▁only	-680
▁process	-681
▁ens	-682
▁Secretary	-683
▁his	-684
▁tak	-685
ort	-686
▁pr	-687
ards	-688
de	-689
ass	-690
leg	-691
av	-692
ise	-693
alth	-694
inc	-695
▁num	-696
▁activities	-697
▁shall	-698
▁rev	-699
ters	-700
▁incre	-701
▁produc	-702
operation	-703
▁issu	-704
▁public	-705
me	-706
▁recommend	-707
hip	-708
▁level	-709
▁Ad	-710
▁country	-711
▁propos	-712
embers	-713
▁represent	-714
iol	-715
▁mar	-716
ateg	-717
▁sp	-718
ration	-719
ater	-720
▁techn	-721
ied	-722
▁An	-723
▁President	-724
▁prom	-725
▁conf	-726
▁rem	-727
onment	-728
▁min	-729
ocu	-730
ism	-731
ious	-732
urther	-733
ks	-734
▁ful	-735
▁people	-736
ources	-737
▁Y	-738
▁some	-739
vent	-740
ings	-741
▁op	-742
▁assist	-743
rent	-744
▁sc	-745
vir	-746
uation	-747
▁cap	-748
▁decision	-749
lear	-750
▁financ	-751
▁provision	-752
▁bec	-753
ality	-754
amp	-755
▁about	-756
ject	-757
▁regard	-758
▁measures	-759
▁group	-760
▁form	-761
land	-762
▁order	-763
ruc	-764
▁author	-765
ency	-766
▁gu	-767
ite	-768
▁pos	-769
▁if	-770
▁peace	-771
vironment	-772
go	-773
cep	-774
ene	-775
ive	-776
▁paragraph	-777
arm	-778
▁equ	-779
olog	-780
ever	-781
▁ed	-782
▁oper	-783
▁particip	-784
▁draft	-785
▁Ex	-786
▁av	-787
▁present	-788
▁set	-789
sive	-790
fic	-791
▁mon	-792
ving	-793
▁Afric	-794
▁Develop	-795
▁two	-796
ges	-797
▁right	-798
▁number	-799
ized	-800
▁main	-801
▁security	-802
▁take	-803
aff	-804
▁Republic	-805
iod	-806
▁7	-807
▁Security	-808
ety	-809
▁fund	-810
orts	-811
▁Ar	-812
ights	-813
led	-814
▁He	-815
▁pur	-816
ilit	-817
▁docu	-818
▁Conference	-819
▁cooperation	-820
▁exper	-821
ished	-822
▁provide	-823
▁social	-824
▁first	-825
..	-826
▁years	-827
plo	-828
now	-829
ute	-830
.2	-831
▁programme	-832
▁col	-833
▁loc	-834
▁accord	-835
▁fac	-836
▁Group	-837
▁rele	-838
ulation	-839
▁inst	-840
▁viol	-841
▁members	-842
▁economic	-843
▁On	-844
▁within	-845
▁non	-846
tice	-847
▁Min	-848
▁ensure	-849
▁address	-850
▁services	-851
itical	-852
agement	-853
up	-854
▁where	-855
/1	-856
▁view	-857
ports	-858
▁10	-859
ound	-860
▁organizations	-861
ons	-862
ays	-863
▁educ	-864
▁dem	-865
▁efforts	-866
wn	-867
▁end	-868
▁special	-869
▁bas	-870
ting	-871
ib	-872
ining	-873
vant	-874
▁like	-875
ploy	-876
▁could	-877
ction	-878
oth	-879
▁period	-880
▁Is	-881
erg	-882
▁cur	-883
▁Can	-884
▁9	-885
pect	-886
▁ann	-887
ince	-888
▁when	-889
▁contrib	-890
bal	-891
ability	-892
ered	-893
▁important	-894
arch	-895
enda	-896
ning	-897
▁spec	-898
▁En	-899
mber	-900
▁Development	-901
king	-902
▁most	-903
▁Ag	-904
▁issues	-905
▁sign	-906
▁ext	-907
vers	-908
ati	-909
▁further	-910
old	-911
ants	-912
▁Rights	-913
▁health	-914
ects	-915
▁resources	-916
▁state	-917
▁being	-918
▁Member	-919
rest	-920
▁commit	-921
ination	-922
▁impro	-923
sel	-924
▁financial	-925
com	-926
ization	-927
ix	-928
▁policy	-929
/200	-930
round	-931
▁Al	-932
▁article	-933
▁make	-934
irect	-935
sib	-936
▁high	-937
▁very	-938
▁institution	-939
▁car	-940
ily	-941
owever	-942
uild	-943
ines	-944
lu	-945
its	-946
▁Or	-947
pri	-948
ivil	-949
▁8	-950
ause	-951
▁At	-952
ases	-953
▁agree	-954
▁world	-955
▁review	-956
atives	-957
▁Canad	-958
▁def	-959
reed	-960
▁ma	-961
▁"	-962
ents	-963
ral	-964
▁prac	-965
lobal	-966
hie	-967
▁addition	-968
▁regional	-969
ium	-970
▁Union	-971
ob	-972
▁Human	-973
▁provided	-974
▁during	-975
▁plan	-976
▁assistance	-977
pr	-978
▁achie	-979
▁environment	-980
▁request	-981
▁cour	-982
med	-983
incip	-984
▁ques	-985
▁following	-986
sition	-987
▁avail	-988
ys	-989
▁areas	-990
val	-991
▁prep	-992
▁political	-993
reng	-994
▁20	-995
rol	-996
▁adopted	-997
▁initi	-998
▁effective	-999
▁many	-1000
xt	-1001
ough	-1002
ind	-1003
ecess	-1004
▁access	-1005
▁No	-1006
▁mat	-1007
▁Am	-1008
gin	-1009
▁situation	-1010
lar	-1011
▁establish	-1012
minist	-1013
tim	-1014
▁Co	-1015
▁protection	-1016
▁dat	-1017
▁require	-1018
▁discus	-1019
day	-1020
▁mod	-1021
/5	-1022
stan	-1023
▁ent	-1024
▁es	-1025
▁Le	-1026
▁contain	-1027
▁both	-1028
udget	-1029
▁stand	-1030
▁taken	-1031
▁Work	-1032
▁strateg	-1033
ariat	-1034
▁att	-1035
▁education	-1036
▁party	-1037
ilities	-1038
▁account	-1039
ss	-1040
ug	-1041
ector	-1042
til	-1043
.3	-1044
▁current	-1045
row	-1046
▁proble	-1047
ffice	-1048
▁Ind	-1049
▁rece	-1050
▁fact	-1051
▁same	-1052
then	-1053
ror	-1054
▁know	-1055
ages	-1056
▁diff	-1057
▁item	-1058
▁respect	-1059
rengthen	-1060
▁legal	-1061
▁applic	-1062
▁necess	-1063
▁held	-1064
eth	-1065
▁programmes	-1066
illion	-1067
▁possible	-1068
▁2006	-1069
▁2005	-1070
▁call	-1071
▁relevant	-1072
▁go	-1073
aking	-1074
▁action	-1075
ov	-1076
▁proced	-1077
▁developing	-1078
▁fam	-1079
▁submit	-1080
gress	-1081
▁continu	-1082
▁aff	-1083
▁2004	-1084
enn	-1085
▁ser	-1086
▁good	-1087
▁great	-1088
▁af	-1089
pl	-1090
▁general	-1091
CE	-1092
ared	-1093
▁princip	-1094
▁Ec	-1095
▁available	-1096
icial	-1097
▁capac	-1098
/2	-1099
oura	-1100
▁Special	-1101
▁fra	-1102
arge	-1103
▁12	-1104
▁community	-1105
otel	-1106
▁adv	-1107
ired	-1108
▁cor	-1109
gramme	-1110
▁dist	-1111
ners	-1112
▁Office	-1113
▁deleg	-1114
▁Soc	-1115
▁15	-1116
▁vari	-1117
▁management	-1118
isl	-1119
▁see	-1120
oint	-1121
▁Reg	-1122
sue	-1123
▁cre	-1124
▁December	-1125
▁before	-1126
▁case	-1127
▁now	-1128
▁document	-1129
ris	-1130
▁differen	-1131
▁my	-1132
identi	-1133
▁lead	-1134
itor	-1135
▁place	-1136
▁comple	-1137
▁interest	-1138
ined	-1139
lia	-1140
▁There	-1141
▁civil	-1142
lp	-1143
ament	-1144
▁what	-1145
▁used	-1146
▁strengthen	-1147
▁persons	-1148
▁val	-1149
▁invol	-1150
▁$	-1151
▁accordance	-1152
▁continue	-1153
▁staff	-1154
▁without	-1155
▁among	-1156
▁agenda	-1157
ina	-1158
▁after	-1159
▁Organiz	-1160
ner	-1161
▁help	-1162
▁prior	-1163
▁Prot	-1164
▁2002	-1165
ultural	-1166
▁aw	-1167
▁parties	-1168
▁cri	-1169
▁data	-1170
▁mark	-1171
▁2000	-1172
▁appropri	-1173
iness	-1174
▁indic	-1175
▁area	-1176
ogn	-1177
ework	-1178
▁coll	-1179
▁consider	-1180
▁necessary	-1181
ird	-1182
▁med	-1183
uch	-1184
jor	-1185
▁rest	-1186
▁long	-1187
mework	-1188
▁clo	-1189
liament	-1190
urn	-1191
une	-1192
▁cost	-1193
▁remain	-1194
iation	-1195
ield	-1196
ential	-1197
▁To	-1198
ended	-1199
▁role	-1200
▁2003	-1201
ised	-1202
▁ph	-1203
▁inf	-1204
▁te	-1205
unity	-1206
▁bod	-1207
own	-1208
ivid	-1209
▁global	-1210
▁integ	-1211
▁own	-1212
▁bel	-1213
hes	-1214
▁fore	-1215
tention	-1216
uilding	-1217
▁training	-1218
▁ke	-1219
▁each	-1220
▁legisl	-1221
ize	-1222
▁obj	-1223
▁[	-1224
▁ste	-1225
ption	-1226
▁2007	-1227
ister	-1228
▁since	-1229
▁Bo	-1230
▁2001	-1231
▁stud	-1232
▁consult	-1233
▁deb	-1234
▁enc	-1235
sibility	-1236
▁working	-1237
ient	-1238
▁World	-1239
▁because	-1240
▁budget	-1241
ition	-1242
erc	-1243
ool	-1244
read	-1245
▁major	-1246
/6	-1247
▁Programme	-1248
ont	-1249
▁established	-1250
▁identi	-1251
▁full	-1252
mp	-1253
▁way	-1254
▁Cent	-1255
▁Social	-1256
roduc	-1257
▁11	-1258
▁capacity	-1259
▁basis	-1260
▁issue	-1261
▁(1	-1262
ender	-1263
▁cer	-1264
riminal	-1265
▁occ	-1266
▁Rec	-1267
oms	-1268
▁employ	-1269
▁Pe	-1270
▁Wh	-1271
ules	-1272
▁three	-1273
erman	-1274
▁pop	-1275
▁progress	-1276
▁assess	-1277
▁Canada	-1278
▁Working	-1279
▁conflic	-1280
▁provisions	-1281
▁Pol	-1282
▁appropriate	-1283
▁2008	-1284
▁ins	-1285
stain	-1286
▁allow	-1287
ditions	-1288
▁ur	-1289
arian	-1290
▁wel	-1291
▁Economic	-1292
▁sm	-1293
▁said	-1294
▁coord	-1295
uly	-1296
usiness	-1297
▁institutions	-1298
▁Res	-1299
cept	-1300
▁reports	-1301
.4	-1302
ank	-1303
▁Africa	-1304
eric	-1305
▁act	-1306
ink	-1307
▁sur	-1308
ology	-1309
▁Pal	-1310
▁every	-1311
iven	-1312
▁million	-1313
▁express	-1314
lig	-1315
chool	-1316
ues	-1317
outh	-1318
▁sel	-1319
uture	-1320
▁sti	-1321
ustice	-1322
▁exist	-1323
▁treat	-1324
ividual	-1325
▁If	-1326
▁13	-1327
ax	-1328
▁June	-1329
▁technical	-1330
▁clear	-1331
▁soci	-1332
▁needs	-1333
ID	-1334
ivers	-1335
▁fe	-1336
▁men	-1337
▁question	-1338
▁specific	-1339
airs	-1340
▁Organization	-1341
▁related	-1342
▁sustain	-1343
ves	-1344
▁local	-1345
-1	-1346
ital	-1347
000	-1348
▁groups	-1349
▁list	-1350
overnmental	-1351
▁recommendations	-1352
rimination	-1353
sions	-1354
ocol	-1355
aren	-1356
▁beh	-1357
▁nat	-1358
▁second	-1359
▁based	-1360
▁Dep	-1361
▁priv	-1362
▁include	-1363
▁National	-1364
other	-1365
▁trade	-1366
▁bene	-1367
ests	-1368
▁sector	-1369
▁cases	-1370
▁saf	-1371
▁New	-1372
stand	-1373
▁future	-1374
▁Parties	-1375
▁individual	-1376
ture	-1377
▁vis	-1378
▁improve	-1379
▁recogn	-1380
▁18	-1381
uclear	-1382
▁result	-1383
▁spe	-1384
fication	-1385
▁framework	-1386
▁means	-1387
▁does	-1388
ath	-1389
▁Cour	-1390
▁Gu	-1391
▁partners	-1392
▁lim	-1393
echan	-1394
▁Fin	-1395
▁her	-1396
ower	-1397
▁Parliament	-1398
ience	-1399
alf	-1400
▁jud	-1401
aim	-1402
▁foc	-1403
ceed	-1404
ently	-1405
▁opport	-1406
▁oblig	-1407
▁control	-1408
▁design	-1409
▁14	-1410
▁Act	-1411
▁terror	-1412
ule	-1413
sh	-1414
ife	-1415
▁However	-1416
▁post	-1417
come	-1418
ences	-1419
▁communic	-1420
fied	-1421
▁even	-1422
▁dep	-1423
atory	-1424
▁concerned	-1425
▁therefore	-1426
ately	-1427
▁particularly	-1428
▁mand	-1429
▁field	-1430
▁reduc	-1431
ged	-1432
▁examp	-1433
irc	-1434
▁conditions	-1435
▁EU	-1436
▁aim	-1437
▁care	-1438
ced	-1439
encies	-1440
allen	-1441
▁comb	-1442
▁fun	-1443
▁while	-1444
▁policies	-1445
▁belie	-1446
ness	-1447
artment	-1448
▁Pl	-1449
ring	-1450
isc	-1451
▁consideration	-1452
fy	-1453
▁Tra	-1454
▁increase	-1455
omes	-1456
ale	-1457
▁given	-1458
);	-1459
itarian	-1460
▁different	-1461
▁direct	-1462
▁sim	-1463
▁violence	-1464
▁supp	-1465
▁grow	-1466
▁Court	-1467
▁contribution	-1468
▁Americ	-1469
▁how	-1470
▁conte	-1471
less	-1472
rael	-1473
ived	-1474
.5	-1475
▁encoura	-1476
▁mechan	-1477
▁required	-1478
▁July	-1479
▁bo	-1480
▁Tr	-1481
▁various	-1482
▁administ	-1483
ternal	-1484
▁ris	-1485
termin	-1486
ults	-1487
▁Serv	-1488
▁real	-1489
▁Com	-1490
ross	-1491
ban	-1492
iving	-1493
jects	-1494
▁All	-1495
▁mul	-1496
ell	-1497
▁Man	-1498
rab	-1499
rug	-1500
▁considered	-1501
epend	-1502
atus	-1503
ope	-1504
▁Palest	-1505
tics	-1506
▁conduc	-1507
▁requirements	-1508
▁30	-1509
▁Israel	-1510
▁service	-1511
▁open	-1512
...	-1513
overty	-1514
▁market	-1515
▁May	-1516
▁school	-1517
governmental	-1518
▁pay	-1519
wards	-1520
▁focus	-1521
issions	-1522
▁Sep	-1523
▁whether	-1524
9,	-1525
▁proposed	-1526
▁monitor	-1527
du	-1528
ergy	-1529
▁ear	-1530
▁African	-1531
▁la	-1532
▁official	-1533
ators	-1534
teur	-1535
▁With	-1536
▁society	-1537
▁importance	-1538
▁Ro	-1539
▁find	-1540
▁project	-1541
overnments	-1542
tember	-1543
ator	-1544
▁authorities	-1545
ouse	-1546
▁Q	-1547
▁proper	-1548
▁submitted	-1549
▁meetings	-1550
▁upon	-1551
ah	-1552
▁obs	-1553
▁benef	-1554
porteur	-1555
▁Fund	-1556
▁business	-1557
▁last	-1558
ists	-1559
laration	-1560
▁achieve	-1561
▁September	-1562
▁reas	-1563
▁small	-1564
sequ	-1565
▁Chair	-1566
oting	-1567
itiz	-1568
▁challen	-1569
▁16	-1570
tal	-1571
▁Board	-1572
ccess	-1573
▁nor	-1574
▁still	-1575
ract	-1576
az	-1577
ulations	-1578
▁(200	-1579
▁gender	-1580
▁note	-1581
▁Se	-1582
▁deli	-1583
▁claim	-1584
loc	-1585
▁guid	-1586
uge	-1587
▁above	-1588
▁free	-1589
▁conflict	-1590
vis	-1591
▁Sp	-1592
▁—	-1593
ovember	-1594
▁Article	-1595
rant	-1596
▁just	-1597
▁instru	-1598
▁det	-1599
▁prof	-1600
▁concerning	-1601
▁Law	-1602
tig	-1603
ecu	-1604
▁ret	-1605
sed	-1606
▁November	-1607
ateral	-1608
▁Ass	-1609
▁perform	-1610
▁example	-1611
▁developed	-1612
▁participation	-1613
▁promote	-1614
▁ty	-1615
work	-1616
▁Ann	-1617
▁Aff	-1618
▁tex	-1619
▁ve	-1620
▁certain	-1621
▁Protocol	-1622
rative	-1623
▁approach	-1624
istan	-1625
ennium	-1626
▁17	-1627
-2	-1628
ober	-1629
▁delegation	-1630
ocra	-1631
▁const	-1632
ilitary	-1633
▁Me	-1634
ctober	-1635
atis	-1636
ran	-1637
▁II	-1638
▁amend	-1639
▁signific	-1640
ering	-1641
▁Cont	-1642
▁subject	-1643
aterial	-1644
▁event	-1645
ruction	-1646
▁indust	-1647
,000	-1648
▁play	-1649
▁levels	-1650
▁poverty	-1651
goti	-1652
▁rules	-1653
otion	-1654
▁enh	-1655
▁life	-1656
vious	-1657
▁nuclear	-1658
▁October	-1659
▁agreement	-1660
▁change	-1661
ready	-1662
▁prevent	-1663
org	-1664
▁invest	-1665
▁tre	-1666
TA	-1667
▁land	-1668
pecially	-1669
▁water	-1670
▁legislation	-1671
olid	-1672
▁char	-1673
apons	-1674
▁six	-1675
99	-1676
▁reform	-1677
▁Z	-1678
ecutive	-1679
▁family	-1680
istry	-1681
▁Child	-1682
rated	-1683
▁force	-1684
▁private	-1685
▁March	-1686
ps	-1687
asing	-1688
sec	-1689
▁undert	-1690
nel	-1691
▁read	-1692
▁Nor	-1693
▁gen	-1694
▁already	-1695
▁transport	-1696
▁month	-1697
▁population	-1698
▁common	-1699
▁vic	-1700
rehen	-1701
-200	-1702
fer	-1703
▁towards	-1704
▁ver	-1705
▁hand	-1706
▁context	-1707
line	-1708
angu	-1709
▁systems	-1710
▁anal	-1711
ulture	-1712
▁attention	-1713
rec	-1714
atic	-1715
▁noted	-1716
▁substan	-1717
▁government	-1718
▁humanitarian	-1719
abor	-1720
see	-1721
ward	-1722
▁econom	-1723
▁rese	-1724
▁four	-1725
▁annex	-1726
▁Jan	-1727
ode	-1728
▁additional	-1729
▁Affairs	-1730
ource	-1731
▁These	-1732
▁terms	-1733
eping	-1734
ked	-1735
▁Arab	-1736
▁representatives	-1737
duce	-1738
▁large	-1739
▁member	-1740
▁secret	-1741
▁bro	-1742
ON	-1743
▁Su	-1744
▁results	-1745
▁problems	-1746
▁eng	-1747
ron	-1748
par	-1749
▁success	-1750
▁representative	-1751
pril	-1752
mar	-1753
sian	-1754
”.	-1755
▁projects	-1756
▁especially	-1757
utes	-1758
ES	-1759
ually	-1760
▁compan	-1761
▁found	-1762
▁hotel	-1763
▁They	-1764
be	-1765
▁then	-1766
ather	-1767
lain	-1768
▁impact	-1769
▁net	-1770
▁bodies	-1771
ocratic	-1772
▁negoti	-1773
▁vol	-1774
RA	-1775
▁agreed	-1776
rehensive	-1777
▁ori	-1778
▁material	-1779
▁determin	-1780
ethod	-1781
▁El	-1782
▁facilit	-1783
▁Report	-1784
▁April	-1785
equ	-1786
▁less	-1787
▁back	-1788
▁enti	-1789
▁Action	-1790
▁point	-1791
aced	-1792
▁proposal	-1793
reg	-1794
▁Secretariat	-1795
use	-1796
oy	-1797
▁significant	-1798
▁Commissioner	-1799
the	-1800
▁record	-1801
▁agencies	-1802
▁ev	-1803
▁Palestin	-1804
▁quality	-1805
sp	-1806
▁pres	-1807
▁deal	-1808
10	-1809
sia	-1810
▁prepar	-1811
▁Sub	-1812
itation	-1813
▁contained	-1814
▁sustainable	-1815
uary	-1816
▁Inform	-1817
▁requested	-1818
▁best	-1819
self	-1820
hic	-1821
▁gra	-1822
▁environmental	-1823
▁decid	-1824
standing	-1825
ried	-1826
▁Women	-1827
▁responsibility	-1828
rial	-1829
▁key	-1830
▁circ	-1831
▁war	-1832
▁sex	-1833
▁total	-1834
▁did	-1835
ories	-1836
▁Department	-1837
▁food	-1838
▁standards	-1839
▁Fed	-1840
▁citiz	-1841
IV	-1842
▁she	-1843
not	-1844
ned	-1845
▁provides	-1846
aran	-1847
▁constit	-1848
▁low	-1849
▁That	-1850
▁che	-1851
▁fully	-1852
▁status	-1853
pective	-1854
▁bi	-1855
▁statement	-1856
▁Minister	-1857
▁January	-1858
▁High	-1859
▁chang	-1860
▁received	-1861
side	-1862
pects	-1863
▁give	-1864
▁.	-1865
▁territ	-1866
DP	-1867
▁diffic	-1868
bs	-1869
▁method	-1870
▁close	-1871
pose	-1872
1,	-1873
▁struc	-1874
eb	-1875
idence	-1876
▁much	-1877
▁Sw	-1878
▁refer	-1879
▁resolutions	-1880
▁military	-1881
men	-1882
tices	-1883
▁application	-1884
ger	-1885
▁relating	-1886
▁behalf	-1887
▁posi	-1888
▁position	-1889
▁able	-1890
▁sever	-1891
abour	-1892
▁coun	-1893
▁Represent	-1894
▁products	-1895
▁relations	-1896
▁25	-1897
▁Fr	-1898
▁freed	-1899
▁introduc	-1900
▁secretariat	-1901
▁independ	-1902
▁discrimination	-1903
▁air	-1904
here	-1905
raq	-1906
aus	-1907
▁langu	-1908
que	-1909
omestic	-1910
▁refl	-1911
▁existing	-1912
▁taking	-1913
▁dire	-1914
ai	-1915
▁traffic	-1916
▁serious	-1917
ne	-1918
▁entit	-1919
▁third	-1920
▁,	-1921
▁next	-1922
▁text	-1923
▁assoc	-1924
▁cust	-1925
▁Declaration	-1926
▁criminal	-1927
▁included	-1928
ians	-1929
irm	-1930
▁monitoring	-1931
▁conn	-1932
▁wish	-1933
▁problem	-1934
▁Iraq	-1935
▁organization	-1936
▁show	-1937
▁energy	-1938
tle	-1939
▁Acc	-1940
phas	-1941
▁however	-1942
▁here	-1943
▁South	-1944
▁least	-1945
▁several	-1946
▁put	-1947
▁24	-1948
ogue	-1949
▁better	-1950
view	-1951
▁principles	-1952
ically	-1953
▁Governments	-1954
”,	-1955
▁operations	-1956
ending	-1957
tis	-1958
ising	-1959
▁Ministry	-1960
▁Treat	-1961
ier	-1962
▁research	-1963
▁let	-1964
▁increased	-1965
▁procedure	-1966
▁procedures	-1967
building	-1968
▁cannot	-1969
iter	-1970
ified	-1971
▁recent	-1972
▁costs	-1973
▁head	-1974
▁production	-1975
▁origin	-1976
▁amount	-1977
izing	-1978
▁Rus	-1979
▁inves	-1980
▁proceed	-1981
enous	-1982
/3	-1983
▁regarding	-1984
▁comprehensive	-1985
▁sent	-1986
▁documents	-1987
▁investig	-1988
▁cover	-1989
▁eval	-1990
co	-1991
▁establishment	-1992
▁vehic	-1993
▁addressed	-1994
▁strong	-1995
dd	-1996
▁maintain	-1997
uted	-1998
▁down	-1999
▁due	-2000
▁(2	-2001
▁previous	-2002
igenous	-2003
imum	-2004
▁police	-2005
▁regular	-2006
▁solution	-2007
armament	-2008
▁pursu	-2009
▁domestic	-2010
crib	-2011
▁today	-2012
▁Palestinian	-2013
▁Mon	-2014
7,	-2015
IDS	-2016
ding	-2017
▁expressed	-2018
af	-2019
▁decisions	-2020
▁Ms	-2021
▁Executive	-2022
▁justice	-2023
▁ess	-2024
ional	-2025
▁vote	-2026
gether	-2027
▁together	-2028
▁course	-2029
▁cred	-2030
▁want	-2031
▁age	-2032
▁ple	-2033
▁dial	-2034
▁weapons	-2035
keeping	-2036
▁citizens	-2037
▁Mission	-2038
▁detail	-2039
▁increasing	-2040
▁providing	-2041
cy	-2042
▁exc	-2043
▁entitled	-2044
▁technology	-2045
IS	-2046
▁mandate	-2047
to	-2048
▁day	-2049
ints	-2050
▁risk	-2051
▁22	-2052
▁another	-2053
▁Party	-2054
▁light	-2055
ours	-2056
▁continued	-2057
▁explo	-2058
▁Rap	-2059
▁guaran	-2060
▁test	-2061
ledge	-2062
8,	-2063
▁become	-2064
ave	-2065
▁look	-2066
io	-2067
▁growth	-2068
▁Dem	-2069
▁matter	-2070
▁govern	-2071
▁decided	-2072
ior	-2073
3,	-2074
5,	-2075
▁sug	-2076
▁summ	-2077
▁adoption	-2078
▁rule	-2079
▁cultural	-2080
▁practices	-2081
force	-2082
hib	-2083
▁Ter	-2084
▁strategy	-2085
ible	-2086
ison	-2087
isms	-2088
▁21	-2089
▁lack	-2090
UN	-2091
▁198	-2092
▁hig	-2093
▁Mar	-2094
▁Annex	-2095
though	-2096
▁compe	-2097
▁debate	-2098
ives	-2099
▁far	-2100
▁funds	-2101
▁responsible	-2102
tims	-2103
onst	-2104
▁threat	-2105
ling	-2106
▁power	-2107
▁him	-2108
ebru	-2109
▁effic	-2110
ebruary	-2111
ections	-2112
▁protect	-2113
▁return	-2114
▁Direct	-2115
▁terrorism	-2116
▁pot	-2117
▁coordination	-2118
▁ill	-2119
▁sen	-2120
▁bal	-2121
▁move	-2122
▁might	-2123
gest	-2124
ances	-2125
▁emerg	-2126
va	-2127
unities	-2128
▁0	-2129
▁elect	-2130
▁response	-2131
▁joint	-2132
▁Inter	-2133
▁Rapporteur	-2134
▁App	-2135
▁welcom	-2136
lusion	-2137
▁rati	-2138
hold	-2139
aged	-2140
lands	-2141
▁commitment	-2142
▁February	-2143
.6	-2144
▁HIV	-2145
acy	-2146
/4	-2147
▁obligations	-2148
CO	-2149
▁believe	-2150
▁dest	-2151
▁conclud	-2152
▁analys	-2153
▁pen	-2154
▁cris	-2155
▁active	-2156
▁pass	-2157
▁few	-2158
▁occup	-2159
▁network	-2160
▁Sum	-2161
▁involved	-2162
eal	-2163
AC	-2164
▁consultations	-2165
▁foreign	-2166
▁proposals	-2167
▁employment	-2168
arter	-2169
▁discussion	-2170
▁writ	-2171
▁Col	-2172
ugust	-2173
pt	-2174
▁emphas	-2175
▁et	-2176
ords	-2177
.,	-2178
▁Representative	-2179
▁name	-2180
▁section	-2181
▁Treaty	-2182
▁final	-2183
▁practice	-2184
▁fif	-2185
▁dev	-2186
range	-2187
ides	-2188
▁using	-2189
▁say	-2190
▁met	-2191
▁prepared	-2192
▁five	-2193
ectives	-2194
▁Sc	-2195
▁Trans	-2196
▁distrib	-2197
▁natural	-2198
▁America	-2199
▁assessment	-2200
▁hold	-2201
▁apply	-2202
▁UNI	-2203
raft	-2204
▁broad	-2205
▁matters	-2206
▁treatment	-2207
ulated	-2208
▁Agree	-2209
▁dialogue	-2210
▁refuge	-2211
ipment	-2212
ature	-2213
6,	-2214
▁August	-2215
▁actions	-2216
2,	-2217
▁past	-2218
▁bring	-2219
▁31	-2220
▁below	-2221
▁Peace	-2222
amb	-2223
elines	-2224
unic	-2225
ither	-2226
▁armed	-2227
ash	-2228
▁meet	-2229
Add	-2230
▁don	-2231
▁observ	-2232
▁victims	-2233
anel	-2234
▁Bel	-2235
▁ide	-2236
▁short	-2237
iting	-2238
oung	-2239
▁Mal	-2240
ef	-2241
):	-2242
▁relig	-2243
▁tas	-2244
▁experience	-2245
▁You	-2246
▁Tur	-2247
▁Service	-2248
▁called	-2249
▁opportunity	-2250
ick	-2251
▁site	-2252
way	-2253
▁date	-2254
▁Administ	-2255
mes	-2256
▁initiatives	-2257
amental	-2258
▁needed	-2259
mary	-2260
▁mechanisms	-2261
ermanent	-2262
▁Dis	-2263
▁23	-2264
dom	-2265
▁press	-2266
▁ground	-2267
ograph	-2268
▁Permanent	-2269
gu	-2270
▁according	-2271
term	-2272
▁Imp	-2273
zer	-2274
joy	-2275
▁Plan	-2276
4,	-2277
▁China	-2278
based	-2279
imate	-2280
▁complete	-2281
▁greater	-2282
ief	-2283
ivision	-2284
▁exam	-2285
▁Hotel	-2286
▁principle	-2287
▁function	-2288
ises	-2289
▁German	-2290
▁reason	-2291
▁ren	-2292
ways	-2293
▁priority	-2294
▁conven	-2295
▁communication	-2296
▁reporting	-2297
▁competi	-2298
▁challenges	-2299
▁reported	-2300
▁bri	-2301
▁rate	-2302
▁adequ	-2303
▁US	-2304
▁2009	-2305
ury	-2306
▁Other	-2307
ipp	-2308
▁partnership	-2309
▁Information	-2310
EC	-2311
▁safety	-2312
▁consum	-2313
▁done	-2314
▁prevention	-2315
▁Aust	-2316
inion	-2317
mission	-2318
▁coordin	-2319
PA	-2320
▁rap	-2321
akes	-2322
lied	-2323
▁East	-2324
▁contributions	-2325
▁objectives	-2326
▁Constitution	-2327
of	-2328
rate	-2329
▁essential	-2330
▁exch	-2331
▁King	-2332
ribun	-2333
▁forward	-2334
ania	-2335
▁associ	-2336
IN	-2337
▁caus	-2338
ck	-2339
▁agreements	-2340
fficient	-2341
▁making	-2342
▁Li	-2343
rench	-2344
▁Centre	-2345
▁Ab	-2346
▁bre	-2347
IC	-2348
ER	-2349
▁Chairman	-2350
▁carried	-2351
▁space	-2352
aring	-2353
▁instruments	-2354
▁fav	-2355
▁having	-2356
▁transfer	-2357
▁fl	-2358
▁demand	-2359
▁often	-2360
ached	-2361
eria	-2362
▁Advis	-2363
▁agric	-2364
▁purpose	-2365
ls	-2366
ably	-2367
▁property	-2368
▁consist	-2369
▁value	-2370
▁strengthening	-2371
ancing	-2372
▁study	-2373
▁enter	-2374
▁Director	-2375
▁Agreement	-2376
▁fail	-2377
▁administrative	-2378
▁others	-2379
fact	-2380
▁estim	-2381
imin	-2382
▁hist	-2383
▁Be	-2384
▁harm	-2385
▁acts	-2386
ends	-2387
ditional	-2388
▁wee	-2389
reme	-2390
▁committed	-2391
▁exerc	-2392
▁Further	-2393
medi	-2394
▁begin	-2395
▁leaders	-2396
▁profession	-2397
▁facilities	-2398
▁promotion	-2399
▁sk	-2400
rast	-2401
▁currently	-2402
▁Room	-2403
▁whole	-2404
▁opinion	-2405
con	-2406
selves	-2407
iss	-2408
aster	-2409
▁arrange	-2410
ording	-2411
rime	-2412
dic	-2413
▁Environment	-2414
pro	-2415
▁fil	-2416
ured	-2417
0,	-2418
▁took	-2419
▁questions	-2420
▁basic	-2421
▁Code	-2422
thern	-2423
ars	-2424
▁Meeting	-2425
▁fundamental	-2426
uel	-2427
▁effect	-2428
▁del	-2429
▁line	-2430
aken	-2431
▁enjoy	-2432
▁knowledge	-2433
by	-2434
gn	-2435
▁camp	-2436
▁tax	-2437
ple	-2438
ght	-2439
uty	-2440
▁pers	-2441
▁Fore	-2442
tioned	-2443
▁funding	-2444
▁too	-2445
▁pa	-2446
▁er	-2447
veness	-2448
▁issued	-2449
▁hope	-2450
gent	-2451
▁young	-2452
▁drug	-2453
▁living	-2454
▁approved	-2455
▁statis	-2456
▁eas	-2457
▁nature	-2458
anced	-2459
▁get	-2460
▁mig	-2461
ging	-2462
apan	-2463
▁forms	-2464
▁situ	-2465
urs	-2466
app	-2467
▁Cor	-2468
▁top	-2469
▁complain	-2470
▁abs	-2471
▁equipment	-2472
▁organ	-2473
▁months	-2474
alling	-2475
iversity	-2476
ression	-2477
▁yet	-2478
ilar	-2479
ticles	-2480
▁safe	-2481
osed	-2482
▁crisis	-2483
▁investment	-2484
▁performance	-2485
ock	-2486
▁While	-2487
▁personnel	-2488
▁team	-2489
▁And	-2490
ternet	-2491
▁annual	-2492
ador	-2493
▁France	-2494
▁obtain	-2495
▁But	-2496
▁28	-2497
▁speak	-2498
▁room	-2499
vered	-2500
▁until	-2501
▁expected	-2502
▁indigenous	-2503
eneva	-2504
▁thus	-2505
yn	-2506
▁laws	-2507
ones	-2508
▁communities	-2509
▁contract	-2510
lish	-2511
amic	-2512
CN	-2513
AIDS	-2514
▁reference	-2515
▁Kingdom	-2516
▁Central	-2517
▁Community	-2518
▁building	-2519
▁Des	-2520
AT	-2521
▁displ	-2522
.7	-2523
vision	-2524
▁Coven	-2525
ological	-2526
▁planning	-2527
▁progra	-2528
▁Sh	-2529
▁link	-2530
▁multi	-2531
▁workers	-2532
▁start	-2533
ansition	-2534
▁steps	-2535
ception	-2536
▁early	-2537
CR	-2538
▁rac	-2539
ienti	-2540
▁aspects	-2541
▁potential	-2542
▁Russian	-2543
....	-2544
▁Under	-2545
▁Health	-2546
▁27	-2547
▁itself	-2548
▁tool	-2549
▁Net	-2550
ify	-2551
▁famil	-2552
▁accept	-2553
shop	-2554
liance	-2555
▁Trade	-2556
▁forces	-2557
▁sep	-2558
▁26	-2559
▁tem	-2560
▁minor	-2561
erous	-2562
▁mission	-2563
▁reduction	-2564
GO	-2565
▁Criminal	-2566
▁bu	-2567
illennium	-2568
cent	-2569
▁grant	-2570
The	-2571
▁Cl	-2572
▁positive	-2573
▁authority	-2574
▁days	-2575
▁statements	-2576
▁1,	-2577
▁come	-2578
CEF	-2579
▁French	-2580
▁views	-2581
▁crime	-2582
▁equality	-2583
▁sexual	-2584
▁changes	-2585
racy	-2586
tiveness	-2587
abilities	-2588
▁Bank	-2589
▁presented	-2590
areness	-2591
▁court	-2592
▁apprec	-2593
▁1999	-2594
▁freedom	-2595
▁aimed	-2596
▁cho	-2597
orture	-2598
▁opportunities	-2599
▁Cons	-2600
▁separ	-2601
▁Techn	-2602
▁trafficking	-2603
▁Covenant	-2604
inted	-2605
▁Geneva	-2606
▁industry	-2607
▁lear	-2608
▁One	-2609
unt	-2610
▁Japan	-2611
ctions	-2612
ses	-2613
▁office	-2614
▁strategies	-2615
▁ele	-2616
▁concerns	-2617
▁promoting	-2618
▁limited	-2619
▁labour	-2620
▁Em	-2621
▁analysis	-2622
▁requests	-2623
▁peacekeeping	-2624
.9	-2625
▁plans	-2626
tees	-2627
▁experts	-2628
▁reserv	-2629
kets	-2630
▁supported	-2631
▁'	-2632
oper	-2633
▁recommended	-2634
▁equal	-2635
▁peoples	-2636
▁offer	-2637
ructure	-2638
▁Afgh	-2639
▁gir	-2640
▁stress	-2641
osp	-2642
▁economy	-2643
lies	-2644
▁carry	-2645
▁enhance	-2646
ployment	-2647
▁immedi	-2648
▁categ	-2649
▁self	-2650
ires	-2651
ribunal	-2652
ler	-2653
reen	-2654
▁body	-2655
▁share	-2656
▁Head	-2657
▁negotiations	-2658
▁sing	-2659
▁around	-2660
uter	-2661
▁Peop	-2662
▁Public	-2663
▁First	-2664
▁personal	-2665
▁X	-2666
▁Offic	-2667
▁50	-2668
▁connection	-2669
▁offic	-2670
▁eth	-2671
fort	-2672
▁contribute	-2673
ensus	-2674
▁dated	-2675
▁inten	-2676
tered	-2677
ees	-2678
oted	-2679
▁create	-2680
▁Children	-2681
▁range	-2682
▁pack	-2683
▁More	-2684
ification	-2685
▁Educ	-2686
▁Democratic	-2687
▁implementing	-2688
EP	-2689
oid	-2690
ze	-2691
▁Canadian	-2692
▁Justice	-2693
▁Rom	-2694
▁adequate	-2695
aper	-2696
EN	-2697
▁tar	-2698
▁Str	-2699
▁independent	-2700
▁Federation	-2701
▁When	-2702
▁Afghan	-2703
ferences	-2704
ronic	-2705
▁Ser	-2706
acter	-2707
▁Comp	-2708
▁awareness	-2709
▁interests	-2710
▁goods	-2711
▁pursuant	-2712
▁Forum	-2713
▁standard	-2714
▁arms	-2715
▁income	-2716
▁contact	-2717
▁imm	-2718
▁organized	-2719
▁regions	-2720
▁rural	-2721
ologies	-2722
oh	-2723
arters	-2724
▁My	-2725
rel	-2726
ream	-2727
▁inn	-2728
▁compet	-2729
▁exchange	-2730
▁According	-2731
▁mob	-2732
▁custom	-2733
▁Millennium	-2734
▁consequ	-2735
▁referred	-2736
rict	-2737
▁Summit	-2738
▁facilitate	-2739
▁ce	-2740
▁climate	-2741
▁disarmament	-2742
▁aid	-2743
▁understanding	-2744
▁implemented	-2745
▁circum	-2746
idd	-2747
▁objective	-2748
cell	-2749
▁dri	-2750
action	-2751
sc	-2752
▁think	-2753
▁UNC	-2754
▁old	-2755
▁ensuring	-2756
▁violations	-2757
▁collabor	-2758
stitute	-2759
▁respective	-2760
▁Our	-2761
▁always	-2762
▁affected	-2763
▁treaty	-2764
aries	-2765
▁aud	-2766
▁benefits	-2767
▁Members	-2768
▁identify	-2769
▁model	-2770
tilateral	-2771
stances	-2772
ins	-2773
▁UNDP	-2774
12	-2775
▁build	-2776
▁informed	-2777
bia	-2778
ulner	-2779
▁sal	-2780
▁Advisory	-2781
▁Eng	-2782
sibilities	-2783
▁host	-2784
▁internal	-2785
▁enforce	-2786
mal	-2787
▁rooms	-2788
▁visit	-2789
poses	-2790
level	-2791
ufact	-2792
▁provisional	-2793
▁death	-2794
ulate	-2795
▁Charter	-2796
▁wide	-2797
ites	-2798
▁Second	-2799
gal	-2800
▁informal	-2801
▁former	-2802
▁centre	-2803
▁kind	-2804
▁29	-2805
osition	-2806
ana	-2807
▁undertaken	-2808
▁transp	-2809
▁Ital	-2810
ounts	-2811
▁throughout	-2812
▁guidelines	-2813
▁uni	-2814
▁mean	-2815
▁See	-2816
▁infrast	-2817
▁Some	-2818
▁sect	-2819
▁individuals	-2820
vere	-2821
▁rein	-2822
▁road	-2823
going	-2824
eed	-2825
▁offers	-2826
anda	-2827
▁financing	-2828
AR	-2829
▁initiative	-2830
▁During	-2831
▁purposes	-2832
▁regulations	-2833
▁achieved	-2834
nic	-2835
▁reduce	-2836
▁upd	-2837
▁Division	-2838
▁participate	-2839
▁defin	-2840
cribed	-2841
▁vulner	-2842
agraph	-2843
▁manner	-2844
▁media	-2845
▁points	-2846
▁strategic	-2847
▁successful	-2848
▁What	-2849
▁remains	-2850
▁York	-2851
▁operational	-2852
yl	-2853
▁goals	-2854
▁amendments	-2855
▁adj	-2856
▁evaluation	-2857
▁du	-2858
IT	-2859
quarters	-2860
▁dam	-2861
aches	-2862
▁demonst	-2863
aur	-2864
order	-2865
▁either	-2866
▁companies	-2867
▁difficult	-2868
apter	-2869
▁families	-2870
▁benefit	-2871
▁once	-2872
ipl	-2873
ilateral	-2874
-0	-2875
yc	-2876
▁Count	-2877
▁delegations	-2878
▁stated	-2879
tification	-2880
▁altern	-2881
▁welcome	-2882
▁conduct	-2883
bour	-2884
▁Tim	-2885
▁integration	-2886
▁term	-2887
▁asse	-2888
▁laun	-2889
bo	-2890
isation	-2891
▁type	-2892
▁single	-2893
▁typ	-2894
▁cop	-2895
▁She	-2896
▁compon	-2897
▁themselves	-2898
▁language	-2899
▁reach	-2900
rought	-2901
0/	-2902
ik	-2903
▁bar	-2904
oney	-2905
▁attack	-2906
▁directly	-2907
lementation	-2908
▁proceedings	-2909
▁effects	-2910
▁Disc	-2911
▁Non	-2912
▁why	-2913
most	-2914
▁whose	-2915
▁job	-2916
▁experi	-2917
▁receive	-2918
▁Asia	-2919
▁rather	-2920
▁incor	-2921
▁Agenda	-2922
▁direc	-2923
▁Protection	-2924
▁primary	-2925
▁activity	-2926
▁overall	-2927
omin	-2928
▁capital	-2929
▁loss	-2930
tt	-2931
uris	-2932
▁integrated	-2933
▁character	-2934
▁alloc	-2935
ored	-2936
▁combat	-2937
▁pun	-2938
tial	-2939
▁ban	-2940
ico	-2941
▁notes	-2942
▁2005,	-2943
▁includes	-2944
▁enable	-2945
ientific	-2946
▁fight	-2947
.8	-2948
ux	-2949
▁schools	-2950
▁Management	-2951
▁alleg	-2952
orn	-2953
▁arrangements	-2954
▁articles	-2955
▁hours	-2956
iversal	-2957
iency	-2958
▁Germany	-2959
▁measure	-2960
imination	-2961
▁--	-2962
▁Bar	-2963
▁processes	-2964
▁pub	-2965
ii	-2966
▁cal	-2967
▁circumstances	-2968
▁workshop	-2969
▁fulf	-2970
ics	-2971
▁though	-2972
ercial	-2973
▁girls	-2974
▁Since	-2975
▁Per	-2976
time	-2977
▁Ph	-2978
person	-2979
▁travel	-2980
enty	-2981
50	-2982
▁brief	-2983
▁higher	-2984
▁invited	-2985
▁mo	-2986
▁located	-2987
▁Lat	-2988
▁counter	-2989
▁Fif	-2990
▁debt	-2991
▁central	-2992
▁Her	-2993
▁2004,	-2994
ton	-2995
▁exercise	-2996
▁Bra	-2997
▁Panel	-2998
▁satis	-2999
endit	-3000
▁involve	-3001
AN	-3002
▁city	-3003
rary	-3004
teg	-3005
pite	-3006
▁Go	-3007
▁Tribunal	-3008
▁designed	-3009
▁Ac	-3010
▁expert	-3011
▁lat	-3012
ese	-3013
▁appear	-3014
▁recognized	-3015
▁2006,	-3016
▁conference	-3017
▁transition	-3018
▁lit	-3019
▁near	-3020
▁recommendation	-3021
rop	-3022
▁sett	-3023
mitted	-3024
▁vehicle	-3025
▁forest	-3026
▁Global	-3027
▁table	-3028
▁biennium	-3029
bit	-3030
▁respond	-3031
▁Exper	-3032
▁sol	-3033
▁Review	-3034
▁events	-3035
▁Services	-3036
▁home	-3037
rants	-3038
▁territory	-3039
▁evidence	-3040
▁Territ	-3041
gy	-3042
▁prohib	-3043
alls	-3044
▁approval	-3045
▁effort	-3046
▁197	-3047
▁Internet	-3048
ishment	-3049
▁Coord	-3050
II	-3051
tically	-3052
ecting	-3053
▁suff	-3054
tem	-3055
▁infrastructure	-3056
▁interp	-3057
hab	-3058
alled	-3059
▁2003,	-3060
▁hous	-3061
▁phys	-3062
DC	-3063
▁conv	-3064
▁missions	-3065
▁fifty	-3066
▁incorpor	-3067
▁manufact	-3068
▁avoid	-3069
▁preparation	-3070
▁compliance	-3071
more	-3072
ats	-3073
▁il	-3074
▁prison	-3075
▁company	-3076
▁house	-3077
▁Vi	-3078
▁ge	-3079
▁target	-3080
▁Strateg	-3081
▁comments	-3082
▁similar	-3083
▁applied	-3084
▁Section	-3085
▁Congo	-3086
▁institutional	-3087
▁outside	-3088
▁mechanism	-3089
▁dou	-3090
▁multilateral	-3091
▁functions	-3092
▁UNICEF	-3093
▁states	-3094
▁Implementation	-3095
iary	-3096
▁elements	-3097
izes	-3098
enth	-3099
▁introduced	-3100
▁super	-3101
▁offices	-3102
▁paragraphs	-3103
▁webs	-3104
▁NGO	-3105
▁run	-3106
▁encourage	-3107
▁outcome	-3108
▁cooper	-3109
▁restric	-3110
▁Oper	-3111
▁Israeli	-3112
▁prec	-3113
▁commitments	-3114
itable	-3115
▁sources	-3116
▁Mad	-3117
ware	-3118
▁sufficient	-3119
▁administration	-3120
▁juris	-3121
▁identified	-3122
▁items	-3123
▁draw	-3124
▁Part	-3125
▁along	-3126
OP	-3127
▁clearly	-3128
▁Let	-3129
▁entire	-3130
ya	-3131
▁z	-3132
iddle	-3133
▁IC	-3134
related	-3135
▁Education	-3136
-3	-3137
▁Assoc	-3138
▁stay	-3139
ibility	-3140
▁ww	-3141
▁conducted	-3142
▁rates	-3143
▁operation	-3144
ills	-3145
▁sectors	-3146
▁crit	-3147
▁letter	-3148
▁structure	-3149
▁www	-3150
▁disp	-3151
▁judicial	-3152
▁favour	-3153
▁thank	-3154
untary	-3155
▁mass	-3156
▁regim	-3157
▁officials	-3158
▁2002,	-3159
▁Mrs	-3160
▁centres	-3161
aign	-3162
▁indicated	-3163
cont	-3164
▁2000,	-3165
aps	-3166
AS	-3167
▁Institute	-3168
istic	-3169
▁suggest	-3170
▁refugees	-3171
vey	-3172
▁Sud	-3173
▁2001,	-3174
▁Cooperation	-3175
▁participants	-3176
▁prosec	-3177
▁recommends	-3178
▁methods	-3179
▁crimes	-3180
▁Civil	-3181
▁jo	-3182
/7	-3183
isters	-3184
ched	-3185
ureau	-3186
▁words	-3187
aces	-3188
mical	-3189
▁materials	-3190
▁extra	-3191
▁improving	-3192
▁ways	-3193
NS	-3194
ocracy	-3195
▁flo	-3196
▁pat	-3197
▁claims	-3198
▁Agency	-3199
▁Bur	-3200
▁2010	-3201
▁neg	-3202
▁extent	-3203
▁situations	-3204
▁effectively	-3205
inary	-3206
▁reasons	-3207
▁modern	-3208
▁cross	-3209
▁acqu	-3210
▁innov	-3211
wide	-3212
key	-3213
ung	-3214
aties	-3215
▁relationship	-3216
▁max	-3217
▁Aut	-3218
▁tri	-3219
▁week	-3220
oph	-3221
▁medical	-3222
▁repl	-3223
ustain	-3224
▁times	-3225
▁accom	-3226
▁abuse	-3227
ECE	-3228
▁...	-3229
▁Foreign	-3230
▁Med	-3231
▁opp	-3232
▁exten	-3233
▁majority	-3234
▁Cub	-3235
▁Requ	-3236
▁detention	-3237
▁creation	-3238
▁expendit	-3239
▁priorities	-3240
▁People	-3241
▁created	-3242
▁soon	-3243
▁discussions	-3244
▁follows	-3245
ames	-3246
▁Person	-3247
▁supply	-3248
year	-3249
▁poor	-3250
▁By	-3251
urance	-3252
▁Leban	-3253
▁resol	-3254
OR	-3255
porary	-3256
▁flow	-3257
▁2007,	-3258
▁legislative	-3259
▁Ge	-3260
▁2,	-3261
▁sup	-3262
nes	-3263
▁Afghanistan	-3264
lease	-3265
▁Sudan	-3266
▁anti	-3267
▁torture	-3268
▁distribution	-3269
WP	-3270
▁enforcement	-3271
ery	-3272
uting	-3273
▁step	-3274
▁instrument	-3275
▁mind	-3276
cri	-3277
eng	-3278
tures	-3279
▁product	-3280
ables	-3281
▁Mex	-3282
▁guarantee	-3283
ruit	-3284
yri	-3285
otes	-3286
▁Kore	-3287
▁American	-3288
▁1998	-3289
▁critical	-3290
▁Pr	-3291
know	-3292
ectiveness	-3293
▁governance	-3294
▁turn	-3295
▁mentioned	-3296
▁Over	-3297
▁subsid	-3298
▁alia	-3299
▁compens	-3300
.”	-3301
IR	-3302
▁(199	-3303
▁Regulation	-3304
OS	-3305
▁stability	-3306
ourth	-3307
▁40	-3308
▁asked	-3309
▁reached	-3310
uts	-3311
▁extreme	-3312
▁developments	-3313
▁relation	-3314
▁money	-3315
▁60	-3316
▁applicable	-3317
assi	-3318
ions	-3319
▁highl	-3320
lex	-3321
▁harmon	-3322
▁officers	-3323
▁illeg	-3324
roll	-3325
▁sessions	-3326
▁happ	-3327
sidency	-3328
DA	-3329
▁elections	-3330
ody	-3331
emin	-3332
▁parts	-3333
▁bl	-3334
▁fri	-3335
lav	-3336
used	-3337
▁scope	-3338
ourn	-3339
▁tal	-3340
ev	-3341
ica	-3342
63	-3343
▁gener	-3344
▁wor	-3345
▁mor	-3346
reland	-3347
▁minimum	-3348
ait	-3349
arity	-3350
▁technologies	-3351
ident	-3352
semin	-3353
▁ethnic	-3354
▁Force	-3355
▁hon	-3356
making	-3357
▁obser	-3358
▁price	-3359
comm	-3360
▁live	-3361
▁seem	-3362
▁ongoing	-3363
▁Assist	-3364
▁revised	-3365
▁campaign	-3366
ension	-3367
▁100	-3368
iferation	-3369
lusive	-3370
▁Also	-3371
illed	-3372
venth	-3373
▁penal	-3374
▁brought	-3375
▁Regional	-3376
▁professional	-3377
▁difficul	-3378
▁Polic	-3379
▁markets	-3380
▁deep	-3381
▁His	-3382
▁dang	-3383
ION	-3384
earch	-3385
▁Crime	-3386
▁Add	-3387
▁substantive	-3388
▁Such	-3389
▁Ireland	-3390
▁across	-3391
▁culture	-3392
▁English	-3393
estern	-3394
arents	-3395
enary	-3396
verage	-3397
▁criteria	-3398
▁never	-3399
▁jurisdic	-3400
IL	-3401
rid	-3402
▁commercial	-3403
▁practical	-3404
▁occur	-3405
▁although	-3406
▁associated	-3407
▁:	-3408
▁perman	-3409
▁later	-3410
▁Pri	-3411
thing	-3412
▁longer	-3413
▁traditional	-3414
jected	-3415
▁posts	-3416
▁agricultural	-3417
▁adopt	-3418
ume	-3419
▁Item	-3420
zil	-3421
▁requires	-3422
▁balance	-3423
▁2008,	-3424
▁System	-3425
▁pric	-3426
▁recently	-3427
▁Draft	-3428
▁courts	-3429
verse	-3430
▁ap	-3431
▁qual	-3432
▁subsequ	-3433
▁Iran	-3434
▁cand	-3435
▁obligation	-3436
oke	-3437
▁democratic	-3438
▁Please	-3439
▁Port	-3440
▁Slo	-3441
▁expand	-3442
▁und	-3443
▁credit	-3444
▁Bureau	-3445
▁decl	-3446
▁Supp	-3447
holders	-3448
▁indicators	-3449
▁Furthermore	-3450
▁den	-3451
aging	-3452
▁physical	-3453
▁source	-3454
▁electronic	-3455
▁Sal	-3456
▁intended	-3457
▁Kos	-3458
▁content	-3459
abled	-3460
▁dol	-3461
ovo	-3462
▁dise	-3463
▁advance	-3464
ishing	-3465
▁communications	-3466
▁website	-3467
▁Isl	-3468
ustainable	-3469
▁lar	-3470
▁Rel	-3471
▁resid	-3472
▁limit	-3473
▁paid	-3474
▁values	-3475
▁religious	-3476
anish	-3477
tenance	-3478
▁stage	-3479
▁fair	-3480
▁calls	-3481
▁farm	-3482
▁improved	-3483
▁Austral	-3484
temp	-3485
▁series	-3486
▁sl	-3487
▁useful	-3488
▁complex	-3489
▁India	-3490
▁class	-3491
lications	-3492
▁stake	-3493
▁consolid	-3494
▁emb	-3495
▁initial	-3496
▁etc	-3497
▁tour	-3498
▁known	-3499
riti	-3500
▁languages	-3501
Ch	-3502
lan	-3503
enced	-3504
▁resource	-3505
▁discuss	-3506
▁effectiveness	-3507
▁appeal	-3508
▁break	-3509
1)	-3510
▁achieving	-3511
▁So	-3512
▁som	-3513
▁efficient	-3514
ishes	-3515
TAD	-3516
▁paper	-3517
▁educational	-3518
▁After	-3519
▁tele	-3520
istration	-3521
▁trend	-3522
▁collaboration	-3523
▁Turkey	-3524
ades	-3525
ruption	-3526
▁delivery	-3527
▁House	-3528
▁side	-3529
▁establishing	-3530
▁continues	-3531
ama	-3532
pons	-3533
▁candid	-3534
▁liber	-3535
▁keep	-3536
▁makes	-3537
▁task	-3538
herlands	-3539
▁Cham	-3540
▁dissemin	-3541
▁democracy	-3542
oking	-3543
▁twenty	-3544
▁hard	-3545
ening	-3546
▁assets	-3547
▁defined	-3548
▁parents	-3549
ground	-3550
ij	-3551
rorism	-3552
__	-3553
hers	-3554
▁welcomed	-3555
▁peaceful	-3556
▁Support	-3557
hest	-3558
irmed	-3559
▁entry	-3560
▁led	-3561
▁adjust	-3562
requ	-3563
▁dollar	-3564
▁consultation	-3565
▁external	-3566
▁Mexico	-3567
▁Wel	-3568
▁$1	-3569
▁susp	-3570
▁solutions	-3571
overy	-3572
▁Italy	-3573
itness	-3574
▁covered	-3575
▁detailed	-3576
▁Although	-3577
▁cle	-3578
portion	-3579
▁attemp	-3580
▁ir	-3581
coming	-3582
.0	-3583
▁continuing	-3584
▁sy	-3585
▁Kosovo	-3586
▁Equ	-3587
▁discussed	-3588
▁Table	-3589
▁face	-3590
aria	-3591
▁entities	-3592
▁raised	-3593
▁supporting	-3594
▁red	-3595
5/	-3596
arent	-3597
▁please	-3598
▁Inc	-3599
▁recon	-3600
▁fr	-3601
▁Recalling	-3602
▁seek	-3603
▁web	-3604
onia	-3605
▁Follow	-3606
AM	-3607
HR	-3608
riage	-3609
▁Association	-3610
▁little	-3611
▁export	-3612
istered	-3613
▁Korea	-3614
▁Brazil	-3615
▁Liber	-3616
▁committee	-3617
▁rapporteur	-3618
▁billion	-3619
▁left	-3620
lished	-3621
▁version	-3622
▁elimin	-3623
▁enterpr	-3624
▁emergency	-3625
▁Swed	-3626
bur	-3627
▁urban	-3628
▁announ	-3629
yond	-3630
ane	-3631
oslav	-3632
ticip	-3633
▁takes	-3634
▁program	-3635
▁consequences	-3636
▁concept	-3637
▁mut	-3638
lusions	-3639
▁away	-3640
▁reproduc	-3641
▁terrorist	-3642
▁Mor	-3643
▁Spain	-3644
▁Option	-3645
▁efficiency	-3646
▁signed	-3647
▁periodic	-3648
ugoslav	-3649
ece	-3650
▁vehicles	-3651
▁factors	-3652
kra	-3653
▁vulnerable	-3654
▁accep	-3655
▁voluntary	-3656
▁adap	-3657
dra	-3658
▁feel	-3659
▁Administrative	-3660
▁assi	-3661
▁Policy	-3662
Un	-3663
respon	-3664
▁competition	-3665
▁statistics	-3666
▁maintenance	-3667
itzer	-3668
▁Note	-3669
▁inj	-3670
▁Yugoslav	-3671
▁contains	-3672
OM	-3673
▁North	-3674
urement	-3675
load	-3676
3)	-3677
▁sanc	-3678
▁serve	-3679
▁Federal	-3680
lier	-3681
▁appreciation	-3682
▁III	-3683
▁Unit	-3684
mark	-3685
ously	-3686
irms	-3687
tise	-3688
▁specialized	-3689
itzerland	-3690
▁Political	-3691
ude	-3692
▁page	-3693
▁fig	-3694
▁Countries	-3695
▁alternative	-3696
mis	-3697
▁Netherlands	-3698
▁half	-3699
AL	-3700
dem	-3701
▁challenge	-3702
▁corpor	-3703
▁treaties	-3704
ape	-3705
▁seen	-3706
CC	-3707
comes	-3708
▁types	-3709
▁illegal	-3710
▁shown	-3711
▁regime	-3712
▁beginning	-3713
▁Research	-3714
▁permanent	-3715
▁Six	-3716
▁sched	-3717
▁solid	-3718
ying	-3719
▁UNCTAD	-3720
▁youth	-3721
ilization	-3722
▁lin	-3723
▁consensus	-3724
▁star	-3725
▁Op	-3726
▁possibility	-3727
▁industrial	-3728
▁appoint	-3729
▁presence	-3730
▁housing	-3731
▁gain	-3732
▁conflicts	-3733
RANS	-3734
arib	-3735
ert	-3736
regional	-3737
▁La	-3738
▁studies	-3739
▁cause	-3740
bean	-3741
▁goal	-3742
20	-3743
▁West	-3744
▁guidance	-3745
▁soft	-3746
▁movement	-3747
▁196	-3748
▁cohe	-3749
iable	-3750
▁concluded	-3751
ental	-3752
▁Discrimination	-3753
acific	-3754
▁renew	-3755
▁arrest	-3756
HE	-3757
▁Sustainable	-3758
▁Car	-3759
▁Stand	-3760
▁histor	-3761
▁influ	-3762
▁explain	-3763
igration	-3764
▁students	-3765
▁Cy	-3766
sw	-3767
ma	-3768
▁estimated	-3769
xim	-3770
▁leading	-3771
In	-3772
▁violation	-3773
ply	-3774
arency	-3775
▁understand	-3776
▁oil	-3777
▁Est	-3778
▁jurisdiction	-3779
▁University	-3780
▁mess	-3781
▁plenary	-3782
▁prices	-3783
▁completed	-3784
▁radi	-3785
tivity	-3786
akistan	-3787
▁location	-3788
▁try	-3789
▁Cuba	-3790
▁addressing	-3791
aribbean	-3792
rat	-3793
▁exploitation	-3794
▁i	-3795
▁described	-3796
▁Te	-3797
mail	-3798
▁written	-3799
▁average	-3800
▁applications	-3801
▁construction	-3802
▁regulation	-3803
▁maximum	-3804
▁From	-3805
▁corre	-3806
▁advis	-3807
gment	-3808
▁encouraged	-3809
▁Joint	-3810
▁clos	-3811
▁Third	-3812
hood	-3813
▁excell	-3814
▁Caribbean	-3815
▁Red	-3816
▁pressure	-3817
▁Docu	-3818
▁sw	-3819
30	-3820
▁universal	-3821
▁economies	-3822
▁amendment	-3823
▁interpret	-3824
▁Optional	-3825
▁Moreover	-3826
▁placed	-3827
ee	-3828
sy	-3829
▁percent	-3830
▁beyond	-3831
▁regul	-3832
acts	-3833
▁Br	-3834
▁convention	-3835
▁payment	-3836
▁sound	-3837
▁forth	-3838
▁consistent	-3839
oles	-3840
▁Ukra	-3841
▁Middle	-3842
▁forum	-3843
▁arbit	-3844
▁NGOs	-3845
▁leave	-3846
▁lic	-3847
▁growing	-3848
▁compensation	-3849
alities	-3850
▁Adop	-3851
rence	-3852
irth	-3853
▁specif	-3854
▁reiter	-3855
SC	-3856
▁Headquarters	-3857
pet	-3858
▁bilateral	-3859
▁fo	-3860
▁Official	-3861
4)	-3862
atures	-3863
irit	-3864
ournal	-3865
ean	-3866
▁evalu	-3867
utor	-3868
-20	-3869
▁gas	-3870
▁damage	-3871
▁Statis	-3872
▁log	-3873
▁going	-3874
▁reaff	-3875
▁55	-3876
▁involving	-3877
▁things	-3878
▁comment	-3879
▁attend	-3880
let	-3881
▁conclusion	-3882
▁Author	-3883
▁minutes	-3884
▁Requests	-3885
▁tools	-3886
oto	-3887
itions	-3888
tified	-3889
▁Switzerland	-3890
▁Cro	-3891
▁advant	-3892
aving	-3893
▁original	-3894
erve	-3895
▁transl	-3896
▁generally	-3897
first	-3898
▁hy	-3899
▁Transport	-3900
bon	-3901
▁Legal	-3902
▁aware	-3903
▁Chamber	-3904
rete	-3905
▁pros	-3906
▁constitution	-3907
▁investigation	-3908
▁sea	-3909
▁cli	-3910
▁exec	-3911
inea	-3912
tific	-3913
▁remed	-3914
▁ten	-3915
▁permit	-3916
▁Latin	-3917
▁published	-3918
uw	-3919
▁exception	-3920
▁depend	-3921
ta	-3922
▁obst	-3923
▁creat	-3924
▁Bos	-3925
ask	-3926
▁expect	-3927
▁scientific	-3928
nia	-3929
▁/	-3930
▁mom	-3931
ria	-3932
▁civilian	-3933
aj	-3934
▁purch	-3935
9/	-3936
owers	-3937
▁stakeholders	-3938
▁operating	-3939
▁fulfil	-3940
adic	-3941
oon	-3942
▁util	-3943
ival	-3944
▁bra	-3945
▁repe	-3946
▁Tw	-3947
iplom	-3948
▁stop	-3949
▁Inv	-3950
▁Great	-3951
▁cyc	-3952
mbass	-3953
cer	-3954
▁mus	-3955
▁conferences	-3956
ierra	-3957
▁Australia	-3958
▁really	-3959
5.	-3960
ued	-3961
▁followed	-3962
▁history	-3963
EA	-3964
na	-3965
▁vac	-3966
▁definition	-3967
set	-3968
habilit	-3969
▁Goals	-3970
▁collection	-3971
ilt	-3972
▁Labour	-3973
ague	-3974
▁prepare	-3975
▁border	-3976
enna	-3977
▁book	-3978
▁integr	-3979
aiti	-3980
PR	-3981
ww	-3982
▁transparency	-3983
▁destruction	-3984
▁registration	-3985
ony	-3986
▁fa	-3987
▁difficulties	-3988
▁Pakistan	-3989
73	-3990
1.	-3991
▁emissions	-3992
▁port	-3993
▁involvement	-3994
▁Guinea	-3995
▁Western	-3996
ectoral	-3997
▁lower	-3998
EM	-3999
.30	-4000
▁judge	-4001
itim	-4002
▁ask	-4003
▁Exp	-4004
▁1997	-4005
artments	-4006
▁round	-4007
United	-4008
▁suggested	-4009
▁Qu	-4010
▁governments	-4011
▁displaced	-4012
▁Sa	-4013
▁Nig	-4014
▁caused	-4015
▁improvement	-4016
www	-4017
▁vill	-4018
▁flex	-4019
▁mis	-4020
▁skills	-4021
wise	-4022
fully	-4023
stream	-4024
▁closely	-4025
▁Paragraph	-4026
▁detain	-4027
gov	-4028
▁negative	-4029
ened	-4030
active	-4031
▁Ins	-4032
▁arri	-4033
omal	-4034
▁likely	-4035
room	-4036
▁3,	-4037
▁almost	-4038
▁withdra	-4039
los	-4040
▁Sierra	-4041
▁Fra	-4042
▁allowed	-4043
ques	-4044
▁separate	-4045
ommod	-4046
urd	-4047
▁positions	-4048
▁acknow	-4049
▁setting	-4050
▁Prevention	-4051
▁sanctions	-4052
▁racial	-4053
▁construc	-4054
▁Air	-4055
▁Belg	-4056
ands	-4057
▁determined	-4058
▁leadership	-4059
▁Islamic	-4060
▁ability	-4061
▁cruc	-4062
ulg	-4063
▁duty	-4064
unicip	-4065
▁added	-4066
▁semin	-4067
▁Leone	-4068
▁UNF	-4069
▁conclusions	-4070
▁clar	-4071
▁conform	-4072
▁users	-4073
▁implications	-4074
fare	-4075
icit	-4076
▁direction	-4077
igned	-4078
▁jus	-4079
TO	-4080
eg	-4081
▁fem	-4082
▁Lebanon	-4083
▁welcomes	-4084
▁Elimination	-4085
▁Ques	-4086
inth	-4087
▁autom	-4088
economic	-4089
▁Syri	-4090
▁settlement	-4091
▁emp	-4092
▁determine	-4093
▁Che	-4094
▁submission	-4095
aint	-4096
▁chemical	-4097
atch	-4098
▁competent	-4099
ciliation	-4100
▁fuel	-4101
▁achievement	-4102
▁crucial	-4103
icro	-4104
▁sites	-4105
▁manufacture	-4106
▁ord	-4107
▁option	-4108
iolog	-4109
▁speed	-4110
▁town	-4111
▁delay	-4112
▁IN	-4113
▁freedoms	-4114
ervation	-4115
▁Govern	-4116
▁elected	-4117
▁relative	-4118
▁medium	-4119
▁core	-4120
ighth	-4121
HCR	-4122
orial	-4123
▁neigh	-4124
▁datab	-4125
ulted	-4126
▁resulting	-4127
umed	-4128
iles	-4129
▁Egy	-4130
▁partnerships	-4131
istics	-4132
▁Finally	-4133
▁der	-4134
▁specifically	-4135
ething	-4136
▁quick	-4137
▁2005.	-4138
IP	-4139
▁Prom	-4140
▁dealing	-4141
▁Fam	-4142
▁membership	-4143
▁concrete	-4144
▁Paris	-4145
ark	-4146
▁options	-4147
▁Rules	-4148
▁OF	-4149
▁units	-4150
▁recovery	-4151
▁comfort	-4152
▁highest	-4153
▁immediately	-4154
▁lives	-4155
▁exceed	-4156
▁advoc	-4157
40	-4158
lor	-4159
▁Timor	-4160
▁rapid	-4161
▁Recommend	-4162
▁reflected	-4163
put	-4164
▁collective	-4165
▁tro	-4166
▁trust	-4167
▁judges	-4168
▁online	-4169
aily	-4170
/2001	-4171
▁produce	-4172
▁Pacific	-4173
▁engine	-4174
▁Many	-4175
ancy	-4176
▁EC	-4177
▁Mod	-4178
▁phase	-4179
▁vir	-4180
▁produced	-4181
ancial	-4182
▁eradic	-4183
sels	-4184
/58	-4185
▁intell	-4186
▁accommod	-4187
▁formal	-4188
▁Strategy	-4189
▁publication	-4190
▁remo	-4191
sych	-4192
ED	-4193
▁confidence	-4194
▁1996	-4195
▁valid	-4196
▁reduced	-4197
▁perpet	-4198
98	-4199
▁Fri	-4200
/8	-4201
▁Contract	-4202
▁Kuw	-4203
▁dollars	-4204
ario	-4205
▁approaches	-4206
▁safegu	-4207
ventions	-4208
▁sure	-4209
▁floor	-4210
losed	-4211
▁Saf	-4212
▁actors	-4213
▁grounds	-4214
ointed	-4215
▁Indones	-4216
▁specified	-4217
ha	-4218
▁Administration	-4219
▁correspon	-4220
▁pred	-4221
face	-4222
ua	-4223
▁urgent	-4224
//	-4225
▁restaur	-4226
▁spons	-4227
▁THE	-4228
▁compar	-4229
▁stri	-4230
▁sugges	-4231
▁legitim	-4232
▁moment	-4233
▁disabilities	-4234
▁observations	-4235
luding	-4236
▁Eth	-4237
▁fed	-4238
▁Ukraine	-4239
third	-4240
ttp	-4241
▁Persons	-4242
▁Web	-4243
▁deg	-4244
▁independence	-4245
sight	-4246
pan	-4247
▁concent	-4248
▁something	-4249
▁unique	-4250
▁Vice	-4251
▁category	-4252
zech	-4253
emic	-4254
asion	-4255
▁witness	-4256
▁Rw	-4257
▁extended	-4258
hol	-4259
▁quite	-4260
AP	-4261
▁excellent	-4262
vereign	-4263
://	-4264
▁birth	-4265
▁sixty	-4266
▁decre	-4267
▁Vienna	-4268
▁illicit	-4269
▁expertise	-4270
▁ago	-4271
▁despite	-4272
▁century	-4273
alk	-4274
▁creating	-4275
els	-4276
▁reflect	-4277
5)	-4278
ximately	-4279
▁sovereign	-4280
▁Somal	-4281
▁advice	-4282
illing	-4283
▁simply	-4284
tegration	-4285
▁base	-4286
▁bed	-4287
▁offences	-4288
▁Ref	-4289
▁documentation	-4290
▁rehabilit	-4291
▁absence	-4292
▁arch	-4293
▁immediate	-4294
▁accepted	-4295
▁spirit	-4296
▁UNECE	-4297
▁heart	-4298
TS	-4299
▁poll	-4300
▁1990	-4301
▁listed	-4302
▁comply	-4303
▁Indust	-4304
/199	-4305
▁Colom	-4306
▁condition	-4307
▁secure	-4308
▁UNM	-4309
▁true	-4310
▁recognition	-4311
wing	-4312
rep	-4313
▁Budget	-4314
▁namely	-4315
▁Any	-4316
vo	-4317
▁amended	-4318
ict	-4319
▁firm	-4320
▁Ky	-4321
▁Food	-4322
2)	-4323
▁Spanish	-4324
▁focused	-4325
▁interested	-4326
▁Sweden	-4327
▁software	-4328
▁details	-4329
rain	-4330
▁Chief	-4331
/57	-4332
▁Dar	-4333
ressive	-4334
▁trial	-4335
▁wid	-4336
▁granted	-4337
▁fel	-4338
▁places	-4339
racts	-4340
▁Drug	-4341
▁Conc	-4342
▁answ	-4343
▁enough	-4344
▁Bosnia	-4345
ded	-4346
hing	-4347
▁mach	-4348
RC	-4349
ead	-4350
▁launched	-4351
▁Mont	-4352
national	-4353
elling	-4354
teenth	-4355
▁Prosec	-4356
▁2006.	-4357
▁consent	-4358
▁hop	-4359
ixed	-4360
▁offence	-4361
cription	-4362
▁br	-4363
▁causes	-4364
▁Agric	-4365
▁doub	-4366
▁Portug	-4367
▁compared	-4368
▁Ambass	-4369
▁amb	-4370
▁agriculture	-4371
▁Disarmament	-4372
ylum	-4373
▁Norway	-4374
▁har	-4375
▁Argent	-4376
apon	-4377
▁Framework	-4378
ift	-4379
▁cong	-4380
▁doing	-4381
▁combating	-4382
▁civilians	-4383
▁reducing	-4384
▁UNHCR	-4385
▁stressed	-4386
▁offered	-4387
▁diplom	-4388
ipped	-4389
lined	-4390
▁works	-4391
▁search	-4392
▁charge	-4393
▁install	-4394
▁highly	-4395
▁vo	-4396
▁attacks	-4397
▁2004.	-4398
▁ever	-4399
irty	-4400
▁Ministers	-4401
▁capacities	-4402
▁remained	-4403
▁Czech	-4404
▁Therefore	-4405
▁Financial	-4406
▁Regulations	-4407
▁clean	-4408
▁insurance	-4409
astern	-4410
▁fis	-4411
ata	-4412
-4	-4413
outhern	-4414
▁writing	-4415
amer	-4416
▁Bas	-4417
▁How	-4418
roliferation	-4419
.10	-4420
▁ded	-4421
endly	-4422
▁alleged	-4423
▁Georg	-4424
▁Coordination	-4425
▁release	-4426
▁indicate	-4427
jan	-4428
▁Chairperson	-4429
Comm	-4430
ighted	-4431
versi	-4432
cess	-4433
▁1999,	-4434
tition	-4435
▁reviews	-4436
▁Technical	-4437
umb	-4438
▁speakers	-4439
▁calc	-4440
▁Authority	-4441
▁increasingly	-4442
▁frequ	-4443
▁dim	-4444
actions	-4445
aza	-4446
▁declaration	-4447
▁mainly	-4448
▁disaster	-4449
▁Police	-4450
▁Aud	-4451
uven	-4452
licit	-4453
▁unit	-4454
▁Ma	-4455
▁requirement	-4456
▁extremely	-4457
▁teac	-4458
▁risks	-4459
zegov	-4460
▁employees	-4461
▁vide	-4462
inding	-4463
zegovina	-4464
▁heard	-4465
▁shared	-4466
ought	-4467
▁perspective	-4468
▁mother	-4469
▁complement	-4470
-6	-4471
ealand	-4472
▁owners	-4473
▁conventions	-4474
▁unless	-4475
▁Pop	-4476
▁otherwise	-4477
▁Sm	-4478
▁Zealand	-4479
▁mag	-4480
▁directive	-4481
▁summary	-4482
▁represented	-4483
-5	-4484
▁actively	-4485
rea	-4486
gen	-4487
▁gent	-4488
▁San	-4489
uri	-4490
▁giving	-4491
▁temporary	-4492
▁expenditure	-4493
atform	-4494
▁component	-4495
▁registered	-4496
▁size	-4497
▁Prov	-4498
▁Ambassador	-4499
12)	-4500
arc	-4501
▁donors	-4502
▁Proced	-4503
▁shows	-4504
▁Resolution	-4505
tify	-4506
▁fields	-4507
▁2007.	-4508
▁Initi	-4509
enders	-4510
▁Experts	-4511
▁Ste	-4512
iate	-4513
▁whom	-4514
St	-4515
iring	-4516
argets	-4517
/61	-4518
utri	-4519
▁defence	-4520
▁statistical	-4521
▁troop	-4522
session	-4523
sts	-4524
▁Those	-4525
▁Indonesia	-4526
▁2003.	-4527
▁accounts	-4528
▁big	-4529
▁Moroc	-4530
▁easy	-4531
▁planned	-4532
▁Partners	-4533
▁geograph	-4534
road	-4535
▁2009,	-4536
▁obtained	-4537
▁Northern	-4538
disc	-4539
▁Def	-4540
▁failure	-4541
▁cooperate	-4542
/56	-4543
▁computer	-4544
▁imposed	-4545
▁Herzegovina	-4546
▁Fifth	-4547
........	-4548
11	-4549
▁Fac	-4550
▁dr	-4551
▁constitute	-4552
▁Territory	-4553
▁actual	-4554
▁Adoption	-4555
▁religion	-4556
with	-4557
▁choice	-4558
▁gentle	-4559
9)	-4560
▁Business	-4561
ense	-4562
▁migration	-4563
▁containing	-4564
atal	-4565
▁reforms	-4566
▁obstac	-4567
▁check	-4568
sitive	-4569
▁Egypt	-4570
aching	-4571
▁Croati	-4572
▁election	-4573
etary	-4574
▁Gre	-4575
ares	-4576
▁timely	-4577
▁extend	-4578
▁fourth	-4579
▁48	-4580
▁belong	-4581
▁36	-4582
▁targets	-4583
▁inclusion	-4584
▁x	-4585
▁Financing	-4586
▁refugee	-4587
▁Phil	-4588
2.	-4589
vance	-4590
iological	-4591
▁package	-4592
3.	-4593
▁programs	-4594
▁female	-4595
▁categories	-4596
▁sche	-4597
▁unem	-4598
▁prem	-4599
▁fire	-4600
uled	-4601
▁recruit	-4602
/10	-4603
▁mal	-4604
6)	-4605
▁Its	-4606
arily	-4607
▁municip	-4608
▁components	-4609
97	-4610
▁Burund	-4611
second	-4612
▁963	-4613
▁Sim	-4614
▁scale	-4615
▁procurement	-4616
▁supports	-4617
▁Ver	-4618
▁powers	-4619
▁AN	-4620
theless	-4621
▁survey	-4622
▁internationally	-4623
fect	-4624
adies	-4625
▁asylum	-4626
▁Princip	-4627
▁(212)	-4628
▁4,	-4629
▁Chapter	-4630
▁undertake	-4631
▁coordinated	-4632
▁substances	-4633
SP	-4634
▁Islands	-4635
fast	-4636
▁Prof	-4637
▁hear	-4638
▁links	-4639
▁audit	-4640
▁finance	-4641
▁selected	-4642
prus	-4643
▁Cultural	-4644
▁ratification	-4645
▁mem	-4646
▁raise	-4647
/62	-4648
ola	-4649
▁sense	-4650
LO	-4651
uration	-4652
▁convic	-4653
▁latest	-4654
▁Asian	-4655
▁PR	-4656
▁psych	-4657
udge	-4658
pection	-4659
ots	-4660
▁forced	-4661
▁occupied	-4662
▁chapter	-4663
tra	-4664
▁earlier	-4665
▁rehabilitation	-4666
tieth	-4667
▁termin	-4668
▁Cost	-4669
/63	-4670
▁file	-4671
ST	-4672
▁networks	-4673
indow	-4674
▁Lib	-4675
▁user	-4676
iop	-4677
▁Austria	-4678
▁conver	-4679
▁57	-4680
▁occupation	-4681
▁introduction	-4682
▁vital	-4683
AD	-4684
▁actually	-4685
▁rise	-4686
▁federal	-4687
▁Document	-4688
ere	-4689
lying	-4690
▁approximately	-4691
▁punishment	-4692
▁coming	-4693
▁minorities	-4694
▁affect	-4695
▁deliver	-4696
▁station	-4697
idents	-4698
▁sentence	-4699
▁element	-4700
▁allows	-4701
▁waste	-4702
▁delivered	-4703
▁relief	-4704
▁Assistance	-4705
▁replace	-4706
▁honour	-4707
▁island	-4708
▁protected	-4709
▁endors	-4710
▁2008.	-4711
▁remin	-4712
▁Cyprus	-4713
▁participating	-4714
▁Bang	-4715
▁classi	-4716
▁daily	-4717
▁parliament	-4718
▁structures	-4719
▁emphasis	-4720
▁Recogn	-4721
▁disapp	-4722
▁Sea	-4723
head	-4724
▁35	-4725
▁protocol	-4726
abit	-4727
▁encourages	-4728
25	-4729
▁decide	-4730
▁Commit	-4731
▁UNEP	-4732
▁strengthened	-4733
▁deliber	-4734
▁territories	-4735
▁anim	-4736
▁subregional	-4737
▁gentlemen	-4738
tr	-4739
/2004	-4740
▁2002.	-4741
▁seven	-4742
▁IM	-4743
▁Den	-4744
▁Belgium	-4745
▁Poland	-4746
uay	-4747
▁mainstream	-4748
▁Of	-4749
▁bank	-4750
▁consumption	-4751
bec	-4752
▁congrat	-4753
inued	-4754
AO	-4755
▁idea	-4756
▁Amend	-4757
my	-4758
▁33	-4759
▁Turk	-4760
▁Safety	-4761
▁appointed	-4762
▁proportion	-4763
ping	-4764
▁supplement	-4765
▁participated	-4766
▁Madam	-4767
▁subsequent	-4768
tlements	-4769
▁mutual	-4770
▁variety	-4771
▁Space	-4772
▁56	-4773
▁aims	-4774
▁Consid	-4775
▁acces	-4776
▁recorded	-4777
▁Palestine	-4778
▁Haiti	-4779
▁considerable	-4780
SO	-4781
ley	-4782
▁Romania	-4783
avi	-4784
enses	-4785
▁Cap	-4786
▁accountability	-4787
▁affairs	-4788
▁Training	-4789
▁samp	-4790
▁Informal	-4791
▁Each	-4792
auti	-4793
reet	-4794
▁regards	-4795
ht	-4796
flic	-4797
▁substantial	-4798
▁2000.	-4799
▁Guid	-4800
▁numerous	-4801
oming	-4802
▁2001.	-4803
▁entered	-4804
rew	-4805
▁availability	-4806
▁fost	-4807
▁Letter	-4808
ula	-4809
where	-4810
▁meaning	-4811
▁Mond	-4812
▁Energy	-4813
asters	-4814
▁Following	-4815
▁elabor	-4816
▁jobs	-4817
▁correct	-4818
▁customers	-4819
▁paras	-4820
▁Communic	-4821
tural	-4822
urch	-4823
▁assessments	-4824
▁quan	-4825
▁closed	-4826
▁enhanced	-4827
▁mort	-4828
▁indeed	-4829
▁37	-4830
▁Operations	-4831
▁courses	-4832
▁send	-4833
ountain	-4834
▁adapt	-4835
▁enhancing	-4836
atute	-4837
▁intention	-4838
rable	-4839
▁suc	-4840
▁mandates	-4841
▁dead	-4842
▁code	-4843
▁pic	-4844
▁58	-4845
▁Nuclear	-4846
▁opening	-4847
▁household	-4848
ET	-4849
▁win	-4850
▁workshops	-4851
.1,	-4852
▁linked	-4853
▁commission	-4854
CP	-4855
/2002	-4856
che	-4857
▁Sur	-4858
ason	-4859
▁enterprises	-4860
▁Supplement	-4861
▁Nam	-4862
▁presentation	-4863
▁Belar	-4864
inese	-4865
▁Status	-4866
ourable	-4867
▁features	-4868
▁electric	-4869
▁Argentina	-4870
▁tasks	-4871
▁extensive	-4872
▁Hung	-4873
▁Colombia	-4874
▁authorized	-4875
▁expression	-4876
▁depos	-4877
▁Family	-4878
▁Syrian	-4879
▁Burundi	-4880
▁colle	-4881
▁Rwanda	-4882
▁everyone	-4883
vell	-4884
▁euro	-4885
▁argu	-4886
/2003	-4887
lick	-4888
▁Out	-4889
▁Sup	-4890
▁Chile	-4891
▁Prime	-4892
▁Thus	-4893
▁Bl	-4894
▁secondary	-4895
▁manag	-4896
▁built	-4897
▁condem	-4898
▁Kuwait	-4899
oler	-4900
▁Obs	-4901
▁Partnership	-4902
▁engaged	-4903
ritish	-4904
ino	-4905
▁reviewed	-4906
▁remaining	-4907
▁exclusive	-4908
▁advantage	-4909
fortun	-4910
▁Croatia	-4911
▁45	-4912
▁divers	-4913
akh	-4914
▁pleased	-4915
stance	-4916
▁drugs	-4917
▁radio	-4918
▁Technology	-4919
▁Tun	-4920
▁Where	-4921
▁Serbia	-4922
▁Rac	-4923
▁tit	-4924
▁degra	-4925
▁strongly	-4926
▁appe	-4927
7)	-4928
▁thous	-4929
fur	-4930
▁UNFPA	-4931
▁hosp	-4932
uses	-4933
▁($	-4934
rig	-4935
▁rail	-4936
▁comes	-4937
▁heav	-4938
atically	-4939
ginal	-4940
heries	-4941
▁facing	-4942
▁Finland	-4943
▁Joh	-4944
▁weeks	-4945
▁complaints	-4946
▁Weapons	-4947
▁Gra	-4948
▁Ob	-4949
4.	-4950
ircraft	-4951
▁32	-4952
usal	-4953
▁5,	-4954
▁panel	-4955
▁eliminate	-4956
▁Yugoslavia	-4957
ectual	-4958
▁gl	-4959
irming	-4960
▁Loc	-4961
▁1995	-4962
HC	-4963
▁Somalia	-4964
▁mid	-4965
▁respectively	-4966
▁Stud	-4967
▁Task	-4968
rs	-4969
jud	-4970
▁database	-4971
▁cut	-4972
▁analy	-4973
▁interpretation	-4974
vak	-4975
▁Control	-4976
▁withdraw	-4977
▁award	-4978
▁background	-4979
elf	-4980
▁donor	-4981
times	-4982
▁threats	-4983
haps	-4984
▁records	-4985
▁corruption	-4986
cast	-4987
▁Ethiop	-4988
HO	-4989
▁ICT	-4990
▁transmit	-4991
inking	-4992
▁British	-4993
▁art	-4994
▁numbers	-4995
cing	-4996
▁contributed	-4997
▁forty	-4998
six	-4999
mosp	-5000
▁strict	-5001
posal	-5002
▁wishes	-5003
▁syn	-5004
ali	-5005
flict	-5006
resolution	-5007
.15	-5008
▁agg	-5009
ara	-5010
".	-5011
▁speaking	-5012
▁Presidency	-5013
▁representation	-5014
▁holding	-5015
▁Brit	-5016
▁Session	-5017
▁existence	-5018
▁gives	-5019
itig	-5020
gans	-5021
▁drawn	-5022
RE	-5023
▁diversity	-5024
▁Project	-5025
▁depri	-5026
titude	-5027
▁music	-5028
▁impris	-5029
▁incorporated	-5030
bai	-5031
▁54	-5032
▁dig	-5033
onstruction	-5034
ush	-5035
▁regulatory	-5036
apers	-5037
▁late	-5038
▁bath	-5039
▁pointed	-5040
▁preventing	-5041
orders	-5042
▁equipped	-5043
atell	-5044
baijan	-5045
zerbaijan	-5046
▁Morocco	-5047
▁budgetary	-5048
▁largest	-5049
utrition	-5050
▁solidarity	-5051
tor	-5052
▁Refuge	-5053
▁identification	-5054
bourg	-5055
phone	-5056
▁won	-5057
spoke	-5058
ieties	-5059
▁candidates	-5060
▁front	-5061
PT	-5062
ada	-5063
▁Philipp	-5064
▁conformity	-5065
▁victim	-5066
▁compris	-5067
▁Rule	-5068
▁stip	-5069
▁instance	-5070
▁considering	-5071
lin	-5072
▁ship	-5073
▁outstanding	-5074
▁integrity	-5075
▁minority	-5076
▁board	-5077
▁Provision	-5078
▁ECE	-5079
▁Russia	-5080
yle	-5081
▁Main	-5082
▁Ne	-5083
▁degree	-5084
▁Ur	-5085
▁Trust	-5086
DE	-5087
▁started	-5088
▁message	-5089
▁identity	-5090
▁Most	-5091
▁Monday	-5092
▁innovative	-5093
▁Do	-5094
US	-5095
▁emerging	-5096
▁Reaff	-5097
▁Eff	-5098
iet	-5099
▁announced	-5100
▁Bulg	-5101
15	-5102
▁intern	-5103
/2006	-5104
▁burd	-5105
▁ready	-5106
▁Deleg	-5107
olute	-5108
▁resident	-5109
▁haz	-5110
iminary	-5111
tel	-5112
▁learning	-5113
▁cycle	-5114
▁restrictions	-5115
mer	-5116
▁launch	-5117
▁shop	-5118
.1.	-5119
▁normal	-5120
▁worldwide	-5121
▁payments	-5122
▁recruitment	-5123
▁chap	-5124
▁Eastern	-5125
▁ratified	-5126
▁Belarus	-5127
▁34	-5128
▁retain	-5129
▁pil	-5130
▁spread	-5131
▁resulted	-5132
DG	-5133
▁Vol	-5134
faction	-5135
▁functioning	-5136
▁Val	-5137
9.	-5138
▁night	-5139
▁Nigeria	-5140
▁significantly	-5141
/0	-5142
▁played	-5143
▁trends	-5144
▁aircraft	-5145
▁Ken	-5146
▁ves	-5147
▁km	-5148
▁Friday	-5149
▁urges	-5150
▁experiences	-5151
▁contracts	-5152
utions	-5153
▁Saint	-5154
▁Ug	-5155
▁Year	-5156
▁Respon	-5157
▁foot	-5158
Rev	-5159
▁Alger	-5160
IA	-5161
abling	-5162
▁sole	-5163
▁came	-5164
▁Georgia	-5165
▁http	-5166
itors	-5167
paragraph	-5168
▁Statistics	-5169
lines	-5170
ingu	-5171
▁except	-5172
▁Coordin	-5173
▁Ben	-5174
law	-5175
▁outcomes	-5176
▁liability	-5177
TC	-5178
liminary	-5179
▁Cust	-5180
▁constitutional	-5181
▁77	-5182
▁racism	-5183
▁via	-5184
▁Liberia	-5185
▁dedic	-5186
▁thanks	-5187
▁word	-5188
▁dangerous	-5189
iance	-5190
▁sale	-5191
▁previously	-5192
▁impos	-5193
▁Consult	-5194
ches	-5195
real	-5196
▁Greece	-5197
▁differences	-5198
▁updated	-5199
▁Deputy	-5200
rations	-5201
▁Prepar	-5202
▁guarantees	-5203
▁dign	-5204
▁Another	-5205
Sec	-5206
▁stock	-5207
fourth	-5208
▁Monitor	-5209
▁recognize	-5210
▁territorial	-5211
unction	-5212
▁Use	-5213
▁sharing	-5214
▁processing	-5215
▁accompl	-5216
▁seeking	-5217
▁Territories	-5218
▁Azerbaijan	-5219
▁80	-5220
▁game	-5221
▁theme	-5222
oliv	-5223
▁card	-5224
book	-5225
▁accession	-5226
puts	-5227
▁Fifty	-5228
asc	-5229
▁race	-5230
▁duties	-5231
▁emphasized	-5232
▁admin	-5233
▁instruc	-5234
▁worked	-5235
▁estimates	-5236
▁ladies	-5237
▁Ang	-5238
▁lay	-5239
▁urged	-5240
udi	-5241
wh	-5242
▁atmosp	-5243
comp	-5244
▁Peacekeeping	-5245
EL	-5246
ninth	-5247
▁Internal	-5248
▁47	-5249
▁green	-5250
▁voted	-5251
atemal	-5252
▁perfect	-5253
▁became	-5254
▁senior	-5255
▁severe	-5256
▁deployment	-5257
human	-5258
▁61	-5259
otor	-5260
▁looking	-5261
▁195	-5262
▁populations	-5263
la	-5264
▁feed	-5265
▁pool	-5266
▁latter	-5267
yer	-5268
▁lines	-5269
orm	-5270
▁absolute	-5271
▁attain	-5272
▁coverage	-5273
▁join	-5274
rators	-5275
▁reasonable	-5276
▁CD	-5277
▁quickly	-5278
▁consumer	-5279
seventh	-5280
▁Supreme	-5281
▁Particip	-5282
annel	-5283
▁seems	-5284
house	-5285
▁segment	-5286
fif	-5287
▁influence	-5288
▁Portugal	-5289
▁dyn	-5290
▁comprom	-5291
marily	-5292
free	-5293
▁behavi	-5294
▁science	-5295
asures	-5296
▁$2	-5297
▁resolve	-5298
▁Tunis	-5299
sixth	-5300
▁examination	-5301
htm	-5302
▁surround	-5303
ique	-5304
▁findings	-5305
▁Population	-5306
▁constructive	-5307
▁accompan	-5308
care	-5309
vail	-5310
▁lot	-5311
▁began	-5312
▁Tre	-5313
oor	-5314
▁constant	-5315
▁surve	-5316
rolled	-5317
III	-5318
▁Britain	-5319
▁encouraging	-5320
oz	-5321
▁Procedure	-5322
incial	-5323
▁Ib	-5324
▁sought	-5325
▁choose	-5326
▁Forms	-5327
▁coast	-5328
▁pi	-5329
▁associations	-5330
▁observers	-5331
▁acknowled	-5332
▁highlighted	-5333
▁copy	-5334
▁organs	-5335
committee	-5336
continued	-5337
uvenile	-5338
96	-5339
orage	-5340
▁Records	-5341
▁nothing	-5342
▁considers	-5343
▁fall	-5344
▁arising	-5345
▁maintained	-5346
▁IV	-5347
lim	-5348
eighth	-5349
▁penalty	-5350
▁Produc	-5351
▁norms	-5352
▁nationality	-5353
▁diseases	-5354
▁globalization	-5355
▁Found	-5356
orse	-5357
▁Slovak	-5358
▁bound	-5359
▁factor	-5360
▁endorsed	-5361
▁chair	-5362
akers	-5363
▁Hoc	-5364
▁nations	-5365
▁association	-5366
▁contra	-5367
sell	-5368
▁90	-5369
▁cou	-5370
▁organizational	-5371
tian	-5372
▁UNID	-5373
▁parent	-5374
▁primarily	-5375
mbol	-5376
urrent	-5377
▁residence	-5378
▁Decides	-5379
fifth	-5380
▁voting	-5381
▁explan	-5382
/59	-5383
▁reintegration	-5384
▁train	-5385
▁observed	-5386
▁Peru	-5387
▁names	-5388
▁bloc	-5389
gned	-5390
▁combined	-5391
▁transparent	-5392
▁amounts	-5393
programme	-5394
▁zone	-5395
▁concluding	-5396
▁Network	-5397
▁faced	-5398
▁guide	-5399
▁partner	-5400
▁certainly	-5401
inal	-5402
▁else	-5403
▁notice	-5404
▁Indigenous	-5405
▁Sen	-5406
▁carrying	-5407
▁accused	-5408
▁sales	-5409
▁warm	-5410
ney	-5411
▁certific	-5412
▁behind	-5413
▁limits	-5414
▁exem	-5415
▁uses	-5416
rem	-5417
▁teachers	-5418
▁simple	-5419
▁Despite	-5420
▁alone	-5421
▁maintaining	-5422
▁constra	-5423
ength	-5424
▁norm	-5425
▁marriage	-5426
▁prob	-5427
anks	-5428
▁reven	-5429
▁ideas	-5430
▁neighbour	-5431
▁toler	-5432
▁Denmark	-5433
▁Ont	-5434
▁vision	-5435
▁beauti	-5436
oman	-5437
▁Mus	-5438
▁Wed	-5439
itage	-5440
▁Environmental	-5441
▁selection	-5442
▁prol	-5443
▁adoles	-5444
▁unable	-5445
▁mer	-5446
▁satisfaction	-5447
▁subsidiary	-5448
▁responses	-5449
▁preparing	-5450
▁engage	-5451
ESCO	-5452
anz	-5453
ansion	-5454
▁completion	-5455
▁represents	-5456
▁gross	-5457
roduce	-5458
ifest	-5459
▁reservations	-5460
▁Agriculture	-5461
ova	-5462
▁news	-5463
ithu	-5464
▁released	-5465
▁dissemination	-5466
ailand	-5467
▁determination	-5468
▁Viol	-5469
▁Darfur	-5470
▁socio	-5471
ophob	-5472
endum	-5473
▁completely	-5474
8)	-5475
gram	-5476
resh	-5477
▁Their	-5478
▁everything	-5479
▁70	-5480
▁topic	-5481
▁virt	-5482
▁Ethiopia	-5483
▁fishing	-5484
ull	-5485
▁fit	-5486
▁Guatemal	-5487
▁Dire	-5488
undred	-5489
▁lessons	-5490
▁thereby	-5491
▁advisory	-5492
fortunately	-5493
▁Water	-5494
▁governing	-5495
ott	-5496
▁reservation	-5497
ican	-5498
▁Uganda	-5499
▁weak	-5500
voire	-5501
▁revision	-5502
▁agency	-5503
▁migrants	-5504
unte	-5505
▁AIDS	-5506
▁Pen	-5507
▁enjoyment	-5508
▁reality	-5509
▁Bah	-5510
▁tourism	-5511
▁thirty	-5512
riers	-5513
▁WTO	-5514
▁eight	-5515
▁Staff	-5516
▁willing	-5517
▁deter	-5518
▁Gender	-5519
▁(1)	-5520
iling	-5521
rong	-5522
ranch	-5523
▁acce	-5524
Ivoire	-5525
▁reproductive	-5526
▁Costa	-5527
uk	-5528
▁Thurs	-5529
orrow	-5530
▁Mark	-5531
rier	-5532
▁consumers	-5533
▁Set	-5534
WG	-5535
▁applies	-5536
▁Not	-5537
▁TV	-5538
▁served	-5539
▁Gaza	-5540
▁answer	-5541
▁precise	-5542
▁protecting	-5543
▁obstacles	-5544
▁disease	-5545
uine	-5546
aysia	-5547
pre	-5548
▁load	-5549
ocks	-5550
▁path	-5551
0)	-5552
▁failed	-5553
▁mobil	-5554
▁unemployment	-5555
▁Chinese	-5556
IM	-5557
▁Independ	-5558
ployed	-5559
▁welfare	-5560
▁Tod	-5561
▁39	-5562
▁Monitoring	-5563
▁preliminary	-5564
imb	-5565
ils	-5566
olerance	-5567
▁targeted	-5568
▁War	-5569
ulating	-5570
▁Int	-5571
▁double	-5572
▁micro	-5573
▁Bulgaria	-5574
enez	-5575
▁transactions	-5576
certain	-5577
▁elimination	-5578
South	-5579
▁appointment	-5580
▁belief	-5581
▁Thursday	-5582
▁curren	-5583
▁instead	-5584
▁allocated	-5585
▁slow	-5586
▁benefic	-5587
▁Questions	-5588
▁Ontario	-5589
▁controls	-5590
▁Alban	-5591
▁temper	-5592
ECD	-5593
▁examine	-5594
▁dignity	-5595
▁Sloven	-5596
bound	-5597
pecific	-5598
▁Lithu	-5599
▁pregn	-5600
ets	-5601
▁cash	-5602
▁2009.	-5603
▁distributed	-5604
8.	-5605
▁nation	-5606
▁confirmed	-5607
▁Inst	-5608
▁optim	-5609
▁bat	-5610
▁Last	-5611
uds	-5612
▁lab	-5613
▁figures	-5614
TRANS	-5615
▁sovereignty	-5616
▁bringing	-5617
▁starting	-5618
▁Prosecutor	-5619
▁enabling	-5620
▁reconstruction	-5621
▁Two	-5622
uable	-5623
▁AND	-5624
▁expansion	-5625
▁42	-5626
▁59	-5627
▁CE	-5628
▁tel	-5629
▁briefing	-5630
500	-5631
▁improvements	-5632
-10	-5633
▁Algeria	-5634
▁investigations	-5635
▁Sever	-5636
▁reconciliation	-5637
ming	-5638
lades	-5639
▁phot	-5640
istent	-5641
▁visits	-5642
▁Thailand	-5643
▁imprisonment	-5644
▁plant	-5645
7.	-5646
▁becoming	-5647
▁furn	-5648
▁video	-5649
mentioned	-5650
▁suffering	-5651
uth	-5652
▁examples	-5653
▁doc	-5654
cessive	-5655
▁Enc	-5656
▁Good	-5657
▁Humanitarian	-5658
abitat	-5659
termination	-5660
▁learn	-5661
ladesh	-5662
sk	-5663
▁manage	-5664
▁widely	-5665
▁sometimes	-5666
iety	-5667
rust	-5668
▁behaviour	-5669
▁transit	-5670
▁UNIDO	-5671
▁san	-5672
▁diplomatic	-5673
▁Kenya	-5674
▁Resources	-5675
▁departments	-5676
▁farmers	-5677
▁faith	-5678
▁Hungary	-5679
este	-5680
▁format	-5681
▁Sing	-5682
▁envis	-5683
rely	-5684
▁discrimin	-5685
UR	-5686
▁Day	-5687
UC	-5688
proliferation	-5689
▁mention	-5690
▁dele	-5691
▁substance	-5692
lication	-5693
▁cod	-5694
weapon	-5695
▁afford	-5696
uador	-5697
▁Decision	-5698
▁poli	-5699
essment	-5700
▁Today	-5701
▁!	-5702
▁nine	-5703
▁worth	-5704
▁opened	-5705
▁Land	-5706
▁prisoners	-5707
oring	-5708
nesday	-5709
▁length	-5710
▁49	-5711
▁genuine	-5712
▁ownership	-5713
▁beautiful	-5714
▁extension	-5715
rist	-5716
▁legitimate	-5717
▁Several	-5718
▁headquarters	-5719
▁guests	-5720
▁Lux	-5721
▁restaurant	-5722
▁mil	-5723
▁surv	-5724
▁commod	-5725
▁EUR	-5726
▁borders	-5727
▁pati	-5728
/9	-5729
leb	-5730
▁Small	-5731
▁decent	-5732
▁38	-5733
enezuel	-5734
▁learned	-5735
ME	-5736
▁City	-5737
▁194	-5738
▁structural	-5739
▁cities	-5740
▁businesses	-5741
▁ali	-5742
▁invent	-5743
▁contrary	-5744
ifications	-5745
))	-5746
▁Pan	-5747
▁files	-5748
▁Wednesday	-5749
▁liberal	-5750
▁destro	-5751
Is	-5752
▁Congress	-5753
▁esc	-5754
▁organis	-5755
▁drafting	-5756
▁commissions	-5757
▁Foundation	-5758
burg	-5759
▁recip	-5760
▁lost	-5761
▁Officer	-5762
60	-5763
ca	-5764
▁elig	-5765
▁pattern	-5766
▁51	-5767
▁God	-5768
▁binding	-5769
▁Noting	-5770
▁mortality	-5771
place	-5772
▁Initiative	-5773
▁demands	-5774
anmar	-5775
EF	-5776
▁competitive	-5777
▁regret	-5778
atellite	-5779
iii	-5780
▁disch	-5781
▁thought	-5782
▁attrib	-5783
▁expenditures	-5784
▁undermin	-5785
▁Roma	-5786
▁blo	-5787
▁exports	-5788
▁intellectual	-5789
6.	-5790
▁banks	-5791
▁realization	-5792
mon	-5793
arding	-5794
▁easily	-5795
lev	-5796
▁teams	-5797
iry	-5798
ventive	-5799
▁wrong	-5800
▁Common	-5801
▁prefer	-5802
▁dealt	-5803
▁53	-5804
enophob	-5805
▁channel	-5806
▁investments	-5807
▁Saudi	-5808
▁Guatemala	-5809
▁pursue	-5810
eline	-5811
ndering	-5812
▁acting	-5813
/13	-5814
▁attached	-5815
▁initiated	-5816
▁44	-5817
▁grad	-5818
utors	-5819
Secret	-5820
▁ones	-5821
sequently	-5822
▁urg	-5823
▁Malaysia	-5824
HCHR	-5825
▁receiving	-5826
▁subs	-5827
▁Subcommittee	-5828
▁Armen	-5829
▁matern	-5830
▁votes	-5831
bi	-5832
aritime	-5833
▁disasters	-5834
▁tack	-5835
▁affecting	-5836
forced	-5837
▁Leg	-5838
▁corporate	-5839
▁gave	-5840
yal	-5841
▁Promotion	-5842
▁copies	-5843
Ag	-5844
ultim	-5845
▁register	-5846
▁principal	-5847
▁signature	-5848
vency	-5849
inced	-5850
▁expenses	-5851
▁Philippines	-5852
▁accessible	-5853
ambia	-5854
▁Camb	-5855
entially	-5856
▁1994	-5857
ste	-5858
via	-5859
▁sustained	-5860
▁describ	-5861
▁Venezuel	-5862
▁equival	-5863
▁preced	-5864
▁relax	-5865
▁committees	-5866
▁Every	-5867
▁doubt	-5868
▁medic	-5869
OC	-5870
IG	-5871
ept	-5872
▁percentage	-5873
▁update	-5874
▁ideal	-5875
▁enlar	-5876
▁declared	-5877
pected	-5878
▁Priv	-5879
▁Scientific	-5880
▁Power	-5881
▁marine	-5882
▁attended	-5883
▁52	-5884
Ar	-5885
▁scheduled	-5886
ox	-5887
▁transmitted	-5888
▁district	-5889
▁transform	-5890
▁mitig	-5891
istries	-5892
off	-5893
▁pension	-5894
Chair	-5895
ordan	-5896
▁Iraqi	-5897
▁Developing	-5898
▁1998,	-5899
▁atmosphere	-5900
▁publications	-5901
▁situated	-5902
▁owing	-5903
▁attempt	-5904
▁usually	-5905
▁Contracting	-5906
▁Fourth	-5907
▁regularly	-5908
teed	-5909
▁pollution	-5910
ortion	-5911
▁41	-5912
▁Never	-5913
aled	-5914
any	-5915
airo	-5916
▁internally	-5917
▁display	-5918
erted	-5919
▁CO	-5920
▁complainant	-5921
▁perhaps	-5922
▁Ed	-5923
▁changed	-5924
▁thing	-5925
▁Jer	-5926
▁Refugees	-5927
▁executive	-5928
▁testing	-5929
",	-5930
quid	-5931
▁Kaz	-5932
▁Drugs	-5933
▁attrac	-5934
▁assessed	-5935
▁Bangladesh	-5936
▁outer	-5937
▁exclud	-5938
▁Ministerial	-5939
▁allocation	-5940
WA	-5941
/2008	-5942
▁eradication	-5943
▁Direc	-5944
▁competence	-5945
ais	-5946
▁Myanmar	-5947
▁symbol	-5948
sues	-5949
SA	-5950
▁clients	-5951
embourg	-5952
back	-5953
▁believes	-5954
/2007	-5955
▁Char	-5956
▁Que	-5957
▁systematic	-5958
▁occasion	-5959
▁burden	-5960
▁interim	-5961
erce	-5962
▁Model	-5963
▁minim	-5964
aters	-5965
iterran	-5966
/55	-5967
dep	-5968
epal	-5969
rength	-5970
olvency	-5971
▁Imm	-5972
▁charges	-5973
yers	-5974
▁offering	-5975
▁miss	-5976
tivities	-5977
▁mountain	-5978
ault	-5979
▁Ecuador	-5980
▁tot	-5981
SR	-5982
▁devices	-5983
▁Appro	-5984
▁acad	-5985
▁stations	-5986
▁Erit	-5987
▁appears	-5988
▁Move	-5989
▁properly	-5990
▁equitable	-5991
▁empower	-5992
▁image	-5993
▁Mat	-5994
▁Lithuania	-5995
▁designated	-5996
/2005	-5997
▁hoc	-5998
▁fifth	-5999
▁Rome	-6000
▁sections	-6001
▁complaint	-6002
▁46	-6003
/2000	-6004
Commission	-6005
▁formulation	-6006
▁introduce	-6007
▁invite	-6008
▁technological	-6009
ster	-6010
IF	-6011
▁innovation	-6012
▁intensi	-6013
▁tests	-6014
▁mental	-6015
▁telephone	-6016
▁tell	-6017
ography	-6018
ga	-6019
▁Lank	-6020
▁distance	-6021
iciary	-6022
▁Slovenia	-6023
▁helping	-6024
▁confirm	-6025
▁defic	-6026
14	-6027
eav	-6028
iated	-6029
▁device	-6030
13	-6031
70	-6032
▁Indeed	-6033
umption	-6034
▁TIR	-6035
80	-6036
▁Governing	-6037
zed	-6038
▁cul	-6039
▁assigned	-6040
ENT	-6041
▁historical	-6042
▁Calls	-6043
▁phen	-6044
____	-6045
▁ultim	-6046
▁thematic	-6047
▁woman	-6048
yan	-6049
▁charged	-6050
▁Gh	-6051
▁intervention	-6052
▁Open	-6053
▁voc	-6054
▁Sch	-6055
rd	-6056
egro	-6057
▁accounting	-6058
▁facilitating	-6059
▁Maced	-6060
ille	-6061
uction	-6062
ek	-6063
▁Express	-6064
uesday	-6065
▁occurred	-6066
▁dynamic	-6067
▁guaranteed	-6068
▁seriously	-6069
erver	-6070
▁allowing	-6071
aid	-6072
iterranean	-6073
/23	-6074
▁6,	-6075
▁Cer	-6076
▁reading	-6077
▁pleas	-6078
▁Only	-6079
useum	-6080
▁holid	-6081
▁Through	-6082
▁jointly	-6083
▁repeated	-6084
▁nar	-6085
onization	-6086
▁Ear	-6087
▁accommodation	-6088
▁Even	-6089
▁Del	-6090
▁geographical	-6091
CD	-6092
adequ	-6093
avig	-6094
▁breakfast	-6095
ographic	-6096
▁friends	-6097
cents	-6098
▁managed	-6099
▁losses	-6100
▁flows	-6101
▁comfortable	-6102
▁Monten	-6103
▁preparatory	-6104
hibition	-6105
▁(2)	-6106
Pre	-6107
▁Tuesday	-6108
▁campaigns	-6109
▁contem	-6110
tially	-6111
▁reve	-6112
▁embar	-6113
▁obvious	-6114
▁endeav	-6115
iscal	-6116
▁purchase	-6117
terrorism	-6118
▁demonstrated	-6119
▁acceler	-6120
▁journal	-6121
▁command	-6122
▁keeping	-6123
amed	-6124
▁title	-6125
▁IA	-6126
▁identifying	-6127
▁strength	-6128
▁Pur	-6129
▁contributing	-6130
▁Luxembourg	-6131
▁fixed	-6132
▁pilot	-6133
ennial	-6134
iver	-6135
▁larger	-6136
/12	-6137
▁62	-6138
itect	-6139
determination	-6140
▁division	-6141
iques	-6142
▁popular	-6143
umn	-6144
▁Traffic	-6145
▁phenomen	-6146
organiz	-6147
including	-6148
ole	-6149
▁characteristics	-6150
▁deem	-6151
▁TRANS	-6152
▁resumed	-6153
▁Now	-6154
ump	-6155
▁Boliv	-6156
▁LDC	-6157
▁Given	-6158
anges	-6159
sufficient	-6160
▁quarter	-6161
▁hazard	-6162
▁morning	-6163
▁Venezuela	-6164
iri	-6165
▁mine	-6166
▁IP	-6167
alle	-6168
▁fine	-6169
oration	-6170
▁(3	-6171
▁Sri	-6172
▁Dist	-6173
▁adverse	-6174
▁trading	-6175
▁Decade	-6176
▁unac	-6177
ann	-6178
▁Ber	-6179
▁lamp	-6180
▁Encoura	-6181
▁propose	-6182
▁fear	-6183
▁download	-6184
▁Excell	-6185
▁bear	-6186
▁Rica	-6187
▁subjected	-6188
▁ILO	-6189
▁43	-6190
▁inside	-6191
▁supplies	-6192
▁Jordan	-6193
ING	-6194
▁customs	-6195
▁acquis	-6196
pol	-6197
▁thousands	-6198
▁difference	-6199
▁remedies	-6200
▁changing	-6201
▁]	-6202
▁Hol	-6203
enegal	-6204
▁professionals	-6205
▁ep	-6206
▁acceptance	-6207
arks	-6208
▁conclude	-6209
▁immigration	-6210
▁distinc	-6211
▁invitation	-6212
▁covering	-6213
▁UNESCO	-6214
▁Nepal	-6215
▁Society	-6216
atri	-6217
▁achievements	-6218
▁Comb	-6219
gle	-6220
umber	-6221
▁Kazakh	-6222
▁Having	-6223
▁presidency	-6224
▁Montenegro	-6225
▁dedicated	-6226
▁allegations	-6227
▁minister	-6228
indows	-6229
▁surface	-6230
▁map	-6231
ruel	-6232
▁joined	-6233
▁mm	-6234
▁village	-6235
endix	-6236
▁advanced	-6237
Secretary	-6238
▁Tour	-6239
▁acceptable	-6240
▁grate	-6241
▁sets	-6242
▁subsequently	-6243
▁feature	-6244
urning	-6245
quare	-6246
▁Mold	-6247
ommunic	-6248
▁applying	-6249
▁valuable	-6250
fin	-6251
▁seat	-6252
greg	-6253
▁mainstreaming	-6254
▁nationals	-6255
▁Summary	-6256
▁Jud	-6257
▁fisheries	-6258
▁Delegations	-6259
cean	-6260
▁funded	-6261
▁organisations	-6262
rections	-6263
uis	-6264
▁Closed	-6265
▁stable	-6266
like	-6267
▁entity	-6268
/20	-6269
▁sustainability	-6270
▁bul	-6271
▁Cambod	-6272
▁electoral	-6273
item	-6274
ifying	-6275
▁liter	-6276
▁recalled	-6277
▁Sam	-6278
▁Chris	-6279
▁Here	-6280
▁ratify	-6281
▁calling	-6282
BS	-6283
▁simpl	-6284
▁digital	-6285
▁2002-200	-6286
▁celeb	-6287
-8	-6288
▁relatively	-6289
▁fax	-6290
▁coordinate	-6291
▁Integ	-6292
▁mix	-6293
rees	-6294
Leste	-6295
udgets	-6296
▁huge	-6297
▁grateful	-6298
▁experienced	-6299
▁Nevertheless	-6300
▁operate	-6301
▁Lanka	-6302
uls	-6303
▁urge	-6304
▁Macedonia	-6305
▁Angola	-6306
▁hom	-6307
urate	-6308
enophobia	-6309
90	-6310
▁Program	-6311
▁prostitution	-6312
▁)	-6313
▁Slovakia	-6314
▁Statute	-6315
▁Lis	-6316
▁Invest	-6317
▁Principles	-6318
▁friendly	-6319
▁examined	-6320
bek	-6321
▁laid	-6322
ka	-6323
▁directed	-6324
▁performed	-6325
▁pled	-6326
anging	-6327
▁Torture	-6328
▁dispute	-6329
▁lib	-6330
▁secured	-6331
▁love	-6332
▁impacts	-6333
istence	-6334
▁department	-6335
▁societies	-6336
▁Directive	-6337
▁older	-6338
▁hundred	-6339
▁motor	-6340
▁figure	-6341
▁prosecution	-6342
▁Budgetary	-6343
▁juvenile	-6344
▁kept	-6345
▁flexibility	-6346
▁television	-6347
▁Viet	-6348
▁quanti	-6349
▁Universal	-6350
mbuds	-6351
▁nomin	-6352
▁prohibited	-6353
bian	-6354
▁fresh	-6355
hel	-6356
▁Mul	-6357
Al	-6358
▁acced	-6359
▁Guide	-6360
▁disabled	-6361
▁increases	-6362
▁volume	-6363
▁inadequ	-6364
▁Kh	-6365
▁School	-6366
▁abroad	-6367
▁Montreal	-6368
▁south	-6369
OL	-6370
▁7,	-6371
▁shel	-6372
▁heads	-6373
▁OHCHR	-6374
▁screen	-6375
▁highlight	-6376
igence	-6377
▁suitable	-6378
▁grave	-6379
▁preventive	-6380
▁gap	-6381
missible	-6382
▁hoped	-6383
▁letters	-6384
▁Issues	-6385
Euro	-6386
▁rich	-6387
▁periods	-6388
▁defend	-6389
▁disposal	-6390
onial	-6391
▁Kazakhstan	-6392
▁travell	-6393
▁upgra	-6394
roc	-6395
▁marked	-6396
▁humanity	-6397
▁OECD	-6398
▁composition	-6399
▁object	-6400
▁treated	-6401
▁div	-6402
▁pain	-6403
▁emission	-6404
▁overcome	-6405
▁endorse	-6406
hors	-6407
▁equivalent	-6408
▁Turkish	-6409
▁compromise	-6410
▁topics	-6411
▁Again	-6412
▁platform	-6413
▁Barb	-6414
▁circulated	-6415
▁helped	-6416
▁legally	-6417
▁facts	-6418
▁outlined	-6419
▁pra	-6420
▁seminar	-6421
▁Rest	-6422
▁finally	-6423
▁Island	-6424
rene	-6425
usalem	-6426
▁hor	-6427
▁constitutes	-6428
▁soldi	-6429
▁FAO	-6430
▁Youth	-6431
▁Ibid	-6432
▁balanced	-6433
▁Nic	-6434
▁heavy	-6435
▁constraints	-6436
▁corresponding	-6437
▁Senegal	-6438
▁pages	-6439
▁Tunisia	-6440
rown	-6441
sidential	-6442
/60	-6443
▁Movement	-6444
rates	-6445
▁seminars	-6446
ocide	-6447
▁storage	-6448
▁killed	-6449
▁productive	-6450
93	-6451
▁Assessment	-6452
▁uns	-6453
▁aspect	-6454
encing	-6455
lot	-6456
/11	-6457
being	-6458
▁congratulate	-6459
iplinary	-6460
▁$3	-6461
▁teaching	-6462
conflict	-6463
▁fish	-6464
▁interview	-6465
ales	-6466
rator	-6467
▁unf	-6468
▁inequ	-6469
▁largely	-6470
▁sav	-6471
▁homes	-6472
▁2004-200	-6473
▁Both	-6474
Th	-6475
asts	-6476
▁expanded	-6477
DF	-6478
geting	-6479
omb	-6480
▁Taking	-6481
essional	-6482
CA	-6483
▁producers	-6484
▁models	-6485
▁multiple	-6486
▁incen	-6487
▁passed	-6488
▁Jerusalem	-6489
▁sides	-6490
▁settlements	-6491
▁Team	-6492
▁assisting	-6493
▁decrease	-6494
▁architect	-6495
▁Salv	-6496
▁insufficient	-6497
▁Arabia	-6498
osystem	-6499
▁Process	-6500
▁Eritrea	-6501
▁unilateral	-6502
ussels	-6503
▁Expert	-6504
▁custody	-6505
▁Organ	-6506
▁impunity	-6507
▁provincial	-6508
▁Once	-6509
agues	-6510
▁ign	-6511
eff	-6512
▁disability	-6513
▁Activities	-6514
▁abol	-6515
▁Domin	-6516
ijing	-6517
▁Italian	-6518
▁arti	-6519
emen	-6520
▁Palestinians	-6521
▁201	-6522
atar	-6523
▁Similar	-6524
▁Preparatory	-6525
▁transportation	-6526
▁Occ	-6527
▁Accordingly	-6528
down	-6529
▁Guidelines	-6530
missions	-6531
▁Inte	-6532
▁Notes	-6533
▁Tanz	-6534
▁hol	-6535
▁prompt	-6536
aundering	-6537
▁historic	-6538
▁destroy	-6539
▁born	-6540
▁satellite	-6541
omet	-6542
▁sanitation	-6543
▁Moldova	-6544
▁Ve	-6545
atible	-6546
ago	-6547
▁convened	-6548
▁returned	-6549
▁reception	-6550
astic	-6551
▁assign	-6552
▁serving	-6553
advant	-6554
▁covers	-6555
▁Customs	-6556
▁capable	-6557
ulates	-6558
▁wood	-6559
▁transferred	-6560
▁authors	-6561
▁Tog	-6562
ores	-6563
▁reb	-6564
TE	-6565
▁north	-6566
▁foster	-6567
▁generation	-6568
▁judiciary	-6569
▁Constitutional	-6570
▁Sol	-6571
▁raising	-6572
no	-6573
pir	-6574
▁1.	-6575
▁felt	-6576
▁Right	-6577
▁reflects	-6578
▁southern	-6579
▁techniques	-6580
▁lasting	-6581
ona	-6582
▁equally	-6583
▁remote	-6584
▁competitiveness	-6585
▁inspection	-6586
Signed	-6587
▁counsel	-6588
▁Christ	-6589
▁sensitive	-6590
▁GR	-6591
▁cell	-6592
▁Im	-6593
▁2006-200	-6594
▁currency	-6595
▁manifest	-6596
ugg	-6597
▁hearing	-6598
▁advocacy	-6599
auriti	-6600
▁temperature	-6601
▁consultative	-6602
ani	-6603
cession	-6604
▁stra	-6605
▁summer	-6606
▁greatest	-6607
▁reliable	-6608
▁pp	-6609
▁Camer	-6610
▁governmental	-6611
ondon	-6612
▁perpetrators	-6613
▁curric	-6614
des	-6615
▁interventions	-6616
▁adopting	-6617
▁explicit	-6618
mbudsman	-6619
inter	-6620
▁Mediterranean	-6621
▁insolvency	-6622
▁summit	-6623
▁track	-6624
▁Measures	-6625
▁Strengthen	-6626
▁stim	-6627
stein	-6628
▁wa	-6629
▁permitted	-6630
▁indirect	-6631
▁2.	-6632
▁Bec	-6633
:00	-6634
▁explained	-6635
▁Standard	-6636
▁danger	-6637
gement	-6638
ATION	-6639
▁dimension	-6640
DI	-6641
▁consolidated	-6642
quiry	-6643
▁pas	-6644
iversary	-6645
▁Armenia	-6646
▁disputes	-6647
▁programming	-6648
▁suffered	-6649
sign	-6650
▁tradition	-6651
▁observer	-6652
hr	-6653
▁motion	-6654
▁Dr	-6655
▁Employment	-6656
▁divid	-6657
▁prejud	-6658
▁Beijing	-6659
▁Coll	-6660
raising	-6661
▁disadvant	-6662
kers	-6663
▁cease	-6664
▁Your	-6665
pread	-6666
▁demonstrate	-6667
▁chec	-6668
▁detained	-6669
▁frameworks	-6670
auc	-6671
▁Det	-6672
▁fraud	-6673
idespread	-6674
haust	-6675
▁prevail	-6676
ront	-6677
▁exped	-6678
▁Lisbon	-6679
▁illust	-6680
▁Uz	-6681
▁goes	-6682
▁decline	-6683
▁Additional	-6684
▁ahead	-6685
▁reply	-6686
boundary	-6687
▁famous	-6688
▁conting	-6689
arag	-6690
called	-6691
▁exact	-6692
anged	-6693
▁texts	-6694
▁Cambodia	-6695
▁rejected	-6696
▁migrant	-6697
▁Salvador	-6698
DR	-6699
▁verification	-6700
▁Peoples	-6701
▁ourselves	-6702
▁LDCs	-6703
▁stream	-6704
rip	-6705
osen	-6706
AF	-6707
▁neither	-6708
ruct	-6709
▁fiscal	-6710
▁wished	-6711
PC	-6712
▁minors	-6713
▁Data	-6714
▁Tanzania	-6715
▁Sixty	-6716
ruguay	-6717
▁barriers	-6718
▁fruit	-6719
▁devoted	-6720
▁focusing	-6721
▁trib	-6722
▁opposition	-6723
ita	-6724
ulsory	-6725
▁capabilities	-6726
▁species	-6727
▁broader	-6728
abil	-6729
▁Kyoto	-6730
▁pending	-6731
▁gard	-6732
urb	-6733
auritius	-6734
▁qualified	-6735
▁noting	-6736
gressive	-6737
▁confidenti	-6738
▁Latvia	-6739
▁Brussels	-6740
dam	-6741
▁refers	-6742
▁safeguards	-6743
▁Annual	-6744
-7	-6745
▁season	-6746
▁preparations	-6747
ented	-6748
▁Cop	-6749
▁Industry	-6750
▁instructions	-6751
▁Recognizing	-6752
▁bearing	-6753
▁1993	-6754
Pro	-6755
▁succeed	-6756
▁nearly	-6757
▁successfully	-6758
▁style	-6759
▁Institution	-6760
fers	-6761
▁Di	-6762
▁sponsors	-6763
▁Concern	-6764
▁flexible	-6765
inces	-6766
▁officer	-6767
▁Penal	-6768
▁explore	-6769
▁Ice	-6770
▁trying	-6771
▁Church	-6772
▁Forces	-6773
▁Defence	-6774
race	-6775
▁cance	-6776
apore	-6777
▁Ap	-6778
MO	-6779
dered	-6780
orient	-6781
▁facility	-6782
▁chain	-6783
▁representing	-6784
▁interpre	-6785
/64	-6786
▁liquid	-6787
▁IAEA	-6788
▁colour	-6789
▁Science	-6790
ester	-6791
RAL	-6792
▁List	-6793
▁Legisl	-6794
▁75	-6795
▁input	-6796
▁convinced	-6797
▁Secondly	-6798
▁widespread	-6799
▁Us	-6800
▁internet	-6801
acro	-6802
▁envisaged	-6803
awa	-6804
▁Rad	-6805
▁deliberations	-6806
▁colleagues	-6807
▁anticip	-6808
▁province	-6809
IOS	-6810
▁Strategic	-6811
▁vulnerability	-6812
▁underst	-6813
▁coordinating	-6814
▁Access	-6815
▁merc	-6816
ecommunic	-6817
onomy	-6818
▁Uzbek	-6819
▁union	-6820
lation	-6821
taining	-6822
▁recognizes	-6823
▁considerations	-6824
▁conservation	-6825
ato	-6826
▁resist	-6827
▁client	-6828
▁wider	-6829
▁exhaust	-6830
▁customer	-6831
▁adver	-6832
▁1997,	-6833
▁adolescents	-6834
▁Racial	-6835
aso	-6836
▁oversight	-6837
▁consists	-6838
▁Relations	-6839
▁marginal	-6840
▁hands	-6841
President	-6842
SE	-6843
oul	-6844
▁exceptional	-6845
TION	-6846
▁images	-6847
▁undertaking	-6848
▁Green	-6849
illa	-6850
Am	-6851
esty	-6852
▁Comprehensive	-6853
▁buildings	-6854
losure	-6855
▁Consideration	-6856
▁COP	-6857
▁(4	-6858
▁Il	-6859
▁carefully	-6860
▁becomes	-6861
▁VI	-6862
▁deposit	-6863
▁consc	-6864
-199	-6865
▁weight	-6866
▁manufacturer	-6867
▁walk	-6868
▁moving	-6869
▁marketing	-6870
rey	-6871
▁fast	-6872
MP	-6873
▁Ghana	-6874
▁description	-6875
▁employed	-6876
▁finding	-6877
reatment	-6878
▁Jam	-6879
scale	-6880
▁incur	-6881
▁liberty	-6882
tes	-6883
▁scheme	-6884
▁define	-6885
▁dro	-6886
▁Anti	-6887
▁arrested	-6888
rance	-6889
▁NO	-6890
reprene	-6891
▁dom	-6892
▁decade	-6893
▁Corr	-6894
▁bad	-6895
▁engagement	-6896
zone	-6897
▁correspond	-6898
▁Change	-6899
Europe	-6900
▁warning	-6901
▁Finance	-6902
▁UNO	-6903
▁withdrawal	-6904
▁Heads	-6905
▁Corpor	-6906
▁bus	-6907
reak	-6908
ira	-6909
▁Coordinator	-6910
▁papers	-6911
▁punish	-6912
▁Before	-6913
anim	-6914
▁ST	-6915
▁hun	-6916
▁orders	-6917
ertification	-6918
▁relevance	-6919
ena	-6920
▁Among	-6921
▁oral	-6922
una	-6923
▁les	-6924
▁condemn	-6925
chen	-6926
▁drive	-6927
water	-6928
▁ey	-6929
▁Country	-6930
▁Mauritius	-6931
▁closer	-6932
▁eligible	-6933
▁airport	-6934
▁schedule	-6935
orough	-6936
▁lists	-6937
▁continuous	-6938
▁1999.	-6939
▁Account	-6940
▁Excellency	-6941
--	-6942
▁duration	-6943
matic	-6944
Ter	-6945
▁soldiers	-6946
▁Elect	-6947
uster	-6948
▁indicates	-6949
▁forthcoming	-6950
cel	-6951
▁ecosystem	-6952
▁continent	-6953
sen	-6954
▁belonging	-6955
▁installation	-6956
▁Road	-6957
▁imped	-6958
LE	-6959
ette	-6960
▁parliamentary	-6961
▁Lebanese	-6962
▁Occup	-6963
▁intolerance	-6964
▁receip	-6965
▁London	-6966
▁running	-6967
urban	-6968
▁pan	-6969
naire	-6970
▁immig	-6971
▁incidents	-6972
▁imper	-6973
▁strug	-6974
▁subparagraph	-6975
▁proliferation	-6976
▁focal	-6977
▁execution	-6978
▁Stock	-6979
/24	-6980
▁enterprise	-6981
▁9,	-6982
▁trained	-6983
acing	-6984
ré	-6985
oa	-6986
▁subprogramme	-6987
▁discharge	-6988
▁reaffirmed	-6989
▁labor	-6990
▁sun	-6991
▁street	-6992
▁himself	-6993
▁anniversary	-6994
▁Uruguay	-6995
▁John	-6996
ensions	-6997
.2.	-6998
▁Planning	-6999
under	-7000
▁supervision	-7001
▁Representatives	-7002
▁Welcomes	-7003
▁Tel	-7004
▁integrate	-7005
orand	-7006
▁Within	-7007
▁stages	-7008
▁tend	-7009
▁industries	-7010
▁Estonia	-7011
▁guard	-7012
orandum	-7013
pped	-7014
▁Malta	-7015
▁disag	-7016
▁63	-7017
▁Bu	-7018
▁sil	-7019
▁roles	-7020
▁candidate	-7021
▁Amendment	-7022
▁suggestions	-7023
▁Cameroon	-7024
▁managers	-7025
▁heritage	-7026
▁impar	-7027
▁print	-7028
omp	-7029
rooms	-7030
▁deterior	-7031
▁300	-7032
abwe	-7033
▁guest	-7034
▁tolerance	-7035
▁8,	-7036
▁encoun	-7037
agency	-7038
acted	-7039
▁nutrition	-7040
SG	-7041
ker	-7042
imbabwe	-7043
▁drawing	-7044
count	-7045
▁Counter	-7046
▁beg	-7047
▁Reports	-7048
▁conj	-7049
ensive	-7050
▁adaptation	-7051
.1)	-7052
▁interesting	-7053
▁probably	-7054
▁Assistant	-7055
▁Off	-7056
▁Ke	-7057
▁Peacebuilding	-7058
▁reiterated	-7059
▁ON	-7060
▁budgets	-7061
▁Recommendation	-7062
▁arbitrary	-7063
▁fer	-7064
▁measured	-7065
▁acquisition	-7066
▁Transition	-7067
▁chemicals	-7068
▁CON	-7069
zz	-7070
uries	-7071
▁troops	-7072
▁understood	-7073
lantic	-7074
▁sports	-7075
▁conducting	-7076
▁critic	-7077
▁door	-7078
/25	-7079
entials	-7080
▁inadequate	-7081
▁Iceland	-7082
▁decades	-7083
▁Nat	-7084
▁methodology	-7085
▁removed	-7086
▁flag	-7087
▁automatically	-7088
▁estate	-7089
21	-7090
▁biological	-7091
▁Based	-7092
▁father	-7093
▁reti	-7094
▁desire	-7095
▁citizen	-7096
rap	-7097
▁chosen	-7098
▁camps	-7099
▁14,	-7100
▁Gen	-7101
An	-7102
CCC	-7103
▁declar	-7104
▁exclusion	-7105
▁collected	-7106
amaica	-7107
outi	-7108
▁Climate	-7109
▁exists	-7110
▁organize	-7111
kina	-7112
▁Albania	-7113
airobi	-7114
▁inclusive	-7115
▁vessels	-7116
cl	-7117
▁fighting	-7118
▁Singapore	-7119
▁reaching	-7120
▁IT	-7121
▁investigate	-7122
▁symp	-7123
▁prop	-7124
▁Conventions	-7125
▁Professional	-7126
▁Hel	-7127
▁determining	-7128
▁000	-7129
▁scen	-7130
▁Prac	-7131
pd	-7132
▁Bet	-7133
▁Cross	-7134
▁1992	-7135
▁adjustment	-7136
BI	-7137
▁fees	-7138
liers	-7139
▁Journal	-7140
▁mobile	-7141
rating	-7142
▁Sixth	-7143
▁mobilization	-7144
PL	-7145
▁Chad	-7146
▁notification	-7147
▁spent	-7148
▁Zimbabwe	-7149
▁compulsory	-7150
oked	-7151
SS	-7152
▁requiring	-7153
▁explanation	-7154
▁visited	-7155
▁feas	-7156
▁WHO	-7157
ihood	-7158
inations	-7159
▁Faso	-7160
▁Ombudsman	-7161
▁says	-7162
▁formed	-7163
▁Quebec	-7164
▁remove	-7165
▁functional	-7166
▁newly	-7167
▁Class	-7168
▁savings	-7169
▁went	-7170
▁enlargement	-7171
aires	-7172
▁Pa	-7173
▁connected	-7174
yp	-7175
▁%	-7176
▁replaced	-7177
▁asset	-7178
onds	-7179
▁announce	-7180
▁1373	-7181
band	-7182
▁Pat	-7183
91	-7184
porters	-7185
▁hospit	-7186
▁Chemical	-7187
▁addresses	-7188
▁integral	-7189
▁Id	-7190
▁controlled	-7191
▁pill	-7192
▁seeks	-7193
oha	-7194
▁combination	-7195
▁Integrated	-7196
▁driving	-7197
▁respected	-7198
▁Committees	-7199
igure	-7200
olf	-7201
▁Reaffirming	-7202
▁promoted	-7203
▁unanim	-7204
▁Sit	-7205
▁adults	-7206
▁Nairobi	-7207
discrimination	-7208
▁rose	-7209
▁tables	-7210
acity	-7211
▁objection	-7212
▁vocational	-7213
▁showed	-7214
▁composed	-7215
▁GDP	-7216
▁Sign	-7217
▁impossible	-7218
▁Urges	-7219
▁UNAM	-7220
▁beach	-7221
estiv	-7222
▁Lo	-7223
hips	-7224
▁Bolivia	-7225
▁subjects	-7226
▁distingu	-7227
ray	-7228
▁moral	-7229
▁productivity	-7230
▁transmission	-7231
▁Because	-7232
▁witnesses	-7233
▁gather	-7234
▁posed	-7235
▁Nicarag	-7236
▁greatly	-7237
▁NE	-7238
▁municipal	-7239
▁1991	-7240
▁entirely	-7241
▁thorough	-7242
▁tom	-7243
udes	-7244
aired	-7245
▁slight	-7246
zation	-7247
▁“(	-7248
▁Establ	-7249
▁kil	-7250
isons	-7251
▁extradition	-7252
IK	-7253
▁uniform	-7254
▁Body	-7255
▁neighbouring	-7256
atever	-7257
▁aqu	-7258
/60/	-7259
▁Pursu	-7260
▁saying	-7261
▁Free	-7262
treatment	-7263
▁accompanied	-7264
▁remind	-7265
26	-7266
▁Against	-7267
▁shipp	-7268
▁certificate	-7269
▁email	-7270
▁Source	-7271
▁500	-7272
▁privacy	-7273
▁Les	-7274
▁Press	-7275
▁UNIF	-7276
95	-7277
▁regardless	-7278
specific	-7279
▁wanted	-7280
▁agents	-7281
▁chance	-7282
▁Military	-7283
border	-7284
/18	-7285
▁coherence	-7286
▁translation	-7287
▁Franc	-7288
TM	-7289
▁terrorists	-7290
▁porn	-7291
▁fellow	-7292
▁administer	-7293
CON	-7294
▁ben	-7295
▁Uzbekistan	-7296
▁apparent	-7297
▁prohibition	-7298
▁middle	-7299
▁truly	-7300
prise	-7301
▁Qatar	-7302
avigation	-7303
▁phenomenon	-7304
▁Southern	-7305
▁Rev	-7306
obilization	-7307
▁Provisional	-7308
▁excessive	-7309
▁forests	-7310
▁boys	-7311
▁cas	-7312
▁detainees	-7313
▁resolved	-7314
▁tried	-7315
▁reproduced	-7316
▁mandatory	-7317
▁forums	-7318
allel	-7319
ongol	-7320
/16	-7321
tory	-7322
▁Sy	-7323
▁sport	-7324
▁introducing	-7325
▁fill	-7326
▁expresses	-7327
▁wonder	-7328
iodiversity	-7329
▁Are	-7330
▁Field	-7331
earing	-7332
▁inhuman	-7333
▁plants	-7334
posed	-7335
▁collect	-7336
serv	-7337
▁Communications	-7338
▁prosper	-7339
FP	-7340
fire	-7341
oured	-7342
roduction	-7343
▁evaluate	-7344
▁inhab	-7345
locked	-7346
▁talks	-7347
rich	-7348
44	-7349
▁Industrial	-7350
▁psychological	-7351
▁Statements	-7352
▁Impro	-7353
rup	-7354
▁providers	-7355
▁isol	-7356
▁Rem	-7357
▁box	-7358
▁hos	-7359
▁OIOS	-7360
▁possibilities	-7361
▁Observer	-7362
tenstein	-7363
▁mas	-7364
▁stat	-7365
▁modalities	-7366
▁crises	-7367
▁ministries	-7368
▁quot	-7369
▁2008-200	-7370
inery	-7371
issau	-7372
▁Yemen	-7373
can	-7374
▁provinces	-7375
▁wishing	-7376
▁brid	-7377
▁Poverty	-7378
▁click	-7379
▁Current	-7380
▁Pursuant	-7381
▁citizenship	-7382
▁draf	-7383
oo	-7384
▁(2001)	-7385
▁equity	-7386
▁progressive	-7387
▁center	-7388
▁dry	-7389
▁stocks	-7390
▁deemed	-7391
▁privile	-7392
oe	-7393
▁distinction	-7394
echtenstein	-7395
▁Sk	-7396
▁voice	-7397
▁players	-7398
▁65	-7399
▁waters	-7400
▁speaker	-7401
▁Burkina	-7402
▁leader	-7403
emy	-7404
▁cat	-7405
▁gr	-7406
otal	-7407
▁Tal	-7408
▁rational	-7409
▁prescribed	-7410
net	-7411
▁decides	-7412
▁explor	-7413
iences	-7414
▁aged	-7415
▁manual	-7416
sibly	-7417
▁unaccept	-7418
fit	-7419
▁spending	-7420
▁Hond	-7421
▁northern	-7422
▁appeals	-7423
▁gaps	-7424
▁nice	-7425
▁contacts	-7426
▁inventory	-7427
18	-7428
▁evol	-7429
▁powerful	-7430
▁acknowledged	-7431
▁Date	-7432
▁movements	-7433
▁zones	-7434
▁presents	-7435
▁deaths	-7436
▁Spe	-7437
▁Indian	-7438
▁questionnaire	-7439
burse	-7440
▁Cas	-7441
▁Lim	-7442
▁dism	-7443
▁embargo	-7444
▁anything	-7445
▁classification	-7446
▁locations	-7447
▁Bal	-7448
▁Muslim	-7449
ext	-7450
▁remedy	-7451
▁Sah	-7452
▁procedural	-7453
▁dimensions	-7454
▁vary	-7455
▁modified	-7456
▁sixth	-7457
▁carbon	-7458
TAR	-7459
COM	-7460
▁bill	-7461
▁Freed	-7462
reek	-7463
▁frequently	-7464
▁requesting	-7465
▁expos	-7466
erend	-7467
▁signing	-7468
▁negotiation	-7469
▁conjunction	-7470
▁objects	-7471
▁Auditors	-7472
▁rapidly	-7473
▁Jamaica	-7474
▁wealth	-7475
▁xenophobia	-7476
itious	-7477
oll	-7478
▁resort	-7479
ONUC	-7480
▁healthy	-7481
▁Statement	-7482
▁believed	-7483
rian	-7484
DAW	-7485
▁sus	-7486
▁reinforce	-7487
▁depending	-7488
'.	-7489
▁mov	-7490
▁truth	-7491
▁1996,	-7492
▁hyd	-7493
▁accomplish	-7494
▁wall	-7495
.29	-7496
▁wal	-7497
▁ton	-7498
▁Zambia	-7499
▁Center	-7500
▁premises	-7501
table	-7502
1),	-7503
aut	-7504
▁Har	-7505
▁square	-7506
▁Anal	-7507
En	-7508
24	-7509
▁households	-7510
▁firms	-7511
▁Contrib	-7512
▁harmonization	-7513
▁phone	-7514
▁Cal	-7515
▁motiv	-7516
▁relationships	-7517
oriented	-7518
▁manufacturing	-7519
▁Market	-7520
cepts	-7521
▁talk	-7522
▁installed	-7523
xic	-7524
▁transfers	-7525
▁dia	-7526
▁contents	-7527
▁uncertain	-7528
wan	-7529
▁mandated	-7530
▁compil	-7531
/15	-7532
ordinary	-7533
▁removal	-7534
▁involves	-7535
▁disappear	-7536
▁OS	-7537
▁anyone	-7538
▁carrier	-7539
▁Alliance	-7540
▁ordinary	-7541
▁empowerment	-7542
▁ended	-7543
▁ministerial	-7544
▁discriminatory	-7545
▁Pun	-7546
▁overview	-7547
▁expectations	-7548
▁violated	-7549
▁Similarly	-7550
................	-7551
uck	-7552
gue	-7553
▁rape	-7554
▁Moz	-7555
uling	-7556
pper	-7557
▁seats	-7558
▁occas	-7559
▁depart	-7560
▁Investment	-7561
VI	-7562
▁cult	-7563
▁mines	-7564
▁Encourages	-7565
▁dil	-7566
ructuring	-7567
▁Doha	-7568
▁Vis	-7569
▁lies	-7570
▁Taj	-7571
▁discover	-7572
67	-7573
▁AC	-7574
▁Back	-7575
▁Enter	-7576
▁academic	-7577
itizens	-7578
▁Ham	-7579
▁bott	-7580
▁kit	-7581
▁Question	-7582
▁contemporary	-7583
gi	-7584
▁150	-7585
▁brand	-7586
▁renewable	-7587
UL	-7588
▁Independent	-7589
▁foundation	-7590
▁mail	-7591
▁(“	-7592
arming	-7593
▁enorm	-7594
▁parame	-7595
ceptions	-7596
▁Treatment	-7597
▁son	-7598
sile	-7599
▁Tor	-7600
▁Liechtenstein	-7601
rog	-7602
enger	-7603
iar	-7604
▁catal	-7605
▁appreciate	-7606
uff	-7607
ensing	-7608
▁accordingly	-7609
▁dup	-7610
és	-7611
▁ut	-7612
▁21,	-7613
lawful	-7614
▁Oversight	-7615
▁pour	-7616
▁master	-7617
ancies	-7618
▁decentral	-7619
/17	-7620
17	-7621
▁Emerg	-7622
uras	-7623
teen	-7624
▁Lastly	-7625
▁merely	-7626
▁publish	-7627
▁freely	-7628
▁Consequently	-7629
▁Inf	-7630
▁transaction	-7631
▁parallel	-7632
▁adequately	-7633
▁reserve	-7634
▁maritime	-7635
son	-7636
▁Nicaragua	-7637
▁surveys	-7638
inated	-7639
.2.1	-7640
▁SME	-7641
▁Decree	-7642
versities	-7643
▁consolidation	-7644
dation	-7645
▁drew	-7646
▁beings	-7647
▁entreprene	-7648
▁NPT	-7649
▁glo	-7650
▁driver	-7651
vation	-7652
sess	-7653
ulsion	-7654
▁TO	-7655
orig	-7656
▁soil	-7657
▁taxes	-7658
angible	-7659
▁notably	-7660
▁volunte	-7661
▁Post	-7662
iaison	-7663
ariff	-7664
▁PC	-7665
▁vast	-7666
▁helpful	-7667
fe	-7668
▁Advance	-7669
▁restricted	-7670
▁coherent	-7671
▁Prior	-7672
PE	-7673
.00	-7674
▁UK	-7675
▁entrust	-7676
▁black	-7677
▁Unfortunately	-7678
▁Region	-7679
▁WP	-7680
▁rig	-7681
▁tes	-7682
ested	-7683
overed	-7684
▁unacceptable	-7685
▁monthly	-7686
Bissau	-7687
oned	-7688
▁Libyan	-7689
▁Mali	-7690
▁que	-7691
▁schemes	-7692
State	-7693
appro	-7694
▁grants	-7695
▁Recommendations	-7696
1).	-7697
▁receipt	-7698
▁League	-7699
▁ou	-7700
▁maternal	-7701
▁recru	-7702
▁Violence	-7703
▁select	-7704
▁financed	-7705
▁sample	-7706
▁destination	-7707
▁measurement	-7708
known	-7709
European	-7710
ribunals	-7711
▁Takes	-7712
▁parking	-7713
▁remarks	-7714
▁Benin	-7715
▁saw	-7716
▁hotels	-7717
▁relate	-7718
▁managing	-7719
▁suffer	-7720
▁Stress	-7721
▁macro	-7722
▁coal	-7723
▁Articles	-7724
▁speech	-7725
▁spect	-7726
▁mur	-7727
rgy	-7728
▁opinions	-7729
▁male	-7730
factory	-7731
▁bit	-7732
▁breach	-7733
plan	-7734
▁hazardous	-7735
ura	-7736
hat	-7737
▁filed	-7738
acement	-7739
▁CC	-7740
▁dates	-7741
▁Windows	-7742
▁picture	-7743
ibia	-7744
erendum	-7745
▁career	-7746
▁harmful	-7747
▁army	-7748
▁subsidies	-7749
▁regarded	-7750
▁Local	-7751
valuation	-7752
▁deprived	-7753
▁mist	-7754
change	-7755
▁Communication	-7756
▁possession	-7757
▁Contin	-7758
▁Equality	-7759
▁Incre	-7760
▁injury	-7761
▁diver	-7762
aves	-7763
BC	-7764
▁cruel	-7765
▁imports	-7766
rgyz	-7767
▁revenue	-7768
▁negotiating	-7769
▁hum	-7770
▁millions	-7771
▁visitors	-7772
missibility	-7773
usp	-7774
▁Proc	-7775
▁ESC	-7776
▁Jean	-7777
▁begun	-7778
▁Statistical	-7779
▁houses	-7780
▁generate	-7781
▁handling	-7782
▁entail	-7783
▁Mig	-7784
fri	-7785
▁renewed	-7786
▁annually	-7787
▁adhe	-7788
loy	-7789
▁organic	-7790
▁dependent	-7791
pping	-7792
▁root	-7793
Office	-7794
▁Acting	-7795
▁CH	-7796
Terrorism	-7797
▁tenth	-7798
▁clarify	-7799
▁employers	-7800
itive	-7801
ashing	-7802
▁incorporate	-7803
▁Occupied	-7804
ahiri	-7805
▁plus	-7806
▁happy	-7807
XX	-7808
▁generated	-7809
▁depends	-7810
▁safeguard	-7811
▁cro	-7812
▁aband	-7813
▁Swiss	-7814
ken	-7815
▁counsell	-7816
▁Tajik	-7817
lder	-7818
▁assume	-7819
▁incident	-7820
▁invites	-7821
tile	-7822
▁River	-7823
▁arise	-7824
▁$4	-7825
▁tomorrow	-7826
▁repatri	-7827
iaries	-7828
▁lif	-7829
▁allev	-7830
▁interaction	-7831
▁packages	-7832
▁Greek	-7833
▁looks	-7834
▁monetary	-7835
▁Armed	-7836
▁mobility	-7837
▁domin	-7838
▁formulated	-7839
▁transnational	-7840
▁Jamahiri	-7841
Re	-7842
▁je	-7843
▁bench	-7844
▁transitional	-7845
▁3.	-7846
▁Mart	-7847
▁applicant	-7848
▁cultures	-7849
▁Jamahiriya	-7850
▁Adviser	-7851
PS	-7852
▁Terrorism	-7853
duct	-7854
▁Inn	-7855
titudes	-7856
▁conventional	-7857
▁penalties	-7858
▁film	-7859
▁getting	-7860
▁lux	-7861
TI	-7862
▁playing	-7863
▁Dj	-7864
▁poore	-7865
▁deeply	-7866
depend	-7867
▁carriage	-7868
▁RE	-7869
▁Park	-7870
▁standing	-7871
▁restaurants	-7872
▁Don	-7873
mental	-7874
▁acknowledge	-7875
▁restra	-7876
▁seed	-7877
▁Platform	-7878
▁Emphas	-7879
▁hal	-7880
▁leaving	-7881
▁Sales	-7882
▁white	-7883
▁suppliers	-7884
▁judgement	-7885
84	-7886
▁calculated	-7887
▁Mc	-7888
▁lawyers	-7889
▁Mongol	-7890
▁classes	-7891
▁protocols	-7892
OPS	-7893
bert	-7894
▁COM	-7895
▁diversi	-7896
94	-7897
▁putting	-7898
jo	-7899
▁attempts	-7900
▁council	-7901
oss	-7902
▁certification	-7903
▁cr	-7904
▁predict	-7905
minent	-7906
▁degradation	-7907
▁Contents	-7908
Par	-7909
▁Standards	-7910
92	-7911
osi	-7912
▁assessing	-7913
za	-7914
iro	-7915
▁club	-7916
▁save	-7917
▁Camp	-7918
▁photo	-7919
▁Strengthening	-7920
▁Kar	-7921
▁Ir	-7922
CONF	-7923
▁accurate	-7924
▁Company	-7925
▁drop	-7926
olonization	-7927
arco	-7928
icing	-7929
▁Election	-7930
▁quiet	-7931
▁Number	-7932
▁summar	-7933
▁Christian	-7934
▁Monetary	-7935
lements	-7936
▁Invites	-7937
▁Bi	-7938
▁stronger	-7939
ados	-7940
ids	-7941
atories	-7942
▁advancement	-7943
▁harass	-7944
▁Transitional	-7945
▁earth	-7946
▁Tax	-7947
ami	-7948
▁Arabic	-7949
▁coastal	-7950
▁Protocols	-7951
83	-7952
▁organizing	-7953
▁roll	-7954
▁impose	-7955
▁warrant	-7956
▁wine	-7957
▁Developed	-7958
▁inhabit	-7959
▁arrangement	-7960
▁diam	-7961
▁signs	-7962
▁prejudice	-7963
▁stands	-7964
▁rob	-7965
unch	-7966
▁absolutely	-7967
87	-7968
zing	-7969
▁aggression	-7970
▁normally	-7971
▁denied	-7972
▁proof	-7973
▁1995,	-7974
▁Kyrgyz	-7975
▁relates	-7976
▁operators	-7977
sized	-7978
8),	-7979
▁Order	-7980
”;	-7981
▁occupying	-7982
/14	-7983
illance	-7984
▁Reduction	-7985
▁proved	-7986
▁preserve	-7987
GR	-7988
▁10,	-7989
▁utilization	-7990
▁assisted	-7991
reach	-7992
▁sensi	-7993
▁Es	-7994
▁rou	-7995
▁cancell	-7996
▁claimed	-7997
▁credibility	-7998
▁biodiversity	-7999
▁stead	-8000
▁Yet	-8001
▁anc	-8002
usion	-8003
imming	-8004
rupt	-8005
16	-8006
▁Grand	-8007
▁Natural	-8008
▁neighb	-8009
▁hot	-8010
▁concepts	-8011
▁arrival	-8012
▁machinery	-8013
▁favourable	-8014
▁told	-8015
▁correction	-8016
▁prospects	-8017
▁Earth	-8018
▁ISO	-8019
▁Regarding	-8020
▁underlying	-8021
▁AM	-8022
▁pursued	-8023
▁Culture	-8024
27	-8025
▁acquired	-8026
kind	-8027
▁Super	-8028
▁ratio	-8029
▁degrading	-8030
▁interactive	-8031
▁necessarily	-8032
▁pertaining	-8033
board	-8034
▁Panama	-8035
▁Dominican	-8036
tising	-8037
▁Av	-8038
▁Outer	-8039
▁(5	-8040
▁holiday	-8041
▁epid	-8042
▁easier	-8043
▁recall	-8044
▁EM	-8045
▁ministers	-8046
▁fle	-8047
abin	-8048
/58/	-8049
arms	-8050
▁MDG	-8051
▁limitations	-8052
▁reviewing	-8053
point	-8054
ysis	-8055
▁hunger	-8056
▁exclusively	-8057
▁animal	-8058
▁diverse	-8059
▁Corrections	-8060
ocs	-8061
▁restructuring	-8062
▁animals	-8063
▁meant	-8064
DS	-8065
▁unity	-8066
▁liable	-8067
37	-8068
reto	-8069
▁hour	-8070
▁enormous	-8071
▁sentenced	-8072
umer	-8073
erican	-8074
▁earn	-8075
word	-8076
ecommunications	-8077
FC	-8078
/26	-8079
▁precisely	-8080
▁accident	-8081
▁cohesion	-8082
▁recognizing	-8083
▁accred	-8084
uality	-8085
▁orient	-8086
▁Conf	-8087
▁Met	-8088
▁Arms	-8089
▁mode	-8090
▁cast	-8091
▁facilitation	-8092
▁Micro	-8093
▁biennial	-8094
ype	-8095
▁Maur	-8096
enh	-8097
isive	-8098
▁oppos	-8099
▁dispar	-8100
▁vacc	-8101
▁electricity	-8102
▁violent	-8103
▁trac	-8104
isure	-8105
▁declarations	-8106
100	-8107
▁obliged	-8108
ager	-8109
▁Mozamb	-8110
▁necessity	-8111
▁insec	-8112
TR	-8113
▁derived	-8114
▁excluded	-8115
elled	-8116
irates	-8117
▁Interim	-8118
esterday	-8119
ourse	-8120
▁vent	-8121
▁Trafficking	-8122
.11	-8123
▁consequence	-8124
▁convicted	-8125
▁themes	-8126
▁instit	-8127
space	-8128
▁config	-8129
▁unions	-8130
▁regimes	-8131
.45	-8132
▁sufficiently	-8133
.12	-8134
vestig	-8135
▁moved	-8136
▁games	-8137
▁demobilization	-8138
▁thinking	-8139
▁Tok	-8140
▁commence	-8141
▁elsewhere	-8142
agen	-8143
▁conviction	-8144
▁intim	-8145
▁presidential	-8146
original	-8147
GE	-8148
iny	-8149
▁enshr	-8150
orne	-8151
800	-8152
▁Namibia	-8153
▁output	-8154
UM	-8155
▁block	-8156
▁column	-8157
aling	-8158
▁instances	-8159
nesty	-8160
▁attract	-8161
86	-8162
▁Abd	-8163
▁peacebuilding	-8164
isite	-8165
▁Cred	-8166
▁manager	-8167
▁commodity	-8168
▁Lin	-8169
▁producing	-8170
onn	-8171
▁whatever	-8172
▁Educational	-8173
erved	-8174
▁UNODC	-8175
▁veget	-8176
▁abst	-8177
▁showing	-8178
▁index	-8179
rigendum	-8180
▁Inspection	-8181
▁allowance	-8182
▁kinds	-8183
▁proceeds	-8184
▁memorandum	-8185
600	-8186
▁id	-8187
▁Royal	-8188
▁Goods	-8189
▁camer	-8190
omic	-8191
ptions	-8192
iability	-8193
▁serves	-8194
▁pup	-8195
isp	-8196
▁Rot	-8197
▁comparison	-8198
▁architecture	-8199
itch	-8200
▁Mac	-8201
kes	-8202
income	-8203
▁incentives	-8204
iding	-8205
▁smaller	-8206
▁Forest	-8207
▁residents	-8208
▁constituted	-8209
▁messages	-8210
▁surrounding	-8211
inder	-8212
▁intensify	-8213
▁Roman	-8214
▁machine	-8215
▁loans	-8216
▁convey	-8217
amm	-8218
Ex	-8219
▁une	-8220
▁struggle	-8221
ITRAL	-8222
▁staffing	-8223
▁concentration	-8224
▁wage	-8225
▁hospital	-8226
▁tackle	-8227
▁listing	-8228
awi	-8229
▁fal	-8230
aco	-8231
▁Home	-8232
▁inhabitants	-8233
▁bathroom	-8234
▁satisfy	-8235
▁Tajikistan	-8236
po	-8237
▁12,	-8238
cohol	-8239
▁deployed	-8240
▁park	-8241
▁SA	-8242
▁sixtieth	-8243
▁occasions	-8244
▁advantages	-8245
▁Tourism	-8246
▁possess	-8247
▁granting	-8248
country	-8249
▁tested	-8250
▁Mongolia	-8251
▁transboundary	-8252
▁Bahrain	-8253
BSTA	-8254
▁responded	-8255
▁definitions	-8256
▁commend	-8257
body	-8258
▁approve	-8259
ireless	-8260
▁Hon	-8261
▁2010.	-8262
▁Directorate	-8263
PAD	-8264
▁brings	-8265
▁continuation	-8266
eces	-8267
▁environmentally	-8268
▁(6	-8269
▁Parag	-8270
▁Niger	-8271
olic	-8272
note	-8273
irable	-8274
▁difficulty	-8275
ashion	-8276
velihood	-8277
▁patients	-8278
▁mostly	-8279
▁vig	-8280
depth	-8281
▁adult	-8282
▁significance	-8283
▁magn	-8284
ultane	-8285
▁delays	-8286
▁missing	-8287
▁buy	-8288
▁Dial	-8289
▁64	-8290
▁Ali	-8291
▁villages	-8292
8).	-8293
▁2.2	-8294
▁eastern	-8295
▁enact	-8296
▁Operation	-8297
▁university	-8298
izations	-8299
uer	-8300
▁deadline	-8301
▁CR	-8302
eches	-8303
▁1980	-8304
▁Migration	-8305
▁subreg	-8306
▁Rooms	-8307
▁Honduras	-8308
▁gene	-8309
estival	-8310
▁alternatives	-8311
2),	-8312
▁signal	-8313
▁Mozambique	-8314
▁cultiv	-8315
▁creditors	-8316
▁supplementary	-8317
▁Bh	-8318
▁View	-8319
▁Light	-8320
▁Series	-8321
ini	-8322
▁salary	-8323
▁Organized	-8324
9).	-8325
▁Sir	-8326
▁opposed	-8327
',	-8328
▁rapporteurs	-8329
▁Ens	-8330
▁adjustments	-8331
▁Paraguay	-8332
▁reiterate	-8333
engers	-8334
▁VII	-8335
▁finds	-8336
▁river	-8337
ients	-8338
▁happen	-8339
▁accountable	-8340
▁Luc	-8341
▁$5	-8342
eries	-8343
Habitat	-8344
utory	-8345
▁formation	-8346
9),	-8347
▁Former	-8348
▁clin	-8349
▁outputs	-8350
▁?	-8351
▁divided	-8352
▁Interior	-8353
▁universities	-8354
▁patterns	-8355
▁Po	-8356
▁strictly	-8357
augh	-8358
▁stipulates	-8359
▁forget	-8360
▁appeared	-8361
▁assembly	-8362
5).	-8363
forcing	-8364
▁whereby	-8365
▁Description	-8366
▁blood	-8367
▁thereof	-8368
▁Care	-8369
▁unp	-8370
▁destroyed	-8371
▁justified	-8372
effective	-8373
kew	-8374
▁prisons	-8375
cut	-8376
▁obtaining	-8377
▁communicate	-8378
▁Page	-8379
▁channels	-8380
▁Advancement	-8381
▁replies	-8382
▁emphasize	-8383
▁mothers	-8384
arte	-8385
▁responding	-8386
▁organisation	-8387
▁got	-8388
▁delegates	-8389
ounded	-8390
▁Pra	-8391
▁4.	-8392
▁maxim	-8393
▁Least	-8394
kewise	-8395
▁Organizations	-8396
▁fulfilment	-8397
▁submissions	-8398
▁infring	-8399
ja	-8400
att	-8401
cu	-8402
star	-8403
▁totally	-8404
gregated	-8405
▁Documentation	-8406
▁rad	-8407
endar	-8408
▁Tob	-8409
▁reim	-8410
▁inputs	-8411
▁kill	-8412
▁(3)	-8413
laim	-8414
▁leads	-8415
ergies	-8416
▁Workshop	-8417
▁whereas	-8418
,"	-8419
▁Building	-8420
▁expanding	-8421
kh	-8422
▁census	-8423
▁reserves	-8424
CRC	-8425
unition	-8426
lining	-8427
▁Investig	-8428
▁GEF	-8429
contrib	-8430
ooth	-8431
▁amm	-8432
▁pure	-8433
▁nevertheless	-8434
▁politic	-8435
▁customary	-8436
▁entering	-8437
▁Gab	-8438
▁creditor	-8439
jection	-8440
▁Log	-8441
▁remember	-8442
▁helps	-8443
▁prove	-8444
▁FOR	-8445
▁gains	-8446
regular	-8447
▁visible	-8448
▁11,	-8449
pectives	-8450
▁Reform	-8451
▁solely	-8452
▁Hy	-8453
▁displacement	-8454
▁Thank	-8455
▁firmly	-8456
▁livelihood	-8457
▁establishes	-8458
uct	-8459
▁separation	-8460
▁dé	-8461
organized	-8462
▁UNCITRAL	-8463
▁administering	-8464
▁preval	-8465
▁railway	-8466
▁ultimately	-8467
▁cluster	-8468
▁wind	-8469
▁shares	-8470
▁Japanese	-8471
rum	-8472
▁desk	-8473
rows	-8474
▁Hague	-8475
abilization	-8476
▁innoc	-8477
▁Whe	-8478
▁apartment	-8479
▁unders	-8480
▁restore	-8481
▁claimant	-8482
▁referring	-8483
▁incurred	-8484
▁trip	-8485
▁assure	-8486
American	-8487
▁Resource	-8488
▁reaffirm	-8489
tif	-8490
▁Vir	-8491
ourage	-8492
▁genocide	-8493
▁Emergency	-8494
▁Paper	-8495
▁Madrid	-8496
raf	-8497
▁Bill	-8498
▁awarded	-8499
oud	-8500
▁Mechan	-8501
new	-8502
met	-8503
▁Proper	-8504
▁metres	-8505
ceived	-8506
▁proposes	-8507
400	-8508
iture	-8509
▁coup	-8510
▁sold	-8511
▁renov	-8512
▁immigrants	-8513
▁intends	-8514
/54	-8515
▁Rio	-8516
▁server	-8517
▁permits	-8518
udgetary	-8519
▁Compe	-8520
ouses	-8521
▁enabled	-8522
▁align	-8523
▁counselling	-8524
▁broadcast	-8525
▁Ba	-8526
▁indicator	-8527
▁trials	-8528
▁regulated	-8529
▁evening	-8530
▁books	-8531
▁debates	-8532
▁discussing	-8533
▁IS	-8534
▁exposure	-8535
▁inad	-8536
▁referendum	-8537
▁Canadians	-8538
annes	-8539
▁Emirates	-8540
▁stresses	-8541
▁Harm	-8542
▁Branch	-8543
oub	-8544
▁shopping	-8545
▁Equal	-8546
▁reflecting	-8547
▁endeavour	-8548
uda	-8549
log	-8550
35	-8551
▁Documents	-8552
ethe	-8553
ricts	-8554
look	-8555
▁convening	-8556
▁horiz	-8557
▁Introduction	-8558
▁Ott	-8559
-15	-8560
▁injured	-8561
▁Just	-8562
▁ausp	-8563
▁attitudes	-8564
▁surveillance	-8565
▁Why	-8566
def	-8567
▁arbitration	-8568
zen	-8569
▁Ah	-8570
after	-8571
▁enforced	-8572
No	-8573
2).	-8574
▁gained	-8575
▁instruction	-8576
▁hus	-8577
▁metal	-8578
▁crop	-8579
▁Adv	-8580
▁MONUC	-8581
spe	-8582
▁garden	-8583
▁Welcoming	-8584
▁Appendix	-8585
▁Settlements	-8586
▁offenders	-8587
ulum	-8588
▁clause	-8589
overning	-8590
▁Final	-8591
▁Private	-8592
umbered	-8593
▁yield	-8594
▁parameters	-8595
ook	-8596
inct	-8597
▁reiterates	-8598
▁Mos	-8599
▁attitude	-8600
/2009	-8601
▁authorization	-8602
▁welcoming	-8603
▁Figure	-8604
▁decisive	-8605
antly	-8606
300	-8607
▁District	-8608
▁rising	-8609
▁sell	-8610
▁municipalities	-8611
▁buff	-8612
idad	-8613
▁domain	-8614
▁Gren	-8615
▁Fis	-8616
▁student	-8617
▁generations	-8618
▁Monter	-8619
▁abuses	-8620
▁Moh	-8621
▁Round	-8622
mans	-8623
▁Then	-8624
▁thereto	-8625
▁cooperative	-8626
▁fee	-8627
▁pip	-8628
▁affil	-8629
▁rot	-8630
▁Mag	-8631
▁imag	-8632
▁MIN	-8633
▁seventh	-8634
▁guided	-8635
▁enables	-8636
4),	-8637
TER	-8638
▁estimate	-8639
▁comprising	-8640
▁sentences	-8641
▁pleasure	-8642
”)	-8643
▁enrol	-8644
▁massive	-8645
%.	-8646
▁ECO	-8647
▁Three	-8648
usi	-8649
lose	-8650
▁harassment	-8651
▁Durban	-8652
▁reductions	-8653
eals	-8654
holder	-8655
▁frame	-8656
condition	-8657
/59/	-8658
▁2.1	-8659
▁talking	-8660
▁cards	-8661
▁speeches	-8662
▁substantially	-8663
▁simultane	-8664
▁unlawful	-8665
,”	-8666
opol	-8667
▁Survey	-8668
▁Atlantic	-8669
▁urgently	-8670
▁Progress	-8671
uss	-8672
▁properties	-8673
▁auspices	-8674
▁Will	-8675
▁journalists	-8676
▁Without	-8677
ascar	-8678
700	-8679
▁AG	-8680
▁tangible	-8681
▁analytical	-8682
New	-8683
▁assumed	-8684
▁unw	-8685
▁suspended	-8686
LA	-8687
▁watch	-8688
▁toxic	-8689
▁tribunal	-8690
vi	-8691
rement	-8692
▁profit	-8693
▁Transnational	-8694
▁Steering	-8695
/55/	-8696
▁Vehic	-8697
ensity	-8698
▁spend	-8699
▁observation	-8700
▁UNMIK	-8701
].	-8702
▁none	-8703
CRP	-8704
sharing	-8705
▁willingness	-8706
▁sch	-8707
aught	-8708
sm	-8709
▁linkages	-8710
▁Ocean	-8711
▁Intell	-8712
▁1994,	-8713
uber	-8714
ffee	-8715
▁founded	-8716
▁Monterrey	-8717
▁End	-8718
▁entrusted	-8719
▁SMEs	-8720
wana	-8721
▁presentations	-8722
▁Appeals	-8723
▁eleg	-8724
agascar	-8725
▁orally	-8726
FR	-8727
/27	-8728
▁Nos	-8729
ceans	-8730
▁issuance	-8731
para	-8732
▁timet	-8733
lock	-8734
▁wants	-8735
▁Att	-8736
▁Take	-8737
▁accidents	-8738
▁rend	-8739
▁Sector	-8740
▁enshrined	-8741
▁codes	-8742
▁eliminating	-8743
▁Narco	-8744
▁landsc	-8745
▁Airport	-8746
▁Mic	-8747
▁USD	-8748
urg	-8749
▁Hall	-8750
▁Sant	-8751
▁newsp	-8752
33	-8753
▁hopes	-8754
▁navigation	-8755
▁satisfied	-8756
▁Standing	-8757
▁2000-200	-8758
▁projected	-8759
▁crops	-8760
▁profile	-8761
▁fre	-8762
itored	-8763
▁causing	-8764
▁exhib	-8765
▁Media	-8766
▁possibly	-8767
FOR	-8768
▁flight	-8769
▁girl	-8770
▁mutually	-8771
▁Site	-8772
▁Participation	-8773
▁Dav	-8774
▁defenders	-8775
▁Legislative	-8776
▁postpon	-8777
▁constantly	-8778
hentic	-8779
▁USA	-8780
▁inspect	-8781
▁anticipated	-8782
▁Ret	-8783
▁intend	-8784
ICEF	-8785
▁hostil	-8786
▁supervis	-8787
▁leisure	-8788
▁ID	-8789
▁120	-8790
▁transmitting	-8791
ulf	-8792
ternoon	-8793
▁Reaffirms	-8794
▁Jew	-8795
umes	-8796
utch	-8797
gments	-8798
▁urgency	-8799
▁disseminate	-8800
▁focuses	-8801
iji	-8802
▁yourself	-8803
ala	-8804
annesburg	-8805
▁corner	-8806
▁2006-2007	-8807
▁constitu	-8808
▁survival	-8809
▁route	-8810
▁Mil	-8811
▁graph	-8812
riginal	-8813
▁terrace	-8814
▁Facilit	-8815
▁performing	-8816
ading	-8817
▁clarification	-8818
▁deals	-8819
umin	-8820
▁districts	-8821
ship	-8822
rabudgetary	-8823
.29/	-8824
▁specify	-8825
▁facilitated	-8826
.2,	-8827
▁diss	-8828
ressed	-8829
▁lands	-8830
fol	-8831
iban	-8832
▁complementary	-8833
ether	-8834
▁tabled	-8835
▁15,	-8836
▁Basic	-8837
▁ensures	-8838
ado	-8839
dec	-8840
▁monitored	-8841
▁passing	-8842
▁drinking	-8843
contributing	-8844
▁ending	-8845
▁fashion	-8846
▁hundreds	-8847
▁acquire	-8848
▁sectoral	-8849
▁menu	-8850
▁pornography	-8851
Proliferation	-8852
▁tank	-8853
5),	-8854
aution	-8855
▁somew	-8856
▁Togo	-8857
▁greenhouse	-8858
▁match	-8859
month	-8860
3),	-8861
▁retail	-8862
etheless	-8863
▁replacement	-8864
▁exactly	-8865
▁heading	-8866
▁complic	-8867
isting	-8868
▁meets	-8869
uisine	-8870
-2010	-8871
4).	-8872
For	-8873
▁consisting	-8874
▁passengers	-8875
article	-8876
▁kitchen	-8877
/57/	-8878
▁Due	-8879
▁corporations	-8880
▁abduc	-8881
▁swimming	-8882
▁attach	-8883
ighten	-8884
▁entrepreneurs	-8885
▁viable	-8886
▁Ev	-8887
▁briefings	-8888
▁prosperity	-8889
retion	-8890
▁owner	-8891
gnos	-8892
assification	-8893
▁Citizens	-8894
▁apart	-8895
▁Treaties	-8896
▁negl	-8897
▁politics	-8898
▁perspectives	-8899
▁happened	-8900
▁18,	-8901
OV	-8902
▁EN	-8903
Self	-8904
▁Personal	-8905
▁roads	-8906
▁endorsement	-8907
▁Sahara	-8908
▁portion	-8909
▁departure	-8910
▁Reference	-8911
/22	-8912
▁liberalization	-8913
utable	-8914
▁tariff	-8915
▁accomplishments	-8916
▁narrow	-8917
▁Maurit	-8918
ander	-8919
▁66	-8920
▁Ottawa	-8921
▁looked	-8922
▁describe	-8923
▁Pap	-8924
▁pet	-8925
acious	-8926
▁Madagascar	-8927
quality	-8928
▁passenger	-8929
▁meaningful	-8930
▁disadvantaged	-8931
▁debtor	-8932
grammes	-8933
top	-8934
▁Explo	-8935
▁whenever	-8936
▁drafted	-8937
while	-8938
▁consistently	-8939
▁delic	-8940
amation	-8941
▁Van	-8942
▁rely	-8943
▁conducive	-8944
do	-8945
▁Djib	-8946
▁verbal	-8947
▁literacy	-8948
▁inquiry	-8949
▁yesterday	-8950
station	-8951
▁seized	-8952
▁Monaco	-8953
▁reject	-8954
▁spring	-8955
▁hat	-8956
▁outset	-8957
▁merits	-8958
▁plays	-8959
itative	-8960
.3.	-8961
ashington	-8962
util	-8963
▁defer	-8964
▁player	-8965
▁Click	-8966
▁Forests	-8967
▁ambitious	-8968
▁contractual	-8969
-12	-8970
▁mitigation	-8971
rors	-8972
▁cos	-8973
▁decor	-8974
▁Evaluation	-8975
▁references	-8976
▁employee	-8977
▁foundations	-8978
.26	-8979
▁Langu	-8980
▁error	-8981
▁alcohol	-8982
▁Time	-8983
▁limitation	-8984
▁Area	-8985
▁Analysis	-8986
▁airspace	-8987
▁governed	-8988
▁encountered	-8989
▁write	-8990
inform	-8991
▁inflation	-8992
▁Sex	-8993
▁Welfare	-8994
▁refused	-8995
▁thereon	-8996
▁undermine	-8997
▁memory	-8998
▁considerably	-8999
▁indicating	-9000
▁consolidate	-9001
▁admissibility	-9002
▁prevented	-9003
▁partly	-9004
▁elaboration	-9005
▁pregnancy	-9006
▁IMF	-9007
▁intelligence	-9008
rets	-9009
▁shar	-9010
▁store	-9011
▁utmost	-9012
▁External	-9013
gg	-9014
rar	-9015
▁investors	-9016
▁contradic	-9017
▁Swedish	-9018
Can	-9019
▁summits	-9020
▁outreach	-9021
▁satisfactory	-9022
.)	-9023
▁negotiated	-9024
▁Cape	-9025
just	-9026
▁bomb	-9027
aux	-9028
ros	-9029
NGO	-9030
▁95	-9031
holm	-9032
▁confisc	-9033
vest	-9034
▁closing	-9035
▁Dialogue	-9036
▁museum	-9037
▁sitting	-9038
CH	-9039
▁orientation	-9040
▁commended	-9041
▁DC	-9042
▁advances	-9043
▁pupils	-9044
▁licence	-9045
rolling	-9046
▁operated	-9047
▁Capacity	-9048
▁ax	-9049
marks	-9050
▁employer	-9051
Governing	-9052
▁classified	-9053
▁banking	-9054
▁visa	-9055
RWA	-9056
▁expulsion	-9057
▁sac	-9058
▁chief	-9059
▁traditions	-9060
▁justify	-9061
▁85	-9062
▁quantity	-9063
acc	-9064
▁pregnant	-9065
▁Institutions	-9066
ano	-9067
▁shape	-9068
▁Taliban	-9069
▁president	-9070
▁therein	-9071
▁myself	-9072
▁adapted	-9073
▁mobilize	-9074
▁Related	-9075
▁explicitly	-9076
▁smooth	-9077
viron	-9078
UT	-9079
▁pictures	-9080
▁invasion	-9081
▁Ren	-9082
lean	-9083
▁contam	-9084
▁malaria	-9085
▁Wood	-9086
▁cold	-9087
uit	-9088
▁damages	-9089
▁unfortunately	-9090
Le	-9091
▁walking	-9092
COP	-9093
▁Real	-9094
▁imperative	-9095
▁paying	-9096
▁Electronic	-9097
Isl	-9098
▁trail	-9099
develop	-9100
▁Barbados	-9101
.20	-9102
▁Participants	-9103
▁Senior	-9104
▁reminded	-9105
date	-9106
▁extrem	-9107
▁poorest	-9108
900	-9109
▁tun	-9110
▁proven	-9111
▁Bots	-9112
iates	-9113
▁Bri	-9114
▁indication	-9115
▁defining	-9116
▁insp	-9117
▁cuisine	-9118
Ad	-9119
▁submitting	-9120
▁stere	-9121
▁Kyrgyzstan	-9122
▁Facility	-9123
compass	-9124
▁compatible	-9125
▁hospitals	-9126
▁touch	-9127
▁Rural	-9128
arians	-9129
▁extending	-9130
athe	-9131
▁threatened	-9132
▁underlined	-9133
▁repatriation	-9134
html	-9135
▁Djibouti	-9136
▁Combat	-9137
▁revenues	-9138
ement	-9139
▁20,	-9140
erb	-9141
▁Islam	-9142
entical	-9143
ayer	-9144
▁comprises	-9145
▁flood	-9146
▁discretion	-9147
▁slightly	-9148
aka	-9149
▁skin	-9150
HRC	-9151
▁realize	-9152
▁Botswana	-9153
▁Ban	-9154
apping	-9155
▁macroeconomic	-9156
▁5.	-9157
▁creative	-9158
▁uph	-9159
venue	-9160
▁4.1	-9161
▁aer	-9162
seas	-9163
▁stipulated	-9164
▁Obj	-9165
▁ordered	-9166
ébec	-9167
▁legitimacy	-9168
▁Studies	-9169
▁visiting	-9170
inational	-9171
45	-9172
▁encompass	-9173
▁Total	-9174
▁aspir	-9175
entieth	-9176
▁exchanges	-9177
▁murder	-9178
vals	-9179
▁affects	-9180
▁intensive	-9181
ube	-9182
▁73	-9183
▁unlike	-9184
85	-9185
▁calendar	-9186
▁surpr	-9187
▁vessel	-9188
▁revital	-9189
▁formulate	-9190
acco	-9191
reshold	-9192
▁(2004)	-9193
ras	-9194
▁imply	-9195
▁amounted	-9196
▁ensured	-9197
Dec	-9198
▁Acad	-9199
▁Turkmen	-9200
▁potentially	-9201
bar	-9202
cribe	-9203
▁hosted	-9204
▁careful	-9205
▁returns	-9206
▁artists	-9207
▁exposed	-9208
▁suggests	-9209
ention	-9210
▁Concerning	-9211
6),	-9212
enhagen	-9213
▁commodities	-9214
▁outline	-9215
lege	-9216
▁Consultative	-9217
bum	-9218
▁Test	-9219
▁Aboriginal	-9220
withstanding	-9221
▁authentic	-9222
▁Design	-9223
ped	-9224
▁engineering	-9225
▁16,	-9226
establ	-9227
door	-9228
friendly	-9229
▁Opport	-9230
▁spl	-9231
▁Club	-9232
▁organised	-9233
▁immun	-9234
Sub	-9235
▁Ext	-9236
▁Certain	-9237
▁interdepend	-9238
▁solve	-9239
▁Systems	-9240
▁pharm	-9241
▁phil	-9242
▁spok	-9243
soft	-9244
▁tourist	-9245
yright	-9246
▁Prohibition	-9247
▁Fiji	-9248
▁UNOPS	-9249
▁resistance	-9250
▁Best	-9251
▁researc	-9252
▁die	-9253
▁evaluations	-9254
laundering	-9255
rie	-9256
▁sort	-9257
▁Vic	-9258
▁1998.	-9259
▁ruling	-9260
▁shower	-9261
tia	-9262
ellow	-9263
▁accum	-9264
▁Freedom	-9265
▁1993,	-9266
▁integrating	-9267
3).	-9268
▁recalls	-9269
▁unc	-9270
▁holds	-9271
▁Property	-9272
▁mining	-9273
▁seas	-9274
▁incomp	-9275
▁Detail	-9276
▁Art	-9277
▁irre	-9278
▁remark	-9279
aker	-9280
Con	-9281
▁Era	-9282
orous	-9283
▁essentially	-9284
racted	-9285
▁sem	-9286
▁Upon	-9287
▁emphasizes	-9288
▁restoration	-9289
uous	-9290
lets	-9291
▁Opening	-9292
▁notify	-9293
▁someone	-9294
▁capture	-9295
▁Cuban	-9296
▁initiate	-9297
Ind	-9298
mo	-9299
▁advertising	-9300
▁extraordinary	-9301
▁turned	-9302
orth	-9303
▁Guy	-9304
▁Arbit	-9305
▁Stockholm	-9306
iction	-9307
▁waiting	-9308
using	-9309
▁interven	-9310
72	-9311
▁cargo	-9312
▁400	-9313
▁Between	-9314
▁Reporting	-9315
▁Os	-9316
estic	-9317
▁Illicit	-9318
▁contrast	-9319
utan	-9320
▁wors	-9321
▁apartments	-9322
/30	-9323
▁towns	-9324
tors	-9325
▁subregion	-9326
▁lamps	-9327
▁beneficiaries	-9328
▁eradicate	-9329
▁scienti	-9330
▁participatory	-9331
▁affordable	-9332
hi	-9333
▁allegedly	-9334
▁OR	-9335
▁Pris	-9336
▁Age	-9337
bursement	-9338
▁Johannesburg	-9339
tedly	-9340
celona	-9341
▁credible	-9342
.-1	-9343
▁absor	-9344
▁consistency	-9345
ips	-9346
lete	-9347
▁kindly	-9348
▁named	-9349
▁wheel	-9350
▁Fl	-9351
erving	-9352
▁Identi	-9353
-03	-9354
▁operative	-9355
6).	-9356
▁Atomic	-9357
▁enrolment	-9358
herent	-9359
abinet	-9360
▁shift	-9361
▁incons	-9362
▁pace	-9363
▁Capital	-9364
▁Museum	-9365
Af	-9366
arious	-9367
▁amongst	-9368
ussian	-9369
▁arrived	-9370
wealth	-9371
▁batter	-9372
▁brother	-9373
▁targeting	-9374
▁meat	-9375
ao	-9376
Ph	-9377
utants	-9378
▁(198	-9379
▁17,	-9380
▁flu	-9381
▁univers	-9382
▁spite	-9383
▁asking	-9384
▁ecosystems	-9385
▁pret	-9386
▁expressly	-9387
▁comparative	-9388
▁sphere	-9389
▁analyse	-9390
▁typical	-9391
ATO	-9392
▁lod	-9393
ache	-9394
▁retained	-9395
▁directives	-9396
▁Mo	-9397
▁threshold	-9398
/63/	-9399
▁proud	-9400
▁kilomet	-9401
International	-9402
▁specialists	-9403
well	-9404
▁sum	-9405
▁boost	-9406
▁Black	-9407
▁winter	-9408
.1).	-9409
lymp	-9410
▁cond	-9411
▁twice	-9412
▁Const	-9413
necess	-9414
▁supplied	-9415
▁AP	-9416
ousing	-9417
▁lawyer	-9418
▁Berlin	-9419
▁shipping	-9420
▁Copenhagen	-9421
NA	-9422
▁convene	-9423
▁neut	-9424
▁offset	-9425
▁elder	-9426
▁wording	-9427
▁exceeding	-9428
▁Mauritania	-9429
▁consultants	-9430
ilst	-9431
▁6.2	-9432
▁argument	-9433
-11	-9434
▁suspension	-9435
▁2008-2009	-9436
owned	-9437
▁Radio	-9438
▁tail	-9439
itary	-9440
▁Cong	-9441
▁Dutch	-9442
▁Four	-9443
▁expressing	-9444
▁systematically	-9445
▁owned	-9446
▁suggestion	-9447
▁explosive	-9448
▁phr	-9449
▁Basel	-9450
▁Kong	-9451
▁Production	-9452
▁Trin	-9453
▁AL	-9454
▁wild	-9455
mat	-9456
▁Amnesty	-9457
▁1,000	-9458
▁ceasefire	-9459
haus	-9460
▁accelerate	-9461
▁Ord	-9462
▁Democ	-9463
▁Punishment	-9464
▁Agricultural	-9465
▁correc	-9466
IGH	-9467
▁identif	-9468
▁deprivation	-9469
▁formally	-9470
▁separately	-9471
▁Host	-9472
▁weather	-9473
EE	-9474
▁filled	-9475
Islamic	-9476
▁drivers	-9477
▁concerted	-9478
▁window	-9479
▁disclosure	-9480
▁Pay	-9481
▁hydro	-9482
tre	-9483
▁Tem	-9484
berg	-9485
▁director	-9486
▁capability	-9487
▁Organisation	-9488
88	-9489
▁67	-9490
▁evolution	-9491
▁Lord	-9492
Aligned	-9493
▁islands	-9494
▁19,	-9495
▁bis	-9496
▁Consensus	-9497
We	-9498
▁Paul	-9499
olan	-9500
ée	-9501
http	-9502
▁guaranteeing	-9503
ael	-9504
▁durable	-9505
▁confront	-9506
▁realistic	-9507
▁Sel	-9508
▁parental	-9509
▁2004-2005	-9510
▁shelter	-9511
▁rear	-9512
▁é	-9513
▁Hong	-9514
▁coerc	-9515
▁familiar	-9516
19	-9517
▁los	-9518
▁initially	-9519
▁edition	-9520
▁Procurement	-9521
▁killing	-9522
▁da	-9523
▁chaired	-9524
▁petition	-9525
ensable	-9526
▁gar	-9527
▁contributes	-9528
▁revealed	-9529
▁gratitude	-9530
▁Inland	-9531
▁afternoon	-9532
bility	-9533
▁din	-9534
ilty	-9535
▁Major	-9536
▁Fax	-9537
dis	-9538
▁ped	-9539
atre	-9540
bally	-9541
▁facto	-9542
▁story	-9543
nesses	-9544
▁statute	-9545
▁gases	-9546
▁closure	-9547
▁indisp	-9548
▁Eradic	-9549
▁suspected	-9550
▁1.15	-9551
▁curriculum	-9552
▁Gal	-9553
▁gradually	-9554
▁complexity	-9555
▁Barcelona	-9556
▁enjoyed	-9557
▁admission	-9558
▁sending	-9559
▁distinct	-9560
▁frag	-9561
▁Responsible	-9562
▁Reiter	-9563
▁artis	-9564
▁unequ	-9565
)).	-9566
▁automatic	-9567
▁Corruption	-9568
▁updating	-9569
hand	-9570
onomous	-9571
owered	-9572
▁coffee	-9573
▁Washington	-9574
▁died	-9575
▁separated	-9576
▁(1999)	-9577
▁promotes	-9578
MS	-9579
gic	-9580
▁Indic	-9581
▁suppor	-9582
▁Book	-9583
▁6.	-9584
respective	-9585
▁ham	-9586
▁posted	-9587
▁Comment	-9588
HS	-9589
▁DP	-9590
▁Matters	-9591
aba	-9592
▁uphold	-9593
▁patent	-9594
▁characterized	-9595
orge	-9596
EU	-9597
▁analyses	-9598
▁presenting	-9599
▁marking	-9600
▁Medical	-9601
▁fulfilled	-9602
iat	-9603
▁CEDAW	-9604
▁rightly	-9605
▁Rail	-9606
▁arr	-9607
77	-9608
▁hen	-9609
▁pursuing	-9610
▁Strip	-9611
1/	-9612
▁husband	-9613
▁observance	-9614
▁answers	-9615
▁Olymp	-9616
▁bottom	-9617
▁desirable	-9618
▁bag	-9619
▁placement	-9620
▁van	-9621
grade	-9622
▁Should	-9623
▁emerged	-9624
gé	-9625
▁72	-9626
▁reaffirms	-9627
▁Expresses	-9628
▁versions	-9629
▁inval	-9630
▁default	-9631
▁furnished	-9632
▁Commonwealth	-9633
▁fell	-9634
▁beneficial	-9635
atim	-9636
▁spaces	-9637
▁twentieth	-9638
▁repeatedly	-9639
ointment	-9640
zero	-9641
▁13,	-9642
▁Malawi	-9643
▁militi	-9644
/62/	-9645
▁spoke	-9646
▁MDGs	-9647
▁CIS	-9648
how	-9649
▁Holy	-9650
▁stereot	-9651
43	-9652
▁indispensable	-9653
/56/	-9654
▁Irish	-9655
▁personally	-9656
▁usual	-9657
▁Case	-9658
▁module	-9659
▁suit	-9660
▁condemned	-9661
AU	-9662
▁decreased	-9663
▁Contributions	-9664
life	-9665
▁Volunte	-9666
state	-9667
▁library	-9668
▁lob	-9669
▁News	-9670
▁communicated	-9671
ibid	-9672
▁Racism	-9673
▁branch	-9674
▁Sat	-9675
.4/	-9676
cor	-9677
which	-9678
▁desertification	-9679
ko	-9680
ny	-9681
▁NEPAD	-9682
ontal	-9683
▁deport	-9684
▁UNRWA	-9685
▁administered	-9686
▁inequality	-9687
▁annexes	-9688
eless	-9689
▁ozone	-9690
SD	-9691
▁lose	-9692
▁Bearing	-9693
▁prohibit	-9694
▁Enh	-9695
▁poly	-9696
▁Semin	-9697
▁publicly	-9698
▁ven	-9699
▁innocent	-9700
▁cars	-9701
▁insecurity	-9702
▁Bhutan	-9703
▁infant	-9704
▁Corporation	-9705
▁adjusted	-9706
DAF	-9707
tw	-9708
▁Poll	-9709
▁deleted	-9710
.17	-9711
▁Judge	-9712
▁Library	-9713
▁obviously	-9714
▁recre	-9715
amas	-9716
▁thir	-9717
▁remun	-9718
▁inherent	-9719
▁resume	-9720
▁religions	-9721
▁1:	-9722
▁profound	-9723
47	-9724
▁partial	-9725
▁settings	-9726
▁persistent	-9727
uggling	-9728
▁timetable	-9729
represent	-9730
essor	-9731
▁fitted	-9732
IB	-9733
such	-9734
▁shortly	-9735
Agenda	-9736
-23	-9737
▁guilty	-9738
▁Balk	-9739
inks	-9740
▁worst	-9741
erts	-9742
▁qualifications	-9743
eploy	-9744
▁corrigendum	-9745
▁camera	-9746
auty	-9747
▁foreigners	-9748
▁rent	-9749
▁raw	-9750
▁hit	-9751
▁makers	-9752
▁permission	-9753
urious	-9754
▁translated	-9755
▁Minor	-9756
▁creates	-9757
▁eventually	-9758
rats	-9759
esides	-9760
▁orph	-9761
▁Province	-9762
.9/	-9763
▁coordinator	-9764
▁Grant	-9765
▁fab	-9766
▁pose	-9767
judicial	-9768
▁Contact	-9769
idity	-9770
________	-9771
pections	-9772
▁landlocked	-9773
inian	-9774
▁Cypri	-9775
▁Relief	-9776
batim	-9777
▁Present	-9778
priate	-9779
▁loan	-9780
▁extrabudgetary	-9781
▁attending	-9782
▁exit	-9783
▁Turkmenistan	-9784
▁Québec	-9785
▁pieces	-9786
▁Sund	-9787
aci	-9788
▁tribute	-9789
▁ultimate	-9790
▁packaging	-9791
Chairman	-9792
index	-9793
closed	-9794
▁declare	-9795
▁FDI	-9796
▁eighth	-9797
ipline	-9798
▁liaison	-9799
sessional	-9800
▁choices	-9801
▁Trustees	-9802
▁unnecess	-9803
ams	-9804
bed	-9805
▁Biological	-9806
produc	-9807
liaments	-9808
▁false	-9809
▁resolving	-9810
▁convenient	-9811
▁retention	-9812
IX	-9813
▁reserved	-9814
▁toward	-9815
wood	-9816
▁elderly	-9817
▁intermedi	-9818
▁democra	-9819
▁College	-9820
elfth	-9821
▁album	-9822
53	-9823
▁Lead	-9824
▁jour	-9825
▁Mand	-9826
▁ships	-9827
▁weapon	-9828
utation	-9829
ball	-9830
▁taste	-9831
service	-9832
▁Violations	-9833
GC	-9834
▁arguments	-9835
▁existed	-9836
▁recover	-9837
▁cited	-9838
▁Address	-9839
▁websites	-9840
enable	-9841
▁methodologies	-9842
▁momentum	-9843
▁Pack	-9844
▁Yes	-9845
▁wait	-9846
▁falling	-9847
rah	-9848
▁gold	-9849
▁observe	-9850
gence	-9851
▁restraint	-9852
▁grand	-9853
▁heat	-9854
▁advised	-9855
▁duplication	-9856
▁Twenty	-9857
▁noon	-9858
▁disciplinary	-9859
▁Street	-9860
▁audio	-9861
▁Independence	-9862
war	-9863
▁viewed	-9864
cyc	-9865
uese	-9866
▁Exchange	-9867
ultinational	-9868
▁appreciated	-9869
!!	-9870
▁incidence	-9871
rais	-9872
location	-9873
▁schol	-9874
▁manufacturers	-9875
/61/	-9876
▁promptly	-9877
▁brows	-9878
urances	-9879
▁Life	-9880
vate	-9881
▁undersc	-9882
▁ageing	-9883
istrar	-9884
▁databases	-9885
▁establishments	-9886
▁devast	-9887
till	-9888
idden	-9889
▁band	-9890
▁Appeal	-9891
7),	-9892
inf	-9893
▁verify	-9894
▁salaries	-9895
▁$1,	-9896
▁preservation	-9897
child	-9898
▁2010,	-9899
ava	-9900
ité	-9901
▁certified	-9902
▁Tobago	-9903
▁workplace	-9904
▁comparable	-9905
▁Habitat	-9906
wed	-9907
▁prevalence	-9908
▁economically	-9909
▁Workers	-9910
▁1.1	-9911
▁OSCE	-9912
22	-9913
▁affirm	-9914
▁Quality	-9915
▁glass	-9916
▁Guest	-9917
▁ammunition	-9918
▁notified	-9919
▁optional	-9920
▁UNIFEM	-9921
▁residential	-9922
▁Mich	-9923
raction	-9924
▁Travel	-9925
▁efficiently	-9926
▁enhancement	-9927
ville	-9928
▁Army	-9929
▁1.2	-9930
▁fertil	-9931
▁Competition	-9932
▁bridge	-9933
▁measuring	-9934
▁stabil	-9935
▁Proposed	-9936
▁au	-9937
▁regulate	-9938
▁3.1	-9939
▁kg	-9940
makers	-9941
Article	-9942
▁formula	-9943
▁validity	-9944
▁certificates	-9945
▁Currently	-9946
▁AD	-9947
▁Firstly	-9948
▁sponsored	-9949
▁(1);	-9950
ori	-9951
▁originally	-9952
uters	-9953
▁Background	-9954
case	-9955
▁repeat	-9956
▁environ	-9957
▁realized	-9958
▁servants	-9959
INF	-9960
▁suspic	-9961
▁beds	-9962
▁desired	-9963
▁deploy	-9964
AIR	-9965
▁dream	-9966
ypes	-9967
▁Register	-9968
▁Paragraphs	-9969
▁dict	-9970
▁Extra	-9971
▁pand	-9972
▁Counsell	-9973
het	-9974
▁retirement	-9975
asp	-9976
▁western	-9977
seen	-9978
▁Situation	-9979
▁testim	-9980
TP	-9981
▁Suppression	-9982
▁amending	-9983
▁interface	-9984
pdf	-9985
▁Mechanism	-9986
▁farming	-9987
ticular	-9988
▁Hand	-9989
ios	-9990
▁duly	-9991
▁Amendments	-9992
▁interference	-9993
▁advise	-9994
▁attendance	-9995
▁rock	-9996
▁maintains	-9997
▁Serious	-9998
▁taxation	-9999
▁examining	-10000
▁contingent	-10001
▁rental	-10002
▁refusal	-10003
▁piece	-10004
▁Portuguese	-10005
from	-10006
▁punishable	-10007
▁ports	-10008
▁statutory	-10009
MC	-10010
▁drought	-10011
▁Tri	-10012
▁upper	-10013
▁neighbours	-10014
▁compli	-10015
▁differenti	-10016
▁wife	-10017
▁Conflict	-10018
▁confidential	-10019
ald	-10020
tar	-10021
/2000/	-10022
itro	-10023
▁spacious	-10024
▁registry	-10025
▁consulted	-10026
▁termination	-10027
/50	-10028
icide	-10029
▁fulfilling	-10030
▁Bay	-10031
ni	-10032
inguistic	-10033
▁sla	-10034
▁arrive	-10035
▁prosecutor	-10036
▁hostilities	-10037
▁refrain	-10038
▁interpreted	-10039
▁Bro	-10040
▁Efforts	-10041
nam	-10042
▁sle	-10043
▁evident	-10044
▁Study	-10045
▁receives	-10046
▁proposing	-10047
▁revolution	-10048
▁CRC	-10049
▁injuries	-10050
▁2.5	-10051
▁arm	-10052
▁adding	-10053
cultural	-10054
WAS	-10055
▁diagnos	-10056
andan	-10057
▁Spec	-10058
pted	-10059
▁commentary	-10060
Cor	-10061
▁securing	-10062
▁Trinidad	-10063
▁fewer	-10064
▁Fil	-10065
▁delayed	-10066
▁bon	-10067
▁button	-10068
▁printed	-10069
▁Syria	-10070
▁slavery	-10071
ez	-10072
▁emergencies	-10073
▁Near	-10074
uerto	-10075
82	-10076
manship	-10077
obile	-10078
▁assumption	-10079
▁reportedly	-10080
▁gradu	-10081
▁Clear	-10082
nutrition	-10083
▁Colonial	-10084
▁contracting	-10085
qui	-10086
formance	-10087
▁instability	-10088
▁gone	-10089
▁bab	-10090
▁Front	-10091
▁launching	-10092
▁Verde	-10093
▁lowest	-10094
8/	-10095
-30	-10096
entions	-10097
▁forestry	-10098
▁marks	-10099
▁irregular	-10100
▁updates	-10101
opard	-10102
▁somewhat	-10103
▁mediation	-10104
▁virtue	-10105
▁disparities	-10106
▁dual	-10107
oning	-10108
▁Thanks	-10109
▁agrees	-10110
▁Parliamentary	-10111
reets	-10112
▁Depos	-10113
▁merg	-10114
▁frequency	-10115
▁impartial	-10116
▁highlights	-10117
ifer	-10118
▁furniture	-10119
▁mixed	-10120
▁attractive	-10121
▁crimin	-10122
▁demographic	-10123
iland	-10124
▁Cath	-10125
▁exceptions	-10126
list	-10127
▁1.5	-10128
Agency	-10129
▁(2000	-10130
▁surpl	-10131
▁colonial	-10132
▁hence	-10133
echnology	-10134
▁bud	-10135
▁officially	-10136
▁Prevent	-10137
▁Challen	-10138
▁inland	-10139
▁philos	-10140
sub	-10141
▁ing	-10142
▁Governor	-10143
▁Lao	-10144
▁forecast	-10145
▁irrespective	-10146
▁redress	-10147
▁declined	-10148
▁feasible	-10149
adow	-10150
▁NATO	-10151
▁frequent	-10152
▁steel	-10153
▁ascertain	-10154
▁executions	-10155
▁deterioration	-10156
▁awa	-10157
▁wages	-10158
▁hatred	-10159
▁accommodate	-10160
▁Pension	-10161
▁alien	-10162
▁Iv	-10163
tin	-10164
orra	-10165
▁lie	-10166
umping	-10167
▁Chargé	-10168
▁Guyana	-10169
▁inspections	-10170
pay	-10171
▁justification	-10172
All	-10173
▁seemed	-10174
▁exercised	-10175
iqu	-10176
aurant	-10177
affaires	-10178
▁prevailing	-10179
text	-10180
▁benefited	-10181
▁unanimously	-10182
▁7.	-10183
unitions	-10184
▁depth	-10185
ba	-10186
▁grown	-10187
▁string	-10188
▁infection	-10189
voy	-10190
party	-10191
▁trou	-10192
▁repair	-10193
TAT	-10194
▁occurs	-10195
▁Disaster	-10196
mn	-10197
▁Break	-10198
▁label	-10199
▁Bou	-10200
▁interf	-10201
utical	-10202
ione	-10203
seekers	-10204
▁epidemic	-10205
▁tons	-10206
▁Sil	-10207
▁sequ	-10208
▁Flo	-10209
▁wonderful	-10210
▁ODA	-10211
▁react	-10212
ectivity	-10213
box	-10214
compliance	-10215
▁minimize	-10216
▁assignment	-10217
▁Lou	-10218
▁colleague	-10219
▁Cre	-10220
▁1992,	-10221
▁Allow	-10222
▁heavily	-10223
▁sty	-10224
▁severely	-10225
41	-10226
▁portfol	-10227
32	-10228
ocial	-10229
East	-10230
▁XX	-10231
▁plane	-10232
▁routes	-10233
▁thousand	-10234
▁teacher	-10235
)]	-10236
iteracy	-10237
TB	-10238
Ban	-10239
▁eigh	-10240
▁zero	-10241
▁Material	-10242
▁Lakes	-10243
▁confidentiality	-10244
rack	-10245
▁Period	-10246
▁cool	-10247
▁nom	-10248
▁returning	-10249
▁param	-10250
▁Lab	-10251
uming	-10252
▁appointments	-10253
▁Insurance	-10254
itely	-10255
▁Samoa	-10256
▁Puerto	-10257
▁excess	-10258
▁song	-10259
▁enacted	-10260
▁biggest	-10261
VD	-10262
▁Thirdly	-10263
▁Application	-10264
▁250	-10265
▁Danish	-10266
▁strike	-10267
▁assurances	-10268
trans	-10269
cutting	-10270
▁headed	-10271
▁trees	-10272
▁Whether	-10273
▁pleasant	-10274
▁Tele	-10275
▁hair	-10276
▁shops	-10277
▁Mem	-10278
▁preceding	-10279
▁3-6	-10280
▁Hist	-10281
▁Fisheries	-10282
▁flat	-10283
▁tanks	-10284
▁ninth	-10285
▁attributable	-10286
ae	-10287
uracy	-10288
personnel	-10289
erated	-10290
▁intimid	-10291
▁individually	-10292
ki	-10293
▁Views	-10294
▁notion	-10295
▁immunity	-10296
olese	-10297
▁ocean	-10298
▁SBSTA	-10299
▁Enterprise	-10300
▁color	-10301
▁receiv	-10302
▁tonnes	-10303
7).	-10304
▁PRO	-10305
▁Debian	-10306
%)	-10307
▁prosecutors	-10308
▁Heritage	-10309
▁accounted	-10310
▁vers	-10311
▁maternity	-10312
▁Housing	-10313
preced	-10314
▁expensive	-10315
▁Officers	-10316
▁vertical	-10317
▁courage	-10318
▁Arch	-10319
▁margin	-10320
▁Immigration	-10321
spons	-10322
▁UNITAR	-10323
AB	-10324
▁kilometres	-10325
▁configuration	-10326
▁east	-10327
Canada	-10328
▁fix	-10329
▁credentials	-10330
▁generous	-10331
▁superior	-10332
outs	-10333
▁refuse	-10334
▁2002-2003	-10335
post	-10336
▁appropriations	-10337
▁Oman	-10338
▁Tar	-10339
▁Instead	-10340
▁researchers	-10341
▁curricula	-10342
▁processed	-10343
66	-10344
▁Voluntary	-10345
▁Australian	-10346
▁lived	-10347
▁Ram	-10348
▁Bret	-10349
sterdam	-10350
▁Event	-10351
▁childhood	-10352
▁ski	-10353
▁confirmation	-10354
▁Well	-10355
▁agent	-10356
▁annexed	-10357
▁buyer	-10358
▁tob	-10359
▁assurance	-10360
je	-10361
▁3.2	-10362
ditionally	-10363
▁Alber	-10364
▁Located	-10365
▁opposite	-10366
▁minute	-10367
onym	-10368
▁knows	-10369
▁Coal	-10370
▁wastes	-10371
▁impressive	-10372
▁Diversity	-10373
▁inadmissible	-10374
▁Conferences	-10375
▁ancient	-10376
▁straight	-10377
▁correctly	-10378
ACT	-10379
▁holder	-10380
precedented	-10381
▁footnote	-10382
▁recipient	-10383
Sah	-10384
valu	-10385
▁respecting	-10386
▁alter	-10387
▁tragic	-10388
▁nurs	-10389
%,	-10390
▁Fire	-10391
▁friend	-10392
▁prerequ	-10393
▁delete	-10394
▁verbale	-10395
lla	-10396
ounds	-10397
TRA	-10398
▁fostering	-10399
/1999	-10400
▁ages	-10401
▁Young	-10402
▁falls	-10403
▁manifestations	-10404
▁phrase	-10405
▁Booking	-10406
▁obstacle	-10407
▁wherever	-10408
▁environments	-10409
vity	-10410
▁elaborate	-10411
▁Substan	-10412
▁Disabilities	-10413
▁streets	-10414
tainment	-10415
▁Palais	-10416
▁tunnel	-10417
▁Commercial	-10418
▁indirectly	-10419
udence	-10420
▁horizontal	-10421
▁grass	-10422
▁Stresses	-10423
▁Judicial	-10424
▁promulg	-10425
▁recording	-10426
▁sn	-10427
▁Key	-10428
.1),	-10429
▁dans	-10430
▁1991,	-10431
alienable	-10432
▁76	-10433
▁finalized	-10434
eds	-10435
▁disaggregated	-10436
▁exemption	-10437
▁23,	-10438
▁(2000)	-10439
▁SC	-10440
▁unprecedented	-10441
Committee	-10442
▁redeploy	-10443
-201	-10444
▁placing	-10445
aceutical	-10446
▁detri	-10447
▁divor	-10448
-29	-10449
▁Engine	-10450
▁holidays	-10451
▁sand	-10452
forcement	-10453
▁Jac	-10454
▁Pub	-10455
culos	-10456
▁pursuit	-10457
▁admitted	-10458
▁963-5	-10459
▁varied	-10460
▁feedback	-10461
erves	-10462
.4,	-10463
▁Jos	-10464
amps	-10465
▁Pos	-10466
▁pal	-10467
▁Logistics	-10468
▁reun	-10469
▁afore	-10470
tization	-10471
▁White	-10472
▁expense	-10473
RES	-10474
▁Solid	-10475
▁Conduct	-10476
▁capita	-10477
▁jurisdictions	-10478
▁Amsterdam	-10479
▁breast	-10480
▁Funds	-10481
▁Microsoft	-10482
▁Subject	-10483
grading	-10484
75	-10485
▁listen	-10486
▁preparedness	-10487
▁stockp	-10488
▁provider	-10489
▁mount	-10490
▁autonomy	-10491
▁transformation	-10492
UNDP	-10493
▁era	-10494
arer	-10495
arts	-10496
fficiency	-10497
▁medicines	-10498
▁quantities	-10499
▁reverse	-10500
▁runs	-10501
▁executed	-10502
▁accorded	-10503
▁recruited	-10504
▁Dang	-10505
▁remit	-10506
las	-10507
rise	-10508
-9	-10509
▁tobacco	-10510
▁jeopard	-10511
▁Prison	-10512
▁installations	-10513
gar	-10514
str	-10515
▁exac	-10516
▁upcoming	-10517
▁collaborative	-10518
▁Bahamas	-10519
stitutional	-10520
▁proceeding	-10521
▁readiness	-10522
▁exploration	-10523
▁height	-10524
▁parliaments	-10525
▁deficit	-10526
▁Attor	-10527
▁decree	-10528
ref	-10529
▁accuracy	-10530
▁displayed	-10531
▁wond	-10532
▁Comments	-10533
▁bulk	-10534
▁cancer	-10535
light	-10536
▁sens	-10537
mod	-10538
athered	-10539
▁ethical	-10540
▁aspirations	-10541
tier	-10542
▁Like	-10543
RD	-10544
stat	-10545
▁cham	-10546
iencies	-10547
▁guiding	-10548
▁logistics	-10549
▁couple	-10550
▁withdrawn	-10551
▁Men	-10552
▁Dub	-10553
▁Claim	-10554
▁detection	-10555
▁Du	-10556
sives	-10557
▁Kuwaiti	-10558
▁imbal	-10559
disciplinary	-10560
▁conversion	-10561
▁recognised	-10562
▁2:	-10563
▁reaction	-10564
▁SP	-10565
▁handle	-10566
▁Mald	-10567
culosis	-10568
▁exacerb	-10569
▁Desk	-10570
▁Committed	-10571
▁harmonized	-10572
▁punished	-10573
▁doctor	-10574
▁FCCC	-10575
uberculosis	-10576
▁remuneration	-10577
▁David	-10578
▁Consumer	-10579
▁crossing	-10580
▁sampling	-10581
▁Fer	-10582
▁phases	-10583
▁VIII	-10584
▁Abu	-10585
▁Audit	-10586
▁Overall	-10587
ye	-10588
▁checks	-10589
▁ingred	-10590
▁escal	-10591
erge	-10592
▁nearby	-10593
▁rendered	-10594
▁Tu	-10595
▁worse	-10596
CL	-10597
▁conscience	-10598
/2,	-10599
▁rout	-10600
anches	-10601
▁eyes	-10602
▁rough	-10603
▁profits	-10604
▁Discus	-10605
thes	-10606
▁1990,	-10607
▁aside	-10608
▁cells	-10609
▁births	-10610
▁aggreg	-10611
▁elegant	-10612
▁proactive	-10613
▁exhibition	-10614
▁luxury	-10615
itude	-10616
raries	-10617
▁driven	-10618
▁virus	-10619
▁respects	-10620
65	-10621
▁appendix	-10622
▁Long	-10623
▁;	-10624
▁incorporating	-10625
▁arts	-10626
▁imported	-10627
▁uncertainty	-10628
▁defines	-10629
▁Aspects	-10630
▁preferred	-10631
▁las	-10632
▁reflection	-10633
ridge	-10634
▁engaging	-10635
81	-10636
ora	-10637
▁calculation	-10638
▁specifications	-10639
▁inher	-10640
aneous	-10641
oubtedly	-10642
▁Specific	-10643
▁Ensure	-10644
istical	-10645
▁predictable	-10646
Saharan	-10647
iment	-10648
▁perfectly	-10649
she	-10650
▁Altern	-10651
-14	-10652
▁Andorra	-10653
▁magaz	-10654
▁Does	-10655
6/	-10656
olved	-10657
▁discovered	-10658
23	-10659
yo	-10660
▁compilation	-10661
▁Gabon	-10662
isk	-10663
▁Aid	-10664
▁awards	-10665
▁container	-10666
enic	-10667
▁confron	-10668
persons	-10669
▁unnecessary	-10670
▁geographic	-10671
.3,	-10672
▁unemployed	-10673
▁Base	-10674
▁cultivation	-10675
▁modifications	-10676
▁assured	-10677
aya	-10678
▁modify	-10679
proportion	-10680
▁Restaurant	-10681
▁stored	-10682
▁radioactive	-10683
▁Seminar	-10684
▁confident	-10685
▁beauty	-10686
▁negotiate	-10687
uan	-10688
auses	-10689
▁AR	-10690
▁Senate	-10691
▁74	-10692
▁Counsellor	-10693
▁(197	-10694
▁photos	-10695
▁politicians	-10696
▁simultaneously	-10697
▁shut	-10698
▁Read	-10699
▁vacancy	-10700
▁CP	-10701
uated	-10702
▁persec	-10703
▁advisers	-10704
▁NRC	-10705
▁ought	-10706
▁Registrar	-10707
▁synergies	-10708
UB	-10709
▁Method	-10710
▁allocate	-10711
▁euros	-10712
▁continuity	-10713
▁naturally	-10714
government	-10715
▁landscape	-10716
▁aviation	-10717
▁politically	-10718
▁Effective	-10719
MA	-10720
▁Lear	-10721
▁hyper	-10722
ARI	-10723
▁electrical	-10724
▁Prosecution	-10725
▁acute	-10726
▁brake	-10727
▁church	-10728
▁Opportunities	-10729
▁mini	-10730
▁liabilities	-10731
▁22,	-10732
looking	-10733
atibility	-10734
iations	-10735
▁briefly	-10736
▁Ni	-10737
▁denial	-10738
▁kid	-10739
▁Pass	-10740
▁Multi	-10741
▁aforementioned	-10742
▁$10	-10743
gain	-10744
89	-10745
▁fairly	-10746
▁Addendum	-10747
▁Future	-10748
▁operates	-10749
4/	-10750
link	-10751
dri	-10752
▁overw	-10753
▁collecting	-10754
kok	-10755
▁Grow	-10756
▁balances	-10757
▁CTC	-10758
▁crew	-10759
▁diamonds	-10760
▁demonstration	-10761
▁engines	-10762
▁linguistic	-10763
▁modules	-10764
▁Dan	-10765
▁leaves	-10766
▁protective	-10767
▁tempor	-10768
▁disturb	-10769
▁prosecute	-10770
)1	-10771
▁formulating	-10772
ivest	-10773
▁Meas	-10774
ribution	-10775
iers	-10776
▁traged	-10777
▁guideline	-10778
▁mercury	-10779
▁gathered	-10780
▁Narcotic	-10781
▁Pact	-10782
▁robust	-10783
food	-10784
▁24-	-10785
▁prioritiz	-10786
▁logistical	-10787
▁occupational	-10788
▁eye	-10789
▁1997.	-10790
▁upgrading	-10791
▁releases	-10792
▁sight	-10793
▁faster	-10794
bre	-10795
▁Papua	-10796
raisal	-10797
▁instal	-10798
▁borrow	-10799
▁budgeting	-10800
▁accessibility	-10801
▁incite	-10802
▁servicing	-10803
▁marginalized	-10804
iner	-10805
▁freight	-10806
▁Democracy	-10807
App	-10808
▁interior	-10809
▁Card	-10810
▁seiz	-10811
▁Surin	-10812
▁1989	-10813
▁Soft	-10814
▁Sun	-10815
school	-10816
▁Sexual	-10817
▁elaborated	-10818
▁investigated	-10819
▁Rod	-10820
letin	-10821
ordin	-10822
▁PH	-10823
▁Belize	-10824
▁adherence	-10825
IU	-10826
▁overl	-10827
▁doctr	-10828
▁fisher	-10829
▁Maritime	-10830
▁supportive	-10831
▁errors	-10832
oot	-10833
▁onto	-10834
▁mere	-10835
run	-10836
▁braking	-10837
▁mineral	-10838
NE	-10839
▁pressing	-10840
▁discipline	-10841
▁evaluated	-10842
Part	-10843
▁abolition	-10844
ivestock	-10845
urities	-10846
▁Attorney	-10847
▁inev	-10848
▁supposed	-10849
▁tensions	-10850
▁plain	-10851
erion	-10852
▁ratifying	-10853
RF	-10854
▁Sunday	-10855
▁visual	-10856
▁Belgian	-10857
held	-10858
oria	-10859
▁heating	-10860
▁doors	-10861
▁mitigate	-10862
▁machines	-10863
▁Arc	-10864
aughter	-10865
▁ecological	-10866
aiwan	-10867
HA	-10868
▁continuously	-10869
▁Merc	-10870
▁Communities	-10871
▁(20	-10872
▁insist	-10873
▁hosting	-10874
▁relatives	-10875
▁ICC	-10876
▁Jes	-10877
▁connections	-10878
▁aggra	-10879
▁Missions	-10880
▁Bud	-10881
▁forg	-10882
▁proclaim	-10883
▁Master	-10884
▁philosoph	-10885
▁repar	-10886
exp	-10887
▁1988	-10888
▁Woods	-10889
▁partially	-10890
pass	-10891
▁stating	-10892
quiries	-10893
right	-10894
▁consequently	-10895
ortions	-10896
▁bure	-10897
▁incompatible	-10898
▁prohibits	-10899
▁pillars	-10900
▁tension	-10901
▁Administrator	-10902
▁disproportion	-10903
site	-10904
▁Subsequently	-10905
tail	-10906
▁vend	-10907
▁faces	-10908
author	-10909
▁Form	-10910
▁Inspect	-10911
▁perceived	-10912
▁130	-10913
▁dimin	-10914
▁producer	-10915
▁concentrated	-10916
▁140	-10917
▁spoken	-10918
▁reinforcing	-10919
▁studied	-10920
▁weaken	-10921
▁Outcome	-10922
▁Innov	-10923
▁artistic	-10924
▁coc	-10925
▁argued	-10926
▁commerce	-10927
▁Peter	-10928
▁lobby	-10929
▁wrongful	-10930
▁swe	-10931
▁Vinc	-10932
▁Multilateral	-10933
▁feeling	-10934
▁cerem	-10935
▁Europeans	-10936
74	-10937
ida	-10938
▁married	-10939
▁gathering	-10940
▁virtually	-10941
night	-10942
▁Equipment	-10943
▁Mu	-10944
onto	-10945
▁Bern	-10946
▁edge	-10947
cow	-10948
▁unfair	-10949
▁steering	-10950
▁fabric	-10951
▁Fe	-10952
pa	-10953
▁MO	-10954
▁travelling	-10955
▁PAR	-10956
agenda	-10957
▁submits	-10958
▁Maldives	-10959
▁Organizational	-10960
▁Academy	-10961
▁realities	-10962
▁render	-10963
▁handed	-10964
3/	-10965
▁scientists	-10966
▁Cauc	-10967
rick	-10968
azing	-10969
Original	-10970
▁flights	-10971
afe	-10972
Afric	-10973
▁scholars	-10974
ropical	-10975
▁malnutrition	-10976
PM	-10977
EB	-10978
pin	-10979
▁Golan	-10980
▁motivated	-10981
▁Check	-10982
▁criticism	-10983
▁COMM	-10984
▁Marino	-10985
▁Gard	-10986
▁demanding	-10987
uba	-10988
ocal	-10989
▁Mean	-10990
▁derog	-10991
▁prospect	-10992
▁upgrade	-10993
▁supplier	-10994
▁CN	-10995
▁cook	-10996
fferen	-10997
etric	-10998
▁avoiding	-10999
▁investigating	-11000
rad	-11001
gage	-11002
▁milk	-11003
▁spot	-11004
inance	-11005
▁workload	-11006
▁Manufact	-11007
▁8.	-11008
▁WFP	-11009
hy	-11010
icket	-11011
ibly	-11012
plete	-11013
▁abstentions	-11014
▁noise	-11015
unc	-11016
▁Cri	-11017
▁cuts	-11018
▁Commerce	-11019
.25	-11020
oviet	-11021
▁license	-11022
▁Martin	-11023
▁Cho	-11024
▁harmony	-11025
▁pandemic	-11026
(1)	-11027
vert	-11028
field	-11029
▁ECA	-11030
▁delivering	-11031
▁evaluating	-11032
lis	-11033
▁Deb	-11034
otho	-11035
eness	-11036
▁whilst	-11037
tun	-11038
umbia	-11039
▁accessed	-11040
flow	-11041
rapy	-11042
▁2.3	-11043
▁infected	-11044
orate	-11045
▁intent	-11046
asse	-11047
oma	-11048
▁Lake	-11049
▁challenging	-11050
▁dark	-11051
▁buffet	-11052
aire	-11053
▁Top	-11054
.4.	-11055
▁Desertification	-11056
▁operator	-11057
omer	-11058
keep	-11059
▁Dangerous	-11060
comings	-11061
▁cutting	-11062
▁interviews	-11063
▁recyc	-11064
▁24,	-11065
▁acted	-11066
▁containers	-11067
▁GN	-11068
▁98	-11069
▁aliens	-11070
▁directions	-11071
▁feasibility	-11072
▁Famil	-11073
▁seeing	-11074
▁Commissioners	-11075
▁(4)	-11076
▁Manual	-11077
ERS	-11078
▁68	-11079
▁Suriname	-11080
▁computers	-11081
▁divisions	-11082
▁routine	-11083
▁happens	-11084
▁thanked	-11085
▁shap	-11086
docs	-11087
▁Electoral	-11088
▁83	-11089
▁Clean	-11090
ysical	-11091
▁recept	-11092
▁radiation	-11093
▁Additionally	-11094
▁accomplished	-11095
▁cable	-11096
▁Cabinet	-11097
▁Works	-11098
▁practition	-11099
▁Establishment	-11100
▁Far	-11101
▁fat	-11102
▁RIGH	-11103
▁restriction	-11104
▁CF	-11105
▁journey	-11106
▁networking	-11107
▁nominated	-11108
orted	-11109
▁Swaz	-11110
▁ranging	-11111
atorial	-11112
▁Gas	-11113
▁meth	-11114
▁unre	-11115
▁regrets	-11116
▁typically	-11117
break	-11118
▁Acts	-11119
▁witnessed	-11120
▁pledged	-11121
▁arbitral	-11122
▁apportion	-11123
▁6.1	-11124
TH	-11125
▁1970	-11126
▁Groups	-11127
▁complicated	-11128
▁dangers	-11129
▁Taiwan	-11130
▁(2003)	-11131
sensitive	-11132
▁prolong	-11133
▁stories	-11134
ourge	-11135
▁Congolese	-11136
/15/	-11137
▁pertin	-11138
▁Breakfast	-11139
▁Domestic	-11140
▁describes	-11141
rying	-11142
▁blue	-11143
▁Substantive	-11144
▁resc	-11145
▁Korean	-11146
▁attractions	-11147
▁reimbursement	-11148
▁shif	-11149
vened	-11150
▁Bretton	-11151
▁calm	-11152
▁multinational	-11153
astro	-11154
prudence	-11155
▁clarity	-11156
▁600	-11157
▁resett	-11158
▁pensions	-11159
▁tribunals	-11160
▁Instru	-11161
▁genetic	-11162
▁contractors	-11163
▁reinforced	-11164
esa	-11165
ounce	-11166
▁hearings	-11167
▁corrections	-11168
imp	-11169
▁restrict	-11170
FF	-11171
tigua	-11172
▁catch	-11173
▁uncon	-11174
FPA	-11175
▁Import	-11176
▁vit	-11177
▁acceded	-11178
▁incorporation	-11179
▁Polish	-11180
▁Mer	-11181
▁honourable	-11182
▁87	-11183
▁Unity	-11184
▁shortcomings	-11185
▁videos	-11186
▁Columbia	-11187
▁advocate	-11188
▁exercises	-11189
▁subsistence	-11190
cons	-11191
▁credits	-11192
▁Transfer	-11193
▁ther	-11194
▁specialist	-11195
▁bureauc	-11196
isi	-11197
arked	-11198
▁Agreements	-11199
▁Fundamental	-11200
▁Mass	-11201
▁Presidents	-11202
▁appropriately	-11203
▁99	-11204
64	-11205
As	-11206
▁Recognizes	-11207
▁commencement	-11208
asa	-11209
▁[[	-11210
▁ends	-11211
▁reliability	-11212
▁medicine	-11213
▁Brief	-11214
▁clearance	-11215
▁Individual	-11216
▁completing	-11217
▁(10	-11218
▁worker	-11219
▁preference	-11220
▁strive	-11221
▁renewal	-11222
ums	-11223
▁scan	-11224
▁Hence	-11225
▁foremost	-11226
▁racist	-11227
▁Democrats	-11228
▁Professor	-11229
▁planet	-11230
▁spouse	-11231
▁Ce	-11232
▁Swaziland	-11233
▁Festival	-11234
▁concentrate	-11235
▁spare	-11236
▁Lt	-11237
▁Pet	-11238
▁Have	-11239
▁lighting	-11240
▁Enjoy	-11241
▁2006-0	-11242
▁judgment	-11243
UNEP	-11244
▁Make	-11245
/2005/	-11246
▁sevent	-11247
UNC	-11248
▁farms	-11249
On	-11250
oros	-11251
▁borne	-11252
▁firearms	-11253
▁inequalities	-11254
▁imposition	-11255
▁Bangkok	-11256
▁portfolio	-11257
pi	-11258
▁97	-11259
▁Granting	-11260
▁fron	-11261
▁Er	-11262
▁Victims	-11263
ham	-11264
▁Box	-11265
▁enth	-11266
▁commem	-11267
iled	-11268
▁Dam	-11269
▁Registration	-11270
section	-11271
▁sharp	-11272
▁boat	-11273
▁promise	-11274
elau	-11275
▁applicants	-11276
▁Town	-11277
▁tradem	-11278
▁samples	-11279
win	-11280
aval	-11281
rut	-11282
▁fragile	-11283
▁doesn	-11284
▁Operational	-11285
ESS	-11286
▁180	-11287
▁Games	-11288
▁Plaza	-11289
▁visibility	-11290
▁About	-11291
▁Lucia	-11292
▁rating	-11293
▁turning	-11294
▁undoubtedly	-11295
levant	-11296
▁smuggling	-11297
▁4.2	-11298
▁impression	-11299
▁switch	-11300
▁71	-11301
▁dismant	-11302
▁Ros	-11303
▁segments	-11304
Gu	-11305
▁unified	-11306
▁Honourable	-11307
▁Nord	-11308
▁conciliation	-11309
▁appropriation	-11310
▁artic	-11311
▁sick	-11312
▁Genocide	-11313
lers	-11314
▁meters	-11315
▁scene	-11316
tite	-11317
atization	-11318
ategory	-11319
▁surplus	-11320
▁Mi	-11321
▁violate	-11322
otechnology	-11323
France	-11324
profit	-11325
▁Thirty	-11326
▁attempted	-11327
▁Mel	-11328
▁Soviet	-11329
▁5.1	-11330
▁insert	-11331
▁Includ	-11332
▁Mah	-11333
▁adolescent	-11334
IES	-11335
▁exclude	-11336
asy	-11337
▁1996.	-11338
▁Gold	-11339
▁disappearance	-11340
gc	-11341
▁78	-11342
▁abortion	-11343
▁Know	-11344
▁favor	-11345
▁Award	-11346
▁testimony	-11347
▁Particular	-11348
én	-11349
alam	-11350
▁structured	-11351
▁Jo	-11352
▁tor	-11353
▁Conditions	-11354
▁ment	-11355
▁incumb	-11356
▁attributed	-11357
▁distinguished	-11358
▁spiritual	-11359
▁Lesotho	-11360
▁mixture	-11361
,000.	-11362
inn	-11363
▁EX	-11364
▁Five	-11365
▁Interest	-11366
SIL	-11367
▁selling	-11368
ructures	-11369
▁Old	-11370
▁DVD	-11371
▁branches	-11372
▁allocations	-11373
▁appearance	-11374
▁tent	-11375
▁UNAIDS	-11376
▁exercising	-11377
▁enjo	-11378
▁concludes	-11379
▁objections	-11380
ounge	-11381
▁MEP	-11382
▁pledges	-11383
▁bases	-11384
▁Effects	-11385
▁30,	-11386
urday	-11387
▁clarified	-11388
ford	-11389
▁Get	-11390
urches	-11391
▁Moscow	-11392
▁Integration	-11393
▁quota	-11394
▁casual	-11395
▁Practice	-11396
▁Pers	-11397
▁pillar	-11398
▁cheap	-11399
▁locally	-11400
▁controlling	-11401
▁authorize	-11402
▁pertinent	-11403
▁landmin	-11404
]]	-11405
▁rank	-11406
▁moder	-11407
▁volati	-11408
▁José	-11409
grams	-11410
▁detect	-11411
azz	-11412
▁ease	-11413
ounced	-11414
▁sincere	-11415
▁Prep	-11416
▁Scot	-11417
▁identical	-11418
.4.1	-11419
▁Inhuman	-11420
▁reputation	-11421
▁modification	-11422
▁Envoy	-11423
▁sugar	-11424
sun	-11425
jections	-11426
apse	-11427
shall	-11428
fications	-11429
▁overwhel	-11430
▁Urban	-11431
OCI	-11432
heric	-11433
▁implies	-11434
▁recourse	-11435
ophistic	-11436
mi	-11437
▁Eradication	-11438
▁issuing	-11439
▁benchmarks	-11440
gel	-11441
▁appraisal	-11442
▁Catholic	-11443
▁limiting	-11444
lles	-11445
▁resumption	-11446
▁sexually	-11447
▁shell	-11448
▁Lu	-11449
▁Dra	-11450
ideo	-11451
▁receptac	-11452
▁thereafter	-11453
▁united	-11454
ho	-11455
▁qualitative	-11456
▁advancing	-11457
▁damaged	-11458
▁screening	-11459
ops	-11460
▁Villa	-11461
▁foods	-11462
▁Tokelau	-11463
▁remarkable	-11464
abe	-11465
▁25,	-11466
▁MP	-11467
▁Meetings	-11468
▁Fran	-11469
▁socially	-11470
▁fol	-11471
▁parad	-11472
ructural	-11473
▁Volunteers	-11474
▁Response	-11475
▁Degrading	-11476
▁contro	-11477
AG	-11478
uccess	-11479
▁unknown	-11480
▁fro	-11481
German	-11482
▁Decisions	-11483
▁volunteers	-11484
▁Toronto	-11485
▁hygi	-11486
55	-11487
▁killings	-11488
▁travellers	-11489
class	-11490
▁battle	-11491
▁Tribunals	-11492
NC	-11493
▁1540	-11494
▁comprise	-11495
▁Apart	-11496
ero	-11497
appropriate	-11498
▁Facilities	-11499
▁pharmaceutical	-11500
▁diversification	-11501
▁SBI	-11502
▁93	-11503
▁wondered	-11504
▁vacancies	-11505
▁extrajudicial	-11506
▁livelihoods	-11507
▁jurisprudence	-11508
▁Very	-11509
▁Wi	-11510
▁pus	-11511
▁boards	-11512
▁holders	-11513
▁summarized	-11514
▁maximize	-11515
▁associate	-11516
▁Goal	-11517
▁glad	-11518
▁photograph	-11519
▁tow	-11520
▁stood	-11521
▁Terms	-11522
▁consulting	-11523
▁undertook	-11524
▁harmonize	-11525
▁degrees	-11526
▁chairmanship	-11527
▁Powers	-11528
▁walls	-11529
▁Vehicle	-11530
▁mountains	-11531
ili	-11532
▁pestic	-11533
part	-11534
▁copyright	-11535
▁Barbuda	-11536
elle	-11537
oba	-11538
▁directors	-11539
▁evolving	-11540
▁demonstrates	-11541
▁headl	-11542
▁workforce	-11543
▁aiming	-11544
▁happening	-11545
▁starts	-11546
▁Alex	-11547
▁Trial	-11548
▁trips	-11549
▁enthusi	-11550
▁regulating	-11551
▁69	-11552
aden	-11553
▁revers	-11554
ns	-11555
▁Programmes	-11556
▁pollutants	-11557
▁substanti	-11558
▁ME	-11559
akings	-11560
▁jun	-11561
▁RIGHTS	-11562
▁restored	-11563
▁(7	-11564
ghts	-11565
essation	-11566
riminatory	-11567
▁Virgin	-11568
▁outdoor	-11569
heres	-11570
▁stimulate	-11571
▁constructed	-11572
▁doctors	-11573
▁96	-11574
▁relaxing	-11575
/2004/	-11576
etus	-11577
▁succeeded	-11578
▁Nice	-11579
▁persist	-11580
oral	-11581
Sp	-11582
fund	-11583
west	-11584
▁illness	-11585
▁isolation	-11586
▁Dest	-11587
▁Forty	-11588
▁reass	-11589
▁Classification	-11590
BM	-11591
▁toile	-11592
▁EMEP	-11593
▁Jewish	-11594
▁patient	-11595
casts	-11596
▁Star	-11597
▁descent	-11598
▁Austrian	-11599
▁grain	-11600
▁spouses	-11601
efficient	-11602
▁libraries	-11603
ét	-11604
.3.1	-11605
▁ESCAP	-11606
atorium	-11607
▁virtual	-11608
tible	-11609
▁imposing	-11610
weg	-11611
▁utilized	-11612
▁password	-11613
▁discont	-11614
▁tracking	-11615
arest	-11616
▁Coordinating	-11617
criptions	-11618
▁combatants	-11619
uveniles	-11620
▁Antigua	-11621
▁licensing	-11622
-17	-11623
▁ASE	-11624
▁cycles	-11625
▁adds	-11626
▁modes	-11627
▁Gulf	-11628
about	-11629
▁lift	-11630
▁mutil	-11631
▁globally	-11632
▁decolonization	-11633
▁amen	-11634
▁broken	-11635
▁eleventh	-11636
▁lacking	-11637
ressions	-11638
▁fate	-11639
▁sheet	-11640
ittees	-11641
▁recalling	-11642
▁allowances	-11643
▁prosecuted	-11644
aming	-11645
▁breakdown	-11646
▁convergence	-11647
ethnic	-11648
▁endeavours	-11649
soever	-11650
/21	-11651
▁sophistic	-11652
▁Role	-11653
▁broadly	-11654
▁joining	-11655
▁west	-11656
▁sad	-11657
sectoral	-11658
▁Socialist	-11659
▁linking	-11660
born	-11661
▁settled	-11662
enness	-11663
▁charming	-11664
▁snow	-11665
▁dishes	-11666
▁precurs	-11667
▁stone	-11668
▁avoided	-11669
▁OIC	-11670
▁differ	-11671
rote	-11672
▁Recent	-11673
ogle	-11674
entiary	-11675
ime	-11676
▁mobilizing	-11677
▁Arbitration	-11678
odes	-11679
ensed	-11680
▁Ltd	-11681
aug	-11682
▁Provide	-11683
unei	-11684
▁800	-11685
▁Welcome	-11686
▁Who	-11687
▁purchased	-11688
mas	-11689
▁premium	-11690
▁Blue	-11691
▁Sche	-11692
▁stores	-11693
▁plural	-11694
gues	-11695
acent	-11696
2/	-11697
▁councils	-11698
omon	-11699
▁normative	-11700
TD	-11701
▁passage	-11702
▁Reiterates	-11703
▁Manager	-11704
▁PM	-11705
▁quotas	-11706
osing	-11707
▁Name	-11708
▁payable	-11709
▁printing	-11710
▁Has	-11711
▁reciproc	-11712
▁laboratory	-11713
▁filter	-11714
anger	-11715
inger	-11716
▁beaches	-11717
▁livestock	-11718
Res	-11719
▁Kim	-11720
ito	-11721
▁3-	-11722
▁circulation	-11723
iatric	-11724
▁fails	-11725
▁labelling	-11726
▁balcon	-11727
parts	-11728
▁Income	-11729
role	-11730
▁stabilization	-11731
▁Olympic	-11732
▁combine	-11733
▁infections	-11734
▁surrounded	-11735
▁rejection	-11736
.1/	-11737
▁Full	-11738
▁advent	-11739
▁Balkans	-11740
▁shor	-11741
▁documented	-11742
titative	-11743
▁alongside	-11744
zy	-11745
amin	-11746
forestation	-11747
▁gradual	-11748
▁rare	-11749
tiality	-11750
▁Subprogramme	-11751
▁cancellation	-11752
▁bid	-11753
▁divide	-11754
▁Mexican	-11755
▁clothing	-11756
▁var	-11757
adi	-11758
▁misc	-11759
titions	-11760
▁fuels	-11761
▁privileges	-11762
▁neighbourhood	-11763
▁inspectors	-11764
▁wars	-11765
▁Examp	-11766
▁claimants	-11767
▁Gaz	-11768
Rec	-11769
den	-11770
▁5.2	-11771
-2011	-11772
▁Promoting	-11773
▁guardians	-11774
▁31,	-11775
▁timing	-11776
▁bedrooms	-11777
▁chapters	-11778
28	-11779
▁semi	-11780
▁ballot	-11781
▁concentrations	-11782
▁beliefs	-11783
SL	-11784
▁110	-11785
ertion	-11786
▁centuries	-11787
▁Uni	-11788
▁participant	-11789
RU	-11790
▁ox	-11791
▁editor	-11792
ema	-11793
stone	-11794
▁browser	-11795
trial	-11796
▁habit	-11797
▁ASEAN	-11798
▁ties	-11799
acters	-11800
▁ju	-11801
▁grade	-11802
▁deposited	-11803
▁invo	-11804
▁Michael	-11805
▁dog	-11806
▁Type	-11807
▁Performance	-11808
▁appealed	-11809
▁renovated	-11810
▁helic	-11811
▁Ori	-11812
▁Labor	-11813
▁(2006)	-11814
books	-11815
▁Products	-11816
▁entertainment	-11817
▁Families	-11818
▁Priority	-11819
▁Decolonization	-11820
▁boundaries	-11821
/28	-11822
▁Hig	-11823
▁Consolid	-11824
ois	-11825
▁commonly	-11826
▁spa	-11827
roller	-11828
▁brut	-11829
▁corrected	-11830
allery	-11831
▁admit	-11832
▁chronic	-11833
iber	-11834
▁scrut	-11835
▁10-	-11836
▁Dig	-11837
▁Gir	-11838
▁begins	-11839
▁entrance	-11840
▁reasonably	-11841
▁blog	-11842
▁Recon	-11843
▁Marine	-11844
▁bureau	-11845
▁undertakings	-11846
▁accede	-11847
▁measurements	-11848
▁conce	-11849
▁removing	-11850
▁Cypriot	-11851
▁Bush	-11852
▁Find	-11853
imension	-11854
▁Municip	-11855
▁84	-11856
▁Cur	-11857
▁Vincent	-11858
▁TH	-11859
educ	-11860
▁criterion	-11861
▁gri	-11862
▁earm	-11863
▁Brunei	-11864
Other	-11865
▁Alberta	-11866
▁Mine	-11867
ambular	-11868
▁neutral	-11869
▁Saturday	-11870
▁1/	-11871
PP	-11872
/1,	-11873
▁cooperating	-11874
▁Vill	-11875
▁recognise	-11876
ui	-11877
▁Americas	-11878
▁conscious	-11879
▁Held	-11880
▁finished	-11881
Ann	-11882
▁(2005)	-11883
lamation	-11884
cher	-11885
vement	-11886
▁passport	-11887
och	-11888
▁bars	-11889
▁helicop	-11890
/1373	-11891
▁arranged	-11892
▁3.5	-11893
▁Cruel	-11894
▁escape	-11895
▁intervene	-11896
▁Emphasizes	-11897
discriminatory	-11898
▁everywhere	-11899
cknow	-11900
▁prohibiting	-11901
▁Likewise	-11902
▁exhaus	-11903
RO	-11904
▁ice	-11905
artet	-11906
▁Vict	-11907
▁narco	-11908
▁dramatic	-11909
private	-11910
bat	-11911
ierre	-11912
▁surf	-11913
bas	-11914
▁Considering	-11915
aine	-11916
▁Gar	-11917
▁overseas	-11918
group	-11919
▁steady	-11920
▁committing	-11921
▁publishing	-11922
-31	-11923
▁86	-11924
▁Software	-11925
iqué	-11926
▁Meanwhile	-11927
▁Level	-11928
▁institutes	-11929
▁lawful	-11930
▁row	-11931
▁Gambia	-11932
▁independently	-11933
▁gtr	-11934
▁Wall	-11935
rif	-11936
▁dos	-11937
▁peak	-11938
▁intimidation	-11939
icians	-11940
▁translate	-11941
▁Ele	-11942
▁embod	-11943
▁Iranian	-11944
▁neglect	-11945
▁booking	-11946
▁Somali	-11947
/40/	-11948
▁Repl	-11949
finance	-11950
▁modest	-11951
▁avec	-11952
▁presid	-11953
▁clauses	-11954
CES	-11955
▁threaten	-11956
▁perpetrated	-11957
PV	-11958
▁Gl	-11959
▁Ten	-11960
▁Linux	-11961
ensation	-11962
atial	-11963
▁Uses	-11964
▁assemb	-11965
▁gear	-11966
▁inspired	-11967
▁incom	-11968
▁emotion	-11969
made	-11970
▁Ach	-11971
▁Ger	-11972
▁enjoys	-11973
▁hazards	-11974
▁characters	-11975
▁dismiss	-11976
▁XV	-11977
ulph	-11978
▁passion	-11979
▁protest	-11980
elve	-11981
ebted	-11982
▁$6	-11983
▁outs	-11984
▁announcement	-11985
▁Bene	-11986
▁attainment	-11987
▁filing	-11988
▁reconsid	-11989
▁generating	-11990
tious	-11991
▁invoked	-11992
▁skilled	-11993
▁Practices	-11994
▁preambular	-11995
▁lect	-11996
▁enrich	-11997
▁Disabled	-11998
risk	-11999
▁eat	-12000
conf	-12001
▁seller	-12002
▁firstly	-12003
▁gift	-12004
agn	-12005
mend	-12006
▁Stability	-12007
▁Growth	-12008
▁Together	-12009
▁Solidarity	-12010
▁cant	-12011
▁interdependence	-12012
▁Circ	-12013
▁experiencing	-12014
riages	-12015
▁Provisions	-12016
▁88	-12017
▁Arts	-12018
▁angle	-12019
▁Coalition	-12020
QU	-12021
▁92	-12022
▁resettlement	-12023
▁unlikely	-12024
▁Belgrade	-12025
▁(2002)	-12026
▁disagree	-12027
dad	-12028
▁26,	-12029
▁academ	-12030
▁Proposal	-12031
▁offender	-12032
organization	-12033
ided	-12034
▁Start	-12035
ussalam	-12036
▁91	-12037
▁nationally	-12038
iscrimin	-12039
▁incentive	-12040
▁revisions	-12041
tifications	-12042
▁munitions	-12043
iant	-12044
▁youn	-12045
▁2.4	-12046
▁Emp	-12047
nuclear	-12048
decision	-12049
▁adjourn	-12050
▁intensity	-12051
▁propag	-12052
▁kidn	-12053
▁Perhaps	-12054
▁AS	-12055
▁82	-12056
▁substitute	-12057
▁enemy	-12058
▁scourge	-12059
▁maps	-12060
▁170	-12061
▁suite	-12062
▁Applications	-12063
▁Search	-12064
cript	-12065
▁beam	-12066
▁ECOWAS	-12067
titution	-12068
▁exceeded	-12069
▁predic	-12070
▁Webs	-12071
-13	-12072
uggage	-12073
▁divorce	-12074
▁autonomous	-12075
▁Upd	-12076
▁Census	-12077
▁Up	-12078
FAO	-12079
▁2020	-12080
▁civilizations	-12081
speaking	-12082
▁Governance	-12083
inqu	-12084
▁suspect	-12085
▁unex	-12086
▁fan	-12087
▁handled	-12088
brid	-12089
▁Require	-12090
▁UNMIS	-12091
▁Farm	-12092
▁opens	-12093
uzz	-12094
▁9.	-12095
▁golf	-12096
▁filling	-12097
▁28,	-12098
-16	-12099
▁Gues	-12100
▁miles	-12101
▁argues	-12102
▁accredited	-12103
-22	-12104
ston	-12105
▁oceans	-12106
▁Ent	-12107
▁UNDAF	-12108
▁monu	-12109
▁counterparts	-12110
▁Peaceful	-12111
TED	-12112
▁Darussalam	-12113
cus	-12114
▁tragedy	-12115
56	-12116
▁accreditation	-12117
asm	-12118
▁gun	-12119
▁tac	-12120
▁Jose	-12121
development	-12122
liest	-12123
▁clubs	-12124
▁bio	-12125
▁Sar	-12126
obil	-12127
▁Ven	-12128
CI	-12129
dden	-12130
▁assault	-12131
▁films	-12132
▁wrote	-12133
▁Acknow	-12134
▁dinner	-12135
▁empowered	-12136
▁1)	-12137
▁drink	-12138
▁settle	-12139
▁isolated	-12140
▁breat	-12141
▁Comoros	-12142
▁Credentials	-12143
▁secretariats	-12144
rome	-12145
▁Map	-12146
▁practitioners	-12147
itate	-12148
kin	-12149
▁2)	-12150
▁tackling	-12151
▁comprised	-12152
▁emergence	-12153
▁cm	-12154
hour	-12155
▁Kit	-12156
▁Rwandan	-12157
▁openness	-12158
Dep	-12159
amine	-12160
▁Sport	-12161
▁TRA	-12162
▁finish	-12163
ella	-12164
▁Jesus	-12165
▁suites	-12166
▁Line	-12167
▁anch	-12168
inity	-12169
▁cope	-12170
▁190	-12171
▁Wal	-12172
▁fleet	-12173
▁impartiality	-12174
▁(2001),	-12175
▁amounting	-12176
▁artist	-12177
Corr	-12178
Net	-12179
▁IF	-12180
▁Max	-12181
▁predecess	-12182
:30	-12183
▁27,	-12184
▁abandoned	-12185
Fi	-12186
bel	-12187
▁broadcasting	-12188
▁quantitative	-12189
▁Counsel	-12190
minute	-12191
▁exploring	-12192
teor	-12193
▁hes	-12194
gregation	-12195
Fin	-12196
▁94	-12197
▁usage	-12198
▁aggrav	-12199
▁breaches	-12200
▁acknowledges	-12201
ROM	-12202
▁array	-12203
▁musical	-12204
cred	-12205
▁drama	-12206
ouble	-12207
▁milit	-12208
▁spheres	-12209
▁amenities	-12210
▁Using	-12211
▁Unless	-12212
▁specially	-12213
NL	-12214
da	-12215
▁Conservation	-12216
▁dischar	-12217
▁Baltic	-12218
▁correspondence	-12219
cies	-12220
▁Place	-12221
▁Gib	-12222
▁Brun	-12223
▁prime	-12224
inement	-12225
/40	-12226
iced	-12227
▁coalition	-12228
▁Observ	-12229
▁annot	-12230
▁twelfth	-12231
▁Chemicals	-12232
▁tree	-12233
▁Besides	-12234
Pacific	-12235
▁occurring	-12236
rears	-12237
▁England	-12238
Aust	-12239
▁ICP	-12240
▁anywhere	-12241
▁Maj	-12242
▁Negoti	-12243
▁preserving	-12244
▁ball	-12245
▁Policies	-12246
▁whatsoever	-12247
▁introductory	-12248
orian	-12249
▁Directors	-12250
mand	-12251
▁readily	-12252
▁accelerated	-12253
▁mutilation	-12254
▁instalment	-12255
▁CER	-12256
letter	-12257
▁disreg	-12258
▁Harmonization	-12259
▁Hosp	-12260
▁Vietnam	-12261
▁Tit	-12262
front	-12263
▁2007-0	-12264
chair	-12265
▁prerequisite	-12266
▁purchasing	-12267
roleum	-12268
▁Mountain	-12269
▁cum	-12270
osium	-12271
▁ethics	-12272
▁impetus	-12273
.18	-12274
kel	-12275
▁cart	-12276
▁eligibility	-12277
----	-12278
▁disseminated	-12279
ickets	-12280
ji	-12281
ila	-12282
▁deserve	-12283
▁wines	-12284
▁UNIFIL	-12285
▁wireless	-12286
29	-12287
▁hect	-12288
▁Minimum	-12289
hort	-12290
▁peer	-12291
▁hall	-12292
▁Avail	-12293
ousands	-12294
fra	-12295
▁literature	-12296
compan	-12297
▁panels	-12298
iov	-12299
▁INF	-12300
▁Trusteeship	-12301
▁prominent	-12302
▁deliberate	-12303
▁deny	-12304
racies	-12305
affected	-12306
▁radical	-12307
▁inflic	-12308
GB	-12309
▁Regular	-12310
uations	-12311
▁dining	-12312
▁commends	-12313
34	-12314
▁intensified	-12315
▁coordinators	-12316
onic	-12317
▁Brazilian	-12318
▁consolidating	-12319
uv	-12320
▁gets	-12321
▁revise	-12322
▁incomes	-12323
▁respondents	-12324
7/	-12325
emb	-12326
ENTS	-12327
▁bond	-12328
▁Annan	-12329
▁draws	-12330
apped	-12331
▁Resolutions	-12332
▁ran	-12333
▁Prince	-12334
▁circular	-12335
▁volunteer	-12336
▁minimal	-12337
▁inconsistent	-12338
▁inm	-12339
Women	-12340
▁pick	-12341
▁Frank	-12342
▁suicide	-12343
onga	-12344
▁complied	-12345
▁29,	-12346
DCP	-12347
▁lake	-12348
▁Broad	-12349
▁native	-12350
▁checked	-12351
▁corporation	-12352
▁adversely	-12353
▁hur	-12354
▁Zone	-12355
▁dropped	-12356
▁audience	-12357
▁produces	-12358
▁audits	-12359
▁theatre	-12360
▁decorated	-12361
▁1982	-12362
▁saving	-12363
▁doubts	-12364
bul	-12365
▁genital	-12366
▁mir	-12367
ski	-12368
▁baseline	-12369
▁compatibility	-12370
ighbour	-12371
▁holistic	-12372
▁scenario	-12373
▁roof	-12374
far	-12375
▁Alternative	-12376
iev	-12377
▁cater	-12378
39	-12379
▁arrears	-12380
▁Construction	-12381
▁Watch	-12382
▁alike	-12383
onian	-12384
-19	-12385
.3.2	-12386
▁shortage	-12387
▁acceding	-12388
ecutives	-12389
▁mankind	-12390
▁collectively	-12391
▁overwhelming	-12392
fa	-12393
▁pul	-12394
aste	-12395
▁purely	-12396
▁earnings	-12397
▁infrastructures	-12398
▁importantly	-12399
asury	-12400
onymous	-12401
▁safeguarding	-12402
▁breed	-12403
▁definitely	-12404
rer	-12405
▁fissile	-12406
/52	-12407
▁plate	-12408
rorist	-12409
▁carries	-12410
▁refund	-12411
▁Google	-12412
▁Robert	-12413
▁Nonetheless	-12414
▁Fact	-12415
▁explanations	-12416
▁CAN	-12417
▁qui	-12418
itting	-12419
▁traditionally	-12420
▁tremend	-12421
▁moreover	-12422
▁Aviation	-12423
▁hardware	-12424
▁Refugee	-12425
▁Ki	-12426
▁theory	-12427
▁Others	-12428
▁Guests	-12429
▁Privacy	-12430
▁acid	-12431
▁dismis	-12432
▁airports	-12433
▁windows	-12434
▁Registry	-12435
▁taught	-12436
.109	-12437
▁disseminating	-12438
▁Defin	-12439
▁Solomon	-12440
▁earliest	-12441
ders	-12442
ivic	-12443
ennis	-12444
▁compos	-12445
▁dialog	-12446
▁DE	-12447
▁Minutes	-12448
Test	-12449
▁POP	-12450
▁105	-12451
▁cry	-12452
▁81	-12453
▁fragment	-12454
.13	-12455
▁sail	-12456
docu	-12457
wegian	-12458
▁Bonn	-12459
Bel	-12460
▁Consider	-12461
▁Sudanese	-12462
words	-12463
▁ministry	-12464
PRST	-12465
▁Stra	-12466
market	-12467
▁intentions	-12468
▁compiled	-12469
▁excellence	-12470
Boliv	-12471
rible	-12472
▁fallen	-12473
▁100,000	-12474
▁multip	-12475
▁weaknesses	-12476
nee	-12477
worth	-12478
▁abstain	-12479
▁analysed	-12480
irs	-12481
▁restrictive	-12482
car	-12483
iarity	-12484
▁Impact	-12485
▁inability	-12486
▁outbreak	-12487
sunami	-12488
rect	-12489
LC	-12490
▁).	-12491
▁stopped	-12492
▁weekly	-12493
▁ingredients	-12494
▁confer	-12495
▁attaches	-12496
▁Indicators	-12497
▁sor	-12498
▁connect	-12499
▁corporal	-12500
▁everyday	-12501
▁Juvenile	-12502
▁Pres	-12503
ILO	-12504
▁stereotypes	-12505
▁vib	-12506
ym	-12507
▁diame	-12508
▁metals	-12509
▁plastic	-12510
iga	-12511
▁manufactured	-12512
▁Week	-12513
▁fant	-12514
▁incitement	-12515
▁hygiene	-12516
▁monopol	-12517
asting	-12518
▁stars	-12519
▁oversee	-12520
▁definitive	-12521
▁dismissed	-12522
▁$7	-12523
/5/	-12524
▁alleviate	-12525
▁Record	-12526
▁ic	-12527
▁sho	-12528
▁conceptual	-12529
▁distribute	-12530
▁investigative	-12531
-24	-12532
▁Down	-12533
ey	-12534
▁tender	-12535
ikh	-12536
▁Lau	-12537
▁Until	-12538
sector	-12539
▁explosives	-12540
▁conditional	-12541
▁tran	-12542
▁HR	-12543
▁trig	-12544
▁Presidential	-12545
▁compete	-12546
Pal	-12547
▁Georgian	-12548
▁halt	-12549
keepers	-12550
▁inalienable	-12551
▁permanently	-12552
nish	-12553
▁champ	-12554
▁awaiting	-12555
▁millennium	-12556
▁79	-12557
▁coinc	-12558
▁emphasise	-12559
Sh	-12560
▁forb	-12561
▁directory	-12562
▁(2);	-12563
▁explains	-12564
▁encumbered	-12565
▁deciding	-12566
▁predomin	-12567
▁feet	-12568
▁wet	-12569
▁Organic	-12570
col	-12571
▁XI	-12572
▁raises	-12573
▁Online	-12574
▁successive	-12575
▁affirmed	-12576
RAP	-12577
▁Rh	-12578
▁Rich	-12579
-25	-12580
▁superv	-12581
▁sophisticated	-12582
ardo	-12583
▁coex	-12584
▁newspaper	-12585
▁Export	-12586
▁Challenges	-12587
▁Egyp	-12588
▁3:	-12589
▁likewise	-12590
▁IX	-12591
unece	-12592
▁Centres	-12593
owards	-12594
▁Albanian	-12595
rastructure	-12596
▁Procedures	-12597
▁accompanying	-12598
▁hardly	-12599
▁loading	-12600
”).	-12601
▁confiscation	-12602
PO	-12603
live	-12604
▁Tom	-12605
ouver	-12606
▁pron	-12607
ropic	-12608
▁cessation	-12609
wa	-12610
aida	-12611
.50	-12612
▁Relig	-12613
▁commenced	-12614
▁apparently	-12615
▁supervisory	-12616
Annex	-12617
eared	-12618
▁modelling	-12619
▁meantime	-12620
▁Much	-12621
▁intense	-12622
▁personality	-12623
▁facilitates	-12624
rupted	-12625
arios	-12626
▁AU	-12627
▁GM	-12628
▁spectrum	-12629
5;	-12630
legal	-12631
ressing	-12632
▁moratorium	-12633
▁intersessional	-12634
▁promises	-12635
▁inappropriate	-12636
▁stic	-12637
▁Disp	-12638
uce	-12639
committees	-12640
▁illegally	-12641
▁designation	-12642
▁unch	-12643
▁accepting	-12644
▁declining	-12645
▁failing	-12646
▁extends	-12647
▁fru	-12648
ofi	-12649
▁),	-12650
▁innovations	-12651
ulative	-12652
▁2/	-12653
otoc	-12654
▁underscored	-12655
ivery	-12656
ometric	-12657
istance	-12658
▁Caucas	-12659
▁!!	-12660
quet	-12661
▁deserves	-12662
▁Station	-12663
▁periodically	-12664
Fourth	-12665
▁cleaning	-12666
▁Conventional	-12667
▁optimal	-12668
▁Results	-12669
▁interpreters	-12670
▁reunification	-12671
▁Norwegian	-12672
”),	-12673
-18	-12674
ocus	-12675
▁aquifer	-12676
▁logical	-12677
▁Rico	-12678
▁Eurostat	-12679
▁eliminated	-12680
▁positively	-12681
▁alternate	-12682
▁formats	-12683
DO	-12684
▁magnific	-12685
▁verified	-12686
Imp	-12687
▁fluct	-12688
▁persu	-12689
▁unto	-12690
uma	-12691
orese	-12692
Russian	-12693
▁ceased	-12694
▁aligned	-12695
▁1967	-12696
▁reper	-12697
▁tab	-12698
▁Accounts	-12699
▁Courts	-12700
▁Enforcement	-12701
GA	-12702
tians	-12703
RAN	-12704
▁Promote	-12705
▁adhere	-12706
▁designing	-12707
▁immunization	-12708
▁standardized	-12709
represented	-12710
▁55/2	-12711
ota	-12712
▁spectac	-12713
▁contributors	-12714
aud	-12715
▁grantor	-12716
▁pressures	-12717
WC	-12718
▁remitt	-12719
▁Ordinance	-12720
▁promising	-12721
▁Consultations	-12722
▁signals	-12723
réal	-12724
▁tort	-12725
▁concession	-12726
▁exhausted	-12727
▁violating	-12728
▁4-	-12729
▁Next	-12730
▁ceiling	-12731
FS	-12732
LAC	-12733
mann	-12734
▁Quartet	-12735
▁temporarily	-12736
▁yes	-12737
oxide	-12738
UNM	-12739
▁attained	-12740
▁devastating	-12741
▁unus	-12742
▁variable	-12743
▁Conclusions	-12744
oum	-12745
antic	-12746
▁ignored	-12747
▁Compliance	-12748
▁contractor	-12749
▁conditioning	-12750
▁disclose	-12751
▁rebel	-12752
▁Adoles	-12753
46	-12754
rend	-12755
▁abide	-12756
▁hyp	-12757
▁blow	-12758
▁Psych	-12759
▁bright	-12760
▁certainty	-12761
▁administrations	-12762
▁blocks	-12763
▁trailer	-12764
main	-12765
▁thick	-12766
▁bread	-12767
▁barrier	-12768
sim	-12769
▁inherit	-12770
▁poses	-12771
▁adjacent	-12772
▁egg	-12773
▁Timorese	-12774
▁interrog	-12775
▁intra	-12776
▁Language	-12777
▁ero	-12778
▁meal	-12779
▁stateless	-12780
driven	-12781
▁paint	-12782
authorized	-12783
▁Migrant	-12784
▁utilize	-12785
▁Appointment	-12786
▁seconds	-12787
▁Gibral	-12788
▁Return	-12789
▁childcare	-12790
▁hospitality	-12791
▁reads	-12792
▁tours	-12793
▁Ra	-12794
▁venue	-12795
▁frust	-12796
▁frozen	-12797
▁contempl	-12798
▁incumbent	-12799
untarily	-12800
qual	-12801
▁Self	-12802
▁generic	-12803
▁promised	-12804
▁Thom	-12805
lots	-12806
▁Need	-12807
▁devote	-12808
▁caution	-12809
▁trace	-12810
▁newspapers	-12811
▁deportation	-12812
▁stressing	-12813
Sm	-12814
▁Subsid	-12815
▁demonstrations	-12816
▁monitors	-12817
▁Commun	-12818
▁UNCCD	-12819
▁schooling	-12820
risis	-12821
▁consecutive	-12822
China	-12823
▁countering	-12824
▁Intolerance	-12825
Mal	-12826
▁Palace	-12827
▁extrad	-12828
grap	-12829
▁Expressing	-12830
▁veto	-12831
▁franc	-12832
▁perception	-12833
feed	-12834
▁puts	-12835
▁Early	-12836
▁Website	-12837
▁analysing	-12838
▁proxim	-12839
▁philosophy	-12840
▁pays	-12841
▁sauna	-12842
▁miscon	-12843
ticultural	-12844
▁colours	-12845
proof	-12846
▁Acknowled	-12847
adines	-12848
▁UNAMSIL	-12849
▁Bagh	-12850
▁lifest	-12851
▁suspects	-12852
▁beat	-12853
57	-12854
▁tuberculosis	-12855
▁Ul	-12856
.).	-12857
▁clic	-12858
Governmental	-12859
ycle	-12860
riger	-12861
▁earthqu	-12862
▁weekend	-12863
▁Provincial	-12864
▁1995.	-12865
▁practic	-12866
▁meals	-12867
rez	-12868
▁Cat	-12869
▁fitness	-12870
▁examinations	-12871
rens	-12872
/2003/	-12873
▁alarm	-12874
IPO	-12875
itably	-12876
avy	-12877
▁downt	-12878
Docs	-12879
▁PHP	-12880
heast	-12881
▁Anton	-12882
ols	-12883
▁Lic	-12884
▁haven	-12885
▁Ash	-12886
UNICEF	-12887
▁Stras	-12888
▁inviting	-12889
▁teach	-12890
▁Collection	-12891
▁thirteenth	-12892
unning	-12893
▁arises	-12894
▁projections	-12895
▁platforms	-12896
ih	-12897
▁1960	-12898
],	-12899
ias	-12900
iscriminate	-12901
▁Civilian	-12902
▁swift	-12903
▁convenience	-12904
()	-12905
french	-12906
▁aro	-12907
media	-12908
▁Play	-12909
ificant	-12910
▁persecution	-12911
OT	-12912
writ	-12913
▁sake	-12914
▁Reconciliation	-12915
▁cit	-12916
▁Cairo	-12917
▁Ageing	-12918
▁delighted	-12919
Japan	-12920
▁preferences	-12921
▁Request	-12922
▁thoroughly	-12923
EG	-12924
▁1.3	-12925
▁tentative	-12926
▁Minorities	-12927
▁Bon	-12928
▁bold	-12929
▁calib	-12930
itrogen	-12931
viously	-12932
▁20%	-12933
orses	-12934
▁vice	-12935
▁invested	-12936
▁universality	-12937
▁Investigation	-12938
▁Valley	-12939
rued	-12940
▁voters	-12941
▁studying	-12942
Ec	-12943
/19	-12944
tems	-12945
▁push	-12946
▁regrettable	-12947
khaz	-12948
▁merch	-12949
▁dies	-12950
▁Strasbourg	-12951
/53	-12952
eck	-12953
▁sponsoring	-12954
▁excluding	-12955
▁apportionment	-12956
porter	-12957
public	-12958
▁Higher	-12959
▁designs	-12960
amble	-12961
▁underline	-12962
itz	-12963
▁verbatim	-12964
CMP	-12965
WHO	-12966
▁rub	-12967
Germany	-12968
▁Personnel	-12969
▁illiteracy	-12970
▁baby	-12971
▁guardian	-12972
▁perpetrator	-12973
▁Autom	-12974
▁Sav	-12975
▁Kab	-12976
▁highlighting	-12977
▁Daily	-12978
It	-12979
▁Fair	-12980
▁cosy	-12981
▁identifies	-12982
▁continental	-12983
▁Approval	-12984
ket	-12985
50,	-12986
CEFACT	-12987
▁missiles	-12988
▁Tam	-12989
▁Infrastructure	-12990
▁treatments	-12991
titive	-12992
▁corrid	-12993
▁Mis	-12994
▁Estim	-12995
▁valuation	-12996
Report	-12997
through	-12998
▁visas	-12999
▁unpaid	-13000
▁marriages	-13001
athy	-13002
▁Hungarian	-13003
uz	-13004
▁foreseen	-13005
▁underlines	-13006
▁alleviation	-13007
▁magnitude	-13008
▁Rati	-13009
conn	-13010
▁tourists	-13011
institutional	-13012
▁shadow	-13013
▁surroundings	-13014
BA	-13015
▁Structural	-13016
▁Rob	-13017
mbassy	-13018
▁George	-13019
ulous	-13020
▁juveniles	-13021
-27	-13022
▁Substances	-13023
▁iron	-13024
▁Ahmed	-13025
▁knowing	-13026
ela	-13027
▁Intellectual	-13028
ulty	-13029
▁methodological	-13030
.3/	-13031
▁(196	-13032
▁aggressive	-13033
▁Requirements	-13034
roots	-13035
FA	-13036
▁1986	-13037
▁communiqué	-13038
▁nomination	-13039
▁sou	-13040
▁Objective	-13041
▁categor	-13042
▁50%	-13043
▁Charles	-13044
▁forwarded	-13045
▁securities	-13046
▁Partnerships	-13047
▁confusion	-13048
▁suspend	-13049
-00	-13050
▁debris	-13051
▁licences	-13052
othe	-13053
▁reparation	-13054
▁earned	-13055
mble	-13056
▁tenure	-13057
ogenic	-13058
▁blind	-13059
askat	-13060
terdam	-13061
▁Embassy	-13062
▁scar	-13063
/31	-13064
▁89	-13065
▁emerge	-13066
ien	-13067
▁160	-13068
▁0.7	-13069
Parliament	-13070
OU	-13071
▁handic	-13072
▁hero	-13073
▁lunch	-13074
▁Gibraltar	-13075
▁dependence	-13076
▁ceremony	-13077
▁diameter	-13078
▁investing	-13079
▁Experience	-13080
▁battery	-13081
▁questioned	-13082
▁Kofi	-13083
▁landmines	-13084
cend	-13085
▁2.6	-13086
▁Mind	-13087
ratory	-13088
▁harvest	-13089
▁Java	-13090
▁gardens	-13091
▁sensitivity	-13092
▁didn	-13093
agers	-13094
atu	-13095
▁reveal	-13096
▁unequiv	-13097
▁managerial	-13098
▁Ha	-13099
IPC	-13100
▁curb	-13101
▁kern	-13102
▁fifteenth	-13103
▁INTER	-13104
▁penet	-13105
▁Gazette	-13106
▁contingency	-13107
ky	-13108
▁dilution	-13109
fying	-13110
▁admissible	-13111
lause	-13112
▁exemptions	-13113
arab	-13114
▁ER	-13115
31	-13116
anium	-13117
▁tendency	-13118
fficial	-13119
▁Bul	-13120
▁Motor	-13121
▁permitting	-13122
arb	-13123
aded	-13124
ider	-13125
companied	-13126
▁Diplom	-13127
▁massac	-13128
ritorial	-13129
▁collaborate	-13130
▁Dri	-13131
▁museums	-13132
▁Submitted	-13133
▁contracep	-13134
▁pricing	-13135
points	-13136
▁Spa	-13137
▁tremendous	-13138
▁liberalisation	-13139
▁Grenadines	-13140
▁competing	-13141
itoba	-13142
▁deficiencies	-13143
non	-13144
▁stimul	-13145
type	-13146
▁bird	-13147
undry	-13148
ficiency	-13149
▁Storage	-13150
▁deferred	-13151
▁abduction	-13152
▁rigorous	-13153
▁inventories	-13154
▁gravity	-13155
▁Ca	-13156
▁Economy	-13157
▁Muslims	-13158
▁Border	-13159
▁Projects	-13160
▁defendant	-13161
▁timber	-13162
▁influenced	-13163
▁threatening	-13164
▁3.3	-13165
▁Tokyo	-13166
▁Equatorial	-13167
▁hards	-13168
▁converted	-13169
igent	-13170
▁Help	-13171
▁Coast	-13172
▁IMO	-13173
▁Writ	-13174
stitutes	-13175
operative	-13176
36	-13177
▁distinguish	-13178
▁Put	-13179
ifies	-13180
▁lending	-13181
▁exploit	-13182
▁Montréal	-13183
▁doctrine	-13184
See	-13185
▁profiles	-13186
▁indications	-13187
▁Cher	-13188
ingual	-13189
▁finalize	-13190
▁essence	-13191
▁indicative	-13192
▁emphasizing	-13193
▁broch	-13194
▁Ladies	-13195
▁ambass	-13196
▁deadlines	-13197
▁modernization	-13198
bery	-13199
▁1325	-13200
ima	-13201
▁ensu	-13202
▁secondly	-13203
▁underpin	-13204
only	-13205
▁Bat	-13206
▁Hal	-13207
▁mos	-13208
▁(2004),	-13209
▁TR	-13210
iche	-13211
/2006/	-13212
▁Caucasus	-13213
▁competit	-13214
▁moves	-13215
▁adjournment	-13216
▁rom	-13217
▁Single	-13218
▁toilet	-13219
▁Auditor	-13220
▁contest	-13221
▁diamond	-13222
▁(8	-13223
▁packing	-13224
▁orphans	-13225
.14	-13226
UMAN	-13227
ferential	-13228
▁Catal	-13229
▁attempting	-13230
▁discipl	-13231
▁Rotterdam	-13232
▁classic	-13233
▁redeployment	-13234
▁Sad	-13235
CB	-13236
▁Baghdad	-13237
▁Egyptian	-13238
,000,	-13239
▁symbols	-13240
-4,	-13241
ectious	-13242
▁Agri	-13243
▁Aw	-13244
▁skill	-13245
▁Adopted	-13246
▁tickets	-13247
▁INS	-13248
▁transported	-13249
▁Bali	-13250
▁evac	-13251
▁voluntarily	-13252
▁overcoming	-13253
quired	-13254
ativity	-13255
▁disappeared	-13256
▁ruled	-13257
▁cancelled	-13258
▁Index	-13259
▁herewith	-13260
▁leak	-13261
▁empty	-13262
Min	-13263
CEDAW	-13264
▁bug	-13265
▁bedroom	-13266
▁magnificent	-13267
5-0	-13268
▁ye	-13269
▁occurrence	-13270
▁axis	-13271
▁Innovation	-13272
▁postponed	-13273
▁Sciences	-13274
▁Abkhaz	-13275
▁characteristic	-13276
iy	-13277
▁surely	-13278
▁hinder	-13279
▁Position	-13280
▁Sixtieth	-13281
/3,	-13282
▁missile	-13283
▁Schen	-13284
▁inserted	-13285
▁Collabor	-13286
ows	-13287
▁Az	-13288
▁Xenophobia	-13289
▁recur	-13290
▁ACP	-13291
▁earmarked	-13292
▁briefed	-13293
▁wed	-13294
59	-13295
De	-13296
Qaida	-13297
▁varying	-13298
▁Americans	-13299
▁Rather	-13300
▁refriger	-13301
▁king	-13302
credit	-13303
enaries	-13304
▁2005-200	-13305
▁restitution	-13306
▁1.4	-13307
▁1267	-13308
▁Grenada	-13309
ashes	-13310
▁proceeded	-13311
(2)	-13312
▁assass	-13313
CIS	-13314
jus	-13315
opted	-13316
▁Step	-13317
▁challenged	-13318
▁nationwide	-13319
▁Santa	-13320
▁Confed	-13321
▁balcony	-13322
▁carriers	-13323
▁explored	-13324
▁succession	-13325
▁Intelligence	-13326
▁layer	-13327
▁reward	-13328
▁Glo	-13329
▁sudden	-13330
▁ticket	-13331
othing	-13332
▁silence	-13333
▁ré	-13334
▁Sched	-13335
▁Value	-13336
▁reorganization	-13337
mir	-13338
▁lots	-13339
▁wake	-13340
uffs	-13341
▁pretty	-13342
▁magazine	-13343
▁(5)	-13344
▁sulph	-13345
▁healthcare	-13346
▁sponsor	-13347
▁utility	-13348
▁Hu	-13349
▁subsection	-13350
▁responsive	-13351
bus	-13352
taking	-13353
▁knew	-13354
▁Schengen	-13355
▁Ukrainian	-13356
-26	-13357
itar	-13358
▁Less	-13359
▁Manitoba	-13360
▁Spirit	-13361
▁preserved	-13362
▁lounge	-13363
▁revitalization	-13364
▁notwithstanding	-13365
sofar	-13366
▁criminals	-13367
▁Emphasizing	-13368
urers	-13369
▁Finnish	-13370
onies	-13371
▁1990.	-13372
▁encouragement	-13373
akar	-13374
▁Pic	-13375
▁ans	-13376
tificial	-13377
▁nonetheless	-13378
▁Technologies	-13379
cost	-13380
▁Friends	-13381
▁institute	-13382
▁Nature	-13383
▁vigil	-13384
▁proximity	-13385
▁Conv	-13386
▁Discussion	-13387
▁debts	-13388
dimension	-13389
FI	-13390
ML	-13391
▁grew	-13392
▁cyl	-13393
▁merit	-13394
▁vegetables	-13395
▁developmental	-13396
Obs	-13397
aser	-13398
reb	-13399
wered	-13400
▁shot	-13401
▁complemented	-13402
▁prolonged	-13403
▁Tro	-13404
XV	-13405
▁informing	-13406
▁instituted	-13407
convened	-13408
▁Square	-13409
▁reluct	-13410
tilingual	-13411
▁Destruction	-13412
▁PA	-13413
iating	-13414
gm	-13415
tensive	-13416
▁preclud	-13417
▁attacked	-13418
▁disregard	-13419
▁Maria	-13420
▁CDM	-13421
▁concert	-13422
▁hostels	-13423
▁surviv	-13424
▁mapping	-13425
▁supplemented	-13426
hal	-13427
▁tailored	-13428
▁defe	-13429
▁Improving	-13430
▁benefiting	-13431
ci	-13432
vol	-13433
/1998	-13434
▁alarming	-13435
▁Notwithstanding	-13436
Bolivarian	-13437
▁younger	-13438
▁demanded	-13439
▁solar	-13440
don	-13441
vin	-13442
▁Increased	-13443
▁entries	-13444
▁tsunami	-13445
lem	-13446
▁corro	-13447
▁Mess	-13448
▁chart	-13449
agne	-13450
▁Liaison	-13451
▁persistence	-13452
▁dance	-13453
▁expedite	-13454
▁disk	-13455
▁recl	-13456
▁aux	-13457
▁Michel	-13458
▁disappearances	-13459
itigation	-13460
▁fasc	-13461
▁varieties	-13462
▁determines	-13463
▁Saskat	-13464
▁Israelis	-13465
▁celebrate	-13466
▁roots	-13467
▁activists	-13468
▁PP	-13469
▁10%	-13470
▁Respect	-13471
▁Various	-13472
▁Transboundary	-13473
▁centers	-13474
iano	-13475
▁Commitment	-13476
▁Liberation	-13477
siveness	-13478
▁collapse	-13479
▁chamber	-13480
▁experiment	-13481
▁0.5	-13482
▁burdens	-13483
▁ES	-13484
▁burn	-13485
▁archives	-13486
▁confined	-13487
ady	-13488
ISS	-13489
▁Mé	-13490
▁Vo	-13491
▁Tuvalu	-13492
▁salt	-13493
▁clearer	-13494
▁Consolidated	-13495
/2001/	-13496
▁frank	-13497
▁unrest	-13498
▁Combating	-13499
▁Syn	-13500
▁Parts	-13501
▁rotation	-13502
Food	-13503
▁Arrange	-13504
▁relaxation	-13505
▁undermined	-13506
▁Compensation	-13507
ante	-13508
▁recipients	-13509
urer	-13510
▁forgot	-13511
▁feeding	-13512
▁founding	-13513
throp	-13514
▁teen	-13515
bl	-13516
▁chose	-13517
▁Campaign	-13518
▁Legislation	-13519
▁Pot	-13520
▁squ	-13521
▁honest	-13522
▁currencies	-13523
▁multilateralism	-13524
▁SE	-13525
▁retro	-13526
ightened	-13527
▁tropical	-13528
▁flying	-13529
▁abolished	-13530
▁paramount	-13531
upp	-13532
pered	-13533
▁Replace	-13534
▁Sports	-13535
▁pedest	-13536
▁struck	-13537
▁Tib	-13538
▁rescue	-13539
▁Ast	-13540
▁arsen	-13541
due	-13542
▁wheat	-13543
▁usefulness	-13544
CS	-13545
eenth	-13546
▁Mary	-13547
▁destinations	-13548
▁valued	-13549
▁cot	-13550
▁flav	-13551
otions	-13552
▁volumes	-13553
▁congratulations	-13554
▁None	-13555
▁Plenary	-13556
▁Transit	-13557
▁erosion	-13558
▁discount	-13559
Coun	-13560
▁Sett	-13561
.05	-13562
▁kn	-13563
▁963-3	-13564
▁ang	-13565
▁Handbook	-13566
▁mechanical	-13567
▁sympt	-13568
▁tea	-13569
rans	-13570
▁condemns	-13571
▁ware	-13572
▁Category	-13573
▁countryside	-13574
.16	-13575
▁UR	-13576
▁underground	-13577
▁Safe	-13578
▁Hamas	-13579
▁Louis	-13580
▁Items	-13581
▁2003-200	-13582
▁precaution	-13583
fall	-13584
▁choosing	-13585
▁chairman	-13586
▁festival	-13587
▁125	-13588
reens	-13589
▁brac	-13590
▁milest	-13591
▁legality	-13592
▁Prem	-13593
▁scenarios	-13594
▁unchanged	-13595
xts	-13596
five	-13597
▁Fish	-13598
▁Delivery	-13599
▁exciting	-13600
▁00	-13601
▁Speakers	-13602
▁Pollution	-13603
AI	-13604
▁surprising	-13605
nds	-13606
This	-13607
▁Providing	-13608
▁MEPs	-13609
▁patrol	-13610
▁twelve	-13611
urable	-13612
aturing	-13613
▁laundering	-13614
▁irrig	-13615
ilingual	-13616
ordination	-13617
▁unauthorized	-13618
tised	-13619
▁sheets	-13620
▁exploited	-13621
▁signatories	-13622
▁freeze	-13623
▁rice	-13624
▁unanimous	-13625
▁Preparation	-13626
▁convictions	-13627
▁PRES	-13628
▁inaug	-13629
ipe	-13630
▁systemic	-13631
▁variables	-13632
TU	-13633
elect	-13634
itations	-13635
▁Chambers	-13636
▁IDP	-13637
Co	-13638
▁CAP	-13639
▁Father	-13640
▁Whole	-13641
▁depositary	-13642
▁Risk	-13643
cessions	-13644
▁accessing	-13645
▁Ababa	-13646
partite	-13647
beit	-13648
▁Briefing	-13649
nings	-13650
ardins	-13651
▁relocation	-13652
amy	-13653
▁Music	-13654
▁Point	-13655
▁Haz	-13656
Special	-13657
▁magist	-13658
ocation	-13659
GL	-13660
otropic	-13661
▁2001-200	-13662
▁qualify	-13663
▁buying	-13664
▁Cast	-13665
▁unres	-13666
▁Marshall	-13667
.5,	-13668
lay	-13669
▁02	-13670
▁manip	-13671
▁decentralized	-13672
/2/	-13673
ronically	-13674
▁PDF	-13675
▁Commander	-13676
1;	-13677
▁evid	-13678
ESA	-13679
▁Willi	-13680
▁panor	-13681
▁Institutional	-13682
orti	-13683
▁Available	-13684
acks	-13685
▁Achie	-13686
▁Leaders	-13687
▁3.4	-13688
▁diversion	-13689
.5.	-13690
▁inner	-13691
▁entails	-13692
occ	-13693
▁costly	-13694
▁tariffs	-13695
▁Stressing	-13696
▁solving	-13697
▁ignore	-13698
▁Engineering	-13699
ADS	-13700
support	-13701
▁toll	-13702
▁tracks	-13703
▁inmates	-13704
▁Prize	-13705
▁simplified	-13706
akeholder	-13707
▁genuinely	-13708
▁Strategies	-13709
▁$2,	-13710
▁Wik	-13711
power	-13712
eded	-13713
▁sleep	-13714
▁terrible	-13715
▁Champ	-13716
▁logic	-13717
stanbul	-13718
▁females	-13719
▁enjoying	-13720
▁Implement	-13721
▁Accounting	-13722
▁supplementing	-13723
UD	-13724
▁autumn	-13725
▁Compact	-13726
▁diplomacy	-13727
▁encounter	-13728
▁Ministries	-13729
▁eman	-13730
▁Employ	-13731
▁surprise	-13732
▁selective	-13733
Bra	-13734
▁rain	-13735
▁Hotels	-13736
▁inscribed	-13737
▁peacekeepers	-13738
▁Cart	-13739
▁Funding	-13740
ECCA	-13741
charge	-13742
▁titles	-13743
▁municipality	-13744
▁phenomena	-13745
▁furthermore	-13746
km	-13747
▁Greater	-13748
▁finances	-13749
▁Globalization	-13750
▁scrutiny	-13751
dimensional	-13752
▁Haitian	-13753
▁commented	-13754
▁nominations	-13755
anian	-13756
▁steadily	-13757
▁guides	-13758
/2009/	-13759
limited	-13760
▁instrumental	-13761
▁Addis	-13762
function	-13763
▁Crimes	-13764
signment	-13765
▁Examples	-13766
isen	-13767
/33	-13768
▁Abuse	-13769
▁aggregate	-13770
issance	-13771
▁disclosed	-13772
▁lease	-13773
AV	-13774
▁neglig	-13775
▁hidden	-13776
▁clinics	-13777
▁inquiries	-13778
▁dedication	-13779
▁dominant	-13780
▁suited	-13781
oca	-13782
▁[...	-13783
▁protects	-13784
▁CM	-13785
▁1987	-13786
▁dwell	-13787
▁destabil	-13788
▁basically	-13789
▁advocated	-13790
insula	-13791
Chairperson	-13792
ernity	-13793
▁hectares	-13794
▁permissible	-13795
▁rarely	-13796
▁outlines	-13797
itals	-13798
▁Clar	-13799
▁losing	-13800
▁lifting	-13801
NGOs	-13802
ourcing	-13803
▁restoring	-13804
itan	-13805
rection	-13806
▁biotechnology	-13807
ARICOM	-13808
▁illustrated	-13809
▁deple	-13810
▁expects	-13811
▁interpretative	-13812
▁concur	-13813
▁forming	-13814
▁Electric	-13815
▁Specialized	-13816
that	-13817
▁terminology	-13818
icht	-13819
▁Refer	-13820
feeding	-13821
rability	-13822
▁designate	-13823
▁filament	-13824
▁split	-13825
▁floors	-13826
▁speedy	-13827
▁brackets	-13828
▁consultant	-13829
▁exceeds	-13830
arial	-13831
▁gaining	-13832
▁replied	-13833
USTA	-13834
▁700	-13835
cellaneous	-13836
umptions	-13837
▁returnees	-13838
▁technique	-13839
▁Identification	-13840
▁lag	-13841
will	-13842
▁(19	-13843
▁shipper	-13844
▁Argentine	-13845
/2007/	-13846
obe	-13847
▁fundament	-13848
▁warmly	-13849
▁churches	-13850
▁successes	-13851
▁geared	-13852
▁intermediate	-13853
posals	-13854
▁confirms	-13855
▁Elections	-13856
▁promulgated	-13857
▁marginalization	-13858
9;	-13859
▁4.3	-13860
▁clust	-13861
.2)	-13862
esia	-13863
▁theore	-13864
▁purchases	-13865
▁seriousness	-13866
▁Proceed	-13867
▁deposits	-13868
atab	-13869
Or	-13870
week	-13871
▁Languages	-13872
▁Overview	-13873
journal	-13874
▁demonstrating	-13875
scri	-13876
▁Landlocked	-13877
▁wise	-13878
▁regen	-13879
▁Clearly	-13880
▁Sound	-13881
reaching	-13882
▁stylish	-13883
▁fourteenth	-13884
ESC	-13885
▁subsidiarity	-13886
▁Nob	-13887
▁condemnation	-13888
▁recreational	-13889
▁belongs	-13890
▁recycling	-13891
izer	-13892
▁misuse	-13893
▁contamination	-13894
▁100%	-13895
▁1994.	-13896
▁Deposit	-13897
step	-13898
▁Ol	-13899
.24	-13900
shore	-13901
▁receivable	-13902
▁referral	-13903
)),	-13904
▁aver	-13905
▁Money	-13906
▁indict	-13907
▁civic	-13908
▁coupled	-13909
▁acquiring	-13910
▁predecessor	-13911
▁workplan	-13912
DT	-13913
TIC	-13914
▁coordinates	-13915
▁ADR	-13916
▁residing	-13917
▁(15	-13918
▁Modern	-13919
Med	-13920
▁Ly	-13921
ancouver	-13922
▁refined	-13923
▁coercive	-13924
controlled	-13925
▁variations	-13926
▁simplification	-13927
Sw	-13928
pring	-13929
▁artificial	-13930
azi	-13931
▁Bab	-13932
▁Guard	-13933
▁laboratories	-13934
NO	-13935
.2/	-13936
sur	-13937
▁elev	-13938
tifying	-13939
▁privileged	-13940
chest	-13941
ropol	-13942
▁Call	-13943
▁immigrant	-13944
▁stringent	-13945
fter	-13946
▁arrests	-13947
▁Strong	-13948
core	-13949
itted	-13950
measures	-13951
▁Knowledge	-13952
▁terminal	-13953
▁PS	-13954
ructive	-13955
▁militia	-13956
▁globalisation	-13957
fam	-13958
MENT	-13959
rafts	-13960
▁banned	-13961
ierarch	-13962
Com	-13963
ista	-13964
▁circle	-13965
▁Freedoms	-13966
▁ult	-13967
▁shelters	-13968
▁Throughout	-13969
organ	-13970
▁Credit	-13971
▁37,	-13972
▁claiming	-13973
▁fertility	-13974
▁requisite	-13975
▁HUMAN	-13976
▁enactment	-13977
▁industrialized	-13978
▁GH	-13979
▁replacing	-13980
▁RES	-13981
▁competencies	-13982
▁Governmental	-13983
▁matri	-13984
atellites	-13985
▁Hospital	-13986
▁vacation	-13987
▁eradicating	-13988
▁104	-13989
▁wis	-13990
▁oppose	-13991
Ps	-13992
gener	-13993
sponsored	-13994
▁Restric	-13995
▁CEB	-13996
68	-13997
▁legacy	-13998
-2000	-13999
▁centr	-14000
▁financially	-14001
▁unaccompanied	-14002
10,	-14003
▁seaf	-14004
▁keen	-14005
▁Which	-14006
▁procuring	-14007
▁Responsibility	-14008
▁exporters	-14009
mense	-14010
▁Insert	-14011
▁Supply	-14012
▁Prague	-14013
▁nur	-14014
▁combining	-14015
cycle	-14016
▁amazing	-14017
▁temperatures	-14018
▁Crown	-14019
▁Moroccan	-14020
▁fruitful	-14021
▁controversi	-14022
▁Detailed	-14023
▁REG	-14024
▁hel	-14025
▁Limited	-14026
▁James	-14027
▁Tonga	-14028
▁immense	-14029
▁quest	-14030
▁References	-14031
ups	-14032
enos	-14033
▁thermal	-14034
gnee	-14035
▁GRE	-14036
▁fans	-14037
▁misconduct	-14038
▁suppression	-14039
▁programmatic	-14040
▁impair	-14041
▁emotional	-14042
▁discrep	-14043
chewan	-14044
rot	-14045
ains	-14046
iances	-14047
ecommunication	-14048
PG	-14049
▁clearing	-14050
▁incap	-14051
▁imagine	-14052
▁homeless	-14053
▁Sco	-14054
crip	-14055
▁Treasury	-14056
▁Objectives	-14057
bu	-14058
▁prize	-14059
▁infringement	-14060
▁preferential	-14061
ulent	-14062
jardins	-14063
▁cock	-14064
mbre	-14065
▁VAT	-14066
▁mistake	-14067
▁delicious	-14068
▁Jul	-14069
▁Arctic	-14070
▁Shel	-14071
▁potato	-14072
endas	-14073
▁servers	-14074
▁saved	-14075
Observer	-14076
▁("	-14077
pur	-14078
▁reaches	-14079
▁therapy	-14080
▁Riv	-14081
▁venture	-14082
▁shipment	-14083
defence	-14084
▁liquidation	-14085
▁Verification	-14086
WTO	-14087
nab	-14088
▁judgements	-14089
▁bes	-14090
▁2011	-14091
▁EADS	-14092
/2008/	-14093
diction	-14094
▁proclaimed	-14095
▁cin	-14096
teorological	-14097
ExB	-14098
▁negotiable	-14099
▁spectacular	-14100
Human	-14101
African	-14102
▁Abstain	-14103
▁Vehicles	-14104
ées	-14105
▁Bad	-14106
▁embodied	-14107
▁transformed	-14108
▁remainder	-14109
▁liked	-14110
▁beneficiary	-14111
oug	-14112
▁Expendit	-14113
▁physically	-14114
commerce	-14115
enne	-14116
Israel	-14117
▁fly	-14118
▁charm	-14119
▁realizing	-14120
▁intercultural	-14121
▁117	-14122
▁Guam	-14123
▁militias	-14124
▁UNMEE	-14125
▁detected	-14126
▁enrolled	-14127
▁casualties	-14128
▁Lus	-14129
rensic	-14130
▁BE	-14131
rage	-14132
management	-14133
/1.	-14134
hem	-14135
/64/	-14136
▁por	-14137
▁compare	-14138
▁argue	-14139
▁Abstaining	-14140
▁celebration	-14141
.:	-14142
apes	-14143
▁Vancouver	-14144
tery	-14145
avail	-14146
▁listening	-14147
▁practically	-14148
▁6.5	-14149
▁Judges	-14150
▁EL	-14151
▁2012	-14152
▁owed	-14153
▁nitrogen	-14154
thesis	-14155
Global	-14156
▁1989,	-14157
▁Corporate	-14158
38	-14159
add	-14160
ecos	-14161
▁coexistence	-14162
hus	-14163
▁mercenaries	-14164
▁Turning	-14165
▁ethnicity	-14166
▁963-	-14167
▁compact	-14168
▁advocates	-14169
▁risen	-14170
▁Istanbul	-14171
▁clinical	-14172
▁Ide	-14173
▁crow	-14174
▁Temporary	-14175
▁Doc	-14176
▁Thomas	-14177
▁advertise	-14178
▁shareholders	-14179
okes	-14180
UNFPA	-14181
▁Pierre	-14182
▁flagrant	-14183
▁documentary	-14184
▁Mohamed	-14185
▁shipments	-14186
▁Nik	-14187
▁Pau	-14188
▁stret	-14189
▁CS	-14190
uels	-14191
erting	-14192
▁Instrument	-14193
▁dumping	-14194
42	-14195
▁nutritional	-14196
zes	-14197
▁abund	-14198
▁remov	-14199
▁renow	-14200
▁progressively	-14201
▁escalation	-14202
▁2015	-14203
▁2005)	-14204
stuffs	-14205
▁pledge	-14206
▁uranium	-14207
▁harmonisation	-14208
prot	-14209
▁invalid	-14210
▁democ	-14211
LAN	-14212
linked	-14213
▁overc	-14214
▁everybody	-14215
USTAH	-14216
▁audited	-14217
▁quarterly	-14218
cussions	-14219
Tra	-14220
▁tur	-14221
▁dece	-14222
▁caught	-14223
▁Editing	-14224
▁Desjardins	-14225
▁alph	-14226
▁atroc	-14227
4-0	-14228
▁Deep	-14229
▁simplify	-14230
▁infectious	-14231
▁107	-14232
-21	-14233
▁Rou	-14234
member	-14235
▁Mobile	-14236
▁fruits	-14237
▁wave	-14238
/32	-14239
▁Dani	-14240
.19	-14241
lat	-14242
▁beef	-14243
▁10.30	-14244
QL	-14245
▁Ari	-14246
▁EIA	-14247
▁(0	-14248
▁101	-14249
▁synergy	-14250
▁warming	-14251
▁charter	-14252
▁Kir	-14253
▁combines	-14254
▁Laws	-14255
▁immunities	-14256
process	-14257
uatu	-14258
▁fairness	-14259
▁chains	-14260
▁Digital	-14261
▁SO	-14262
▁creativity	-14263
Fed	-14264
▁herself	-14265
Rep	-14266
maty	-14267
▁varies	-14268
Nor	-14269
▁factual	-14270
▁dramatically	-14271
▁recession	-14272
iments	-14273
▁Francoph	-14274
▁roc	-14275
itiously	-14276
▁outlook	-14277
▁supporters	-14278
orously	-14279
▁compensate	-14280
rape	-14281
▁thanking	-14282
▁thirds	-14283
.10/	-14284
enza	-14285
▁boundary	-14286
▁sciences	-14287
▁undermining	-14288
fits	-14289
▁sees	-14290
▁opium	-14291
▁nights	-14292
▁prevents	-14293
▁describing	-14294
aki	-14295
gas	-14296
▁tub	-14297
▁dynam	-14298
▁Dev	-14299
▁develops	-14300
▁Mach	-14301
▁lengthy	-14302
▁applicability	-14303
prov	-14304
▁fault	-14305
▁Hen	-14306
▁Phase	-14307
spanish	-14308
▁successor	-14309
▁Ped	-14310
▁selecting	-14311
▁chlor	-14312
▁2003;	-14313
tension	-14314
▁Scheme	-14315
-28	-14316
olly	-14317
▁entitlement	-14318
agon	-14319
▁exempl	-14320
▁lesson	-14321
▁afforded	-14322
established	-14323
airy	-14324
▁synthe	-14325
▁motions	-14326
▁(12	-14327
▁192	-14328
len	-14329
▁Cam	-14330
▁addendum	-14331
▁photographs	-14332
▁insofar	-14333
commission	-14334
▁unusual	-14335
▁clim	-14336
▁2003)	-14337
▁portal	-14338
▁commissioned	-14339
▁Raf	-14340
▁gang	-14341
▁incred	-14342
▁inception	-14343
▁Associations	-14344
▁phased	-14345
▁worrying	-14346
▁privatization	-14347
▁bom	-14348
▁2000)	-14349
fortunate	-14350
▁Rotary	-14351
▁duplic	-14352
▁Exc	-14353
mented	-14354
▁assuming	-14355
encumbered	-14356
mad	-14357
indered	-14358
▁Rein	-14359
▁MS	-14360
▁cooking	-14361
▁registers	-14362
▁Elev	-14363
▁Joseph	-14364
▁tyre	-14365
Council	-14366
▁broaden	-14367
▁defending	-14368
▁accus	-14369
▁fantastic	-14370
▁detrimental	-14371
▁expectancy	-14372
zo	-14373
▁5.3	-14374
▁963-593	-14375
▁Resident	-14376
orative	-14377
two	-14378
▁Nation	-14379
▁resolute	-14380
▁opt	-14381
▁repercussions	-14382
")	-14383
▁1000	-14384
ika	-14385
▁RID	-14386
▁leaf	-14387
▁licensed	-14388
58	-14389
▁refurb	-14390
▁Includes	-14391
endo	-14392
▁football	-14393
▁Recommends	-14394
▁Presentation	-14395
DD	-14396
▁victory	-14397
▁bears	-14398
▁sew	-14399
erie	-14400
osting	-14401
▁Aires	-14402
▁rigid	-14403
smoking	-14404
▁Success	-14405
▁Concluding	-14406
▁humankind	-14407
▁Distribution	-14408
cf	-14409
also	-14410
▁Subsidiary	-14411
asi	-14412
▁deeper	-14413
▁appreciates	-14414
▁3)	-14415
▁pesticides	-14416
▁6.3	-14417
▁Amm	-14418
▁safer	-14419
▁abilities	-14420
62	-14421
▁tortured	-14422
▁Poor	-14423
▁strugg	-14424
▁publicity	-14425
▁till	-14426
urately	-14427
▁failures	-14428
▁surprised	-14429
▁technically	-14430
▁interrelated	-14431
fold	-14432
▁Yearbook	-14433
Rap	-14434
World	-14435
▁irrever	-14436
▁imbalances	-14437
▁prisoner	-14438
stakeholder	-14439
▁Oil	-14440
▁Actions	-14441
aga	-14442
▁2000:	-14443
setting	-14444
▁notable	-14445
.40	-14446
encia	-14447
lical	-14448
▁1985	-14449
▁novel	-14450
TAET	-14451
▁1.6	-14452
▁hab	-14453
▁signatory	-14454
speed	-14455
▁unfortunate	-14456
▁Tex	-14457
▁Dublin	-14458
▁plight	-14459
To	-14460
▁bills	-14461
but	-14462
▁disadvantage	-14463
ando	-14464
▁exempt	-14465
ossil	-14466
▁moderate	-14467
▁Saskatchewan	-14468
▁impede	-14469
▁agendas	-14470
viol	-14471
▁Cres	-14472
▁unst	-14473
▁incomplete	-14474
▁arose	-14475
▁2015.	-14476
▁colleg	-14477
▁Standardization	-14478
elt	-14479
▁Mid	-14480
tage	-14481
▁hierarch	-14482
▁viability	-14483
Thousands	-14484
employment	-14485
urator	-14486
▁educate	-14487
▁4:	-14488
▁Dry	-14489
▁affirmative	-14490
▁Jun	-14491
arant	-14492
▁epidem	-14493
▁Eleventh	-14494
▁Membership	-14495
▁terminated	-14496
▁acknowledging	-14497
▁Stabilization	-14498
▁Vie	-14499
GRE	-14500
▁Serbs	-14501
▁suspicious	-14502
▁Understanding	-14503
tigious	-14504
▁fullest	-14505
fle	-14506
▁expeditiously	-14507
▁forc	-14508
▁History	-14509
▁07	-14510
▁Nova	-14511
▁unclear	-14512
/51	-14513
▁Sanc	-14514
ecosoc	-14515
[...]
