#version: 0.2 - Trained by `huggingface/tokenizers`
Ġ t
Ġ a
i n
h e
o n
Ġt he
r e
Ġ o
a t
Ġ s
Ġ c
e r
e n
Ġ p
i t
o r
i on
e s
a n
Ġ w
Ġ in
Ġo f
a l
Ġ f
i s
e d
Ġa n
Ġ b
Ġ m
a r
in g
Ġan d
i c
Ġt o
Ġ d
r o
en t
Ġ re
l e
o u
at ion
Ġ e
Ġ n
Ġ h
a s
c t
Ġt h
o m
i l
v e
s t
m ent
Ġ l
Ġ g
Ġf or
u n
Ġb e
c e
i d
Ġp ro
Ġ on
r a
Ġc on
o l
u t
i m
â Ģ
Ġd e
l y
Ġs t
u r
s e
a d
Ġ is
o t
Ġth at
i g
Ġa s
Ġc om
t er
v er
e t
c h
i r
u l
Ġ (
Ġ it
it h
i es
l o
0 0
Ġ 1
Ġw ith
or t
Ġ 2
at e
Ġs u
a y
Ġa l
p p
Ġo r
Ġs e
i f
Ġ he
it y
Ġ un
re s
er s
Ġw h
Ġw e
u s
es s
a b
Ġe x
a m
Ġb y
q u
Ġ r
p e
g e
i v
l d
es t
he r
i ve
il l
Ġ v
ar t
ou n
Ġa re
Ġ y
is t
i al
Ġa t
t e
Ġn e
ation s
Ġc h
o w
Ġc an
a in
u m
Ġcom m
o c
t h
a c
Ġ j
Ġm e
ct ion
en d
an t
Ġ âĢ
Ġre s
an d
r i
Ġn ot
ro m
o s
ou r
u d
o d
ig h
Ġw as
Ġa d
Ġs h
Ġ le
o re
a k
re n
Ġth is
Ġh a
o p
Ġf rom
u re
Ġ en
Ġ im
p ort
ou ld
Ġ2 00
f f
Ġp art
Ġ k
i e
ion s
Ġa pp
u p
u st
i p
Ġin c
ar d
Ġcon t
e l
Ġa c
re d
Ġw or
at ed
t s
' s
ation al
Ġcom p
b er
Ġa g
t her
an ce
ar y
Ġha ve
f or
i z
Ġg o
al l
ic h
d er
e ct
l ic
ic e
an s
i a
e m
Ġw ill
Ġin ter
âĢ Ļ
Ġre g
Ġh as
Ġcan ad
Ġp l
Ġc oun
ment s
a ge
d u
Ġc o
Ġwh ich
p er
for m
Ġp er
g ra
Ġ i
ic al
ab le
Ġa b
Ġ "
Ġpro v
Ġit s
Ġs a
Ġa r
it ies
Ġm an
er v
u b
e ar
Ġd is
i b
Ġthe ir
Ġre c
id e
ul t
Ġw he
Ġac c
g h
s ion
Ġin d
i re
Ġof f
lo p
a p
Ġim p
om e
Ġwor k
Ġal l
as t
ve lop
at es
Ġa m
Ġcon s
Ġde velop
Ġa ct
Ġo ther
Ġp ol
Ġ1 9
Ġt r
in e
Ġse c
Ġ 3
i an
ig n
en ce
it ion
ou s
a g
Ġne w
igh t
Ġ -
Ġt ra
a ct
c es
un d
s o
Ġt e
er al
l l
u e
r u
lo w
Ġ ro
Ġp re
Ġun der
r y
u se
Ġas s
re e
c ial
Ġ qu
Ġbe en
ver n
ou t
Ġsu b
Ġinter n
p t
Ġwe re
l ud
âĢ ¨
Ġp r
Ġs erv
Ġre port
Ġal so
Ġcanad a
Ġo ut
Ġg ro
o st
o g
Ġs pe
Ġb ut
as e
it ed
Ġn o
Ġp res
Ġf in
Ġy ear
Ġm ar
Ġin t
Ġin form
Ġthe y
on g
Ġ us
Ġm ore
. .
Ġe m
or d
gra m
Ġthe re
f e
Ġwh o
Ġde c
Ġc l
pp ort
c ess
Ġp e
Ġy ou
ub lic
im e
is h
Ġgo vern
Ġpro gram
j ect
u al
Ġe u
Ġre p
if ic
Ġsa id
id ent
a il
a ce
v ent
Ġs c
Ġh is
Ġcoun t
ak e
Ġcomm it
on s
Ġh ad
il d
ic es
at ive
Ġre qu
k s
Ġw ould
or s
Ġinc lud
Ġe ff
Ġm in
is sion
ĠâĢ ľ
Ġd o
Ġintern ational
Ġon e
c on
Ġs p
t ed
Ġinform ation
ut ion
m ber
Ġ up
Ġp ar
Ġa f
Ġg en
k e
Ġin v
res s
Ġex p
Ġl a
Ġo b
Ġre l
p h
Ġs y
Ġ 4
âĢ Ŀ
Ġm on
g an
a re
re at
a ch
ri b
Ġo ver
pe ct
r it
_ _
Ġm ay
c ed
Ġad d
w e
Ġ ra
o se
Ġtr ans
Ġeu ro
ac k
Ġ 5
Ġsh ould
u gh
Ġdevelop ment
ĠâĢ ¢
fe ren
n e
Ġcomm un
al th
il ity
or y
Ġs o
en s
am e
c y
ie w
Ġth an
Ġcon c
Ġpart ic
Ġin st
on d
Ġ if
m e
Ġde p
as s
u res
m in
ver y
Ġf ir
n ing
te e
m b
Ġd es
Ġthe se
an g
Ġc ent
r ic
Ġan y
Ġun ited
Ġp ublic
Ġn ational
Ġbe t
is ion
Ġpro du
i le
Ġor gan
at ing
o in
Ġhe alth
Ġsu ch
le ment
Ġst ate
m s
) .
Ġeuro pe
i ed
Ġgovern ment
Ġsu pport
Ġe v
Ġst ates
Ġt w
on e
) ,
l es
u c
Ġp ers
Ġ19 9
Ġapp ro
it e
st em
o k
Ġab out
he d
Ġl i
igh ts
Ġc ol
le ct
e p
ro ugh
Ġcommit tee
ve l
Ġp os
Ġne ed
ing s
Ġf e
Ġh ow
Ġgro up
t ain
s u
Ġh um
Ġt er
Ġb o
Ġs oc
Ġt ime
Ġsy stem
con om
ad e
as ed
t he
i ous
iv es
Ġfir st
Ġint o
ra ct
Ġre v
Ġ est
Ġs ome
Ġcomm ission
Ġwhe n
c il
at er
lo y
ul ar
Ġres p
Ġpe op
Ġ 6
Ġa ut
Ġm r
a v
ib le
Ġhum an
Ġ $
Ġin te
ay s
r ies
Ġe conom
Ġr ights
Ġo ur
Ġpol ic
Ġprov id
Ġgen eral
am p
ur ing
Ġd ire
Ġar t
Ġdis c
Ġcoun cil
p os
c a
Ġtw o
Ġf ol
2 00
Ġth rough
Ġorgan iz
d e
Ġn ations
i ent
Ġst r
t y
g et
Ġme et
Ġch ild
Ġg u
is e
Ġaf ter
Ġserv ices
an ge
Ġ use
p loy
Ġla w
re t
Ġpeop le
ol og
Ġ ent
d ay
f t
Ġfol low
ion al
we en
Ġle g
i ver
Ġn um
Ġ ed
a ir
a x
Ġbet ween
Ġfor m
ol d
n ow
oun d
Ġon ly
m an
Ġthe m
h ip
f ore
Ġc ar
Ġf und
er ation
Ġact iv
ction s
Ġdire ct
ar ch
w n
Ġeff ect
en cy
ch n
c om
Ġm ade
Ġcount ries
Ġmar k
Ġwhe re
Ġwe ll
Ġag ain
Ġth ose
0 1
Ġp h
ab l
o v
ur al
Ġo per
Ġc ap
Ġim port
Ġre f
Ġyear s
Ġinc re
Ġimp lement
Ġpl an
ir on
Ġat t
Ġen v
Ġ 7
Ġeurope an
Ġcanad ian
ter s
Ġc our
Ġpro cess
h or
Ġre m
l and
Ġde f
Ġem ploy
Ġte chn
it s
Ġpro ject
Ġj ust
oun t
Ġs he
Ġc or
Ġsec ur
Ġinclud ing
o od
al s
Ġcont in
Ġw om
ment al
Ġoff ic
x t
ard s
Ġre se
Ġwh at
Ġd if
e c
Ġenv iron
Ġs et
Ġman age
ic le
Ġ 9
or k
ar i
ĠâĢ ĵ
Ġaut hor
l i
Ġa v
Ġh igh
Ġc r
gra ph
ren t
Ġhe r
Ġc ould
Ġm ust
Ġapp lic
Ġconc er
l ed
ate g
Ġpro te
Ġm ost
Ġfin an
Ġ 8
ant s
Ġsecur ity
ou gh
Ġspe c
Ġli ke
r ation
Ġinv est
Ġle vel
s ure
Ġnum ber
Ã ©
Ġwor ld
Ġst ud
Ġme as
Ġp ur
in ce
o b
Ġreg ul
Ġy our
Ġad v
Ġserv ice
en e
y s
Ġde m
res ent
Ġm ed
Ġmanage ment
v ed
vent ion
oin t
Ġs ign
Ġis su
ak ing
Ġpolic y
Ġwom en
Ġb r
ot h
feren ce
Ġeconom ic
Ġl oc
m it
n ed
Ġs ur
Ġpers on
Ġrep resent
ic t
Ġk now
Ġest abl
Ġsoc ial
Ġe qu
al ly
Ġag ree
Ġb us
f ul
o ve
Ġagain st
Ġd ra
Ġ1 0
Ġch ar
Ġpro pos
Ġf r
re st
Ġex per
Ġm ain
Ġex t
Ġd uring
im in
ill ion
Ġk e
Ġdep art
Ġc ur
ow n
__ __
Ġinst it
Ġme mber
in ess
Ġrese arch
b le
Ġcon f
om m
our ces
et y
Ġmark et
Ġsec ret
Ġs m
ce pt
ut e
Ġacc ord
Ġres ol
Ġ end
ut ions
oc u
Ġcommun ity
Ġb u
Ġspe cial
Ġa ff
Ġp a
er g
Ġsh all
is s
ic s
Ġpartic ular
al ity
ic k
t ing
in es
se l
Ġle ad
i x
Ġart icle
00 0
Ġpres ident
Ġwith in
Ġpro m
Ġbe ing
Ġv al
if ied
p r
Ġf ur
Ġprodu ct
ter n
Ġman y
Ġco st
, "
Ġactiv ities
Ġo p
Ġcount ry
Ġme mb
Ġn on
Ġd at
il y
Ġ u
Ġm od
iz ed
Ġgo od
. "
Ġst and
Ġd ocu
Ġm a
iver s
le g
Ġmemb ers
Ġf ore
Ġrev iew
Ġm et
Ġ 0
Ġpartic ip
Ġb as
Ġacc ess
c c
Ġl ast
in d
i od
Ġs it
le ar
in k
Ġchild ren
Ġl o
ent s
s s
Ġprov ide
Ġm ake
Ġhe l
Ġa ir
Ġas se
Ġfinan cial
Ġin it
Ġbus iness
Ġor der
Ġstr ateg
Ġse e
c k
v ing
Ġb oth
in ing
Ġcons id
is ter
is hed
Ġth ree
el l
ab ility
Ġf ul
Ġwh ile
Ġass ist
Ġre le
.. ..
Ġbe fore
Ġin s
Ġf ac
an k
Ġan n
u ation
as es
Ġt ake
i red
w ork
Ġres pect
Ġresp ons
it ions
ar m
Ġed uc
Ġl ong
Ġd ist
Ġfollow ing
Ġimp ro
Ġp ay
Ġus ed
Ġind ust
in c
Ġcomp an
Ġper iod
Ġm y
is m
Ġre t
Ġcon st
Ġhel p
iv en
e ver
Ġf ed
Ġn ow
Ġf act
Ġrec omm
Ġrecomm end
Ġpos s
Ġcont rib
Ġe ach
ca use
Ġre ce
ru ct
Ġm at
Ġa w
il it
Ġst at
n s
Ġfur ther
Ġqu est
Ġt reat
Ġf am
Ġbe cause
Ġv i
Ġin f
Ġt ax
Ġs ince
Ġpar a
Ġc all
g o
Ġrequ ire
Ġs er
Ġb ro
p l
Ġpres ent
Ġhow ever
Ġmeet ing
p or
o ol
ag es
Ġ ident
Ġr ight
Ġdec ision
it al
u es
Ġdat a
Ġwork ing
ĠâĢ Ķ
us s
Ġoff ice
Ġe l
Ġc ase
ess ion
Ġs ch
Ġadd ition
ot e
Ġav ail
a ff
Ġres ources
Ġissu es
is ions
Ġcomp le
Ġad op
Ġ .
er ic
a red
Ġpol it
Ġrequ est
Ġc are
Ġg r
Ġo wn
p ar
Ġcont ro
Ġr is
Ġ very
Ġinte rest
t en
Ġass ess
1 9
Ġad min
Ġp ract
Ġ [
Ġbe l
Ġ1 2
Ġimplement ation
Ġg reat
i o
Ġb ack
Ġsec ond
Ġa ction
Ġpl ay
Ġp at
is ed
n er
ific ation
Ġe ar
Ġp ri
Ġimport ant
ot her
Ġcur rent
Ġcon d
if e
Ġmeas ures
Ġen g
Ġadd ress
ene f
Ġen sure
u g
Ġs im
iv id
r al
Ġprovid ed
Ġreg ard
Ġc er
Ġc re
ow er
Ġre du
Ġb enef
c ing
t al
ent ial
m ed
Ġse ct
Ġl ar
if y
Ġt ak
Ġf ra
Ġprogram me
Ġoffic ial
Ġco op
Ġn et
oc i
Ġsu pp
Ġs ame
Ġc a
Ġpro f
Ġadmin ist
he s
Ġcour t
olog y
Ġv iew
Ġpara graph
Ġbo ard
Ġresol ution
Ġp op
Ġd id
Ġcon vention
c ent
Ġev en
Ġeff ort
g es
Ġam end
Ġm illion
Ġn at
n ers
Ġtra de
Ġf ound
at ives
Ġ200 6
Ġprote ction
i um
in ed
Ġc lo
Ġ1 5
Ġinit i
Ġavail able
t o
Ġdif feren
g en
il ities
Ġma j
Ġpart y
Ġ200 5
Ġs al
Ġass oci
Ġasse mb
Ġw ay
Ġinv ol
Ġmin ister
ie ld
ib ility
Ġpri or
Ġcl a
Ġcomp et
Ġper form
Ġtra ining
Ġacc ount
Ġmon th
Ġind ic
in a
Ġe lect
w w
Ġal low
Ġare a
Ġeduc ation
Ġpl ace
ig in
Ġdes ign
p ri
Ġwe e
Ġare as
Ġdo es
Ġ1 1
Ġs ession
Ġe very
ist s
Ġc he
Ġagree ment
Ġn ort
Ġg et
Ġ200 4
e red
Ġl ab
Ġl im
Ġsh ow
Ġdepart ment
iz ation
Ġreg ional
Ġam eric
Ġf l
Ġre st
c ome
as on
iv ed
c o
Ġf our
ir d
i ence
ro und
Ġfed eral
Ġpart ies
Ġ2 01
ul ts
ul ation
Ġassemb ly
Ġmaj or
Ġpolit ical
ou se
Ġh im
Ġc ult
Ġse ction
Ġpr iv
ent ion
ivid ual
u ch
Ġde ter
Ġres ult
Ġgro w
Ġind ividual
Ġo cc
Ġe le
g est
Ġrep ublic
Ġsch ool
Ġpro ble
Ġv is
Ġd own
Ġst aff
Ġam ong
v en
Ġd r
Ġd ay
Ġeffect ive
Ġb ud
Ġ2 0
it or
Ġ z
an ces
ro ss
Ġthe n
Ġhe ad
t on
Ġg lo
Ġcon ference
Ġcons ult
b al
Ġsu m
Ġ200 7
at ic
iz e
Ġan al
Ġp ost
Ġcontro l
i ans
Ġpro ced
Ġdocu ment
l ia
re ad
Ġwith out
Ġw ater
a w
ical ly
Ġpart ners
Ġl ist
Ġpro per
l ine
du ct
Ġt est
Ġpe ace
im ate
Ġleg al
1 0
Ġcommun ic
ch ie
Ġob ject
Ġh ome
is l
Ġs ol
iv ing
Ġun ion
Ġestabl ish
Ġop en
Ġrec ord
Ġb ased
g ress
Ġw ar
re ed
Ġorganiz ations
Ġrem ain
Ġb l
Ġt ur
Ġto tal
s ue
Ġde b
Ġcoop eration
at ory
Ġorganiz ation
un e
Ġpar lia
. ,
im es
Ġcont ract
Ġ200 3
Ġex pect
Ġ1 8
Ġbud get
Ġf il
Ġun ivers
at h
n ess
Ġenviron ment
at her
Ġt y
Ġdifferen t
inc ip
Ġvi ol
Ġdra ft
Ġfin d
Ġl and
Ġa chie
in ation
Ġb ar
Ġcont ain
pt ion
Ġ ve
s h
' t
Ġcla im
Ġenviron mental
Ġloc al
Ġbu ild
id ence
Ġper cent
Ġpr incip
. âĢĿ
Ġsecret ary
Ġ ver
Ġag ency
Ġc lear
Ġposs ible
Ġparlia ment
Ġleg isl
Ġne cess
Ġs ou
Ġinclud e
Ġ200 2
Ġres ults
Ġrequ ired
Ġsm all
Ġde t
Ġch ange
Ġappro pri
Ġapplic ation
Ġst ill
Ġinte g
Ġ1 3
h ing
ru g
Ġs en
l ain
Ġf ood
Ġdes c
Ġf ut
Ġsu c
Ġaccord ing
Ġch ang
st and
Ġwhe ther
Ġg ra
Ġsect or
Ġtak en
Ġl ess
t t
Ġindust ry
Ġg iven
Ġrel ated
Ġr ul
ou ra
Ġrec ent
Ġro le
Ġp o
r on
Ġproduct s
Ġspec ific
i er
Ġm uch
s p
Ġb ank
Ġaf ric
Ġ es
pport un
Ġ1 4
Ġc iv
p ro
Ġfra me
l ar
Ġsub ject
ang u
Ġte am
i i
Ġtrans port
Ġe vent
Ġo pportun
Ġd on
Ġeffort s
Ġis sue
Ġbe h
Ġex amp
Ġl ife
Ġconsid er
g er
Ġris k
g ed
at or
Ġc rit
Ġde l
Ġst art
al e
Ġimp act
Ġassist ance
v es
Ġan other
Ġfut ure
s c
at ors
Ġglo bal
Ġsign ific
Ġsub st
Ġh and
Ġt ar
f er
Ġ200 0
Ġcompan y
Ġimpro ve
Ġf oc
Ġd ate
Ġ200 1
Ġful l
Ġj ud
Ġfam ily
Ġke y
Ġs ay
i en
Ġquest ion
w ard
al f
Ġciv il
Ġs w
Ġb od
Ġ â
l us
Ġgroup s
in s
Ġ ur
t le
Ġpol ice
og n
st ain
end ing
v ant
c ies
Ġhe ld
Ġs k
Ġex ist
Ġneed s
Ġne g
Ġde ce
Ġen c
Ġfor ce
Ġne xt
Ġm ater
v ious
Ġa ud
Ġreport s
Ġincre ase
Ġcond itions
, âĢĿ
Ġ3 0
Ġcl ass
ren g
1 2
Ġd om
Ġemploy e
ur s
Ġwee k
Ġsuc cess
Ġp ot
gen eral
Ġev al
Ġrec ogn
end ed
Ġre al
Ġ200 8
all en
Ġgu id
Ġ1 6
l ess
Ġcontin ue
Ġsu stain
Ġbas is
Ġwe b
Ġrequire ments
Ġf ield
l ing
m es
Ġp oint
Ġst reng
it ive
Ġn or
Ġc al
t ion
Ġit em
Ġinvest ig
Ġappropri ate
Ġcap ac
is ing
Ġl angu
ur y
Ġsoc i
Ġdece mber
Ġcontin u
Ġv ol
Ġregul ations
Ġre ad
Ġcer tain
Ġsignific ant
Ġfore ign
ce ed
Ġj u
Ġb est
Ġret ur
Ġnecess ary
Ġf un
Ġj une
Ġcent re
Ġcon duct
Ġ rom
Ġprom ot
Ġcomm on
Ġc amp
ual ly
Ġ- -
Ġfoc us
ro du
Ġdevelop ing
Ġm ult
Ġme ans
5 0
ne y
erg y
Ġse ver
Ġv ar
d s
Ġbel ie
Ġsa f
Ġdirect or
Ġ19 8
a z
Ġmar ch
Ġsit uation
Ġpers ons
Ġst e
Ġrel ations
Ġp ass
Ġp ut
Ġtra d
mit ted
Ġc ases
Ġframe work
Ġex ec
Ġh ouse
Ġle t
Ġp en
n a
Ġhe re
Ġreg ion
Ġ1 7
om s
Ġproject s
____ ____
Ġlar ge
Ġw ant
our ce
Ġco ord
Ġs ite
Ġm ilit
Ġde leg
Ġs ix
k ed
Ġp ort
Ġsaf ety
Ġch allen
Ġg e
Ġte le
Ġj an
Ġlo ok
Ġman ag
Ġl it
Ġ Â
Ġth ird
ruct ure
Ġqu ality
Ġf ive
a u
Ġpro gress
Ġsystem s
Ġrele vant
Ġdem oc
Ġ >
Ġter rit
Ġto p
r or
Ġcom b
Ġd rug
Ġc ust
Ġstud y
igin al
a ve
Ġw in
Ġb rit
Ġemploy ment
air s
Ġcor por
Ġestabl ished
Ġpropos ed
Ġsever al
b e
1 1
k ing
Ġreg ist
Ġmet h
Ġprogram s
sel f
2 0
Ġassess ment
Ġtechn ology
Ġcost s
Ġpop ulation
Ġj ob
Ġh ist
Ġexamp le
Ġsu g
i or
Ġinstit utions
ut es
Ġde al
Ġen ergy
Ġf ree
Ġmater ial
Ġthere fore
o h
Ġauthor ities
Ġcapac ity
p a
Ġadop ted
led ge
Ġsum m
Ġbet ter
3 0
Ġpriv ate
Ġmon itor
Ġrul es
ide red
Ġc ity
p s
Ġprov isions
Ġpolic ies
Ġob s
Ġp ower
as ing
Ġbro ad
Ġappro ach
Ġpos ition
Ġdisc uss
Ġapp e
Ġr ate
Ġconst it
Ġpro t
Ġcons idered
or ies
Ġus ing
Ġh ig
Ġperform ance
Ġar r
Ġth ink
Ġam ount
Ġcons um
Ġw rit
Ġnort h
end a
e x
er ing
Ġprof ess
Ġe t
Ġpot ential
Ġle ast
c he
Ġan ne
is on
am a
Ġan t
Ġc red
Ġprote ct
Ġtechn ical
Ġsur ve
el s
Ġc e
Ġlevel s
Ġn ame
Ġf is
os s
ri ed
Ġfund ing
Ġc od
Ġwe l
ff ic
Ġstrateg y
Ġinst ru
Ġpre vious
Ġaccord ance
1 3
Ġter ms
p te
Ġa pr
- -
Ġgrow th
read y
w ay
Ġanal ys
ie f
qu e
as h
pte mber
Ġexec ut
en cies
Ġrece ived
le ction
Ġv ict
ir c
Ġexp ress
Ġprodu ction
Ġproper ty
.. .
.... ....
Ġaddition al
h old
Ġdet ail
Ġstreng the
Ġsoci ety
g in
Ġsou th
re en
Ġal ready
Ġvar ious
am es
Ġo ct
Ġmilit ary
ar k
Ġc it
Ġmeth od
Ġfin al
i ation
Ġ ir
Ġst ep
Ġp le
Ġstate ment
a h
Ġapr il
Ġcont act
Ġr un
l ig
Ġreport ed
Ġd ays
Ġoper ations
Ġ2 5
id s
ver age
Ġex c
Ġm ove
ar ing
Ġfe w
i ate
iss ions
f act
Ġint rodu
Ġstand ards
u ary
Ġref er
Ġdeter min
Ġse ptember
at s
Ġval ue
Ġy oun
Ġag enda
om et
Ġsug gest
Ġanne x
ep end
Ġto day
Ġs ing
ari o
Ġ er
Ġunder stand
Ġab ove
Ġp oin
Ġp ast
Ġenc oura
Ġnew s
Ġf ar
Ġl ow
Ġle ar
Ġ '
Ġh ot
Ġauthor ity
Ġstr ong
Ġha ving
Ġdevelop ed
r ated
Ġcommun ities
Ġprovid es
Ġaff ect
Ġt able
our s
n ot
Ġform er
Ġju ly
c er
o pe
Ġl ine
Ġunivers ity
Ġth ough
Ġb re
Ġs at
) ;
se e
Ġinc ome
Ġknow ledge
y ear
Ġprov in
Ġcent ral
Ġ &
Ġprov ision
Ġincre ased
se qu
Ġch air
Ġmonth s
Ġa round
Ġclo se
o ber
Ġe as
Ġcap ital
Ġjust ice
g u
Ġc irc
Ġsh ort
Ġm and
ari at
b y
Ġl at
Ġm en
ic ult
ro w
end er
ver s
t il
Ġd ue
Ġs ays
Ġlegisl ation
as k
w ards
b o
Ġb al
Ġm ight
Ġnot e
Ġe c
Ġno ve
Ġadminist r
imin ation
Ġtar get
Ġrepresent ative
ac y
Ġde v
olog ical
Ġ2 4
Ġdif f
Ġjan uary
Ġnove mber
Ġcon te
Ġsecret ariat
Ġpre p
Ġchang es
Ġ2 1
os p
o ot
Ġa im
th ough
se c
Ġrecommend ations
Ġstat us
Ġa ge
ch an
Ġann ual
Ġear ly
Ġne ar
Ġm aking
Ġparticular ly
Ġnat ural
Ġaff airs
Ġl ic
Ġm or
Ġexpect ed
Ġt rib
ub l
Ġoct ober
Ġd iv
m p
p ose
Ġim m
Ġpl ans
t a
Ġac cept
Ġem erg
Ġgood s
Ġinclud ed
v al
Ġen h
Ġinvest ment
on se
Ġex am
ne w
Ġpre vent
Ġal though
re g
Ġpartners hip
Ġob lig
Ġh old
1 5
Ġp an
Ġbenef its
Ġt al
Ġsu per
Ġst re
Ġpr im
Ġab le
is es
Ġm us
Ġ x
Ġind epend
Ġprogram mes
Ġcr imin
Ġcult ural
Ġ199 9
Ġcomp lain
ab ly
Ġm id
oc k
Ġmain tain
Ġf ail
Ġc op
Ġconf lic
Ġon t
Ġbe come
it her
Ġm s
Ġproble ms
u le
ak es
Ġo pt
s ide
er c
Ġresp onse
Ġtreat y
Ġme chan
y l
Ġre ason
il ar
ure d
Ġcompan ies
Ġapp ly
Ġyoun g
n el
Ġsustain able
ric t
Ġg ive
ic les
b an
Ġcom e
Ġmed ia
Ġm ission
est ic
im um
Ġcan d
m on
Ġs ent
Ġb or
it ing
us ed
Ġresp ond
Ġh ar
Ġra d
Ġt aking
Ġdocu ments
Ġanalys is
Ġs l
Ġun til
Ġre form
o f
Ġdist rib
Ġ2 2
Ġac ross
h ib
Ġto o
Ġdiff icult
Ġev idence
Ġup on
Ġperson al
Ġb i
l s
Ġb ur
ist ics
b ec
Ġregul ation
id es
get her
Ġexecut ive
Ġto gether
o graph
e y
b ia
Ġtreat ment
y ing
Ġgo ing
he re
Ġman u
Ġlead ers
Ġest im
w ays
Ġt em
Ġlab our
Ġont ario
Ġt re
Ġg er
Ġcol l
Ġent er
ut y
Ġunder t
ent ly
Ġin n
Ġneg ot
Ġsim ilar
Ġachie ve
Ġj oint
n es
ive ly
ient s
Ġb lo
Ġb ig
Ġconcer ned
ric ult
end s
Ġplan ning
Ġcit iz
Ġv ot
Ġtrans fer
Ġb ra
Ġrespons ible
r ing
Ġgovern ments
Ġcrimin al
ip ment
in t
Ġexist ing
Ġ3 1
Ġcall ed
Ġprofess ional
Ġexper ience
Ġdemoc r
Ġp ubl
Ġeval uation
Ġparticip ation
ru ction
cial ly
Ġo ld
b ased
Ġpur su
Ġcour se
19 9
Ġfe b
Ġmonitor ing
iv al
Ġqu e
Ġadminist ration
Ġof ten
Ġdesc rib
Ġbuild ing
Ġinvol ved
Ġpropos al
Ġcomm er
Ġapp l
a ign
Ġnet work
ill s
Ġcand id
Ġeconom y
Ġadv is
for ce
Ġmanu fact
Ġconcer ning
Ġ2 3
ren ch
Ġp al
Ġcamp aign
Ġsh are
Ġactiv ity
Ġag ricult
Ġother s
Ġt imes
Ġcol lect
Ġquest ions
ist an
go vern
Ġreport ing
v iew
a f
Ġag encies
Ġgro und
Ġme an
Ġto ld
ac ed
s w
Ġve h
on st
an e
l f
Ġincre asing
Ġse x
pp ed
her s
Ġpre par
Ġn uc
l u
Ġinstit ution
at ure
en ces
Ġameric an
Ġro om
Ġne ver
Ġke ep
ut ed
Ġbrit ish
Ġter ror
Ġb an
m ission
er n
Ġequ ipment
i res
Ġe th
1 4
Ġdec isions
Ġproced ures
Ġs omet
Ġafric a
Ġpoin ts
ab or
Ġofficial s
Ġsub mitted
Ġpract ices
Ġref lect
Ġemploye es
2 5
Ġto ok
an c
ition al
Ġj oh
w h
Ġnot ed
Ġsc he
Ġmat ter
Ġadministr ative
Ġph ys
Ġassoci ation
Ġth reat
Ġdem and
Ġconsid eration
r ast
Ġm ov
Ġann oun
ru ary
act er
Ġ ill
Ġproble m
Ġch o
Ġprovid ing
Ġprom ote
Ġviol ence
Ġcomple te
Ġiniti atives
Ġfor ces
Ġobject ives
pe cially
ot t
o ver
Ġc y
Ġdom estic
Ġlangu age
Ġamend ment
Ġch ina
Ġ ide
Ġex ch
Ġimport ance
Ġch ief
Ġdisc r
Ġeff ic
ur ance
Ġcod e
Ġh ol
Ġnuc lear
6 0
Ġcons ist
oc ol
Ġd en
Ġrep l
Ġon ce
u ge
Ġgr ant
Ġiniti ative
Ġstrateg ic
id ed
Ġm al
a pp
ar s
Ġfund s
Ġmon ey
ra el
Ġy ork
o y
Ġy et
Ġ5 0
lo c
ter m
Ġl ight
Ġhig her
Ġre ference
Ġexp lo
Ġlim ited
Ġf rench
Ġapp ear
Ġlike ly
Ġstand ard
Ġfeb ruary
Ġgreat er
i k
Ġmeet ings
Ġrespons ibility
Ġv ari
Ġpro ceed
le t
Ġes pecially
Ġm ot
ar ian
Ġex port
Ġpur pose
he n
Ġproced ure
Ġto ol
Ġr ule
ri e
Ġregard ing
Ġsc ient
Ġag reed
Ġmed ical
Ġ ess
Ġob tain
Ġwork ers
Ġto ur
Ġo pp
Ġfac ilit
/ /
Ġser ious
Ġro ad
Ġis rael
Ġconte xt
Ġtrib un
Ġle ft
Ġs an
or iginal
os ed
Ġ2 8
Ġd one
Ġte xt
le y
Ġopportun ities
Ġobs erv
Ġa ug
Ġcan not
Ġh y
Ġf av
Ġde li
Ġob ama
Ġl ater
Ġguid el
Ġretur n
Ġsp ace
et s
Ġ2 7
Ġha pp
en g
1 8
Ġr ange
e qu
Ġtra vel
Ġh ard
tt p
Ġrev en
Ġr uss
Ġreg ular
Ġr ates
Ġbenef it
Ġb illion
Ġis land
: //
Ġinn ov
Ġcitiz ens
Ġqu al
Ġpract ice
Ġeffect s
g ing
oun ts
Ġcanad ians
Ġrepresent atives
b s
Ġhot el
Ġprot ocol
p art
Ġcommunic ation
Ġlit tle
Ġameric a
Ġger man
x ic
Ġc ross
Ġdis e
Ġoffic er
Ġop in
r ial
Ġprincip les
Ġl ink
a ction
Ġde ath
Ġto wards
he ns
Ġbod y
1 6
ar c
Ġal ong
Ġty pe
Ġ2 6
Ġd i
Ġneed ed
Ġin j
l er
Ġg ender
ill ed
Ġre d
Ġstud ies
Ġocc up
Ġappe al
Ġbr ing
Ġp age
on es
Ġf ish
c al
Ġ /
Ġab original
Ġmin ist
Ġcurrent ly
Ġw est
Ġatt ention
p le
m ing
Ġwh y
Ġclo s
Ġident ify
is ation
Ġf ig
ce ll
Ġf all
un ic
Ġmod el
on t
med iate
z e
Ġf ace
Ġse lf
Ġg as
ore d
en se
Ġdeleg ation
v a
Ġc ut
Ġl oss
Ġ199 8
ri ption
m ost
Ġex cept
Ġpre vention
Ġsing le
Ġt ro
Ġc ro
Ġnegot i
Ġmeas ure
Ġexper t
Ġvis it
Ġout side
Ġdec lar
Ġa ust
Ġty p
Ġintern al
Ġbe low
iz ing
ap s
Ġw at
Ġo il
Ġse em
Ġd ou
Ġtribun al
Ġv ote
Ġfam il
Ġfor ward
Ġconflic t
Ġagree ments
Ġdef in
Ġident ified
Ġopportun ity
Ġg ame
4 0
as ter
c l
Ġa verage
com es
Ġe ither
Ġinclud es
1 7
r c
if f
Ġvict im
Ġph ot
Ġla un
Ġpa id
Ġdiv ision
it ation
er ia
Ġar m
Ġconcer n
Ġstud ents
g c
Ġsurve y
b r
Ġadd ed
Ġl ack
Ġrelations hip
Ġnat ure
Ġover all
an ced
or g
Ġcontinu ed
Ġaug ust
Ġas ked
ac hed
Ġpres s
Ġh ours
Ġassoci ated
Ġun it
op s
Ġcor re
ĠâĢ ĺ
ron ic
Ġd am
Ġindividual s
Ġab s
Ġrel ating
ww w
Ġd est
Ġad j
Ġprior ity
Ġess ential
Ġf if
Ġh alf
Ġguidel ines
Ġg l
Ġent it
Ġfun ction
Ġ |
Ġal tern
Ġch ap
Ġr ather
li er
Ġe ast
Ġprovin cial
Ġi i
Ġper man
2 2
Ġrom ney
Ġw al
Ġf reed
Ġcommer cial
Ġpr ice
Ġre n
at eral
Ġyou th
Ġup d
u el
Ġbe gin
Ġal ways
Ġ2 9
Ġcommission er
Ġter m
Ġse par
Ġintern et
Ġk ing
Ġw on
pect s
Ġcred it
Ġchar acter
Ġprep ared
Ġh ost
Ġal leg
iven ess
Ġbelie ve
Ġdiscr imination
Ġcoord in
id ay
re hens
Ġcar ry
Ġcer t
Ġh on
Ġknow n
Ġdem onst
Ġ1 00
Ġful ly
lus ion
Ġse ason
Ġth us
Ġ19 7
ot s
Ġsa fe
ffic ient
r up
ar ies
Ġmin or
Ġ4 0
ar an
Ġaud it
Ġcol le
Ġcr ime
Ġm ass
Ġs port
Ġc ateg
Ġj e
Ġcust om
pos es
Ġspec ies
Ġcol um
m al
Ġex erc
Ġm ill
Ġcomp rehens
Ġissu ed
Ġoff er
Ġl iving
i que
) :
Ġexch ange
sel ves
Ġinf rast
Ġa ctions
e ur
ist ic
Ġcommunic ations
Ġrefer red
Ġele ction
li ance
Ġf lo
Ġu k
Ġim mediate
Ġsubst ant
Ġbod ies
c ast
Ġpur poses
l or
2 3
âĢ ĵ
Ġm ic
m ine
er ve
Ġh osp
Ġser ies
Ġappro ved
se ction
Ġcontrib utions
Ġr at
Ġar ch
Ġfor ms
Ġac qu
l ish
Ġafric an
Ġdemocr atic
Ġconcer ns
Ġs ource
Ġcomp on
um p
il ateral
Ġcommit ment
Ġchallen ges
Ġwho le
Ġf ri
" .
ag ed
Ġp ack
Ġwe ap
Ġarr ange
her n
Ġcontrib ution
Ġl in
Ġins urance
Ġconc lud
Ġevent s
Ġconstit ution
res sion
aw a
Ġf ire
c hed
Ġhist ory
Ġm ig
Ġpursu ant
Ġh arm
Ġdirect ive
ll ing
Ġfac ilities
Ġsuccess ful
Ġlet ter
Ġperman ent
Ġpa per
m a
p re
Ġcomprehens ive
Ġa ra
us sion
Ġwho se
Ġb ul
Ġd u
Ġres ident
Ġor igin
Ġbeh alf
Ġ200 9
Ġcompet ition
Ġk ind
op h
o ff
Ġindepend ent
Ġl ower
2 4
Ġc at
govern mental
Ġtr ust
Ġestablish ment
en ed
Ġopin ion
Ġc le
Ġoper ation
is ters
Ġparticip ants
Ġv ir
Ġgo als
Ġse arch
Ġdeclar ation
ver ty
Ġindust rial
Ġpos itive
Ġpo verty
Ġcoll abor
Ġfore st
Ġredu ce
or n
Ġgen er
Ġbas ic
Ġn ation
ul ated
c an
Ġprim ary
Ġw ide
Ġm iss
Ġmand ate
Ġcar ried
Ġinstit ute
Ġcult ure
Ġvol un
end it
Ġf re
og ue
ab ilities
r ate
Ġocc ur
b u
Ġf air
a i
Ġple ase
Ġminist ry
Ġco ver
0 5
s ite
con t
ph as
Ġunderstand ing
Ġinfrast ructure
Ġrequest ed
Ġdisc ussion
Ġdeb t
Ġjoh n
Ġfr ance
Ġh ttp
ict ion
Ġsupp ly
Ġj our
en sion
es tern
Ġse lect
Ġcre ate
Ġen force
0 3
Ġdef ence
Ġexp endit
Ġcons erv
Ġm ax
Ġre ally
Ġm ess
Ġpropos als
2 9
Ġinf lu
Ġdec ided
re l
Ġreg ions
Ġse en
n al
en n
Ġch r
Ġdeb ate
Ġt it
Ġprior ities
Ġb at
Ġsal es
Ġc am
Ġspe ak
Ġcl imate
Ġinit ial
Ġcoord ination
Ġfis her
Ġnort hern
olog ies
Ġun d
Ġf arm
ac ks
a ren
Ġt im
b ur
Ġc ame
Ġexper ts
is ms
go ing
et h
Ġpro sec
Ġdeli very
p ut
Ġn ight
Ġmat ters
ip l
Ġd ial
Ġs ources
it arian
ar ter
Ġcom ments
Ġredu ction
Ġgu aran
Ġcontain ed
Ġcr is
Ġb ase
Ġf a
pp ing
i h
Ġm ob
Ġperson nel
Ġpresent ed
Ġf oot
Ġst ake
Ġh ous
ens ive
Ġ199 7
Ġaw ay
Ġmarket s
on y
Ġdes p
Ġa id
Ġpar k
o id
Ġth ings
Ġdisc lo
re c
Ġfe el
as ons
Ġcon sequ
Ġl ive
0 2
Ġst ructure
Ġsen ior
ap an
Ġthrough out
Ġem phas
Ġmon t
Ġen s
t ime
Ġl ib
Ġsc ience
er y
os ition
Ġf le
Ġl ot
ar ily
he ad
Ġadop tion
c ra
ad d
Ġfor um
imate ly
Ġclaim s
Ġh ope
Ġnot ice
k now
w or
Ġpubl ished
Ġl ed
gh an
Ġfact ors
Ġexpress ed
Ġs ide
Ġ201 0
Ġwork s
Ġpal est
b our
Ġm ag
Ġque bec
v ision
Ġapplic ations
Ġpromot ion
Ġdis p
Ġbo ok
Ġw ed
un g
b ers
Ġoffic ers
Ġw ind
Ġ q
Ġsat is
Ġstat istics
Ġit self
hold ers
Ġset t
Ġconf ir
Ġra pport
Ġprocess es
Ġche m
Ġcris is
Ġg reen
Ġrequest s
Ġf ight
Ġem b
Ġj ur
Ġb ill
Ġad ver
Ġres ource
Ġbre ak
Ġit al
Ġcomp liance
Ġdirect ly
Ġnot es
Ġ201 2
Ġentit led
Ġext ra
Ġcirc um
Ġweap ons
ac hes
Ġsit es
Ġf el
th ing
Ġdec l
Ġpan el
Ġli ber
Ġdesign ed
Ġcont ent
ate ly
o ks
Ġequ al
âĢ Ķ
Ġimm ig
Ġâ Ĺ
Ġh iv
0 4
g n
Ġemploye e
Ġg ain
Ġrece ive
Ġan im
rough t
an ch
com ing
Ġcomp ut
Ġt ri
Ġdescrib ed
âĢĿ .
us es
Ġhuman itarian
Ġstre et
Ġstrateg ies
Ġdistrib ution
Ġfamil ies
Ġm il
Ġdesp ite
Ġsub s
Ġal most
u k
Ġj apan
ib ilities
Ġaf ghan
Ġinvestig ation
Ġp red
Ġval ues
Ġconduct ed
Ġcrit eria
um e
Ġg ot
2 6
Ġaddress ed
d om
Ġanal y
Ġre ach
t m
Ġobject ive
ra cy
Ġwh ite
ab les
and s
Ġear lier
Ġoblig ations
Ġlaw s
Ġcon v
Ġ ,
Ġst ress
Ġhist or
ab it
Ġdeter mine
Ġgo al
Ġ199 6
Ġle ave
Ġoper ational
Ġmaterial s
Ġcommit ted
Ġthem selves
Ġver sion
Ġeng lish
Ġprincip le
Ġag o
Ġscient ific
Ġro und
n o
Ġappl ied
Ġd ol
Ġdepart ments
Ġlong er
Ġelect ronic
Ġs old
m pt
Ġcop y
Ġsomet hing
Ġw ish
Ġd av
Ġlim it
Ġinteg rated
Ġ il
h ol
Ġg ir
Ġinterest s
Ġpur ch
Ġpol l
Ġfinan cing
Ġpr ices
200 5
Ġ ut
Ġtr ial
Ġf low
Ġregul atory
y n
Ġadvis ory
c r
Ġant i
h a
2 7
Ġj oin
em ploy
m or
Ġref uge
Ġs amp
ĠâĹ ¦
er t
. )
ond on
Ġdis pl
Ġen j
Ġcoun ter
Ġad equ
2 8
Ġremain s
Ġexp lain
Ġr ural
Ġw estern
Ġact ive
Ġterrit ory
Ġun f
Ġm akes
Ġmod ern
Ġcal c
Ġchap ter
ues day
Ġlangu ages
Ġrele ase
Ġres erv
Ġmon day
Ġ6 0
Ġrel ig
Ġinvol ve
d le
Ġh om
Ġcre ated
Ġcomple ted
Ġconst ruction
Ġd ro
Ġappro val
ers on
Ġrecent ly
Ġrecord s
________ ________
Ġmin isters
Ġcomple x
Ġt uesday
Ġprov ince
Ġ :
ac es
Ġrec all
Ġcircum st
Ġsumm ary
Ġpart s
Ġapp oint
Ġcorpor ation
Ġ *
or m
Ġsub section
l ant
Ġenh ance
Ġinter view
Ġfr iday
Ġschool s
Ġre asons
Ġen ough
Ġi ra
Ġrel ative
Ġw ays
Ġapplic able
Ġtransport ation
0 6
Ġfund a
Ġoper ating
Ġtur n
Ġas pects
p id
Ġenforce ment
re w
ud e
Ġb en
Ġindic ated
d en
Ġdial ogue
Ġam b
Ġ ip
Ġra il
aren ess
Ġc ra
Ġlear ning
Ġaw areness
Ġdesc ription
Ġchair man
Ġt ren
Ġpre m
Ġclear ly
Ġpay ment
Ġvictim s
o ke
Ġadj ust
Ġdra w
Ġâ ĸ
Ġart icles
Ġv ide
Ġsy ri
Ġaw ard
Ġse a
Ġe g
Ġsk ills
Ġl ondon
Ġstate ments
Ġsupport ed
rie f
Ġsp ending
Ġb ure
Ġat te
Ġl ate
Ġt ask
Ġm ention
Ġsc ot
Ġconsult ation
Ġir an
Ġtechn ologies
Ġto wn
ll ed
b or
Ġal loc
r ary
er ous
Ġst ated
) (
Ġtrad itional
Ġre new
Ġrecommend ation
Ġconc ent
an a
Ġpay ments
ren ts
Ġar gu
Ġcomp ens
c le
Ġmajor ity
Ġweb site
tern al
ic ial
Ġse lection
Ġreven ue
in ary
Ġamend ments
Ġinc or
Ġfunda mental
u x
ĠÂ £
Ġcontrib ute
y al
id a
is d
Ġg ames
Ġira q
l a
Ġstrengthe n
Ġd er
o very
Ġrapport eur
Ġst ri
Ġphys ical
Ġwee ks
u ations
Ġconsult ations
Ġdrug s
Ġcall s
Ġmethod s
Ġs ound
Ġcircumst ances
Ġsu ff
Ġm er
Ġeng ine
an ia
Ġstep s
Ġst ra
Ġwor ds
ren cy
6 3
Ġjob s
Ġab ility
Ġel ig
ke y
Ġcom ment
Ġst ruct
Ġf ile
m ar
Ġst age
g round
if t
Ġgeneral ly
Ġst ay
Ġemerg ency
wor ks
Ġmin utes
Ġregist ration
Ġm o
Ġtak es
Ġplan ned
Ġt or
Ġaffect ed
Ġ Ã
Ġw ww
i ency
Ġdo ing
r s
Ġext ent
ien ces
Ġqu arter
te es
st er
Ġcrit ical
Ġe ver
Ġent ire
Ġmed ic
r ant
uc k
Ġd ivers
com m
Ġm om
iv ity
act ive
Ġundert ak
nes day
" ,
ph one
Ġs ens
200 6
Ġhe art
Ġth urs
Ġc ou
Ġinstru ments
es e
Ġele ments
Ġfr ont
Ġnegoti ations
Ġcl in
Ġso ft
Ġdise ase
2 1
bu ild
Ġmechan isms
Ġdetermin ed
d f
Ġbl ack
Ġc ell
Ġgu ide
Ġsatis f
ort h
Ġwed nesday
Ġannoun ced
res p
Ġr iver
Ġacc om
Ġman ner
9 9
Ġthurs day
rel ated
-- --
Ġchem ical
Ġo tt
feren ces
Ġche ck
Ġcon ne
Ġ ...
Ġpalest in
Ġfin ance
w ide
Ġara b
Ġy es
Ġfreed om
Ġfil m
Ġwrit ten
Ġb rought
Ġlead ing
Ġsh a
........ ........
0 7
Ġtool s
Ġview s
Ġexerc ise
Ġb rief
Ġatt ack
Ġdetail s
ig en
Ġact s
Ġcomp ared
Ġchar ter
Ġav oid
Ġon line
4 5
b ack
Ġgerman y
Ġmin imum
Ġmid dle
Ġens uring
m ark
Ġqu ick
en ing
Ġl og
ve re
Ġcorpor ate
Ġca use
Ġveh icle
m ore
Ġmanag er
Ġm it
Ġm c
Ġan sw
Ġpre c
Ġhe rit
Ġpres sure
b on
Ġagricult ure
Ġse ven
w are
ul ations
or al
Ġw a
ag ue
Ġlin ks
Ġcomp ar
Ġfis cal
m en
cra ft
Ġde g
Ġâĸ ª
Ġex ternal
Ġar med
Ġott awa
Ġwork sh
Ġso on
ens es
re am
3 5
Ġherit age
Ġjour nal
t ies
Ġs ize
Ġinteg ration
Ġrad io
Ġrequ ires
Ġp et
Ġasse ts
m ail
Ġint ended
Ġdol lar
Ġ ic
Ġpro b
Ġchr ist
Ġterror ism
Ġc ru
Ġmus ic
Ġenter pr
Ġsect ors
Ġc f
Ġde ad
' re
Ġco ast
it able
Ġadv ance
Ġpr ime
Ġpen al
Ġv ac
Ġsh ip
Ġappro x
Ġmic ro
Ġrecommend ed
200 7
Ġpen sion
Ġrem ov
Ġal ber
an n
Ġimplement ed
ul ate
c s
s y
Ġ199 5
Ġsub mit
Ġcolum bia
od y
se t
at ures
Ġre in
Ġpr ison
Ġbal ance
Ġpa rents
Ġestim ated
i ary
Ġd ed
Ġconsum er
g ent
Ġex cell
Ġsubs id
Ġdef ined
Ġjur isd
Ġloc ated
Ġm is
n d
Ġchallen ge
Ġfin ally
Ġsu fficient
Ġimplement ing
Ġoff ices
Ġpromot ing
Ġtyp es
o x
Ġon going
Ġinter p
Ġc reat
Ġext re
Ġpo or
Ġsub sequ
Ġleaders hip
Ġincor por
Ġst ock
Ġcol lection
Ġt en
Ġsex ual
Ġinstitution al
Ġimpro ved
a ut
Ġencoura ge
Ġenj oy
Ġet c
Ġexp and
d ing
it es
l ies
Ġbe y
Ġc ard
Ġco ve
Ġl ost
p an
ar ters
Ġp il
Ġm ur
Ġarrange ments
Ġpeop les
ep ing
Ġmanufact ure
j e
Ġaltern ative
z er
200 4
w ise
ick ing
Ġrespons ibilities
ign ed
Ġcandid ates
Ġstrengthe ning
Ġgrow ing
unic ip
Ġinform ed
Ġsu re
Ġbr anch
Ġfre qu
igen ous
Ġme xic
Ġw ent
Ġcre ation
Ġor d
Ġbure au
Ġpro hib
Ġsc ope
i pe
Ġwas hing
ent al
Ġf em
Ġitem s
Ġfav our
Ġd ut
Ġproceed ings
Ġsc reen
Ġsign ed
Ġcl ub
Ġele ctions
n ic
Ġmove ment
Ġparticip ate
Ġimpro ving
Ġp un
200 3
Ġbey ond
Ġb all
or ial
Ġ3 5
Ġhous ing
l am
Ġd ang
Ġm other
Ġrese arc
it er
Ġshow s
Ġsu sp
Ġpl ant
Ġstake holders
Ġad ap
Ġking dom
Ġlegisl ative
Ġbe gan
Ġind e
Ġcom ing
0 8
d o
Ġtrans pa
Ġcl ar
build ing
b c
Ġm unicip
Ġruss ian
Ġhosp ital
Ġw ood
Ġus ers
200 1
w here
6 7
l ight
du le
Ġdetail ed
Ġfollow s
Ġd ig
Ġdep uty
Ġdefin ition
Ã ¡
ens us
Ġjud ge
Ġind igenous
Ġsh own
Ġprodu ced
Ġh it
Ġris ks
Ġcommit ments
Ġar rest
Ġ199 0
Ġsupport ing
Ġfacilit ate
Ġm ut
por ary
Ġs und
t r
Ġadv ice
Ġachie ved
0 9
Ġcent er
Ġterrit ories
d ra
Ġr ich
Ġban ks
Ġpat ent
Ġph ase
Ġfisher ies
Ġe ight
Ġt ell
ip o
Ġfour th
Ġapplic ant
e u
Ġbor der
Ġd ated
Ġor iginal
b all
Ġra ised
lant ic
Ġmax imum
Ġg ree
5 5
s on
Ġout come
Ġbeh av
ru it
Ġlook ing
Ġind ian
Ġdep os
Ġtit le
Ġloc ation
Ġph il
3 3
Ġfe ed
Ġf uel
l ation
Ġallow ed
ad es
Ġaust ral
Ġaim ed
Ġdist rict
Ġsu s
ain t
Ġregist ered
Ġem issions
Ġwas te
Ġh abit
Ġde ep
Ġsche dule
âĢĿ ,
Ġagricult ural
Ġadv ant
Ġaut om
Ġcent res
Ġcust oms
e ad
il t
Ġsum mit
Ġequ ality
Ġo ce
Ġwashing ton
Ġbeh ind
ten ance
Ġgovern ance
Ġs qu
Ġrele ased
Ġair craft
ix ed
ill ing
land s
Ġh or
Ġrec overy
a ment
iz es
Ġoff ers
Ġp ow
p ly
c ame
f ace
Ġinterp ret
Ġne igh
Ġsupp lement
Ġcove red
Ġorganiz ed
ail y
Ġconsist ent
Ġresol utions
ad a
Ġvide o
r ight
Ġn om
g ment
it ness
ra d
Ġv ill
Ġmain tenance
i am
Ġfollow ed
Ġw ild
d ro
ough t
Ġestim ates
Ġhe av
Ġinnov ation
Ġintrodu ced
h am
Ġpro s
Ġcomput er
n ect
a ctions
Ġur ban
Ġfir m
Ġredu ced
i ers
h ood
Ġinst all
Ġk ore
Ġdep end
ir ing
or ters
Ġbe came
Ġte ac
Ġeduc ational
Ġcle an
il ing
lo ad
5 7
Ġcandid ate
Ġac ad
an cing
ol ution
Ġthough t
qu es
Ġveh icles
ic a
Ġcond ition
he st
Ġchar ge
Ġrecogn ized
Ġbegin ning
c hes
Ġsund ay
Ġnum bers
Ġspec ified
ra y
Ġadequ ate
Ġl ake
Ġb ir
hed ul
Ġafghan istan
Ġlic ence
Ġpos itions
ren ce
Ġplay ers
Ġd aily
Ġar ms
Ġp ac
Ġconne ction
s pe
Ġatt end
Ġgen e
Ġcomm and
Ġre ached
Ġcompens ation
Ġmr s
Ġh am
Ġtra ff
Ġapprox imately
Ġre pe
Ġen able
Ġbu y
Ġ199 4
Ġser ve
Ġprepar ation
Ġact ual
Ġstart ed
Ġex ceed
Ġsumm er
Ġpalestin ian
Ġintrodu ction
Ġn av
Ġrel ation
Ġch amp
Ġab use
Ġacc ounts
Ġpro c
Ġsp ok
Ġdiscuss ions
Ġlab or
Ġel se
ific ations
Ġoff ered
Ġm ad
w an
Ġmar ine
m iss
il le
i j
m aking
Ġcom es
ch ing
Ġwork ed
vent ions
Ġeval u
Ġmin d
Ġm ach
Ġlead er
Ã ¨
ag ing
Ġv ul
5 9
b it
Ġinform al
a ids
Ġeffective ly
Ġsuggest ed
Ġinte l
Ġdav id
Ġindic ators
5 8
Ġtre as
v is
th is
Ġtra ck
4 7
Ġbusiness es
4 9
Ġeffic ient
Ġexp enses
on to
Ġdisclo sure
ra in
Ġ =
Ġpres ence
qu ir
Ġro yal
Ġrequire ment
y a
t d
Ġsat ur
Ġm ich
Ġopt ions
Ġpriv acy
l in
Ġent ry
Ġcon cept
i pp
Ġas ia
Ġdis pos
Ġinst ead
Ġspec if
ke eping
Ġeffect iveness
Ġl os
le vel
Ġhe aring
t ic
Ġundertak en
ly ing
Ġdel iver
Ġsu d
Ġinc ident
Ġdec re
3 7
Ġm ac
Ġun employ
Ġfound ation
g r
stand ing
Ġapp rec
ak ers
pect ive
Ġra ce
200 2
Ġdat ab
Ġdid n
resp ond
in ated
Ġind ia
h tm
Ġcontin ues
Ġatte mpt
Ġter min
qu arters
Ġi ii
Ġqu ant
Ġcare er
Ġnear ly
Ġl ives
Ġm ort
Ġcomb at
Ġbo x
Ġtele vision
Ġown ers
Ġfig ure
bo ok
Ġform al
ic it
Ġpart ner
in o
Ġsol ution
Ġguid ance
Ġrev ised
Ġimmediate ly
Ġsay ing
Ġalber ta
3 1
Ġdire ction
Ġvul ner
Ġful f
ad or
Ġst ation
r ants
Ġw all
Ġcar ri
Ġh op
y le
Ġc ore
4 8
Ġm art
Ġsepar ate
Ġc ash
Ġb ad
Ġcoop er
Ġsal e
Ġm use
li ke
Ġsubstant ial
Ġval id
Ġat lantic
3 8
c n
Ġestablish ing
Ġlar gest
r is
art h
Ġd a
Ġintel lect
ful ly
ify ing
Ġ201 1
Ġmom ent
Ġsen se
Ġfun ctions
Ġmechan ism
Ġextre me
t ary
Ġsubst ances
Ġtar iff
Ġac know
Ġchar ges
Ġd uty
sel s
Ġs un
f a
Ġcam er
ok ing
Ġk illed
o le
Ġpublic ation
Ġsp ain
oin ted
Ġsou ther
Ġins pe
Ġfed eration
Ġdiscuss ed
Ġex hib
Ġsur v
Ġset ting
200 0
Ġplay ed
Ġapp end
s a
Ġ id
Ġresearc hers
Ġcor respond
Ġreg ime
Ġgra du
r ong
Ġcorre ct
Ġobtain ed
Ġth ing
Ġl ay
Ġg old
Ġlist ed
am ed
Ġeffic iency
Ġelig ible
Ġacad em
Ġsee k
Ġl es
3 9
Ġpro port
Ġun its
Ġintellect ual
Ġact ually
Ġuse ful
Ġtr y
Ġdou b
Ġs lo
Ġmuse um
et ic
Ġfil ed
Ġpres c
Ġopen ing
Ġst ability
Ġprovin ces
Ġcon ver
Ġback ground
Ġrepl ace
Ġpa ul
ol id
Ġcollabor ation
Ġhead quarters
re p
Ġre b
Ġil leg
Ġv ice
Ġp ict
id ge
Ġcateg ory
ro ad
Ġw ipo
Ġex em
f in
Ġca used
Ġo ly
Ġmexic o
l ines
us h
Ġo s
Ġfind ings
Ġn ut
Ġtr ying
Ġs il
Ġother wise
Ġget ting
ber t
Ġs low
o res
Ġind ex
Ġpartnership s
6 6
Ġimprove ment
Ġoly mp
Ġair port
Ġhig hest
Ġlat est
Ġdeg ree
Ġmean ing
Ġ4 5
Ġneg ative
Ġinvol ving
Ġital y
ent y
Ġdis arm
Ġdo ct
Ġhigh ly
Ġpat ients
Ġsett lement
Ġfac ility
omm od
Ġfe es
Ġacc ommod
Ġtraff icking
Ġce le
Ġun less
Ġh un
u it
Ġth ous
Ġsim ply
ut ing
Ġprodu ce
Ġprocess ing
Ġalleg ed
Ġclos ed
Ġsc hedul
p ol
Ġas k
Ġsol utions
Ġsol id
Ġtrans ition
Ġide a
Ġpublic ations
Ġdam age
Ġamend ed
Ġsw it
Ġgrant ed
Ġconsum ers
Ġmunicip al
Ġg ave
Ġcho ice
Ġcan cer
Ġspecif ically
Ġle ague
lud ing
Ġaccount ability
ines e
Ġgr and
pl ace
um b
abl ed
Ġh al
Ġfle x
Ġqu ite
Ġapp ell
4 4
Ġmention ed
Ġeas tern
Ġharm on
h ouse
d es
w a
Ġv o
Ġmanufact uring
Ġch ance
est s
Ġexp os
l an
Ġsouther n
Ġcon nect
and a
Ġpeace keeping
Ġinteg r
Ġst op
Ġ 000
Ġindic ate
Ġjud icial
an cy
Ġtest ing
Ġvari ety
Ġt as
p erson
Ġaw are
Ġcontinu ing
e e
il es
Ġsh ared
Ġl ines
Ġsoft ware
Ġrest rict
Ġbroad cast
i ra
Ġcert ific
is c
Ġcl ients
Ġt ort
Ġmed ium
Ġwe ak
Ġwe ight
Ġsatur day
Ġwel come
Ġr ise
Ġtor onto
c ers
Ġcolle ge
Ġ ult
Ġ3 7
d p
Ġc as
Ġcompon ent
Ġnot hing
Ġro ck
Ġdep loy
Ġsit uations
Ġconclud ed
ous ly
Ġcour ts
Ġprevious ly
Ġm oun
Ġimp lic
d a
Ġb ay
Ġadver t
Ġdisarm ament
Ġeng age
Ġdevelop ments
Ġselect ed
Ġra pid
Ġfr anc
v i
Ġdut ies
Ġres erve
Ġch am
Ġwrit ing
Ġgir ls
f ort
Ġdeleg ations
Ġam ounts
Ġinde ed
it ude
ess ions
ĠâĢ ¨
Ġmanag ers
ar a
Ġfri ends
Ġinterest ed
an ish
Ġtreas ury
5 00
Ġcontract ing
d own
Ġbir th
Ġge ograph
Ġst ory
b i
Ġsp ir
Ġappend ix
Ġdivers ity
Ġrec ip
Ġwom an
w ith
Ġcl ient
c ks
is hes
Ġde te
Ġeng land
Ġpract ical
Ġfail ure
3 6
Ġan g
Ġre ve
Ġch ur
Ġro b
Ġdemoc racy
Ġconserv ation
eng th
Ġl ove
Ġconc lusion
Ġg iving
Ġreason able
Ġper mit
Ġnet works
et ary
Ġstand ing
Ġtr ue
w ater
m at
ish ing
Ġcons olid
Ġinvolve ment
Ġimmig ration
Ġproc ure
Ġconf idence
ning s
Ġarm y
Ġinv ited
Ġrecogn ition
Ġevery one
pp er
5 6
Ġsp ons
a ur
Ġ iv
Ġha z
Ġshow ed
Ġtem per
Ġposs ibility
Ġbrit ain
d ed
z il
Ġst ar
Ġa p
Ġinstru ment
Ġpl aced
Ġpercent age
y pt
Ġle av
g s
ch ar
ipl om
Ġfurther more
Ġs and
Ġv es
' ve
Ġrefuge es
Ġtele phone
Ġresult ing
Ġst or
Ġm issions
1 00
Ġmult ip
Ġtra ffic
Ġthan k
Ġjurisd iction
con d
Ġfail ed
Ġdifferen ces
Ġsy n
Ġp ain
Ġbehav i
Ġin vent
Ġch inese
Ġspok es
Ġp sy
Ġparagraph s
Ġnor mal
Ġw itness
Ġappro aches
ach ing
Ġcontract s
ire ct
Ġs ant
Ġguaran tee
Ġcent ury
Ġaccept ed
Ġass um
Ġis lam
Ġmess age
Ġmor ning
Ġv ia
Ġ( $
Ġopp osition
oura ble
he l
Ġa head
Ġ <
Ġcustom ers
Ġd iplom
rup tion
Ġcontain s
s k
Ġp ul
Ġobs er
Ġdesign ated
Ġsignificant ly
Ġcompon ents
Ġexpert ise
Ġl if
Ġout comes
re al
Ġadv oc
Ġblo od
ro om
8 8
ask at
Ġw id
Ġun ique
Ġcomplain t
Ġsa v
Ġpil ot
as c
Ġe lement
g a
Ġadvant age
Ġseem s
Ġprosec ut
l ife
Ġi re
h aps
Ġb ond
s es
l aw
p c
Ġlaun ched
Ġland s
Ġrelig ious
Ġruss ia
Ġin quir
Ġvolun tary
Ġupd ated
Ġc ub
ig ation
Ġemploy er
Ġro oms
Ġsec ure
Ġel imin
Ġcreat ing
Ġappoint ment
t ra
Ġinflu ence
ak istan
Ġwith dra
Ġstud ent
ist ical
Ġwh om
lus ions
Ġhe ard
Ġdocument ation
Ġfact or
Ġincreasing ly
Ġsa w
Ġcon gress
Ġeth nic
Ġprocure ment
Ġansw er
Ġparliament ary
Ġe y
com p
Ġan ge
Ġpsy ch
res h
Ġfig ures
Ġo ption
Ġpop ulations
Ġdollar s
Ġspe ed
Ġtem porary
r ich
Ġident ification
h ab
Ġviol ations
Ġcollect ive
Ġexpendit ures
Ġflo or
Ġd im
Ġdev ices
Ġsp ent
Ġgene va
Ġelect ric
Ġb it
Ġclass ification
Ġt v
Ġprovision al
Ġexpendit ure
3 4
Ġb and
Ġire land
Ġf ather
ol es
w ood
Ġus ually
Ġmult i
Ġadop t
Ġ199 3
Ġocc as
ens ions
ob a
Ġmarket ing
ll ig
Ġhim self
Ġpat h
Ġ %
Ġgovern or
Ġact ing
Ġbu ilt
Ġfri end
w est
Ġco al
Ġhabit at
Ġtur key
Ġphot o
Ġelect oral
Ġs essions
Ġd ur
k er
Ġcomplain ts
Ġper haps
Ġeg ypt
Ġpac ific
Ġ3 6
m er
ul a
Ġdel ay
Ġbra zil
Ġwant ed
Ġsc ale
Ġterrit orial
Ġfocus ed
200 8
Ġorgan is
Ġfif ty
Ġatt ract
Ġhe ar
Ġpow ers
Ġb ound
Ġclose ly
Ġoblig ation
Ġa part
Ġparticip ating
Ġsw ed
Ġd ri
end ers
Ġ3 4
Ġform at
se min
Ġ199 2
Ġ4 8
Ġsupport s
Ġph one
Ġse ll
il s
il ization
Ġb ed
Ġpl aces
' m
Ġfif th
Ġ9 0
Ġsomet imes
Ġus es
Ġme mor
Ġconf ident
Ġfel t
2 01
Ġprep are
Ġdis abilities
Ġw orth
Ġatt acks
Ġl ength
Ġdis app
Ġr ang
Ġkore a
Ġaustral ia
Ġ3 8
Ġs askat
Ġp akistan
Ġre ject
l ined
Ġsub mission
Ġprob ably
Ġ8 0
Ġeas y
Ġlear n
Ġquick ly
it oba
Ġto b
Ġe p
a el
Ġb er
Ġ3 3
Ġredu cing
al ed
Ġ3 9
Ġdepart mental
Ġinj ury
Ġin put
Ġd ia
ing u
Ġvol ume
Ġlaw y
Ġinvest ments
r id
Ġs on
m y
Ġcompet itive
Ġlit er
Ġunemploy ment
Ġlar ger
Ġcommit tees
Ġwor d
Ġcr imes
Ġhigh light
Ġf it
Ġcont ents
un der
Ġret ail
Ġra ise
Ġdist in
Ġfe atures
Ġmore over
Ġilleg al
Ġhouse hold
ra p
Ġl ad
r ations
Ġmult ilateral
6 1
Ġb ien
Ġrun ning
Ġfish ing
Ġreview ed
Ġco verage
Ġ5 5
Ġconsequ ences
Ġminor ity
Ġ +
Ġhy dro
Ġstart ing
Ġprotect ed
Ġappear s
Ġdis semin
Ġdif ference
Ġcons ensus
p ay
Ġgovern ing
Ġdig ital
Ġfem ale
Ġus er
Ġext ended
Ġn ames
Ġsha res
Ġcontain ing
cept ion
Ġpop ular
d r
Ġapp ointed
Ġobserv ed
Ġb id
Ġfor t
Ġrepublic an
Ġn ine
ri pt
l imin
Ġm ap
Ġhelp ed
Ġinte llig
Ġpar is
Ġexam ination
Ġteam s
Ġ3 2
Ġimpact s
Ġt a
Ġe arth
Ġground s
Ġs end
Ġpresident ial
Ġco he
Ġunivers al
Ġchang ed
for d
Ġp ra
Ġtort ure
om b
Ġexpos ure
Ġisrael i
Ġauthor ized
Ġprodu cers
Ġcap t
Ġsc ott
lus ive
cer tain
Ġfir ms
l im
Ġallow s
Ġtarget s
Ġv ision
Ġ7 0
limin ary
Ġresident s
w s
Ġpresent ation
Ġmembers hip
or ge
Ġequ ity
a ult
Ġsp ring
Ġtour ism
f are
Ġp ie
ih r
9 7
Ġconc lusions
Ġexamp les
Ġtren ds
Ġdec ade
Ġm ental
Ġdatab ase
Ġconfir med
Ġlim its
Ġpa rent
de red
Ġpat tern
Ġmar ri
Ġf ear
Ġacc ident
Ġman itoba
Ġlink ed
Ġdeal ing
Ġrest aur
Ġsee king
Ġsubst ance
e ch
f ect
or ter
Ĥ ¬
Ġpl at
Ġmill enn
Ġins ide
6 8
Ġevery thing
ic ians
Ġpre liminary
Ġachie ving
und red
Ġcomb ined
Ġw rong
Ġpr in
Ġinspe ction
Ġabs ence
Ġspe ct
Ġrel i
Ġserv ed
Ġident ity
Ġworksh op
Ġgu ard
ar ia
Ġadap t
Ġse min
Ġte x
Ġdise ases
i ment
Ġmot or
Ġsport s
Ġsh ot
Ġassist ant
Ġf resh
Ġsur face
Ġequ ival
Ġtranspa rency
her lands
g ro
Ġtra in
Ġse ctions
Ġg ives
Ġtax es
Ġrem ed
Ġro se
Ġf ost
Ġreg ister
ii i
Ġinterpret ation
Ġthous ands
Ã §
che wan
Ġrecord ed
Ġinst ance
Ġrel ief
Ġprogram ming
Ġf er
n et
Ġrepresent ed
Ġrelative ly
Ġ199 1
Ġl td
% )
Ġsubsequ ent
ive red
Ġo h
Ġconsum ption
Ġdoes n
Ġa qu
Ġmillenn ium
Ġs n
Ġchar ged
Ġfor ced
Ġtrad ing
Ġoper ate
Ġindust ries
o e
b a
Ġappl ies
Ġm i
Ġtest s
Ġappell ant
Ġ4 9
Ġrece iving
Ġbien n
id ing
Ġz one
3 2
Ġproport ion
Ġchur ch
Ġremain ing
Ġaddress ing
Ġplay ing
Ġre tain
Ġindepend ence
Ġincre ases
Ġcateg ories
Ġco ven
st ream
Ġem p
Ġbr un
Ġb ird
Ġdou ble
Ġcal if
Ġexper ien
Ġread y
Ġinnov ative
Ġar bit
Ġpar ks
Ġhealth y
Ġremain ed
ugh t
Ġmod els
Ġstat istical
e conom
Ġwhere as
Ġd iver
Ġacqu is
Ġwill iam
f ield
Ġfe e
Ġblo ck
6 2
te red
Ġvir t
b re
Ġdel ivered
Ġdetermin ation
8 0
Ġfield s
Ġfind ing
Ġbehavi our
Ġgree ce
v in
ro te
Ġspir it
Ġ4 7
Ġany thing
t c
Ġinvest ors
Ġwat ers
z a
Ġstruct ures
Ġnor m
Ġinter governmental
Ġpl ants
ap ers
Ġenh anced
b and
id ency
comm unic
Ġimplic ations
Ġvot ers
Ġcarry ing
Ġt un
Ġpers pective
Ġpr int
us ing
Ġent ered
Ġh undred
Ġc ab
at t
Ġk en
Ġcontrib uted
Ġrecommend s
u ed
Ġmov ing
Ġve ter
Ġsh aring
Ġob st
Ġbar ri
Ġcons ent
Ġtw enty
Ġannoun ce
Ġsp read
Ġal one
Ġdom in
rib ed
Ġrec ruit
par a
Ġf ixed
Ġelect ed
6 4
res ident
Ġf ast
Ġh all
Ġrest ric
Ġstreng th
5 4
i ques
y an
Ġtrans form
Ġg un
Ġcivil ian
d ep
Ġorgan isation
Ġsur pr
Ġf ine
Ġl ou
9 0
or ing
ic ip
Ġsu pre
Ġnet herlands
Ġpun ish
in al
Ġschedul ed
Ġg az
c are
Ġteac hers
Ġc n
âĢ¨ Ċ
Ġcrit ic
Ġt on
Ġsaskat chewan
re te
Ġvulner able
Ġdispl ay
Ġhold ing
Ġc ities
Ġd ied
Ġmain ly
w g
Ġconst ruct
rug g
ut ers
Ġnew sp
the re
Ġc ast
ou th
Ġprim arily
aff ir
it i
9 8
ent h
Ġemerg ing
Ġdec ide
Ġcount y
Ġmoun tain
Ġsub m
Ġp it
Ġaccount ing
Ġfl u
Ġwe ather
ac co
Ġencoura ged
i os
o on
wh at
Ġanim al
Ġmig ration
Ġsome one
Ġtal k
Ġconsider ing
Ġfr an
Ġdr ive
Ġde em
on ia
Ġel imination
Ġst rugg
en ced
Ġbe g
Ġexport s
Ġv an
k y
Ġterror ist
Ġenterpr ises
Ġsim ple
Ġmultip le
m et
Ġh ur
Ġph arm
Ġfl ight
Ġcompet ent
Ġconstitution al
ell ing
Ġcomp r
Ġtreat ies
Ġmich ael
Ġold er
Ġf at
Ġex cess
re es
Ġto ward
Ġaccom pan
Ġsyri an
Ġo x
Ġg ar
f ound
Ġcoven ant
Ġprincip al
Ġdr ink
Ġvolun te
Ġreview s
Ġt el
Ġd ivid
Ġwind ow
Ġlib rary
Ġj er
Ġm ail
Ġb ilateral
Ġ #
Ã© bec
em ber
Ġc up
w ing
Ġf ax
b ody
Ġcontrol s
Ġanim als
Ġadv anced
Ġacc used
Ġso le
Ġavail ability
Ġmat ch
Ġdirector ate
Ġwin ter
i ar
Ġsh oot
Ġgr ants
i pped
Ġbudget ary
Ġpack age
Ġorganis ations
Ġ4 4
Ġdet ention
Ġrepresent s
yn am
econom ic
Ġsupre me
Ġcoun sel
Ġim age
Ġassoci ations
Ġmanag ed
Ġstre am
Ġsan ctions
Ġcomp ly
Ġhistor ic
Ġchang ing
op er
Ġem ail
st e
ri a
Ġacknow led
Ġtrans actions
ound s
Ġ 01
Ġke pt
Ġre affir
ce l
st on
Ġdisp ute
b ut
a rent
Ġsecond ary
Ġd an
ib ly
Ġs am
Ġrespect ively
Ġcham ber
Ġreven ues
f r
9 5
Ġrec on
a is
Ġreform s
Ġintellig ence
Ġres ist
ip s
Ġstor age
p et
Ġtra ve
Ġcon form
Ġra c
Ġspe aking
Ġimm un
Ġcertain ly
Ġar ts
g ue
Ġsud an
Ġlo ans
Ġtob acco
Ġbel g
Ġpurch ase
l if
g os
oc ks
Ġisland s
Ġcont am
l av
Ġeconom ies
Ġjud ges
7 7
eu ro
Ġp ick
Ġass ign
Ġwat ch
Ġj ames
Ġdang erous
Ġheav y
Ġcon ven
Ġbo oks
Ġh uge
Ġz e
Ġsp anish
Ġa u
Ġhelp ing
Ġrespect ive
t ical
co hol
ill ance
Ġoccur red
* *
Ġmon etary
Ġsamp le
Ġrespons es
e urs
Ġsyri a
Ġge orge
c ol
le x
¿ ½
ï ¿½
lo s
6 5
g reg
Ġpoll ution
Ġapp arent
Ġrail way
Ġclin ical
Ġanaly st
v ille
Ġmin im
Ġaff ord
Ġide as
Ġspe ech
as ters
Ġsen ate
z y
as ts
Ġany one
Ġsh ar
Ġs ought
Ġperform ed
u ff
r Ã©
Ġcom fort
Ġgen eration
Ġatt or
ber g
Ġcertific ate
ou ver
Ġund p
Ġh oc
ove red
Ġopen ed
Ġspecial ized
ot ed
Ġno va
Ġfil es
Ġdifficult ies
Ġexp lan
Ġbe coming
Ġse vere
Ġfac ing
im b
Ġupd ate
Ġcompet it
Ġatt rib
Ġg all
Ġplay er
Ġresult ed
Ġcharacter istics
p ts
Ġhead s
Ġsubstant ive
d is
Ġl ux
Ġle ban
te l
Ġimprove ments
Ġsurve illance
Ġbl ue
Ġab road
Ġhom es
Ġg h
f ree
Ġl ie
v est
d c
Ġsafe gu
Ġw rote
w al
Ġob vious
4 1
Ġmarri age
Ġag ent
anc ouver
ate ll
Ġv ent
g ov
Ġcopy right
htm l
Ġaccording ly
Ġcar bon
os y
Ġent ities
Ġinter im
ro l
Ġtime ly
Ġcele br
Ġcour ses
Ġthan ks
Ġreg ards
Ġis ol
Ġhe n
ice f
Ġn a
Ġcru cial
Ġliber al
Ġnum erous
Ġcomp lement
vent h
Ġf ell
Ġassess ments
ul f
Ġcollect ed
Ġadver se
Ġre min
Ġimport s
n ational
Ġintegr ity
re y
Ġport ug
Ġsur round
Ġfoot ball
Ġcon ferences
com ed
Ġclaim ed
et te
Ġcy cle
7 5
Ġmanag ing
Ġw ife
i ated
Ġcar ib
Ġw arm
Ġfor th
Ġscot ia
Ġconc rete
Ġscot land
Ġdef ense
Ġret ire
rup t
Ġcro wn
ic ted
Ġlarge ly
Ġinter vention
Ġtur ned
Ġp ool
st it
Ġset s
Ġli qu
Ġlo ad
ul l
6 13
Ġdis aster
Ġconsider able
Ġf est
pect ed
Ġrepresent ation
Ġmov ed
Ġb on
Ġ7 5
am b
Ġmaintain ed
Ġinquir y
Ġmut ual
ict ions
Ġpre gn
Ġt end
zer land
Ġpost s
Ġal cohol
Ġge org
Ġn ar
Ġcomple tion
c ar
Ġat m
Ġk os
ra ine
Ġse ed
ast ic
f ir
s hip
Ġch ain
Ġout put
Ġscreen ing
pro f
lic k
Ġaw ards
Ġfund ed
Ġorganiz ational
Ġord ers
Ġtre ated
Ġsche me
Ġmob ile
Ġcomplain ant
Ġgro ss
Ġwill ing
Ġrestrict ions
Ġun e
Ġgo es
Ġsl ight
op eration
Ġdis ability
Ġwel comed
Ġinvestig ations
Ġappe ared
Ġ ice
Ġdec line
p at
c f
Ġpr ince
4 3
Ġeng aged
or gan
e v
ans ion
Ġb ab
Ġra cial
Ġachieve ment
Ġded u
Ġ 00
Ġdete ct
Ġcor ruption
Ġlaun ch
Ã ³
ak er
Ġpro p
z one
Ġread ing
Ġinc om
Ġag ents
Ġca uses
Ġthreat s
Ġimp osed
Ġsupp lies
Ġbr and
Ġpl us
Ġprofessional s
Ġexp lor
Ġcalif orn
Ġin fe
Ġtarget ed
Ġpre fer
Ġbel ong
Ġretur ned
Ġbig gest
m i
Ġconsid ers
Ġobserv ations
h y
Ġbuild ings
Ġs aint
Ġa er
Ġ4 1
Ġc ihr
Ġwel fare
ol a
Ġdev ice
ro y
Ġla id
Ġvot ing
ord ers
Ġolymp ic
k en
Ġcho ose
Ġpres idency
Ġstruct ural
Ġk n
Ġaim s
Ġexcell ent
Ġplat form
Ġon es
Ġre hab
Â °
st ate
Ġ5 7
Ġch an
Ġd ynam
Ġlear ned
Ġextreme ly
Ġm ine
Ġv ital
Ġequival ent
Ġconst ant
Ġb a
Ġun like
Ġdepos it
inc luding
Ġpass ed
Ġmaintain ing
Ġhand s
Ġrepl aced
ot a
Ġbroadcast ing
Ġn ig
Ġassess ed
Ġth ir
Ġlat in
Ġbro wn
Ġadvert ising
Ġ4 2
Ġe ur
Ġb ott
it ect
Ġreflect ed
sw ick
Ġexc lud
Ġres idence
al d
Ġ5 00
Ġded ic
Ġg ard
Ġown er
Ġste el
para graph
ie l
Ġt ried
Ġrelationship s
ov o
tr ans
Ġdia gn
Ġun if
Ġmar gin
Ġbro ther
Ġext ensive
Ġatm osp
Ġfur n
Ġac id
Ġhistor ical
f ol
Ġleg it
at a
Ġpenal ty
Ġchamp ions
Ġext ension
Ġemphas is
ur ies
6 9
Ġhaz ard
u a
Ġn ic
bour g
Ġpre ced
Ġto xic
b n
Ġhon ourable
Ġext end
Ġemploy ers
Ġf al
Ġlo an
Ġprovid ers
Ġme m
Ġengine ering
all ed
Ġcaliforn ia
ind ing
Ġloss es
Ġmeasure ment
Ġallow ing
Ġres c
Ġdra wn
y ou
Ġlat ter
Ġso il
ro ll
Ġfact s
Ġs atell
Ġb os
Ġfl or
j an
s en
al es
Ġkeep ing
Ġm aster
Ġemploy ed
Ġcon go
Ġant icip
Ġtren d
Ġminister ial
Ġbrun swick
Ġqual ified
Ġlic ens
Ġdec ades
p df
Ġconfir m
Ġpol y
Ġtas ks
Ġbelie ves
Ġv ancouver
rep ren
Ġqu Ã©bec
Ġarch itect
Ġsc en
as p
Ġse at
Ġswed en
Ġk m
Ġexam ine
Ġre ality
en ary
Ġmar ks
Ġover view
Ġwel comes
Ġrece ip
Ã Ń
ag o
Ġ5 8
Ġtele communic
Ġun able
Ġc d
Ġh ung
f o
Ġoff ering
Ġv oc
ri an
ol ute
Ġrehab ilit
un ction
Ġvict ory
---- ----
Ġexper iences
Ġexpect ations
p m
Ġamb ass
be an
Ġf ab
Ġexp ression
Ġwild life
Ġexam ined
Ġch art
Ġstrong ly
Ġvac c
Ġfore cast
ut h
Ġme ant
Ġun certain
Ġh our
n ote
199 9
found land
Ã© t
re ly
Ġtal ks
4 2
Ġli ability
Ġsmall er
Ġh us
Ġhosp it
Ġswit zerland
w ell
Ġg i
Ġminor ities
Ġal ia
us al
in et
Ġconflic ts
Ġex act
Ġcur rency
Ġdest ruction
Ġperiod s
se ct
y c
Ġspokes man
osy stem
Ġdeem ed
can ada
Ġsav ings
Ġn urs
t es
Ġs om
Ġbi ological
Ġport ion
Ġb io
Ġw ants
Ġexplo itation
Ġinc lusion
' ll
Ġ6 5
Ġt ick
Ġpat ient
Ġpoin ted
Ġinc ent
Ġaccom pl
j ud
Ġexplain ed
Ġcou ple
se cond
Ġ4 3
Ġbienn ium
Ġsh o
Ġend ed
Ġent repren
Ġundert aking
Ġrecruit ment
Ġout standing
k a
Ġk it
Ġwide ly
Ġre iter
Ġexp ansion
Ġbelie ved
a per
Ġappe als
os is
Ġenterpr ise
Ġro les
Ġar gent
Ġfel low
ad ic
Ġill ust
Ġr ating
Ġover s
th ird
Ġsign s
ar ks
Ġdirect ed
Ġarch ives
ugh ter
Ġper fect
h r
Ġpeace ful
Ġsatisf action
Ġk y
Ġmont real
il ed
Ġt an
n y
Ġdetermin ing
us ion
Ġtechn ological
k es
Ġsold iers
Ġexperien ced
Ġowners hip
Ġto t
Ġsuper vis
Ġprof ile
Ġuk raine
Ġbe at
4 6
Ġb ol
Ġsp ot
Ġac ce
Ġbring ing
on a
Ġver s
Ġmart in
Ġrecogn ize
Ġtemper ature
Ġjoin ed
Ġarrest ed
Ġec osystem
Ġcontro lled
Ġunivers ities
Ġat h
Ġr c
vere ign
Ġserv ing
ch air
Ġw il
i ance
Ġadd ing
Ġaccess ible
Ġtax pay
Ġco ach
ca pe
g l
Ġfac ed
Ġass igned
Ġopt im
b ed
Ġbor n
Ġameric ans
Ġoce ans
Ġoce an
Ġsent ence
Ġdispos al
ul ating
Ġdoub t
Ġexplo re
Ġcon ventions
Ġmot ion
Ġnew foundland
Ġconstit ute
Ġne ither
ro p
7 3
Ġpres erv
lif eration
Ġint ent
Ġn one
Ġd ar
ump ing
Ġcat al
Ġleav ing
Ġsy mb
Ġprepar ing
Ġundert ake
Ġp ages
Ġim ages
Ġremov ed
Ġeas ily
Ġde tain
Ġth om
f s
Ġkos ovo
Ġabs olute
Ġso vereign
Ġrep rodu
Ġalleg ations
Ġcop ies
Ġro bert
uk on
Ġn gos
p oint
Ġtechn iques
Ġoff ence
Ġhead ing
Ġpresc ribed
Ġproper ly
Ġvo ice
com mit
Ġviol ation
Ġmill ions
Ġattor ney
wh ile
Ġrespond ents
Ġs we
ov a
Ġfarm ers
Ġpost ed
Ġm os
at ically
Ġs now
Ġset tle
om en
Ġcomplete ly
7 0
Ġr ank
Ġincorpor ated
Ġcut s
ec d
t op
Ġs ort
Ġacc ur
Ġworld wide
Ġfil ing
Ġidentify ing
d on
Ġb ow
Ġopt ional
Ġmedic ine
the less
Ġname ly
Ġcall ing
Ġsurve ys
c her
Ġvill age
Ġprofess or
a e
os lav
Ġperiod ic
Ġc m
Ġcorpor ations
Ġoff ences
Ġ5 6
Ġalloc ation
Ġm cc
Ġact ively
Ġmar it
Ġlabor atory
Ġpl enary
Ġ5 9
Ġinstru ctions
Ġmod ified
Ġdist ance
Ġint ens
i at
Ġc row
Ġbat tle
Ġmin ing
oun ted
cont in
Ġtro ops
u able
et ies
Ġnever theless
Ġsqu are
Ġdemonst rated
Ġad ults
Ġin h
Ġelse where
Ġtrans l
in ations
Ġact ors
ok ed
Ġcol on
Ġk ill
Ġdemonst rate
Ġm ale
Ġas ian
Ġinternational ly
Ġsm ith
l ied
Ġexist ence
abl ing
Ġun icef
Ġobst ac
Ġcon ce
Ġapprec iation
Ġw to
Ġstra ight
Ġman ual
Ġcustom er
ograph ic
Ġrepe ated
Ġp m
Ġtax ation
Ġreject ed
Ġn amed
n ia
Ġins pect
Ġprom pt
a a
Ġacquis ition
Ġlet ters
Ġf ans
en ger
Ġprof it
e ff
Ġpre t
fir st
Ġcarib bean
Ġencoura ges
Ġl akes
Ġjud gment
Ġdemand s
Ġinvent ory
Ġmiss ing
Ġaccommod ation
ze ch
Ġvisit ors
Ġital ian
e es
Ġdis miss
Ġtri p
Ġun c
Ġsymb ol
Ġ Î
Ġapp le
Ġcomm od
Ġmil es
ug oslav
Ġbe ar
Ġ ign
Ġv en
z en
Ġsa ve
Ġoccup ational
x x
Ġatt ached
ar ity
Ġnut r
r ison
Ġin uit
Ġaccept able
w p
spe c
Ġa st
Ġze al
Ġa ids
Ġte aching
8 5
Ġ9 5
Ġcol d
Ġst im
Ġ5 4
Ġcell s
Ġje an
Ġi b
Ġal i
Ġaccess ion
Ġhapp ened
Ġconfident ial
ash ion
in y
Ġvot es
Ġbr us
Ġst ations
Ġsuggest s
Ġworksh ops
Ġbarri ers
Ġrul ing
the y
Ġy ukon
Ġhe at
Ġy ugoslav
Ġpict ure
Ġto uch
Ġfreed oms
Ġdur ation
Ġdirect ors
Ġd ry
Ġn rc
Ġpe ter
w in
Ġcomb ination
Ġvis its
Ġo l
Ġwe alth
ct ic
Ġg ap
Ġprotect ing
Ġweek end
8 7
c ap
Ġwar ning
Ġst ore
Ġm m
Ġp as
Ġh ill
ro duct
Ġlook ed
Ġange les
y m
Ġd ie
Ġwork place
Ġg od
Ġindic ates
Ġencoura ging
Ġad ult
Ġm ist
r d
m akers
Ġtrans f
Ġparticip ated
Ġple ased
Ġlo oks
Ġenh ancing
th at
Ġoccup ied
Ġfight ing
Ġrefuge e
Ġsc iences
Ġbe comes
Ġsens itive
Ġ3 00
Ġ4 6
Ġthe me
reg ional
Ġnot ing
Ġent ity
Ġtrans mission
r ane
Ġdis s
Ġapplic ants
Ġfra ud
Ġsix ty
Ġgen etic
Ġcont est
Ġdr iving
Ġve get
Ġdon ors
v ance
Ġcompar ison
c d
Ġrehabilit ation
bur g
Ġbur den
Ġr an
Ġs ong
igh th
Ġdro p
Ġ198 0
Ġc s
Ġrecall ing
9 6
know n
Ġneigh bour
d oc
Ġexcept ion
Ġg al
Ġbank ing
Ġzeal and
Ġst o
Ġfulf il
Ġretur ns
Ġapply ing
Ġtransfer red
re port
r um
Ġ5 1
Ġregular ly
Ġconcent ration
Ġdis char
Ġben ch
Ġface book
lo ck
Ġb omb
Ġnor way
d i
Ġb ag
ag ues
Ġ7 7
Ġhapp en
se y
Ġless ons
g age
Ġd og
Ġâ Ĥ¬
Ġdistrib uted
Ġcitizens hip
Ġliqu id
Ġmag n
e k
Ġambass ador
Ġsatell ite
Ġstress ed
Ġtelecommunic ations
Ġbr idge
Ġconserv ative
Ġk il
Ġc zech
Ġnot ification
ric k
Ġdecl ared
Ġ )
Ġ5 2
Ġorgan ic
Ġjust ification
Ġce re
Ġt u
Ġg ather
Ġfa ith
Ġshow ing
Ġsp l
eff ect
Ġthe at
Ġsubsequ ently
Ġde le
z z
Ġt ack
Ġbelg ium
bo ard
s ub
Ġrestaur ant
Ġexem pt
Ġcert ification
Ġargu ed
Ġdecl ined
Ġp ipe
Ġmet al
s m
ograph y
pro gram
Ġv ary
Ġest imate
8 00
Ã© s
al ing
Ġpol and
Ġproduct ivity
Ġallow ance
Ġcub a
Ġnat o
ter day
Ġear nings
Ġout lined
Ġcar s
Ġpolit ics
Ġscient ists
Ġa lex
i ro
it ative
h st
Ġfrequ ently
Ġy ield
og en
Ġislam ic
Ġmeas ured
Ġovers ight
je ction
Ġs ides
Ġst rict
Ġdown load
Ġup gra
Ġins p
u ra
Ġdef end
Ġ8 5
Ġchan nel
od e
Ġrem ote
Ġt ables
Ġflo od
Ġre ferences
Ġrac ism
Ġalloc ated
Ġ5 3
Ġsix th
Ġrepresent ing
Ġsal ary
Ġyes terday
ol f
200 9
t able
Ġmag az
Ġiniti ated
Ġdistin ct
Ġcoordin ated
Ġend ors
Ġtrans lation
Ġpar al
Ġquestion na
m its
Ġfl ag
Ġst able
ad o
Ġur gent
Ġque en
ud s
Ġdecre ase
Ġc lick
Ġ0 4
ac ing
Ġinvol ves
Ġmort ality
l ist
f ast
eng ers
Ġaut on
Ġshe l
Ġfr ank
Ġm g
Ġmess ages
Ġelectric ity
Ġor ient
Ġnorm ally
Ġe ld
Ġwal k
Ġsim pl
ic ian
r ates
Ġg dp
Ġgeorg ia
if ies
Ġwas n
Ġspeak ers
Ġcap able
8 9
Ġs le
Ġtrad ition
if ul
Ġresol ve
Ġmark ed
Ġconte m
Ġeth ics
Ġst ab
ou l
Ġunder st
Ġhapp y
Ġgreat est
Ġfe ature
Ġbroad er
Ġretire ment
Ġdo or
Ġer adic
ut ory
Ġk h
Ġqual ifications
Ġm erc
Ġ198 9
Ġv it
Ġ ]
Ġflex ibility
Ġtop ic
Ġfran Ã§
ic iary
Ġbe ach
er o
or um
Ġst ocks
h ow
Ġg one
Ġde gra
Ġf ashion
Ġaffect ing
it ter
Ġind irect
Ġcomp rom
Ġsign ature
Ġaff il
ron t
Ġmonth ly
Ġrelig ion
Ġrec onst
Ġdeli ber
Ġsustain ability
Ġfost er
Ġinf ect
Ġill icit
iz on
o o
Ġbo ost
Ġclos er
Ġl is
Ġin g
Ġpart ial
Ġsc ore
Ġsp end
hol der
Ġatt ended
Ġsuff ered
ter min
in th
Ġim ag
Ġcarri er
b l
Ġflor ida
Ġto ler
ic ing
Ġpunish ment
Ġb ath
Ġcoal ition
Ġdep ending
ot ic
u ated
ac c
app ro
Ġk u
Ġpur sue
Ġmarit ime
Ġn h
Ġra ising
Ġprevent ing
o a
Ã ¼
Ġreserv es
ang ed
Ġd in
Ġst yle
Ġthink ing
ĠÃ ł
Ġch a
Ġwin ning
Ġpred ict
% .
Ġcivil ians
con f
Ġl ists
Ġill ness
Ġw ing
Ġacadem ic
Ġchemical s
Ġinc ur
Ġwon der
Ġhundred s
Ġc art
Ġconsider ations
Ġmin eral
Ġind ones
Ġris ing
est y
Ġhon our
Ġadjust ment
Ġ6 1
Ġfest ival
Ġbrus sels
................ ................
Ġtur k
Ġcompetit iveness
Ġform ed
v ak
Ġtro ub
Ġstri ke
Ġacqu ired
Ġrem ember
Ġest ate
Ġvict or
Ġval uable
5 1
Ġp hen
Ġed itor
Ġtrans it
Ġis n
h ors
Ġprec ise
un ited
Ġoper ators
Ġfood s
Ġbe ll
Ġaward ed
Ġcoordin ator
Ġg re
govern ment
Ġslight ly
Ġgain s
Ġaust ria
) )
Ġcont ra
Ġcalc ulated
Ġh o
Ã ¶
Ġsub paragraph
Ġto m
id er
Ġasse t
d d
up i
________________ ________________
Ġcap abilities
Ġav iation
Ġconsequ ently
Ġloc ations
Ġden ied
Ġst ages
Ġdiplom atic
he alth
it ud
Ġs ir
ter ror
Ġcolle agues
Ġem ission
Ġo mb
Ġb ang
Ġtop ics
Ġmus lim
s he
os en
Ġleban on
it a
k el
Ġor al
Ġcomb ating
Ã ´
Ġsoc io
Ġch ic
Ġelimin ate
Ġcontact s
p resident
ist ent
Ġ198 8
os ing
Ġcontinu ous
m atic
Ġrom ania
Ġchair person
un ately
stit ution
Ġtrans action
Ġcommer ce
c ons
un ch
Ġth r
r ig
Ġcar ol
Ġ198 7
Ġprosecut or
Ġdeath s
Ġobser vers
Ġvot ed
Ġstaff ing
Ġunf ort
Ġint ention
ress ed
Ġg ent
Ġlab el
Ġportug al
Ġcont rary
Ġar ising
Ġpower ful
Ġcover ing
se a
Ġbo y
Ġr ig
f ood
Ġpay able
Ġhand ling
cl ass
Ġput ting
iling ual
Ġdedic ated
Ġfin land
Ġdon or
Ġthere by
Ġs ar
Ġro ute
Ġinterest ing
Ġreve aled
Ġra in
Ġsm oking
Ġfunction ing
Ġprosec ution
on ed
li ers
Ġves sels
um an
Ġcontrib uting
Ġey e
Ġk new
Ġmain stream
Ġbor row
Ġstrengthe ned
Ġcro at
ĠÂ »
Ġexpand ed
Ġdrink ing
Ġreflect s
Ġmand atory
i et
Ġsubm issions
Ġhelp s
Ġmov ie
Ġin su
Ġshe et
Ġpass engers
c or
Ġn ative
Ġevalu ate
Ġann ivers
Ġp apers
Ġur ges
s erv
commit tee
Ġdest roy
f rom
Ġrun s
9 4
Ġrequ iring
Ġinf lation
Ġb c
Ġrele ases
Ġnewsp aper
Ġall iance
Ġevent ually
Ġrem ove
Ġacce ler
Ġmost ly
Ġnorth west
ipl inary
Ġtal king
Ġart ists
Ã £
Ġrat ification
Ġcomp osition
Ġpotential ly
Ġreceip t
Ġsu itable
Ġro t
Ġev ol
Ġconduct ing
Ġstat ute
yl um
h and
Ġdescrib e
Ġmanufacture r
g ers
l ong
tain ing
Ġco vers
Ġc c
Ġn ice
Ġdissemin ation
Ġgu ine
Ġper pet
Ġdef icit
Ġh r
Ġimport ed
Ġdef ine
Ġsh ift
Ġgeograph ical
Ġref ers
Ġdispl aced
Ġbul g
and um
Ġseem ed
v ail
Ġl u
Ġvir gin
Ġbul let
' d
Ġsom al
Ġunderst ood
Ġtranspa rent
rad or
Ġrenew al
se ment
vent ional
Ġover se
h ttp
Ġar ctic
Ġconcent rations
Ġclaim ant
Ġdec ides
Ġmon it
ij ing
Ġdeal t
Ġsuccessful ly
Ġmethod ology
en na
Ġcou p
Ġimmig rants
Ġcol or
Ġav en
Ġre action
i as
Ġbe aut
ic ide
Ġas ylum
ud i
Ġrat io
Ġk id
b el
f ax
Ġannivers ary
Ġel abor
Ġsamp les
Ġsecur ities
Ġdri ver
Ġw ishes
Ġen lar
Ġpl ays
Ġfav or
Ġd ark
Ġamend ing
in i
Ġrepublic ans
Ġbos nia
Ġn un
Ġwar rant
Ġj un
Ġ198 5
Ġdis abled
em ic
Ġur ged
Ġmanufacture rs
Ġcor ner
Ġcond em
Ġhus band
Ġmemor andum
Ġprodu cer
Ġch osen
Ġinj uries
Ġscott ish
Ġport fol
Ġproper ties
Ġsatisf ied
m o
Ġp c
Ġintrodu ce
Ġtw ice
Ġcorrespond ing
Ġeven ing
5 3
i pping
Ġag ed
Ġrecon cil
Ġun h
Ġtransf ers
f ter
Ġun s
Ġfab ric
Ġk ids
Ġrev ision
be ing
Ġm ary
w er
ct ad
u ly
Ġb orders
Ġcont rast
g y
Ġconsult ing
Ġtrans mit
ot o
Ġpattern s
f our
Ġult imately
Ġsupplement ary
ste in
Ġc bs
Ġomb uds
ate ver
g al
Ġu pper
Ġper mitted
Ġfe et
Ġaud ience
Ġpass enger
Ġargent ina
s ch
ou red
Ġphil ipp
Ġr ational
Ġrecip ient
Ġn it
ur ity
Ġaut hors
Ġconform ity
Ġno vel
Ġequ ally
7 8
5 2
Ġ Ġ
Ġinterview s
Ġphot os
Ġarrange ment
Ġown ed
pl us
Ġsu it
Ġsolid arity
Ġthir ty
Ġdeploy ment
Ġp ed
Ġrich ard
j ust
Ġbe ijing
Ġl ob
Ġregist ry
can ad
Ġtra il
Ġre act
Ġann ually
Ġclass ified
Ġfeed back
Ġspeak er
Ġserious ly
Ġcolum n
Ġguine a
Ġen abling
Ġoccup ation
ivers ity
Ġse qu
lic it
Ġentrepren eurs
mon th
Ġath let
Ġbeaut iful
Ġfranc oph
Ġsant orum
Ġmur der
Ġsh ut
Ġgir l
Ġf ill
Ġal b
ul s
Ġout er
Ġm ix
Ġst ories
Ġsubst it
Ġg ing
Ġobser ver
Ġtest ed
Ġreplace ment
Ġp us
Ġk ar
Ġcorre ction
Ġse lling
Ġdemocr ats
Ġassess ing
w ord
pr us
Ġhol iday
r un
ic ed
Ġden mark
Ġmit t
om y
Ġw ire
Ġget s
Ġjoh ns
ier ra
ur b
Ġ8 8
Ġcla use
Ġex ists
Ġsimilar ly
Ġcod es
Ġremov al
Ġme l
Ġwa it
Ġstat utory
f l
Ġfall s
Ġatmosp here
Ġg at
i aries
el and
Ġenc oun
Ġre feren
Ġdi am
ol ic
Ġclass es
og le
Ġdefin itions
Ġlab rador
Ġaccept ance
Ġsupp liers
he red
Ġun ions
Ġthe rap
Ġresist ance
Ġsuc ceed
Ġm ent
Ġbo ys
Ġgu y
Ġsuper vision
Ġval ley
n i
Ġh at
Ġgener ated
m as
Ġk illing
Ġsustain ed
Ġinj ured
Ġl ose
Ġfamil iar
Ġ6 2
ord an
Ġco ol
Ġrestric ted
Ġprepar atory
Ġg st
Ġimp oss
Ġver ification
Ġrc mp
Ġro ut
Ġbott om
Ġsuff ering
Ġmob ility
Ġpay ing
Ġsubject s
Ġab and
Ġtra ined
Ġguaran tees
Ġwh atever
Ġpres ents
Ġengage ment
Ġhop es
Ġcere mon
Ġ iron
Ġhighlight ed
Ġexp osed
Ġstrong er
Ġr ub
3 00
Ġfin ished
Ġexplo s
Ġp p
r ical
bur gh
Ġcoun se
Ġlawy ers
Ġd ream
Ġcons ists
Ġst ip
Ġdead line
Ġ6 7
Ġvi enna
f ur
Ġcan cell
Ġ0 2
Ġv ast
Ġnecess arily
euro pe
Ġprot est
re uters
Ġresc ue
ri end
Ġl ord
Ġaccur ate
Ġcapac ities
Ġnew ly
as er
Ġsupp orters
Ġinter ventions
Ġfew er
che n
ro s
Ġcy prus
ort ion
Ġinter pre
Ġhor izon
Ġpro active
Ġb inding
Ã¡ Ã¡
Ġe pid
Ġregard less
Ġde fe
k h
Ġcomp lic
Ġdraw ing
Ġcy c
es co
Ġretur ning
Ġdim ension
Ġch ile
Ġmot iv
Ġer ror
Ġfl at
Ġcamer on
ul es
Ġs i
in ery
Ġreli able
Ġcol our
Ġlawy er
Ġrec re
Ġindones ia
Ġvis ible
Ġcitiz en
Ġf ruit
ina fter
Ġdiver se
ha ust
Ġtex as
il ty
Ġro ugh
or ation
te g
Ġp our
Ġth or
Ġinitial ly
Ġtrial s
f i
Ġp df
Ġres um
Ġresident ial
Ġpl ed
Ġinfe ction
Ġem ot
Ġeas ier
g ression
Ġda ughter
Ġr w
Ġexper i
Ġrecogn izes
Ġteac her
Ġforest s
Ġs ierra
Ġlead s
Ġargu ment
Ġarr ived
Ġsp oke
Ġmor oc
Ġw et
Ġo k
Ġdest ination
Ġo ecd
at o
Ġwid er
in ter
Ġfunction al
Ġcampaign s
Ġafter no
Ġgo ogle
Ġple as
Ġwrit e
Ġref used
Ġp ace
Ġaddress es
Ġan c
Ġcon j
Ġbe aring
Ġdom ain
Ġcol om
Ġombuds man
Ġprem ium
% ,
Ġad oles
Ġder ived
Ġnutr ition
Ġinvestig ate
Ġst orm
Ġves sel
Ġdist ingu
Ġemb ar
Ġcon gr
Ġrecogn izing
Ġannounce ment
Ġmig rants
Ġdiscr imin
Ġ9 9
Ġd ates
Ġl ith
Ġj ose
an y
Ġcon ventional
Ġcal end
Ġp ending
Ġs ed
Ġc ards
Ġentire ly
Ġc ad
Ġsc ene
Ġrapid ly
tain ment
Ġbudget s
Ġexplor ation
Ġf ro
Ġform ation
Ġut il
i eth
Ġsemin ar
Ġprosecut ors
Ġste ad
art icle
Ġj ack
Ġer r
Ġnational s
Ī Ĵ
Ġgree k
Ġed ward
Ġs ac
Ġrep roduct
Ġins ist
Ġmod er
an o
Ġfe as
Ġacknowled ged
Ġ6 3
wg sc
Ġhar vest
Ġw ine
Ġinter ior
Ġnar row
Ġro ll
Ġfrequ ency
Ġsubsid iary
Ġhazard ous
Ġsm art
Ġp u
spec ific
Ġc ry
Ġinsu fficient
Ġexcept ional
Ġd ign
Ġinf ring
Ġrep ly
Ġflex ible
Ġn am
Ġcre w
c p
Ġconsolid ated
Ġafterno on
Ġun ctad
Ġse ats
Ġ6 4
Ġb bc
Ġres ort
k i
in ks
Ġmean while
Ġw ides
Ġas pect
Ġimposs ible
c alled
Ġreproduct ive
p read
Ġas king
Ġfind s
terror ism
Ġdang er
Ġdro pped
Ġspons ors
Ġgl ass
Ġrespond ent
ut ical
Ġdepend ent
Ġsm es
Ġgu ilty
Ġshoot ing
Ġu g
Ġsub sc
Ġlegit imate
Ġdec ent
b us
Ġc able
Ġportfol io
Ġf u
Ġposs ibly
Ġjohns on
Ġrec ru
Ġsch ol
Ġunif orm
Ġst em
ze gov
Ġab st
Ġclos ing
Ġcl ust
Ġcoast al
Ġauthor ization
Ã ¢
Ġd up
u ine
Ġwides pread
Ġd il
Ġprison ers
zegov ina
Ġwor st
Ġsc r
Ġor dered
Ġpro of
Ġbar b
Ġconnect ed
Ġcroat ia
Ġju ven
Ġequ ipped
Ġexact ly
Ġdef ic
Ġship s
Ġim per
Ġgu ests
os es
Ġwindow s
e ment
ab et
Ġend ing
Ġtrans itional
Ġag ri
Ġse gment
Ġs or
Ġcongr at
Ġrele vance
Ġl uc
Ġent r
Ġexc lusive
Ġing red
d y
Ġcollabor ative
am eric
Ġad mitted
Ġfac es
Ġsha pe
Ġreconst ruction
p al
Ġanalyst s
le ts
Ġslo vak
Ġpar ame
Ġindic ation
Ġwa iting
Ġexp licit
Ġpro ve
Ġj ordan
sc ale
Ġ4 00
Ġcur ric
Ġra re
Ġc ensus
Ġpict ures
Ġrev olution
em bourg
Ã© e
ion ed
Ġdisp utes
Ġtyp ically
en cing
Ġreach ing
Ġjapan ese
Ġpie ce
Ġdoct ors
4 00
Ġen act
Ġ0 8
Ġcooper ate
m r
Ġg ulf
Ġchampions hip
Ġdiam ond
u ay
Ġex haust
Ġexcell ence
Ġliter ature
Ġsal mon
Ġincident s
Ġansw ers
Ġprohib ited
Ġachieve ments
Ġgener ate
Ġd Ã©
ote chn
Ġaccompan ied
Ġgra de
Ġexplan ation
Ġelig ibility
ter y
Ġtr uth
Ġbird s
ar us
Ġt s
Ġte en
Ġgen uine
e a
en z
Ġrem arks
im p
Ġde als
Ġcab inet
Ġflow s
Ġc ree
for ced
f all
in de
re v
ve y
Ġincur red
rane an
Ġging rich
Ġme at
ade qu
Ġt ail
Ġser bia
Ġsurround ing
i op
Ġpass port
8 3
Ġneigh bor
b ound
Ġtrans mitted
Ġpriv ile
el ine
Ġec b
Ġanticip ated
r ating
Ġ15 0
Ġcompet ence
Ġle one
Ġrespond ed
Ġcalend ar
Ġfor ty
t ur
Ġexch ang
ou ts
Ġfam ous
er ly
Ġsk in
Ġexp ense
Ġobstac les
Ġma ur
Ġcontro vers
Ġsk y
Ġco ok
Ġnun av
Ġinstall ation
Ġimp rison
Ġbra in
Ġendors ed
Ġoff enders
prof it
p o
Ġad m
Ġsafegu ard
Ġrenew able
Ġsoci eties
Ġmeet s
Ġa h
Ġchrist ian
Ġcap ability
e ec
Ġb reed
Ġpublic ly
rÃ© al
Ġwork er
Ġch lor
Ġhigh way
ĠÂ ·
Ġmagaz ine
Ġb ern
Ġper mits
Ġbal anced
Ġhous es
an i
Ġpret ty
canad ian
de c
k o
Ġprodu cing
Ġj im
Ġg m
Ġmont rÃ©al
Ġdoct or
Ġ Ã©
Ġdynam ic
te ed
Ġcont ing
Ġgent le
Ã ¤
Ġhe ight
en a
rain ts
Ġsignific ance
Ġconclud e
Ġlow est
Ġthere of
Ġjoint ly
9 3
ch r
Ġn ick
Ġfil ms
Ġtaxpay er
Ġdis ag
Ġno v
Ġlou is
Ġart ist
Ġcolom bia
iter ranean
ace utical
Ġsc ored
Ġst ores
Ġaccompl ish
Ġr and
2 12
Ġlimit ations
Ġb ot
Ġtw itter
Ġvis ited
i ors
Ġphen omen
Ġfriend ly
Ġbulg aria
ound ed
in tern
Ġhospit als
Ġunfort unately
Ġwitness es
Ġed ition
Ġpre jud
Ġhold s
Ġku wa
b ai
Ġsettle ments
g ans
Ġsurv ival
Ġam az
Ġhung ary
Ġfocus ing
mp ts
Ġmach ine
v ia
Ġopp osed
am s
Ġdep r
Ġquestionna ire
Ġear ned
Ġthom as
Ġto ugh
Ġbrief ing
Ġcomp at
it Ã©
Ġgra in
Ġtrad em
Ġatte mpts
ag ency
one y
bor der
Ġaud itor
Ġperform ing
8 6
Ġbab y
Ġoper ator
a res
Ġl ia
Ġthreat ened
Ġguaran teed
Ġsusp ended
and er
Ġch ronic
Ġpro ud
Ġa zer
l ights
here inafter
Ġquant ity
Ġlux embourg
it ious
Ġexclud ed
st at
Ġbe a
bai jan
Ġc ited
te en
n ipe
Ġopin ions
he t
Ġdes ire
p ublic
in er
Ġdivid ed
Ġide al
Ġwilliam s
n on
ad vant
ig an
Ġgard en
res hold
Ġpros per
Ġc p
nipe g
Ġher zegovina
Ġunder lying
Ġgra ph
Ġd un
Ġr id
Ġin adequ
Ġrec over
Ġadjust ments
Ġste ering
Ġposs ession
Ġp ct
Ġstand s
Ġprotocol s
Ġb iod
Ġprohib ition
Ġbo ards
Ġw age
Ġredu ctions
Ġform ula
Ġc ath
Ġsystem atic
Ġt ight
m ond
Ġsuggest ions
um in
Ġbre ast
Ġchic ago
9 1
Ġ ï
e f
Ġvolunte ers
Ġslo ven
Ġhol der
ut ive
ro lled
Ġed iting
Ġcons c
Ġper ce
ene z
l angu
Ġglobal ization
Ġnig eria
Ġfall ing
Ġrecord ing
Ġcare fully
Ġwork force
Ġal ban
Ġtre es
Ġg aps
Ġres id
w hen
Ġreconcil iation
Ġrecall ed
Ġwhe el
Ġcust ody
Ġgu est
Ġgrant ing
Ġm oh
Ġ8 7
Ġfranc is
ent ed
Ġsumm ar
y p
os ite
Ġtheat re
Ġphot ograph
Ġemphas ized
Ġs her
Ġfacilit ating
Ġcro p
Ġcre ative
Ġg ay
Ġsee ks
Ġk g
Ġrep air
Ġnot ices
Ġr ic
i able
c ult
Ġoccas ion
oth ing
Ġprepar ations
Ġbreak fast
Ġemb ass
Ġb es
is ons
ag er
Ġcommunic ate
Ġ197 0
Ġmin es
Ġand rew
Ġcoordin ating
8 4
Ġj ac
Ġaven ue
it ure
Ġchr is
Ġord inary
al ities
Ġfe at
? "
Ġexc lusion
Ġrom e
Ġdis advant
el low
Ġuncertain ty
Ġgreen house
Ġ198 6
Ġth reshold
Ġelect ron
Ġtun is
Ġcap tain
Ġref und
itud es
Ġsit ting
Ġgall ery
b ro
Ġsign ing
Ġconsult ative
Ġtur ning
Ġgaz a
Ġhop ed
Ġconsult ants
f ire
Ġf ox
Ġrout ine
9 2
Ġmob il
Ġexem ption
Ġin sure
Ġmass ive
Ġbu ff
Ġf ix
Ġpar as
g ain
Ġaltern atives
Ġcomm issions
Ġlicens ing
Ġfore c
Ġhar bour
Ġdraft ing
Ġr yan
Ġdisc over
Ġexp ed
Ġsqu ad
Ġsa udi
langu age
Ġrel ax
Ġprof its
lo g
Ġincent ives
Ġ6 6
Ġm ixed
Ġwithdra wal
Ġdep ends
Ġacc um
Ġpenal ties
Ġed ge
Ġrel ate
Ġadminist ered
ro g
ord in
Ġspect rum
eth yl
ĠfranÃ§ ais
it is
Ġobject s
Ġ0 6
Ġprov ed
Ġbus h
Ġo w
bre ak
Ġass urance
Ġcor p
af ter
d irect
Ġazer baijan
w ar
Ġmar g
Ġveter ans
Ġb ah
Ġknow s
m od
Ġbr ings
Ġconv in
ator ies
Ġoverse as
ru ck
Ġhousehold s
Ġm t
Ġmach inery
re ach
Ġsche mes
Ġunlike ly
Ġgr ass
Ġcost a
Ġparal le
Ġj ama
Ġsusp ension
Ġp ush
Ġconv icted
d um
Ġequ itable
Ġbel arus
lo ok
Ġdischar ge
Ġcoordin ate
ver se
Ġpet ro
Ġcohe sion
Ġcomfort able
Ġprovid er
Ġmand ates
om a
Ġcult ures
Ġbond s
der ing
Ġc um
Ġ ict
a ug
Ġpro pose
Ġpart ly
Ġair lines
Ġtim or
Ġnot ably
Ġs ick
Ġfeel ing
ol er
Ã³ n
n or
Ġsyn the
Ġleg ally
Ġwin ner
Ġos ce
Ġey es
ret ion
Ġconvin ced
Ġessential ly
Ġvi et
Ġopp on
mor row
Ġce ase
Ġ6 8
Ġocc urs
Ġgro wn
Ġjournal ists
ail and
f ts
Ġdisclo s
ment ioned
Ġt ub
Ġmax im
199 8
Ġexhib it
ane ous
Ġto morrow
Ġo wing
Ġb ail
Ġatt ach
Ġlith u
Ġrefer ring
Ġgain ed
Ġcred its
Ġmay be
Ġsh op
h ar
Ġmeas uring
Ġcho ices
Ġrenew ed
Ġinter action
Ġhere by
Ġthor ough
Ġlad ies
Ġn as
ad ow
Ġinvestig ators
i us
om an
Ġsomal ia
w rit
Ġsh if
Ġdign ity
Ġch ann
Ġconstit utes
Ġreview ing
Ġturk ish
Ġt ank
Ġlis bon
u ro
Ġm erg
" )
an ne
Ġexp ensive
Ġent ering
g ary
un ity
Ġsus pected
Ġnational ity
Ġha ir
Ġmoroc co
Ġrat ified
Ġadv ised
Ġdisc overed
cl a
Ġpolit icians
Ġco ff
Ġdirect ives
Ġadvoc acy
Ġexhib ition
Ġ7 2
Ġlic ense
Ġarr ival
Ġacknow ledge
Ġover come
c ription
Ġsw iss
Ġadapt ation
Ġor gans
an im
contin ued
Ġproduct ive
Ġ9 7
inde x
ony m
Ġo d
m is
Ġenlar ge
Ġregul ated
Ġrep ut
pro liferation
Ġstud ied
Ġf ly
Ġele v
Ġpract ition
s ized
Ġhe lic
Ġtr uly
Ġdri vers
in n
b ar
Ġ201 3
Ġsit uated
Ġbeg un
Ġfoot note
Ġleav es
Ġrespond ing
Ġviol ent
Ġcomp osed
Ġ( "
Ġinteg rate
Ġappoint ments
Ġ `
Ġdifficult y
Ġmad rid
Ġorigin ally
ap ore
g ments
Ġsee ing
Ġcat ch
Ã¨ re
Ġl ived
Ġassign ment
Ġro w
Ġsc and
t w
Ġorgan ised
h us
Ġindic ating
m ad
Ġend e
Ġm old
Ġp ill
Ġsug ar
Ġrom a
Ġhigh lights
le v
8 2
Ġsal v
Ġli ver
Ġreg ret
Ġmer it
Ġacc red
mark et
de f
Ġbelie f
im ed
Ġpharm aceutical
Ġsubstantial ly
Ġdes k
Ġpri ze
Ġlos ing
Ġdeleg ates
s is
ac cess
Ġappropri ations
Ġwor se
Ġmove ments
enez uel
at ch
6 00
Ġreferen dum
Ġnunav ut
Ġun ac
Ġune ce
. -
c i
ar ms
Ġchamp ion
Ġsemin ars
Ġal ter
Ġindic ator
se x
Ġj ones
com mission
Ġp wgsc
Ġoper ated
Ġend or
. :
Ġcross ing
Ġd rew
Ġev olution
Ġadvance ment
Ġin equ
Ġcounter part
otechn ology
Ġre ception
Ġcomm ons
Ġconst raints
Ġpoll ut
Ġinteg ral
Ġpe ak
Ġadmin ister
Ġende av
Ġaff ir
st ar
Ġm p
Ġ7 3
c ase
Ġthem es
Ġregard ed
Ġe at
] .
ruct uring
ou d
Ġobserv ation
Ġmar ried
Ġunh cr
Ġsome what
Ġas ide
Ġal ger
Ġren tal
Ġvoc ational
Ġdecre ased
Ġan th
Ġth ailand
Ġconclud ing
Ġmin ute
Ġec u
Ġj on
ins on
Ġpe er
Ġper u
Ġmunicipal ities
Ġenv is
wh ich
Ġsw im
m ay
Ġcut ting
Ġj o
bo x
ul ates
Ġwin nipeg
Ġl ov
Ġobvious ly
Ġsole ly
or ient
ra ising
Ġc ida
Ġreserv ations
Ġcomprom ise
Ġlist ing
Ġcooper ative
Ġroad s
Ġmet ro
Ġheav ily
Ġd ies
Ġc t
teg ration
2 50
Ġth row
Ġd fo
Ġass ault
Ġst ars
Ġsens it
Ġsubsid ies
Ġsy mpt
Ġas h
Ġtr ig
f und
Ġsign al
Ġgeograph ic
Ġinv itation
Ġa x
Ġexc lus
k et
Ġserv es
Ġprem ier
Ġhelic op
Ġalb um
im ony
iv o
Ġl d
z ing
Ġvis ual
Ġfound ed
Ġvir us
Ġh ong
our se
Ġsh ore
Ġpre val
Ġfal se
s ix
Ġg rew
Ġl od
Ġl ies
st one
Ġmy self
Ġsur plus
Ġd nd
Ġcommand er
Ġanalys es
Ġken ya
am in
Ġargu ments
ump ed
Ġas p
Ġw ages
je ctions
c ount
if ax
m c
dis cr
Ġsovereign ty
Ġexecut ives
Ġchann els
ript ions
Ġ ia
ll ers
Ġaustral ian
om ic
Ġv enezuel
Ġrest ructuring
ac he
Ġstre ets
min ent
Ġrep orters
Ġk ong
Ġpubl ishing
Ġapparent ly
Ġid rc
Ġvictor ia
europe an
Ġb ilingual
Ġcon vers
iv als
Ġchar l
Ġec ological
so ft
Ġus a
Ġab c
ad ed
Ġ9 8
Ġdepart ure
Ġwar ned
Ġk im
il ation
Ġp ier
Ġkind s
Ġeth iop
Ġhy p
Ġhar ass
j a
Ġbank rupt
Ġcontem porary
le c
Ġappear ance
Ġparame ters
Ġarm en
Ġout reach
Ġca ught
pl an
Ġj ail
Ġ0 3
ad ing
c ul
Ġemp ower
r ators
Ġm ir
en see
ant ly
Ġc ig
Ġl ingu
Ġ0 7
Ġtour na
Ġinv ite
Ġemerg ed
Ġman if
Ġur g
ra is
Ġl amp
Ġal ign
Ġsec ured
Ġr u
g i
Ġpromot ed
Ġ0 5
Ġy ellow
ot al
Ġ !
Ġrel ates
Ġexpand ing
Ġf ib
effect ive
Ġweek ly
Ġarchitect ure
Ġdis asters
Ġdescrib es
Ġjurisd ictions
Ġcert ified
Ġass ume
Ġinter v
Ġrespect ing
Ġrad iation
Ġs ad
e per
Ġb low
Ġsing apore
i ot
b at
Ġsen ator
ic ks
Ġresol ved
Ġexceed ing
Ġmil k
Ġdev oted
Ġcalc ulation
bor ne
f riend
pe l
Ġsh ipping
Ġcrow d
Ġcor n
Ġp s
Ġnav y
Ġmal ays
Ġgovernment al
Ġinstit utes
Ġeth ical
Ġconce pts
k in
Ġshort ly
Ġoh io
Ġassum ed
Ġra w
Ġb ru
Ġyugoslav ia
Ġhen ce
7 9
o oth
Ġ \
Ġconj unction
Ġa ri
Ġclar ify
Ġr ing
Ġr Ã©
Ġs ul
Ġr on
up s
Ġreserv ation
h i
Ġacadem y
Ġsloven ia
r an
Ġnegoti ating
Ġdisapp ear
um ber
Ġon to
Ġlic ensee
Ġpregn ancy
Ġobtain ing
ra ce
Ġcomp uls
s im
Ġyoun ger
Ġposs ess
Ġsus pect
Ġnor ms
Ġ6 9
Ġse venth
Ġour selves
Ġca using
Ġpros pects
Ġt ang
Â ®
Ġgreat ly
Ġhe ro
e lect
Ġme rely
Ġfle et
Ġparalle l
Ġmay or
Ġm d
Ġrw anda
m ic
ir ation
Ġmort gage
Ġmed iterranean
Ġer a
f ra
7 1
Ġhorizon tal
r as
Ġpar king
Ġadvis er
Ġbo b
ress ive
Ġmem ory
Ġexchang es
Ġz ero
Ġmen u
Ġbo at
Ġre ly
Ġag greg
Ġautom atically
fact ory
it t
Ġnegot iation
Ġthem atic
four th
s outh
Ġ7 6
Ġpre vail
d ate
Ġrem ark
Ġ7 8
oph ob
Ġinadequ ate
Ġje w
Ġrespect ed
Ġfl ights
Ġa ver
Ġconstit u
Ġdeep ly
Ġproceed s
d ocu
Ġsu icide
Ġinst ruct
Ġprevent ive
Ġchar les
ne ver
ord inary
he ast
Ġassist ing
Ġgentle men
in form
Ġextra d
Ġembass y
Ġnear by
p d
Ġst ruck
Ġdep th
Ġeval uations
Ġle ase
Ġshe ll
b od
Ġyour self
Ġsto pped
uc ks
Ġadap ted
Ġsal t
in burgh
Ġsm oke
Ġcompar able
Ġadv ances
Ġcele b
Ġpol ls
Ġshar p
Ġintrodu cing
Ġdisc retion
Ġtex ts
sec ret
Ġnav igation
Ġbar gain
americ an
Ġst ret
Ġspecial ist
Ġmi ke
Ġaccount able
Ġbro ken
Ġtyp ical
Ġal t
Ġle v
um es
Ġjuven ile
Ġ8 4
Ġdr iven
Ġadop ting
ll or
sh ore
Ġb acter
Ġab ol
Ġimprison ment
or der
Ġro ot
Ġphilipp ines
ib an
Ġbullet in
Ġaudit ors
Ġcarri ers
Ġg am
Ġvirgin ia
Ġadjust ed
Ġarbit ration
Ġsy m
ex p
ter rit
Ġrein force
re qu
Ġmac ro
7 4
Ġinc idence
Ġplan e
Ġacqu ire
t reat
Ġabs or
Ġqu iet
Ġar ise
de velop
Ġp ure
Ġk b
an mar
te enth
Ġsamp ling
7 6
h our
Ġd ress
d ers
Ġpresent ations
Ġt ree
Ġmor al
Ġha iti
Ġev ident
ite ly
Ġf illed
Ġs ending
Ġn s
ll er
7 2
Ġmargin al
Ġforest ry
Ġexec ution
Ġcal gary
mon ton
Ġdup lic
Ġ2 50
c ut
Ġassist ed
Ġv ig
Ġinv ites
ul um
Ġframe works
Ġproject ed
Ġimp ose
f p
miss ible
Ġvolunte er
Ġreput ation
de termin
Ġdif fer
inc ome
Ġserv ants
Ġschol ars
Ġst an
Ġr us
Ġchar ity
i ov
ut or
Ġag es
ate mal
id o
Ġpass ing
Ġbeg ins
Ġbiod iversity
Ġvent ure
ft a
n ity
Ġtrans national
Ġthe r
w oman
Ġexc ise
Ġg olf
k ers
Ġpres erve
Ġkuwa it
Ġne ut
Ġrece ives
Ġwal king
le ments
t own
Ġspecific ations
ed ed
Ġaud its
Ġpalest ine
Ġsub regional
Ġlands cape
Ġlithu ania
Ġharmon ization
Ġceremon y
Ġbroad c
Ġm akers
Ġvis iting
en za
Ġdel ays
Ġir ish
Ġo zone
f if
Ġorient ation
em en
ut ors
av es
Ġform ulation
Ġcorre ctions
8 1
Ġexclus ively
Ġ12 0
Ġexcess ive
Ġprem ises
Ġisol ated
Ġdeter ior
Ġun us
Ġcarol ina
ps on
p i
loc ation
Ġp in
Ġfocus es
s r
Ġext ract
Ġcould n
Ġpropos es
Ġhapp ens
Ġun known
Ġmus ical
Ġton nes
Ġcompuls ory
Ġmig rant
Ġgener ations
s or
Ġcritic ism
Ġb ought
199 7
Ġp air
. '
Ġbur und
Ġmach ines
Ġsh r
ger y
Ġfin ish
as hed
Ġm aced
f oot
Ġspl it
Ġfair ly
Ġrecip ients
gra p
che ster
Ġed inburgh
te le
Ġexam ining
Ġcar go
Ġundertak ings
Ġsen iors
Ġdi abet
Ġsupp lier
or ous
Ġinf ant
Ġconsist ently
Ġabsolute ly
dep art
Ġm u
Ġcomp ounds
Ġus ual
Ġstress es
Ġdef er
ies t
Ġtransform ation
Ã ±
Ġm ount
Ġchild hood
p ass
Ġbre ach
Ġk az
w orth
anc hes
Ġeradic ation
h c
Ġpubl is
Ġlia ison
Ġspec ify
Ġstart s
Ġanaly tical
f ish
Ġx en
Ġphys icians
Ġ7 1
iv ation
Ġtick et
Ġalleged ly
il ton
Ġf an
Ġl am
igh ter
Ġen orm
Ġstrugg le
Ġdeliver ing
pol it
Ġb ou
Ġdire ctions
Ġdeploy ed
Ġcl othing
Ġrequest ing
h o
ed ing
Ġassoci ate
Ġeconomic s
Ġinv as
Ġz ones
Ġtal iban
Ġinstall ed
Ġconstruct ive
Ġle e
Ġpl ate
om in
ĠÂ «
Ġdo se
Ġd j
Ġag gress
t re
Ġsusp ic
Ġha ven
Ġab d
Ġadvant ages
b ul
Ġsp ouse
Ġconsequ ence
Ġes c
ott awa
m l
Ġmy anmar
ir t
Ġens ures
Ġbu ying
er ted
op ing
Ġthe ory
v ency
Ġelect rical
Ġprot ests
Ġret ention
Ġqu ot
Ġdestroy ed
Ġsafegu ards
Ġdismiss ed
Ġmiss ed
Ġmod e
au x
Ġclin ton
Ġjust ified
Ġdepos ited
ional ly
Ġto ll
Ġparticip ant
Ġsu ite
Ġatt itudes
el ess
Ġoff set
Ġprov en
Ġinvestig ating
Ġc os
Ġdec ree
Ġpie ces
Ġprocess ed
Ġst one
Ġun anim
Ġview ed
Ġcamer a
l ades
ac ult
Ġconsist ency
Ġin m
Ġcon sec
Ġ9 4
Ġhy per
Ġhal ifax
Ġmanif est
Ġbi otechnology
Ġf i
Ġinstru ction
Ġs r
Ġmur ray
Ġend s
Ġcompet e
p ers
os ph
Ġj ul
Ġinc lusive
Ġlaw rence
ot hes
Ġrul ed
Ġsecond ly
Ġt act
su ch
Ġdiabet es
Ġf red
en v
Ġlab elling
Ġins ol
Ġadequ ately
Ġsecond s
Ġextra ordinary
Ġperce ived
c op
Ġfr ust
Ġevalu ated
Ġmet als
Ġr ick
Ġj os
Ġathlet es
am i
Ġug anda
Ġg op
re a
Ġdesign ation
Ġfurn iture
Ġun ity
Ġadoles c
Ġli abilities
Ġl y
ch ild
Ġpregn ant
et t
Ġce o
un t
Ġint oler
Ġspecial ists
Ġsuper ior
man n
Ġgu atemal
Ġsubject ed
= "
Ġk el
Ġd ance
Ġun ep
Ġlic ences
u racy
Ġsuff er
Ġp ap
b orn
Ġincorpor ate
Ġcommod ity
c ow
w art
Ġca pe
Ġcapt ure
sk i
Ġ9 63
ll a
Ġk ick
intern ational
Ġpros pect
Ġinter active
Ġapart ment
Ġc Ã´
ve lo
Ġaltern ate
off ice
Ġhot els
Ġstep hen
ch o
Ġenviron ments
Ġr h
Ġtri ps
Ġestablish ments
Ġrom an
Ġcomm ence
ro gen
Ġg ang
Ġhold ers
Ġf t
Ġd umping
Ġcn n
Ġro ber
Ġremed ies
Ġinst ances
Ġfisher y
Ġrein tegration
Ġtherap y
Ġacc ounted
ang ing
cept able
Ġfail ing
Ġgat hered
Ġsupp osed
Ġimp art
Ġdete ction
iat ric
Ġp up
Ġ7 4
Ġwhe at
Ġaccident s
Ġhear ings
Ġsal aries
Ġtest imony
Ġwor ry
Ġc ot
Ġc ul
Ġdistin ction
Ġvacc ine
Ġsud den
u ous
Ġc el
Ġvis a
pro vin
Ġpsych ological
Ġdesign s
du e
Ġint ends
Ġcr tc
Ġdetain ed
Ġdedu ct
at us
Ġmad am
Ġmalays ia
Ġd ens
Ġprefer red
Ġtoler ance
pect ives
Ġwould n
Ġmi xt
Ġbelong ing
Ġcolle ctions
rom e
cult ural
ain e
Ġsepar ation
Ġnom ination
ed s
Ġcro ps
Ġunf air
Ġposs ibilities
Ġdes ert
ow ned
Ġ8 1
Ġiraq i
Ġt ies
ro oms
Ġl ank
ter ing
Ġecosystem s
in f
Ġsl a
Ġiran ian
Ġtack le
Ġenlarge ment
ing er
Ġwood s
Ġdisc ip
Ġpos ed
Ġc u
Ġjer sey
Ġexcept ions
Ġre im
Ġpra ir
Ġjud iciary
Ġproced ural
Ġalger ia
Ġaqu atic
Ġmother s
Ġpurch ased
Ġprin ted
Ġnot ified
Ġref usal
Ġy emen
Ġper taining
Ġmerc ury
Ġpat ents
Ġpipe line
Ġreflect ing
Ġactiv ists
Ġp y
Ġrecall s
Ġper mission
Ġeld erly
Ġac ute
Ġintern ally
Ġm as
Ġ9 6
Ġolymp ics
Ġpers pectives
Ġsent enced
Ġre uters
Ġerr ors
ad s
Ġdi et
ap se
Ġweak ness
est e
Ġdut ch
Ġp ensions
Ġrest ore
appro pri
Ġcoff ee
Ġb ills
Ġsupp lied
Ġpeace building
p ard
. âĢĻ
Ġmar sh
le um
Ġsub committee
lades h
re r
z ed
Ġcontin ent
op ol
Ġminist ries
Ġdim ensions
Ġblo g
Ġin land
Ġident ical
Ġsho pping
a ire
h s
Ġcas ual
Ġtax able
Ġb in
Ġt b
Ġsympt oms
Ġcompar ative
ira ble
Ġprepared ness
Ġcontract or
Ġtemper atures
ph y
Ġappro ve
Ġharm ful
io x
d am
Ġunf pa
Ġvenezuel a
Ġhelp ful
Ġrang ers
ol l
Ġlast ing
ug g
Ġj oe
Ġbr ight
â Ĥ¬
Ġreason ably
Ġmonit ored
Ġcertific ates
Ġstri p
Ġout break
oun der
provin cial
k b
Ġs ri
Ġc ow
Ġsufficient ly
Ġlingu istic
Ġenter tainment
Ġst ad
Ġacc uracy
Ġmit igation
Ġburund i
Ġgaz ette
Ġje ff
Ġtrack ing
r ative
Ġcouncil s
Ġche cks
Ġara bia
ol ine
Ġbro ke
count ry
Ġf aster
Ġhor se
fif th
ing ly
Ġt ab
ul ative
Ġcontrib utes
Ġconsist ing
Ġsh ap
Ġinspect or
Ġ8 6
Ġh u
Ġ198 2
m m
Ġfor get
Ġtourna ment
Ġlob by
hip s
Ġm un
Ġliter acy
Ġhealth care
Ġmeaning ful
Ġwar s
Ġcomplex ity
Ġh ou
Ġl as
Ġs oph
Ġmaced onia
Ġliber ty
n am
Ġex it
Ġforth coming
Ġmit ig
all ing
Ġethiop ia
Ġpres um
acult ure
Ġrest oration
m ans
Ġdin ner
Ġinflu enza
Ġnewsp apers
Ġconsult ed
Ġbar ack
Ġmont ene
ra pe
Ġra m
Ġse mi
v o
Ġr ival
Ġ8 9
ari ans
Ġmic hel
Ġautom atic
Ġsim ult
Ġsp r
Ġprejud ice
Ġpack aging
Ġhum ans
Ġf lying
Ġenjoy ment
Ġconver sion
et he
Ġhand le
olog ist
Ġdef ault
Ġur ge
Ġrestaur ants
Ġ198 4
Ġ8 3
Ġut ilization
Ġnurs ing
Ġb reat
Ġl uck
Ġslovak ia
Ġtw el
Ġed monton
Ġc oc
Ġpl ain
re ct
Ġball ot
Ġfire arms
Ġd na
Ġcl er
reg ular
Ġgra ve
cont ract
Ġissu ance
Ġcig are
Ġg a
Ġconsult ant
Ġche l
ion e
Ġl ending
Ġin du
Ġhead ed
ist ence
Ġpharm ac
Ġkore an
ed a
Ġinvestig ated
Ġst uff
he ld
at ar
Ġdatab ases
ag en
Ġear n
Ġass ad
Ġdef ining
Ġtermin ation
7 00
es ters
g as
Ġchrist mas
Ġ19 60
Ġrec ession
Ġmo lec
Ġare n
Ġpack ages
Ġatt ending
Ġat tain
Ġ8 00
{ \
Ġw ave
Ġbul k
Ġ9 3
Ġv end
Ġste ve
Ġdeg rees
oura ge
Ġhuman ity
Ġaqu aculture
Ġwat ching
Ġam id
orient ed
k ins
am m
ly wood
Ġharass ment
Ġlat via
Ġcomput ers
Ġl unch
r ar
Ġretain ed
Ġgr ate
Ġp aint
Ġjour ney
Ġsil ver
Ġchallen ging
he m
g ence
Ġl iv
Ġgather ing
Ġcontam inated
Ġse pt
Ġg ear
Ġadd s
Ġ9 2
ĠÎ ¼
Ġphenomen on
Ġfinan ced
Ġ8 2
Ġsol ar
Ġar sen
Ġaud io
f ted
Ġjose ph
Ġconsec utive
Ġy ards
or a
Ġw ins
Ġbound aries
Ġnot ify
Ġdeb ates
Ġconv iction
Ġt ay
Ġs out
im er
Ġdiscip line
en h
Ġfrequ ent
Ġeuro s
Ġrem un
Ġsurpr ising
Ġvulner ability
Ġrepeated ly
Ġscr ut
Ġvirt ually
Ġtim ing
Ġg ab
Ġneigh b
Ġm ile
Ġbr anches
Ġqual ify
Ġbat t
Ġb ost
Ġatt itude
Ġg ate
l ang
wh o
Ġe ce
Ġcurric ulum
we ek
Ġconsolid ation
Ġim f
Ġsur f
Ġmov es
Ġp estic
Ġinc ons
s ites
Ġaccess ibility
ris k
Ġf ired
Ġd ub
Ġcbs a
Ġsur gery
k g
age ment
pa id
Ġeuro zone
Ġfarm ing
ill a
Ġmontene gro
Ġre ass
Ġliber ia
Ġhe ating
Ġwel coming
k t
Ġclub s
Ġtrave lling
Ġcra ck
m un
Ġrough ly
Ġbi om
Ġcred ibility
Ġattend ance
Ġf as
Ġn ur
Ġan onym
Ġsepar ately
Ġwhe never
Ġexpress es
s er
Ġnetwork ing
ophob ia
Ġ7 9
Ġl ag
program me
ell a
Ġic eland
br idge
Ġstab il
Ġconsider ably
Ġdam ages
des cription
Ġpreserv ation
ric ts
Ġdem ographic
Ġmold ova
Ġg ift
Ġbang ladesh
Ġob jection
Ġsm ooth
Ġaccommod ate
. ).
Ġn os
Ġli able
Ġp ip
Ġv s
Ġguid ed
ail s
Ġhon or
Ġm aps
Ġlib r
h an
Ġalong side
Ġund ers
? âĢĿ
Ġorganiz e
Ġe pp
eng lish
qu ality
' ,
Ġshare holders
Ġform ally
Ġsul ph
id ity
Ġren t
Ġpetro leum
at al
Ġmet res
Ġneighbour ing
st r
te xt
Ġ6 00
Ġprote in
hen tic
Ġbr id
Ġro d
Ġmos cow
act ers
Ġenorm ous
n ight
t ar
Ġout look
Ġoper ates
Ġguatemal a
Ġt abled
as tern
ian ces
Ġtown s
Ġinter d
Ġun esco
iss ue
Ġad mission
Ġlog istics
ï¿½ ï¿½
âĢ ľ
Ġresum ed
end um
Ġe ll
Ġfrancis co
Ġrad ical
Ġafford able
Ġre fe
Ġwithdra w
' .
if er
ur rent
Ġest onia
ene gal
Ġcounse lling
res olution
Ġchar acters
Ġtunis ia
Ġt we
Ġe co
Ġext ending
do or
it em
Ġr ide
Ġadv ise
Ġvers us
Ġen em
Ġremed y
Ġexperi mental
Ġecu ador
ous es
Ġofficial ly
Ġcomplement ary
il a
Ġdist ricts
Ġprosper ity
Ġh in
Ġp ose
Ġdar fur
Ġexplain s
Ã ł
Ġmaintain s
ien cies
Ġtroub le
Ġenjoy ed
Ġvirt ual
Ġ9 1
Ġt ap
Ġk ir
Ġphys ician
Ġphil os
Ġro utes
Ġmicro soft
Ġdra matic
l ining
Ġcare ful
Ġbro ok
r ine
icult ural
Ġep is
ĠcÃ´ te
Ġstr ing
un a
mon t
Ġtarget ing
ne cess
Ġ0 9
Ġnegoti ated
Ġinv al
Ġst ro
Ġbost on
Ġact or
Ġox y
Ġren ov
Ġ1 01
Ġult imate
Ġpursu ed
Ġtal ent
pl ay
Ġsle ep
ist ry
Ġapprec iate
ut able
Ġsurpr ise
Ġdist urb
rape ut
Ġent hus
Ġbig ger
Ġmoment um
Ġdan iel
Ġl ac
Ġclo sure
Ġmoder ate
Ġunemploy ed
aut hor
Ġdocument ed
Ġm ol
Ġe ating
p ool
Ġnut ri
ur ation
Ġse ized
Ġlank a
pro du
her ic
Ġab und
Ġadolesc ents
Ġe ase
Ġmed iation
Ġkaz ak
Ġpro stitution
comm er
pro active
Ġclust er
Ġpractition ers
Ġca uc
b ted
Ġm ack
lic t
Ġst ood
en c
Ġra pe
Ġret ired
Ġdelay ed
Ġk in
Ġst er
Ġmanufact ured
Ġdisc overy
Ġexp orters
Ġstad ium
Ġbreed ing
Ġcon vey
Ġallow ances
Ġtermin al
Ġenvironmental ly
Ġprof iles
Ġgrate ful
Ġexcell ency
Ġsk ill
Ġj acks
Ġr ivers
Ġa z
Ġproceed ing
Ġ ig
Ġvi able
Ġdemocr at
env iron
Ġd ual
Ġaffect s
Ġreim bur
Ġaut o
iz ations
cy c
Ġscand al
Ġfac ult
report ing
Ġpreval ence
Ġmunicip ality
Ġattempt ed
Ġingred ients
Ġg if
Ġtem por
Ġhost ed
Ġmin ors
Ġtell ing
d iv
Ġcarri age
six th
ac ent
Ġste wards
Ġadministr ator
Ġf o
Ġdis par
Ġinterpre ted
Ġbenef icial
docu ment
Ġl ots
Ġlib ya
th rough
Ġsand y
Ġpl astic
Ġlink ages
Ġen ables
l ass
ab eth
Ġreal ization
at is
Ġag rees
Ġimpart ial
Ġsan itation
l ink
Ġdemonst ration
ak ed
Ġarmen ia
Ġrand om
Ġparent al
Ġfav ourable
Ġaw a
Ġtradem ark
isc iplinary
Ġbehav ior
ust ed
Ġprom ise
f c
determin ation
Ġw ished
he rent
ic iaries
Ġscen ario
g ot
sp oke
Ġcomple ting
Ġtit les
Ġbe ings
p age
-------- --------
Ġb le
Ġperform ances
ic y
Ġn y
Ġ Ì
Ġh iring
Ġver ify
Ġcam bod
friend ly
Ġmainstream ing
Ġth ick
Ġestabl ishes
Ġreal ize
Ġregul ators
Ġdefe at
Ġsc ar
ask a
Ġpalestin ians
Ġfem ales
l ers
Ġrep ay
Ġpro x
Ġl ind
Ġpreced ing
Ġe ighth
Ġcommon ly
Ġquant itative
Ġunac ceptable
ag on
Ġsc an
Ġbol iv
Ġmer ch
Ġint ra
Ġ201 5
Ġt ied
Ġinspe ctions
Ġtrave llers
Ġaut hentic
Ġintoler ance
Ġs ight
ivo ire
Ġf allen
Ġno ise
Ġle af
Ġorganiz ing
comp ass
p in
f low
Ġup coming
t te
Ġwrit er
Ġcrit ics
Ġtick ets
Ġber lin
Ġrang ing
Ġwal es
usal em
Ġch ances
Ġwe aring
Ġcontro lling
Ġinsol vency
Ġpurch ases
Ġtot ally
Ġwor ding
pro duct
Ã ª
Ġin hib
sec urity
Ġgovern ed
Ġemot ional
Ġal ph
Ġprotect ive
Ġsol ic
Ġlist en
Ġd ict
se venth
Ġsurv iv
Ġad vent
Ġcru el
Ġal arm
Ġmal ta
Ġclar ification
Ġs enegal
ag n
Ġf ant
b b
00 7
Ġvers ions
Ġp and
Ġcre ates
Ġver bal
Ġsupervis ory
Ġd al
Ġrec yc
Ġminim ize
Ġcharacter ized
Ġconfidential ity
Ġcommod ities
Ġr ica
Ġrecogn ised
Ġsuper v
Ġqu it
Ġdiscrimin atory
Ġinfect ious
on ing
d ation
Ġwire less
Ġg rie
Ġmod est
Ġjacks on
Ġoccas ions
Ġbra d
Ġevalu ating
Ġman chester
Ġp sc
Ġp i
Ġmar c
Ġprot esters
Ġcohe rent
Ġpol ling
Ġcontain er
Ġprogress ive
Ġtour ist
h one
Ġmemor ial
hst an
we ap
v ol
Ġun p
p ower
Ġbankrupt cy
b ud
Ġvar ied
Ġenvis aged
n inth
Ġpress ures
Ġsett led
serv ice
t i
Ġmark ing
be k
ic an
Ġshe ets
ly n
Ġcamp s
b ank
Ġbargain ing
Ġadvis or
Ġamong st
Ġs od
Ġcol leg
with standing
Ġfe els
Ġreal ized
199 6
âĢ ĺ
Ġarr ive
Ġart istic
Ġfear s
Ġclean ing
Ġlaw su
Ġr ally
Ġh ond
Ġar gue
Ġexc luding
âĢ Ĳ
Ġch rom
Ġadvoc ate
Ġvi i
Ġreported ly
Ġa ce
Ġjer usalem
Ġclass ic
Ġmich igan
second ary
Ġha gue
Ġch ick
es c
Ġpromot es
Ġpubl ish
Ġst amp
Ġpro liferation
gro up
Ġinquir ies
d em
Ġky oto
Ġut ility
Ġopp osite
Ġn bc
igh ters
Ġremun eration
Ġbenef iciaries
Ġterror ists
if iable
iam i
Ġcon cess
Ġdepos its
Ġneighbor hood
Ġnurs es
Ġn go
Ġun ilateral
Ġfu els
Ġcollect ing
Ġli kel
Ġin ev
e ighth
Ġquarter ly
Ġmexic an
Ġ198 1
Ġcath olic
re f
Ġgu ys
Ġoutput s
Ġas ks
new s
w estern
Ġincent ive
Ġgi ant
ow a
Ġvari able
Ġconf ig
Ġdo ors
Ġbas in
ange red
int end
Ġforum s
Ġdef ect
ub s
m ade
Ġpo ore
Ġdra g
ian a
Ġpost al
e ast
ih ood
it z
Ġoff shore
Ġcomm em
Ġcontam in
territ orial
p ost
oc ial
oph y
f ront
Ġrad i
Ġbas ket
v ens
Ġweap on
discr imination
Ġfrancoph one
t est
Ġvalid ity
for cing
Ġpers u
Ġperson ally
ut en
Ġj am
t ax
w hel
Ġsatis factory
on ic
Ġfoc al
Ġexper iment
Ġsur ge
% ),
don ald
Ġun m
vi et
secret ary
Ġrepe at
Ġshel ter
o ir
at i
Ġne pal
Ġdispos ition
f ig
in ity
Ġchel sea
Ġc b
h igh
Ġt bs
Ġb rian
Ġen compass
e ction
Ġhun ting
Ġwe ar
Ġvol at
Ġsp in
Ġout line
Ġgold en
Ġrecre ational
Ġcontin uation
Ġcree k
Ġweb sites
Ġph r
Ġsk illed
Ġunus ual
m d
ug uay
Ġib id
es ter
Ġint ense
Ġpollut ants
Ġgradu ate
ethe less
oun ced
Ġr i
Ġextrad ition
Ġcorrespond ence
Ġher self
Ġbul l
Ġpursu ing
Ġm l
o is
az z
Ġp orn
Ġun necess
Ġt ai
Ġnot withstanding
Ġst ick
Ġr ice
ec hes
Ġdisclos ed
ed e
y e
av ing
Ġdiscuss ing
Ġattract ive
Ġcirc ulated
Ġdecent ral
Ġlikel ihood
Ġcred ential
Ġentit lement
est abl
Ġinvest ing
Ġs ister
Ġgradu ally
Ġinf o
Ġdav is
Ġdisclo se
Ġlim itation
201 0
Ġr r
Ġpost p
Ġle w
Ġin herent
Ġv ic
Ġnon etheless
Ġ Ð
Ġh its
Ġre actions
b ow
Ġhol lywood
Ġapp rais
Ġari z
Ġcl imb
Ġkazak hstan
Ġw ake
Ġad s
Ġenhance ment
Ġvari ation
Ġenj o
Ġinc umb
Ġun law
Ġtay lor
Ġan s
Ġsp a
Ġinn oc
Ġmal es
Ġbas es
Ġglo b
mar ks
Ġt ag
Ġt ie
Ġsatisf y
Ġreg imes
Ġend angered
Ġdiv or
Ġprecise ly
Ġmand ated
Ġconstant ly
Ġepid em
Ġsp aces
Ġb oss
Ġar g
Ġinfe ctions
Ġupd ates
m ember
Ġattrib uted
Ġm iami
Ġk er
Ġcom ed
Ġcoun ts
Ġnatural ly
el ph
Ġreiter ated
e g
Ġhospit ality
Ġprop on
Ġcontrovers ial
Ġsector al
le te
u ct
Ġdiv isions
Ġindic ations
Ġtan z
Ġdev ast
Ġwhere by
Ġhaz ards
Ġamb itious
Ġcredit ors
Ġcapt ured
rep resent
al a
ĠÂ ±
Ġcompat ible
Ġquant ities
Ġcr ises
Ġs ab
Ġstrugg ling
Ġplan et
treat ment
Ġairport s
ĠÂ ©
Ġen abled
ir i
Ġc in
Ġxen ophobia
Ġh ay
Ġmod ifications
Ġloc k
Ġprom ised
Ġcontain ers
Ġhapp ening
Ġg ases
Ġprin ting
let ter
Ġbreak down
n ame
Ġcr ash
a ud
Ġsign als
Ġag ing
Ġevery body
Ġhou ston
Ġpers istent
Ġprevent ed
Ġoblig ed
re ts
Ġeg gs
Ġimp ressive
e lection
Ġre ward
Ġdeliber ations
ch lor
Ġpro minent
Ġint ensive
Ġs d
Ġintegr ating
Ġis o
e z
w as
Ġswed ish
Ġd od
Ġkil omet
Ġmoun ted
Ġre vers
Ġcohe rence
ov ic
Ġtele com
Â Ń
Ġo u
Ġconcer t
oc ked
Ġtas te
Ġtur ns
Ġhur t
Ġinsp ired
Ġes cape
ex pected
Ġbl ind
Ġdivers ification
Ġau ction
Ġregist rar
Ġnegot iate
Ġres ign
Ġst ored
Ġwish ing
rib e
Ġgh ana
Ġkit chen
Ġme als
Ġhun ger
Ġalban ia
Ġsh ots
Ġstewards hip
Ġwilling ness
Ġbound ary
Ġexpect s
ro it
Ġun w
a id
Ġre cept
sh aring
ro ph
Ġham ilton
Ġspe eches
Ġpul l
Ġd or
e or
Ġcomp ound
Ġguid ing
t ts
Ġr io
Ġnit rogen
is ive
Ġwall s
Ġte a
% ).
Ġb are
Ġcolon ial
Ġ eric
Ġrec overed
Ġtan ks
Ġreprodu ction
Ġmal i
Ġbe ef
Ġg ren
m ain
Ġjust ify
Ġsupport ive
op le
ra ble
Ġjoin ing
Ġvari ables
Ġclaim ing
Ġswim ming
b ury
Ġd rought
! !
Ã© n
. ),
Ġpup ils
Ġd ow
Ġdegra dation
p ac
Ġsol ve
Ġdiagn osis
Ġpleas ure
Ġident ifies
Ġtell s
Ġmin i
Ġre verse
Ġdisapp oint
am ine
a uc
weap on
Ġdam aged
Ġfound ations
Ġconven ed
Ġsuggest ing
Ġh ired
at ri
Ġconne ctions
Ġover whel
Ġh ack
Ġcontract ual
Ġthe rapeut
Ġmeasure ments
Ġfar ms
Ġissu ing
Ġd c
b ell
we alth
Ġguidel ine
Ġdra ma
erg ies
Ġan ton
Ġabst ract
Ġoxy gen
Ġact ed
is p
Ġmater nal
Ġsc ores
ach use
Ġsk i
Ġsupervis or
Ġb h
Ġev ac
Ġdisag ree
um n
Ġur l
Ġforec asts
achuse tts
Ġn est
Ġav o
Ġsett ings
Ġinput s
Ġtrad itions
r il
Ġq atar
Ġse al
Ġinvest ed
Ġpet ition
we ight
Ġinvest or
Ġd iox
ane ously
c b
ar ked
qu al
o ffic
Ġir regular
l as
Ġfact ory
Ġjudge ment
Ġ6 13
Ġconfirm ation
Ġle ct
Ġapp ar
Ġimmun ization
y ard
Ġlicens ed
Ġp el
Ġfree ly
Ġl ap
al low
st ra
Ġfeas ibility
cel ona
Ġpre ca
Ġiniti ate
ogen ic
los ed
bound ary
Ġf itness
Ġstead y
Ġtr uck
min ute
Ġil o
Ġstrict ly
ot yp
Ġleg acy
Ġl yn
Ġmod ule
Ġspons ored
Ġn inth
Ġgo v
Ġ197 9
Ġ ;
Ġwe igh
Ġeng aging
Ġcelebr ate
Ġte ch
Ġes p
Ġpartial ly
off s
b as
Ġam n
i Ã³n
Ġca ution
Ġtang ible
Ġlibr aries
id den
Ġmass achusetts
Ġj ury
Ġdes ired
199 5
Ġu z
Ġmat t
ac o
Ġexport ed
ub e
sh ire
Ġreb els
Ġnom ine
Ġjun ior
Ġdisc iplinary
Ġdefin itely
Ġcompet ing
k ind
Ġpl enty
Ġ201 4
Ġo sc
Ġdec or
Ġp ent
r ist
Â ©
Ġre ar
Ġref use
sp ace
pro ject
Ġsing er
Ġme al
Ġeng ines
Ġnot ion
Ġdes erv
Ġoppon ents
Ġcorrection al
Ġdiagn ost
Ġdisplay ed
Ġse es
er ated
Ġhold ings
Ġur uguay
ver t
â ĪĴ
Ġalleg ation
ess ional
o z
t v
Ġall ies
Ġfor d
Ġhur ric
Ġpr icing
Ġne uro
Ġrev ol
Ġseason al
Ġthous and
r in
Ġh i
Ġport s
Ġad am
Ġl ift
Ġpred e
Ġde lic
Ġput s
Ġpass age
Ġpus hed
Ġviol ated
Ġbrief ly
Ġ198 3
i qu
Ġhun t
er ies
am ic
Ġsalv ador
part y
Ġencoun tered
t or
Ġcommunic ated
Ġvill ages
Ġspons or
Ġnecess ity
Ġdocument ary
Ġbenef iciary
Ġpurch asing
Ġimag ine
en ess
Ġmountain s
Ġtanz ania
Ġoccur ring
Ġquestion ed
is ite
Ġgen oc
Ġfacilit ation
Ġpas sion
Ġinfect ed
Ġdele ted
Ġv ib
Ġcomplic ated
Ġche ap
od es
Ġsent ences
Ġread ers
er a
] ,
Ġsepar ated
Ġcent ers
Ġc is
Ġconf usion
Ġint end
Ġsequ ence
Ġph osph
Ġconstit uted
Ġnational ly
ir ates
Ġra rely
Ġgradu ates
Ġn ap
Ġstud io
Ġse arc
Ġs id
Ġconf ront
Ġcambod ia
appropri ate
Ġunc lear
Ġclear ance
gra de
Ġdel ight
Ġcomp are
Ġa ux
Ġt issue
Ġarbit rary
Ġd imin
Ġer it
is su
Ġexplicit ly
Ġrob ust
pr int
Ġimmig rant
Ġinter mediate
Ġpol ar
er ion
ro se
e very
Ġat omic
Ġdevelopment al
Ġn arc
q a
Ġun re
Ġspokes woman
in ent
Ġcum ulative
Ġair line
Ġglo ss
as hes
ang er
Ġmedic ines
Ġanc ient
Ġappar atus
Ġw are
Ġro ss
Ġcolor ado
Ġdens ity
Ġlaun dering
Ġpul led
Ġbar celona
Ġhand ed
Ġpresent ing
Ġplace ment
um a
e xt
Ġjew ish
Ġswe et
Ġmater nity
Ġreal istic
Ġi owa
Ġbas eline
Ġsh ops
ious ly
Ġminim al
olog ists
Ã© d
Ġlim iting
Ġbr ig
y st
id ays
Ġfacult y
Ġg ill
Ġper ception
Ġb om
Ġgen et
Ġgr at
Ġdegra ding
Ġmal aria
h ire
Ġbow l
ath y
Ġp ig
Ġexerc ises
Ġqual ification
Ġstake holder
Ġmet eor
pe ople
Ġsuggest ion
Ġem pt
Ġover l
Ġexpress ing
Ġphotograph s
Ġhy br
Ġcont rad
Ġread ily
Ġcommon wealth
iz abeth
Ġvis itor
v d
are st
Ġto wer
Ġneg lect
Ġvac ation
Ġc ed
00 1
s ur
g ar
im a
Ġun ido
) -
bus iness
Ġdifferent ial
Ġcredential s
Ġcompr ising
Ġretail ers
Ġd ental
n ut
Ġunder min
Ġlad y
Ġm ood
Ġth ro
Ġgas oline
ab we
al i
Ġattrib utable
Ġsub programme
Ġreprodu ced
Ġlay er
Ġw ounded
Ġprof ession
ul sion
c bs
Ġp ays
Ġamn esty
Ġwil son
Ġcongrat ulate
Ġrest ra
Ġcrit erion
Ġvol umes
Ġh ab
em a
Ġro of
Ġang ola
Ġtradition ally
Ġw ard
Ġt ony
Ġmom ents
imb abwe
et ime
Ġariz ona
Ġneighbour hood
Ġaggress ive
âĢĻ .
Ġany where
Ġlux ury
ty pe
Ġneut ral
Ġb ry
Ġintens ity
Ġro s
Ġmod ification
Ġdemand ing
x i
Ġhol y
Ġmar ia
Ġo m
Ġinh uman
ra m
Ġnav ig
Ġq c
Ġch ose
Ġqu ota
Ġsy nd
p oin
oc c
Ġdisc ipl
ian o
Ġelimin ating
Ġtreat ments
r h
Ġsubmit ting
dep th
Ġremov ing
a ires
Ġgenoc ide
Ġmiss ile
Ġstructure d
Ġk ab
Ġfre ight
Ġtechn ique
c oun
Ġrel atives
Ġback ed
Ġorigin ating
Ġso viet
Ġmat ches
f ed
Ġscrut iny
Ġacc ru
Ġal ien
Ġtrans boundary
Ġan ch
Ġph ases
Ġrating s
Ġhol land
st rong
Ġdetect ed
Ġcar ries
Ġhop ing
Ġl an
Ġinv o
Ġt ensions
Ġd ans
as se
Ġlabor atories
t otal
Ġexist ed
Ġto w
Ġage ing
Ġpick ed
Ġar th
Ġret ro
Ġefficient ly
Ġco pe
Ġwar nings
Ġal ert
Ġke vin
Ġcontract ors
Ġdes irable
Ġcr ude
Ġbar s
r at
Ġsong s
w all
Ġen forced
Ġbo om
is an
c at
h u
Ġrational e
Ġgr an
Ġun pre
Ġbe ars
Ġdon ations
feren t
ord on
Ġbre aking
Ġbuy ers
f ar
Ġupgra de
Ġa us
Ġes cal
ro b
Ġt enth
Ġearth qu
Ġ11 0
Ġcommission ers
Ġdomin ant
Ġliv est
Ġfa o
Ġsubm its
the se
yl v
Ġinter actions
Ġlast ly
Ġpred icted
conf lict
Ġwonder ful
Ġport ra
Ġmarket place
Ġindirect ly
Ġra p
Ġl ung
Ġla u
Ġwithdra wn
Ġcomp os
Ġaccomplish ments
Ġg reg
Ġprair ie
pr iv
Ġfair ness
Ġfro zen
Ġia ea
h uman
Ġpl acing
ag an
Ġen rol
Ġleban ese
Ġeconom ically
Ġm es
bud get
az i
Ġtaxpay ers
Ġreve al
Ġwork load
1 50
Ġsa ving
Ġhabit ats
ch a
Ġregul ate
Ġaband oned
Ġperpet rators
Ġb ret
Ġcred ible
Ġmechan ical
Ġin vention
Ġsh adow
Ġk ent
Ġinc red
Ġpro pri
Ġtariff s
Ġinh abit
Ġinter ference
ir atory
Ġreb ate
Ġcor ps
Ġp ear
Ġsensit ivity
o ct
Ġlib yan
b ra
Ġextre m
Ġcolleg es
Ġn d
r ange
Ġs ke
Ġclar ity
se ctions
Ġir re
Ġdetain ees
Ġg on
Ġinsist ed
l ast
Ġ10 5
Ġspok en
Ġme ters
Ġel izabeth
Ġdesc riptions
Ġcoll apse
Ġj et
Ġlo yal
Ġprom ising
Ġout s
âĢĻ ,
Ġqual ifying
ĠÂ °
Ġknow ing
Ġinflu enced
Ġimp unity
ch ange
Ġt ear
Ġg ri
Ġvide os
199 4
Ġmet ab
Ġdeclar ations
Ġz imbabwe
Ġsearch ing
Ġrestric tion
Ġ197 8
Ġren dered
Ġprodu ces
wor ld
w ill
Ġt et
Ġdies el
Ġdecl ining
Ġd ust
w ear
9 00
iz er
e le
Ġ( âĢľ
Ġse asons
Ġfost ering
Ġlaun ching
Ġcra ft
Ġconcent rated
Ġin ad
Ġlegit im
Ġmill er
Ġinfring ement
Ġreaffir ms
Ġp ounds
Ġint r
Ġmob ilization
Ġconvers ation
Ġm Ã©t
ir y
Ġcancell ation
Ġsold ier
Ġra ises
Ġmov ies
p ur
Ġcomp li
Ġtext ile
we red
Ġmult icultural
Ġs in
Ġrepl ies
Ġmo z
Ġdo zen
Ġval ued
Ġsoph istic
Ġle is
i ates
Ġt ip
Ġal umin
Ġremark able
Ġres ume
Ġbl ank
Ġz am
Ġinspect ors
z ens
Ġco pper
Ġform ats
ol ved
ne ys
Ġdra fted
Ġpost ing
Ġpl ot
Ġdef ines
Ġp act
Ġsubsid y
Ġsec uring
Ġk at
Ġgen eric
Ġuz bek
Ġsm ok
Ã© l
Ġp ic
Ġtoxic ity
f is
ot he
Ġgener ating
Ġman h
Ġmed al
Ġcounterpart s
Ġswit ch
Ġfer til
Ġr ug
Ġconstruct ed
Ġcontam ination
Ġadj acent
e fficient
Ġdemonst rates
op ard
Ġauton omy
Ġdo ha
Ġm b
tt es
Ġpolitical ly
Ġcomment ary
Ġm outh
i ments
Ġunnecess ary
Ġk ne
Ġimp ression
Ġstudy ing
Ġdedu ction
Ġpan els
Ġreli ability
im mer
Ġepidem i
Ġmodern ization
Ġf are
Ġand y
Ġste re
Ġread er
Ġton ight
are r
Ġisol ation
Ġadminister ing
Ġtim ber
Ġdep ression
f il
Ġh ills
Ġro ots
an cies
Ġlivest ock
Ġsw ift
Ġattack ed
Ġwh oles
Ġh an
ill i
Ġcirc ulation
Ġtre m
Ġempower ment
Ġke en
man agement
Ġant ib
Ġrober ts
Ġint ake
Ġread iness
Ġus age
er ity
Ġtest ified
Ġdispl ace
ced ented
c ost
Ġh ud
Ġpolic ing
s ome
Ġab ortion
Ġaccompl ished
Ġch ad
Ġcontin ental
Ġunlaw ful
il st
Ġsound s
Ġmor gan
Ġbarri er
Ġtrib ute
Ġfirm ly
Ġpred omin
Ġpit ch
Ġemerg encies
Ġde port
Ġmer its
Ġr um
Ġpar ad
Ġth in
Ġna fta
y es
Ġtro op
g ic
Ġpier re
Ġo ak
Ġfirst ly
Ġleis ure
Ġg il
Ġsim on
Ġprof ound
Ġfol k
Ġoff ensive
m aker
Ġab ilities
Ġcompetit ors
Ġha w
b est
Ġt enn
Ġassum ption
Ġhelicop ter
pt ions
Ġes cap
Ġver tical
Ġco inc
Ġdet roit
Ġfeed ing
asc ular
Ġfail s
Ġbr on
Ġa k
Ġcirc le
Ġannex es
Ġbah rain
Ġâ ĪĴ
Ġarg ues
Ġtherapeut ic
Ġb ands
Ġdo zens
Ġse as
at ial
Ġal ive
Ġreserv ed
sect or
Ġt am
Ġt ips
Ġen quir
Ġrem em
i ac
Ġst ating
Ġstri king
Ġpat ri
Ġbea uty
Ġobs erve
pl ant
h alf
Ġstr as
w l
Ġheart s
Ġcompr ises
ar ag
se ason
an ol
Ã¡Ã¡ Ã¡Ã¡
Ġt ong
Ġemphas izes
ol ia
Ġsuper intend
ls on
fa ult
Ġoff ender
hol m
Ġbur n
Ġoccur rence
Ġf ounder
Ġhand led
Ġblo cks
Ġinstall ations
Ġensure d
Ġb read
Ġland ing
Ġreaffir med
Ġjama ica
Ġld cs
Ġp ray
Ġfl av
Ġt ig
Ġtim et
Ġl t
Ġcon du
se en
pp ers
Ġj oy
Ġref lection
Ġhydro gen
Ġglo be
et al
u v
Ġabs ent
est yle
Ġatt ra
Ġaffil iate
t ail
Ġle on
Ġhard ly
Ġcompr ised
t im
Ġtra ce
Ġnig er
direct or
an ium
Ġvis ibility
Ġop ens
ro us
Ġexerc ised
Ġpr isons
Ġfr aser
che ll
Ġvirt ue
Ġhas n
g ood
Ġ ?
Ġhe d
qu arter
Ġart ic
Ġpropos ing
Ġcal m
Ġaut umn
Ġh amp
g t
Ġassoci ates
Ġcirc uit
it ting
Ġlov ed
Ġslow ly
Ġto urs
Ġguid es
Ġpursu it
f am
Ġcent s
Ġremin ded
Ġmuseum s
comp liance
Ġaggreg ate
Ġdeb ut
Ġbut ton
Ġincom es
Ġendeav our
Ġaccred itation
Ġexceed ed
Ġunder way
oper ative
Ġdescrib ing
Ġbo e
Ġresp iratory
Ġdom inated
Ġ20 20
Ġbe ver
Ġind o
ylv ania
ues e
ro c
Ġfavor ite
Ġ* *
Ġand erson
Ġout door
Ġloc ally
Ġinterview ed
Ġparlia ments
Ġtu ber
Ġsurpr ised
Ġt ender
c m
y er
id ation
Ġhon est
Ġaccompan ying
Ġp or
ap t
Ġper t
Ġhol idays
Ġevol ving
Ġcalc ulate
uten ant
Ġast ron
Ġemphas ize
Ġhard ware
Ġmixt ure
Ġser ver
Ġins ert
} \
Ġappropriate ly
Ġder iv
Ġexp iry
Ġqu oted
Ġbroad ly
Ġnav al
Ġunpre cedented
Ġbrother s
Ġfinan ces
Ġval uation
Ġwhere ver
w ic
Ġun ch
Ġdis order
Ġchallen ged
s i
Ġreiter ates
r atory
Ġqual itative
Ġen rich
Ġtem pl
Ġf ate
Ġreaffir ming
Ġsym pos
Ġpot ato
Ġtro p
Ġcru ise
Ġdecl are
Ġtra ged
Ġcontact ed
Ġmut ually
Ġpen ns
Ġhe pat
sh r
Ġb und
Ġimp orter
sch ool
o j
m us
s l
Ġwas tes
Ġn ai
Ġatmosp heric
Ġover see
Ġsm ugg
Ġrepl acing
Ġsk ip
rib le
Ġprior it
Ġ19 67
Ġwor ried
Ġconclud es
Ġaud iences
Ġmist ake
Ġta ught
Ġc av
st ation
w ich
Ġun de
Ġfeas ible
Ġab u
Ġendor sement
lo oking
Ġcontinu ity
Ġimmun ity
Ġg ib
offic ial
Ġt ent
Ġfacilit ated
stitution al
Ġwell s
Ġportug uese
Ġhom eless
inform ation
Ġpass es
Ġmar ie
il i
Ġlike wise
Ġexplos ive
att an
Ġtele graph
Å ¡
se ll
cond ition
Ġem er
Ġconting ent
Ġrec ital
Ġglob ally
ed uc
Ġconf ed
k ina
Ġenem y
ra ge
Ġremin d
Ġmod ify
cc c
Ġcons ort
Ġsurv ive
b acks
ans as
Ġ ________________________________
ab out
Ġpat rick
ro bi
pro v
h ard
Ġcertain ty
Ġam mun
Ġv a
Ġfl ash
m ill
Ġsc oring
ple te
Ġacceler ate
id rc
Ġcl im
s igned
um ps
ad os
Ġerit rea
et ed
Ġle ak
e ce
Ġhost ing
t ry
Ġcompet encies
Ġboliv ia
Ġg ary
Ġunder mine
Ġfra g
Ġran ks
Ġliver pool
Ġdra in
Ġthe ater
ari os
Ġmagn itude
Ġunder ground
Ġse af
Ġass ure
ten stein
Ġun expected
Ġaband on
Ġenact ed
aw ay
Ġsimult aneously
Ġwh ilst
d ist
un k
Ġlew is
te chn
Ġcry st
Ġt um
Ġpre ference
Ġover time
Ġconf er
Ġstim ulate
) ).
Ġspirit ual
Ġh ire
âĢ ²
Ġcom pe
Ġcar c
Ġsh ock
Ġdis orders
Ġthom pson
Ġt ir
Ġtrans c
Ġavo ided
Ġl ights
Ġeg g
epend ent
Ġadvis ers
ic ts
Ġj ump
Ġlight ing
Ġvari ations
Ġin appropriate
Ġse iz
Ġresearc her
ex c
Ġg ol
Ġn i
st ep
Ġput in
Ġdisadvant aged
Ġstrength s
Ġt ension
Ġclear ing
Ġelimin ated
Ġlink ing
h al
Ġengine ers
Ġt all
Ġn ord
ific ial
Ġinter act
l ad
Ġexplos ives
b is
el le
a ust
m em
Ġmig ratory
Ð ¾
it ary
Ġind ians
Ġma pping
Ġstra in
Ġless er
Ġtrib al
Ġro y
ind ust
Ġpenns ylvania
sk y
. (
Ġl ip
pro te
Ġad mit
Ġentrepreneurs hip
Ġstras bourg
Ġman ip
Ġpresc ription
th al
Ġi an
Ġout lines
ky o
Ġbes ides
Ġlaw makers
Ġcan al
Ġborrow ing
Ġc ord
Ġfa ult
it ch
Ġalber t
ur g
Ġ197 7
in ational
Ġad he
Ġbus y
Ġdiagnost ic
Ġmod alities
Ġpro long
Ġte ach
Ġmonit ors
Ġrel uct
Ġwin ners
Ġcommem or
Ġc her
Ġpar ole
Ġpublis hers
Ġo j
Ġveter an
Ġdr um
Ġmethod ologies
Ġn l
Ġcor rid
miss ibility
Ġconver ted
Ġprompt ed
Ġfor b
tur n
Ġempt y
Ġcomb ust
Ġtra cks
Ġharmon ized
Ġstri kes
air y
Ġs ain
Ġadvert ise
sy stem
Ġbook ing
l este
Ġnic arag
Ġembar go
im s
Ġexc iting
Ġk ur
Ġban ned
Ġlie utenant
Ġvot er
f u
Ġchance llor
Ġj es
Ġdec isive
Ġupd ating
tw o
Ġall en
Ġexperien cing
Ġint im
Ġdepr ived
Ġveter inary
Ġcy ber
le ading
n is
Ġreimbur sement
ord ination
Ġw d
Ġip hone
r ator
Ġcamer oon
st yle
Ġor ange
Ġprec ip
er ts
Ġg ordon
Ġinter face
Ġegypt ian
Ġbo ats
Ġammun ition
ned y
Ġï £
Ġmanh attan
Ġsw ing
im m
Ġch airs
aw i
Ġpay roll
Ġveget ables
Ġ12 5
Ġexp orter
Ġter ry
Ġdog s
Ġsocial ist
Ġg est
ust ain
Ġmoh am
de fault
Ġn u
Ġab uses
Ġprohib it
Ġto kyo
Ġlawsu it
g ow
ak a
Ġhen ry
Ġkilomet res
cept ions
Ġcolle ague
il ly
av ail
Ġarch ae
Ġduplic ation
Ġnom inated
Ġorgan isms
ag ers
mat ically
Ġlif etime
em e
Ġtwel ve
om ous
Ġcond itional
Ġaddition ally
Ġrece iv
b ered
Ġmon u
Ġphoto grap
Ġnai robi
lies t
Ġanth ony
r if
Ġindepend ently
is ual
Ġrec lass
ch tenstein
iti us
Ġbl ame
Ġexplor ing
p es
u ana
Ġrespect s
Ġe cho
ob ile
Ġm ong
Ġ13 0
Ġincumb ent
Ġf oss
Ġcon gression
Ġindividual ly
Ġcare g
j ik
Ġphr ase
Ġsen ators
Ġcamp us
199 0
own ers
Ġadv ancing
lock ed
Ġhand book
Ġbenef ited
Ġpress ing
Ġser ge
it ted
Ġsa ved
Ġamaz ing
Ġfra gment
Ġflu ct
Ġal an
Ġprom ises
Ġpal ace
Ġmo on
Ġh ole
ot ive
Ġbe er
Ġsp ite
Ġfas o
Ġsupp ression
Ġship ments
Ġurg ency
Ġv inc
Ġ uc
Ġalex ander
Ġme re
Ġdes per
n g
osp ace
Ġr ats
Ġcap ita
Ġtransl ated
Ġexclud e
ida e
Ġassum ptions
Ġgi ants
Ġse vent
q l
Ġcongression al
Ġtrad es
Ġsi xt
Ġbure auc
g am
Ġhurric ane
Ġw ol
Ġfulf illed
Ġpr ide
Ġreb el
Ġoh chr
Ġincorpor ating
Ġsuperintend ent
f b
Ġdec iding
Ġt iny
Ġseed s
Ġch at
Ġinhabit ants
Ġpro jections
Ġhard er
Ġaud iov
Ġcal ib
Ġpus hing
su pport
Ġcap it
Ġw p
Ġcatal ogue
Ġwrit es
Ġwal ker
id ad
Ġdistingu ished
Ġken nedy
Ġuzbek istan
Ġca iro
Ġinvas ion
Ġannex ed
d el
Ġrecyc ling
o gram
c ore
iz z
Ġsy mp
min ister
Ġd g
Ġin sect
Ġo vern
o ch
Ġtour ists
Ġinj ection
Ġm ills
Ġobstac le
Ġsubstit ute
Ġincorpor ation
Ġ197 5
u ity
es ity
Ġf ern
as y
Ġma h
Ġresol ving
cn n
Ġout set
) ]
Ġste wart
Ġconver gence
Ġr ivals
Ġtal ked
spe aking
Ġre ct
Ġbench mark
Ġ7 00
Ġh ug
Ġveget ation
Ġjoh an
Ġe ag
Ġpr on
Ġg rey
Ġj r
Ġro lling
Ġinvestig ator
Ġform ulated
Ġart ificial
cul osis
ab a
Ġinnov ations
do ch
oc king
Ġmineral s
Ġt ons
h ome
Ġneighb ours
Ġentr ance
Ġaudiov isual
h abit
Ġth under
Ġ19 50
Ġrespons ive
Ġrev ital
Ġcat tle
j o
div ision
Ġadvoc ates
Ġsevere ly
Ġfr anch
b ing
Ġevery where
Ġsex ually
Ġimp air
bur n
employ ed
m art
Ġre location
Ġc ourage
Ġpremium s
Ġforeign ers
Ġspect ac
Ġmotiv ated
Ġcancell ed
Ġbro ws
Ġtai wan
Ġschedul es
Ġprede cess
Ġa y
Ġchar ities
Ġconf ron
bo oks
cont act
Ġcustom ary
Ġr up
Ġd anish
Ġovern ight
r atic
depart mental
Ġscen arios
ĠÎ¼ g
s d
or i
t ake
Ġn erv
Ġtrem end
Ġ197 1
r gy
Ġh ip
Ġadministr ators
Ġgloss ary
ri er
Ġra cing
Ġsur ren
Ġaer ospace
Ġl l
Ġdef ensive
Ġcha ired
__ _
Ġce iling
, '
Ġoverwhel ming
Ġeditor ial
in te
Ġtempor arily
Ġb ish
Ġe a
asc ar
Ġthere after
Ġliberal ization
Ġr ated
Ġavoid ing
ik a
Ġ197 6
Ġmolec ular
o es
Ġhond ur
c ard
Ġapprais al
Ñ ģ
s um
Ġenrol ment
Ġsed iment
Ġst un
Ġbal k
Ġrev isions
per form
Ġannoun ces
Ġameric as
s b
Ġnews letter
Ġcost ly
Ġcoup les
ow ered
Ġdynam ics
Ġd os
ul ous
Ġcorrect ly
Ġcontamin ants
Ġbr ut
Ġkeep s
Ġceleb ration
Ġpe ters
Ġfeat ured
isc ons
Ġpar am
Ġstay ing
Ġf ires
Ġhybr id
Ġlie chtenstein
Ġparticip atory
Ġjournal ist
Ġvill a
Ġta pe
m g
Ġre organ
Ġnation wide
Ġauthor ize
ber ry
li hood
Ġrep atri
Ġbuy er
il iation
Ġparliament arians
ish ment
pe c
Ġasp ir
Ġcomp t
Ġattempt ing
Ġd w
Ġsh ield
Ġload ing
ess ed
fund ed
access ible
Ġmult inational
Ġmur doch
Ġact ress
Ġblo om
Ġ14 0
âĢ¨ âĢ¨
Ġprivile ges
Ġmod elling
Ġam ounted
Ġstay ed
Ġarab ic
Ġult ra
Ġpand emic
Ġexecut ed
Ġh p
Ġlive lihood
iscons in
Ġt k
Ġass ured
Ġtim el
Ġconcent rate
Ġpr ud
Ġinequ ality
Ġsout heast
Ġmerg er
an ke
Ġin her
Ġe leg
Ġsophistic ated
ac er
Ġstock holm
Ġepid emic
Ġbl ast
Ġmacro economic
ol i
Ġcirc ular
Ġcommence ment
Ġno body
Ġcorrect ive
Ġchick en
Ġpol ish
Ġtribun als
Ġmaur itius
tm l
Ġcondem n
Ġbi as
Ġstock p
Ġven ue
ath an
Ġdetermin es
Ġ ion
Ġanaly se
Ġsant a
Ġbienn ial
Ġer os
Ġbacter ia
v ity
Ġh ate
Ġcontest ed
Ġsa h
Ġvary ing
Ġthreat ening
Ġd airy
Ġbur kina
Ġpl as
Ġob esity
Ġautom ated
. ;
Ġpresident s
ir ts
Ġmil est
Ġdef ending
ĠmÃ©t is
Ġfabric s
st ers
Ġder og
Ġsure ly
Ġy e
Ġbru ce
Ġthe ore
Ġgra ham
Ġa ve
Ġsp an
Ġhe ct
we g
employ ment
Ġr ib
Ġf id
ship s
g ill
Ġar ray
Ġir res
8 19
Ġsc ul
Ġwat ched
Ġm ul
Ġarr anged
Ġp ock
Ġbat tery
Ġguard ian
Ġthere in
Ġappropri ation
min ist
Ġchap ters
Ġw is
Ġbal ances
ant ic
pos ition
Ġgr id
Ġyield s
ol ly
rgy z
Ġcons ular
Ġspecial ly
Ġinnoc ent
Ġbur ning
Ġtrig ger
on ly
ter ies
t it
Ġtenn is
Ġlegitim acy
Ġvalid ation
am ing
Ġas certain
Ġf ond
Ġth inks
l en
Ġqu arters
Ġun ve
Ġunder lined
Ġc ock
ent er
Ġl ang
Ġup hold
Ġins ight
Ġo ught
om er
Ġcalc ulations
Ġkel ly
pl ain
Ġje opard
Ġpre st
Ġmaxim ize
Ġn ad
ul us
g row
Ġdistinct ive
l at
Ġh m
Ġans wered
ra h
op her
Ġmarg ins
Ġh ang
Ġarsen al
Ġzam bia
Ġconven ient
ud a
ox y
Ġeurope ans
Ġconsolid ate
Ġdesert ification
Ġback ing
g ame
Ġauthor isation
Ġrep orter
Ġspecial ty
Ġrapport eurs
Ġacc us
Ð µ
Ġperfect ly
Ġtuber culosis
10 5
se arch
Ġtrust ees
Ġdef enders
Ġsuccess ion
Ġt ens
Ġbar cl
Ġn w
Ġin ner
Ġmitig ate
Ġdown town
Ġimper ative
Ġin ac
Ġdivor ce
Ġsus pects
Ġexpress ly
p ad
Ġb old
Ġcor r
Ġal g
Ġmis con
ak en
Ġpestic ides
Ġs li
Ġcl iff
Ġw isconsin
ep a
Ġdisplace ment
con nect
Ġbase ball
Ġrec ourse
Ġvacc ines
ad elph
Ġaccess ed
Ġstat utes
Ġden y
Ġinm ates
Ġto uc
our cing
Ġperson ality
Ġ( -
Ġdissemin ate
Ð °
Ġbelie fs
Ġsulph ur
Ġgif ts
Ġlif estyle
Ġfulf illing
Ġf illing
= =
Ġp oul
reg ist
Ġb ib
Ġdele te
gl as
Ġap olog
Ġrecru iting
l ings
w he
p ress
Ġz immer
Ġwrit ers
Ġlay ing
Ġp ine
Ġstab ilization
Ġsystem atically
Ġrepl ied
Ġpain ting
man y
Ġnicarag ua
is a
Ġcompt roll
r ass
Ġq a
ot te
p res
l ay
Ġbreak s
re m
Ġcheck ed
it ar
Ġs ie
Ġwh it
Ġbath room
Ġthough ts
Ġimportant ly
Ġc sc
Ġbed s
u ce
f m
qu est
Ġor che
Ġphilos ophy
Ġl un
adelph ia
Ġf asc
Ġmoz amb
Ġcham bers
ink ing
Ġsympos ium
est ed
Ġrock et
j i
Ġal lev
tra de
Ġcho osing
Ġcf ia
Ġcoordin ators
Ġentrepren eur
Ġthere to
Ġimp lies
aps ed
Ġwind s
Ġf ought
os a
hy dro
Ġexceed s
Ġexperi ments
Ġdomin ican
Ġcigare ttes
Ġconsc ious
Ġra y
t an
tele phone
m id
ob e
Ġcombust ion
Ġcompet itions
Ġsurviv ors
Ġauthor ised
develop ment
Ġur anium
! "
Ġbut ter
Ġcomp act
r ific
Ġw ond
re ll
Ġvar ies
Ġcondem ned
Ġmedic ation
Ġinter med
Ġdem ob
Ġcare ers
Ġgm t
oc ation
un ate
ber y
Ġstip ulates
Ġpan ama
Ġgl as
Ġacceler ated
Ġpriv at
ph an
cont rolled
ph ones
Ġrest ored
Ġstr at
Ġeros ion
ol as
Ġm ps
Ġï£ µ
enz ie
Ġcla uses
Ġaust erity
Ġj ay
Ġsp atial
Ġstandard ized
Ġchar itable
he tic
Ġrein forced
Ġp od
Ġaccess ing
Ġky rgyz
Ġph ones
oun ce
12 0
Ġhepat itis
Ġtimet able
Ġgra y
sp ons
Ġare na
Ġdu ly
Ġelement ary
Ġpoore st
Ġport al
Ġtraged y
Ġrel ie
af c
sim ile
Ġexplan atory
Ġform ing
Ġeconom ist
Ġbr ands
it ors
Ġlit igation
Ġcomb ine
Ġcl othes
Ġmus cle
Ġdi ame
Ġexempt ions
Ġcontinu ously
olog ically
Ġbon us
Ġelect ro
Ġauton omous
r im
Ġupgra ding
Ġepis ode
Ġdirect ory
Ġassist s
Ġbas ically
Ġdisc ount
Ġh c
Ġrecre ation
f n
Ġaffir m
Ġradio active
Ġen zy
Ġemer ge
Ġstro ke
t aking
Ġag gression
Ġsa fer
Ġeff lu
Ġther mal
st an
Ġwas h
Ġshort age
Ġphys ically
Ġb is
Ġunch anged
Ġb one
Ġcorpor al
Ġcreat ivity
Ġne ck
Ġfoc uss
Ġip ad
Ġcot ton
o zy
Ġst ol
Ġdr illing
Ġten ure
ist ically
Ġprompt ly
Ġo t
at lantic
Ġdra matically
fin an
Ġreal ities
Ġless on
Ġdesign er
Ġlegisl ature
b ian
Ġinter ven
Ġret rie
Ġinvestig ative
Ġh ors
Ġrat ify
polit an
Ġj enn
Ġthe ft
Ġem irates
Ġcommission ed
Ġp ione
pro port
Ġbe ating
old s
Ġm ira
Ġimp orters
Ġaccept ing
Ġpers ist
Ġphil adelphia
Ġdiscipl ines
Ġste ven
Ġdedu ctions
Ġs izes
Ġelect ors
Ã¡ n
ren e
Ġbro ker
g g
in ct
l ab
Ġs hed
Ġexpress ions
Ġv at
Ġdiox ide
Ġfeat uring
ri x
Ġsixt ieth
Ġinsure d
Ġsudden ly
Ġfin n
z es
op en
ag enda
Ġeffic acy
Ġtable t
Ġengine er
Ġdraw s
Ġgun s
cell aneous
us ive
Ġdiv ide
Ġfresh water
Ġfut ures
Ġfinal ized
Ġthen ce
Ġown s
e ared
Ġno on
Ġkill ings
Ġbelg ian
Ã «
Ġmar s
Ġimport ation
ra c
Ġta jik
me as
Ġmat he
Ġsummar ized
ing ton
end able
Ġdefer red
el a
Ġdevelop s
Ġpreced ence
p op
Ġr ush
Ġh art
p ie
Ġbro ch
Ġadd iction
enh agen
Ġref rig
hen yl
Ġat lant
Ġnomine e
Ġwarm ing
Ġbox es
Ġre un
Ġpat rol
n at
Ġbasket ball
Ġwal ked
Ġhar ry
Ġk ings
Ġbiom ass
f ive
Ġf inger
Ġeconom ists
Ġse gments
Ġpled ged
he imer
re z
Ġrank ed
h ot
Ġmult id
Ġoccup ying
ig ue
Ġcommercial ization
Ġcamp bell
Ġc cra
Ġelabor ate
s ocial
Ġdr inks
Ġfulf ill
Ġimp ly
Ġtrop ical
Ġconcer ted
Ġdistrib ute
Ġappeal ed
Ġdefic iencies
Ġmuslim s
Ġsus an
Ġc w
Ġin ject
Ġjan e
Ġwaste water
f old
Ä ĩ
s ens
Ġentr usted
Ġimpro per
Ġe ve
Ġclin ic
f ac
Ġts un
Ġvend or
app lic
Ġ10 4
Ġmozamb ique
Ġdemand ed
Ġ3 50
Ġlist ening
Ġevery day
Ġview ers
to ok
b et
Ġ ul
Ġlog ic
Ġent ail
rup ted
Ġviet nam
Ġc tm
us c
iss au
Ġincons istent
Ġper ry
uc cess
Ġlab els
Ġconsort ium
Ġunanim ously
Ã©t Ã©
Ġplatform s
Ġapprec iated
Ġkid na
Ġhondur as
h ort
Ġsh an
Ġincom pat
ed ia
Ġext ends
Ġrang es
Ġp ond
Ġalloc ations
Ġacknowled ges
Ġgl ad
g lo
s ign
g reen
e b
Â §
. );
Ġre per
Ġsurround ed
Ġemerg ence
Ġmetro politan
m ant
Ġbrazil ian
Ġ @
Ġdeb ts
Ġmaj esty
r uss
habit at
Ġwid th
Ġb ore
Ġcommun ist
Ġf bi
Ġmary land
Ġip c
n ell
Ġcent uries
Ġcub an
Ġtr ies
Ġdist ort
Ġmat ure
Ġclaim ants
Ġfit ted
finan cial
Ġvari eties
ster dam
Ġmon aco
Ġtremend ous
Ġfin es
Ġemb ra
Ġblock ed
Ġ197 4
id al
Ġneg lig
Ġreceip ts
a o
199 1
Ġcomp iled
Ġsp here
201 1
spe cial
Ġ197 2
Ġweakness es
Ġcomed y
ow ed
l ie
Ġter race
Ġconserv atives
Ġoper a
Ġdifferent ly
Ġver d
Ġham as
art s
Ġflu id
Ġresid ual
Ġdet ri
v s
cont rib
Ġsymbol s
Ġrecru ited
Ġhow ard
lim ited
Ġc es
al o
ys is
Ġsport ing
asc us
Ġde eper
comp et
d ie
op y
Ġpil ots
d et
Ġillust rated
Ġstret ch
Ġcre am
Ġgen es
Ġrefe rees
fr ance
Ġc ta
Ġw olf
Ġhe ter
Ġaim ing
Ġlack ing
Ġrestra int
Ġrec ons
Ġco oking
fig ure
Ġd oc
az a
Ġgain ing
Ġus d
Ġra ces
lic al
Ġcontem pl
issu es
Ġcred itor
199 2
199 3
Ġoccup y
Ġvo ices
ud ic
is se
Ġris en
cy cle
Ġrecogn ise
ro id
third s
at ics
Ġfra ction
Ġhar v
Ġstip ulated
Ġaus p
Ġ16 0
Ġ10 3
) /
Ġt ire
Ġcs is
" ;
Ġign ored
Ġcra ig
Ġrep lic
Ġprodu ctions
Ġaccur ately
Ġk am
Ġm ou
Ġmiss iss
Ġh s
Ġord in
m aster
Ġsub sections
Ġendor se
we b
Ġingred ient
Ġx i
Ġg n
Ġexplain ing
Ġm amm
Ġbarcl ays
Ġfeel ings
greg ated
Ġb uck
Ġclass room
Ġpen et
Ġred ress
Ġden ial
Ġattract ed
ģ Ħ
Ġliter ary
Ġdispar ities
Ġc ess
Ġal aska
re ens
Ġassum ing
Ġsh ower
Ġ1 000
Ġcyc les
Ġg y
ÃŃ a
mans hip
Ġf ru
s it
Ġsl ip
Ġto y
Ġac oa
ate ur
Ġciv ic
Ġp ump
mb le
are t
Ġf ert
Ġoccas ionally
cut ting
Ġapart ments
Ġdistingu ish
Ġleg end
, âĢĻ
Ġactiv ist
Ġla ugh
Ġz o
Ġreve als
Ġn ich
Ġinterv ene
Ã¨ s
Ġearthqu ake
Ġt orn
Ġt n
Ġdam ascus
Ġn ik
Ġinvent ories
Ġsod ium
ib ia
Ġcalc ulating
Ġpar ag
dr iven
ard o
Ġconver t
Ġfl our
Ġimp osing
proport ion
in vest
Ġdoub ts
Ġdebt or
Ġbail out
Â £
** **
Ġcit ing
m illion
Ġn r
Ġear liest
Ġcharacter istic
Ġen shr
Ġconcept ual
Ġdil ig
p rom
Ġpass word
Ġdemonst rations
Ġappro ached
Ġst y
d g
Ġdefend ant
c ive
Ġn ights
Ġpen ins
Ġvi ability
d ig
Ã º
if ier
Ġbe ck
Ġ197 3
n rc
Ġtra gic
ol s
Ġmod es
Ġprop ag
Ġam sterdam
Ġcollect ively
Ġbor ne
Ġrac ist
Ġinter cultural
Ġirres pective
Ġporn ography
Ġ18 0
Ġmedic inal
et us
Ġapp rent
Ġmist akes
al t
Ġdou glas
Ġaccum ulated
Ġpreserv ing
Ġtra ins
sc hedul
Ġread s
Ġp est
Ġtra ine
Ġdeleg ate
Ġsurvey ed
Ġm h
hr an
Ġben in
Ġnur se
for ces
Ġsc ra
Ġcler k
Ġh ub
Ġel ite
Ġsynthe sis
d h
an th
â ģĦ
Ġcondu cive
Ġco gn
ou bted
Ġregul ating
ĠâĢ Ŀ
ak i
Ġ11 5
Ġautom otive
Ġm ck
it o
Ġdisp ers
chair man
Ġredu ces
ic o
Ġcheck ing
Ġr iding
Ġh idden
Ġpredict able
l on
Ġpromot ional
Ġbel t
Ġappear ing
Ġpro be
d ad
Ġappro ves
Ġabund ance
Ġste pped
er tion
Ġshar ply
Ġconf isc
Ġcop enhagen
Ġprec urs
Ġurg ently
Ġencoun ter
Ġthan ked
Ġnas a
Ġse m
Ġgovern ors
ol is
Ġforward ed
Ġdeal ers
Ġbroadc asters
Ġgra ce
Ġfrag ile
Ġunder go
Ġpl ural
Ġn fl
Ġquot as
Ġf led
Ġcease fire
Ġground water
Ġmat urity
ipp ers
Ġspec im
fra me
Ġ13 73
Ġturn over
Ġbi ology
Ġgu ards
Ġdepend ence
co ver
Ġsh orter
Ġ10 8
Ġmong olia
Ġman ages
omet ric
Ġjon athan
Ð ¸
Ġshe lf
Ġan ger
ub ar
ad minist
Ġdisappear ance
Ġbrief ings
Ġsc ript
Ġmetab ol
Ġmeth yl
d im
m arch
Ġdes erve
Ġglas gow
Ġtr ick
Ġspeak s
n ie
Ġco aches
Ġsucceed ed
b ird
k m
Ġgr iff
Ġd ak
ass ist
Ġanaly zed
s up
Ġspe ll
Ġup r
s ource
Ġse am
Ġfulfil ment
Ġste am
Ġ10 7
Ġtur b
Ġund oubted
Ġrestrict ive
Ġsp ur
Ġnutri ent
Ġdon ald
Ġbag s
Ġcl ay
Ġdeterior ation
Ġb p
Ġinst ability
Ġob jections
Ġamaz on
Ġsuccess or
Ġtw in
Ġspec ification
Ġm aker
Ġrad ar
Ġim bal
Ġausp ices
Ġelabor ation
Ġexerc ising
Ġcomp lied
Ġbas el
if or
Ġpre ferences
Ġtrad ers
ason able
b ons
Ġoccup ations
Ġdang ers
ic he
Ġcontrib utor
Ġperman ently
Ġproport ional
Ġwealth y
priv ate
schedul ed
Ġdeb ris
child ren
weg ian
Ġindo or
Ġb rom
Ġsumm aries
Ġcamer as
Ġs ark
Ġw ise
Ġto ile
Ġprob ability
Ġchief s
Ġra mp
Ġopt ical
Ġte hran
ite ment
Ġscient ist
Ġprest ig
Ġmed i
l v
Ġle ather
Ġbare ly
Ġad missibility
Ġcontrovers y
Ġcomplain ed
Ġcomput ing
Ġzimmer man
t bs
Ġun paid
Ġopen ness
Ġun author
st a
Ġfl aw
Ġdisapp ointed
Ġrepresent ations
Ġse w
Ġun equ
ann y
imed ia
Ġpenins ula
z o
le ton
Ġwitness ed
Ġelectron ics
c hers
Ġat hens
Ġemb ry
Ġrefer ral
Ġincor rect
Ġtr ucks
Ġbio graph
Ġthreat en
Ġc ic
ats on
ferent ial
n r
Ġro ger
d ens
Ġconv ictions
or ic
Ġwaters hed
Ġp t
h ill
Ġelect or
d in
ur ances
ar ial
Ġor th
Ġdiame ter
ather ine
Ġ-- -
Ġsp ouses
Ġdoub led
app ing
Ġtreat ing
Ġtsun ami
Ġhost s
Ġed wards
Ġsocial ly
ĠâĢľ (
in ating
Ġmarsh all
d og
ic ular
Ġclo ck
Ġcompar isons
Ġs ulf
Ġod ds
Ġincom plete
Ġann an
ac ious
less ly
Ġre aches
Ġflood ing
Ġconven ience
Ġrel ied
Ġexplo sion
Ġh ans
ad i
Ġrig orous
Ġchain s
te ch
o en
Ġrece iver
Ġj av
Ġhal t
Ġpropon ent
Ġbirth day
Ġp av
Ġdis proportion
Ġconfig uration
Ġrob inson
ha ul
Ġconting ency
Ġsystem ic
Ġprec lud
Ġe i
Ġal le
Ġg ag
Ġd all
Ġche ese
Ġsafe ly
b issau
Ġremain der
u ing
Ġstere otyp
Ġa le
Ġoper ative
Ġsho es
Ġunder took
Ġst ain
v as
Ġoptim al
Ġun due
gra v
Ġtajik istan
om al
Ġent ries
Ġhud son
j une
âĢĶ âĢĶ
Ġtrust ee
Ġm asters
Ġselect ing
Ġstol en
Ġcateg or
ur ate
Ġchart s
Ġdesign ing
Ġmat the
Ġelectron ically
b t
euro pa
Ġsher iff
Ġprevail ing
Ġsus cept
Ġfire f
com pan
Ġscul pt
Ġport able
Ġdro ve
w omen
it ably
Ġb og
Ġfound ing
Ġdon ation
Ġalloc ate
Ġexam inations
Ġnh s
Ġmod ules
Ġam mon
Ġmis cellaneous
Ġchur ches
Ġtermin ated
Ġdeleg ated
anne x
spe ed
Ġwe ren
Ġn an
Ġche n
work ing
Ġgard ens
Ġparag uay
Ġs ara
nes ota
Ġsmugg ling
ine au
Ġro cks
Ġfoss il
Ġdesign ate
Ġjohan nes
Ã£ o
Ġshould er
Ġch ocol
Ġmon opol
Ġdemonst rating
Ġsub division
Ä į
Ġt ib
Ġstream s
Ġm all
Ġqu art
Ġacqu iring
Ġd ip
Ġreg ina
Ġprox im
c os
Ġcorrect ed
Ġanonym ous
Ġsynd rome
Ġpill ar
Ġround s
x ual
Ġnot able
Ġsy d
Ġup set
Ġpost er
Ġd ent
Ġun rest
Ġsp are
ac ity
Ġpl ug
Ġd ave
greg ation
pers ons
Ġsquad ron
s an
Ġexplo red
as i
an ing
Ġhistor ically
Ġaust rian
Ġ9 00
gra du
Ġstead ily
p ack
Ġcritic ized
Ġarr iving
our t
h q
Ġv oy
Ġw aves
Ġsla very
Ġevol ved
Ġvi ii
st art
Ġstan ley
Ġso ils
l ac
Ġenv oy
Ġbad ly
Ġgu ess
Ġcorre l
Ġs me
Ġmin ds
che ck
Ġor ally
Ġmo ist
Ġl ane
i Ã¨re
Ġg ig
Ġexport ing
Ġdisapp eared
Ġpros pective
Ġcompr ise
Ġin ability
Ġdra fts
Ġh ide
Ġtr illion
Ġsol vent
Ġchrist opher
Ġ19 68
add ress
Ġaspir ations
Ġj ason
Ã© es
Ġhelicop ters
Ġpert inent
Ġundoubted ly
Ġmin nesota
ac re
Ġst ir
Ġy ard
Ġgra des
sc he
âĢĿ ;
Ġrein forcing
Ġn pt
Ġconfed eration
Ġdu rable
commer ce
Ġchem istry
Ġgradu al
Ġfinancial ly
pac ific
Ġm ild
Ġnutr itional
Ġsuccess ive
Ġcl ark
Ġadd endum
Ġeradic ate
Ġang ry
Ġdead ly
Ġtermin ology
Ġdispl ays
Ġpakistan i
ab il
m ers
budget ary
Ġw atson
Ġfor got
fin al
Ġb out
âĢĿ )
Ġfl a
Ġgener ous
et her
ro v
Ġseat tle
ot y
Ġincre mental
Ġcoup led
Ġinst al
Ġpu er
Ġun ified
Ġra b
Ġview ing
Ġclar ified
Ġhamp shire
Ġrank ing
t imes
Ġmiss iles
Ġexplan ations
Ġmag ic
Ġb ac
1 01
Ġnor wegian
Ġatlant a
Ġmat ching
n ab
Ġform ulate
ie v
Ġalign ment
f rench
Ġgra m
reg ion
Ġy ar
Ġfran co
Ġinter rog
ess ment
iss ance
ie re
Ġpoul try
Ġt one
m ap
Ġoppon ent
Ġspec ulation
Ġc ens
Ġsp ill
Ġmit chell
Ġbrook lyn
Ġshif ts
Ġdisc re
Ġtri ple
ir al
od c
Ġintent ions
z heimer
pos ed
Ġceleb rated
Ġp am
Ġr iv
sa fe
Ġtra ct
Ġdep osition
poin ts
Ġdie go
Ġperform ers
Ġfil ter
Ġcle ared
Ġhoc key
Ġt at
Ġreaffir m
Ġinst ant
Ġal igned
Ġfant astic
im ic
Ġsuccess es
b p
< /
Ġli kes
Ġaccred ited
Ġter rible
Ġarrest s
g ol
Ġut ilities
d umping
Ġformer ly
Ġbehavi ours
Ġsponsors hip
Ġlo ose
acer b
Ġo ios
Ġlad en
Ġph ill
ra id
Ġdevelop ers
Ġpo ison
Ġdel ta
Ġemp ire
Ġla ur
Ġan a
w at
ment ed
r ition
Ġin security
Ġdefin itive
us ky
Ġsh ipment
ruct ures
Ġintens ify
Ġmo ore
Ġnort heast
Ġexc ited
Ġg ut
Ġas c
Ġren der
ren d
Ġmy st
Ġf m
Ġk enn
Ġkab ul
ag ascar
7 20
Ġs ons
Ġsmok ers
Ġn od
Ġex acerb
ke ep
Ġbrid ges
Ġenthus i
Ġosc ar
Ġcred ited
Ġprivile ge
uck y
Ġrr sp
Ġimm une
p ra
lo sure
Ġhors es
ubar ak
Ġcr us
ac iÃ³n
Ġtransmit ting
Ġn ou
h l
Ġh ier
ol on
Ġf ighters
ge l
umb ered
Ġin aug
7 50
Ġdis h
Ġconf ined
Ġkne e
Ġtend ency
Ġch ron
Ġpositive ly
le ctions
Ġr ss
Ġcast le
Ġattach ment
resp ons
Ġharmon isation
Ġp se
________ ____
Ġcult iv
Ġfact o
Ġauton um
un es
Ġright ly
Ġcess ation
Ġprohib its
Ġdistrib utors
ip her
tra ck
doc s
Ġbra ck
Ġdis rupt
Ġre jection
Ġe pa
am as
ura ble
Ġair space
Ġfor cing
ri pts
Ġvinc ent
jud icial
Ġpreca ution
ino is
et own
Ġharvest ing
Ġstr ange
Ġnam ibia
Ġpl a
Ġutil ized
Ġk ansas
reg ard
Ġsc ales
Ġenshr ined
Ġconfir ms
Ġvolat ile
e astern
Ġla v
s g
Ġqu ad
Ġlength y
Ġshare holder
Ġland locked
Ġilleg ally
Ġquestionna ires
ge red
as hing
id ers
Ġhar ris
Ġj p
Ġmiscon duct
Ġstra ins
Ġpre requ
Ġuk rain
Ġeuro pa
a ired
Ġscen es
Ġ10 6
ik h
Ġche st
Ġdetermin ants
ro ck
Ġmult imedia
Ġsurv ived
Ġdevast ating
Ġmagn etic
Ġsa il
Ġembar rass
af i
Ġdelight ed
Ġpo et
ĠÌ ģ
Ġj azz
Ġinter fe
Ġjac ques
Ġrus sell
Ġaff air
j our
qu et
Ġbeat en
Ġcor rig
Ġanton io
Ġl umber
Ġtw ent
ilit ary
Ġass ass
Ġl akers
k n
Ġpartic les
ens ively
Ġfr on
add ed
Ġqu ar
Ġemb od
f it
Ġl ug
Ġb erg
Ġbrother hood
Ġtu ition
un c
r ank
Ġsp ots
Ġderiv atives
Ġadvis ors
Ġsil ence
Ġpure ly
Ġlif el
Ġfavour ite
Ġg ast
Ġali ens
10 9
Ġguarantee ing
Ġexp ulsion
Ġsark ozy
Ġl enders
Ġne il
us er
Ġw ound
Ġali ke
Ġf ier
v ii
Ġl ump
Ġtransl ate
Ġand re
Ġliquid ity
out ube
Ġrub ber
Ġvit amin
Ġadj our
Ġmack enzie
Ġarchitect ural
Ġany way
Ġ umb
Ġd ating
Ġhit ting
Ġw r
Ġang le
Ġpriv y
Ġeduc ated
ffic iency
Ġconven ing
et ric
Ġmilit ants
bor ough
Ġfranch ise
Ġo v
Ġl or
Ġbirth s
an es
Ġpack ed
Ġev ans
Ġb art
Ġ ump
Ġadj udic
Ġb our
Ġwheel chair
Ġcap s
ot ing
Ġland ed
Ġb un
e val
Ġve gas
l ah
Ġsupervis ors
Ġrep airs
cent ury
Ġsuit ability
Ġqa eda
Ġexpect ation
Ġbr illi
Ġold est
Ġan xi
Ġfurn ished
Ġenquir ies
Ġdiagn osed
Ġut most
Ġv on
Ġh kt
Ġgraph ic
ect ed
Ġreiter ate
Ġac ids
Ġdemob ilization
en ergy
Ġar c
ĠâĢ¨ Ċ
Ã ®
Ġclin ics
Ġc ater
ij i
o ard
Ġconsum ed
Ġ12 3
Ġstrugg led
Ġver ified
Ġcu is
arch y
Ġtr an
lear ning
st age
Ġsou l
Ġtransform ed
Ġprecip itation
f unction
Ġgra b
Ġw ra
Ġgh g
Ġtrans plant
ipp er
Ġinform ing
Ġlamp s
Ġsusp end
Ġrug by
Ġst ance
Ġpresent ly
Ġal de
Ġdiamond s
Ġmaur it
Ġos borne
Ġcomp ilation
ri en
Ġcomment ed
Ġbern ard
Ġne arest
Ġsign atures
ist a
Ġtro ut
c od
Ġass urances
Ġassign ments
Ġsuspic ion
Ġ ie
Ġt ast
il er
Ġhope fully
Ġ10 2
Ġmedic are
Ġli ked
com ings
worth y
Ġrev ise
top ic
Ġdis mant
12 5
Ġtouch down
Ġpredecess or
b ly
Ġca f
Ġn is
nor mal
Ġhun ter
Ġexplo it
Ġun com
lo re
Ġp d
Ġadhe rence
Ġm ubarak
Ġa ar
Ġag grav
Ġcomp aring
Ġhol es
ren cies
Ġluck y
avail able
Ġtransport ed
urs ed
Ġillust rate
chie f
Ġanch or
l it
Ġal tered
Ġmap le
pt on
ial s
Ġbl amed
Ġill inois
Ġal zheimer
Ġo dd
Ġleg s
red it
Ġfail ures
Ġstr ive
ict ional
Ġreg en
Ġanal og
oc hem
ie u
Ġcivil ization
Ġwed ding
ens able
Ġopp ose
Ġwholes ale
Ġarch ive
Ġapp ortion
Ġsurf aces
Ġf di
Ġpen n
Ġadverse ly
Ġd ock
Ġconc iliation
reg ulation
Ġcounter fe
Ġinter departmental
Ġco le
Ġso y
ic iency
Ġserv icing
inc ol
Ġba gh
Ġh ards
Ġres il
Ġg ym
Ġtradem arks
d ays
Ġtheore tical
ĠÃ Ĺ
1 10
Ġmeant ime
Ġbench marks
Ġjud gments
Ġdep le
Ġc ats
f th
Ġtail ored
Ġi x
Ġjac ob
Ġsome body
Ġtub e
Ġware house
on i
w ick
Ġn b
Ġre loc
Ġpul p
m t
Ġshort comings
st op
Ġconst ra
Ġ11 1
Ġmis leading
Ġnom inations
Ġdivid end
Ġaccess ories
Ġeas ter
Ġsoc cer
Ġref ined
Ġg amb
comm unity
Ġe ib
Ġdivid ends
Ġpre ferential
Ġcontract ed
Ġaf raid
m ac
v als
Ġcol ours
th ree
Ġpos es
pe red
aw are
abor iginal
Ġ ................................
Ġflow ers
m ath
20 4
Ġc ass
Ġy outube
Ġto ug
Ġcon ced
Ġpublic ity
Ġhar sh
Ġr if
pro cess
Ġpill ars
Ġsimpl ified
Ġp ink
Ġc i
Ġco se
Ġsyd ney
he astern
am ation
Ġve to
Ġind isp
Ġemphas izing
Ġcl oud
pp y
be it
Ġbill ions
ex cept
Ġp ub
Ġexhib its
in st
sc reen
om ed
Ġnot iced
che m
ordin ate
Ġ ________________
Ġco aching
ar ab
Ġpuer to
Ġcommunic ating
Ġb ub
ent ions
h iri
Ġconnect ing
Ġnet s
ay a
v an
coun cil
h n
Ġmerch and
c as
Ġj ub
Ġfun eral
Ġadministr ations
Ġmobil ize
se ly
Ġdead lines
Ġlifel ong
Ġd ick
Ġher b
Ġseaf ood
Ġme ps
Ġstress ing
ag ger
Ġinstru mental
k ok
Ġmon ter
ĠÃ ¢
Ġsand usky
Ġadoles cent
Ġr y
Ġbab ies
Ġmad agascar
Ġmac donald
Ġcor on
Ġfif teen
Ġvolun t
Ġabol ition
Ġd oses
Ġg c
Ġign ore
Ġt ends
Â »
Ġdraw ings
or ia
Ġpro cla
Ġselect ive
Ġdist ress
Ġd ir
Ġj en
Ġcomm ended
char ge
Ġtr in
ap ril
organ ized
Ġsearc hes
ij uana
Ġen rolled
Ġk ra
Ġsp ar
Ġexhib itions
Ġpoint ing
Ġprolong ed
Ġic c
Ġch ase
ur ban
g art
Ġd ining
Ġst ops
Ġess ence
if act
Ġref rain
Ġcomb ining
Ġsan ction
Ġlog ical
om es
Ġ11 8
1 30
Ġse als
Ġfree ze
Ġper ceptions
Ġox ford
Ġp ad
Ġf ame
Ġmagaz ines
Ġspectac ular
Ð ½
Ġcur rencies
Ġne v
Ġsc reens
h is
s ah
Ġtack ling
gen er
Ġris es
Ġcollabor ate
Ġman ning
Ġpoor ly
Ġa afc
Ġloc ked
ot ics
Ġun con
Ġpl aint
Ġjama hiri
Ġhe aling
Ġsar ah
Ġimp ed
Ġcat ast
Ġharv ard
Ġgl ac
Ġanalys ed
Ġvig il
Ġmotiv ation
* ,
Ġg ly
Ġcam bridge
Ġmid field
Ġannounce ments
Ġst ap
Ġsor ry
c ur
Ġcurric ula
Ġjamahiri ya
iv ities
Ġanaly ze
Ġvolunt arily
Ġlaw ful
Ġo g
Ġs b
Ġsl am
Ġprec ision
Ġiniti ation
Ġbat tal
Ġgrat itude
Ġargu ing
Ġincompat ible
Ġindisp ensable
Ġto x
be at
Ġden ver
Ġmed ian
uff s
Ġtempl ate
Ġth rew
Ġpe ers
m ax
Ġt ier
e ven
Ġt issues
Ġo re
v re
Ġkyrgyz stan
ers hip
in fo
Ġat tainment
Ġret reat
j et
Ġme ter
na issance
Ġprec ious
Ġsynthe tic
le e
Ġan k
Ġexplore r
Ġreli ance
Ġf da
Ġmanager ial
Ġsumm its
le ad
em an
l ib
" ).
p ine
Ġsp ra
Ġjohannes burg
Ġa ber
b en
Ġphil ip
ĠâĢ Ļ
Ġlou d
Ġfriends hip
Ġattract ing
n l
Ġsl ide
u an
ill er
Ġrepatri ation
Ġple a
Ġaffil iated
Ġinc hes
Ġcust od
um s
Ġsouth west
Ġaf ore
Ġcompat ibility
g one
Ġinflu ences
Ġdispos ed
Ġctm r
Ġpreserv ed
head ing
Ġcuis ine
Ġindic ative
Ġle verage
c ro
pr in
" >
Ġmathe mat
Ġcompens ate
Ġcas ino
Ġpled ge
r q
Ġr im
m oney
s ol
u ate
Ġprem ature
pe lled
Ġhe ll
Ġhighlight ing
s ession
om on
Ġwh olly
x y
Ġdismiss al
Ġm ud
Ġst al
Ġl loy
Ġdiplom acy
Ġlif ted
p y
Ġdep rec
Ġath lete
Ġtun nel
an na
Ġislam ist
pro of
Ġsp o
w ind
Ġaccord ed
Ġhyp othes
Ġbroad band
Ġaud ited
Ġstandard ization
Ġ10 9
Ġnerv ous
Ġjos Ã©
Ġawa iting
Ġdam aging
Ġrot ation
on ie
Ġover head
Ġchocol ate
Ġprivate ly
Ġfisher men
og ether
Ġmail ing
Ġregul ator
Ġb ak
Ġfred er
Ġall ied
Ġsuspic ious
Ġappro vals
Ġinter oper
f ile
Ġassemb lies
Ñ Ĥ
Ġde ar
Ġconsist ed
Ġp ater
Ġcomm enced
ias m
Ġj ar
Ġking ston
Ġfore most
- (
ah u
Ġarm strong
Ġup held
Ġer up
Ġpleas ant
Ġke ys
Ġdefic its
Ġholland e
Ġalumin um
Ġacce pts
Ġfurn ish
Ġmir ror
ul g
Ġbarb ados
m ethyl
Ġthorough ly
Ġd umped
Ġd ad
60 4
Ġnarc otic
Ġfern and
ï Ŀ
ap olis
Ġcomp osite
Ġbreat h
Ġpartic ulate
Ġsome where
ok es
Ġb ord
Ġdecl ines
Ġadvent ure
ag ne
fe b
win ning
i u
Ġdepr ivation
Ġal f
is er
e rer
Ġhar per
Ġah med
environ ment
Ġdec k
Ġnom inal
Ġhydro car
Ġh og
Ġout lets
Ġdec olon
.. ."
Ġcrimin als
Ġinfrast ructures
Ġrat ios
Ġtrad ed
Ġdoct rine
Ġn t
Ġnew t
Ġlect ure
Ġt ac
m ult
n c
ien ne
Ñ Ģ
Ġacknowled ging
Ġn pri
Ġst uck
e enth
Ġtrail er
e re
Ġchar ging
sw ana
Ġhat red
in stitutional
Ġdis ruption
Ġproxim ity
ah oo
Ġ19 69
Ġfra mes
Ġattrib utes
Ġi oc
Ġplaint iff
Ġmeteor ological
Ġcommit ting
Ġmy th
Ġp all
Ġtechn ically
Ġdep ut
Ġro dr
pr ud
Ġsol o
Ġ11 4
Ġveget able
re lla
Ġx x
Ġinev itable
wh ite
bre aking
Ġche f
Ġco ating
for ward
Ġbe aches
Ġal ly
Ġbalk ans
Ġstrong est
Ġje re
Ġste vens
Ġh tml
Ġbuild s
Ġenthus iasm
Ġchrom os
Ġcan cel
Ġle asing
Ġukrain ian
Ġqu i
law s
Ġimper ial
Ġref ine
Ġperiod ically
Ġresign ation
Ġdis ney
tor onto
Ġcar ing
oty pe
m ile
Ġshould n
Ġne lson
Ġco hort
iver se
Ġsil ent
Ġharm ony
f at
Ġcolon el
Ġcontrib utors
Ġca ut
Ġpo pe
Ġpermit ting
Ġrelig ions
Ġnar rative
Ġobserv atory
Ġmat h
Ġdedic ation
Ġhed ge
Ġar ises
Ġupr ising
Ġbl air
Ġsafeguard ing
Ġun just
ist le
Ġesc ort
Ġrec ur
Ġh orn
b ig
Ġfib re
u z
re le
Ġ11 2
3 60
Ġhom eland
Ġchampionship s
Ġinf ants
re ck
ust er
Ġjenn ifer
Ġunauthor ized
Ġear ning
incol n
cr imin
Ġtib et
sh ot
h p
Ġcyc ling
as a
Ġmil an
Ġle ver
Ġra j
Ġbloom berg
Ġshort ages
Ġquestion ing
Ġbat teries
cyc lop
Ġmar ijuana
Ġcount ed
Ġcounse llor
Ġsyn ergies
ment ary
Ġm ans
Ġd oping
Ã© r
Ġplas ma
it ral
Ġsu ited
Ġfin ishing
Ġd p
roduct ory
Ġo c
il o
m el
Ġ {
Ġac p
Ġfat al
Ġmal awi
Ġappell ants
b oth
Ġexam ines
Ġce ased
il lo
Ġr pp
Ġrich ards
Ġs add
Ġc epa
Ġ um
Ġcar l
Ġe arm
Ġfacilit ates
ex am
Ġir r
Ġenjo ying
Ġb ain
Ġthere on
Ġju an
Ġconv ene
Ġwet lands
Ġclust ers
te m
Ġb aker
Ġafore mentioned
Ġprint able
j oh
m ot
under ing
ension al
r ss
re ls
Ġm am
rest rial
et ta
qu in
l t
Ġdecre asing
Ġanxi ety
ant ed
s ize
Ġimp osition
Ġg os
Ġextra ction
prof ile
Ġcool ing
fe ld
Ġglobal isation
Ġdest inations
Ġinsp iration
ic able
lah oma
Ġb ids
Ġl ying
Ġlin ear
Ġorigin s
Ġeduc ate
Ġcasual ties
ile y
Ġlod ged
Ġsubsc rib
m ates
Ġdecolon ization
ist ing
Ġint roductory
Ġnrc an
Ġunder pin
c it
Ġben z
Ġturk men
Ġfru its
u pe
Ġge f
Ġdis hes
Ġsc rap
Ġmonter rey
Ġbagh dad
Ġpl ates
stand ard
Ġc sa
ifor mes
govern ing
Ġindian a
Ġr ip
Ġass ert
Ġy anke
Ġsew age
Ġevent ual
Ġste ep
gradu ate
Ġair ways
Ġcorrig endum
r ust
Ġnuc le
Ġoptim istic
ic ut
Ġacquis itions
Ġ19 49
d ata
Ġk al
ome ter
Ġsc at
Ġoil s
Ġcra fts
un iversity
Ġf ract
dec ision
occ up
Ġcons ign
ch s
Ġreg rets
Ġbid en
Ġc pp
Ġto go
Ġl end
Ġjur is
Ġsell er
Ġr ud
Ġfrust ration
Ġg t
Ġcle arer
iv a
Ġc ia
re hen
Ġre vel
Ġbal tic
Ġpun ished
Ġche aper
Ġsc ots
Ġmoham med
Ġfore see
r ans
Ġcab in
Ġconduct s
Ġw ines
ch ina
Ġreserv oir
ap ed
Ġcatal yst
Ġbever ages
t ings
Ġport ions
t rad
Ġmarket ed
Ġthird ly
iov ascular
Ġg arc
Ġt ill
Ã¼ r
Ġvari ability
Ġmem ories
Ġcre ws
Ġrel ies
Ġfinn ish
Ġin nings
st ock
Ġcy cl
Ġyear ly
Ġnum er
Ġrail ways
Ġdis in
Ġcomm end
Ġdef ender
l ord
Ġde ut
Ġremin der
Ġj umped
g ie
Ġsome how
Ġple aded
Ġok lahoma
ap h
cast le
Ã ¯
Ġjes us
Ġround table
Ġ' '
Ġbur st
Ġst ig
Ġincred ible
Ġun odc
sens itive
Ġtransfer ring
Ġliber ation
Ġbarb ara
Ġany body
Ġbudget ing
Ġamb ient
Ġmag ist
r t
fe ction
! âĢĿ
Ġthro wn
Ġmor ph
Ġgrie vance
Ġres igned
Ġd um
Ġm ice
Ġenjo ys
Î ±
w ipo
Ġf erg
Ġm our
Ġcy pri
Ġcult ivation
Ġtri um
Ġconcess ion
Ġdel ivers
fin ancing
Ġtrig gered
Ġjere my
Ġrup ert
Ġhel m
ak s
Ġopp osing
Ġcomm encing
Ġbur ns
Ġdist ant
Ġillust rates
Ġc yl
Ġfree zing
Ġreceiv able
Ġaud iting
Ġshut tle
Ġaccum ulation
Ġmat rix
Ġattor neys
Ġcompe lling
fam ily
Ġun st
act ivity
Ġcalc ium
gh ai
Ġunivers itÃ©
Ġbro w
Ġoccas ional
Ġab stain
Ġent ers
res erve
Ġrepay ment
Ġverd ict
ov en
ĠÂ §
Ġsever ity
Ġexem pl
Ġtact ical
Ġobserv ance
sah aran
Ġelev ated
Ã ¸
et ing
Ġunderstand s
Ġk ate
Ġconsc ience
Ġtwent ieth
r us
Ġcar n
Ġprom ulg
h ous
ch t
Ġlif ting
" ),
Ġj a
Ġafter math
oct ober
Ġdeput ies
Ġ ust
ass oci
Ġhab its
Ġj ets
b enef
Ġf iji
Ġph y
Ġcard iovascular
Ġbro oks
Ġanc est
Ġref using
pol icy
Ġbrows er
Ġclos est
Ġp iv
Ġdeliber ate
Ġmilit ia
p ed
p g
Ġo da
m n
ome ters
Ġkey word
reg on
n orth
Ġkh an
Ġele venth
Ġh od
Ġanth rop
ast ics
des ign
Ġseiz ure
Ġpsych iatric
gi ene
Ġb ene
ĠÃ ¡
ull ah
Ġb ri
Ġd vd
r ights
de ce
Ġn ba
Ġtel us
ut an
Ġbib li
Ġann ul
Ġbl az
str ateg
d ale
Ġfore seen
Ġdall as
eral d
Ġst u
Ġsaskat oon
ose xual
Ġinflu ential
Ġfund raising
ont ario
Ġo regon
Ġall iances
Ġdesc ript
sect oral
Ġind ict
Ġdur ban
pi racy
are l
Ġfore going
Ġoff ense
commer cial
Ġcl ashes
Ġkind ly
ing e
Ġcatal og
Ġlod ge
Ġa se
Ġbe am
ubl ished
ipp i
Ġcel tic
Ġgra vity
Ġt ended
velo pe
Ġdown stream
itud inal
Ġh ob
Ġre imb
ra pport
Ġmet ric
Ġbot swana
Ġbur ied
Ġcose wic
Ġem an
Ġdef ended
Ġbur dens
Ġuns uccess
Ġven ues
ro ots
Ġpopular ity
roph ic
uc lear
Ġeleg ant
Ġh ut
represent ed
Ġparal y
Ġpharmaceutical s
b ear
Ġfore ns
Ġcelebr ity
Ġcount ing
Ġwind sor
11 1
Ġ1 19
Ġab used
su pp
r f
rit is
Ġcoordin ates
Ġconnect icut
Ġdig it
Ġprosec ute
Ġscholars hips
educ ation
o ft
Ġst om
Ġ11 6
aff ected
er ie
om ing
i y
Ġl oun
Ġtraff ick
st ud
Ġhy giene
Ġt ed
Ġ Ï
Ġprotect s
Ġn p
Ġj ess
Ġr it
Ġinc ub
al so
cons um
Ġdiver sion
Ġab du
Ġs lic
Ġab oard
Ġdeserv es
ul in
Ġcor ro
Ġtent ative
Ġun iverse
Ġd b
ian e
Ġrecord ings
Ġmot ors
Ġunm ik
Ġinc ap
Ġw o
Ġr ings
ex port
Ġdiplom ats
ul atory
z ip
Ġlog istical
Ġbot tle
a ments
ren n
f oc
Ġ ~
th an
Ġbom bs
Ġforgot ten
Ġchlor ide
Ġsupp ress
Ġball ots
Ġper ipher
Ġmar io
Ġreg ain
Ġmaurit ania
Ġp ard
Ġrul ings
Ġprohib iting
Ġgold man
l le
Ġgenet ically
Ġur ging
Ġgeograph y
s ustain
el li
Ġwell ness
Ġhung arian
af ric
Ġdes cent
Ġcryst al
Ġfast est
Ġdisadvant age
Ġdiscre pan
Ġtrin idad
4 50
Ġoverl ap
Ġroyal ties
Ġinad missible
ier re
Ġant ig
Ġcarc in
qa ida
Ġcoll ins
Ġhand ful
Ġcultural ly
Ġviol ate
Ġcar ter
in qu
Ġaccompan y
ract ed
Ġe b
Ġs sh
Ġfi xt
Ġcigare tte
Ġda wn
ri um
Ġpublis her
Ġmater iel
Ġjuris prud
Ġab b
Ġremed iation
Ġshif ting
ou ri
Ġol ive
Ġ12 2
Ġshort fall
and an
ex hib
Ġconv ince
Ġball s
Ġdu ke
russ ian
Ġmon te
Ġstra it
Ġped est
Ġun r
Ġcompet ency
par lia
v ide
em pt
Ġsah ara
Ġsol ving
Ġs s
Ġenrich ment
Ġbomb ing
Ġlau rent
Ġschool ing
Ġk its
Ġeduc ators
or us
Ġg au
Ġwal ter
m ate
Ġattack ing
m outh
ar o
Ġfib res
Ġ13 5
Ġed ited
Ġaccus ations
Ġwond ered
at om
Ġinequ alities
im i
et ch
Ġcos m
Ġinev itably
Ġmd gs
Ġunder lines
Ġcar p
Ġtrave lled
Ġland f
Ġexpect ing
Ġaer ial
Ġfir ing
Ġs que
ar ound
out i
Ġmat ched
Ġunre asonable
Ġcost ing
t od
s ung
Ġnutri ents
Ġvis as
g ree
fin ance
Ġtable ts
ubl in
Ġstim ulus
Ġal ab
Ġattra ctions
Ġretail er
c am
Ġim aging
Ġbur ned
Ġperform s
Ġhect ares
Ġconcess ions
Ġroutine ly
Ġhere in
Ġspread ing
Ġretain ing
Ġmc gill
Ġload ed
) ?
Ġper sec
ogram s
Ġac res
Ġs ony
cont rol
Ġsurren der
Ġf ighter
ih b
Ġreluct ant
t rial
Ġc lic
Ġapproach ing
Ġsur g
Ġvir uses
Ġexp ired
Ġcomplic ations
Ġproblem atic
Ġvari ance
Ġn inet
Ġlic enses
Ġal k
not es
Ġqual ities
qual ified
ruct ive
Ġbra ke
Ġcheck list
Ġp pm
Ġpostp oned
Ġmor ris
Ġr all
Ġcelebr ating
Ġkill er
Ġbrilli ant
Ġcontin ually
Ġrest oring
set ting
fil m
Ġd m
Ġbar ry
Ġover haul
Ġl en
Ġcorre lation
Ġow ed
f ather
g un
re view
Ġb ip
Ġrang ed
Ġdis contin
Ġv lad
Ġapprent ices
pe z
Ġfederal ly
la undering
Ġpack ing
Ġcar los
Ġch ip
ro t
Ġro lled
Ġam al
person nel
Ġinvas ive
v y
Ġen cyclop
Ġcorrid or
Ġto dd
Ġcon se
Ġbank ers
Ġprof itable
Ġk w
eral ly
Ġinterv als
Ġtong ue
Ġtr im
Ġfert ility
> .
glo bal
Ġump ire
Ġdis bur
lu or
ur n
Ġr het
Ġjos h
se ptember
n ove
Ġpl aza
Ġdis k
Ġimport ing
Ġh ind
Ġentit lements
Ġpaint ings
Ġhost ilities
Ġgate way
Ġemb ed
Ġ11 7
on ian
Ġ( +
Ġdj ib
Ġwis dom
mis p
Ġlay ers
Ġbag gage
Ġwar ren
ry s
ul ent
dece mber
Ġmatthe w
Ġunc itral
imic rob
f lo
aa aa
r and
le ans
Ġquarter back
Ġf ried
Ġ11 3
Ġstring ent
epend ence
Ġsing ing
Ġdisappoint ing
Ġlink age
us ers
Ġm ors
us on
Ġcar b
Ġphot ography
Ġlou ise
Ġpredomin antly
Ġinv iting
14 0
Ġal beit
Ġscholars hip
isl amic
Ġen su
Ġmile age
Ġbackground s
Ġchair manship
ph al
m ary
p en
Ġshan ghai
Ġe igh
Ġrec k
Ġgen ome
Ġgeorg ian
Ġen velope
el ig
Ġl incoln
Ġrem itt
med ia
cr p
Ġmain land
Ġemp owered
Ġmoh amed
Ġvol can
ex per
Ġclean er
Ġresist ant
Ġvacc ination
Ġunder going
Ġext ensively
Ġmultid isciplinary
Ġ4 50
Ġbrut al
Ġtown ship
Ġmarri ages
Ġam pl
fa it
Ġtroub led
v ic
to o
Ġres iding
Ġwe ights
Ġw ik
is k
ct on
Ġdilig ence
Ġins erted
Ġs ake
gen eration
Ġmon uc
establ ished
4 16
Ġf on
Ġd ublin
Ġb il
Ġt d
Ġt ory
c ihr
Ġwh ale
Ġsp ark
Ġr hy
Ġfrancoph onie
Ġt c
Ġhe misp
Ġmh z
Ġexec utions
Ġsubs istence
Ġweigh ing
Ġant imicrob
Ġjurisprud ence
p ot
Ġmer kel
ell er
ig uous
Ġmerchand ise
ill ery
nut rition
Ġdi etary
Ġun limited
Ġst yl
Ġk le
h as
Ġpat ch
ch airs
Ġfore ver
Ġins ists
Ġhe nd
Ġter restrial
ator ium
Ã¨ res
Ġve t
he res
Ġunders c
3 50
Ġalab ama
Ġam en
Ġtem pt
Ġuncertain ties
Ġd ying
s al
Ġam ateur
Ġarchae ological
Ġsimpl ify
Ġbat ch
Ġa ur
Ġg ates
Ġdece ased
Ġfe ver
nove mber
Ġmin us
Ġsell s
Ġah mad
Ġco erc
sc ap
Ġtravel ing
Ġdisp uted
Ġhope ful
Ġiv an
Ġcelebr ations
ck er
e en
Ġtact ics
Ġreg iment
Ġâ Ī
Ġadap ting
Ġall ot
Ġemb race
Ġde an
Ġha ul
Ġkent ucky
Ġst akes
Ġvac u
Ġact u
Ġdr ives
Ġtob ago
Ġw right
ic ides
og ens
Ġwe u
Ġcoll ateral
Ġconfer red
Ġ" ...
201 3
Ġturkmen istan
Ġbrig ade
Ġad here
Ġspons oring
Ġautom obile
Ġnev ada
Ġinc on
Ġvac ancy
Ġgal ax
Ġsolic itor
Ġfacilit ator
uck er
1 60
Ġwood en
Ġintens ified
ann ual
Ġbelong s
Ġ* **
df o
is i
ch i
Ġ17 0
see kers
Ġstri ker
h d
Ġinterfe re
Ġqu o
ke eper
Ġed g
Ġfer ry
h ist
Ġins urg
Ġprob ation
ach ment
Ġtechn icians
Ġadequ acy
Ġwith hold
lo id
Ġrese tt
Ġ2 20
Ġbus es
Ġf y
Ġbi ke
d isc
Ġprote ins
depart ment
Ġassist ants
ep loy
Ġp on
Ġor leans
Ġpl un
Ġcl ou
Ġro gers
pa res
Ġut ah
ir s
Ġcr c
Ġencourage ment
ow s
atis f
Ġhol istic
n p
Ġcul min
Ġtraine es
Ġ3 60
Ġplay off
Ġsto pping
Ġkir k
Ġd uc
Ġillness es
Ġl one
ack ed
ok er
Ġrevolution ary
Ġgl uc
Ġresum ption
Ġob sc
10 4
Ġpron ounced
ab s
ap est
Ġcareg ivers
ator ial
b in
Ġjer ry
Ġdrain age
Ġab bre
spons ored
Ġv ap
Ġjour n
s ct
Ġ12 7
Ġemail s
Ġ12 1
Ġclass ical
Ġlog o
Ġque ens
Ġt ut
Ġfoot age
Ġgu itar
Ġfun ny
m other
Ġopen ly
Ġhards hip
Ġprosec utions
Ġde er
Ġter rain
Ġsn ap
Ġbut t
Ġ19 61
Ġconc urrent
h ma
Ġefflu ent
Ġvent ures
so ever
em ail
less ness
iv an
Ġparam ount
Ġspot ted
Ġorgan ise
Ġsil ic
Ġbre aches
Ġspecif ies
Ġshe ep
iz ers
Ġcl ash
Ġbang kok
Ġph oen
Ġtrain ers
be cause
Ġres on
Ġrepe al
Ġflood s
Ġse ab
Ġ13 8
Ġmcc ain
Ġadd itions
Ġpain ful
Ġexp iration
ur ious
im o
Ġincons ist
Ġsh ame
Ġk l
Ġfact ual
Ġafford ed
Ġelabor ated
ow ski
Ġax is
Ġk ay
Ġlu is
ol ar
Ġindu ced
in ate
Ġme g
Ġpow der
Ġdis regard
Ġproceed ed
Ġmon ograph
Ġre lying
Ġtrium ph
Ġpass ive
ugh ters
Ġfac simile
Ġpunish able
g Ã©
Ġconfir ming
Ġsimpl ification
v ine
Ġp ound
Ġpostp one
Ġpar ade
it ives
Ġmethod ological
do ing
oc y
t k
ï¿½ï¿½ ï¿½ï¿½
Ġo man
ch ap
Ġscar ce
am ble
r ats
Ġad r
es a
Ġfle e
Ġdefect s
os h
Ġappl iances
Ġy ahoo
Ġtext iles
ol o
Ġmusic ians
Ġfluct uations
Ġv ine
Ġp airs
Ġbenef iting
Ġto ys
Ġrenov ation
hor se
Ġappro ving
Ġdream s
je an
er ting
Ġinde bted
ir ical
Ġintellig ent
d ated
Ġcin ema
Ġlat itude
Ġprecaution ary
x ts
Ġd ried
Ġpre pares
f arm
Ġann a
Ġinval id
Ø §
Ġforens ic
10 6
Ġhuman ities
Ġpra ised
Ġc ds
Ġloc ate
cent re
Ġboard ing
Ġn oc
Ġfocuss ed
Ġmamm als
Ġ12 8
Ġprofit ability
Ġe esc
any ahu
Ġpost ers
Ġmicro b
Ġlong est
Ġpi racy
i ke
Ġdjib outi
re search
pl aces
Ġexped itious
ad ata
Ġ vern
Ġbehaviour al
Ġrefe ree
Ġs v
Ġstu art
Ġtub es
Ġcauc as
Ġb enn
Ġn g
Ġa a
Ġgre ens
Ġin ver
Ġk an
Ġprevent s
Ġdissemin ated
Ġn c
min ster
ill es
nat ural
Ġg el
Ġbed room
ss on
Ġhar b
es y
Ġa rose
Ġposition ed
Ġb ic
Ġr ust
Ġattain ed
ub a
Ġsal ts
Ġutil ize
Ġsu ms
of i
Ġcharl otte
Ġe ager
Ġth read
Ġde re
Ġcross ed
d ou
Ġsh ipped
Ġart ifact
9 02
du ced
Ġju ice
Ġhe sit
Ġy en
Ġden ies
Ġmulticultural ism
as sion
Ġspr ings
Ġpestic ide
Ġcondition ing
mem bers
Ġpain ted
elect ric
al igned
Ġtoile t
rap y
Ġide ally
Ġchild care
s ing
Ġavoid ance
Ġb ass
30 6
Ġdro pping
Ġbreak through
Ġpal m
hel p
in ers
Ġorganiz ers
Ġfarm er
Ġconv inc
Ġssh rc
Ġsent encing
contrib uting
leg al
Ġpark er
ass essment
Ġsim ulation
Ġdiplom a
Ġrecommend ing
Ġmus c
Ġnet anyahu
Ġacadem ics
Ġsurprising ly
Ġm ak
Ġm ouse
il and
Ġpolit ician
Ġrig id
t z
Ġmichel le
Ġ19 30
Ġland mark
Ġmeas urable
ag r
o ecd
Ġexpect ancy
Ġprofess ions
Ġyanke es
Ġjud ged
Ġp ist
ord inated
Ġcommand ers
Ġdiscuss es
Ġteen age
Ġa ston
a j
Ġemploy ing
â ĸ
Ġcomptroll ership
b ility
Ġch al
Ġmount ing
Ġand or
tim ore
enn ial
Ġdeduct ed
Ġinteroper ability
Ġcoc aine
Ġhead ings
Ġevol ve
Ġmar ino
c redit
Ġslow down
Ġanonym ity
c all
Ġmarg aret
og ene
Ġform ulating
Ġtax i
Ġprosec uted
Ġunde rest
Ġc ca
Ġbo oth
Ġwar fare
aw ning
Ġn ie
23 3
Ġnick el
Ġsuper ann
Ġdesper ate
prote ct
Ġimp etus
Ġregist rant
Ġexplo ited
h rc
Ġmis use
Ġdisp at
Ġsam sung
Ġst ur
Ġcontro ller
ret t
Ġalternative ly
Ġtermin ate
Ġreb ounds
u f
Ġand rÃ©
sm oking
Ġl Ã©
Ġfem in
Ġunanim ous
Ġbh utan
im ated
Ġafter wards
Ġadv ising
ten ham
Ġred und
Ġnegative ly
ri que
Ġche que
Ġpled ges
Ġeth n
Ġshel ters
Ġvol t
Ġdev ote
Ġload s
Ġn ac
alth ough
wa ii
Ġre id
Ġim minent
Ġge ological
Ġpo le
Ġferg uson
Ġgradu ation
Ġdel hi
Ġinter val
Ġharmon ize
Ġpract ically
Ġmarginal ized
Ġc bc
h t
uss ions
Ġwarrant ed
Ġpre y
Ġb ent
c losed
Ġdesign ers
Ġmedic ations
Ġconfron ted
Ġphys i
Ġpool s
Ġmississ ippi
Ġcooper ating
Ġconst ru
1 12
Ġaccru ed
g ara
Ġbas har
Ġlove ly
Ġqu ote
Ġinfring e
ple ase
nic ks
ur i
Ġrevol ving
v iii
ling ton
Ġr ue
Ġsh aw
om ics
Ġc atherine
Ġdefe ated
ru le
port s
Ġcommand ing
Ġwant ing
gest ion
Ġgon z
Ġtherap ies
he im
Ġdisp ens
Ġcomp lying
Ġser ial
inte rest
Ġno x
g reat
he art
Ġkid ney
Ġ19 66
vi ol
Ġd ys
ict on
Ġs ends
ind ic
Ġcur ve
Ġdon ated
Ġinstruct ed
Ġw ool
ich lor
Ġannoun cing
Ġk aren
Ġins c
Ġisol ates
an al
an te
Ġpit ts
Ġbal ancing
Ġexhaust ed
it ated
is en
Ġcharl ie
Ġrom antic
Ġd well
Ġmoist ure
Ġreal ise
Ġfather s
oc ar
Ġhis pan
ile e
Ġcol omb
m af
Ġsh out
Ġb ust
Ġequ ation
develop ed
Ġc ort
Ġweight ed
keep ers
Ġl ion
10 7
Ġathlet ic
Ġalt ogether
Ġanticip ate
Ġmyst ery
Ġb acks
Ġw ick
Ġro ster
Ġtw ist
Ġun int
Ġparticip ates
Ġfront ier
Ġorient ed
b ol
ific ant
Ġsim pson
11 5
Ġdown ward
g ene
ir us
Ġplan es
Ġinde fin
Ġphoen ix
n f
Ġd fait
arm ed
Ġte eth
Ġins ights
Ġmet adata
Ġsupplement ed
effect iveness
Ġd ressed
Ġdeport ation
Ġcalib ration
... ]
Ġsatell ites
gol ese
Ġad obe
Ġbattal ion
Ġst ones
Ġpra ise
Ġde af
Ġdeliber ately
Ġl ub
Ġk nicks
Ġcell ular
Ġwhe els
pie ce
Ġw ings
Ġr uth
Ġumb rella
Ġhy dra
Ġred eploy
Ġmilest one
Ġsupp lements
Ġdem ol
Ġshap ing
Ġha v
Ġk ath
Ġsuperann uation
def ined
Ġgenet ics
Ġp ork
Ġout lining
Ġla val
Ġcomplain ants
Ð¾ Ð
j uly
Ġflo ors
lam m
Ġg em
Ġbroad way
Ġimm ense
Ġno bel
Ġs ds
Ġp f
Ġcons ulate
Ġcan nab
Ġinf ra
Ġcharacter ised
Ġevac uation
Ġ _
Ġmagn ific
Ġpent agon
d ol
h v
ray ed
u its
ot es
Ġshif ted
if i
Ġdiffer ing
Ġstat ic
Ġpolicy makers
Ġdefend ants
Ġe asing
Ġda ughters
Ġallev iate
wal k
Ġave c
Ġadop ts
bo y
Ġto mat
Ġhe ated
Ġdecre ases
Ġspir its
g iving
Ġwhat soever
na ics
Ġpre amble
Ġbel ize
Ġin ception
Ġg or
Ġbit ter
Ġimmun ities
Ġimp lied
Ġapplic ability
Ġv in
Ġje ws
Ġsit u
Ġconc ord
Ġast hma
Ġno ble
Ġcons piracy
Ġr d
fed eral
p Ã©
Ġpar cel
Ġpotato es
Ġde velo
Ġeth yl
Ġm sc
Ġrock y
Ġexp ire
Ġlay out
list ed
Ġout rage
Ġabsor ption
Ġeld ers
Ġt in
Ġres ur
Ġd aw
h op
Ġc tc
ou st
z i
Ġhe ath
Ġguy ana
Ġev il
t ure
Ġ( Â£
Ġdown s
Ġlack ed
t ri
state ment
un ct
Ġman o
olog ic
Ġtimel iness
Ġcommun iqu
cer y
c re
q s
Ġsoci Ã©tÃ©
s essional
Ġliberal isation
r ons
Ġhad n
m eth
Ġcorrespond s
Ġrob in
Ġstun ning
p ierre
Ġdest ro
Ġguard ians
Ġre now
Ġno se
Ġn ag
ave z
Ġwater ways
Ġcor rupt
Ġdeal er
Ġpass er
Ġamb ul
Ġworth y
Ġamal gam
Ġappear ances
Ġchrist ians
Ġmur phy
Ġjust in
Ġl ays
Ġit c
Ġunfort unate
Ġinstit uted
Ġlivelihood s
Ġorche stra
Ġinstal ment
Ġsubscrib ers
Ġinv oked
10 2
Ġsoci etal
Ġvac ancies
ne um
Ġjourn als
Ġsp acious
Ġinterpret ations
Ġge ared
eth nic
Ġproport ions
Ġcra zy
Ġarbit ral
Ġfellow ship
Ġslow er
Ġinher it
g on
Ġfrancoph ones
st ri
Ġv ie
Ġs na
tre ated
fe eding
Ġcivil izations
Ġencyclop edia
Ġun ops
Ġtouc hed
Ġuseful ness
Ġhug hes
road s
Ġlev y
k ov
k it
Ġrecover ing
Ġimplic it
fu els
Ġspecial ised
Ġconvers ations
Ġh ull
Ġor bit
Ġ13 2
Ġstre ak
Ġfest ivals
Ġunve iled
a it
Ġpromot ions
Ġne pad
oc al
Ġl acks
int rodu
Ġhost ile
discr imin
Ġpock et
an ian
dro p
Ġimpair ment
Ġa rom
ful l
Ġkn ight
Ġway ne
ad op
Ġne x
Ġseem ingly
Ġsu its
Ġbish op
ian g
Ġar re
Ġstream line
ink i
ĠrÃ© g
Ġreorgan ization
Ġmor atorium
Ã©n Ã©
Ġtra uma
Ġlong time
Ġflo ating
exhib it
Ġtrain er
Ġre building
und p
n ik
vide o
Ġgar age
Ġmc donald
Ġremem bered
Ġstor ms
Ġchar ming
Ġmid night
Ġw i
hed ral
writ ing
un ting
pur pose
Ġsm el
Ġtig er
th ood
Ġ ub
Ġland scap
Ġfe ared
Ġaver aged
Ġrespond s
Ġweak er
d t
Ġvacu um
Ġs Ã©
Ġh ood
Ġdisturb ance
re ference
Ġfl ame
Ġsu ites
Ġrest s
im ir
Ġpra g
Ġinsure rs
Ġis tan
Ġoutbreak s
at ur
Ġse aled
Ġbud apest
Ġdissemin ating
Ġfier ce
d oping
Ġhr dc
Ġke ith
Ġsurg ical
Ġf ry
Ġsc our
Ġt amp
. ]
r p
Ġd h
Ġk or
uc king
Ġbal timore
Ġcross ings
Ġreg isters
Ġistan bul
Ġtwel fth
Ġlug gage
Ġimp ressed
Ġconstitu ent
Ġdig est
Ġhack ing
link ed
af ety
19 89
Ġk r
Ġa pt
Ġworry ing
connect ed
Ġprerequ isite
us a
Ġre build
Ġinter change
Ġallow able
Ġteen agers
Ġfact ories
Ġmanifest ations
Ġviol ating
Ġvib rant
Ġ12 9
Ġextra budgetary
Ġexch anged
Ġ13 3
Ġsh i
Ġlaur ier
Ġny times
b rit
ac her
Ġcountry side
Ġlong itudinal
Ġdelic ate
con ne
Ġwor s
Ġneighb ors
Ġpow ell
Ġla und
Ġcoll apsed
Ġpet rol
an ic
g ate
Ġm Ã©
Ġnot re
Ġdecentral ization
Ġbroad en
Ġt rent
ard ed
Ġassemb led
sm all
Ġk rist
Ġst ric
Ġred es
Ġbuff alo
Ġdod gers
Ġdist ances
Ġsub region
Ġver de
Ġbah amas
Ġr ut
be y
iar ity
Ġm oss
Ġart illery
Ġbi os
Ġthr ust
Ġwe ld
Ġce ment
Ġconnect ivity
Ġlast ed
Ġc ac
Ġsub mar
Ġimpartial ity
d ependent
g m
ass ad
Ġz inc
m ilitary
Ġs isters
Ġd pr
Ġnot ifications
Ġind em
ex ec
Ġforecast ing
Ġred ist
Ġtelecommunic ation
xx xx
Ġmixt ures
Ġele ven
z ai
Ġtra ils
Ġmors i
Ġapprox imate
le tt
Ġ19 58
Ġfolk lore
n els
Ġgra ins
en os
Ġsupply ing
Ġse ize
Ġten nes
Ġtal ented
environ mental
Ġcaut ious
polit ical
Ġph d
Ġconf ine
Ġmar ital
Ġprestig ious
Ġmass acre
Ġe li
Ġcommer cially
ct mr
Ġa ide
Ġappeal ing
Ġarre ars
Ġinterpre ters
Ġimp aired
Ġw y
Ġfin als
Ġann ot
Ġprincip ally
Ġmort g
Ġgrie v
Ġunr wa
rec ord
Ġin ventions
Ġsle eping
Ġportra it
Ġjim my
Ġ19 51
Ġteen ager
c ourt
ab ad
Ġthrow ing
Ġsign atories
Ġcourt esy
che l
tod ay
Ġt ired
Ġse an
lf riend
back ed
Ġat las
Ġenlar ged
Ġoptim ism
pl ing
Ġlet ting
Ġsince re
th ink
Ġinvo ice
Ġmon cton
Ġbo ot
p ic
ik i
5 14
Ġintim idation
ack ing
c ity
Ġpractition er
Ġt ale
Ġcontrad ict
Ġco e
d an
Ġch avez
cer t
Ġfundamental ly
Ġc ir
Ġbene ath
discrimin atory
Ġpreced ent
tra c
Ġbiograph y
Ġsent iment
Ġg ad
Ġanalys ing
Ġcampaign ing
low s
Ġass erted
report ed
n t
Ġsh allow
Ġorder ing
Ġcarib ou
ge on
bat im
log ical
Ġandor ra
Ġsp arked
Ġmain e
Ġbatt les
so far
j u
re b
Ġadvis ories
Ġthreat ens
Ġconflic ting
v on
Ġconfront ation
Ġad mits
Ġrev is
Ġl amb
em ia
Ġup ward
atic an
min es
Ġmicro bi
cept ive
ath on
Ġincorpor ates
Ġconsolid ating
Ġresid ues
Ġcrack down
Ġbu g
Ġgenuine ly
Ġmar ry
Ġsomal i
ig hed
Ã ¥
Ġra id
Ġspecim ens
ins urance
Ġmal nutrition
Ġpurch aser
Ġ19 65
Ġsam oa
ib and
Ġposition ing
Ġcirc les
val ue
b ie
Ġprofessional ism
mor gan
Ġpat ro
Ġk and
Ġcomb inations
Ġfort une
ah ar
Ġst ays
Ġphotograp her
Ġprov ing
16 8
Ġincom ing
Ġrhet oric
pp s
in ch
Ġcha os
Ġtem ple
Ġange l
Ġs gt
Ġirr igation
Ġen forcing
Ġshap ed
Ġse ating
rib ution
Ġc rick
Ġph ased
Ġver batim
c ourse
Ġnow here
Ġg ps
sp s
Ġarth ur
Ġ ).
d ives
min ded
Ġtrust s
Ġind is
Ġagree ing
is o
Ġcf b
il ib
........ ....
Ġdetri mental
10 3
Ġwal ks
w c
Ġre wards
Ġk o
Ġc ott
r anging
Ġsc al
Ġprison er
Ġinflu encing
Ġced aw
Ġen um
Ġdirect ing
Ġfed erer
Ġkn ock
ig ration
Ġestim ation
Ġabst entions
Ġw ang
Ġsub heading
Ġadv ises
se tt
Ġsick ness
50 6
rop ic
Ġtennes see
Ġcol ony
40 3
Ġpitts burgh
Ġg b
Ġind ices
Ġd ot
c iv
n as
ger many
Ġro th
Ġplain s
Ġin sofar
che z
Ġb ache
j or
n um
Ġdeb ated
Ġv atican
Ġn ancy
Ġpr Ã©
Ġ2 30
Ġrep ar
Ġimpro ves
Ġlis a
Ġelev ator
Ġsche n
i Äĩ
Ġfle w
Ġk i
c lear
Ġentrepreneur ial
Ġrele asing
pat ient
Ġfranc s
Ġvend ors
Ġdefic iency
Ġvic inity
Ġse gregation
ir ut
Ġun t
oc ratic
Ġw it
Ġf og
Ġgu er
indust ry
Ġunsuccess ful
Ġin qu
Ã© ration
Ġwest minster
ol y
Ġsh ake
Ġaux il
ter ior
Ġpat ric
d ish
Ġphenomen a
vel and
Ġexc av
lo o
Ġange ls
b ir
Ġs ut
Ġconte xts
Ġcannab is
Ġld ct
Ġemploy s
Ġinfant ry
Ġir rit
Ġroman ian
Ġpropri et
Ġsort s
i ations
Ġcount ies
Ġturn out
Ġcur b
Ġunif em
Ġev id
Ġscreen ed
or ously
Ġobserv ing
Ġvalid ated
Ġjuven iles
Ġrevers ed
Ġwh ales
grow ing
Ġsuscept ible
Ġargent ine
imp lement
Ġd uck
exc luding
y r
or ph
et a
Ġwar n
ven ed
Ġmil iband
h ner
Ġhol mes
Ġisrael is
ong o
iche ver
ru ce
Ġsustain ing
Ġent ails
bl ack
Ġshow case
Ġhar ness
Ġle an
Ġneighbor ing
Ġstereotyp es
Ġjub ilee
ro cal
st uffs
Ġf ing
Ġhel s
Ġp icking
load ing
Ġgroup ed
fis cal
commit tees
d rew
h ouses
g ins
Ġâ ī
Ġpersu ade
in als
w to
Ġab ort
Ġpropon ents
Ġev ange
Ġthr one
Ġprin cess
organ ic
end as
ke e
ne red
Ġinterpret ing
Ġsec ular
Ġhe ights
Ġwa iver
Ġm ould
Ġw ag
Ġvoy age
Ġlit erally
Ġcauc us
Ġv ague
Ġloun ge
Ġrev ocation
Ġassum es
w ed
Ġfa res
Ġflu or
Ġsque e
Ġb ind
Ġfal k
ro up
Ġh orm
o vers
10 8
s n
Ġmonu ments
Ġs its
termin ate
Ġdecor ated
Ġhels inki
Ġup stream
Ġsol ved
Ġwel sh
Ġh oms
Ġhand ic
Ġbro kers
ab y
Ġeuro stat
Ġindustrial ized
Ġ19 48
Ġconc ur
Ġchrist ie
Ġpet itions
ys ical
Ġment ally
j ob
Ġdub ai
Ġwh is
) ),
Ġrest ructure
Ġdesk top
Ġsubsid iaries
Ġbry ant
Ġendeav ours
oth y
Ġwor n
ming ham
ub le
Ġpri x
Ġpresc rib
Ġadvoc ated
Ġinf er
ps y
Ġpollut ant
Ġ(- >
n uclear
Ġh ib
Ġnort her
Ġdisappoint ment
Ġperiod ical
Ġmiss ouri
Ġpassport s
Ġ0 22
Ġpred iction
Ġt Ã©l
lic ted
Ġac ro
Ġembed ded
Ġ9 57
or ms
Ġleg ality
pr incip
res ist
Ġbid ding
with out
co e
Ġflag s
it ution
Ġeth anol
Ġic on
Ġâĸ ł
Ġbrief ed
Ġs ib
Ġ12 6
Ġbroch ure
Ġpul ling
Ġsc ream
Ġgradu ated
Ġstud ios
Ġca ve
Ġt abling
Ġ12 4
Ġcompet ences
Ġenact ment
al ph
Ġk a
Ġprivile ged
ow as
Ġamb ition
Ġenzy me
as m
ch ron
cle an
Ġtot alling
Ġz h
Ġamb itions
Ġre ign
Ġcorrespond ent
Ġvoc al
Ġvir al
Ġmanual s
Ġsla ughter
m il
Ġ19 63
Ġrep et
Ġbott les
s omet
im port
Ġrisk y
" :
Ġundermin ed
Ġsubsc ription
Ġhm cs
Ġ17 5
' '
Ġan ten
Ġsimult aneous
que bec
Ġalph a
Ġcomb ines
Ġbrad ley
Ġs ars
Ġwor ries
Ġsty les
Ġres ide
Ġdepend ency
Ġpath s
Ġla o
Ġbret on
Ġsudan ese
Ġlobby ing
an che
Ġh oney
Ġarth ritis
Ġserge ant
ar ious
Ġdest ined
Ġnew castle
Ġstream lining
Ġad missible
Ġdistrib uting
Ġmal dives
Ġdiss olved
Ġwrong ful
Ġup take
Ġrepe aled
j apan
Ġabsor b
n amed
Ġl aser
Ġinform ants
th ous
ent iary
Ġpap ua
la im
pri or
ox ide
Ġsh irt
ors hip
r idge
Ġon set
Ġcent r
Ġfav oured
Ġthreshold s
ra cies
de z
Ġs per
tra ining
Ġkg m
b lo
Ġtro phy
Ġrhy th
Ġgat ineau
fore station
Ġcolum ns
Ġapp arel
Ġnew com
Ġ ..
is ible
add itional
18 0
ester ly
Ġtur ner
Ġun used
loc al
Ġremed ial
Ġmortg ages
Ġrestric ting
rif ice
Ġhe x
se ments
chr ist
Ġd ancing
Ġint act
Ġp neum
Ġhydra ul
Ġill iter
all ic
Ġpers istence
Ġ ____
in os
Ġven ice
Ġpreca utions
Ġpal ais
Ġf iction
Ġrequ isite
Ġdom est
w atch
Ġsan ct
Ġh q
Ġdevelo per
Ġl on
Ġoffer ings
Ġsoon er
Ġabund ant
writ ten
Ġsain ts
Ġlaun ches
Ġinspector ate
Ġcogn itive
Ġmun itions
Ġpl astics
organ isms
aut ical
ran et
work ers
Ġgang s
Ġvolat ility
Ġprogress ively
Ġ ....
Ġpsych ology
Ġhill ary
Ġexc use
Ġw ip
ari um
Ġpatent ed
Ġencompass es
Ġdial og
p ing
ot ion
Ġalex and
Ġlower ing
Ġconvinc ing
l is
Ġv ou
Ġendors es
Ġtot als
d les
Ġag endas
Ġcod ing
Ġcaucas us
ab e
12 3
Ġprem iere
te br
Ġsec re
2 20
Ġin acc
Ġintrodu ces
if iers
Ġmobil izing
Ġgab on
Ġprob able
Ġr f
Ġthick ness
Ġreimb ursed
Ġder by
Ġambass ad
Ġl enn
Ġemp irical
Ġrenow ned
Ġjam ie
Ġper tain
Ġat oms
Ġapp s
Ġsm ile
Ġad ams
un f
Ġcoll ision
al ien
oc op
Ġpc bs
Ġwh ichever
Ġseek ers
ia z
Ġp es
Ġbe et
Ġc ure
Ġcin em
Ġadjour n
Ġmagnific ent
Ġwith drew
Ġstom ach
Ġstra w
Ġspot light
Ġd ug
Ġn m
Ġepidemi ology
wh y
Ġpro min
Ġman usc
Ġtorn ado
Ġ14 7
Ġpilot age
Ġquart et
Ġcrit ically
t ically
Ġ2 60
Ġearm arked
Ġl anc
Ġbacter ial
Ġmind ful
m and
t u
Ġjp morgan
Ġpharm acy
Ġinvo ices
Ġ19 62
Ġaffir med
Ġdro ps
s ay
Ġ19 64
Ġrese mb
Ġw ore
Ġcomp art
Ġjail ed
Ġric o
b age
Ġrel ay
Ġin ning
els on
Ġp ant
Ġc ous
ks hire
h on
Ġr fp
Ġinter section
s pr
Ġbou lev
Ġbar ley
Ġge or
Ġchrist ine
Ġand roid
Ġover coming
Ġfoot wear
is ers
Ġr s
aff aires
Ġphys ics
Ġf s
Ġe e
Ġunw illing
Ġordin ance
Ġsu z
Ġr idge
Ġg ul
op a
Ġmis under
Ġvit ro
1 19
Ġav al
Ġabd ul
Ġh anging
Ġr iot
Ġbar rel
Ġcat hedral
inc re
Ġcollabor ating
Ġfrust rated
Ġamount ing
Ġsubsid iarity
as ia
c urrent
l amp
Ġsec rets
19 88
Ġbio fuels
Ġa est
Ġag ro
Ġfix ing
Ġl ig
00 2
Ġw ig
Ġtr ump
elig ible
Ġj ag
Ġprosper ous
Ġ13 6
re aching
trad itional
Ġiniti ating
chair person
Ġp ale
Ġst ark
Ġabdu ction
ah n
Ġclar ke
Ġ( %)
Ġsens ible
Ġvac ant
Ġnis ga
part icip
Ġab ide
Ġcle veland
ver sion
Ġundersc ored
Ġin effective
Ġpray er
Ġ[ ...]
Ġox ide
Ġpa ed
Ġkin der
Ġn ia
Ġrecip rocal
Ġment oring
land o
Ġpl um
Ġsens ing
Ġvlad imir
Ġdischar ged
Ġbed rooms
st orm
it ory
Ġ19 40
Ġcar pet
Ġen se
Ġeuro system
Ġav ian
Ġrefund s
ve t
Ġres idency
Ġcolon ies
Ġban ff
Ġgau ge
Ġh d
Ġv oid
Ġ22 5
Ġtreas ure
- ,
Ġslo pe
Ġsp awning
Ġsed iments
Ġpat ron
our ced
Ġtechn ician
Ġgab ri
Ġfor g
Ġb m
Ġben j
f inding
Ġste pping
Ġequival ents
leg g
Ġgl en
or ious
Ġsu e
Ġd iving
Ġschedul ing
intern et
i ative
Ġsp y
bour ne
Ġcon golese
Ġdistrib utor
Ġpred ictions
met a
re fer
av ed
h all
Ġw ade
i otic
app end
Ġcritic ised
Ġped iatric
Ġdescript ive
Ġd y
Ġroyal ty
Ġethnic ity
Ġpa ren
Ġpc b
Ġexpos ures
Ġl ender
Ġh ort
ph il
Ġsp ont
ul ator
Ġstim ulating
Ġrenov ated
ur d
Ġconf used
Ġn ash
Ġj aw
Ġte ens
ve z
Ġreal izing
Ġinh al
Ġresett lement
Ġhealth ier
Ġgrow s
icy cle
Ġmonopol y
Ġed itors
ok ovic
r als
Ġsuperv ised
Ġammon ia
reg ulated
am end
d uty
Ġn in
Ġmanu el
Ġinsure r
Ġepis odes
Ġliber ties
Ġaffil iates
Ġbe irut
Ġbroadc aster
Ġb am
ag a
Ġse l
ĠfranÃ§ ois
mit t
Ġpack aged
t b
Ġbe verage
feb ruary
Ã¨ ne
Ġdisproportion ate
Ġt enders
Ġunder gone
Ġirregular ities
Ġbra king
Ġluc ia
f uel
Ġprocess ors
Ġun res
Ġimpact ed
Ġfinal ize
Ġflow er
oll ah
Ġle ves
d b
Ġsac rifice
Ġanaly zing
Ġor b
Ġbur ma
Ġ19 45
Ġbo ots
Ġexclud es
hes ive
Ġhead lines
Ġlog ging
mar ie
Ġsh ocked
part ite
c rit
Ġfore front
Ġp ren
Ġrock ets
Ġcrow ds
Ġdj okovic
m ir
Ġd anny
oth o
Ġsac rific
Ġconstitu ency
Ġdelic ious
Ġe cc
Ġk ofi
Ġfoot ing
Ġdil ution
chem ical
Ġf en
Ġborrow ers
i ol
Ġsur pass
Ġchar gÃ©
@ @
Ġbar rels
Ġfunction ality
h ost
Ġle ts
Ġtest ify
Ġconstitu ents
Ã¡Ã¡Ã¡Ã¡ Ã¡Ã¡Ã¡Ã¡
gh azi
Ġrevital ization
Ġsu pra
g b
Ġfin trac
Ġu v
de v
Ġ24 0
Ġabol ished
Ġ }
Ġfit ting
Ġcomp lies
pay ment
uc c
Ġho ok
Ġs lop
Ġle ases
Ġ14 9
Ġbal con
Ġaust in
Ġtear s
eng ine
Ġparaly mp
Ġauthor izing
Ġase an
Ġalban ian
Ġabbre vi
201 2
Ġaccommod ations
cf m
Ġfat ty
Ġcorner stone
Ġl ut
Ġdisag gregated
Ġth oms
Ġtake over
Ġgalax y
Ġc ns
Ġfin ed
11 3
Ġsolic itation
Ġcounter vail
Ġpiv otal
Ġloyal ty
e us
Ġserious ness
Ġslow ed
Ġp ile
Ġpro jection
h aw
Ġgen ital
Ġpip es
Ġlind a
Ġx ml
Ġtrust ed
Ġacadem ia
Ġapp et
Ġc legg
Ġp add
Ġdeclar ing
b ase
t un
Ġpsych iat
Ġbuff et
Ġadjust ing
con ference
Ġl ens
Ġdeposit ary
n ation
ang le
Ġschol ar
Ġdomest ically
Ġgir lfriend
Ġcommuniqu Ã©
Ġblock ing
Ġinde terminate
Ġper f
Ġattra ction
Ġes pa
Ġdia gram
Ġcrick et
Ġl ing
Ġtamp a
Ġmult ilingual
n umber
it ations
Ġan omal
Ġstraight forward
Ù Ħ
Ġk iss
Ġben ghazi
compet itive
Ġs es
cor ruption
Ġtermin als
Ġescap ed
Ġbache lor
Ġper missible
Ġnumer ical
b enz
Ġb ert
Ġdis pose
Ġreform ing
Ġprox y
Ġlloy d
Ġmilit ant
ast ed
Ġcan ce
Ġ vel
co pe
u er
Ġcreat or
Ġtra pped
ph ot
Ġmed als
he x
ed ge
Ġm ate
Ġcla ude
Ġange la
Ġstem s
Ġsummar izes
and ed
Ġther m
Ġo as
arch ing
Ġbelie ving
Ġident ities
el ing
Ġpre f
Ġsp heres
Ġpract icable
Ġgrow ers
Ġinterd ependence
qu Ã©bec
produ ction
prof essional
Ġron ald
Ġg ust
Ġpropos ition
Ġbel grade
Ġactiv ation
joh n
Ġgraph ics
c ious
h ave
Ġhe y
Ġj as
Ġland mines
Ġhon oured
compan ied
om ers
jan uary
Ġdun can
Ġoh im
g re
Ġpres iding
Ġrem it
ix on
Ġmot ions
ym ond
Ġapportion ment
Ġd red
Ġph on
Ġtroub les
Ġra ck
Ġ8 50
st ore
Ġsp urs
Ġheight ened
âĸ ł
Ġschen gen
te x
Ġfol ks
Ġsw an
Ġpresum ably
Ġbir mingham
Ġlar ry
in iti
Ġbl ues
Ġreal ised
Ġcont ention
Ġkick ed
c ust
Ġgot ten
Ġpresum ed
Ġprof iciency
ott etown
Ġsupp orter
t les
Ġbr une
Ġpreclud e
Ġky i
Ġip cc
or igin
Ġregist rations
Ġsurv iving
k u
fore st
Ġg ats
Ġle ap
v ised
Ġcont ended
is rael
Ġceremon ies
ro d
Ġrecru its
writ er
Ġs ands
Ġmetabol ism
Ġdemonst rators
Ġnord ic
Ġ14 6
Ġalph abet
Ġbenj amin
Ġs ig
Ġboe hner
Ġsur in
Ġwil der
Ġf its
Ġcomm ends
Ġser vers
Ġdiscretion ary
Ġsol icit
thous ands
Ġf ug
Ġmy ster
Ġlie u
Ġrat ifying
Ġrid ic
serv ices
Ġmun ich
Ġstat istically
Ġbreat hing
Ġhost el
Ġthird s
om o
Ġpet ra
Ġconse il
ov an
Ġep ic
Ġgamb ling
append ix
lo qu
Ġpaul o
gro under
Ġflow ing
Ġcomplement ed
Ġh os
load ed
Ġr t
osp here
rapport eur
Ġactiv ated
Ġz oo
y our
Ġder ive
Ġdiss atisf
Ġrelax ation
Ġstan ford
Ġn f
Ġab normal
11 4
Ġlear ners
Ġdepend ants
Ġd iction
Ġbook ed
Ġra fa
Ġstream lined
enc ia
Ġm og
Ġcast ing
ant i
Ġforesee able
Ġen ric
Ġincred ibly
Ġsac red
Ġs q
Ġtra p
im on
ik es
s ince
bro ok
lo ss
c ile
Ġ14 2
Ġins ider
Ġtet ra
Ġre op
Ġ2 10
a ise
Ġhe m
od ox
Ġca fe
m ium
Ġd iane
Ġco ex
Ġs ne
Ġjess ica
Ġbid ders
Ġblo c
Ġpress ed
Ġspokes person
Ġback log
Ġ ),
Ġv iv
Ġ13 7
Ġabandon ment
j ard
Ġspeed s
Ġc res
Ġp iano
Ġpop s
Ġsett ling
Ġeffic iencies
Ġme adow
hy de
Ġbu zz
Ġacceler ating
Ġcypri ot
f ly
Ġsu u
ac s
b ish
al am
Ġpartner ing
Ġrelax ing
Ġsa iling
ag ricult
product s
Ġouts ourcing
Ġdress ing
on ce
Ġer n
Ġsymbol ic
Ġlaund ry
Ġswe ep
Ġsmart phone
Ġqu asi
Ġrec her
Ġprair ies
Ġpartic le
un ep
ic om
Ġ14 5
Ġnor man
Ġcongrat ulations
Ġa j
c ill
Ġover lo
Ġpa ve
Ġcapit als
Ġunder line
Ġboulev ard
Ġcom ic
Ġ13 4
fa o
Ġsn p
Ġdisturb ing
pp e
Ġlow ered
Ġadvertise ments
Ġsecre cy
Ġimp lant
Ġsp ray
Ġcentral ized
Ġsyn ergy
Ġwid ening
Ġam y
az iland
Ġbrack ets
Ġinter cept
Ġsurround ings
Ġpreced ed
cit iz
Ġmemb rane
or f
t oc
in duced
Ġch ips
Ġrep os
es pecially
Ġeag le
ig e
ut s
Ġnic olas
Ġor phan
Ġpop ulated
Ġinterd isciplinary
Ġphill ips
Ġbr ist
Ġm end
Ġany more
led on
av a
Ġdeb ian
Ġden ying
Ġimp ress
Ġend uring
Ġa ides
Ġwrong doing
Ġref urb
Ġcomp assion
Ġor lando
Ġsh ocks
Ġ14 1
Ġrelax ed
st ake
Ġstrugg les
Ġmix ing
Ġsing h
Ġsubsid ized
se ts
lar gest
Ġic ts
omm ission
Ġch rys
Ġcard iac
Ġderog ation
Ġgall eries
Ġmar athon
de en
Ġback drop
Ġdr ill
Ġsa p
Ġprin ter
Ġ ud
Ġco x
Ġw reck
Ġacc eded
tk f
Ġse ism
Ġflor a
Ġimp lements
Ġaffirm ative
Ġin alien
sh ow
n b
Ġslow ing
Ġb icycle
Ġsl ave
l ou
duct ed
Ġsmall est
Ġlot tery
se in
Ġequal ization
Ġip o
Ġtoug her
Ġis a
Ġaccident al
Ġar k
te c
Ġblo ody
p lic
dol lar
Ġfrequ encies
fol low
Ġkar l
Ġc iat
Ġden is
Ġdomin ate
Ġgreen land
Ġnorm ative
Ġpatric ia
h arm
Ġdiff ers
Ġsuper b
Ġinj ust
Ġimag ination
Ġgr asp
Ġpath ogens
f ia
a pe
Ġopt imum
Ġeld er
Ġpreval ent
Ġy og
Ġro tary
red ict
Ġexec ute
Ġbe ans
Ġhemisp here
Ġre ne
Ġ16 5
Ġden om
Ġfertil izer
meas ures
Ġcomprom ised
li que
od a
Ġsett lers
Ġauxil iary
Ġche er
Ġman n
Ġupgra ded
Ġastron aut
Ġban ning
Ġcr ust
Ġcharacter ization
Ġstem ming
Ġpropag anda
u i
Ġ________________________________ ________________________________
ou x
Ġal loy
te am
c rc
Ġregister ing
id ine
Ġam ph
Ġclar ifying
Ġback up
en ay
are a
Ġins pected
c is
Ġc v
gr tkf
Ġserv ant
Ġs ore
Ġro oted
Ġra ymond
Ġreason ing
Ġac ron
Ġt ul
Ġapp oin
Ġmo ose
aug ust
Ġirre le
Ġ13 1
Ġrefrig er
Ġang lop
Ġwar ri
Ġaer on
Ġpl ots
ochem ical
Ġspec ifying
âĸł âĸł
Ġrun way
Ġdesc end
Ġles otho
Ġactu arial
Ġbusiness man
ob ic
r ors
Ġl ent
pa rent
Ġf ake
Ġhypothes is
bu ilt
2 25
regist ered
Ġdiff usion
Ġoversee ing
Ġnia gara
Ġinalien able
cent ral
c ussions
Ġparent ing
Ġtrave ller
th reat
b low
Ġret iring
perform ance
Ġdisclos ures
Ġleves on
Ġha it
Ġbal d
Ġall erg
Ġrich mond
Ġsubsc ribe
Ġmidfield er
ra z
Ġboe ing
Ġgol an
s qu
ur bed
Ġswe pt
Ġharmon ised
Ġautom ation
Ġalleg es
Ġbon n
Ġdemoc racies
Ġundert akes
Ġprocla imed
Ġlouis iana
dim ensional
Ġequ ilib
Ġall an
Ġsw aziland
Ġgro s
m issions
13 5
Ġs ang
al one
Ġpri zes
q c
Ġt ide
Ġsp ruce
Ġgener ates
Ġalter ation
m ag
Ġpoore r
v ac
er ations
Ġfiref ighters
Ġsubstit ution
2 10
Ġf n
Ġgriff in
Ġpse ud
Ġenc ry
app y
Ġantimicrob ial
om atic
Ġartic ulated
cent red
ph ony
un ivers
Ġeffect ed
23 5
Ġroll s
Ġcy n
Ġwar ner
Ġfil ters
Ġopt ed
Ġapprox im
Ġpan etta
Ġval ent
Ġdeserv ed
erv ed
Ġ19 20
Ġantig ua
Ġs erg
Ġsc rew
Ġcontain ment
Ġsign atory
Ġins ign
Ġcf i
ident ified
Ġhead line
Ġha waii
Ġenter tain
Ġcommit s
Ġt sa
ull ivan
bear ing
Ġins ult
ac le
Å Ĥ
Ġtot tenham
Ġd und
Ġverbal e
Ġreact ors
as ion
Ġco ins
ian n
Ġdisc oura
Ġcr ashed
Ġpro cl
. /
Ġinstit ut
Ġlabel led
ch in
Ġco hen
---------------- ----------------
Ġamen ities
Ġsurviv or
Ġm ason
Ġbra ve
Ġcra w
le m
Ġreact or
ak h
Ġdisplay ing
Ġdak ota
Ġjournal ism
v it
Ġprud ent
Ġimm ers
c ateg
Ġhom osexual
Ġbes ide
p resent
Ġfl ux
Ġf oul
Ġ" [
Ġcapit ol
Ġth ai
Ġaffil iation
Ġf ta
Ġos lo
Ġwar rants
Ġext ensions
Ġmult ipl
Ġsol omon
be fore
cont ent
c ross
Ġgluc ose
fact or
Ġdomain s
Ġdos age
lam ation
Ġorganis ational
Ġw als
Ġ201 6
Ġtas ked
Ġfood stuffs
Ġtele health
Ġcreat ors
Ġespa Ã±
fur t
Ġplant ing
Ġv ested
em s
... )
Ġbal let
w el
Ġf ool
Ġestim ating
Ġbore al
Ġl ions
l ane
ra ction
Ġwor ship
spec ified
88 8
Ġre ds
Ġe ca
Ġh iding
Ġve loc
Ġabsor bed
pr im
Ġc pl
Ġv ille
hand ed
Ġyoun gest
Ġtri partite
m ich
m ens
Ġpasser iformes
Ġcond ens
Ġacknowledge ment
Ġevid enced
Ġacc ede
Ġlandscap es
b ast
Ġfeed s
Ġplant ed
Ġwall ace
Ġsa chs
p he
Ġe ther
Ġdi and
Ġcompet itor
qu er
Ġbroadc asts
Ġkand ahar
Ġf cc
Ġbl end
Ġp ir
Ġsh oe
Ġcont ests
Ġcol in
Ġhydrocar bons
Ġsub tle
Ġcatal y
Ġalleg ing
Ġmerch ant
Ġroberts on
Ġcommemor ative
Ġpan or
Ġnarc otics
Ġindict ment
Ġint imate
em p
Ġvict ories
Ġweak ened
Ġpercent ages
Ġton ne
Ġref ining
mo il
Ġtransform ing
Ġkh al
Ġfollow ers
Ġdest abil
produ cing
p v
Ġr Ã©s
Ġsm ell
Ġna ics
Ġdeprec iation
im et
g ir
Ġ Ã©t
Ġdown turn
el ines
Ġdav ies
Ġcontra ception
Ġover arching
imb ledon
t ieth
inc lud
Ġc eme
Ġpre view
Ġconte mpt
Ġdiss ent
Ġtig ers
Ġconfisc ation
Ġn ta
Ġprefer ably
ound ing
Ġsex es
Ġsymp athy
sup er
Ġd ame
Ġhigh ways
se lling
Ġacc eding
11 7
Ġsant Ã©
Ġpropri etary
Ġt une
Ġliquid ation
Ġexempt ed
Ġ" (
Ġk on
stat us
Ġdimin ished
Ġdict ators
Ġunit ar
Ġkn ocked
Ġunf old
Ġsub way
Ġwet land
Ġback grounder
rec ogn
Ġ19 57
Ġswit ching
Ġsal mond
r ice
Ġsa uce
Ġenc losed
Ġbal lo
Ġpe as
19 80
Ġap ology
Ġconce ived
Ġride au
Ġher n
Ġser bian
Ġm ask
iss a
Ġkidna pping
Ġher ald
Ġlist ened
Ġarr ives
Ġex cel
Ġdr one
Ġprecurs ors
Ġembod ied
Ġreper cussions
Ġcondem ns
Ġinval uable
Ġter t
Ġ8 19
resist ant
ï ľ
Ġcamp ing
Ġb apt
Ġske pt
k ar
Ġkil ometers
Ġdisc ounts
Ġdisagree ment
iot ics
xic o
Ġprov es
d rug
Ġtrans atlantic
Ġliqu ids
Ġorgan ising
Ġp b
Ġplay offs
Ġbret ton
Ġec ology
Ġfraud ulent
form erly
Ġtur moil
Ġsw ap
head ed
ar r
Ġar n
Ġimp ede
e pp
Ġw imbledon
Ġexhaust ive
Ġdestro ying
Å ¾
27 0
Ġundermin ing
y d
Ġ20 4
Ġcol ors
Ġed c
Ġmic he
Ġpersec ution
Ġw ounds
Ġcoun cill
Ġgra vel
Ġemphas ise
Ġat r
Ġdet achment
Ġimp oses
Ġs ink
Ġtransc ript
20 8
Ġnw t
12 2
Ġhydraul ic
ia go
Ġrepl aces
Ġmic ron
Ġcou rier
Ġfreder icton
Ġfragment ation
Ġcomp ares
Ġcc ct
Ġsb sta
Ġbur g
cel eration
Ġchar m
Ġtra y
Ġmor b
Ġunderstand able
Ġv as
Ġgam ing
Ġexceptional ly
ym ph
Ġst ern
Ġhome owners
Ġhon ours
Ġmano eu
Ġalarm ing
Ġblue print
Ġtrack ed
Ġadm issions
Ġrev ival
Ġunac companied
Ġabd el
Ġscat tered
Ġfor a
Ġclos ures
th ose
op ic
Ġthoms on
gro ups
Ġtit led
Ġbul lying
Ġl act
com mon
Ġshell fish
Ġsurin ame
h om
Ġconcer ts
une ce
Ġentire ty
Ġnit rate
Ġcon n
22 6
Ġwork places
Ġansw ering
Ġcombat ants
Ġbon uses
h g
01 0
Ġcol i
Ġtim eline
Ġkuwa iti
benef it
l Ã©
Ġpan ic
ro so
Ġhe in
Ġcount less
Ġaer os
Ġm um
r ill
Ġhor iz
Ġfis hers
Ġalumin ium
? )
he av
Ġco in
Ġb se
res a
Ġexam iner
o ys
Ġdeem s
Ġrecon cile
int ensive
Ġfasc inating
de hyde
Ġcorrel ated
Ġclimb ed
ond e
15 7
Ġep o
field s
Ġupgra des
Î ¼
id i
Ġluc as
Ġan x
opol it
a ults
Ġto ss
Ġc ay
Ġ15 3
da q
Ġd ile
Ġ15 5
Ġdownload ed
Ġvo iced
pos itive
Ġflo rence
Ġfor fe
Ġdivers ified
Ġex otic
Ġobserv es
n an
applic ation
Ġ0 49
est ine
Ġcl ut
Ġcat ches
Ġp umps
Ġw fp
Ġwar ns
Ġm w
t is
Ġun le
i ating
Ġass ertion
Ġcontact ing
Ġpra gue
Ġfire arm
Ġun aware
== ==
Ġappl aud
v ian
Ġch i
Ġle ve
Ġprivat ization
Ġhier archy
Ġat roc
Ġec r
Ġk et
Ġcom or
Ġtort ured
Ġinsp ire
Ġsearc hed
Ġcorrid ors
Ġair borne
ign ment
Ġide ological
op t
Ġbuff er
Ġstat istic
ut er
Ġknowledge able
Ġgrand e
Ġlo pez
jour nal
Ġattend ant
Ġdisadvant ages
Ġin let
Ġte e
Ġbar on
Ġco efficient
Ġgarc ia
the n
Ġbureauc ratic
Ġhod g
Ġambul ance
pp ement
Ġchart ered
Ġ7 50
Ġcr ist
ag og
man ager
ich t
Ġmodern ize
Ġprefer able
z h
Ġsuperv ise
y y
al tern
Ġcan ton
os oc
Ġass im
Ġbrune i
Ġ2 12
Ġnon profit
b ag
ar f
11 8
Ġelector ate
t ier
Ġass ent
Ġmark ers
row s
Ġpe i
20 2
un tary
oper atives
in der
Ġunequ iv
oles ter
conne ction
Ġp sea
Ġmar co
Ġinf lamm
Ġunst able
Ġa ires
Ġf ence
ach t
Ġtravel ers
ct or
Ġvit ality
tur ned
7 80
Ġpu zz
Ġa ster
Ġsm oked
Ġparame ter
h m
gh ans
Ġemot ions
st reng
n ames
Ġun related
11 6
Ġune ven
Ġreb ell
Ġunp redict
ari ats
Ġrecip roc
Ġch ant
Ġsecret aries
Ġm ik
Ġse oul
Ġdec om
Ġsl ot
Ġnut s
Ġste in
Ġw ada
Ġ19 0
Ġyield ed
Ġreclass ified
Ġw kh
ih ad
Ġcome back
Ġtravel ed
Ġmart ine
Ġmem o
Ġdecentral ized
best os
Ġc ite
Ġy or
Ġm cil
Ġcompens ated
ff er
Ġun ite
Ġembar ked
Ġace t
Ġn ull
Ġcharl ottetown
Ġre agan
il der
Ġcop ing
Ġbar n
Ġra f
Ġincident al
Ġjeff rey
Ġsub contract
Ġc ables
support ed
Ġfa ire
Ġsupplement al
c row
il ized
Ġsim a
Ġfrank lin
Ġac celeration
Ġemphas ised
Ġimbal ances
un ion
he id
Ġol iver
Ġregen eration
Î ¿
Ġd art
Ġde ment
Ġtra um
Ġexped ition
Ġinform atics
ant ine
Ġsun ny
od ed
Ġcl ippers
m os
Ġaqu ifer
Ġsince rely
Ġgra d
Ġden nis
Ġgriev ances
Ġn az
Ġdomin ance
Ġirrele vant
ill ary
Ġpension ers
Ġbet a
Ġlord s
Ġout let
17 0
Ġprohib itions
Ġremin ds
Ġin k
Ġutil izing
Ġreun ification
00 3
Ġswe eping
Ġpr iced
Ġdou g
Ġa i
Ġcontra vention
Ġartifact s
il ia
o il
Ġin uv
Ġsun ni
Ġsp or
Ġmilit ias
Ġpen it
Ġref in
appro x
Ġlect ures
Ġham m
Ġdeliver ies
Ġo st
Ġnic he
Ġhol oc
le ft
Ġwe ighed
le an
ast y
Ġ13 9
Ġhar rison
ordin ator
Ġjoin s
Ġal ain
Ġaf ghans
Ġrem ission
Ġrob bery
Ġimprison ed
Ġla ura
Ġhour ly
bro oke
dig it
Ġbarb uda
Ġd v
20 5
Ġshar on
l ants
Ġc lement
c w
Ġsever ance
own er
Ġmeth ane
Ġretain s
Ġret al
at eness
Ġreg ression
Ġident ifiable
Ġaur ora
Â ¢
Ġf les
Ġe ia
Ġorder ly
Ġappoint ing
Ġb iz
Ġatt aches
Ġcomp end
Ġjew el
Ġdiss olution
Ġindis crimin
p wgsc
Ġhor ror
Ġlos es
Ġch uck
Ġro ok
Ġter ra
Ġun aids
iz a
Ġbomb ings
Ġdisc ourage
Ġfr ances
Ġkim ber
Ġtow ers
Ġthe ories
Ġmerg ers
Ġmilest ones
Ġdistrib utions
Ġduplic ate
15 4
person al
Ġharb ours
pe ace
Ġme lo
Ġnest ing
ĠdÃ© velo
id av
communic ations
Ġpipe lines
Ġm f
Ġsatisf ying
Ġescal ation
Ġche ques
Ġcooper atives
Ġexhib ited
Ġins ulin
Ġsli pped
Ġrecons ider
bir th
Ġf ccc
Ġresil ience
Ġrodr igue
Ġtwe eted
Ġb oun
Ġlat eral
Ġgo ose
c art
Ġinter loc
ir k
Ġclou ds
q g
Ġshap es
Ġmah m
Ġprecurs or
Ġfort unately
Ġbrand on
Ġgam bia
ric s
Ġv il
Ġappend ices
Ġsevent y
w ent
Ġcountervail ing
Ġj oke
Ġf ren
Ġtun a
Ġdec ommission
Ġclimb ing
Ġpear son
Ġhost age
Ġlength s
con i
Ġir b
Ġwilder ness
Ġst agn
Ġm ick
Ġbe au
os ur
Ġextra judicial
on so
ph p
Ġlandf ill
lo gy
Ġconc ise
Ġreve aling
st en
ast ically
h man
tar get
f le
sw it
appro ved
Ġbri bery
Ġst a
u pp
v able
Ġatt est
b one
Ġkar zai
Ġexped ite
Ġrafa el
w right
00 5
Ġbu enos
Ġso ap
Ġauthentic ation
Ġuncom fort
Ġsh akes
Ġfa una
Ġillust ration
Ġun real
Ġepidemi ological
Ġv est
Ġexp ires
fr an
Ġsu cc
Ġin organic
resp onse
Ġalloc ating
bl ue
Ġtimel ines
h ore
Ġout going
Ġg ou
Ġg ur
in ian
Ġen ergies
Ġprote ctions
Ġget ty
Ġnorth western
Ġcounter ing
Ġvulner abilities
e w
f air
Ġchurch ill
Ġfro st
Ġpath ways
Ġow en
Ġind ent
Ġrail road
Ġe rect
in stit
Ġb ans
Ġaff idav
Ġneglect ed
r ise
Ġunivers ally
Ġsan itary
Ġas bestos
Ġsu ed
Ġint ang
Ġspeed y
mark ets
Ġlov es
Ġarm aments
Ġb ones
Ġpl ight
Ġref uses
Ġce ases
Ġcomm ens
min ing
Ġtoy ota
ul ary
Ġcollect s
Ġprag matic
at in
Ġgro cery
with in
Ġseiz ures
Ġb unch
ph ase
ac a
) "
Ġaccomplish ment
Ġl ively
Ġpresc riptions
Ġlyn ch
Ġst aged
Ġlog s
Ġbiom ed
Ġd amp
Ġoptim ize
4 18
Ġo mission
Ġdis continued
sub st
Ġno k
Ġ14 3
Ġliber als
Ġminim izing
Ġn erve
Ġshe er
ain ted
ime ter
m und
Ġham pered
arth y
v io
Ġrec ipe
sub ject
Ġpersu aded
bo ards
Ġman kind
Ġinstruct or
Ġsl im
Ġaber deen
Ġcons erve
20 7
ĠÎ ±
techn ical
y on
Ġintern ship
de gree
Ġkn ife
l ate
Ġfin est
Ġcompan ion
Ġrep ro
ou ch
Ġcontempl ated
Ġgood will
Ġswit ched
âĢĿ ),
Ġwars aw
Ġrev oked
parlia mentary
ro pri
head s
Ġm cl
Ġpr iest
Ġsecret ariats
Ġm ph
Ġmanip ulation
Ġd ucks
Ġg Ã©nÃ©
Ġperpet rated
Ġev ap
per man
Ġrev ising
Ġcompli ant
Ġtrib e
Ġbl ess
Ġbl acks
Ġsp ills
Ġh st
Ġregul ates
Ġinsect s
Ġstr ang
Ġbenn ett
Ġdile m
Ġbill ing
e i
Ġun safe
Ġaward ing
Ġmur dered
b Ã©
en ne
ou m
Ġrest itution
Ġconsult ancy
Ġsam uel
eval uation
Ġcan cers
b ad
ill on
Ġirre vers
Ġround ed
Ġfurnish ings
Ġchallen ger
Ġhonor ary
c ad
Ġman ure
ens is
Ġstrateg ically
it ate
Ġadmin isters
Ġconsum e
Ġhy d
Ġpart ition
em erg
mail s
Ġdest ructive
Ġphilipp e
Ġenh ances
Ġcook ies
Ġhero es
c ia
Ġam ino
Ġp Ã©
Ġant ar
25 5
Ġexp ose
Ġma ison
it ic
iz able
dra ft
sc ience
Ġtal ents
Ġo we
m ur
w i
Ġdecl ares
Ġext ingu
Ġger mans
Ġsoft wood
elect ed
Ġensu ing
Ġann uity
Ġplan ners
ot ropic
Ġreinforce ment
Ġaggrav ated
Ġam ple
trans fer
Ġimbal ance
stake holder
Ġprocl amation
pa ul
Ġpension able
Ġperipher al
19 87
es is
Ġsubparagraph s
Ġcolomb ian
art icles
b rien
Ġban ner
Ġcats a
p f
Ġsubstant iated
Ġnad al
Ġl ore
Ġproportion ate
Ġarchitect s
Ġb ach
Ġlar va
Ġdro it
Ġunder water
Ġcit es
omm unic
Ġpenet ration
Ġj ong
Ġfaith ful
Ġretro active
Ġadvert ised
Ġmcil roy
Ġconstru ed
Ġ18 2
Ġmart ial
l r
Ġlib or
Ġos fi
Ġbureauc racy
Ġcondemn ation
Ġs z
Ġport land
Ġenem ies
car bon
act iv
Ġcounsel ing
00 01
op ath
Ġuns ustain
Ġc erv
Ġpro gression
Ġclic king
w d
Ġpubl ishes
Ġcan t
Ġdiscover ies
Ġpatri ots
ast rous
Ġprem iers
Ġb g
Ġse wer
Ġindu ce
s aint
Ġle thal
17 5
Ġrem n
Ġstain less
Ġslop es
Ġc ake
o ce
Ġaccru al
li x
Ġmet s
Ġbid der
Ġrus hed
Ġp iz
jard ins
Ġgra ms
gu ard
el ed
Ġfat igue
Ġpedest rian
Ġf iss
Ġcont r
Ġv owed
Ġsing les
Ġe ads
Ġh rs
Ġns erc
Ġfant asy
Ġs ic
Ġsens ors
Ġde ll
are z
Ġo z
Ġlegisl ators
st ated
Ġaug ment
Ġab usive
Ġequ ip
Ġm ts
Ġwith held
h um
Ġmeas les
anc ers
Ġserg io
Ġro sen
Ġalcohol ic
Ġche v
Ġment or
12 4
Ġcomp ile
Ġattrib ute
cell ular
Ġconfine ment
ls en
Ġmut ilation
Ġpione er
Ġneed le
vis ual
Ġinherit ance
con nor
Ġgr im
Ġfif teenth
Ġharvest ed
Ġparticular s
Ġbl u
Ġbr ass
Ġb ite
Ġut ter
Ġvent ilation
Ġam ort
Ġadjourn ment
Ġend less
au er
Ġam p
Ġle x
Ġn ca
av i
ur st
Ġtrib es
ops is
Ġshore line
Ġkle in
Ġcont ends
v ice
Ġbl ake
Ġv ag
Ġkeyword s
Ġpat ience
Ġgl enn
Ġwa ited
chap ter
Ġby pass
t ics
Ġco at
Ġbut ler
im al
tele vision
Ġrun ner
Ġbox ing
Ġ ................
Ġdoct oral
Ġbullet ins
Ġre de
Ġhous ed
Ġbatt leg
Ġ14 4
ga e
Ġimp lants
Ġrep ression
Ġinstall ing
Ġorigin ated
Ġmotor cycle
Ġacro bat
Ġsub class
Ġinm ate
Ġsouth western
Ġ< !
red u
ĠÃ ¶
Ġvolt age
Ġbook let
Ġgill es
Ġsain te
im age
Ġambassad ors
2 40
part icular
lo ved
Ġequilib rium
Ġrodrigue z
Ġpe pper
Ġdeep ening
Ġad vers
Ġtur bul
Ġexc itement
Ġkinder gart
Ġwater way
ight ing
ks on
er ate
Ġv c
Ġident ifier
Ġg pt
Ġconced ed
l q
Ġsub t
Ġ16 9
Ġcor al
Ġscour ge
ac qu
Ġn es
Ġg is
Ġstaff ed
Ġtravel s
Ġwatch dog
Ġse p
Ġcater ing
se lect
Ġcontinu um
k inson
m ons
Ġcounterfe it
= -
Ġex ert
Ġexacerb ated
Ġcle ver
net t
Ġnurs ery
Ġgri p
Ġorche st
Ġpow ered
Ġa pec
Ġp om
ist i
Ġapprentices hip
Ġint rig
12 1
Ġthir teenth
b ill
ok en
Ġpam ph
Ġdement ia
Ġrun off
Ġexc er
Ġrw andan
Ġsu pers
ĠÂ Ń
g dp
Ġapp rehen
om as
Ġl ighter
Ġfrank furt
00 4
Ġtra der
Ġmid st
Ġrank ings
p ace
Ġhomeless ness
Ġhodg son
protect ed
mp o
Ġbreast feeding
Ġpoet ry
Ġdeut sche
Ġdifferent iation
Ġtun nels
Ġreprodu ce
Ġsh ocking
Ġdisappear ances
cop y
Ġp ch
Ġsupplement ing
Ġfixt ures
Ġextract ed
ud ed
med ic
Ġacc ent
Ġcry pt
Ġab ra
2 13
Ġe is
sh ould
Ġib m
Ġspr int
spr ing
to xic
Ġrober to
Ġbulg arian
wl rq
Ġcy t
ber ta
Ġox id
Ġ {\
Ġcres cent
Ġm ant
Ġequ atorial
Ġassass ination
um per
Ġstation ary
Ġboost ing
Ġ15 40
Ġ> >
tr ue
exp lo
Ġren dering
Ġappropri ateness
Ġge ese
Ġextrem ist
Ġadvertise ment
os ity
19 85
20 9
mar king
Ġcur tail
x v
Ġmult if
Ġanim ation
Ġpul se
ĠdÃ©velo ppement
Ġmar in
Ġdis astrous
Ġmodel ing
Ġst iff
umb ling
Ġt i
oc on
Ġreform ed
Ġc pc
Ġc inc
Ġsimilar ity
Ġout right
Ġresc ued
Ġpatro ls
Ġlob ster
Ġdeterior ating
Ġdifferent iated
imp act
Ġproportional ity
Ġbar roso
Ġsh ipper
r r
Ġo ath
ie we
Ġhispan ic
Ġpur port
Ġlicense es
Ġbr ush
Ġrecogn ises
Ġrefer rals
Ġf d
Ġec owas
Ġtransport ing
Ġb ast
Ġn ce
Ġenthusi astic
ter dam
âĢĿ ).
Ġallev iation
Ġf c
Ġeur atom
Ġdiscrimin ate
Ġ[ [
Ġprot otype
Ġbase ment
def ence
Ġjust ices
Ġmen ing
f illed
n bc
Ġinterp ol
Ġadvoc ating
ren ces
Ġco oked
Ġins ulation
Ġsuff ers
ent e
Ġflav our
Ġc ct
Ġconver sely
Ġaven ues
re comm
Ġc ush
Ġhe al
Ġw rest
Ġcr t
Ġcub ic
a ver
c ode
Ġattend ees
Ġrest art
Ġlat ino
Ġconcept ion
Ġnas daq
e an
Ġk ills
Ġresid ue
Ġhorm one
7 09
Ġend emic
Ġol iv
ip er
ym met
Ġdeple tion
ard i
Ġdirect s
Ġcelebr ities
ess ential
ign e
Ġstyl ish
Ġhuman e
Ġdepend ant
am o
Ġdiplom at
Ġholoc aust
Ġand rea
olester ol
Ġski ing
Ġcon ve
su le
Ġc ough
Ġl ined
12 8
Ġgl ance
Ġbron ze
Ġdiss ident
Ġsa una
Ġlo op
Ġmar ina
Ġbo il
s ar
Ġcirc uits
Ġhin der
Ġra ms
Ġenhance ments
Ġpoly mer
Ġhib s
Ġd oss
Ġbel le
Ġk not
am ide
ow l
Ġent re
Ġcyc lical
Î ¹
Ġfor ge
ex isting
Ġcentr ally
br d
aug a
p ret
w id
Ġalt itude
Ġval ve
Ġjo an
Ġsa ves
Ġanticip ation
Ġclim atic
Ġcent red
Ġembra ced
Ġseism ic
Ġext r
umb led
Ġfr ight
Ġjur ors
Ġunres olved
Ġ19 52
Ġprompt ing
h it
g ard
um en
Ġnh l
grow th
Ġaut ism
8 66
Ġst up
erv ice
Ġgrand mother
quest ion
perman ent
Ġt ah
Ġmemor able
product ive
Ġgu ant
Ġed t
Ġt ant
Ġj ak
un it
Ġc ri
Ġdes jardins
Ġcra b
Ġscan ning
Ġconstit uting
Ġdol ph
Ġmcc arthy
Ġantib iotics
as ian
Ġpro stit
Ġann um
Ġover ly
Ġmoroc can
Ġcorn wall
ve ll
Ġresol ute
Ġsant iago
Ġmorb idity
Ġsad ly
est one
Ġindones ian
Ġperpet rator
Ġrit ual
Ġninet eenth
Ġunivers ality
Ġfernand o
Ġcommens urate
Ġk ap
Ġreject s
Ġ15 2
Ġcorro sion
Ġhun ters
Ġhero in
Ġhond a
Ġinterpre ter
id ated
Ġst aging
Ġfor c
ten ess
cons ult
whe ther
Ġtert iary
Ġb ats
19 86
Ġaver aging
Ġshr imp
tit le
Ġme ga
Ġunsustain able
Ġinterv iewe
Ġpresum ption
Ġth umb
d ose
Ġend ow
kn ife
cc d
Ġfing ers
Ġje well
Ġsequ ences
v c
Ġconvey ed
Ġfil ament
o grap
an as
Ġcustom ized
Ġsole mn
Ġwh istle
Ġne o
Ġsub ordinate
ph ans
Ġref res
Ġannul ment
Ġanx ious
Ġw and
Ġmood y
med iterranean
Ġmur ders
Ġmist aken
atis factory
Ġhi king
Ġy a
te ll
is le
od ing
Ġdep ressed
Ġver sa
Ġintermed iaries
en cer
Ġr bs
Ġint ranet
Ġbroch ures
Ġaw k
Ġdr ift
he a
Ġrain fall
Ġed ges
stat istics
Ġoccup ancy
Ġbrid ging
Ġmemor anda
Ġreceiv ables
Ġle ased
Ġline up
Ġne on
gu in
Ġ15 1
Ġsk etch
cl in
res pect
Ġhel en
n it
Ġinform ative
Ġbar nes
Ġval le
Ġham per
Ġi q
Ġuncomfort able
Ġcourt room
ug al
Ġtor res
col on
v ict
Ġun in
ric ted
Ġchlor ine
all ah
Ġhead lamp
j ad
Ġsp ends
Ġhol low
Ġsav ile
Ġig c
Ġbout ique
h ones
Ġl ymph
on na
ital y
Ġty ler
Ġen roll
f light
health y
p as
h f
Ġ ________
Ġkit che
Ġreclass ification
Ġdir ty
Ġb rick
20 3
Ġdetermin ations
Ġcommun al
renn ial
Ġsyn chron
c amp
Ġcard iff
Ġmodern isation
Ġorgan ism
Ġpeace keepers
Ġtot alled
Ġlu ke
Ġdele tion
n h
Ġcyl ind
Ġw er
am pton
Ġenric hed
st aff
Ġun fore
Ġ19 59
Ġaccount ants
Ġclass ifications
prote ction
Ġab bas
Ġgall on
e ight
ent ry
docu ments
Ġw g
Ġch and
Ġk as
Ġintr ins
Ġaar on
Ġinsurg ents
p it
Ġfun g
Ġinher ited
Ġargu ably
Ġnic ole
se ven
Ġkey board
Ġhs bc
Ġthrow s
Ġabort ions
agn etic
Ġgroup ings
Ġgh ost
Ġ( .
Ġpren atal
sh aped
c z
Ġconsum ing
n av
Ġoak land
m ov
Ġcal ories
Ġrun ners
Ġwals h
Ġmolec ules
Ġsub urban
public ations
Ġsilic on
Ġbo yc
Ġover due
acc ount
Ġto oth
30 5
ang es
Ġpall iative
Ġb aff
Ġgener ators
Ġhait ian
Ġvap our
ens en
Ġplural ism
Ġac oust
Ġor phans
ne ment
Ġphot ographic
Ġair bus
Ġf etal
ethyl ene
Ġdom ic
Ġcl ip
ck ing
Ġex pelled
Ġenquir y
Ġd ale
Ġcrow ded
Ġcons ole
Ġfruit ful
âĤ¬ "
he ed
Ġne u
Ġdeal ings
Ġrot terdam
ul ators
Ġk ash
br and
n go
Ġlarva e
Ġquestion able
ac on
Ġfour teenth
Ġarch ival
Ġoverlo oked
Ġpropriet or
Ġinc itement
Ġsimilar ities
Ġrecyc led
Ġrel ent
Ġcompend ium
] [
fore ign
Ġjack et
Ġc et
Ġpot ent
Ġgun man
Ġgu ilt
Ġmod ifying
Ġroad map
Ġmonu ment
Ġpol io
Ġbol ster
Ġn ile
s aving
Ġmont ana
Ġsens or
Ġglass es
Ġto ul
Ġrecher che
Ġlist ings
Ġjudge ments
act ing
Ġimag ery
Ġquiet ly
kh az
Ġpro state
Ġmathemat ics
Ġwater loo
respons ible
19 0
Ġwithhold ing
ad ays
i Ã¨res
Ġwhit ney
Ġt us
Ġd ues
? '
Ġh ugh
Ġover looking
Ġnort heastern
ic ia
Ġgren ad
Ġreject ing
Ġappet ite
Ã ¿
Ġb ened
Ġbe e
Ġgro upe
Ġ9 54
Ġexempl ary
Ġcatast rop
p ract
Ġs ights
Ġdivid ing
ost er
Ġregret table
we bs
Ġf usion
Ġeight y
Ġ27 0
Ġbet ting
gu id
Ġib rah
Ġy ang
Ġide ology
Ġconfron ting
h ad
n gos
Ġp end
ov ich
Ġflow n
Ġpromulg ated
Ġre e
Ġret ros
Ġneglig ible
re ra
Ġse y
Ġsl ips
Ġbalcon y
ass ium
Ġank le
Ġre he
Ġele ph
Ġcircumst ance
civ il
Ġnin ety
Ġpassion ate
Ġd as
Ġacc using
22 1
23 7
Ã »
Ġpr ies
Ġbal i
Ġerup ted
Ġcosm etic
Ġwork plan
Ġcast ro
un icef
brit ish
Ġw ives
Ġgu ar
l ength
Ġperform er
v ar
Ġe ec
Ġv and
Ġre ed
Ġhun ts
Ġth y
Ġtre k
b m
d al
so lete
Ġsmart phones
Ġv int
Ġlong itude
administ ration
cap ital
Ġpred ators
Ġm ug
Ġn aked
ric tion
Ġr alph
Ġnomine es
d isciplinary
con st
Ġfragment ed
Ġl ance
Ġit a
Ġn fb
Ġf ont
adop ted
Ġtransl ations
indust rial
Ġwra pped
t our
Ġcert ify
Ġsem if
her ty
Ġinst antly
Ġpock ets
est inal
Ġdow ning
Ġparalymp ic
rid ing
Ġinstruct ors
Ġcan ola
Ġ20 2
Ġswift ly
com b
b ollah
Ġseed lings
mod al
Ġgib ral
Ġalf red
l ot
14 4
Ġbomb ard
det ails
Ġbelong ed
Ġawk ward
Ġbo asts
Ġfal con
Ġcan on
c ence
ment o
Ġdaw son
Ġarbit rator
b lock
ogen ous
Ġment ions
Ġhospital ized
Ġconstra ined
Ġbub ble
el lo
Ġf ou
Ġe in
ne ill
Ġfl amm
Ġat taining
Ġoverse es
Ġde line
Ġm oy
Ġsuper market
Ġcompens atory
Ġbon a
Ġs ullivan
ed u
Ġvig orous
Ġch olesterol
Ġextract s
j d
Ġdisp atch
et e
Ġphilos oph
Ġro che
Ġmitig ating
Ġvalid ate
Ġprec arious
Ġg s
Ġ19 56
22 2
Ġbre w
Ġarm oured
an agan
arm a
Ġx ii
Ġdetect ive
Ġlawsu its
se mit
Ġto kel
Ġg att
Ġparad ox
Ġveloc ity
r m
Ġex terior
Ġfron ts
Ġunder graduate
Ġbrist ol
Ġout we
ret urn
Ġdesign ations
pe i
Ġswe at
Ġnewcom ers
Ġ4 01
Ġaver ages
Ġcaf Ã©
Ġaccord s
implement ation
c ock
Ġcap sule
Ġstar ring
Ġc hern
pro p
Ġtokel au
wn ed
Ġconsequ ential
Ġtop ical
Ġbl unt
run ner
Ġgar bage
ast ing
15 5
Ġ3 38
Ġshe ar
Ġsubstit utes
Ġsamp led
Ġfellow ships
Ġturn around
Ġsimpl er
Ġperce ive
Ġdub bed
Ġdrag on
Ġflaw ed
Ġcomple teness
Ġis ot
or ith
Ġun available
Ġsac ra
Ġwithdra wing
Ġcomplement arity
Ġsout heastern
12 7
Ġ14 8
Ġcontent ious
Ġ18 5
Ġlit res
Ġn il
Ġfort unate
Ġmicrob ial
Ġam r
Ġcomor os
Ġneut r
Ġmor ale
Ġlyn n
Ġnich olas
citiz ens
Ġbu oy
Ġtack led
Ġalbum s
Ġrecon naissance
Ġstabil ize
m obile
Ġthere for
Ġce aa
Ġexchang ing
f ounder
Ġped ro
Ġgrant or
Ġchamp agne
Ġhead er
Ġyar n
Ġen er
Ġextrem ism
act ively
Ġinterpret ative
asse mb
Ġrain bow
Ġceme tery
2 30
t f
oc ult
Ġeuro pol
ab ulary
Ġla ure
Ġgar lic
b ring
Ġgl ory
Ġnow adays
Ġsh ark
Ġmar ines
Ġso x
Ġhar bor
la imed
Ġg ru
Ġnew est
Ġar isen
iann ual
Ġ16 2
Ġsho ppers
Ġneighborhood s
Ġdev ise
st rom
con taining
Ġnex us
Ġl v
Ġ3 000
Ġc pr
Ġparad ig
Ġinter sessional
Ġmass age
Ġde form
Ġba iley
Ġbattleg round
Ġ9 11
Ġre app
Ġhum idity
Ġenforce able
Ġcomplex es
Ġrook ie
Ġch ore
Ġunequ al
Ġpar ish
Ġsub d
Ġheav en
Ġmack ay
ma jor
al ine
he ll
Ġag u
Ġign or
Ġover crow
Ġlap top
Ġmartine z
pr ise
Ġcompos er
Ġcomptroll er
Ġmedi ator
Ġrid ers
Ġm alf
iv ik
Ġgl am
trans lation
Ġhus sein
Â Ĵ
Ġmu ham
n ar
Ġpol es
Ġintang ible
g ou
Ġcomp ounded
Ġmos qu
Ġunus ually
Ġll c
if ferent
Ġpav il
j ur
Ġmarit imes
condition ing
let te
Ġfiss ile
p se
Ġtempor al
Ġour s
Ġexecut ing
Ġdev ised
ri ber
Ġloc als
Ġshow c
u ating
Ġs bi
ber ger
Ġmusc les
ke ys
Ġpast ure
add afi
Ġsculpt ure
Ġkenn y
Ġsh y
Ġsh ores
Ġl uk
gr and
Ġreferen ced
Ġdistingu ishing
Ġcad mium
Ġbrom ide
Ġat p
Ġty re
Ġabd ullah
- [
in um
exec utive
hot el
Ġdiction ary
Ġma z
Ġst ub
Ã¤ n
Ġawa it
f ty
j er
Ġprocess or
Ġas ymmet
5 50
Ġilliter acy
Ġsy lv
15 1
Ġabol ish
Ġalg orith
Ġeduc ating
Ġhand les
Ġsil va
t Ã©
Ġser b
Ġlod ging
Ġsuperv ising
Ġne b
ail ed
Ġth orn
Ġes dp
Ġreb ound
Ġspl end
Ġste phan
Ġpiz za
Ð »
Ġtime frame
m ass
at u
Ġneed ing
Ġp g
Ġst all
Ġjohn ston
Ġdeep en
Ġpaed iatric
Ġear s
c irc
Ġassess es
na pp
Ġbra dy
Ġhard est
po or
Ġdetri ment
Ġe h
Ġo ven
Ġeconom ical
Ġb its
ress ing
Ġf Ã©d
Ġpun ct
Ġflood ed
Ġd ive
Ġneglig ence
exam ination
se ed
Ġbr ink
25 1
Ġwind ing
am an
Ġbob by
Ġpater no
Ġrepar ation
Ġl c
fe e
Ġfund rais
Ġstra uss
Ġstamp s
Ġal pine
Ġgroup ing
uss alam
rel ations
Ġmus h
Ġgen re
Ġcur ious
Ġft se
Ġb ible
14 1
Ġpil gr
Ġlin ux
Ġcur tain
le tal
Ġyouth s
Ġstur geon
Ġpar ity
Ġfrank ly
Ġg mb
14 5
22 7
Ġcns c
Ġunpredict able
b les
is ations
Ġsocio economic
Ġ19 47
Ġem ep
Ġpersonal ized
Ġstrateg ist
12 9
Ġbroad ening
Ġdivers ify
Ġnegoti ators
Ġtext books
Ġanim ated
Ġlev ied
ĠgÃ©nÃ© ral
Ġto uring
ie val
2 60
per cent
Ã© g
umin ous
Ġmultipl ied
Ġsumm ers
ob il
Ġtra cing
Ġjurisd ictional
Ġbr as
Ġtre mb
Ġniger ian
sc opy
Ġinter related
Ġtax ed
Ġdetail ing
Ġhend erson
Ġend anger
Ġsan chez
Ġcapital ism
e fficiency
l ondon
Ġshoot ings
just ice
Ġce il
Ġmos que
f al
Ġauthor izes
Ġins ur
Ġhesit ate
Ġense mble
Ġyor kshire
Ġh ir
Ġcond ol
he ss
Ġund es
Ġwol ves
Ġm ous
Ġabs urd
l c
Ġsh ale
Ġreg s
Ġmicro organisms
ĠtÃ©l Ã©
=- =-
ig o
Ġbor is
Ġpresc ribe
Ġob solete
Ġfull er
g ender
Ġin exp
Ġprofess ors
Ġan at
Ġ3 01
Ġresc ind
afric an
f as
Ġon wards
fin als
Ġg oc
Ġinv itations
Ġpun ch
Ġkenn eth
Ġc dc
zz i
Ġfl ank
inn ati
13 1
Ġcollabor ations
Ġgrand father
Ġinc ar
med ical
12 6
Ġt p
Ġh off
Ġmathemat ical
ann i
Ġwonder ing
Ġstig ma
Ġinhal ation
) *
Ġtool kit
Ġn ihb
Ġfil ings
x c
Ġgibral tar
Ġx vi
Ġn ons
Ġï Ĥ
ch ool
Ġvill as
rank ed
Ġto pp
Ġworth while
Ġbiomed ical
Ġ19 00
Ġcatast rophic
Ġinacc urate
Ġcar r
oto xic
Ġchromos ome
d id
Ġim o
ab i
Ġluc rative
Ġweek ends
Ġwarm ly
os ocial
Ġin ch
Ġshould ers
Ġchair persons
Ġconscious ness
heart ed
Ġapproxim ation
b inding
ur ch
Ġdomin ion
ac les
Ġmicro finance
Ġcroat ian
Ġdar ussalam
Ġm ock
Ġtra its
Ġdak ar
Ġpetra eus
Ġl iz
hous ie
ak o
Ġdiscrimin ated
Ã¨ me
l ift
Ġw end
Ġdiscrepan cies
Ġpre amb
Ġcor ners
Ġobst ruct
Ġv ascular
Ġopen ings
nf sp
Ġspe ar
Ġcar roll
Ġdem ograph
13 4
Ġab khaz
Ġspace craft
ar re
Ġstr iving
Ġlegend ary
Ġ ue
t p
le en
14 6
Ġchap lain
Ġfit z
od s
Ġinfringe ments
pe cies
Ġt pd
b ach
c lick
ist e
Ġ19 54
Ġjul ian
l ip
Ġreconst ruct
b ot
Ġcinc innati
Ġbad ge
Ġphosph orus
Ġbo vine
Ġ15 6
cor por
Ġmig uel
Ġdec ay
Ġfront iers
us ions
particular ly
Ġenzy mes
Ġpredict ability
Ġgri zz
âĢĶâĢĶ âĢĶâĢĶ
sh ine
Ġpo ised
Ġunw anted
Ġ16 8
Ġnarrow ly
Ġgoal keeper
Ġip s
p ubs
Ġislam ists
p ub
Ġzo om
Ġsh at
Ġpract ise
ud es
Ġdev iation
ogene ous
v ancouver
Ġc osy
Ġindiscrimin ate
Ġhar vey
l au
Ġmon ies
bel g
Ġadd itives
Ġand ers
foc used
l iness
Ġnote worthy
aff e
Ġl id
con c
br ance
Ġpas te
Ġtail or
Ġ15 7
Ġinvent or
sure d
Ġg p
Ġtra vail
av oid
Ġcarol ine
Ġsalmon ella
Ġcarcin ogenic
Ġ4 16
Ġadjudic ation
Ġland lord
Ġcontext ual
lo se
li ant
Ġrespect ful
Ġj umping
Ġsh ah
se eded
Ġforb idden
im pro
Ġchrys ler
ĠÎ ²
a verage
Ġinter rupted
d av
Ġste f
Ġgrass roots
Ġover t
Ġcar ney
Ġhapp iness
fe red
Ġpe g
trans port
Ġsubsid izing
Ġcard inal
Ġj ol
cond itional
Ġhe ather
Ġinflu x
Ġol af
Ġconf using
Ġcelebr ates
Å ĵ
Ġcl out
av ille
Ġma id
Ġcommun aut
ic ism
ic ious
Ġdep ended
Ġjul ie
Ġla z
sh aw
Ġprem ise
Ġpot assium
Ġb illy
de le
Ġis ab
me xico
othe rapy
pl ane
Ġmal t
Ġboost ed
Ġ16 4
rich t
Ġdere k
Ġintermed iary
Ġredeploy ment
es ome
form al
ind ia
Ġsun set
Ġed it
Ġmed ieval
Ġtraffick ers
amend ment
Ã Ł
ph oto
Ġretur ne
Ġweak ening
Ġang les
sum mary
Ġcauc uses
ay e
Ġcommunic able
Ġstand point
Ġsatur ated
ring ton
Ġgener ator
Ġe k
col lect
Ġstabil isation
Ġj ung
Ġgil bert
s id
u j
Ġrev ive
Ġsud bury
Ġpredict ing
m ia
Ġin oc
how ever
Ġph p
Ġtor ch
Ġ................................ ................................
Ġhen ri
al berta
Ġad ul
ĠespaÃ± ol
13 3
ĠÎ¼ m
re rs
Ġsuper f
Ġdetect ing
ams il
Ġremitt ances
Ġredes ign
Ġm cle
Ġstrengthe ns
en ic
ĠÂ ¶
ser ver
Ġfid el
pa rents
Ġappl a
Ġappell ate
w ould
ou los
ur bs
Ġwhite horse
Ġre naissance
p owered
Ġpeters on
Ġdirector ies
Ġimproper ly
el led
Ġlam bert
Ġo ic
Ġs ung
Ġrecept or
Ġregional ly
Ġtem p
Ġweak en
ĠÌ Ī
Ġn ass
Ġmont i
Ġrecur ring
Ġstri pped
regist ration
c u
g at
26 1
Ġexp ropri
Ġflag ship
Ġinsist ing
Ġdimin ish
Î µ
if s
Ġv od
Ġmor rison
g old
Ġval ves
Ġoverl apping
Ġjane iro
8 67
ie ls
Ġtrail ers
Ġen erg
Ġbrow se
20 6
Ġinver tebr
Ġwho ever
lar ge
Ġx iii
Ġsubject ive
Ġfond s
Ġdig its
Ġfor ged
get s
Ġtrans position
Ġcomputer ized
Ġvig orously
loc ated
Ġc ip
Ġthir teen
Ġhung ry
Ġlub ric
Ġmass es
Ġleon ard
Ġtempl ates
Ġneutr ality
bo at
top ics
Ġp ets
Ġinter institutional
Ġ16 6
omet ry
Ġcross es
Ġg w
Ġbe th
Ġresort s
Ġat om
Ġpersonal ities
Ġapprec iates
Ġcompe lled
Ġibrah im
ia h
mon itor
Ġhor mon
Ġradi ological
Ġinjust ice
Ġadvis able
Ġatroc ities
Ġ19 55
a ic
Ġscient if
Ġbenz ene
webs ite
Ġceil ings
Ġem ily
Ġbudget ed
Ġblack burn
? âĢĻ
he y
Ġab ducted
Ġkur dish
Ġc ec
Ġpar s
Ġsur rey
Ġunif orms
if orm
Ġlaw n
15 2
Ġdoub ling
Ġcanad i
Ġsw ord
Ġp ix
Ġten ants
Ġnavig able
er able
Ġt uc
ak is
23 2
Ġf ats
Ġindu ction
Ġ19 46
Ġmag net
Ġpreamb ular
Ġempower ing
Ġ28 0
Ġmerg ed
Ġout fit
ac ies
Ġindem n
Ġch in
urs ions
Ġic onic
Ġb ison
bird s
Ġto pped
fac simile
Ġinter regional
Ġit iner
Ġup s
Ġmark er
Ġge off
Ġadapt ive
/ .
13 2
Ġpet ty
an or
Ġbund es
vas ive
Ġcandid acy
Ġinter connection
gr ass
Ġf p
Ġproc ur
Ġstric ter
cond itions
Ġemot ion
Ġdeduct ible
Ġevac uated
m ut
pa per
Ġren ted
Ġmotor way
Ġs cept
Ġinv isible
Ġmusic ian
ij a
Ġp icks
Ġi od
chn ya
Ġtri o
Ġaggress ively
ren ched
ab outs
Ġbish ops
Ġlearn t
Ġsurge on
Ġmahm oud
Ġc cc
Ġintent ionally
Ġd s
Ġnh p
Ġabbrevi ations
Ġrespons iveness
Ġref inery
Ġdist urbed
Ġbul ls
Ġt il
Ġfur ious
Ġbackground ers
en force
o i
p ublished
Ġpart isan
Ġdisc ourse
Ġembry os
Ġhe els
th row
Ġgast ro
pop ulation
ile o
Ġlan es
Ġreluct ance
Ġball istic
Ġber m
Ġun official
Ġco y
Ġsubst rate
esty les
Ġthan king
Ġamb ig
Ġw es
Ġter r
Ġn azi
Ġstockp iling
bet ween
Ġorth odox
Ġsynd ic
Ġd ash
Ġref resh
Ġ24 8
Ġsell ers
Ġun to
li qu
Ġexplos ions
Ġbar k
n n
y ards
Ġc z
ad just
Ġcan oe
Ġur ine
ax is
Ġphysi ological
ra il
se au
Ġf ights
Ġcru z
do ct
Ġtrustees hip
Ġw oven
ced es
Ġb Ã©
Ġadm ire
in ac
Ġra chel
Ġt ires
Ġr anch
Ġabst ention
ne xt
Ġl us
acc ord
Ġnok ia
Ġst arter
Ġmaur ice
Ġwell ington
Ġreact ed
Ġll p
Ġgmb h
Ġwe ird
Ġscrut in
Ġeigh teen
c ida
Ġrelie ved
Ġd ic
yc in
Ġminist Ã¨re
Ġarom atic
a us
Ġdoub les
Ġo mar
Ġop ium
let ters
Ġk oh
Ġver ifying
Ġ13 25
Ġcoinc ide
Ġrec y
Ġco b
am y
Ġunf av
sen ior
Ġincon ven
Ġduc hess
Ġu i
leg isl
Ġdund ee
Ġremn ants
Ġle m
Ġb end
Ġworld s
Ġsur pl
Ġche chnya
Ġexam s
Ġconver ting
Ġgeneral s
13 7
00 00
17 7
24 5
Ġdismant ling
Ġp ont
oc ative
ĠÃ ¥
Ġinnoc ence
Ġ erg
Ġa eg
Ġsa x
Ġs ct
Ġhas san
c ca
oun tain
Ġinform s
strateg ic
w au
Ï ģ
Ġc st
Ġprot racted
Ġimped iments
Ġ ï¿½
Ġfour teen
Ġwarrant y
Ġexpeditious ly
ost ing
Ġnum bered
Ġjul ia
u fact
sp anish
Ġthanks giving
w t
Ġinter ruption
Ġloc ker
Ġencoun ters
am ins
Ġbre ached
Ġsl ides
ig er
Ġmuham mad
re lig
Ġinad vert
ra ining
Ġk iev
me e
Ġ16 1
Ġber th
Ġgren ada
Ġrelie ve
Ġaffidav it
Ġmad ison
o ise
at hetic
ion es
Ġw rap
het amine
ic c
Ġed itions
was hing
Ġsurpl uses
m ith
18 2
cast ing
Ġinval idity
Ġpsych osocial
Ġarmen ian
r ide
Ġd ess
Ġsc out
Ġel astic
Ġrepos itory
Ġout dated
Ġden se
pol i
Ġtreat s
Ġacad ian
Ġcho oses
Ġb w
Ġlif estyles
Ġflu ids
Ġw iz
Ġr ider
Ġcapt uring
Ġri ots
Ġleak s
Ġsher brooke
mid t
Ġbl ur
01 1
Ġst icks
Ġnur t
Ġt ces
the ir
Ġearthqu akes
v p
Ġc hes
Ġpur ple
Ġcop ying
Ġmarked ly
b ling
Ġre ver
Ġh ij
Ġpr Ã©s
Ġa ch
Ġloc om
Ġash ley
30 4
Ġyellow knife
Ġcott age
* )
Ġcat ching
Ġcompar ability
Ġdeterior ated
Ġpoison ing
Ġb rent
Ġcon gestion
15 6
Ġrepl en
Ã¶ r
Ġsa o
Ġnational e
Ġest onian
Ġuns atisfactory
Ġser bs
Ġber ne
Ġ20 5
Ġgrab bed
Ġcance led
yn the
Ġund af
o ons
Ġcal ed
Ġextrem ists
sp ain
Ġbatt ling
Ġstate less
Ġfa ctions
Ġmagist rates
Ġformal ities
Ġdil uted
Ġerr one
Ġlanc aster
Ġfles h
**** ****
Ġhand ing
cor r
cult ure
Ġe ea
s askat
we ather
Ġpot ter
Ġcommem oration
3 20
Ġdispers ed
Ġg tr
Ġr ation
Ġwors ening
Ġd it
Ġl und
Ġ15 8
Ġviol ates
Ġcharacter ize
26 5
Ġrec urrent
Ġstat ue
Ġt ense
Ġd k
Ġr ash
Ġseam less
ss a
Ġener get
Ġb ree
Ġqu in
Ġdeb ating
Ġtouch ing
Ġnam ing
Ġobst etric
Ġfavor able
Ġfe ather
Ġret rans
Ġren al
Ġfit tings
Ġiv ory
Ġdevast ated
Ġday ton
b ands
Ġos ama
Ġdisproportion ately
Ġrichards on
Ġpro st
ah o
b illion
oc racy
Ġsepar ating
Ġdispar ity
Ġdialog ues
18 9
Ġl um
Ġmet re
30 3
Ġhalf way
Ġattend ee
2 14
load s
Ġmin ers
Ġsw allow
Ġk t
Ġdefin ite
Ġdeliver ables
Ġcongrat ulated
Ġdeb it
Ġcaution ed
Ġinsc ribed
Ġel bow
Ġpop ul
Ġdisbur sements
Ġc rest
Ġsp encer
Ġelev ation
al le
am ous
oura bly
16 5
Ġinaug ural
Ġs pp
Ġshell s
v ene
Ġmultilateral ism
Ġconstruct ing
found ed
Ġman c
na h
Ġcoex istence
terror ist
Ġign oring
Ġj unction
Ġdel inqu
s hed
Ġf art
Ġg erald
Ġde forestation
approx imately
assist ant
Ġz ur
resident s
Ġbic yc
Ġfull est
Ġfer r
Ġch im
Ġyour s
Ġcomfort ably
m are
Ġx v
Ġsp ike
ch ard
Ġwh arf
ber ries
Ġcas c
Ġ19 1
ang ular
se at
w ife
Ġbar red
Ġs g
13 73
Ġcondol ences
ios ity
ad y
Ġruss ians
l ated
Ġo ste
Ġun mis
Ġk od
ah l
Ġunc overed
ib id
Ġtwe et
Ġdisturb ances
Ġinconsist encies
bol iv
Ġse bast
Ġafric ans
Ġexcess ively
ote ch
Ġjan et
Ġandrew s
Ġrif le
Ġplace bo
Ġdev ils
Ġflu ores
mill ions
Ġinst inct
wau kee
b ler
Ġgu am
Ġmoham mad
n om
ed en
Ġhav ana
nrc an
ocult ural
Ġple ad
Ġtwe ets
Ġnca a
Ġdischar ges
9 05
Ġgu elph
co le
26 7
Ġjewell ery
Ġaest hetic
Ġground ed
Ġobject ed
Ġunif il
Ġbord en
Ġinc lined
ry ing
Ġ18 1
Ġic rc
Ġmot ive
Ġglo ves
Ġjob less
Ġheath row
elect ronic
Ġto mb
16 6
Ġd ancers
Ġmention ing
Ġmedic aid
hy d
u h
or ian
Ġse lections
prin ts
Ġjas per
u y
is y
19 2
Ġsupp ose
Ġtend ering
Ġdry ing
Ġcompli ments
Ġf um
Ġcirc ulate
fol k
Ġbread th
man ufact
01 3
Ġ16 7
Ġcle ans
Ġanten na
Ġdemograph ics
Ġtran qu
Ġtrent on
Ġp ou
ch inese
Å Ł
ur ities
Ġbillion aire
Ġexplo ded
Ġurban ization
Ġblank et
g st
Ġcw b
s il
ten sion
Ġreal m
pp o
Ġre leg
Ġre insurance
Ġindian apolis
every one
Ġpit cher
Ġsubstit uted
esco pe
Ġoccur rences
ri o
Ġshow ers
get ty
Ġgrenad ines
az e
Ġprin ts
c reat
st re
Ġdep ict
Ġspecim en
Ġar te
Ġrhyth m
13 6
Ġtel escope
Ġrub io
rim on
Ġirrevers ible
Ġpray ers
a q
Ġc un
j un
Ġunder went
Ġstor ing
Ġs ak
Ġqu eries
13 8
Ġaffir ms
Ġab aba
Ġsubmar ine
vious ly
Ġbened ict
co res
Ġam is
Ġlux urious
Ġn mb
Ġprim aries
ment als
id eration
Ġal um
Ġfed erations
Ġnews room
Ġgen omics
Ġpavil ion
Ġlight ning
Ġp he
Ġj ihad
18 7
Ġalphabet ical
f el
Ġkey note
Ġill um
Ġa ired
Ġrecip es
Ġpregn ancies
Ġr as
techn ology
Ġdesper ately
Ġsound ed
Ġembass ies
Ġcontradict ory
Ġsix teenth
Ġdys function
Ġsuper markets
Ġaccommod ated
Ġmechan ics
st ory
Ġarsen ic
Ġadd is
Ġfl ip
Ġsal ad
Ġcla ire
Ġ5 50
ÃŃ n
be h
Ġle th
Ġcr an
Ġcollabor ated
Ġun cle
Ġdis eng
Ġan gu
ut o
Ġ3 25
Ġguar ant
Ġannot ated
Ġmart y
Ġfl ames
Ġgest ure
he ro
Ġauthor izations
Ġ17 2
og y
Ġdi ary
66 2
oper ate
Ġpond s
e vent
Ġcomm ands
is ans
Ġfa a
Ġb air
Ġaw ful
Ġlo i
Ġmag nes
Ġconcent rating
ig a
Ġenc umbered
Ġster ling
Ġpos ing
li ber
d nd
Ġmam mal
Ġdiver ted
Ġ9 41
Ġmodern izing
met ics
Ġj in
Ġmon arch
Ġan te
Ġthro at
Ġproc uring
Ġunh appy
Ġunfore seen
Ġover weight
Ġchair men
Ġcross roads
Ġpenit entiary
2 11
Ġapp les
Ġp ests
ul u
Ġ19 44
ob ject
swit zerland
ne eded
Ġregret ted
Ġbu ch
Ġecho ed
Î ½
Ġoblig atory
Ġremem brance
w o
Ġce b
Ġexc lusions
Ġdem arc
Ġtop s
Ġsmooth ly
Ġham mer
Ġesp n
Ġintent ional
Ġmaxim izing
re me
os c
ast richt
Ġcoerc ive
Ġric hest
Ġstap le
ro st
ib a
Ġide als
18 5
Ġcou pling
Ġteam mates
14 9
Ġf Ã¼r
Ġdal housie
Ġmetab olic
Ġher ring
Ġfrust rating
em phas
Ġmark ings
Ġexplo iting
Ġsus sex
Ġprop het
Ġry der
Ġprescrib ing
Ġisol ate
Ġbench marking
Ġbro k
mar ked
Ġbud dh
Ġmil waukee
ć ć
Ġbol ton
ber n
sk illed
Ġbom ber
Ġnew er
Ġtreas ures
recomm end
li o
Ġdu ff
Ġvari ant
Ġg Ã©
Ġever ton
Ġgal ileo
Ġborrow ed
Ġjud ging
run ning
Ġtoler ate
Ġenc losure
6 50
Ġx xx
contract s
Ġend ured
Ġant iv
Ġaval anche
Ġrebell ion
Ġbea ver
Ġdif fered
14 3
Ġhost els
Ġdemocrat ization
establ ishment
u ities
Ġw ary
Ġ15 4
17 8
Ġeradic ating
Ġte aches
Ġhom er
Ġcd m
Ġreiter ating
Ġw ax
Ġer as
Ġsou p
t et
Ġli que
Ġvic ious
hydro xy
Ġpl ag
Ġsubsc riber
pl aced
Ġgh s
art a
Ġce real
Ġshr inking
c ott
Ġle mon
Ġaf p
Ġconcord ia
Ġdetect ives
Ġab rupt
Ġre na
Ġtouc hes
h az
Ġamph ib
Ġevalu ators
Ġsie ge
Ġrall ies
Ġvolcan ic
hen ko
Ġtim othy
Ġstim ulation
Ġcompos itions
Ġde ton
process ing
Ġincap able
Ġsc p
Ġcontra ction
Ġme lan
im an
Ġrecogn ising
r ina
Ġe up
Ġly on
Ġalter ations
Ġau ctions
Ġvint age
l ake
Ġhe w
Ġdon ate
Ġreward ing
k napp
ip a
Ġpract ised
Ġ16 3
Ġinn u
Ġer ie
Ġf et
Ġun sc
Ġ15 9
Ġstri ps
plan ned
Ġconstitu encies
Ġembra cing
Ġretal iation
it ri
15 8
Ġclient ele
am id
Ġse ld
Ġinvol untary
Ġphilipp ine
Ġborrow er
Ġtra ces
Ġlo vers
Ġep it
Ġanthrop ogenic
Ã ½
Ġ5 14
Ġbe ts
us k
Ġimp over
og o
Ġsubs pecies
Ġ4 99
Ġmarginal ization
Ġinv oke
id able
sh adow
Ġm me
Ġge o
Ġl ining
Ġauthor itative
du ly
Ġhal ted
represent ation
the ning
Ġpeak s
Ġcont end
Ġpossess ed
t ms
Ġpre rog
Ġshr ink
l b
Ġem ble
Ġ6 50
Ġser um
Ġn ost
Ġsc ared
ind ian
Ġsil k
Ġtra ps
Ġsub urbs
Ġest e
Ġdocument ing
Ġmyster ious
un h
Ġsk ies
37 0
Ġto e
Ġbel ts
16 2
Ġemb ark
Ġm isd
Ġshe ikh
Ġbeh ave
Ġger min
Ġp irates
ig or
Ġ9 97
Ġgeograph ically
iner ies
Ġand ean
22 8
47 2
Ġbip art
Ġarn old
Ġb ing
Ġl oth
Ġexp o
Ġharmon ious
Ġplay ground
Ġbar ra
Ġste al
Ġquant um
li ka
Ġquar antine
Ġun for
Ġstand by
Ġham burg
Ġsun shine
Ġve in
ĠâĢ¨ âĢ¨
Ġin hab
Ġf uk
mon ary
rank ing
Ġsc it
Ġen qu
Ġgu ild
threat ening
Ġathlet ics
Ġ21 7
Ġnavig ate
Ġ24 2
ur t
Ġsolvent s
ne z
Ġli u
Ġdeploy ing
Ġpharmac ists
Ġprosec uting
Ġtrans itions
Ġcher ry
b led
ok o
Ġhom icide
Ġin eligible
Ġem inent
Ġsw aps
ial uit
ac in
38 0
Ġcock tail
Ġ19 53
Ġara bs
Ġl g
Ġcareg iver
ip ot
Ġnew born
Ġpresent er
f ri
ir p
28 0
Ġne at
Ġspecial ization
Ġmer cedes
Ġquant ify
Ġdel im
Ġ27 5
p hen
re x
Ġmem oir
Ġkil ograms
Ġp oker
Ġles bian
Ġhat ch
Ġcontrad iction
Ġenv ision
Ġsh ippers
Ġpath way
Ġuc la
Ġmov able
Ġun identified
din and
Ġinf licted
Ġsect arian
and ez
Ġgu ang
Ġinter modal
Ġlo oph
Ġdecommission ing
2 18
Ġf tes
Ġnom inate
col l
Ġwith stand
Ġext in
Ġfacilit ators
Ġass erts
Ġyar ns
Ġbra kes
Ġred knapp
Ġcal der
Ġhere with
year s
Ġsouther ly
Ġhuge ly
Ġn af
ie ux
ob yl
Ġwarm er
om ery
Ġus c
1 000
Ġhist ories
Ġcard inals
Ġdepth s
Ġvigil ant
m oon
Ġir rad
Ġv id
Ġvill agers
wid th
Ġbrun o
Ġdown gra
Ġdark ness
Ġell en
Ġ18 9
f ind
] ]
pr st
Ġpossess es
Ġsc aling
Ġindefin itely
27 5
le z
Ġport rayed
i ott
Ġs irc
ph a
Ġdep ot
Ġw en
if ers
Ġcasual ty
Ġjeopard ize
Ġspont aneous
Ġeag les
Ġimm ov
gs b
Ġpl c
Ġsant os
un esco
Ġro oney
Ġtri poli
Ġre active
Ġreturne es
Ġcha pel
Ġrot ating
Ġdivor ced
ol in
3 30
Ġwas ted
Ġaccount ant
Ġp ills
Ġ19 39
Ġwid est
Ġ87 40
Ġy ale
pos s
Ġfire works
par k
Ġanc illary
d ock
ol an
Ġst ack
Ġant it
belg ium
Ġreview ers
Ġremark ably
al is
Ġad rian
Ġmess aging
Ġs ont
Ġcontin ents
i ber
Ġs ous
Ġg our
Ġmerc en
ib i
Ġgal a
19 5
p ct
Ġpr one
s afety
Ġsimpl ifying
Ġh g
Ġ3 30
Ġdam s
Ġgreg ory
Ġwh ites
Ġunder lining
n orm
24 3
Ġvit amins
Ġl om
Ġhistor ian
Ġcontra ceptive
Ġmicro s
Ġderiv ative
Ġcounterfe iting
Ġl p
Ġk om
ens on
graph ic
Ġtong a
Ġuphold ing
Ġcollect ors
art oum
Ġobject ivity
Ġmic row
Ġsupposed ly
re au
erson al
Ġrevers al
Ġequ ities
Ġsal on
Ġescal ating
Ġd irt
Ġmar cel
Ġqu Ã©
Ġbever ly
Ġa e
Ġo ra
st ill
19 73
p her
Ġra ids
Ġp cs
Ġaer op
mod ern
Ġtax on
Ġmult is
govern ance
teg rated
Ġcos metics
Ġachie vable
Ġneighbourhood s
Ġcla ud
market ing
Ġsalv age
âĢ °
Ġcl ips
Ġallot ted
Ġinterviewe es
Ġb other
Ġst am
Ġprogram matic
Ġprim a
ou p
Ġg av
Ġcart el
que z
Ġdiscrepan cy
Ġcultiv ated
st ad
Ġsh am
Ġretrie val
Ġflag rant
Ġa kin
Ġn ab
ad r
val u
Ġunint ended
u ve
Ġob ese
Ġh il
Ġsub urb
Ġcod ification
Ġinfring ed
% ;
Ġcondem ning
Ġemerg es
Ġsol ids
Ġfif a
Ġfa q
Ġd ag
ph is
Ġshe ila
Ġspecific ity
Ġp ga
sp ot
Ġes a
gan g
Ġpen ny
Ġla f
Ġshe lling
19 84
Ġindic ted
Ġjohn ny
Ġali ant
Ġgre eted
Ġdifferent iate
Ġ95 2
Ġd read
tain e
pr ice
Ġv ous
Ġnumber ing
Ġ# :
Ġs ans
Ġmon ica
graph y
Ġcolum bus
Ġdest iny
Ġdilem ma
f orth
Ġreven ge
Ġcataly tic
Ġf airs
Ġform idable
25 6
Ġvolunte ering
report s
Ġseab ed
Ġs inc
Ġqu iz
Ġbl at
( )
m ount
ro x
Ġre ap
Ġpan ell
Ġnh pd
z el
st ick
Ġun conditional
Ġs lud
per iod
Ġconfisc ated
Ġnational ities
d n
l uc
Ġliqu or
Ø§ ÙĦ
Ġspect ators
i ology
Ġt and
Ġw av
Ġwid ow
ang a
Ġma astricht
co very
ress es
gu y
lus coni
organ ization
Ġm umb
im ages
Ġissu er
comm un
Ġdispat ched
or ative
Ġauthentic ity
pe are
vol ume
Ġle eds
s atur
Ġnorther ly
Ġcur rents
Ġartic ulate
Ġparen thood
k il
Ġs ized
get own
Ġble eding
Ġab dom
Ġreson ance
Ġcol lar
Ġ23 5
Ġfer dinand
Ġconstra int
it te
Ġdist ortion
25 3
Ġfinan c
j ar
t ow
Ġuncon stitutional
ve h
Ġmat te
Ġcy an
Ġseld om
p henyl
form er
Ġpriorit ize
Ġe f
Ġout ward
Ġat e
Ġopen er
Ġrein vest
Ġresid ences
minister ial
Ġcoerc ion
er ative
Ġres ides
par able
Ġexplo res
Ġnovel s
d est
v oc
al c
aust ral
ous al
Ġmot ives
l ene
Ġ3 20
Ġread ings
Ġsevent eenth
Ġeaster ly
Ġbur ial
h in
aut h
Ġass aults
ass en
Ġess ay
Ġhospital ization
o ic
Ġ20 7
Ġtank er
Ġmir rors
Ġnovel ty
Ġlab s
Ġfig ur
Ġtransmit ter
st y
23 6
Ġj el
Ġdis rupted
act ic
Ġsexual ity
names e
ass es
67 5
tra ined
Ġash ton
st airs
th ro
Ġdis gu
Ġ9 96
Ġnegoti able
Ġdistort ions
unc iation
Ġk yle
ach lor
Ġtur tle
Ġtoler ated
Ġt m
Ġharmon izing
Ã± o
Ġreun ion
Ġpe pt
l iving
Ġtim ore
par is
Ġdu o
do ors
b road
Ġtail ings
at on
oc he
Ġrec ap
Ġbank er
Ġcod ec
Ġrenew ing
Ġlight ly
list text
Ġant agon
Ġfunda mentals
Ġbe loved
ce fact
Ġ17 3
Ġinter f
Ġcl oning
Ġarr ivals
Ġmont g
Ġstret ched
Ġstup id
ra vel
Ġdw elling
Ġcomp ression
Ġcup s
cap acity
ob enz
Ġid ol
sm ith
Ġro ws
Ġem itted
Ġbu ys
Ġpromot er
chlor o
Ġass ay
Ġber lusconi
bra zil
Ġammon ium
ere rs
Ġm asc
Ġhaw k
j ack
Ġport age
Ġdro its
. [
Ġa ung
am ino
tt i
Ġprestig e
Ġp pe
sec ure
is ition
Ġinterrog ation
Ġtimore se
ol ve
Ġz ucker
Ġregist ries
tr ust
Ġa it
Ġpeace fully
Ġslo gan
Ġra ys
Ġwhere abouts
Ġse aling
Ġjur id
Ġassign ing
Ġyear book
19 81
Ġox ides
iss on
Ġprogress ed
Ġ17 7
if a
40 4
Ġimplic ated
Ġpl en
pt ive
60 3
Ġtheat res
Ġreward ed
Ġcrus hed
Ġun duly
Ġtransf usion
otyp es
Ġdepart ures
24 8
Ġforec losure
Ġquot es
y ang
ent ive
Ġplaintiff s
Ġeigh teenth
se ver
Ġbod ily
Ġkh artoum
Ġinterd ependent
Ġpsych otropic
Ġdev olution
Ġfle ets
Ġencompass ing
Ġhe z
Ġnational ist
Ġflo at
df ait
Ġk lu
inn ov
Ġequ als
Ġcon gen
Ġex tern
Ġloc ks
-- -
Ġexplor atory
Ġf res
Ġin efficient
Ġnat al
Ġdeter rent
24 2
Ġcler ical
Ġdictators hip
Ġvis ually
Ġbilingual ism
Ġo mitted
15 9
Ġinuv ialuit
Ġtoul ouse
Ġles lie
Ġth ames
Ġpard on
Ġcomple ments
Ġbank notes
19 82
oph ysical
Ġphotograp hers
Ġbar r
Ġpal mer
dem and
Ġen light
14 2
Ġsh ine
Ġboy friend
Ġval encia
Ġphot ocop
Ġform ative
part ners
Ã¡ s
** *
Ġsummar ize
Ġrall ied
s lo
Ġre introdu
Ġcro s
Ġab ate
ce ls
13 9
Ġse ren
Ġsyn opsis
Ġcoven ants
Ġlenn on
h art
n ance
Ġst alled
Ġentr ust
Ġpal in
ul ed
Ġrep ris
Ġdisc la
omet h
Ġmagnes ium
Ġbath rooms
Ġvoc abulary
Ġinject ing
Ġpar ach
Ġfl ies
Ġbern anke
Ï Ħ
Ġcart oon
e ach
Ġper me
tar iff
Ġp umping
Ġkindergart en
ced aw
Ġ15 00
f ishing
q j
op es
Ġhu go
Ġest ates
cr ime
q w
Ġun ccd
Ġex agger
con tain
fis her
Ġpl ac
Ġsur rog
Ġlit ter
ids on
rep ublic
Ġrece ivers
16 3
40 7
fall s
19 1
Ġox idation
Ġev asion
Ġcur iosity
bec k
ĠÃ ¸
Ġdrag ged
Ġsper m
Ġcan yon
Ġqu ery
Ġbo o
Ġefflu ents
Ġhern andez
op l
Ġtag s
Ġal gae
Ġtast es
s v
Ġlong standing
Ġ< /
monitor ing
e arth
00 6
Ġdef amation
Ġap ost
un ted
Ġ22 6
Ġround ing
act ivities
Ġmon ster
Ġfav ored
Ġphosph ate
pr ince
Ġret ard
ch ant
] ;
Ġcompart ment
Ġ12 67
subst ant
Ġms nbc
Ġcongress man
Ġdeport ed
categ ory
Ġover riding
16 9
Ġtheat ers
f its
Ġcomp ressed
Ġcomplain ing
Ġg orge
19 6
Ġelect r
Ġdr unk
Ġtunis ian
squ are
Ġlo oming
Ġprof iling
inform al
Ġbi olog
Ġviet namese
Ġad hered
Ġfin ale
do es
Ġfurther ing
Ġmel bourne
Ġ iz
Ġst air
Ġtransplant ation
Ġbe an
Ĩ Ĵ
Ġad en
ib les
re ction
Ġsp am
Ġfun gi
Ġ25 1
in el
es h
st ructure
t n
Ġcere als
Ġcyl inder
Ġo le
ag ain
Ġkidna pped
gene va
Ġle uk
Ġsl iding
Ġsail ors
Ġpries ts
Ġimplic ation
she et
Ġrand y
Ġtrace ability
Ġmanc ini
us ible
Ġn ous
Ġunique ly
Ġfat alities
Ġnig el
Ġun amsil
29 0
Ġparad ise
p ric
Ġ18 3
Ġdens ities
avail ability
w il
Ġind ul
Ġcr ane
Ġloc ator
Ġ17 1
Ġrent als
is ites
Ġj okes
Ġo ve
Ġqu inn
Ġleg ion
Ġvol ley
Ġvers at
Ġhi ke
f ired
Ġconsequ ent
pol l
establ ish
Ġed u
ind ividual
know ledge
Ġsanct uary
Ġshakes peare
Ġne br
Ġsh ir
Ġbureau x
Ġg end
ogen esis
ele ctions
relig ious
st ed
bal anced
Ġconce al
Ġfinal ization
ec k
Ġislam abad
Ġtur f
Ġ ich
ond o
Ġsix teen
y outh
Ġar row
37 5
Ġstockp iles
um i
Ġwas hed
Ġpre condition
Ġdisin fect
he et
ca f
Ġbi ased
Ġinsign ificant
ĠĠ ĠĠ
in av
Ġinsp iring
Ġal erts
Ġpe p
con nell
Ġ17 4
Ġtrib une
re ce
Ġx box
14 7
Ġbry an
40 5
Ġker ry
Ġbibli ography
em ption
19 8
Ġcommemor ate
Ġland owners
Ġes sex
Ġmid west
24 9
Ġder iving
w ire
m ater
t os
Ð º
Ġle aked
Ġmail ed
Ġsuz anne
Ġparadig m
r iv
Ġly rics
Ġextin ction
Ġt ories
ish able
Ġcr ashes
ĠâĢľ [
Ġv ivid
Ġarr anging
Ġcritic isms
Ġark ansas
19 78
Ġtest ament
Ġped agog
Ġspread s
Ġfred die
Ġquit ting
Ġpredomin ant
Ġtomat oes
Ġf riction
24 1
Ġ ubs
as ers
Ġfil ming
g all
s ight
Ġinternational e
Ġdual ity
Ġb b
sp oken
iv able
Ġem ig
Ġtap es
cons erv
23 4
Ġst if
Ġab bey
ign ant
Ġeman ating
Ġfr inge
Ġrev amp
president s
j c
ear ly
Ġir u
reg ulatory
Ġdeple ted
23 8
sh irt
Ġdownload ing
Ġn cbs
Ġma o
Ġsw orn
Ġremitt ance
Ġ21 5
Ġfertil izers
access ion
Ġneed les
Ġwater front
Ġblock ade
cl ub
Ġman ually
Ġorigin ate
Ġgabri el
Ġchern obyl
Ġcomment ators
Ġdesign ating
Ġpat ches
prior ity
ak y
Ġble w
e lement
ar as
Ġst airs
Ġthr ive
l ag
Ġv ick
Ġwater f
gro wn
w ives
Ġbo ge
Ġpast or
Ġoutwe igh
s us
ap i
ordin ates
Ġclean ed
wat ers
Ġca pped
Ġgre et
Ġgib son
Ġs ard
Ġhigh land
Ġcf sp
Ġscreen ings
Ġw esterly
Ġre open
Ġpr ist
Ġty res
Ġportfol ios
Ġse men
Ġk ol
Ġgrand children
Ġexhaust ion
p n
ab cn
15 3
ro e
Ġcustod ian
Ġdef ences
Ġ17 8
Ġpain ter
Ġmumb ai
ob iles
Ġdefer ral
Ġell is
c atch
Ġhe p
Ġdispos able
Ġflamm able
40 2
Ġug ly
Ġembarrass ing
Ġmagist rate
Ġb ie
Ġdi ets
Ġsc o
Ġmal treatment
Ġcounter measures
Ġex ile
ct s
Ġwood land
ira p
are rs
Ġcand y
Ġtransl ating
Ġsle e
Ġell iott
Ġis bn
Ġp ia
appro val
s ided
Ġunders cores
to ire
ra f
Ġro pe
Ġdemol ition
ul as
Ġgra ves
Ġhost ility
Ġcry ing
Ġtit anic
ase ous
Ġjoy ce
Ġcatastrop he
Ġï ĥ
Ġrandom ly
Ġan ecd
Ġren d
Ġcd n
Ñ ĥ
id ate
Ġ20 3
Ġdemocr atically
Ġscr atch
Ġom issions
se es
onym ous
Ġridic ulous
ĠdÃ© c
h ung
or o
Ġspecific s
Ġshel ves
fund ing
Ġunp ublished
Ġtibet an
Ġhez bollah
l ash
ag ent
Ġgra pe
Ġtourna ments
Ġwholes al
Ġcustod ial
Ġed ps
Ġnot orious
feren cing
Ġbrief s
ik o
Ġma ori
lo ver
este em
k ick
Ġethyl ene
Ġnebr aska
Ġshoot s
Ġon us
Ġl il
Ġintrins ic
n ov
Ġp ens
Ġlobby ists
Ġtraffick ed
h ua
Ġd iana
x b
ck ed
win ter
0 50
3 01
am ount
Ġw w
Ġty r
Ġste aling
dep le
Ġcoc oa
Ġundermin es
Ġs as
des c
Ġhall s
c ry
Ġo y
Ġk icking
av ik
Ġflee ing
Ġmercen aries
f em
at um
Ġinter ception
Ï ĥ
rad io
Ġa ro
Ġstation ed
Ġalger ian
Ġsh in
Ġl b
Ġstret ching
Ġtray von
Ġview point
Ġmobil ized
al k
16 1
Ġl aps
Ġmult im
fran Ã§
t in
Ġcm c
Ġacoust ic
com bat
Ġcoast line
Ġstream ing
Ġnic ot
Ġenact ing
Ġbreat he
Ġdis qual
Ġmid day
Ġfav ourably
Ð ²
Ġi ber
Ġabstain ing
Ġr m
Ġq at
ad m
am il
g io
Ġp orter
Ġdr astic
Ġrum ors
Ġlaw fully
Ġj oc
Ġreb ates
l ists
n ick
Ġtra ced
Ġbro ck
37 8
Ġredund ant
Ġber ry
w ling
Ġb enth
Ġcomp iling
Ġfra gments
r ard
Ġs is
âĢĿ :
Ġra v
ha us
Ġsy rup
Ġobject ively
Ġbeautiful ly
cla ude
Ġram os
gu ide
22 3
Ġ23 4
Ġdiscover ing
Ġglac ier
Ġpre text
Ġtat too
00 8
Ġhuman kind
Ġfol d
Ġhp fb
o pp
d ia
Ġspect ra
Ġgriff ith
Ġdist ill
Ġd ump
Ġcar leton
bec ca
Ġf ancy
Ġse mic
Ġun beat
up on
Ġcell ul
Ġspeed ing
Ġtight ening
Ġcul inary
Ġme ll
Ġu a
Ġpolit ic
Ġz ip
Ġtra m
28 3
Ġunf ounded
oper ating
Ġth Ã©
Ġc gc
Ġset back
Ġtheat rical
Ġge opolit
Ġtro is
Ġmar vel
Ġtw ins
ann on
Ġpres chool
Ġgra zing
Ġok anagan
Ġcad et
r ue
ob server
cs a
Ġbott len
ri ad
Ġbi ot
Ġsym phony
Ġpod ium
l ides
Ġ2 11
Ġwa ived
Ġethiop ian
Ġster ile
Ġw art
Ġmississ auga
Ġabb ott
Ġpe cul
Ġin ert
Ġen velop
Ġso aring
man aged
Ġda unting
imp se
rov iral
Ġpun itive
Ġunp op
Ġz u
Ġfil med
Ġsuscept ibility
afric a
mont real
Ġinfra red
Ġbo ating
Ġform ations
Ġh omet
ĠâĹ ı
Ġmel ting
sh are
st ay
ine jad
Ġha em
c ns
Ġunf ccc
Ġty ph
Ġgra pp
Ġgra ding
Ġredist ribution
Ġappla use
b ucks
Ġpro pe
ival ent
Ġexperiment ation
Ġn autical
Ġgl impse
Ġreloc ated
Ġbre wer
Ġbicyc les
Ġf ide
og ne
Ġfav ours
17 2
Ġphil anth
Ġspir al
Ġpain ts
Ġaccum ulate
Ġsp ousal
Ġel le
Ġthe sis
Ġbas ics
n ort
Ġo me
Ġto ut
Ġhydro electric
ophob ic
i ant
Ġw c
Ġbe ats
Ġsale h
Ġrest ing
Ġc ate
Ġun regulated
Ġinject ed
Ġsp arks
Ġver b
somet imes
Ġclar ifications
Ġstim ulated
ours es
Ġdwell ings
prim ary
b ath
d ar
Ġsubstant iate
Ġsam i
Ġr he
Ġher d
d ial
d uring
ce phal
Ġint ending
Ġgr ands
Ġboss es
Ġdimin ishing
Ġout post
Ġ17 9
tra ff
Ġprevail ed
8 50
Ġindex es
Ġhe b
Ġtri ennial
mat y
Ġtu valu
Ġsurge ons
8 77
ans on
Ġte bow
Ġem u
in it
Ġf sa
Ġ20 6
h ig
Ġo un
fin anced
Ġpig s
de fin
Ġbu ilder
issu ed
v r
ad ish
Ġjen kins
Ġa ub
in ence
Ġfinal izing
Ġbor ough
Ġundes irable
Ġres ent
and y
Ġcl oth
che on
Ġpred ic
ch anging
doct oral
Ġs our
ah an
Ġst roll
Ġinter rupt
Ġstim ul
p b
Ġignor ance
Ġg aseous
Ġun named
ong a
Ġsand ra
Ġhyper tension
Ġrecept acles
Ġcri pp
et z
Ġwa ive
ynam ic
Ġattrib ution
Ġtal es
Ġinvent ed
Ġinhib ition
Ġg rief
Ġcomp rehen
Ġm n
30 2
Ġprofound ly
Ġfost ers
Ġcolonial ism
Ġb ren
Ġcapt ures
Ġvigil ance
Ġg are
Ġrest raints
Ġren ts
Ġfoot print
Ġcell phone
Ġrein forces
Ġpeters burg
Ġberm uda
l ived
Ġfuel led
Ġnunav ik
ash i
Ġtom my
Ġknow ingly
Ġx in
Ġmon e
yl an
Ġra ins
Ġremov als
Ġsn ack
Ġgun men
Ġbutt ons
Ġdescend ants
Ġdis b
it Ã©s
Ġint akes
Ġinj unction
Ġdeep est
5 19
Ġwe ed
Ġc ette
Ġchrom at
Ġpre occup
Ġp ess
Ġemphas ises
Ġabra ham
Ġv ivo
ire t
99 9
Ġf ores
Ġn ak
Ġent rants
Ġign ition
Ġd war
Ġcc g
m ish
Ġs ow
Ġc age
ig ra
Ġfil ip
Ġpoly mers
chell es
Ġover turned
loc ks
i mental
Ġequ ations
Ġpost season
24 4
Ġun ta
Ġdr if
Ġrepe ating
Ġscra mb
Î ·
es ia
we ed
Ġsim plic
Ġegypt ians
acc um
Ġm und
v or
perform ing
en berg
ate urs
Ġpromot ers
Ġcapital ize
Ġblow n
Ġinterven ing
Ġcond oms
col m
Ġla ud
bo ys
Ġ23 6
Ġor na
Ġ19 2
Ġtight ly
Ġrehe ars
uk i
y ms
Ġretrie ved
Ġembry o
Ġincub ation
Ġg ently
Ġste er
Ġenter taining
part isan
Ġunilateral ly
Ġturb ine
Ġunreal istic
ops y
Ġric her
Ġbattle field
Ġimmers ion
Ġis le
Ġbiz arre
Ġs inks
Ġpossess ing
s ic
Ġre ef
Ġpast a
Ġincident als
Ġtr unk
Ġradi oc
Ġca usal
ale y
Ġra z
19 83
Ġo sh
Ġsepar at
Ġnom inating
Ġrefrig eration
+ ,
Ġ19 42
Ġlocal ized
Ġferr ari
Ġst oke
Ġincre ment
Ġblow ing
Ġdrum s
Ġshar ks
Ġblaz e
Ġsm og
Ġbroad ened
Ġ= >
Ġcoc a
Ġg low
Ġcan nes
Ġsim ulated
25 7
Ġl ately
Ġdetain ee
Ġal ice
Ġincumb ents
whe el
2 15
Ġmem phis
Ġsadd am
f ashion
Ġnich ol
ale z
Ġb urs
Ġm ca
Ġearn est
on der
Ġfor ging
n ova
p ent
Ġhomet own
Ġcost ume
Ġdeploy ments
Ġmerc osur
Ġblack berry
Ġcheck points
Ġs Ã£o
Ġsh ab
Ġclass rooms
Ġc ric
Ġemploy ability
Ġgl ut
Ġper imeter
sh tml
bl anc
Ġow l
Ġc ared
Ġgree ks
Ġj ill
ne g
Ġaccount abilities
j oint
k r
Ġcoating s
Ġb n
Ġstockp ile
Ġp ants
Ġl ime
Ġadvert isers
Ġimag ined
Ġunint ent
Ġbi ometric
Ġsand wich
Ġyemen i
Ġqu int
Ġout doors
Ġred ou
9 17
max imum
Ġcontest ant
anal ysis
f en
us ually
Ġunders core
ac ad
Ġsing ers
Ġden ounced
ment ation
Ġdon na
sk irts
bring ing
w r
Ġm ansion
14 8
ug a
Ġprincip als
26 9
Ġl ans
um c
Ġpers ian
29 5
Ġpsych ologist
Ġunpop ular
en i
Ġn cr
ig roup
Ġg um
Ġk un
23 9
Ġdesp air
Ġtomat o
ol ics
associ ated
Ġcol loqu
chlor ide
Ġaver t
Ġbur ton
Ġdan ube
Ġuniform ity
d ow
Ġo usted
Ġun specified
Ġk um
ĠÃ ¼
st ates
Ġteam work
Ġendow ment
Ġj iu
Ġco asts
Ġeven ly
Ġtoxic ology
ices ter
19 4
Ġlegisl ated
it us
Ġbel fast
ind a
ins ki
Ġ17 6
Ġsa g
bish op
Ġinter fer
Ġcontamin ant
Ġn ail
Ġ20 8
ple as
ode f
Ġrap ed
Ġturb ines
ĠïĤ ·
, %
Ġtra ject
Ġtele film
Ġcollect or
Ġillust rations
Ġgos pel
Ġsu isse
ag ree
Ġelect rom
Ġpred ation
Ġhier arch
as ive
Ġrich ness
Ġl q
sh ort
ra ys
Ġinf lows
rup ting
26 4
Ġg wich
Ġbas al
sk a
viol ence
Ġb t
Ġmed ically
Ġ20 9
Ġreflect ive
Ġrev oke
22 4
Ġmor mon
Ġwaterf owl
Ġfart her
f red
30 7
Ġt ighter
Ġw enger
ac ia
c ular
Ġoverwhelming ly
Ġdisbur sement
Ġun a
Ġcl and
Ġsc outs
Ġimmov able
Ġf f
oc a
Ġcooper ated
ari us
Ġsol itary
Ġamort ization
ro lling
Ġmar ian
Ġd ion
Ġhe s
y oun
Ġcerv ical
ger icht
Ġtai pei
t ub
Ġar ar
c ose
Ġli k
Ġ25 6
Ġadapt ations
Ġrus hing
Ġexp ans
Ġrom ance
Ġmot to
Ġun amb
Ġhonest ly
und ers
Ġuncom mon
Ġacron yms
Ġcan vas
Ġauthor itarian
dele tion
ph yl
lu x
Ġquick er
Ġapprais als
rem lin
9 233
Ġth wart
Ġde mining
lud ed
Ġat hab
Ġshe pher
Ġsn acks
Ġrip arian
Ġrede em
b os
Ġstar bucks
dep ts
Ġhc v
t ops
y k
cent er
factor ily
Ġc ps
Ġmicrow ave
Ġ5 000
cont rats
Ġbm w
Ġcomment ing
clin ical
g ia
bal ance
Ġcircum vent
Ġp ag
Ġout skirts
sc ient
Ġcb d
Ġsun der
Ġattach ments
treat y
coun ter
Ġpromin ence
ad er
con vened
Ġst ump
e au
Ġe brd
Ġwond ers
Ġp co
17 1
27 6
Ġdisag reed
Ġank ara
ms c
Ġfra med
Ġcirc ulating
Ġcylind ers
Ġs ank
Ġdepart ing
sh oot
Ġid aho
Ġdred ging
Ġm ing
Ġpart nered
Ġafter ward
Ġdepart ed
Ġcomprom ising
Ġrecons ideration
redu ction
Ġmor ality
Ġwat ts
Ġsimplic ity
Ġmad onna
al do
el les
produ ced
Ġcous in
Ġco hesive
Ġsp inal
Ġnotice able
Ġc out
Ġha iled
Ġpe at
Ġberg er
Ġcan ned
Ġdisc ounted
Ġve ctor
qa eda
p sc
lo d
Ġmet allic
Ġaud i
Ġadmit ting
lau rent
o ire
Ġbern stein
Ġh int
Ġp em
Ġin active
ens ity
Ġsey chelles
Ġrevers ing
cart ier
Ġdi ab
Ġbroker age
oc ese
Ġplat inum
territ ory
Ġadvent ures
Ġsquee ze
inform ed
ect oral
Ġ3 67
Ġgen us
Ġstr ives
g f
on ium
her ing
Ġjack ets
Ġre use
ov al
d ry
Ð ³
ow ers
net herlands
u ously
Ġspell s
Ġr fa
traff icking
m arc
Ġa aa
b ay
Ġi om
Ġconcurrent ly
an us
Ġspecial izing
Ġpo ppy
Ġpre fect
ft ime
Ġaston ishing
incre asing
Ġbas ins
Ġt ally
Ġren Ã©
Ġara fat
Ġwarri ors
ĠÎ ´
Ġremem bers
Ġev a
contract id
Ġa pol
Ġco ch
ach i
cont rd
contrd ate
m ake
n age
Ġs age
ri ans
Ġk la
Ġb uc
Ġpecul iar
Ġco ke
Ġchild birth
Ġbul lets
Ġpul monary
los ures
crit ical
h ole
Ġsk et
pay ments
Ġgam ble
19 67
Ġpit t
consum ing
enforce ment
Ġbipart isan
Ġins ertion
af a
Ġdict ator
sign ificant
t ro
Ġinterp ersonal
hab i
in sp
16 7
Ġhunts man
ĠÃ ª
Ġintegr ates
Ġnh ps
includ es
Ġplace ments
Ġdiv est
boliv arian
Ġha ird
Ġcs r
Ã¢ te
ate l
Ġra cially
Ġt art
Ġl ud
oc oc
Ġahmad inejad
t ably
ad h
op ed
17 6
Ġsymp athetic
streng thening
Ġprostit utes
Ġnew ton
Ġtur tles
Ġse ated
Ġtr uce
Ġm uc
Ġun enc
Ġhost ages
Ġlever aging
p end
Ġnat han
gl omer
hous ing
l ide
Ġmal colm
Ġmontg omery
agricult ure
Ġfor wards
Ġbe ast
Ġ19 5
Ġpe an
Ġsim ulations
Ġfost ered
g iven
Ġ4 25
av en
Ġinj urious
Ġliber ian
Ġunc ons
n u
Ġan the
Ġ9 95
Ġfac ial
Ġmoder ately
od ies
Ġlif ts
step s
Ġfalk land
s ud
Ġs op
Ġhum or
Ġmus sel
Ġre yn
fr ank
ordin ating
Ġhydrocar bon
Ġbo iler
Ġes qu
Ġsatis factorily
26 6
Ġker nel
Ġwat ches
Ġh ilton
Ġacqu itted
Ġdelay ing
Ġm ys
Ġthat cher
Ġimped iment
Ġslud ge
. }\
Ġv all
Ġcreat ures
rimon ial
Ġis t
Ġy u
pr ises
Ġpaper work
Ġsym met
Ġindefin ite
Ġst icking
Ġinvest s
Ġdiscla imer
asc ript
Ġhe li
Ġbl anc
Ġtrick y
Ġ} {\
i q
arc ity
âĢĵ âĢĵ
ica pped
Ġang lo
Ġnight mare
Ġsurren dered
ell ar
set te
Ġceremon ial
Ġbrad ford
Ġpione ering
Ġcraw ford
u atu
Ġfilm maker
Ġord nance
Ġmar ble
Ġhor rible
Ġroll er
bas ic
Ġswan sea
Ã ¹
app ointed
resp endable
Ġmanusc ript
Ġqual ifies
Ġescort ed
Ġclass ify
Ġyoung sters
Ġcontin ual
let cher
Ġv ip
conf ident
Ġue fa
st ring
Ġ( '
Ġ3 33
Ġarch ived
Ġpatri ot
Ġcland estine
Ġre becca
ess a
Ġfound ers
vio let
d w
Ġhigh s
ush ima
pol ice
Ġfug itive
Ġde pt
and o
Ġ23 3
pol is
Ġenroll ment
Ġo lig
Ġd are
Ġlabel ed
p akistan
ra bility
Ġmen us
Ġpear l
Ġunderest imated
c our
Ġh oy
40 6
Ġrest orative
Ġreason ed
18 3
oper ated
Ġrod gers
17 4
Ġmer cy
Ġwood y
Ġregret tably
Ġresil ient
Ġnac ional
Ġantar ctic
Ġir responsible
Ġcert ifying
Ġresp endable
av an
Ġderog ations
Ġcol oured
writ ers
Ġpredecess ors
arm aceutical
Ġengine ered
Ġexp ands
Ġir s
Ġsh ade
Ġrad ically
Ġgl az
Ġscand inav
unf pa
Ġinterview ing
Ġk iv
Ġorganiz es
Ġfarm land
Ġy an
Ġy acht
Ġdis gra
Ġdep icted
Ġdisc rete
Ġpa use
Ġsw ay
Ġlind say
Ġfixt ure
ll ors
Ġ25 5
Ġb j
Ġr ory
17 3
Ġbalk an
Ġphilosoph ical
ren s
Ġgre co
Ġm ons
Ġinform ant
Ġph asing
99 5
Ġsyri ans
Ġextern ally
h of
Ġprofessional ly
Ġinterpret ive
Ġlique f
Ġb ounce
Ġmar ih
Ã ²
Ġreass ure
Ġamalgam ation
c isti
Ġc ma
Ġfam ously
Ġ12 44
Ġswit ches
Ġhyp oc
Ġfocuss ing
Ġsplend id
Ġtr ash
Ġover shadow
Ġbar ber
Ġcomment aries
Ġcad ets
f ix
f requ
Ġup side
Ġ18 8
Ġcit igroup
Ġger ry
Ġhur on
Ġhel met
eth anol
cyc les
> <
mat ch
communic ation
Ġye ah
Ġtouchdown s
25 2
pre p
d m
lo v
Ġ95 3
Ġboyc ott
ir l
Ġ40 3
pre vention
29 9
Ġmarih uana
h undred
s un
Ġback ward
Ġmc master
Ġsunder land
Ġprogress ing
Ġs ip
Ġph ac
Ġhere inafter
Ġent renched
Ġmult itude
Ġvalent ine
Ġdoss ier
Ġland ings
Ġcomprehens ively
Ġconcent rates
Ġ99 2
st ro
ia o
3 10
Ġcad re
Ġinherent ly
is is
que ous
[...]
