{"[UNK]":0,"[SEP]":1,"[PAD]":2,"!":3,"\"":4,"#":5,"$":6,"%":7,"&":8,"'":9,"(":10,")":11,"*":12,"+":13,",":14,"-":15,".":16,"/":17,"0":18,"1":19,"2":20,"3":21,"4":22,"5":23,"6":24,"7":25,"8":26,"9":27,":":28,";":29,"<":30,"=":31,">":32,"?":33,"@":34,"A":35,"B":36,"C":37,"D":38,"E":39,"F":40,"G":41,"H":42,"I":43,"J":44,"K":45,"L":46,"M":47,"N":48,"O":49,"P":50,"Q":51,"R":52,"S":53,"T":54,"U":55,"V":56,"W":57,"X":58,"Y":59,"Z":60,"[":61,"\\":62,"]":63,"^":64,"_":65,"`":66,"a":67,"b":68,"c":69,"d":70,"e":71,"f":72,"g":73,"h":74,"i":75,"j":76,"k":77,"l":78,"m":79,"n":80,"o":81,"p":82,"q":83,"r":84,"s":85,"t":86,"u":87,"v":88,"w":89,"x":90,"y":91,"z":92,"{":93,"|":94,"}":95,"~":96,"¡":97,"¢":98,"£":99,"¤":100,"¥":101,"¦":102,"§":103,"¨":104,"©":105,"ª":106,"«":107,"¬":108,"®":109,"¯":110,"°":111,"±":112,"²":113,"³":114,"´":115,"µ":116,"¶":117,"·":118,"¸":119,"¹":120,"º":121,"»":122,"¼":123,"½":124,"¾":125,"¿":126,"À":127,"Á":128,"Â":129,"Ã":130,"Ä":131,"Å":132,"Æ":133,"Ç":134,"È":135,"É":136,"Ê":137,"Ë":138,"Ì":139,"Í":140,"Î":141,"Ï":142,"Ð":143,"Ñ":144,"Ò":145,"Ó":146,"Ô":147,"Õ":148,"Ö":149,"×":150,"Ø":151,"Ù":152,"Ú":153,"Û":154,"Ü":155,"Ý":156,"Þ":157,"ß":158,"à":159,"á":160,"â":161,"ã":162,"ä":163,"å":164,"æ":165,"ç":166,"è":167,"é":168,"ê":169,"ë":170,"ì":171,"í":172,"î":173,"ï":174,"ð":175,"ñ":176,"ò":177,"ó":178,"ô":179,"õ":180,"ö":181,"÷":182,"ø":183,"ù":184,"ú":185,"û":186,"ü":187,"ý":188,"þ":189,"ÿ":190,"Ā":191,"ā":192,"Ă":193,"ă":194,"Ą":195,"ą":196,"Ć":197,"ć":198,"Ĉ":199,"ĉ":200,"Ċ":201,"ċ":202,"Č":203,"č":204,"Ď":205,"ď":206,"Đ":207,"đ":208,"Ē":209,"ē":210,"Ĕ":211,"ĕ":212,"Ė":213,"ė":214,"Ę":215,"ę":216,"Ě":217,"ě":218,"Ĝ":219,"ĝ":220,"Ğ":221,"ğ":222,"Ġ":223,"ġ":224,"Ģ":225,"ģ":226,"Ĥ":227,"ĥ":228,"Ħ":229,"ħ":230,"Ĩ":231,"ĩ":232,"Ī":233,"ī":234,"Ĭ":235,"ĭ":236,"Į":237,"į":238,"İ":239,"ı":240,"Ĳ":241,"ĳ":242,"Ĵ":243,"ĵ":244,"Ķ":245,"ķ":246,"ĸ":247,"Ĺ":248,"ĺ":249,"Ļ":250,"ļ":251,"Ľ":252,"ľ":253,"Ŀ":254,"ŀ":255,"Ł":256,"ł":257,"Ń":258,"Ġt":259,"Ġa":260,"in":261,"he":262,"on":263,"Ġthe":264,"re":265,"Ġo":266,"at":267,"Ġs":268,"Ġc":269,"er":270,"en":271,"Ġp":272,"it":273,"or":274,"ion":275,"es":276,"an":277,"Ġw":278,"Ġin":279,"Ġof":280,"al":281,"Ġf":282,"is":283,"ed":284,"Ġan":285,"Ġb":286,"Ġm":287,"ar":288,"ing":289,"Ġand":290,"ic":291,"Ġto":292,"Ġd":293,"ro":294,"ent":295,"Ġre":296,"le":297,"ou":298,"ation":299,"Ġe":300,"Ġn":301,"Ġh":302,"as":303,"ct":304,"Ġth":305,"om":306,"il":307,"ve":308,"st":309,"ment":310,"Ġl":311,"Ġg":312,"Ġfor":313,"un":314,"Ġbe":315,"ce":316,"id":317,"Ġpro":318,"Ġon":319,"ra":320,"Ġcon":321,"ol":322,"ut":323,"im":324,"âĢ":325,"Ġde":326,"ly":327,"Ġst":328,"ur":329,"se":330,"ad":331,"Ġis":332,"ot":333,"Ġthat":334,"ig":335,"Ġas":336,"Ġcom":337,"ter":338,"ver":339,"et":340,"ch":341,"ir":342,"ul":343,"Ġ(":344,"Ġit":345,"ith":346,"ies":347,"lo":348,"00":349,"Ġ1":350,"Ġwith":351,"ort":352,"Ġ2":353,"ate":354,"Ġsu":355,"ay":356,"Ġal":357,"pp":358,"Ġor":359,"Ġse":360,"if":361,"Ġhe":362,"ity":363,"Ġun":364,"res":365,"ers":366,"Ġwh":367,"Ġwe":368,"us":369,"ess":370,"ab":371,"Ġex":372,"am":373,"Ġby":374,"qu":375,"Ġr":376,"pe":377,"ge":378,"iv":379,"ld":380,"est":381,"her":382,"ive":383,"ill":384,"Ġv":385,"art":386,"oun":387,"Ġare":388,"Ġy":389,"ist":390,"ial":391,"Ġat":392,"te":393,"Ġne":394,"ations":395,"Ġch":396,"ow":397,"Ġcan":398,"ain":399,"um":400,"Ġcomm":401,"oc":402,"th":403,"ac":404,"Ġj":405,"Ġme":406,"ction":407,"end":408,"ant":409,"ĠâĢ":410,"Ġres":411,"and":412,"ri":413,"Ġnot":414,"rom":415,"os":416,"our":417,"ud":418,"od":419,"igh":420,"Ġwas":421,"Ġad":422,"Ġsh":423,"Ġle":424,"ore":425,"ak":426,"ren":427,"Ġthis":428,"Ġha":429,"op":430,"Ġfrom":431,"ure":432,"Ġen":433,"Ġim":434,"port":435,"ould":436,"Ġ200":437,"ff":438,"Ġpart":439,"Ġk":440,"ie":441,"ions":442,"Ġapp":443,"up":444,"ust":445,"ip":446,"Ġinc":447,"ard":448,"Ġcont":449,"el":450,"Ġac":451,"red":452,"Ġwor":453,"ated":454,"ts":455,"'s":456,"ational":457,"Ġcomp":458,"ber":459,"Ġag":460,"ther":461,"ance":462,"ary":463,"Ġhave":464,"for":465,"iz":466,"Ġgo":467,"all":468,"ich":469,"der":470,"ect":471,"lic":472,"ice":473,"ans":474,"ia":475,"em":476,"Ġwill":477,"Ġinter":478,"âĢĻ":479,"Ġreg":480,"Ġhas":481,"Ġcanad":482,"Ġpl":483,"Ġcoun":484,"ments":485,"age":486,"du":487,"Ġco":488,"Ġwhich":489,"per":490,"form":491,"Ġper":492,"gra":493,"Ġi":494,"ical":495,"able":496,"Ġab":497,"Ġ\"":498,"Ġprov":499,"Ġits":500,"Ġsa":501,"Ġar":502,"ities":503,"Ġman":504,"erv":505,"ub":506,"ear":507,"Ġdis":508,"ib":509,"Ġtheir":510,"Ġrec":511,"ide":512,"ult":513,"Ġwhe":514,"Ġacc":515,"gh":516,"sion":517,"Ġind":518,"ire":519,"Ġoff":520,"lop":521,"ap":522,"Ġimp":523,"ome":524,"Ġwork":525,"Ġall":526,"ast":527,"velop":528,"ates":529,"Ġam":530,"Ġcons":531,"Ġdevelop":532,"Ġact":533,"Ġother":534,"Ġpol":535,"Ġ19":536,"Ġtr":537,"ine":538,"Ġsec":539,"Ġ3":540,"ian":541,"ign":542,"ence":543,"ition":544,"ous":545,"ag":546,"Ġnew":547,"ight":548,"Ġ-":549,"Ġtra":550,"act":551,"ces":552,"und":553,"so":554,"Ġte":555,"eral":556,"ll":557,"ue":558,"ru":559,"low":560,"Ġro":561,"Ġpre":562,"Ġunder":563,"ry":564,"use":565,"Ġass":566,"ree":567,"cial":568,"Ġqu":569,"Ġbeen":570,"vern":571,"out":572,"Ġsub":573,"Ġintern":574,"pt":575,"Ġwere":576,"lud":577,"âĢ¨":578,"Ġpr":579,"Ġserv":580,"Ġreport":581,"Ġalso":582,"Ġcanada":583,"Ġout":584,"Ġgro":585,"ost":586,"og":587,"Ġspe":588,"Ġbut":589,"ase":590,"ited":591,"Ġno":592,"Ġpres":593,"Ġfin":594,"Ġyear":595,"Ġmar":596,"Ġint":597,"Ġinform":598,"Ġthey":599,"ong":600,"Ġus":601,"Ġmore":602,"..":603,"Ġem":604,"ord":605,"gram":606,"Ġthere":607,"fe":608,"Ġwho":609,"Ġdec":610,"Ġcl":611,"pport":612,"cess":613,"Ġpe":614,"Ġyou":615,"ublic":616,"ime":617,"ish":618,"Ġgovern":619,"Ġprogram":620,"ject":621,"ual":622,"Ġeu":623,"Ġrep":624,"ific":625,"Ġsaid":626,"ident":627,"ail":628,"ace":629,"vent":630,"Ġsc":631,"Ġhis":632,"Ġcount":633,"ake":634,"Ġcommit":635,"ons":636,"Ġhad":637,"ild":638,"ices":639,"ative":640,"Ġrequ":641,"ks":642,"Ġwould":643,"ors":644,"Ġinclud":645,"Ġeff":646,"Ġmin":647,"ission":648,"ĠâĢľ":649,"Ġdo":650,"Ġinternational":651,"Ġone":652,"con":653,"Ġsp":654,"ted":655,"Ġinformation":656,"ution":657,"mber":658,"Ġup":659,"Ġpar":660,"Ġaf":661,"Ġgen":662,"ke":663,"Ġinv":664,"ress":665,"Ġexp":666,"Ġla":667,"Ġob":668,"Ġrel":669,"ph":670,"Ġsy":671,"Ġ4":672,"âĢĿ":673,"Ġmon":674,"gan":675,"are":676,"reat":677,"ach":678,"rib":679,"Ġover":680,"pect":681,"rit":682,"__":683,"Ġmay":684,"ced":685,"Ġadd":686,"we":687,"Ġra":688,"ose":689,"Ġtrans":690,"Ġeuro":691,"ack":692,"Ġ5":693,"Ġshould":694,"ugh":695,"Ġdevelopment":696,"ĠâĢ¢":697,"feren":698,"ne":699,"Ġcommun":700,"alth":701,"ility":702,"ory":703,"Ġso":704,"ens":705,"ame":706,"cy":707,"iew":708,"Ġthan":709,"Ġconc":710,"Ġpartic":711,"Ġinst":712,"ond":713,"Ġif":714,"me":715,"Ġdep":716,"ass":717,"ures":718,"min":719,"very":720,"Ġfir":721,"ning":722,"tee":723,"mb":724,"Ġdes":725,"Ġthese":726,"ang":727,"Ġcent":728,"ric":729,"Ġany":730,"Ġunited":731,"Ġpublic":732,"Ġnational":733,"Ġbet":734,"ision":735,"Ġprodu":736,"ile":737,"Ġorgan":738,"ating":739,"oin":740,"Ġhealth":741,"Ġsuch":742,"lement":743,"Ġstate":744,"ms":745,").":746,"Ġeurope":747,"ied":748,"Ġgovernment":749,"Ġsupport":750,"Ġev":751,"Ġstates":752,"Ġtw":753,"one":754,"),":755,"les":756,"uc":757,"Ġpers":758,"Ġ199":759,"Ġappro":760,"ite":761,"stem":762,"ok":763,"Ġabout":764,"hed":765,"Ġli":766,"ights":767,"Ġcol":768,"lect":769,"ep":770,"rough":771,"Ġcommittee":772,"vel":773,"Ġpos":774,"Ġneed":775,"ings":776,"Ġfe":777,"Ġhow":778,"Ġgroup":779,"tain":780,"su":781,"Ġhum":782,"Ġter":783,"Ġbo":784,"Ġsoc":785,"Ġtime":786,"Ġsystem":787,"conom":788,"ade":789,"ased":790,"the":791,"ious":792,"ives":793,"Ġfirst":794,"Ġinto":795,"ract":796,"Ġrev":797,"Ġest":798,"Ġsome":799,"Ġcommission":800,"Ġwhen":801,"cil":802,"ater":803,"loy":804,"ular":805,"Ġresp":806,"Ġpeop":807,"Ġ6":808,"Ġaut":809,"Ġmr":810,"av":811,"ible":812,"Ġhuman":813,"Ġ$":814,"Ġinte":815,"ays":816,"ries":817,"Ġeconom":818,"Ġrights":819,"Ġour":820,"Ġpolic":821,"Ġprovid":822,"Ġgeneral":823,"amp":824,"uring":825,"Ġdire":826,"Ġart":827,"Ġdisc":828,"Ġcouncil":829,"pos":830,"ca":831,"Ġtwo":832,"Ġfol":833,"200":834,"Ġthrough":835,"Ġorganiz":836,"de":837,"Ġnations":838,"ient":839,"Ġstr":840,"ty":841,"get":842,"Ġmeet":843,"Ġchild":844,"Ġgu":845,"ise":846,"Ġafter":847,"Ġservices":848,"ange":849,"Ġuse":850,"ploy":851,"Ġlaw":852,"ret":853,"Ġpeople":854,"olog":855,"Ġent":856,"day":857,"ft":858,"Ġfollow":859,"ional":860,"ween":861,"Ġleg":862,"iver":863,"Ġnum":864,"Ġed":865,"air":866,"ax":867,"Ġbetween":868,"Ġform":869,"old":870,"now":871,"ound":872,"Ġonly":873,"man":874,"Ġthem":875,"hip":876,"fore":877,"Ġcar":878,"Ġfund":879,"eration":880,"Ġactiv":881,"ctions":882,"Ġdirect":883,"arch":884,"wn":885,"Ġeffect":886,"ency":887,"chn":888,"com":889,"Ġmade":890,"Ġcountries":891,"Ġmark":892,"Ġwhere":893,"Ġwell":894,"Ġagain":895,"Ġthose":896,"01":897,"Ġph":898,"abl":899,"ov":900,"ural":901,"Ġoper":902,"Ġcap":903,"Ġimport":904,"Ġref":905,"Ġyears":906,"Ġincre":907,"Ġimplement":908,"Ġplan":909,"iron":910,"Ġatt":911,"Ġenv":912,"Ġ7":913,"Ġeuropean":914,"Ġcanadian":915,"ters":916,"Ġcour":917,"Ġprocess":918,"hor":919,"Ġrem":920,"land":921,"Ġdef":922,"Ġemploy":923,"Ġtechn":924,"its":925,"Ġproject":926,"Ġjust":927,"ount":928,"Ġshe":929,"Ġcor":930,"Ġsecur":931,"Ġincluding":932,"ood":933,"als":934,"Ġcontin":935,"Ġwom":936,"mental":937,"Ġoffic":938,"xt":939,"ards":940,"Ġrese":941,"Ġwhat":942,"Ġdif":943,"ec":944,"Ġenviron":945,"Ġset":946,"Ġmanage":947,"icle":948,"Ġ9":949,"ork":950,"ari":951,"ĠâĢĵ":952,"Ġauthor":953,"li":954,"Ġav":955,"Ġhigh":956,"Ġcr":957,"graph":958,"rent":959,"Ġher":960,"Ġcould":961,"Ġmust":962,"Ġapplic":963,"Ġconcer":964,"led":965,"ateg":966,"Ġprote":967,"Ġmost":968,"Ġfinan":969,"Ġ8":970,"ants":971,"Ġsecurity":972,"ough":973,"Ġspec":974,"Ġlike":975,"ration":976,"Ġinvest":977,"Ġlevel":978,"sure":979,"Ġnumber":980,"Ã©":981,"Ġworld":982,"Ġstud":983,"Ġmeas":984,"Ġpur":985,"ince":986,"ob":987,"Ġregul":988,"Ġyour":989,"Ġadv":990,"Ġservice":991,"ene":992,"ys":993,"Ġdem":994,"resent":995,"Ġmed":996,"Ġmanagement":997,"ved":998,"vention":999,"oint":1000,"Ġsign":1001,"Ġissu":1002,"aking":1003,"Ġpolicy":1004,"Ġwomen":1005,"Ġbr":1006,"oth":1007,"ference":1008,"Ġeconomic":1009,"Ġloc":1010,"mit":1011,"ned":1012,"Ġsur":1013,"Ġperson":1014,"Ġrepresent":1015,"ict":1016,"Ġknow":1017,"Ġestabl":1018,"Ġsocial":1019,"Ġequ":1020,"ally":1021,"Ġagree":1022,"Ġbus":1023,"ful":1024,"ove":1025,"Ġagainst":1026,"Ġdra":1027,"Ġ10":1028,"Ġchar":1029,"Ġpropos":1030,"Ġfr":1031,"rest":1032,"Ġexper":1033,"Ġmain":1034,"Ġext":1035,"Ġduring":1036,"imin":1037,"illion":1038,"Ġke":1039,"Ġdepart":1040,"Ġcur":1041,"own":1042,"____":1043,"Ġinstit":1044,"Ġmember":1045,"iness":1046,"Ġresearch":1047,"ble":1048,"Ġconf":1049,"omm":1050,"ources":1051,"ety":1052,"Ġmarket":1053,"Ġsecret":1054,"Ġsm":1055,"cept":1056,"ute":1057,"Ġaccord":1058,"Ġresol":1059,"Ġend":1060,"utions":1061,"ocu":1062,"Ġcommunity":1063,"Ġbu":1064,"Ġspecial":1065,"Ġaff":1066,"Ġpa":1067,"erg":1068,"Ġshall":1069,"iss":1070,"ics":1071,"Ġparticular":1072,"ality":1073,"ick":1074,"ting":1075,"ines":1076,"sel":1077,"Ġlead":1078,"ix":1079,"Ġarticle":1080,"000":1081,"Ġpresident":1082,"Ġwithin":1083,"Ġprom":1084,"Ġbeing":1085,"Ġval":1086,"ified":1087,"pr":1088,"Ġfur":1089,"Ġproduct":1090,"tern":1091,"Ġmany":1092,"Ġcost":1093,",\"":1094,"Ġactivities":1095,"Ġop":1096,"Ġcountry":1097,"Ġmemb":1098,"Ġnon":1099,"Ġdat":1100,"ily":1101,"Ġu":1102,"Ġmod":1103,"ized":1104,"Ġgood":1105,".\"":1106,"Ġstand":1107,"Ġdocu":1108,"Ġma":1109,"ivers":1110,"leg":1111,"Ġmembers":1112,"Ġfore":1113,"Ġreview":1114,"Ġmet":1115,"Ġ0":1116,"Ġparticip":1117,"Ġbas":1118,"Ġaccess":1119,"cc":1120,"Ġlast":1121,"ind":1122,"iod":1123,"Ġsit":1124,"lear":1125,"ink":1126,"Ġchildren":1127,"Ġlo":1128,"ents":1129,"ss":1130,"Ġprovide":1131,"Ġmake":1132,"Ġhel":1133,"Ġair":1134,"Ġasse":1135,"Ġfinancial":1136,"Ġinit":1137,"Ġbusiness":1138,"Ġorder":1139,"Ġstrateg":1140,"Ġsee":1141,"ck":1142,"ving":1143,"Ġboth":1144,"ining":1145,"Ġconsid":1146,"ister":1147,"ished":1148,"Ġthree":1149,"ell":1150,"ability":1151,"Ġful":1152,"Ġwhile":1153,"Ġassist":1154,"Ġrele":1155,"....":1156,"Ġbefore":1157,"Ġins":1158,"Ġfac":1159,"ank":1160,"Ġann":1161,"uation":1162,"ases":1163,"Ġtake":1164,"ired":1165,"work":1166,"Ġrespect":1167,"Ġrespons":1168,"itions":1169,"arm":1170,"Ġeduc":1171,"Ġlong":1172,"Ġdist":1173,"Ġfollowing":1174,"Ġimpro":1175,"Ġpay":1176,"Ġused":1177,"Ġindust":1178,"inc":1179,"Ġcompan":1180,"Ġperiod":1181,"Ġmy":1182,"ism":1183,"Ġret":1184,"Ġconst":1185,"Ġhelp":1186,"iven":1187,"ever":1188,"Ġfed":1189,"Ġnow":1190,"Ġfact":1191,"Ġrecomm":1192,"Ġrecommend":1193,"Ġposs":1194,"Ġcontrib":1195,"Ġeach":1196,"cause":1197,"Ġrece":1198,"ruct":1199,"Ġmat":1200,"Ġaw":1201,"ilit":1202,"Ġstat":1203,"ns":1204,"Ġfurther":1205,"Ġquest":1206,"Ġtreat":1207,"Ġfam":1208,"Ġbecause":1209,"Ġvi":1210,"Ġinf":1211,"Ġtax":1212,"Ġsince":1213,"Ġpara":1214,"Ġcall":1215,"go":1216,"Ġrequire":1217,"Ġser":1218,"Ġbro":1219,"pl":1220,"Ġpresent":1221,"Ġhowever":1222,"Ġmeeting":1223,"por":1224,"ool":1225,"ages":1226,"Ġident":1227,"Ġright":1228,"Ġdecision":1229,"ital":1230,"ues":1231,"Ġdata":1232,"Ġworking":1233,"ĠâĢĶ":1234,"uss":1235,"Ġoffice":1236,"Ġel":1237,"Ġcase":1238,"ession":1239,"Ġsch":1240,"Ġaddition":1241,"ote":1242,"Ġavail":1243,"aff":1244,"Ġresources":1245,"Ġissues":1246,"isions":1247,"Ġcomple":1248,"Ġadop":1249,"Ġ.":1250,"eric":1251,"ared":1252,"Ġpolit":1253,"Ġrequest":1254,"Ġcare":1255,"Ġgr":1256,"Ġown":1257,"par":1258,"Ġcontro":1259,"Ġris":1260,"Ġvery":1261,"Ġinterest":1262,"ten":1263,"Ġassess":1264,"19":1265,"Ġadmin":1266,"Ġpract":1267,"Ġ[":1268,"Ġbel":1269,"Ġ12":1270,"Ġimplementation":1271,"Ġgreat":1272,"io":1273,"Ġback":1274,"Ġsecond":1275,"Ġaction":1276,"Ġplay":1277,"Ġpat":1278,"ised":1279,"ner":1280,"ification":1281,"Ġear":1282,"Ġpri":1283,"Ġimportant":1284,"other":1285,"Ġcurrent":1286,"Ġcond":1287,"ife":1288,"Ġmeasures":1289,"Ġeng":1290,"Ġaddress":1291,"enef":1292,"Ġensure":1293,"ug":1294,"Ġsim":1295,"ivid":1296,"ral":1297,"Ġprovided":1298,"Ġregard":1299,"Ġcer":1300,"Ġcre":1301,"ower":1302,"Ġredu":1303,"Ġbenef":1304,"cing":1305,"tal":1306,"ential":1307,"med":1308,"Ġsect":1309,"Ġlar":1310,"ify":1311,"Ġtak":1312,"Ġfra":1313,"Ġprogramme":1314,"Ġofficial":1315,"Ġcoop":1316,"Ġnet":1317,"oci":1318,"Ġsupp":1319,"Ġsame":1320,"Ġca":1321,"Ġprof":1322,"Ġadminist":1323,"hes":1324,"Ġcourt":1325,"ology":1326,"Ġview":1327,"Ġparagraph":1328,"Ġboard":1329,"Ġresolution":1330,"Ġpop":1331,"Ġdid":1332,"Ġconvention":1333,"cent":1334,"Ġeven":1335,"Ġeffort":1336,"ges":1337,"Ġamend":1338,"Ġmillion":1339,"Ġnat":1340,"ners":1341,"Ġtrade":1342,"Ġfound":1343,"atives":1344,"Ġ2006":1345,"Ġprotection":1346,"ium":1347,"ined":1348,"Ġclo":1349,"Ġ15":1350,"Ġiniti":1351,"Ġavailable":1352,"to":1353,"Ġdifferen":1354,"gen":1355,"ilities":1356,"Ġmaj":1357,"Ġparty":1358,"Ġ2005":1359,"Ġsal":1360,"Ġassoci":1361,"Ġassemb":1362,"Ġway":1363,"Ġinvol":1364,"Ġminister":1365,"ield":1366,"ibility":1367,"Ġprior":1368,"Ġcla":1369,"Ġcompet":1370,"Ġperform":1371,"Ġtraining":1372,"Ġaccount":1373,"Ġmonth":1374,"Ġindic":1375,"ina":1376,"Ġelect":1377,"ww":1378,"Ġallow":1379,"Ġarea":1380,"Ġeducation":1381,"Ġplace":1382,"igin":1383,"Ġdesign":1384,"pri":1385,"Ġwee":1386,"Ġareas":1387,"Ġdoes":1388,"Ġ11":1389,"Ġsession":1390,"Ġevery":1391,"ists":1392,"Ġche":1393,"Ġagreement":1394,"Ġnort":1395,"Ġget":1396,"Ġ2004":1397,"ered":1398,"Ġlab":1399,"Ġlim":1400,"Ġshow":1401,"Ġdepartment":1402,"ization":1403,"Ġregional":1404,"Ġameric":1405,"Ġfl":1406,"Ġrest":1407,"come":1408,"ason":1409,"ived":1410,"co":1411,"Ġfour":1412,"ird":1413,"ience":1414,"round":1415,"Ġfederal":1416,"Ġparties":1417,"Ġ201":1418,"ults":1419,"ulation":1420,"Ġassembly":1421,"Ġmajor":1422,"Ġpolitical":1423,"ouse":1424,"Ġhim":1425,"Ġcult":1426,"Ġsection":1427,"Ġpriv":1428,"ention":1429,"ividual":1430,"uch":1431,"Ġdeter":1432,"Ġresult":1433,"Ġgrow":1434,"Ġindividual":1435,"Ġocc":1436,"Ġele":1437,"gest":1438,"Ġrepublic":1439,"Ġschool":1440,"Ġproble":1441,"Ġvis":1442,"Ġdown":1443,"Ġstaff":1444,"Ġamong":1445,"ven":1446,"Ġdr":1447,"Ġday":1448,"Ġeffective":1449,"Ġbud":1450,"Ġ20":1451,"itor":1452,"Ġz":1453,"ances":1454,"ross":1455,"Ġthen":1456,"Ġhead":1457,"ton":1458,"Ġglo":1459,"Ġconference":1460,"Ġconsult":1461,"bal":1462,"Ġsum":1463,"Ġ2007":1464,"atic":1465,"ize":1466,"Ġanal":1467,"Ġpost":1468,"Ġcontrol":1469,"ians":1470,"Ġproced":1471,"Ġdocument":1472,"lia":1473,"read":1474,"Ġwithout":1475,"Ġwater":1476,"aw":1477,"ically":1478,"Ġpartners":1479,"Ġlist":1480,"Ġproper":1481,"line":1482,"duct":1483,"Ġtest":1484,"Ġpeace":1485,"imate":1486,"Ġlegal":1487,"10":1488,"Ġcommunic":1489,"chie":1490,"Ġobject":1491,"Ġhome":1492,"isl":1493,"Ġsol":1494,"iving":1495,"Ġunion":1496,"Ġestablish":1497,"Ġopen":1498,"Ġrecord":1499,"Ġbased":1500,"gress":1501,"Ġwar":1502,"reed":1503,"Ġorganizations":1504,"Ġremain":1505,"Ġbl":1506,"Ġtur":1507,"Ġtotal":1508,"sue":1509,"Ġdeb":1510,"Ġcooperation":1511,"atory":1512,"Ġorganization":1513,"une":1514,"Ġparlia":1515,".,":1516,"imes":1517,"Ġcontract":1518,"Ġ2003":1519,"Ġexpect":1520,"Ġ18":1521,"Ġbudget":1522,"Ġfil":1523,"Ġunivers":1524,"ath":1525,"ness":1526,"Ġenvironment":1527,"ather":1528,"Ġty":1529,"Ġdifferent":1530,"incip":1531,"Ġviol":1532,"Ġdraft":1533,"Ġfind":1534,"Ġland":1535,"Ġachie":1536,"ination":1537,"Ġbar":1538,"Ġcontain":1539,"ption":1540,"Ġve":1541,"sh":1542,"'t":1543,"Ġclaim":1544,"Ġenvironmental":1545,"Ġlocal":1546,"Ġbuild":1547,"idence":1548,"Ġpercent":1549,"Ġprincip":1550,".âĢĿ":1551,"Ġsecretary":1552,"Ġver":1553,"Ġagency":1554,"Ġclear":1555,"Ġpossible":1556,"Ġparliament":1557,"Ġlegisl":1558,"Ġnecess":1559,"Ġsou":1560,"Ġinclude":1561,"Ġ2002":1562,"Ġresults":1563,"Ġrequired":1564,"Ġsmall":1565,"Ġdet":1566,"Ġchange":1567,"Ġappropri":1568,"Ġapplication":1569,"Ġstill":1570,"Ġinteg":1571,"Ġ13":1572,"hing":1573,"rug":1574,"Ġsen":1575,"lain":1576,"Ġfood":1577,"Ġdesc":1578,"Ġfut":1579,"Ġsuc":1580,"Ġaccording":1581,"Ġchang":1582,"stand":1583,"Ġwhether":1584,"Ġgra":1585,"Ġsector":1586,"Ġtaken":1587,"Ġless":1588,"tt":1589,"Ġindustry":1590,"Ġgiven":1591,"Ġrelated":1592,"Ġrul":1593,"oura":1594,"Ġrecent":1595,"Ġrole":1596,"Ġpo":1597,"ron":1598,"Ġproducts":1599,"Ġspecific":1600,"ier":1601,"Ġmuch":1602,"sp":1603,"Ġbank":1604,"Ġafric":1605,"Ġes":1606,"pportun":1607,"Ġ14":1608,"Ġciv":1609,"pro":1610,"Ġframe":1611,"lar":1612,"Ġsubject":1613,"angu":1614,"Ġteam":1615,"ii":1616,"Ġtransport":1617,"Ġevent":1618,"Ġopportun":1619,"Ġdon":1620,"Ġefforts":1621,"Ġissue":1622,"Ġbeh":1623,"Ġexamp":1624,"Ġlife":1625,"Ġconsider":1626,"ger":1627,"Ġrisk":1628,"ged":1629,"ator":1630,"Ġcrit":1631,"Ġdel":1632,"Ġstart":1633,"ale":1634,"Ġimpact":1635,"Ġassistance":1636,"ves":1637,"Ġanother":1638,"Ġfuture":1639,"sc":1640,"ators":1641,"Ġglobal":1642,"Ġsignific":1643,"Ġsubst":1644,"Ġhand":1645,"Ġtar":1646,"fer":1647,"Ġ2000":1648,"Ġcompany":1649,"Ġimprove":1650,"Ġfoc":1651,"Ġdate":1652,"Ġ2001":1653,"Ġfull":1654,"Ġjud":1655,"Ġfamily":1656,"Ġkey":1657,"Ġsay":1658,"ien":1659,"Ġquestion":1660,"ward":1661,"alf":1662,"Ġcivil":1663,"Ġsw":1664,"Ġbod":1665,"Ġâ":1666,"lus":1667,"Ġgroups":1668,"ins":1669,"Ġur":1670,"tle":1671,"Ġpolice":1672,"ogn":1673,"stain":1674,"ending":1675,"vant":1676,"cies":1677,"Ġheld":1678,"Ġsk":1679,"Ġexist":1680,"Ġneeds":1681,"Ġneg":1682,"Ġdece":1683,"Ġenc":1684,"Ġforce":1685,"Ġnext":1686,"Ġmater":1687,"vious":1688,"Ġaud":1689,"Ġreports":1690,"Ġincrease":1691,"Ġconditions":1692,",âĢĿ":1693,"Ġ30":1694,"Ġclass":1695,"reng":1696,"12":1697,"Ġdom":1698,"Ġemploye":1699,"urs":1700,"Ġweek":1701,"Ġsuccess":1702,"Ġpot":1703,"general":1704,"Ġeval":1705,"Ġrecogn":1706,"ended":1707,"Ġreal":1708,"Ġ2008":1709,"allen":1710,"Ġguid":1711,"Ġ16":1712,"less":1713,"Ġcontinue":1714,"Ġsustain":1715,"Ġbasis":1716,"Ġweb":1717,"Ġrequirements":1718,"Ġfield":1719,"ling":1720,"mes":1721,"Ġpoint":1722,"Ġstreng":1723,"itive":1724,"Ġnor":1725,"Ġcal":1726,"tion":1727,"Ġitem":1728,"Ġinvestig":1729,"Ġappropriate":1730,"Ġcapac":1731,"ising":1732,"Ġlangu":1733,"ury":1734,"Ġsoci":1735,"Ġdecember":1736,"Ġcontinu":1737,"Ġvol":1738,"Ġregulations":1739,"Ġread":1740,"Ġcertain":1741,"Ġsignificant":1742,"Ġforeign":1743,"ceed":1744,"Ġju":1745,"Ġbest":1746,"Ġretur":1747,"Ġnecessary":1748,"Ġfun":1749,"Ġjune":1750,"Ġcentre":1751,"Ġconduct":1752,"Ġrom":1753,"Ġpromot":1754,"Ġcommon":1755,"Ġcamp":1756,"ually":1757,"Ġ--":1758,"Ġfocus":1759,"rodu":1760,"Ġdeveloping":1761,"Ġmult":1762,"Ġmeans":1763,"50":1764,"ney":1765,"ergy":1766,"Ġsever":1767,"Ġvar":1768,"ds":1769,"Ġbelie":1770,"Ġsaf":1771,"Ġdirector":1772,"Ġ198":1773,"az":1774,"Ġmarch":1775,"Ġsituation":1776,"Ġpersons":1777,"Ġste":1778,"Ġrelations":1779,"Ġpass":1780,"Ġput":1781,"Ġtrad":1782,"mitted":1783,"Ġcases":1784,"Ġframework":1785,"Ġexec":1786,"Ġhouse":1787,"Ġlet":1788,"Ġpen":1789,"na":1790,"Ġhere":1791,"Ġregion":1792,"Ġ17":1793,"oms":1794,"Ġprojects":1795,"________":1796,"Ġlarge":1797,"Ġwant":1798,"ource":1799,"Ġcoord":1800,"Ġsite":1801,"Ġmilit":1802,"Ġdeleg":1803,"Ġsix":1804,"ked":1805,"Ġport":1806,"Ġsafety":1807,"Ġchallen":1808,"Ġge":1809,"Ġtele":1810,"Ġjan":1811,"Ġlook":1812,"Ġmanag":1813,"Ġlit":1814,"ĠÂ":1815,"Ġthird":1816,"ructure":1817,"Ġquality":1818,"Ġfive":1819,"au":1820,"Ġprogress":1821,"Ġsystems":1822,"Ġrelevant":1823,"Ġdemoc":1824,"Ġ>":1825,"Ġterrit":1826,"Ġtop":1827,"ror":1828,"Ġcomb":1829,"Ġdrug":1830,"Ġcust":1831,"Ġstudy":1832,"iginal":1833,"ave":1834,"Ġwin":1835,"Ġbrit":1836,"Ġemployment":1837,"airs":1838,"Ġcorpor":1839,"Ġestablished":1840,"Ġproposed":1841,"Ġseveral":1842,"be":1843,"11":1844,"king":1845,"Ġregist":1846,"Ġmeth":1847,"Ġprograms":1848,"self":1849,"20":1850,"Ġassessment":1851,"Ġtechnology":1852,"Ġcosts":1853,"Ġpopulation":1854,"Ġjob":1855,"Ġhist":1856,"Ġexample":1857,"Ġsug":1858,"ior":1859,"Ġinstitutions":1860,"utes":1861,"Ġdeal":1862,"Ġenergy":1863,"Ġfree":1864,"Ġmaterial":1865,"Ġtherefore":1866,"oh":1867,"Ġauthorities":1868,"Ġcapacity":1869,"pa":1870,"Ġadopted":1871,"ledge":1872,"Ġsumm":1873,"Ġbetter":1874,"30":1875,"Ġprivate":1876,"Ġmonitor":1877,"Ġrules":1878,"idered":1879,"Ġcity":1880,"ps":1881,"Ġprovisions":1882,"Ġpolicies":1883,"Ġobs":1884,"Ġpower":1885,"asing":1886,"Ġbroad":1887,"Ġapproach":1888,"Ġposition":1889,"Ġdiscuss":1890,"Ġappe":1891,"Ġrate":1892,"Ġconstit":1893,"Ġprot":1894,"Ġconsidered":1895,"ories":1896,"Ġusing":1897,"Ġhig":1898,"Ġperformance":1899,"Ġarr":1900,"Ġthink":1901,"Ġamount":1902,"Ġconsum":1903,"Ġwrit":1904,"Ġnorth":1905,"enda":1906,"ex":1907,"ering":1908,"Ġprofess":1909,"Ġet":1910,"Ġpotential":1911,"Ġleast":1912,"che":1913,"Ġanne":1914,"ison":1915,"ama":1916,"Ġant":1917,"Ġcred":1918,"Ġprotect":1919,"Ġtechnical":1920,"Ġsurve":1921,"els":1922,"Ġce":1923,"Ġlevels":1924,"Ġname":1925,"Ġfis":1926,"oss":1927,"ried":1928,"Ġfunding":1929,"Ġcod":1930,"Ġwel":1931,"ffic":1932,"Ġstrategy":1933,"Ġinstru":1934,"Ġprevious":1935,"Ġaccordance":1936,"13":1937,"Ġterms":1938,"pte":1939,"Ġapr":1940,"--":1941,"Ġgrowth":1942,"ready":1943,"way":1944,"Ġanalys":1945,"ief":1946,"que":1947,"ash":1948,"ptember":1949,"Ġexecut":1950,"encies":1951,"Ġreceived":1952,"lection":1953,"Ġvict":1954,"irc":1955,"Ġexpress":1956,"Ġproduction":1957,"Ġproperty":1958,"...":1959,"........":1960,"Ġadditional":1961,"hold":1962,"Ġdetail":1963,"Ġstrengthe":1964,"Ġsociety":1965,"gin":1966,"Ġsouth":1967,"reen":1968,"Ġalready":1969,"Ġvarious":1970,"ames":1971,"Ġoct":1972,"Ġmilitary":1973,"ark":1974,"Ġcit":1975,"Ġmethod":1976,"Ġfinal":1977,"iation":1978,"Ġir":1979,"Ġstep":1980,"Ġple":1981,"Ġstatement":1982,"ah":1983,"Ġapril":1984,"Ġcontact":1985,"Ġrun":1986,"lig":1987,"Ġreported":1988,"Ġdays":1989,"Ġoperations":1990,"Ġ25":1991,"ids":1992,"verage":1993,"Ġexc":1994,"Ġmove":1995,"aring":1996,"Ġfew":1997,"iate":1998,"issions":1999,"fact":2000,"Ġintrodu":2001,"Ġstandards":2002,"uary":2003,"Ġrefer":2004,"Ġdetermin":2005,"Ġseptember":2006,"ats":2007,"Ġvalue":2008,"Ġyoun":2009,"Ġagenda":2010,"omet":2011,"Ġsuggest":2012,"Ġannex":2013,"epend":2014,"Ġtoday":2015,"Ġsing":2016,"ario":2017,"Ġer":2018,"Ġunderstand":2019,"Ġabove":2020,"Ġpoin":2021,"Ġpast":2022,"Ġencoura":2023,"Ġnews":2024,"Ġfar":2025,"Ġlow":2026,"Ġlear":2027,"Ġ'":2028,"Ġhot":2029,"Ġauthority":2030,"Ġstrong":2031,"Ġhaving":2032,"Ġdeveloped":2033,"rated":2034,"Ġcommunities":2035,"Ġprovides":2036,"Ġaffect":2037,"Ġtable":2038,"ours":2039,"not":2040,"Ġformer":2041,"Ġjuly":2042,"cer":2043,"ope":2044,"Ġline":2045,"Ġuniversity":2046,"Ġthough":2047,"Ġbre":2048,"Ġsat":2049,");":2050,"see":2051,"Ġincome":2052,"Ġknowledge":2053,"year":2054,"Ġprovin":2055,"Ġcentral":2056,"Ġ&":2057,"Ġprovision":2058,"Ġincreased":2059,"sequ":2060,"Ġchair":2061,"Ġmonths":2062,"Ġaround":2063,"Ġclose":2064,"ober":2065,"Ġeas":2066,"Ġcapital":2067,"Ġjustice":2068,"gu":2069,"Ġcirc":2070,"Ġshort":2071,"Ġmand":2072,"ariat":2073,"by":2074,"Ġlat":2075,"Ġmen":2076,"icult":2077,"row":2078,"ender":2079,"vers":2080,"til":2081,"Ġdue":2082,"Ġsays":2083,"Ġlegislation":2084,"ask":2085,"wards":2086,"bo":2087,"Ġbal":2088,"Ġmight":2089,"Ġnote":2090,"Ġec":2091,"Ġnove":2092,"Ġadministr":2093,"imination":2094,"Ġtarget":2095,"Ġrepresentative":2096,"acy":2097,"Ġdev":2098,"ological":2099,"Ġ24":2100,"Ġdiff":2101,"Ġjanuary":2102,"Ġnovember":2103,"Ġconte":2104,"Ġsecretariat":2105,"Ġprep":2106,"Ġchanges":2107,"Ġ21":2108,"osp":2109,"oot":2110,"Ġaim":2111,"though":2112,"sec":2113,"Ġrecommendations":2114,"Ġstatus":2115,"Ġage":2116,"chan":2117,"Ġannual":2118,"Ġearly":2119,"Ġnear":2120,"Ġmaking":2121,"Ġparticularly":2122,"Ġnatural":2123,"Ġaffairs":2124,"Ġlic":2125,"Ġmor":2126,"Ġexpected":2127,"Ġtrib":2128,"ubl":2129,"Ġoctober":2130,"Ġdiv":2131,"mp":2132,"pose":2133,"Ġimm":2134,"Ġplans":2135,"ta":2136,"Ġaccept":2137,"Ġemerg":2138,"Ġgoods":2139,"Ġincluded":2140,"val":2141,"Ġenh":2142,"Ġinvestment":2143,"onse":2144,"Ġexam":2145,"new":2146,"Ġprevent":2147,"Ġalthough":2148,"reg":2149,"Ġpartnership":2150,"Ġoblig":2151,"Ġhold":2152,"15":2153,"Ġpan":2154,"Ġbenefits":2155,"Ġtal":2156,"Ġsuper":2157,"Ġstre":2158,"Ġprim":2159,"Ġable":2160,"ises":2161,"Ġmus":2162,"Ġx":2163,"Ġindepend":2164,"Ġprogrammes":2165,"Ġcrimin":2166,"Ġcultural":2167,"Ġ1999":2168,"Ġcomplain":2169,"ably":2170,"Ġmid":2171,"ock":2172,"Ġmaintain":2173,"Ġfail":2174,"Ġcop":2175,"Ġconflic":2176,"Ġont":2177,"Ġbecome":2178,"ither":2179,"Ġms":2180,"Ġproblems":2181,"ule":2182,"akes":2183,"Ġopt":2184,"side":2185,"erc":2186,"Ġresponse":2187,"Ġtreaty":2188,"Ġmechan":2189,"yl":2190,"Ġreason":2191,"ilar":2192,"ured":2193,"Ġcompanies":2194,"Ġapply":2195,"Ġyoung":2196,"nel":2197,"Ġsustainable":2198,"rict":2199,"Ġgive":2200,"icles":2201,"ban":2202,"Ġcome":2203,"Ġmedia":2204,"Ġmission":2205,"estic":2206,"imum":2207,"Ġcand":2208,"mon":2209,"Ġsent":2210,"Ġbor":2211,"iting":2212,"used":2213,"Ġrespond":2214,"Ġhar":2215,"Ġrad":2216,"Ġtaking":2217,"Ġdocuments":2218,"Ġanalysis":2219,"Ġsl":2220,"Ġuntil":2221,"Ġreform":2222,"of":2223,"Ġdistrib":2224,"Ġ22":2225,"Ġacross":2226,"hib":2227,"Ġtoo":2228,"Ġdifficult":2229,"Ġevidence":2230,"Ġupon":2231,"Ġpersonal":2232,"Ġbi":2233,"ls":2234,"Ġbur":2235,"istics":2236,"bec":2237,"Ġregulation":2238,"ides":2239,"gether":2240,"Ġexecutive":2241,"Ġtogether":2242,"ograph":2243,"ey":2244,"bia":2245,"Ġtreatment":2246,"ying":2247,"Ġgoing":2248,"here":2249,"Ġmanu":2250,"Ġleaders":2251,"Ġestim":2252,"ways":2253,"Ġtem":2254,"Ġlabour":2255,"Ġontario":2256,"Ġtre":2257,"Ġger":2258,"Ġcoll":2259,"Ġenter":2260,"uty":2261,"Ġundert":2262,"ently":2263,"Ġinn":2264,"Ġnegot":2265,"Ġsimilar":2266,"Ġachieve":2267,"Ġjoint":2268,"nes":2269,"ively":2270,"ients":2271,"Ġblo":2272,"Ġbig":2273,"Ġconcerned":2274,"ricult":2275,"ends":2276,"Ġplanning":2277,"Ġcitiz":2278,"Ġvot":2279,"Ġtransfer":2280,"Ġbra":2281,"Ġresponsible":2282,"ring":2283,"Ġgovernments":2284,"Ġcriminal":2285,"ipment":2286,"int":2287,"Ġexisting":2288,"Ġ31":2289,"Ġcalled":2290,"Ġprofessional":2291,"Ġexperience":2292,"Ġdemocr":2293,"Ġpubl":2294,"Ġevaluation":2295,"Ġparticipation":2296,"ruction":2297,"cially":2298,"Ġold":2299,"based":2300,"Ġpursu":2301,"Ġcourse":2302,"199":2303,"Ġfeb":2304,"Ġmonitoring":2305,"ival":2306,"Ġque":2307,"Ġadministration":2308,"Ġoften":2309,"Ġdescrib":2310,"Ġbuilding":2311,"Ġinvolved":2312,"Ġproposal":2313,"Ġcommer":2314,"Ġappl":2315,"aign":2316,"Ġnetwork":2317,"ills":2318,"Ġcandid":2319,"Ġeconomy":2320,"Ġadvis":2321,"force":2322,"Ġmanufact":2323,"Ġconcerning":2324,"Ġ23":2325,"rench":2326,"Ġpal":2327,"Ġcampaign":2328,"Ġshare":2329,"Ġactivity":2330,"Ġagricult":2331,"Ġothers":2332,"Ġtimes":2333,"Ġcollect":2334,"Ġquestions":2335,"istan":2336,"govern":2337,"Ġreporting":2338,"view":2339,"af":2340,"Ġagencies":2341,"Ġground":2342,"Ġmean":2343,"Ġtold":2344,"aced":2345,"sw":2346,"Ġveh":2347,"onst":2348,"ane":2349,"lf":2350,"Ġincreasing":2351,"Ġsex":2352,"pped":2353,"hers":2354,"Ġprepar":2355,"Ġnuc":2356,"lu":2357,"Ġinstitution":2358,"ature":2359,"ences":2360,"Ġamerican":2361,"Ġroom":2362,"Ġnever":2363,"Ġkeep":2364,"uted":2365,"Ġbritish":2366,"Ġterror":2367,"Ġban":2368,"mission":2369,"ern":2370,"Ġequipment":2371,"ires":2372,"Ġeth":2373,"14":2374,"Ġdecisions":2375,"Ġprocedures":2376,"Ġsomet":2377,"Ġafrica":2378,"Ġpoints":2379,"abor":2380,"Ġofficials":2381,"Ġsubmitted":2382,"Ġpractices":2383,"Ġreflect":2384,"Ġemployees":2385,"25":2386,"Ġtook":2387,"anc":2388,"itional":2389,"Ġjoh":2390,"wh":2391,"Ġnoted":2392,"Ġsche":2393,"Ġmatter":2394,"Ġadministrative":2395,"Ġphys":2396,"Ġassociation":2397,"Ġthreat":2398,"Ġdemand":2399,"Ġconsideration":2400,"rast":2401,"Ġmov":2402,"Ġannoun":2403,"ruary":2404,"acter":2405,"Ġill":2406,"Ġproblem":2407,"Ġcho":2408,"Ġproviding":2409,"Ġpromote":2410,"Ġviolence":2411,"Ġcomplete":2412,"Ġinitiatives":2413,"Ġforces":2414,"Ġobjectives":2415,"pecially":2416,"ott":2417,"over":2418,"Ġcy":2419,"Ġdomestic":2420,"Ġlanguage":2421,"Ġamendment":2422,"Ġchina":2423,"Ġide":2424,"Ġexch":2425,"Ġimportance":2426,"Ġchief":2427,"Ġdiscr":2428,"Ġeffic":2429,"urance":2430,"Ġcode":2431,"Ġhol":2432,"Ġnuclear":2433,"60":2434,"Ġconsist":2435,"ocol":2436,"Ġden":2437,"Ġrepl":2438,"Ġonce":2439,"uge":2440,"Ġgrant":2441,"Ġinitiative":2442,"Ġstrategic":2443,"ided":2444,"Ġmal":2445,"app":2446,"ars":2447,"Ġfunds":2448,"Ġmoney":2449,"rael":2450,"Ġyork":2451,"oy":2452,"Ġyet":2453,"Ġ50":2454,"loc":2455,"term":2456,"Ġlight":2457,"Ġhigher":2458,"Ġreference":2459,"Ġexplo":2460,"Ġlimited":2461,"Ġfrench":2462,"Ġappear":2463,"Ġlikely":2464,"Ġstandard":2465,"Ġfebruary":2466,"Ġgreater":2467,"ik":2468,"Ġmeetings":2469,"Ġresponsibility":2470,"Ġvari":2471,"Ġproceed":2472,"let":2473,"Ġespecially":2474,"Ġmot":2475,"arian":2476,"Ġexport":2477,"Ġpurpose":2478,"hen":2479,"Ġprocedure":2480,"Ġtool":2481,"Ġrule":2482,"rie":2483,"Ġregarding":2484,"Ġscient":2485,"Ġagreed":2486,"Ġmedical":2487,"Ġess":2488,"Ġobtain":2489,"Ġworkers":2490,"Ġtour":2491,"Ġopp":2492,"Ġfacilit":2493,"//":2494,"Ġserious":2495,"Ġroad":2496,"Ġisrael":2497,"Ġcontext":2498,"Ġtribun":2499,"Ġleft":2500,"Ġsan":2501,"original":2502,"osed":2503,"Ġ28":2504,"Ġdone":2505,"Ġtext":2506,"ley":2507,"Ġopportunities":2508,"Ġobserv":2509,"Ġaug":2510,"Ġcannot":2511,"Ġhy":2512,"Ġfav":2513,"Ġdeli":2514,"Ġobama":2515,"Ġlater":2516,"Ġguidel":2517,"Ġreturn":2518,"Ġspace":2519,"ets":2520,"Ġ27":2521,"Ġhapp":2522,"eng":2523,"18":2524,"Ġrange":2525,"equ":2526,"Ġtravel":2527,"Ġhard":2528,"ttp":2529,"Ġreven":2530,"Ġruss":2531,"Ġregular":2532,"Ġrates":2533,"Ġbenefit":2534,"Ġbillion":2535,"Ġisland":2536,"://":2537,"Ġinnov":2538,"Ġcitizens":2539,"Ġqual":2540,"Ġpractice":2541,"Ġeffects":2542,"ging":2543,"ounts":2544,"Ġcanadians":2545,"Ġrepresentatives":2546,"bs":2547,"Ġhotel":2548,"Ġprotocol":2549,"part":2550,"Ġcommunication":2551,"Ġlittle":2552,"Ġamerica":2553,"Ġgerman":2554,"xic":2555,"Ġcross":2556,"Ġdise":2557,"Ġofficer":2558,"Ġopin":2559,"rial":2560,"Ġprinciples":2561,"Ġlink":2562,"action":2563,"Ġdeath":2564,"Ġtowards":2565,"hens":2566,"Ġbody":2567,"16":2568,"arc":2569,"Ġalong":2570,"Ġtype":2571,"Ġ26":2572,"Ġdi":2573,"Ġneeded":2574,"Ġinj":2575,"ler":2576,"Ġgender":2577,"illed":2578,"Ġred":2579,"Ġstudies":2580,"Ġoccup":2581,"Ġappeal":2582,"Ġbring":2583,"Ġpage":2584,"ones":2585,"Ġfish":2586,"cal":2587,"Ġ/":2588,"Ġaboriginal":2589,"Ġminist":2590,"Ġcurrently":2591,"Ġwest":2592,"Ġattention":2593,"ple":2594,"ming":2595,"Ġwhy":2596,"Ġclos":2597,"Ġidentify":2598,"isation":2599,"Ġfig":2600,"cell":2601,"Ġfall":2602,"unic":2603,"Ġmodel":2604,"ont":2605,"mediate":2606,"ze":2607,"Ġface":2608,"Ġself":2609,"Ġgas":2610,"ored":2611,"ense":2612,"Ġdelegation":2613,"va":2614,"Ġcut":2615,"Ġloss":2616,"Ġ1998":2617,"ription":2618,"most":2619,"Ġexcept":2620,"Ġprevention":2621,"Ġsingle":2622,"Ġtro":2623,"Ġcro":2624,"Ġnegoti":2625,"Ġmeasure":2626,"Ġexpert":2627,"Ġvisit":2628,"Ġoutside":2629,"Ġdeclar":2630,"Ġaust":2631,"Ġtyp":2632,"Ġinternal":2633,"Ġbelow":2634,"izing":2635,"aps":2636,"Ġwat":2637,"Ġoil":2638,"Ġseem":2639,"Ġdou":2640,"Ġtribunal":2641,"Ġvote":2642,"Ġfamil":2643,"Ġforward":2644,"Ġconflict":2645,"Ġagreements":2646,"Ġdefin":2647,"Ġidentified":2648,"Ġopportunity":2649,"Ġgame":2650,"40":2651,"aster":2652,"cl":2653,"Ġaverage":2654,"comes":2655,"Ġeither":2656,"Ġincludes":2657,"17":2658,"rc":2659,"iff":2660,"Ġvictim":2661,"Ġphot":2662,"Ġlaun":2663,"Ġpaid":2664,"Ġdivision":2665,"itation":2666,"eria":2667,"Ġarm":2668,"Ġconcern":2669,"Ġstudents":2670,"gc":2671,"Ġsurvey":2672,"br":2673,"Ġadded":2674,"Ġlack":2675,"Ġrelationship":2676,"Ġnature":2677,"Ġoverall":2678,"anced":2679,"org":2680,"Ġcontinued":2681,"Ġaugust":2682,"Ġasked":2683,"ached":2684,"Ġpress":2685,"Ġhours":2686,"Ġassociated":2687,"Ġunit":2688,"ops":2689,"Ġcorre":2690,"ĠâĢĺ":2691,"ronic":2692,"Ġdam":2693,"Ġindividuals":2694,"Ġabs":2695,"Ġrelating":2696,"www":2697,"Ġdest":2698,"Ġadj":2699,"Ġpriority":2700,"Ġessential":2701,"Ġfif":2702,"Ġhalf":2703,"Ġguidelines":2704,"Ġgl":2705,"Ġentit":2706,"Ġfunction":2707,"Ġ|":2708,"Ġaltern":2709,"Ġchap":2710,"Ġrather":2711,"lier":2712,"Ġeast":2713,"Ġprovincial":2714,"Ġii":2715,"Ġperman":2716,"22":2717,"Ġromney":2718,"Ġwal":2719,"Ġfreed":2720,"Ġcommercial":2721,"Ġprice":2722,"Ġren":2723,"ateral":2724,"Ġyouth":2725,"Ġupd":2726,"uel":2727,"Ġbegin":2728,"Ġalways":2729,"Ġ29":2730,"Ġcommissioner":2731,"Ġterm":2732,"Ġsepar":2733,"Ġinternet":2734,"Ġking":2735,"Ġwon":2736,"pects":2737,"Ġcredit":2738,"Ġcharacter":2739,"Ġprepared":2740,"Ġhost":2741,"Ġalleg":2742,"iveness":2743,"Ġbelieve":2744,"Ġdiscrimination":2745,"Ġcoordin":2746,"iday":2747,"rehens":2748,"Ġcarry":2749,"Ġcert":2750,"Ġhon":2751,"Ġknown":2752,"Ġdemonst":2753,"Ġ100":2754,"Ġfully":2755,"lusion":2756,"Ġseason":2757,"Ġthus":2758,"Ġ197":2759,"ots":2760,"Ġsafe":2761,"fficient":2762,"rup":2763,"aries":2764,"Ġminor":2765,"Ġ40":2766,"aran":2767,"Ġaudit":2768,"Ġcolle":2769,"Ġcrime":2770,"Ġmass":2771,"Ġsport":2772,"Ġcateg":2773,"Ġje":2774,"Ġcustom":2775,"poses":2776,"Ġspecies":2777,"Ġcolum":2778,"mal":2779,"Ġexerc":2780,"Ġmill":2781,"Ġcomprehens":2782,"Ġissued":2783,"Ġoffer":2784,"Ġliving":2785,"ique":2786,"):":2787,"Ġexchange":2788,"selves":2789,"Ġinfrast":2790,"Ġactions":2791,"eur":2792,"istic":2793,"Ġcommunications":2794,"Ġreferred":2795,"Ġelection":2796,"liance":2797,"Ġflo":2798,"Ġuk":2799,"Ġimmediate":2800,"Ġsubstant":2801,"Ġbodies":2802,"cast":2803,"Ġpurposes":2804,"lor":2805,"23":2806,"âĢĵ":2807,"Ġmic":2808,"mine":2809,"erve":2810,"Ġhosp":2811,"Ġseries":2812,"Ġapproved":2813,"section":2814,"Ġcontributions":2815,"Ġrat":2816,"Ġarch":2817,"Ġforms":2818,"Ġacqu":2819,"lish":2820,"Ġafrican":2821,"Ġdemocratic":2822,"Ġconcerns":2823,"Ġsource":2824,"Ġcompon":2825,"ump":2826,"ilateral":2827,"Ġcommitment":2828,"Ġchallenges":2829,"Ġwhole":2830,"Ġfri":2831,"\".":2832,"aged":2833,"Ġpack":2834,"Ġweap":2835,"Ġarrange":2836,"hern":2837,"Ġcontribution":2838,"Ġlin":2839,"Ġinsurance":2840,"Ġconclud":2841,"Ġevents":2842,"Ġconstitution":2843,"ression":2844,"awa":2845,"Ġfire":2846,"ched":2847,"Ġhistory":2848,"Ġmig":2849,"Ġpursuant":2850,"Ġharm":2851,"Ġdirective":2852,"lling":2853,"Ġfacilities":2854,"Ġsuccessful":2855,"Ġletter":2856,"Ġpermanent":2857,"Ġpaper":2858,"ma":2859,"pre":2860,"Ġcomprehensive":2861,"Ġara":2862,"ussion":2863,"Ġwhose":2864,"Ġbul":2865,"Ġdu":2866,"Ġresident":2867,"Ġorigin":2868,"Ġbehalf":2869,"Ġ2009":2870,"Ġcompetition":2871,"Ġkind":2872,"oph":2873,"off":2874,"Ġindependent":2875,"Ġlower":2876,"24":2877,"Ġcat":2878,"governmental":2879,"Ġtrust":2880,"Ġestablishment":2881,"ened":2882,"Ġopinion":2883,"Ġcle":2884,"Ġoperation":2885,"isters":2886,"Ġparticipants":2887,"Ġvir":2888,"Ġgoals":2889,"Ġsearch":2890,"Ġdeclaration":2891,"verty":2892,"Ġindustrial":2893,"Ġpositive":2894,"Ġpoverty":2895,"Ġcollabor":2896,"Ġforest":2897,"Ġreduce":2898,"orn":2899,"Ġgener":2900,"Ġbasic":2901,"Ġnation":2902,"ulated":2903,"can":2904,"Ġprimary":2905,"Ġwide":2906,"Ġmiss":2907,"Ġmandate":2908,"Ġcarried":2909,"Ġinstitute":2910,"Ġculture":2911,"Ġvolun":2912,"endit":2913,"Ġfre":2914,"ogue":2915,"abilities":2916,"rate":2917,"Ġoccur":2918,"bu":2919,"Ġfair":2920,"ai":2921,"Ġplease":2922,"Ġministry":2923,"Ġcover":2924,"05":2925,"site":2926,"cont":2927,"phas":2928,"Ġunderstanding":2929,"Ġinfrastructure":2930,"Ġrequested":2931,"Ġdiscussion":2932,"Ġdebt":2933,"Ġjohn":2934,"Ġfrance":2935,"Ġhttp":2936,"iction":2937,"Ġsupply":2938,"Ġjour":2939,"ension":2940,"estern":2941,"Ġselect":2942,"Ġcreate":2943,"Ġenforce":2944,"03":2945,"Ġdefence":2946,"Ġexpendit":2947,"Ġconserv":2948,"Ġmax":2949,"Ġreally":2950,"Ġmess":2951,"Ġproposals":2952,"29":2953,"Ġinflu":2954,"Ġdecided":2955,"rel":2956,"Ġregions":2957,"Ġseen":2958,"nal":2959,"enn":2960,"Ġchr":2961,"Ġdebate":2962,"Ġtit":2963,"Ġpriorities":2964,"Ġbat":2965,"Ġsales":2966,"Ġcam":2967,"Ġspeak":2968,"Ġclimate":2969,"Ġinitial":2970,"Ġcoordination":2971,"Ġfisher":2972,"Ġnorthern":2973,"ologies":2974,"Ġund":2975,"Ġfarm":2976,"acks":2977,"aren":2978,"Ġtim":2979,"bur":2980,"Ġcame":2981,"Ġexperts":2982,"isms":2983,"going":2984,"eth":2985,"Ġprosec":2986,"Ġdelivery":2987,"put":2988,"Ġnight":2989,"Ġmatters":2990,"ipl":2991,"Ġdial":2992,"Ġsources":2993,"itarian":2994,"arter":2995,"Ġcomments":2996,"Ġreduction":2997,"Ġguaran":2998,"Ġcontained":2999,"Ġcris":3000,"Ġbase":3001,"Ġfa":3002,"pping":3003,"ih":3004,"Ġmob":3005,"Ġpersonnel":3006,"Ġpresented":3007,"Ġfoot":3008,"Ġstake":3009,"Ġhous":3010,"ensive":3011,"Ġ1997":3012,"Ġaway":3013,"Ġmarkets":3014,"ony":3015,"Ġdesp":3016,"Ġaid":3017,"Ġpark":3018,"oid":3019,"Ġthings":3020,"Ġdisclo":3021,"rec":3022,"Ġfeel":3023,"asons":3024,"Ġconsequ":3025,"Ġlive":3026,"02":3027,"Ġstructure":3028,"Ġsenior":3029,"apan":3030,"Ġthroughout":3031,"Ġemphas":3032,"Ġmont":3033,"Ġens":3034,"time":3035,"Ġlib":3036,"Ġscience":3037,"ery":3038,"osition":3039,"Ġfle":3040,"Ġlot":3041,"arily":3042,"head":3043,"Ġadoption":3044,"cra":3045,"add":3046,"Ġforum":3047,"imately":3048,"Ġclaims":3049,"Ġhope":3050,"Ġnotice":3051,"know":3052,"wor":3053,"Ġpublished":3054,"Ġled":3055,"ghan":3056,"Ġfactors":3057,"Ġexpressed":3058,"Ġside":3059,"Ġ2010":3060,"Ġworks":3061,"Ġpalest":3062,"bour":3063,"Ġmag":3064,"Ġquebec":3065,"vision":3066,"Ġapplications":3067,"Ġpromotion":3068,"Ġdisp":3069,"Ġbook":3070,"Ġwed":3071,"ung":3072,"bers":3073,"Ġofficers":3074,"Ġwind":3075,"Ġq":3076,"Ġsatis":3077,"Ġstatistics":3078,"Ġitself":3079,"holders":3080,"Ġsett":3081,"Ġconfir":3082,"Ġrapport":3083,"Ġprocesses":3084,"Ġchem":3085,"Ġcrisis":3086,"Ġgreen":3087,"Ġrequests":3088,"Ġfight":3089,"Ġemb":3090,"Ġjur":3091,"Ġbill":3092,"Ġadver":3093,"Ġresource":3094,"Ġbreak":3095,"Ġital":3096,"Ġcompliance":3097,"Ġdirectly":3098,"Ġnotes":3099,"Ġ2012":3100,"Ġentitled":3101,"Ġextra":3102,"Ġcircum":3103,"Ġweapons":3104,"aches":3105,"Ġsites":3106,"Ġfel":3107,"thing":3108,"Ġdecl":3109,"Ġpanel":3110,"Ġliber":3111,"Ġdesigned":3112,"Ġcontent":3113,"ately":3114,"oks":3115,"Ġequal":3116,"âĢĶ":3117,"Ġimmig":3118,"ĠâĹ":3119,"Ġhiv":3120,"04":3121,"gn":3122,"Ġemployee":3123,"Ġgain":3124,"Ġreceive":3125,"Ġanim":3126,"rought":3127,"anch":3128,"coming":3129,"Ġcomput":3130,"Ġtri":3131,"Ġdescribed":3132,"âĢĿ.":3133,"uses":3134,"Ġhumanitarian":3135,"Ġstreet":3136,"Ġstrategies":3137,"Ġdistribution":3138,"Ġfamilies":3139,"Ġmil":3140,"Ġdespite":3141,"Ġsubs":3142,"Ġalmost":3143,"uk":3144,"Ġjapan":3145,"ibilities":3146,"Ġafghan":3147,"Ġinvestigation":3148,"Ġpred":3149,"Ġvalues":3150,"Ġconducted":3151,"Ġcriteria":3152,"ume":3153,"Ġgot":3154,"26":3155,"Ġaddressed":3156,"dom":3157,"Ġanaly":3158,"Ġreach":3159,"tm":3160,"Ġobjective":3161,"racy":3162,"Ġwhite":3163,"ables":3164,"ands":3165,"Ġearlier":3166,"Ġobligations":3167,"Ġlaws":3168,"Ġconv":3169,"Ġ,":3170,"Ġstress":3171,"Ġhistor":3172,"abit":3173,"Ġdetermine":3174,"Ġgoal":3175,"Ġ1996":3176,"Ġleave":3177,"Ġoperational":3178,"Ġmaterials":3179,"Ġcommitted":3180,"Ġthemselves":3181,"Ġversion":3182,"Ġenglish":3183,"Ġprinciple":3184,"Ġago":3185,"Ġscientific":3186,"Ġround":3187,"no":3188,"Ġapplied":3189,"Ġdol":3190,"Ġdepartments":3191,"Ġlonger":3192,"Ġelectronic":3193,"Ġsold":3194,"mpt":3195,"Ġcopy":3196,"Ġsomething":3197,"Ġwish":3198,"Ġdav":3199,"Ġlimit":3200,"Ġintegrated":3201,"Ġil":3202,"hol":3203,"Ġgir":3204,"Ġinterests":3205,"Ġpurch":3206,"Ġpoll":3207,"Ġfinancing":3208,"Ġprices":3209,"2005":3210,"Ġut":3211,"Ġtrial":3212,"Ġflow":3213,"Ġregulatory":3214,"yn":3215,"Ġadvisory":3216,"cr":3217,"Ġanti":3218,"ha":3219,"27":3220,"Ġjoin":3221,"employ":3222,"mor":3223,"Ġrefuge":3224,"Ġsamp":3225,"ĠâĹ¦":3226,"ert":3227,".)":3228,"ondon":3229,"Ġdispl":3230,"Ġenj":3231,"Ġcounter":3232,"Ġadequ":3233,"28":3234,"Ġremains":3235,"Ġexplain":3236,"Ġrural":3237,"Ġwestern":3238,"Ġactive":3239,"Ġterritory":3240,"Ġunf":3241,"Ġmakes":3242,"Ġmodern":3243,"Ġcalc":3244,"Ġchapter":3245,"uesday":3246,"Ġlanguages":3247,"Ġrelease":3248,"Ġreserv":3249,"Ġmonday":3250,"Ġ60":3251,"Ġrelig":3252,"Ġinvolve":3253,"dle":3254,"Ġhom":3255,"Ġcreated":3256,"Ġcompleted":3257,"Ġconstruction":3258,"Ġdro":3259,"Ġapproval":3260,"erson":3261,"Ġrecently":3262,"Ġrecords":3263,"________________":3264,"Ġministers":3265,"Ġcomplex":3266,"Ġtuesday":3267,"Ġprovince":3268,"Ġ:":3269,"aces":3270,"Ġrecall":3271,"Ġcircumst":3272,"Ġsummary":3273,"Ġparts":3274,"Ġappoint":3275,"Ġcorporation":3276,"Ġ*":3277,"orm":3278,"Ġsubsection":3279,"lant":3280,"Ġenhance":3281,"Ġinterview":3282,"Ġfriday":3283,"Ġschools":3284,"Ġreasons":3285,"Ġenough":3286,"Ġira":3287,"Ġrelative":3288,"Ġways":3289,"Ġapplicable":3290,"Ġtransportation":3291,"06":3292,"Ġfunda":3293,"Ġoperating":3294,"Ġturn":3295,"Ġaspects":3296,"pid":3297,"Ġenforcement":3298,"rew":3299,"ude":3300,"Ġben":3301,"Ġindicated":3302,"den":3303,"Ġdialogue":3304,"Ġamb":3305,"Ġip":3306,"Ġrail":3307,"areness":3308,"Ġcra":3309,"Ġlearning":3310,"Ġawareness":3311,"Ġdescription":3312,"Ġchairman":3313,"Ġtren":3314,"Ġprem":3315,"Ġclearly":3316,"Ġpayment":3317,"Ġvictims":3318,"oke":3319,"Ġadjust":3320,"Ġdraw":3321,"Ġâĸ":3322,"Ġarticles":3323,"Ġvide":3324,"Ġsyri":3325,"Ġaward":3326,"Ġsea":3327,"Ġeg":3328,"Ġskills":3329,"Ġlondon":3330,"Ġstatements":3331,"Ġsupported":3332,"rief":3333,"Ġspending":3334,"Ġbure":3335,"Ġatte":3336,"Ġlate":3337,"Ġtask":3338,"Ġmention":3339,"Ġscot":3340,"Ġconsultation":3341,"Ġiran":3342,"Ġtechnologies":3343,"Ġtown":3344,"lled":3345,"bor":3346,"Ġalloc":3347,"rary":3348,"erous":3349,"Ġstated":3350,")(":3351,"Ġtraditional":3352,"Ġrenew":3353,"Ġrecommendation":3354,"Ġconcent":3355,"ana":3356,"Ġpayments":3357,"rents":3358,"Ġargu":3359,"Ġcompens":3360,"cle":3361,"Ġmajority":3362,"Ġwebsite":3363,"ternal":3364,"icial":3365,"Ġselection":3366,"Ġrevenue":3367,"inary":3368,"Ġamendments":3369,"Ġincor":3370,"Ġfundamental":3371,"ux":3372,"ĠÂ£":3373,"Ġcontribute":3374,"yal":3375,"ida":3376,"isd":3377,"Ġgames":3378,"Ġiraq":3379,"la":3380,"Ġstrengthen":3381,"Ġder":3382,"overy":3383,"Ġrapporteur":3384,"Ġstri":3385,"Ġphysical":3386,"Ġweeks":3387,"uations":3388,"Ġconsultations":3389,"Ġdrugs":3390,"Ġcalls":3391,"Ġmethods":3392,"Ġsound":3393,"Ġcircumstances":3394,"Ġsuff":3395,"Ġmer":3396,"Ġengine":3397,"ania":3398,"Ġsteps":3399,"Ġstra":3400,"Ġwords":3401,"rency":3402,"63":3403,"Ġjobs":3404,"Ġability":3405,"Ġelig":3406,"key":3407,"Ġcomment":3408,"Ġstruct":3409,"Ġfile":3410,"mar":3411,"Ġstage":3412,"ground":3413,"ift":3414,"Ġgenerally":3415,"Ġstay":3416,"Ġemergency":3417,"works":3418,"Ġminutes":3419,"Ġregistration":3420,"Ġmo":3421,"Ġtakes":3422,"Ġplanned":3423,"Ġtor":3424,"Ġaffected":3425,"ĠÃ":3426,"Ġwww":3427,"iency":3428,"Ġdoing":3429,"rs":3430,"Ġextent":3431,"iences":3432,"Ġquarter":3433,"tees":3434,"ster":3435,"Ġcritical":3436,"Ġever":3437,"Ġentire":3438,"Ġmedic":3439,"rant":3440,"uck":3441,"Ġdivers":3442,"comm":3443,"Ġmom":3444,"ivity":3445,"active":3446,"Ġundertak":3447,"nesday":3448,"\",":3449,"phone":3450,"Ġsens":3451,"2006":3452,"Ġheart":3453,"Ġthurs":3454,"Ġcou":3455,"Ġinstruments":3456,"ese":3457,"Ġelements":3458,"Ġfront":3459,"Ġnegotiations":3460,"Ġclin":3461,"Ġsoft":3462,"Ġdisease":3463,"21":3464,"build":3465,"Ġmechanisms":3466,"Ġdetermined":3467,"df":3468,"Ġblack":3469,"Ġcell":3470,"Ġguide":3471,"Ġsatisf":3472,"orth":3473,"Ġwednesday":3474,"Ġannounced":3475,"resp":3476,"Ġriver":3477,"Ġaccom":3478,"Ġmanner":3479,"99":3480,"Ġthursday":3481,"related":3482,"----":3483,"Ġchemical":3484,"Ġott":3485,"ferences":3486,"Ġcheck":3487,"Ġconne":3488,"Ġ...":3489,"Ġpalestin":3490,"Ġfinance":3491,"wide":3492,"Ġarab":3493,"Ġyes":3494,"Ġfreedom":3495,"Ġfilm":3496,"Ġwritten":3497,"Ġbrought":3498,"Ġleading":3499,"Ġsha":3500,"................":3501,"07":3502,"Ġtools":3503,"Ġviews":3504,"Ġexercise":3505,"Ġbrief":3506,"Ġattack":3507,"Ġdetails":3508,"igen":3509,"Ġacts":3510,"Ġcompared":3511,"Ġcharter":3512,"Ġavoid":3513,"Ġonline":3514,"45":3515,"back":3516,"Ġgermany":3517,"Ġminimum":3518,"Ġmiddle":3519,"Ġensuring":3520,"mark":3521,"Ġquick":3522,"ening":3523,"Ġlog":3524,"vere":3525,"Ġcorporate":3526,"Ġcause":3527,"Ġvehicle":3528,"more":3529,"Ġmanager":3530,"Ġmit":3531,"Ġmc":3532,"Ġansw":3533,"Ġprec":3534,"Ġherit":3535,"Ġpressure":3536,"bon":3537,"Ġagriculture":3538,"Ġseven":3539,"ware":3540,"ulations":3541,"oral":3542,"Ġwa":3543,"ague":3544,"Ġlinks":3545,"Ġcompar":3546,"Ġfiscal":3547,"men":3548,"craft":3549,"Ġdeg":3550,"Ġâĸª":3551,"Ġexternal":3552,"Ġarmed":3553,"Ġottawa":3554,"Ġworksh":3555,"Ġsoon":3556,"enses":3557,"ream":3558,"35":3559,"Ġheritage":3560,"Ġjournal":3561,"ties":3562,"Ġsize":3563,"Ġintegration":3564,"Ġradio":3565,"Ġrequires":3566,"Ġpet":3567,"Ġassets":3568,"mail":3569,"Ġintended":3570,"Ġdollar":3571,"Ġic":3572,"Ġprob":3573,"Ġchrist":3574,"Ġterrorism":3575,"Ġcru":3576,"Ġmusic":3577,"Ġenterpr":3578,"Ġsectors":3579,"Ġcf":3580,"Ġdead":3581,"'re":3582,"Ġcoast":3583,"itable":3584,"Ġadvance":3585,"Ġprime":3586,"Ġpenal":3587,"Ġvac":3588,"Ġship":3589,"Ġapprox":3590,"Ġmicro":3591,"Ġrecommended":3592,"2007":3593,"Ġpension":3594,"Ġremov":3595,"Ġalber":3596,"ann":3597,"Ġimplemented":3598,"ulate":3599,"cs":3600,"sy":3601,"Ġ1995":3602,"Ġsubmit":3603,"Ġcolumbia":3604,"ody":3605,"set":3606,"atures":3607,"Ġrein":3608,"Ġprison":3609,"Ġbalance":3610,"Ġparents":3611,"Ġestimated":3612,"iary":3613,"Ġded":3614,"Ġconsumer":3615,"gent":3616,"Ġexcell":3617,"Ġsubsid":3618,"Ġdefined":3619,"Ġjurisd":3620,"Ġlocated":3621,"Ġmis":3622,"nd":3623,"Ġchallenge":3624,"Ġfinally":3625,"Ġsufficient":3626,"Ġimplementing":3627,"Ġoffices":3628,"Ġpromoting":3629,"Ġtypes":3630,"ox":3631,"Ġongoing":3632,"Ġinterp":3633,"Ġcreat":3634,"Ġextre":3635,"Ġpoor":3636,"Ġsubsequ":3637,"Ġleadership":3638,"Ġincorpor":3639,"Ġstock":3640,"Ġcollection":3641,"Ġten":3642,"Ġsexual":3643,"Ġinstitutional":3644,"Ġimproved":3645,"aut":3646,"Ġencourage":3647,"Ġenjoy":3648,"Ġetc":3649,"Ġexpand":3650,"ding":3651,"ites":3652,"lies":3653,"Ġbey":3654,"Ġcard":3655,"Ġcove":3656,"Ġlost":3657,"pan":3658,"arters":3659,"Ġpil":3660,"Ġmur":3661,"Ġarrangements":3662,"Ġpeoples":3663,"eping":3664,"Ġmanufacture":3665,"je":3666,"Ġalternative":3667,"zer":3668,"2004":3669,"wise":3670,"icking":3671,"Ġresponsibilities":3672,"igned":3673,"Ġcandidates":3674,"Ġstrengthening":3675,"Ġgrowing":3676,"unicip":3677,"Ġinformed":3678,"Ġsure":3679,"Ġbranch":3680,"Ġfrequ":3681,"igenous":3682,"Ġmexic":3683,"Ġwent":3684,"Ġcreation":3685,"Ġord":3686,"Ġbureau":3687,"Ġprohib":3688,"Ġscope":3689,"ipe":3690,"Ġwashing":3691,"ental":3692,"Ġfem":3693,"Ġitems":3694,"Ġfavour":3695,"Ġdut":3696,"Ġproceedings":3697,"Ġscreen":3698,"Ġsigned":3699,"Ġclub":3700,"Ġelections":3701,"nic":3702,"Ġmovement":3703,"Ġparticipate":3704,"Ġimproving":3705,"Ġpun":3706,"2003":3707,"Ġbeyond":3708,"Ġball":3709,"orial":3710,"Ġ35":3711,"Ġhousing":3712,"lam":3713,"Ġdang":3714,"Ġmother":3715,"Ġresearc":3716,"iter":3717,"Ġshows":3718,"Ġsusp":3719,"Ġplant":3720,"Ġstakeholders":3721,"Ġadap":3722,"Ġkingdom":3723,"Ġlegislative":3724,"Ġbegan":3725,"Ġinde":3726,"Ġcoming":3727,"08":3728,"do":3729,"Ġtranspa":3730,"Ġclar":3731,"building":3732,"bc":3733,"Ġmunicip":3734,"Ġrussian":3735,"Ġhospital":3736,"Ġwood":3737,"Ġusers":3738,"2001":3739,"where":3740,"67":3741,"light":3742,"dule":3743,"Ġdetailed":3744,"Ġfollows":3745,"Ġdig":3746,"Ġdeputy":3747,"Ġdefinition":3748,"Ã¡":3749,"ensus":3750,"Ġjudge":3751,"Ġindigenous":3752,"Ġshown":3753,"Ġproduced":3754,"Ġhit":3755,"Ġrisks":3756,"Ġcommitments":3757,"Ġarrest":3758,"Ġ1990":3759,"Ġsupporting":3760,"Ġfacilitate":3761,"Ġmut":3762,"porary":3763,"Ġsund":3764,"tr":3765,"Ġadvice":3766,"Ġachieved":3767,"09":3768,"Ġcenter":3769,"Ġterritories":3770,"dra":3771,"Ġrich":3772,"Ġbanks":3773,"Ġpatent":3774,"Ġphase":3775,"Ġfisheries":3776,"Ġeight":3777,"Ġtell":3778,"ipo":3779,"Ġfourth":3780,"Ġapplicant":3781,"eu":3782,"Ġborder":3783,"Ġdated":3784,"Ġoriginal":3785,"ball":3786,"Ġraised":3787,"lantic":3788,"Ġmaximum":3789,"Ġgree":3790,"55":3791,"son":3792,"Ġoutcome":3793,"Ġbehav":3794,"ruit":3795,"Ġlooking":3796,"Ġindian":3797,"Ġdepos":3798,"Ġtitle":3799,"Ġlocation":3800,"Ġphil":3801,"33":3802,"Ġfeed":3803,"Ġfuel":3804,"lation":3805,"Ġallowed":3806,"ades":3807,"Ġaustral":3808,"Ġaimed":3809,"Ġdistrict":3810,"Ġsus":3811,"aint":3812,"Ġregistered":3813,"Ġemissions":3814,"Ġwaste":3815,"Ġhabit":3816,"Ġdeep":3817,"Ġschedule":3818,"âĢĿ,":3819,"Ġagricultural":3820,"Ġadvant":3821,"Ġautom":3822,"Ġcentres":3823,"Ġcustoms":3824,"ead":3825,"ilt":3826,"Ġsummit":3827,"Ġequality":3828,"Ġoce":3829,"Ġwashington":3830,"Ġbehind":3831,"tenance":3832,"Ġgovernance":3833,"Ġsqu":3834,"Ġreleased":3835,"Ġaircraft":3836,"ixed":3837,"illing":3838,"lands":3839,"Ġhor":3840,"Ġrecovery":3841,"ament":3842,"izes":3843,"Ġoffers":3844,"Ġpow":3845,"ply":3846,"came":3847,"face":3848,"Ġinterpret":3849,"Ġneigh":3850,"Ġsupplement":3851,"Ġcovered":3852,"Ġorganized":3853,"aily":3854,"Ġconsistent":3855,"Ġresolutions":3856,"ada":3857,"Ġvideo":3858,"right":3859,"Ġnom":3860,"gment":3861,"itness":3862,"rad":3863,"Ġvill":3864,"Ġmaintenance":3865,"iam":3866,"Ġfollowed":3867,"Ġwild":3868,"dro":3869,"ought":3870,"Ġestimates":3871,"Ġheav":3872,"Ġinnovation":3873,"Ġintroduced":3874,"ham":3875,"Ġpros":3876,"Ġcomputer":3877,"nect":3878,"actions":3879,"Ġurban":3880,"Ġfirm":3881,"Ġreduced":3882,"iers":3883,"hood":3884,"Ġinstall":3885,"Ġkore":3886,"Ġdepend":3887,"iring":3888,"orters":3889,"Ġbecame":3890,"Ġteac":3891,"Ġeducational":3892,"Ġclean":3893,"iling":3894,"load":3895,"57":3896,"Ġcandidate":3897,"Ġacad":3898,"ancing":3899,"olution":3900,"Ġthought":3901,"ques":3902,"Ġvehicles":3903,"ica":3904,"Ġcondition":3905,"hest":3906,"Ġcharge":3907,"Ġrecognized":3908,"Ġbeginning":3909,"ches":3910,"Ġsunday":3911,"Ġnumbers":3912,"Ġspecified":3913,"ray":3914,"Ġadequate":3915,"Ġlake":3916,"Ġbir":3917,"hedul":3918,"Ġafghanistan":3919,"Ġlicence":3920,"Ġpositions":3921,"rence":3922,"Ġplayers":3923,"Ġdaily":3924,"Ġarms":3925,"Ġpac":3926,"Ġconnection":3927,"spe":3928,"Ġattend":3929,"Ġgene":3930,"Ġcommand":3931,"Ġreached":3932,"Ġcompensation":3933,"Ġmrs":3934,"Ġham":3935,"Ġtraff":3936,"Ġapproximately":3937,"Ġrepe":3938,"Ġenable":3939,"Ġbuy":3940,"Ġ1994":3941,"Ġserve":3942,"Ġpreparation":3943,"Ġactual":3944,"Ġstarted":3945,"Ġexceed":3946,"Ġsummer":3947,"Ġpalestinian":3948,"Ġintroduction":3949,"Ġnav":3950,"Ġrelation":3951,"Ġchamp":3952,"Ġabuse":3953,"Ġaccounts":3954,"Ġproc":3955,"Ġspok":3956,"Ġdiscussions":3957,"Ġlabor":3958,"Ġelse":3959,"ifications":3960,"Ġoffered":3961,"Ġmad":3962,"wan":3963,"Ġmarine":3964,"miss":3965,"ille":3966,"ij":3967,"making":3968,"Ġcomes":3969,"ching":3970,"Ġworked":3971,"ventions":3972,"Ġevalu":3973,"Ġmind":3974,"Ġmach":3975,"Ġleader":3976,"Ã¨":3977,"aging":3978,"Ġvul":3979,"59":3980,"bit":3981,"Ġinformal":3982,"aids":3983,"Ġeffectively":3984,"Ġsuggested":3985,"Ġintel":3986,"Ġdavid":3987,"Ġindicators":3988,"58":3989,"Ġtreas":3990,"vis":3991,"this":3992,"Ġtrack":3993,"47":3994,"Ġbusinesses":3995,"49":3996,"Ġefficient":3997,"Ġexpenses":3998,"onto":3999,"Ġdisclosure":4000,"rain":4001,"Ġ=":4002,"Ġpresence":4003,"quir":4004,"Ġroyal":4005,"Ġrequirement":4006,"ya":4007,"td":4008,"Ġsatur":4009,"Ġmich":4010,"Ġoptions":4011,"Ġprivacy":4012,"lin":4013,"Ġentry":4014,"Ġconcept":4015,"ipp":4016,"Ġasia":4017,"Ġdispos":4018,"Ġinstead":4019,"Ġspecif":4020,"keeping":4021,"Ġeffectiveness":4022,"Ġlos":4023,"level":4024,"Ġhearing":4025,"tic":4026,"Ġundertaken":4027,"lying":4028,"Ġdeliver":4029,"Ġsud":4030,"Ġincident":4031,"Ġdecre":4032,"37":4033,"Ġmac":4034,"Ġunemploy":4035,"Ġfoundation":4036,"gr":4037,"standing":4038,"Ġapprec":4039,"akers":4040,"pective":4041,"Ġrace":4042,"2002":4043,"Ġdatab":4044,"Ġdidn":4045,"respond":4046,"inated":4047,"Ġindia":4048,"htm":4049,"Ġcontinues":4050,"Ġattempt":4051,"Ġtermin":4052,"quarters":4053,"Ġiii":4054,"Ġquant":4055,"Ġcareer":4056,"Ġnearly":4057,"Ġlives":4058,"Ġmort":4059,"Ġcombat":4060,"Ġbox":4061,"Ġtelevision":4062,"Ġowners":4063,"Ġfigure":4064,"book":4065,"Ġformal":4066,"icit":4067,"Ġpartner":4068,"ino":4069,"Ġsolution":4070,"Ġguidance":4071,"Ġrevised":4072,"Ġimmediately":4073,"Ġsaying":4074,"Ġalberta":4075,"31":4076,"Ġdirection":4077,"Ġvulner":4078,"Ġfulf":4079,"ador":4080,"Ġstation":4081,"rants":4082,"Ġwall":4083,"Ġcarri":4084,"Ġhop":4085,"yle":4086,"Ġcore":4087,"48":4088,"Ġmart":4089,"Ġseparate":4090,"Ġcash":4091,"Ġbad":4092,"Ġcooper":4093,"Ġsale":4094,"Ġmuse":4095,"like":4096,"Ġsubstantial":4097,"Ġvalid":4098,"Ġatlantic":4099,"38":4100,"cn":4101,"Ġestablishing":4102,"Ġlargest":4103,"ris":4104,"arth":4105,"Ġda":4106,"Ġintellect":4107,"fully":4108,"ifying":4109,"Ġ2011":4110,"Ġmoment":4111,"Ġsense":4112,"Ġfunctions":4113,"Ġmechanism":4114,"Ġextreme":4115,"tary":4116,"Ġsubstances":4117,"Ġtariff":4118,"Ġacknow":4119,"Ġcharges":4120,"Ġduty":4121,"sels":4122,"Ġsun":4123,"fa":4124,"Ġcamer":4125,"oking":4126,"Ġkilled":4127,"ole":4128,"Ġpublication":4129,"Ġspain":4130,"ointed":4131,"Ġsouther":4132,"Ġinspe":4133,"Ġfederation":4134,"Ġdiscussed":4135,"Ġexhib":4136,"Ġsurv":4137,"Ġsetting":4138,"2000":4139,"Ġplayed":4140,"Ġappend":4141,"sa":4142,"Ġid":4143,"Ġresearchers":4144,"Ġcorrespond":4145,"Ġregime":4146,"Ġgradu":4147,"rong":4148,"Ġcorrect":4149,"Ġobtained":4150,"Ġthing":4151,"Ġlay":4152,"Ġgold":4153,"Ġlisted":4154,"amed":4155,"Ġefficiency":4156,"Ġeligible":4157,"Ġacadem":4158,"Ġseek":4159,"Ġles":4160,"39":4161,"Ġproport":4162,"Ġunits":4163,"Ġintellectual":4164,"Ġactually":4165,"Ġuseful":4166,"Ġtry":4167,"Ġdoub":4168,"Ġslo":4169,"Ġmuseum":4170,"etic":4171,"Ġfiled":4172,"Ġpresc":4173,"Ġopening":4174,"Ġstability":4175,"Ġprovinces":4176,"Ġconver":4177,"Ġbackground":4178,"Ġreplace":4179,"Ġpaul":4180,"olid":4181,"Ġcollaboration":4182,"Ġheadquarters":4183,"rep":4184,"Ġreb":4185,"Ġilleg":4186,"Ġvice":4187,"Ġpict":4188,"idge":4189,"Ġcategory":4190,"road":4191,"Ġwipo":4192,"Ġexem":4193,"fin":4194,"Ġcaused":4195,"Ġoly":4196,"Ġmexico":4197,"lines":4198,"ush":4199,"Ġos":4200,"Ġfindings":4201,"Ġnut":4202,"Ġtrying":4203,"Ġsil":4204,"Ġotherwise":4205,"Ġgetting":4206,"bert":4207,"Ġslow":4208,"ores":4209,"Ġindex":4210,"Ġpartnerships":4211,"66":4212,"Ġimprovement":4213,"Ġolymp":4214,"Ġairport":4215,"Ġhighest":4216,"Ġlatest":4217,"Ġdegree":4218,"Ġmeaning":4219,"Ġ45":4220,"Ġnegative":4221,"Ġinvolving":4222,"Ġitaly":4223,"enty":4224,"Ġdisarm":4225,"Ġdoct":4226,"Ġhighly":4227,"Ġpatients":4228,"Ġsettlement":4229,"Ġfacility":4230,"ommod":4231,"Ġfees":4232,"Ġaccommod":4233,"Ġtrafficking":4234,"Ġcele":4235,"Ġunless":4236,"Ġhun":4237,"uit":4238,"Ġthous":4239,"Ġsimply":4240,"uting":4241,"Ġproduce":4242,"Ġprocessing":4243,"Ġalleged":4244,"Ġclosed":4245,"Ġschedul":4246,"pol":4247,"Ġask":4248,"Ġsolutions":4249,"Ġsolid":4250,"Ġtransition":4251,"Ġidea":4252,"Ġpublications":4253,"Ġdamage":4254,"Ġamended":4255,"Ġswit":4256,"Ġgranted":4257,"Ġconsumers":4258,"Ġmunicipal":4259,"Ġgave":4260,"Ġchoice":4261,"Ġcancer":4262,"Ġspecifically":4263,"Ġleague":4264,"luding":4265,"Ġaccountability":4266,"inese":4267,"Ġgrand":4268,"place":4269,"umb":4270,"abled":4271,"Ġhal":4272,"Ġflex":4273,"Ġquite":4274,"Ġappell":4275,"44":4276,"Ġmentioned":4277,"Ġeastern":4278,"Ġharmon":4279,"house":4280,"des":4281,"wa":4282,"Ġvo":4283,"Ġmanufacturing":4284,"Ġchance":4285,"ests":4286,"Ġexpos":4287,"lan":4288,"Ġsouthern":4289,"Ġconnect":4290,"anda":4291,"Ġpeacekeeping":4292,"Ġintegr":4293,"Ġstop":4294,"Ġ000":4295,"Ġindicate":4296,"Ġjudicial":4297,"ancy":4298,"Ġtesting":4299,"Ġvariety":4300,"Ġtas":4301,"person":4302,"Ġaware":4303,"Ġcontinuing":4304,"ee":4305,"iles":4306,"Ġshared":4307,"Ġlines":4308,"Ġsoftware":4309,"Ġrestrict":4310,"Ġbroadcast":4311,"ira":4312,"Ġcertific":4313,"isc":4314,"Ġclients":4315,"Ġtort":4316,"Ġmedium":4317,"Ġweak":4318,"Ġweight":4319,"Ġsaturday":4320,"Ġwelcome":4321,"Ġrise":4322,"Ġtoronto":4323,"cers":4324,"Ġcollege":4325,"Ġult":4326,"Ġ37":4327,"dp":4328,"Ġcas":4329,"Ġcomponent":4330,"Ġnothing":4331,"Ġrock":4332,"Ġdeploy":4333,"Ġsituations":4334,"Ġconcluded":4335,"ously":4336,"Ġcourts":4337,"Ġpreviously":4338,"Ġmoun":4339,"Ġimplic":4340,"da":4341,"Ġbay":4342,"Ġadvert":4343,"Ġdisarmament":4344,"Ġengage":4345,"Ġdevelopments":4346,"Ġselected":4347,"Ġrapid":4348,"Ġfranc":4349,"vi":4350,"Ġduties":4351,"Ġreserve":4352,"Ġcham":4353,"Ġwriting":4354,"Ġgirls":4355,"fort":4356,"Ġdelegations":4357,"Ġamounts":4358,"Ġindeed":4359,"itude":4360,"essions":4361,"ĠâĢ¨":4362,"Ġmanagers":4363,"ara":4364,"Ġfriends":4365,"Ġinterested":4366,"anish":4367,"Ġtreasury":4368,"500":4369,"Ġcontracting":4370,"down":4371,"Ġbirth":4372,"Ġgeograph":4373,"Ġstory":4374,"bi":4375,"Ġspir":4376,"Ġappendix":4377,"Ġdiversity":4378,"Ġrecip":4379,"Ġwoman":4380,"with":4381,"Ġclient":4382,"cks":4383,"ishes":4384,"Ġdete":4385,"Ġengland":4386,"Ġpractical":4387,"Ġfailure":4388,"36":4389,"Ġang":4390,"Ġreve":4391,"Ġchur":4392,"Ġrob":4393,"Ġdemocracy":4394,"Ġconservation":4395,"ength":4396,"Ġlove":4397,"Ġconclusion":4398,"Ġgiving":4399,"Ġreasonable":4400,"Ġpermit":4401,"Ġnetworks":4402,"etary":4403,"Ġstanding":4404,"Ġtrue":4405,"water":4406,"mat":4407,"ishing":4408,"Ġconsolid":4409,"Ġinvolvement":4410,"Ġimmigration":4411,"Ġprocure":4412,"Ġconfidence":4413,"nings":4414,"Ġarmy":4415,"Ġinvited":4416,"Ġrecognition":4417,"Ġeveryone":4418,"pper":4419,"56":4420,"Ġspons":4421,"aur":4422,"Ġiv":4423,"Ġhaz":4424,"Ġshowed":4425,"Ġtemper":4426,"Ġpossibility":4427,"Ġbritain":4428,"ded":4429,"zil":4430,"Ġstar":4431,"Ġap":4432,"Ġinstrument":4433,"Ġplaced":4434,"Ġpercentage":4435,"ypt":4436,"Ġleav":4437,"gs":4438,"char":4439,"iplom":4440,"Ġfurthermore":4441,"Ġsand":4442,"Ġves":4443,"'ve":4444,"Ġrefugees":4445,"Ġtelephone":4446,"Ġresulting":4447,"Ġstor":4448,"Ġmissions":4449,"100":4450,"Ġmultip":4451,"Ġtraffic":4452,"Ġthank":4453,"Ġjurisdiction":4454,"cond":4455,"Ġfailed":4456,"Ġdifferences":4457,"Ġsyn":4458,"Ġpain":4459,"Ġbehavi":4460,"Ġinvent":4461,"Ġchinese":4462,"Ġspokes":4463,"Ġpsy":4464,"Ġparagraphs":4465,"Ġnormal":4466,"Ġwitness":4467,"Ġapproaches":4468,"aching":4469,"Ġcontracts":4470,"irect":4471,"Ġsant":4472,"Ġguarantee":4473,"Ġcentury":4474,"Ġaccepted":4475,"Ġassum":4476,"Ġislam":4477,"Ġmessage":4478,"Ġmorning":4479,"Ġvia":4480,"Ġ($":4481,"Ġopposition":4482,"ourable":4483,"hel":4484,"Ġahead":4485,"Ġ<":4486,"Ġcustomers":4487,"Ġdiplom":4488,"ruption":4489,"Ġcontains":4490,"sk":4491,"Ġpul":4492,"Ġobser":4493,"Ġdesignated":4494,"Ġsignificantly":4495,"Ġcomponents":4496,"Ġexpertise":4497,"Ġlif":4498,"Ġoutcomes":4499,"real":4500,"Ġadvoc":4501,"Ġblood":4502,"room":4503,"88":4504,"askat":4505,"Ġwid":4506,"Ġunique":4507,"Ġcomplaint":4508,"Ġsav":4509,"Ġpilot":4510,"asc":4511,"Ġelement":4512,"ga":4513,"Ġadvantage":4514,"Ġseems":4515,"Ġprosecut":4516,"life":4517,"Ġire":4518,"haps":4519,"Ġbond":4520,"ses":4521,"law":4522,"pc":4523,"Ġlaunched":4524,"Ġlands":4525,"Ġreligious":4526,"Ġrussia":4527,"Ġinquir":4528,"Ġvoluntary":4529,"Ġupdated":4530,"Ġcub":4531,"igation":4532,"Ġemployer":4533,"Ġrooms":4534,"Ġsecure":4535,"Ġelimin":4536,"Ġcreating":4537,"Ġappointment":4538,"tra":4539,"Ġinfluence":4540,"akistan":4541,"Ġwithdra":4542,"Ġstudent":4543,"istical":4544,"Ġwhom":4545,"lusions":4546,"Ġheard":4547,"Ġdocumentation":4548,"Ġfactor":4549,"Ġincreasingly":4550,"Ġsaw":4551,"Ġcongress":4552,"Ġethnic":4553,"Ġprocurement":4554,"Ġanswer":4555,"Ġparliamentary":4556,"Ġey":4557,"comp":4558,"Ġange":4559,"Ġpsych":4560,"resh":4561,"Ġfigures":4562,"Ġoption":4563,"Ġpopulations":4564,"Ġdollars":4565,"Ġspeed":4566,"Ġtemporary":4567,"rich":4568,"Ġidentification":4569,"hab":4570,"Ġviolations":4571,"Ġcollective":4572,"Ġexpenditures":4573,"Ġfloor":4574,"Ġdim":4575,"Ġdevices":4576,"Ġspent":4577,"Ġgeneva":4578,"Ġelectric":4579,"Ġbit":4580,"Ġclassification":4581,"Ġtv":4582,"Ġprovisional":4583,"Ġexpenditure":4584,"34":4585,"Ġband":4586,"Ġireland":4587,"Ġfather":4588,"oles":4589,"wood":4590,"Ġusually":4591,"Ġmulti":4592,"Ġadopt":4593,"Ġ1993":4594,"Ġoccas":4595,"ensions":4596,"oba":4597,"Ġmarketing":4598,"llig":4599,"Ġhimself":4600,"Ġpath":4601,"Ġ%":4602,"Ġgovernor":4603,"Ġacting":4604,"Ġbuilt":4605,"Ġfriend":4606,"west":4607,"Ġcoal":4608,"Ġhabitat":4609,"Ġturkey":4610,"Ġphoto":4611,"Ġelectoral":4612,"Ġsessions":4613,"Ġdur":4614,"ker":4615,"Ġcomplaints":4616,"Ġperhaps":4617,"Ġegypt":4618,"Ġpacific":4619,"Ġ36":4620,"mer":4621,"ula":4622,"Ġdelay":4623,"Ġbrazil":4624,"Ġwanted":4625,"Ġscale":4626,"Ġterritorial":4627,"Ġfocused":4628,"2008":4629,"Ġorganis":4630,"Ġfifty":4631,"Ġattract":4632,"Ġhear":4633,"Ġpowers":4634,"Ġbound":4635,"Ġclosely":4636,"Ġobligation":4637,"Ġapart":4638,"Ġparticipating":4639,"Ġswed":4640,"Ġdri":4641,"enders":4642,"Ġ34":4643,"Ġformat":4644,"semin":4645,"Ġ1992":4646,"Ġ48":4647,"Ġsupports":4648,"Ġphone":4649,"Ġsell":4650,"ils":4651,"ilization":4652,"Ġbed":4653,"Ġplaces":4654,"'m":4655,"Ġfifth":4656,"Ġ90":4657,"Ġsometimes":4658,"Ġuses":4659,"Ġmemor":4660,"Ġconfident":4661,"Ġfelt":4662,"201":4663,"Ġprepare":4664,"Ġdisabilities":4665,"Ġworth":4666,"Ġattacks":4667,"Ġlength":4668,"Ġdisapp":4669,"Ġrang":4670,"Ġkorea":4671,"Ġaustralia":4672,"Ġ38":4673,"Ġsaskat":4674,"Ġpakistan":4675,"Ġreject":4676,"lined":4677,"Ġsubmission":4678,"Ġprobably":4679,"Ġ80":4680,"Ġeasy":4681,"Ġlearn":4682,"Ġquickly":4683,"itoba":4684,"Ġtob":4685,"Ġep":4686,"ael":4687,"Ġber":4688,"Ġ33":4689,"Ġreducing":4690,"aled":4691,"Ġ39":4692,"Ġdepartmental":4693,"Ġinjury":4694,"Ġinput":4695,"Ġdia":4696,"ingu":4697,"Ġvolume":4698,"Ġlawy":4699,"Ġinvestments":4700,"rid":4701,"Ġson":4702,"my":4703,"Ġcompetitive":4704,"Ġliter":4705,"Ġunemployment":4706,"Ġlarger":4707,"Ġcommittees":4708,"Ġword":4709,"Ġcrimes":4710,"Ġhighlight":4711,"Ġfit":4712,"Ġcontents":4713,"under":4714,"Ġretail":4715,"Ġraise":4716,"Ġdistin":4717,"Ġfeatures":4718,"Ġmoreover":4719,"Ġillegal":4720,"Ġhousehold":4721,"rap":4722,"Ġlad":4723,"rations":4724,"Ġmultilateral":4725,"61":4726,"Ġbien":4727,"Ġrunning":4728,"Ġfishing":4729,"Ġreviewed":4730,"Ġcoverage":4731,"Ġ55":4732,"Ġconsequences":4733,"Ġminority":4734,"Ġ+":4735,"Ġhydro":4736,"Ġstarting":4737,"Ġprotected":4738,"Ġappears":4739,"Ġdissemin":4740,"Ġdifference":4741,"Ġconsensus":4742,"pay":4743,"Ġgoverning":4744,"Ġdigital":4745,"Ġfemale":4746,"Ġuser":4747,"Ġextended":4748,"Ġnames":4749,"Ġshares":4750,"Ġcontaining":4751,"ception":4752,"Ġpopular":4753,"dr":4754,"Ġappointed":4755,"Ġobserved":4756,"Ġbid":4757,"Ġfort":4758,"Ġrepublican":4759,"Ġnine":4760,"ript":4761,"limin":4762,"Ġmap":4763,"Ġhelped":4764,"Ġintellig":4765,"Ġparis":4766,"Ġexamination":4767,"Ġteams":4768,"Ġ32":4769,"Ġimpacts":4770,"Ġta":4771,"Ġearth":4772,"Ġgrounds":4773,"Ġsend":4774,"Ġpresidential":4775,"Ġcohe":4776,"Ġuniversal":4777,"Ġchanged":4778,"ford":4779,"Ġpra":4780,"Ġtorture":4781,"omb":4782,"Ġexposure":4783,"Ġisraeli":4784,"Ġauthorized":4785,"Ġproducers":4786,"Ġcapt":4787,"Ġscott":4788,"lusive":4789,"certain":4790,"Ġfirms":4791,"lim":4792,"Ġallows":4793,"Ġtargets":4794,"Ġvision":4795,"Ġ70":4796,"liminary":4797,"Ġresidents":4798,"ws":4799,"Ġpresentation":4800,"Ġmembership":4801,"orge":4802,"Ġequity":4803,"ault":4804,"Ġspring":4805,"Ġtourism":4806,"fare":4807,"Ġpie":4808,"ihr":4809,"97":4810,"Ġconclusions":4811,"Ġexamples":4812,"Ġtrends":4813,"Ġdecade":4814,"Ġmental":4815,"Ġdatabase":4816,"Ġconfirmed":4817,"Ġlimits":4818,"Ġparent":4819,"dered":4820,"Ġpattern":4821,"Ġmarri":4822,"Ġfear":4823,"Ġaccident":4824,"Ġmanitoba":4825,"Ġlinked":4826,"Ġdealing":4827,"Ġrestaur":4828,"Ġseeking":4829,"Ġsubstance":4830,"ech":4831,"fect":4832,"orter":4833,"Ĥ¬":4834,"Ġplat":4835,"Ġmillenn":4836,"Ġinside":4837,"68":4838,"Ġeverything":4839,"icians":4840,"Ġpreliminary":4841,"Ġachieving":4842,"undred":4843,"Ġcombined":4844,"Ġwrong":4845,"Ġprin":4846,"Ġinspection":4847,"Ġabsence":4848,"Ġspect":4849,"Ġreli":4850,"Ġserved":4851,"Ġidentity":4852,"Ġworkshop":4853,"Ġguard":4854,"aria":4855,"Ġadapt":4856,"Ġsemin":4857,"Ġtex":4858,"Ġdiseases":4859,"iment":4860,"Ġmotor":4861,"Ġsports":4862,"Ġshot":4863,"Ġassistant":4864,"Ġfresh":4865,"Ġsurface":4866,"Ġequival":4867,"Ġtransparency":4868,"herlands":4869,"gro":4870,"Ġtrain":4871,"Ġsections":4872,"Ġgives":4873,"Ġtaxes":4874,"Ġremed":4875,"Ġrose":4876,"Ġfost":4877,"Ġregister":4878,"iii":4879,"Ġinterpretation":4880,"Ġthousands":4881,"Ã§":4882,"chewan":4883,"Ġrecorded":4884,"Ġinstance":4885,"Ġrelief":4886,"Ġprogramming":4887,"Ġfer":4888,"net":4889,"Ġrepresented":4890,"Ġrelatively":4891,"Ġ1991":4892,"Ġltd":4893,"%)":4894,"Ġsubsequent":4895,"ivered":4896,"Ġoh":4897,"Ġconsumption":4898,"Ġdoesn":4899,"Ġaqu":4900,"Ġmillennium":4901,"Ġsn":4902,"Ġcharged":4903,"Ġforced":4904,"Ġtrading":4905,"Ġoperate":4906,"Ġindustries":4907,"oe":4908,"ba":4909,"Ġapplies":4910,"Ġmi":4911,"Ġtests":4912,"Ġappellant":4913,"Ġ49":4914,"Ġreceiving":4915,"Ġbienn":4916,"iding":4917,"Ġzone":4918,"32":4919,"Ġproportion":4920,"Ġchurch":4921,"Ġremaining":4922,"Ġaddressing":4923,"Ġplaying":4924,"Ġretain":4925,"Ġindependence":4926,"Ġincreases":4927,"Ġcategories":4928,"Ġcoven":4929,"stream":4930,"Ġemp":4931,"Ġbrun":4932,"Ġbird":4933,"Ġdouble":4934,"Ġcalif":4935,"Ġexperien":4936,"Ġready":4937,"Ġinnovative":4938,"Ġarbit":4939,"Ġparks":4940,"Ġhealthy":4941,"Ġremained":4942,"ught":4943,"Ġmodels":4944,"Ġstatistical":4945,"econom":4946,"Ġwhereas":4947,"Ġdiver":4948,"Ġacquis":4949,"Ġwilliam":4950,"field":4951,"Ġfee":4952,"Ġblock":4953,"62":4954,"tered":4955,"Ġvirt":4956,"bre":4957,"Ġdelivered":4958,"Ġdetermination":4959,"80":4960,"Ġfields":4961,"Ġfinding":4962,"Ġbehaviour":4963,"Ġgreece":4964,"vin":4965,"rote":4966,"Ġspirit":4967,"Ġ47":4968,"Ġanything":4969,"tc":4970,"Ġinvestors":4971,"Ġwaters":4972,"za":4973,"Ġstructures":4974,"Ġnorm":4975,"Ġintergovernmental":4976,"Ġplants":4977,"apers":4978,"Ġenhanced":4979,"band":4980,"idency":4981,"communic":4982,"Ġimplications":4983,"Ġvoters":4984,"Ġcarrying":4985,"Ġtun":4986,"Ġperspective":4987,"Ġprint":4988,"using":4989,"Ġentered":4990,"Ġhundred":4991,"Ġcab":4992,"att":4993,"Ġken":4994,"Ġcontributed":4995,"Ġrecommends":4996,"ued":4997,"Ġmoving":4998,"Ġveter":4999,"Ġsharing":5000,"Ġobst":5001,"Ġbarri":5002,"Ġconsent":5003,"Ġtwenty":5004,"Ġannounce":5005,"Ġspread":5006,"Ġalone":5007,"Ġdomin":5008,"ribed":5009,"Ġrecruit":5010,"para":5011,"Ġfixed":5012,"Ġelected":5013,"64":5014,"resident":5015,"Ġfast":5016,"Ġhall":5017,"Ġrestric":5018,"Ġstrength":5019,"54":5020,"iques":5021,"yan":5022,"Ġtransform":5023,"Ġgun":5024,"Ġcivilian":5025,"dep":5026,"Ġorganisation":5027,"Ġsurpr":5028,"Ġfine":5029,"Ġlou":5030,"90":5031,"oring":5032,"icip":5033,"Ġsupre":5034,"Ġnetherlands":5035,"Ġpunish":5036,"inal":5037,"Ġscheduled":5038,"Ġgaz":5039,"care":5040,"Ġteachers":5041,"Ġcn":5042,"âĢ¨Ċ":5043,"Ġcritic":5044,"Ġton":5045,"Ġsaskatchewan":5046,"rete":5047,"Ġvulnerable":5048,"Ġdisplay":5049,"Ġholding":5050,"Ġcities":5051,"Ġdied":5052,"Ġmainly":5053,"wg":5054,"Ġconstruct":5055,"rugg":5056,"uters":5057,"Ġnewsp":5058,"there":5059,"Ġcast":5060,"outh":5061,"Ġprimarily":5062,"affir":5063,"iti":5064,"98":5065,"enth":5066,"Ġemerging":5067,"Ġdecide":5068,"Ġcounty":5069,"Ġmountain":5070,"Ġsubm":5071,"Ġpit":5072,"Ġaccounting":5073,"Ġflu":5074,"Ġweather":5075,"acco":5076,"Ġencouraged":5077,"ios":5078,"oon":5079,"what":5080,"Ġanimal":5081,"Ġmigration":5082,"Ġsomeone":5083,"Ġtalk":5084,"Ġconsidering":5085,"Ġfran":5086,"Ġdrive":5087,"Ġdeem":5088,"onia":5089,"Ġelimination":5090,"Ġstrugg":5091,"enced":5092,"Ġbeg":5093,"Ġexports":5094,"Ġvan":5095,"ky":5096,"Ġterrorist":5097,"Ġenterprises":5098,"Ġsimple":5099,"Ġmultiple":5100,"met":5101,"Ġhur":5102,"Ġpharm":5103,"Ġflight":5104,"Ġcompetent":5105,"Ġconstitutional":5106,"elling":5107,"Ġcompr":5108,"Ġtreaties":5109,"Ġmichael":5110,"Ġolder":5111,"Ġfat":5112,"Ġexcess":5113,"rees":5114,"Ġtoward":5115,"Ġaccompan":5116,"Ġsyrian":5117,"Ġox":5118,"Ġgar":5119,"found":5120,"Ġcovenant":5121,"Ġprincipal":5122,"Ġdrink":5123,"Ġvolunte":5124,"Ġreviews":5125,"Ġtel":5126,"Ġdivid":5127,"Ġwindow":5128,"Ġlibrary":5129,"Ġjer":5130,"Ġmail":5131,"Ġbilateral":5132,"Ġ#":5133,"Ã©bec":5134,"ember":5135,"Ġcup":5136,"wing":5137,"Ġfax":5138,"body":5139,"Ġcontrols":5140,"Ġanimals":5141,"Ġadvanced":5142,"Ġaccused":5143,"Ġsole":5144,"Ġavailability":5145,"Ġmatch":5146,"Ġdirectorate":5147,"Ġwinter":5148,"iar":5149,"Ġshoot":5150,"Ġgrants":5151,"ipped":5152,"Ġbudgetary":5153,"Ġpackage":5154,"Ġorganisations":5155,"Ġ44":5156,"Ġdetention":5157,"Ġrepresents":5158,"ynam":5159,"economic":5160,"Ġsupreme":5161,"Ġcounsel":5162,"Ġimage":5163,"Ġassociations":5164,"Ġmanaged":5165,"Ġstream":5166,"Ġsanctions":5167,"Ġcomply":5168,"Ġhistoric":5169,"Ġchanging":5170,"oper":5171,"Ġemail":5172,"ste":5173,"ria":5174,"Ġacknowled":5175,"Ġtransactions":5176,"ounds":5177,"Ġ01":5178,"Ġkept":5179,"Ġreaffir":5180,"cel":5181,"ston":5182,"Ġdispute":5183,"but":5184,"arent":5185,"Ġsecondary":5186,"Ġdan":5187,"ibly":5188,"Ġsam":5189,"Ġrespectively":5190,"Ġchamber":5191,"Ġrevenues":5192,"fr":5193,"95":5194,"Ġrecon":5195,"ais":5196,"Ġreforms":5197,"Ġintelligence":5198,"Ġresist":5199,"ips":5200,"Ġstorage":5201,"pet":5202,"Ġtrave":5203,"Ġconform":5204,"Ġrac":5205,"Ġspeaking":5206,"Ġimmun":5207,"Ġcertainly":5208,"Ġarts":5209,"gue":5210,"Ġsudan":5211,"Ġloans":5212,"Ġtobacco":5213,"Ġbelg":5214,"Ġpurchase":5215,"lif":5216,"gos":5217,"ocks":5218,"Ġislands":5219,"Ġcontam":5220,"lav":5221,"Ġeconomies":5222,"Ġjudges":5223,"77":5224,"euro":5225,"Ġpick":5226,"Ġassign":5227,"Ġwatch":5228,"Ġjames":5229,"Ġdangerous":5230,"Ġheavy":5231,"Ġconven":5232,"Ġbooks":5233,"Ġhuge":5234,"Ġze":5235,"Ġspanish":5236,"Ġau":5237,"Ġhelping":5238,"Ġrespective":5239,"tical":5240,"cohol":5241,"illance":5242,"Ġoccurred":5243,"**":5244,"Ġmonetary":5245,"Ġsample":5246,"Ġresponses":5247,"eurs":5248,"Ġsyria":5249,"Ġgeorge":5250,"col":5251,"lex":5252,"¿½":5253,"ï¿½":5254,"los":5255,"65":5256,"greg":5257,"Ġpollution":5258,"Ġapparent":5259,"Ġrailway":5260,"Ġclinical":5261,"Ġanalyst":5262,"ville":5263,"Ġminim":5264,"Ġafford":5265,"Ġideas":5266,"Ġspeech":5267,"asters":5268,"Ġsenate":5269,"zy":5270,"asts":5271,"Ġanyone":5272,"Ġshar":5273,"Ġsought":5274,"Ġperformed":5275,"uff":5276,"rÃ©":5277,"Ġcomfort":5278,"Ġgeneration":5279,"Ġattor":5280,"berg":5281,"Ġcertificate":5282,"ouver":5283,"Ġundp":5284,"Ġhoc":5285,"overed":5286,"Ġopened":5287,"Ġspecialized":5288,"oted":5289,"Ġnova":5290,"Ġfiles":5291,"Ġdifficulties":5292,"Ġexplan":5293,"Ġbecoming":5294,"Ġsevere":5295,"Ġfacing":5296,"imb":5297,"Ġupdate":5298,"Ġcompetit":5299,"Ġattrib":5300,"Ġgall":5301,"Ġplayer":5302,"Ġresulted":5303,"Ġcharacteristics":5304,"pts":5305,"Ġheads":5306,"Ġsubstantive":5307,"dis":5308,"Ġlux":5309,"Ġleban":5310,"tel":5311,"Ġimprovements":5312,"Ġsurveillance":5313,"Ġblue":5314,"Ġabroad":5315,"Ġhomes":5316,"Ġgh":5317,"free":5318,"Ġlie":5319,"vest":5320,"dc":5321,"Ġsafegu":5322,"Ġwrote":5323,"wal":5324,"Ġobvious":5325,"41":5326,"Ġmarriage":5327,"Ġagent":5328,"ancouver":5329,"atell":5330,"Ġvent":5331,"gov":5332,"Ġcopyright":5333,"html":5334,"Ġaccordingly":5335,"Ġcarbon":5336,"osy":5337,"Ġentities":5338,"Ġinterim":5339,"rol":5340,"Ġtimely":5341,"Ġcelebr":5342,"Ġcourses":5343,"Ġthanks":5344,"Ġregards":5345,"Ġisol":5346,"Ġhen":5347,"icef":5348,"Ġna":5349,"Ġcrucial":5350,"Ġliberal":5351,"Ġnumerous":5352,"Ġcomplement":5353,"venth":5354,"Ġfell":5355,"Ġassessments":5356,"ulf":5357,"Ġcollected":5358,"Ġadverse":5359,"Ġremin":5360,"Ġimports":5361,"national":5362,"Ġintegrity":5363,"rey":5364,"Ġportug":5365,"Ġsurround":5366,"Ġfootball":5367,"Ġconferences":5368,"comed":5369,"Ġclaimed":5370,"ette":5371,"Ġcycle":5372,"75":5373,"Ġmanaging":5374,"Ġwife":5375,"iated":5376,"Ġcarib":5377,"Ġwarm":5378,"Ġforth":5379,"Ġscotia":5380,"Ġconcrete":5381,"Ġscotland":5382,"Ġdefense":5383,"Ġretire":5384,"rupt":5385,"Ġcrown":5386,"icted":5387,"Ġlargely":5388,"Ġintervention":5389,"Ġturned":5390,"Ġpool":5391,"stit":5392,"Ġsets":5393,"Ġliqu":5394,"Ġload":5395,"ull":5396,"613":5397,"Ġdisaster":5398,"Ġconsiderable":5399,"Ġfest":5400,"pected":5401,"Ġrepresentation":5402,"Ġmoved":5403,"Ġbon":5404,"Ġ75":5405,"amb":5406,"Ġmaintained":5407,"Ġinquiry":5408,"Ġmutual":5409,"ictions":5410,"Ġpregn":5411,"Ġtend":5412,"zerland":5413,"Ġposts":5414,"Ġalcohol":5415,"Ġgeorg":5416,"Ġnar":5417,"Ġcompletion":5418,"car":5419,"Ġatm":5420,"Ġkos":5421,"raine":5422,"Ġseed":5423,"astic":5424,"fir":5425,"ship":5426,"Ġchain":5427,"Ġoutput":5428,"Ġscreening":5429,"prof":5430,"lick":5431,"Ġawards":5432,"Ġfunded":5433,"Ġorganizational":5434,"Ġorders":5435,"Ġtreated":5436,"Ġscheme":5437,"Ġmobile":5438,"Ġcomplainant":5439,"Ġgross":5440,"Ġwilling":5441,"Ġrestrictions":5442,"Ġune":5443,"Ġgoes":5444,"Ġslight":5445,"operation":5446,"Ġdisability":5447,"Ġwelcomed":5448,"Ġinvestigations":5449,"Ġappeared":5450,"Ġice":5451,"Ġdecline":5452,"pat":5453,"cf":5454,"Ġprince":5455,"43":5456,"Ġengaged":5457,"organ":5458,"ev":5459,"ansion":5460,"Ġbab":5461,"Ġracial":5462,"Ġachievement":5463,"Ġdedu":5464,"Ġ00":5465,"Ġdetect":5466,"Ġcorruption":5467,"Ġlaunch":5468,"Ã³":5469,"aker":5470,"Ġprop":5471,"zone":5472,"Ġreading":5473,"Ġincom":5474,"Ġagents":5475,"Ġcauses":5476,"Ġthreats":5477,"Ġimposed":5478,"Ġsupplies":5479,"Ġbrand":5480,"Ġplus":5481,"Ġprofessionals":5482,"Ġexplor":5483,"Ġcaliforn":5484,"Ġinfe":5485,"Ġtargeted":5486,"Ġprefer":5487,"Ġbelong":5488,"Ġreturned":5489,"Ġbiggest":5490,"mi":5491,"Ġconsiders":5492,"Ġobservations":5493,"hy":5494,"Ġbuildings":5495,"Ġsaint":5496,"Ġaer":5497,"Ġ41":5498,"Ġcihr":5499,"Ġwelfare":5500,"ola":5501,"Ġdevice":5502,"roy":5503,"Ġlaid":5504,"Ġvoting":5505,"orders":5506,"Ġolympic":5507,"ken":5508,"Ġchoose":5509,"Ġpresidency":5510,"Ġstructural":5511,"Ġkn":5512,"Ġaims":5513,"Ġexcellent":5514,"Ġplatform":5515,"Ġones":5516,"Ġrehab":5517,"Â°":5518,"state":5519,"Ġ57":5520,"Ġchan":5521,"Ġdynam":5522,"Ġlearned":5523,"Ġextremely":5524,"Ġmine":5525,"Ġvital":5526,"Ġequivalent":5527,"Ġconstant":5528,"Ġba":5529,"Ġunlike":5530,"Ġdeposit":5531,"including":5532,"Ġpassed":5533,"Ġmaintaining":5534,"Ġhands":5535,"Ġreplaced":5536,"ota":5537,"Ġbroadcasting":5538,"Ġnig":5539,"Ġassessed":5540,"Ġthir":5541,"Ġlatin":5542,"Ġbrown":5543,"Ġadvertising":5544,"Ġ42":5545,"Ġeur":5546,"Ġbott":5547,"itect":5548,"Ġreflected":5549,"swick":5550,"Ġexclud":5551,"Ġresidence":5552,"ald":5553,"Ġ500":5554,"Ġdedic":5555,"Ġgard":5556,"Ġowner":5557,"Ġsteel":5558,"paragraph":5559,"iel":5560,"Ġtried":5561,"Ġrelationships":5562,"ovo":5563,"trans":5564,"Ġdiagn":5565,"Ġunif":5566,"Ġmargin":5567,"Ġbrother":5568,"Ġextensive":5569,"Ġatmosp":5570,"Ġfurn":5571,"Ġacid":5572,"Ġhistorical":5573,"fol":5574,"Ġlegit":5575,"ata":5576,"Ġpenalty":5577,"Ġchampions":5578,"Ġextension":5579,"Ġemphasis":5580,"uries":5581,"69":5582,"Ġhazard":5583,"ua":5584,"Ġnic":5585,"bourg":5586,"Ġpreced":5587,"Ġtoxic":5588,"bn":5589,"Ġhonourable":5590,"Ġextend":5591,"Ġemployers":5592,"Ġfal":5593,"Ġloan":5594,"Ġproviders":5595,"Ġmem":5596,"Ġengineering":5597,"alled":5598,"Ġcalifornia":5599,"inding":5600,"Ġlosses":5601,"Ġmeasurement":5602,"Ġallowing":5603,"Ġresc":5604,"Ġdrawn":5605,"you":5606,"Ġlatter":5607,"Ġsoil":5608,"roll":5609,"Ġfacts":5610,"Ġsatell":5611,"Ġbos":5612,"Ġflor":5613,"jan":5614,"sen":5615,"ales":5616,"Ġkeeping":5617,"Ġmaster":5618,"Ġemployed":5619,"Ġcongo":5620,"Ġanticip":5621,"Ġtrend":5622,"Ġministerial":5623,"Ġbrunswick":5624,"Ġqualified":5625,"Ġlicens":5626,"Ġdecades":5627,"pdf":5628,"Ġconfirm":5629,"Ġpoly":5630,"Ġtasks":5631,"Ġbelieves":5632,"Ġvancouver":5633,"repren":5634,"ĠquÃ©bec":5635,"Ġarchitect":5636,"Ġscen":5637,"asp":5638,"Ġseat":5639,"Ġsweden":5640,"Ġkm":5641,"Ġexamine":5642,"Ġreality":5643,"enary":5644,"Ġmarks":5645,"Ġoverview":5646,"Ġwelcomes":5647,"Ġreceip":5648,"ÃŃ":5649,"ago":5650,"Ġ58":5651,"Ġtelecommunic":5652,"Ġunable":5653,"Ġcd":5654,"Ġhung":5655,"fo":5656,"Ġoffering":5657,"Ġvoc":5658,"rian":5659,"olute":5660,"Ġrehabilit":5661,"unction":5662,"Ġvictory":5663,"--------":5664,"Ġexperiences":5665,"Ġexpectations":5666,"pm":5667,"Ġambass":5668,"bean":5669,"Ġfab":5670,"Ġexpression":5671,"Ġwildlife":5672,"Ġexamined":5673,"Ġchart":5674,"Ġstrongly":5675,"Ġvacc":5676,"Ġforecast":5677,"uth":5678,"Ġmeant":5679,"Ġuncertain":5680,"Ġhour":5681,"note":5682,"1999":5683,"foundland":5684,"Ã©t":5685,"rely":5686,"Ġtalks":5687,"42":5688,"Ġliability":5689,"Ġsmaller":5690,"Ġhus":5691,"Ġhospit":5692,"Ġswitzerland":5693,"well":5694,"Ġgi":5695,"Ġminorities":5696,"Ġalia":5697,"usal":5698,"inet":5699,"Ġconflicts":5700,"Ġexact":5701,"Ġcurrency":5702,"Ġdestruction":5703,"Ġperiods":5704,"sect":5705,"yc":5706,"Ġspokesman":5707,"osystem":5708,"Ġdeemed":5709,"canada":5710,"Ġsavings":5711,"Ġnurs":5712,"tes":5713,"Ġsom":5714,"Ġbiological":5715,"Ġportion":5716,"Ġbio":5717,"Ġwants":5718,"Ġexploitation":5719,"Ġinclusion":5720,"'ll":5721,"Ġ65":5722,"Ġtick":5723,"Ġpatient":5724,"Ġpointed":5725,"Ġincent":5726,"Ġaccompl":5727,"jud":5728,"Ġexplained":5729,"Ġcouple":5730,"second":5731,"Ġ43":5732,"Ġbiennium":5733,"Ġsho":5734,"Ġended":5735,"Ġentrepren":5736,"Ġundertaking":5737,"Ġrecruitment":5738,"Ġoutstanding":5739,"ka":5740,"Ġkit":5741,"Ġwidely":5742,"Ġreiter":5743,"Ġexpansion":5744,"Ġbelieved":5745,"aper":5746,"Ġappeals":5747,"osis":5748,"Ġenterprise":5749,"Ġroles":5750,"Ġargent":5751,"Ġfellow":5752,"adic":5753,"Ġillust":5754,"Ġrating":5755,"Ġovers":5756,"third":5757,"Ġsigns":5758,"arks":5759,"Ġdirected":5760,"Ġarchives":5761,"ughter":5762,"Ġperfect":5763,"hr":5764,"Ġpeaceful":5765,"Ġsatisfaction":5766,"Ġky":5767,"Ġmontreal":5768,"iled":5769,"Ġtan":5770,"ny":5771,"Ġdetermining":5772,"usion":5773,"Ġtechnological":5774,"kes":5775,"Ġsoldiers":5776,"Ġexperienced":5777,"Ġownership":5778,"Ġtot":5779,"Ġsupervis":5780,"Ġprofile":5781,"Ġukraine":5782,"Ġbeat":5783,"46":5784,"Ġbol":5785,"Ġspot":5786,"Ġacce":5787,"Ġbringing":5788,"ona":5789,"Ġvers":5790,"Ġmartin":5791,"Ġrecognize":5792,"Ġtemperature":5793,"Ġjoined":5794,"Ġarrested":5795,"Ġecosystem":5796,"Ġcontrolled":5797,"Ġuniversities":5798,"Ġath":5799,"Ġrc":5800,"vereign":5801,"Ġserving":5802,"chair":5803,"Ġwil":5804,"iance":5805,"Ġadding":5806,"Ġaccessible":5807,"Ġtaxpay":5808,"Ġcoach":5809,"cape":5810,"gl":5811,"Ġfaced":5812,"Ġassigned":5813,"Ġoptim":5814,"bed":5815,"Ġborn":5816,"Ġamericans":5817,"Ġoceans":5818,"Ġocean":5819,"Ġsentence":5820,"Ġdisposal":5821,"ulating":5822,"Ġdoubt":5823,"Ġexplore":5824,"Ġconventions":5825,"Ġmotion":5826,"Ġnewfoundland":5827,"Ġconstitute":5828,"Ġneither":5829,"rop":5830,"73":5831,"Ġpreserv":5832,"liferation":5833,"Ġintent":5834,"Ġnone":5835,"Ġdar":5836,"umping":5837,"Ġcatal":5838,"Ġleaving":5839,"Ġsymb":5840,"Ġpreparing":5841,"Ġundertake":5842,"Ġpages":5843,"Ġimages":5844,"Ġremoved":5845,"Ġeasily":5846,"Ġdetain":5847,"Ġthom":5848,"fs":5849,"Ġkosovo":5850,"Ġabsolute":5851,"Ġsovereign":5852,"Ġreprodu":5853,"Ġallegations":5854,"Ġcopies":5855,"Ġrobert":5856,"ukon":5857,"Ġngos":5858,"point":5859,"Ġtechniques":5860,"Ġoffence":5861,"Ġheading":5862,"Ġprescribed":5863,"Ġproperly":5864,"Ġvoice":5865,"commit":5866,"Ġviolation":5867,"Ġmillions":5868,"Ġattorney":5869,"while":5870,"Ġrespondents":5871,"Ġswe":5872,"ova":5873,"Ġfarmers":5874,"Ġposted":5875,"Ġmos":5876,"atically":5877,"Ġsnow":5878,"Ġsettle":5879,"omen":5880,"Ġcompletely":5881,"70":5882,"Ġrank":5883,"Ġincorporated":5884,"Ġcuts":5885,"ecd":5886,"top":5887,"Ġsort":5888,"Ġaccur":5889,"Ġworldwide":5890,"Ġfiling":5891,"Ġidentifying":5892,"don":5893,"Ġbow":5894,"Ġoptional":5895,"Ġmedicine":5896,"theless":5897,"Ġnamely":5898,"Ġcalling":5899,"Ġsurveys":5900,"cher":5901,"Ġvillage":5902,"Ġprofessor":5903,"ae":5904,"oslav":5905,"Ġperiodic":5906,"Ġcm":5907,"Ġcorporations":5908,"Ġoffences":5909,"Ġ56":5910,"Ġallocation":5911,"Ġmcc":5912,"Ġactively":5913,"Ġmarit":5914,"Ġlaboratory":5915,"Ġplenary":5916,"Ġ59":5917,"Ġinstructions":5918,"Ġmodified":5919,"Ġdistance":5920,"Ġintens":5921,"iat":5922,"Ġcrow":5923,"Ġbattle":5924,"Ġmining":5925,"ounted":5926,"contin":5927,"Ġtroops":5928,"uable":5929,"eties":5930,"Ġnevertheless":5931,"Ġsquare":5932,"Ġdemonstrated":5933,"Ġadults":5934,"Ġinh":5935,"Ġelsewhere":5936,"Ġtransl":5937,"inations":5938,"Ġactors":5939,"oked":5940,"Ġcolon":5941,"Ġkill":5942,"Ġdemonstrate":5943,"Ġmale":5944,"Ġasian":5945,"Ġinternationally":5946,"Ġsmith":5947,"lied":5948,"Ġexistence":5949,"abling":5950,"Ġunicef":5951,"Ġobstac":5952,"Ġconce":5953,"Ġappreciation":5954,"Ġwto":5955,"Ġstraight":5956,"Ġmanual":5957,"Ġcustomer":5958,"ographic":5959,"Ġrepeated":5960,"Ġpm":5961,"Ġtaxation":5962,"Ġrejected":5963,"Ġnamed":5964,"nia":5965,"Ġinspect":5966,"Ġprompt":5967,"aa":5968,"Ġacquisition":5969,"Ġletters":5970,"Ġfans":5971,"enger":5972,"Ġprofit":5973,"eff":5974,"Ġpret":5975,"first":5976,"Ġcaribbean":5977,"Ġencourages":5978,"Ġlakes":5979,"Ġjudgment":5980,"Ġdemands":5981,"Ġinventory":5982,"Ġmissing":5983,"Ġaccommodation":5984,"zech":5985,"Ġvisitors":5986,"Ġitalian":5987,"ees":5988,"Ġdismiss":5989,"Ġtrip":5990,"Ġunc":5991,"Ġsymbol":5992,"ĠÎ":5993,"Ġapple":5994,"Ġcommod":5995,"Ġmiles":5996,"ugoslav":5997,"Ġbear":5998,"Ġign":5999,"Ġven":6000,"zen":6001,"Ġsave":6002,"Ġoccupational":6003,"xx":6004,"Ġattached":6005,"arity":6006,"Ġnutr":6007,"rison":6008,"Ġinuit":6009,"Ġacceptable":6010,"wp":6011,"spec":6012,"Ġast":6013,"Ġzeal":6014,"Ġaids":6015,"Ġteaching":6016,"85":6017,"Ġ95":6018,"Ġcold":6019,"Ġstim":6020,"Ġ54":6021,"Ġcells":6022,"Ġjean":6023,"Ġib":6024,"Ġali":6025,"Ġaccession":6026,"Ġhappened":6027,"Ġconfidential":6028,"ashion":6029,"iny":6030,"Ġvotes":6031,"Ġbrus":6032,"Ġstations":6033,"Ġsuggests":6034,"Ġworkshops":6035,"Ġbarriers":6036,"Ġruling":6037,"they":6038,"Ġyukon":6039,"Ġheat":6040,"Ġyugoslav":6041,"Ġpicture":6042,"Ġtouch":6043,"Ġfreedoms":6044,"Ġduration":6045,"Ġdirectors":6046,"Ġdry":6047,"Ġnrc":6048,"Ġpeter":6049,"win":6050,"Ġcombination":6051,"Ġvisits":6052,"Ġol":6053,"Ġwealth":6054,"ctic":6055,"Ġgap":6056,"Ġprotecting":6057,"Ġweekend":6058,"87":6059,"cap":6060,"Ġwarning":6061,"Ġstore":6062,"Ġmm":6063,"Ġpas":6064,"Ġhill":6065,"roduct":6066,"Ġlooked":6067,"Ġangeles":6068,"ym":6069,"Ġdie":6070,"Ġworkplace":6071,"Ġgod":6072,"Ġindicates":6073,"Ġencouraging":6074,"Ġadult":6075,"Ġmist":6076,"rd":6077,"makers":6078,"Ġtransf":6079,"Ġparticipated":6080,"Ġpleased":6081,"Ġlooks":6082,"Ġenhancing":6083,"that":6084,"Ġoccupied":6085,"Ġfighting":6086,"Ġrefugee":6087,"Ġsciences":6088,"Ġbecomes":6089,"Ġsensitive":6090,"Ġ300":6091,"Ġ46":6092,"Ġtheme":6093,"regional":6094,"Ġnoting":6095,"Ġentity":6096,"Ġtransmission":6097,"rane":6098,"Ġdiss":6099,"Ġapplicants":6100,"Ġfraud":6101,"Ġsixty":6102,"Ġgenetic":6103,"Ġcontest":6104,"Ġdriving":6105,"Ġveget":6106,"Ġdonors":6107,"vance":6108,"Ġcomparison":6109,"cd":6110,"Ġrehabilitation":6111,"burg":6112,"Ġburden":6113,"Ġran":6114,"Ġsong":6115,"ighth":6116,"Ġdrop":6117,"Ġ1980":6118,"Ġcs":6119,"Ġrecalling":6120,"96":6121,"known":6122,"Ġneighbour":6123,"doc":6124,"Ġexception":6125,"Ġgal":6126,"Ġbanking":6127,"Ġzealand":6128,"Ġsto":6129,"Ġfulfil":6130,"Ġreturns":6131,"Ġapplying":6132,"Ġtransferred":6133,"report":6134,"rum":6135,"Ġ51":6136,"Ġregularly":6137,"Ġconcentration":6138,"Ġdischar":6139,"Ġbench":6140,"Ġfacebook":6141,"lock":6142,"Ġbomb":6143,"Ġnorway":6144,"di":6145,"Ġbag":6146,"agues":6147,"Ġ77":6148,"Ġhappen":6149,"sey":6150,"Ġlessons":6151,"gage":6152,"Ġdog":6153,"ĠâĤ¬":6154,"Ġdistributed":6155,"Ġcitizenship":6156,"Ġliquid":6157,"Ġmagn":6158,"ek":6159,"Ġambassador":6160,"Ġsatellite":6161,"Ġstressed":6162,"Ġtelecommunications":6163,"Ġbridge":6164,"Ġconservative":6165,"Ġkil":6166,"Ġczech":6167,"Ġnotification":6168,"rick":6169,"Ġdeclared":6170,"Ġ)":6171,"Ġ52":6172,"Ġorganic":6173,"Ġjustification":6174,"Ġcere":6175,"Ġtu":6176,"Ġgather":6177,"Ġfaith":6178,"Ġshowing":6179,"Ġspl":6180,"effect":6181,"Ġtheat":6182,"Ġsubsequently":6183,"Ġdele":6184,"zz":6185,"Ġtack":6186,"Ġbelgium":6187,"board":6188,"sub":6189,"Ġrestaurant":6190,"Ġexempt":6191,"Ġcertification":6192,"Ġargued":6193,"Ġdeclined":6194,"Ġpipe":6195,"Ġmetal":6196,"sm":6197,"ography":6198,"program":6199,"Ġvary":6200,"Ġestimate":6201,"800":6202,"Ã©s":6203,"aling":6204,"Ġpoland":6205,"Ġproductivity":6206,"Ġallowance":6207,"Ġcuba":6208,"Ġnato":6209,"terday":6210,"Ġearnings":6211,"Ġoutlined":6212,"Ġcars":6213,"Ġpolitics":6214,"Ġscientists":6215,"Ġalex":6216,"iro":6217,"itative":6218,"hst":6219,"Ġfrequently":6220,"Ġyield":6221,"ogen":6222,"Ġislamic":6223,"Ġmeasured":6224,"Ġoversight":6225,"jection":6226,"Ġsides":6227,"Ġstrict":6228,"Ġdownload":6229,"Ġupgra":6230,"Ġinsp":6231,"ura":6232,"Ġdefend":6233,"Ġ85":6234,"Ġchannel":6235,"ode":6236,"Ġremote":6237,"Ġtables":6238,"Ġflood":6239,"Ġreferences":6240,"Ġracism":6241,"Ġallocated":6242,"Ġ53":6243,"Ġsixth":6244,"Ġrepresenting":6245,"Ġsalary":6246,"Ġyesterday":6247,"olf":6248,"2009":6249,"table":6250,"Ġmagaz":6251,"Ġinitiated":6252,"Ġdistinct":6253,"Ġcoordinated":6254,"Ġendors":6255,"Ġtranslation":6256,"Ġparal":6257,"Ġquestionna":6258,"mits":6259,"Ġflag":6260,"Ġstable":6261,"ado":6262,"Ġurgent":6263,"Ġqueen":6264,"uds":6265,"Ġdecrease":6266,"Ġclick":6267,"Ġ04":6268,"acing":6269,"Ġinvolves":6270,"Ġmortality":6271,"list":6272,"fast":6273,"engers":6274,"Ġauton":6275,"Ġshel":6276,"Ġfrank":6277,"Ġmg":6278,"Ġmessages":6279,"Ġelectricity":6280,"Ġorient":6281,"Ġnormally":6282,"Ġeld":6283,"Ġwalk":6284,"Ġsimpl":6285,"ician":6286,"rates":6287,"Ġgdp":6288,"Ġgeorgia":6289,"ifies":6290,"Ġwasn":6291,"Ġspeakers":6292,"Ġcapable":6293,"89":6294,"Ġsle":6295,"Ġtradition":6296,"iful":6297,"Ġresolve":6298,"Ġmarked":6299,"Ġcontem":6300,"Ġethics":6301,"Ġstab":6302,"oul":6303,"Ġunderst":6304,"Ġhappy":6305,"Ġgreatest":6306,"Ġfeature":6307,"Ġbroader":6308,"Ġretirement":6309,"Ġdoor":6310,"Ġeradic":6311,"utory":6312,"Ġkh":6313,"Ġqualifications":6314,"Ġmerc":6315,"Ġ1989":6316,"Ġvit":6317,"Ġ]":6318,"Ġflexibility":6319,"Ġtopic":6320,"ĠfranÃ§":6321,"iciary":6322,"Ġbeach":6323,"ero":6324,"orum":6325,"Ġstocks":6326,"how":6327,"Ġgone":6328,"Ġdegra":6329,"Ġfashion":6330,"Ġaffecting":6331,"itter":6332,"Ġindirect":6333,"Ġcomprom":6334,"Ġsignature":6335,"Ġaffil":6336,"ront":6337,"Ġmonthly":6338,"Ġreligion":6339,"Ġreconst":6340,"Ġdeliber":6341,"Ġsustainability":6342,"Ġfoster":6343,"Ġinfect":6344,"Ġillicit":6345,"izon":6346,"oo":6347,"Ġboost":6348,"Ġcloser":6349,"Ġlis":6350,"Ġing":6351,"Ġpartial":6352,"Ġscore":6353,"Ġspend":6354,"holder":6355,"Ġattended":6356,"Ġsuffered":6357,"termin":6358,"inth":6359,"Ġimag":6360,"Ġcarrier":6361,"bl":6362,"Ġflorida":6363,"Ġtoler":6364,"icing":6365,"Ġpunishment":6366,"Ġbath":6367,"Ġcoalition":6368,"Ġdepending":6369,"otic":6370,"uated":6371,"acc":6372,"appro":6373,"Ġku":6374,"Ġpursue":6375,"Ġmaritime":6376,"Ġnh":6377,"Ġraising":6378,"Ġpreventing":6379,"oa":6380,"Ã¼":6381,"Ġreserves":6382,"anged":6383,"Ġdin":6384,"Ġstyle":6385,"Ġthinking":6386,"ĠÃł":6387,"Ġcha":6388,"Ġwinning":6389,"Ġpredict":6390,"%.":6391,"Ġcivilians":6392,"conf":6393,"Ġlists":6394,"Ġillness":6395,"Ġwing":6396,"Ġacademic":6397,"Ġchemicals":6398,"Ġincur":6399,"Ġwonder":6400,"Ġhundreds":6401,"Ġcart":6402,"Ġconsiderations":6403,"Ġmineral":6404,"Ġindones":6405,"Ġrising":6406,"esty":6407,"Ġhonour":6408,"Ġadjustment":6409,"Ġ61":6410,"Ġfestival":6411,"Ġbrussels":6412,"................................":6413,"Ġturk":6414,"Ġcompetitiveness":6415,"Ġformed":6416,"vak":6417,"Ġtroub":6418,"Ġstrike":6419,"Ġacquired":6420,"Ġremember":6421,"Ġestate":6422,"Ġvictor":6423,"Ġvaluable":6424,"51":6425,"Ġphen":6426,"Ġeditor":6427,"Ġtransit":6428,"Ġisn":6429,"hors":6430,"Ġprecise":6431,"united":6432,"Ġoperators":6433,"Ġfoods":6434,"Ġbell":6435,"Ġawarded":6436,"Ġcoordinator":6437,"Ġgre":6438,"government":6439,"Ġslightly":6440,"Ġgains":6441,"Ġaustria":6442,"))":6443,"Ġcontra":6444,"Ġcalculated":6445,"Ġho":6446,"Ã¶":6447,"Ġsubparagraph":6448,"Ġtom":6449,"ider":6450,"Ġasset":6451,"dd":6452,"upi":6453,"________________________________":6454,"Ġcapabilities":6455,"Ġaviation":6456,"Ġconsequently":6457,"Ġlocations":6458,"Ġdenied":6459,"Ġstages":6460,"Ġdiplomatic":6461,"health":6462,"itud":6463,"Ġsir":6464,"terror":6465,"Ġcolleagues":6466,"Ġemission":6467,"Ġomb":6468,"Ġbang":6469,"Ġtopics":6470,"Ġmuslim":6471,"she":6472,"osen":6473,"Ġlebanon":6474,"ita":6475,"kel":6476,"Ġoral":6477,"Ġcombating":6478,"Ã´":6479,"Ġsocio":6480,"Ġchic":6481,"Ġeliminate":6482,"Ġcontacts":6483,"president":6484,"istent":6485,"Ġ1988":6486,"osing":6487,"Ġcontinuous":6488,"matic":6489,"Ġromania":6490,"Ġchairperson":6491,"unately":6492,"stitution":6493,"Ġtransaction":6494,"Ġcommerce":6495,"cons":6496,"unch":6497,"Ġthr":6498,"rig":6499,"Ġcarol":6500,"Ġ1987":6501,"Ġprosecutor":6502,"Ġdeaths":6503,"Ġobservers":6504,"Ġvoted":6505,"Ġstaffing":6506,"Ġunfort":6507,"Ġintention":6508,"ressed":6509,"Ġgent":6510,"Ġlabel":6511,"Ġportugal":6512,"Ġcontrary":6513,"Ġarising":6514,"Ġpowerful":6515,"Ġcovering":6516,"sea":6517,"Ġboy":6518,"Ġrig":6519,"food":6520,"Ġpayable":6521,"Ġhandling":6522,"class":6523,"Ġputting":6524,"ilingual":6525,"Ġdedicated":6526,"Ġfinland":6527,"Ġdonor":6528,"Ġthereby":6529,"Ġsar":6530,"Ġroute":6531,"Ġinteresting":6532,"Ġrevealed":6533,"Ġrain":6534,"Ġsmoking":6535,"Ġfunctioning":6536,"Ġprosecution":6537,"oned":6538,"liers":6539,"Ġvessels":6540,"uman":6541,"Ġcontributing":6542,"Ġeye":6543,"Ġknew":6544,"Ġmainstream":6545,"Ġborrow":6546,"Ġstrengthened":6547,"Ġcroat":6548,"ĠÂ»":6549,"Ġexpanded":6550,"Ġdrinking":6551,"Ġreflects":6552,"Ġmandatory":6553,"iet":6554,"Ġsubmissions":6555,"Ġhelps":6556,"Ġmovie":6557,"Ġinsu":6558,"Ġsheet":6559,"Ġpassengers":6560,"cor":6561,"Ġnative":6562,"Ġevaluate":6563,"Ġannivers":6564,"Ġpapers":6565,"Ġurges":6566,"serv":6567,"committee":6568,"Ġdestroy":6569,"from":6570,"Ġruns":6571,"94":6572,"Ġrequiring":6573,"Ġinflation":6574,"Ġbc":6575,"Ġreleases":6576,"Ġnewspaper":6577,"Ġalliance":6578,"Ġeventually":6579,"Ġremove":6580,"Ġacceler":6581,"Ġmostly":6582,"Ġnorthwest":6583,"iplinary":6584,"Ġtalking":6585,"Ġartists":6586,"Ã£":6587,"Ġratification":6588,"Ġcomposition":6589,"Ġpotentially":6590,"Ġreceipt":6591,"Ġsuitable":6592,"Ġrot":6593,"Ġevol":6594,"Ġconducting":6595,"Ġstatute":6596,"ylum":6597,"hand":6598,"Ġdescribe":6599,"Ġmanufacturer":6600,"gers":6601,"long":6602,"taining":6603,"Ġcovers":6604,"Ġcc":6605,"Ġnice":6606,"Ġdissemination":6607,"Ġguine":6608,"Ġperpet":6609,"Ġdeficit":6610,"Ġhr":6611,"Ġimported":6612,"Ġdefine":6613,"Ġshift":6614,"Ġgeographical":6615,"Ġrefers":6616,"Ġdisplaced":6617,"Ġbulg":6618,"andum":6619,"Ġseemed":6620,"vail":6621,"Ġlu":6622,"Ġvirgin":6623,"Ġbullet":6624,"'d":6625,"Ġsomal":6626,"Ġunderstood":6627,"Ġtransparent":6628,"rador":6629,"Ġrenewal":6630,"sement":6631,"ventional":6632,"Ġoverse":6633,"http":6634,"Ġarctic":6635,"Ġconcentrations":6636,"Ġclaimant":6637,"Ġdecides":6638,"Ġmonit":6639,"ijing":6640,"Ġdealt":6641,"Ġsuccessfully":6642,"Ġmethodology":6643,"enna":6644,"Ġcoup":6645,"Ġimmigrants":6646,"Ġcolor":6647,"Ġaven":6648,"Ġreaction":6649,"ias":6650,"Ġbeaut":6651,"icide":6652,"Ġasylum":6653,"udi":6654,"Ġratio":6655,"Ġkid":6656,"bel":6657,"fax":6658,"Ġanniversary":6659,"Ġelabor":6660,"Ġsamples":6661,"Ġsecurities":6662,"Ġdriver":6663,"Ġwishes":6664,"Ġenlar":6665,"Ġplays":6666,"Ġfavor":6667,"Ġdark":6668,"Ġamending":6669,"ini":6670,"Ġrepublicans":6671,"Ġbosnia":6672,"Ġnun":6673,"Ġwarrant":6674,"Ġjun":6675,"Ġ1985":6676,"Ġdisabled":6677,"emic":6678,"Ġurged":6679,"Ġmanufacturers":6680,"Ġcorner":6681,"Ġcondem":6682,"Ġhusband":6683,"Ġmemorandum":6684,"Ġproducer":6685,"Ġchosen":6686,"Ġinjuries":6687,"Ġscottish":6688,"Ġportfol":6689,"Ġproperties":6690,"Ġsatisfied":6691,"mo":6692,"Ġpc":6693,"Ġintroduce":6694,"Ġtwice":6695,"Ġcorresponding":6696,"Ġevening":6697,"53":6698,"ipping":6699,"Ġaged":6700,"Ġreconcil":6701,"Ġunh":6702,"Ġtransfers":6703,"fter":6704,"Ġuns":6705,"Ġfabric":6706,"Ġkids":6707,"Ġrevision":6708,"being":6709,"Ġmary":6710,"wer":6711,"ctad":6712,"uly":6713,"Ġborders":6714,"Ġcontrast":6715,"gy":6716,"Ġconsulting":6717,"Ġtransmit":6718,"oto":6719,"Ġpatterns":6720,"four":6721,"Ġultimately":6722,"Ġsupplementary":6723,"stein":6724,"Ġcbs":6725,"Ġombuds":6726,"atever":6727,"gal":6728,"Ġupper":6729,"Ġpermitted":6730,"Ġfeet":6731,"Ġaudience":6732,"Ġpassenger":6733,"Ġargentina":6734,"sch":6735,"oured":6736,"Ġphilipp":6737,"Ġrational":6738,"Ġrecipient":6739,"Ġnit":6740,"urity":6741,"Ġauthors":6742,"Ġconformity":6743,"Ġnovel":6744,"Ġequally":6745,"78":6746,"52":6747,"ĠĠ":6748,"Ġinterviews":6749,"Ġphotos":6750,"Ġarrangement":6751,"Ġowned":6752,"plus":6753,"Ġsuit":6754,"Ġsolidarity":6755,"Ġthirty":6756,"Ġdeployment":6757,"Ġped":6758,"Ġrichard":6759,"just":6760,"Ġbeijing":6761,"Ġlob":6762,"Ġregistry":6763,"canad":6764,"Ġtrail":6765,"Ġreact":6766,"Ġannually":6767,"Ġclassified":6768,"Ġfeedback":6769,"Ġspeaker":6770,"Ġseriously":6771,"Ġcolumn":6772,"Ġguinea":6773,"Ġenabling":6774,"Ġoccupation":6775,"iversity":6776,"Ġsequ":6777,"licit":6778,"Ġentrepreneurs":6779,"month":6780,"Ġathlet":6781,"Ġbeautiful":6782,"Ġfrancoph":6783,"Ġsantorum":6784,"Ġmurder":6785,"Ġshut":6786,"Ġgirl":6787,"Ġfill":6788,"Ġalb":6789,"uls":6790,"Ġouter":6791,"Ġmix":6792,"Ġstories":6793,"Ġsubstit":6794,"Ġging":6795,"Ġobserver":6796,"Ġtested":6797,"Ġreplacement":6798,"Ġpus":6799,"Ġkar":6800,"Ġcorrection":6801,"Ġselling":6802,"Ġdemocrats":6803,"Ġassessing":6804,"word":6805,"prus":6806,"Ġholiday":6807,"run":6808,"iced":6809,"Ġdenmark":6810,"Ġmitt":6811,"omy":6812,"Ġwire":6813,"Ġgets":6814,"Ġjohns":6815,"ierra":6816,"urb":6817,"Ġ88":6818,"Ġclause":6819,"Ġexists":6820,"Ġsimilarly":6821,"Ġcodes":6822,"Ġremoval":6823,"Ġmel":6824,"Ġwait":6825,"Ġstatutory":6826,"fl":6827,"Ġfalls":6828,"Ġatmosphere":6829,"Ġgat":6830,"iaries":6831,"eland":6832,"Ġencoun":6833,"Ġreferen":6834,"Ġdiam":6835,"olic":6836,"Ġclasses":6837,"ogle":6838,"Ġdefinitions":6839,"Ġlabrador":6840,"Ġacceptance":6841,"Ġsuppliers":6842,"hered":6843,"Ġunions":6844,"Ġtherap":6845,"Ġresistance":6846,"Ġsucceed":6847,"Ġment":6848,"Ġboys":6849,"Ġguy":6850,"Ġsupervision":6851,"Ġvalley":6852,"ni":6853,"Ġhat":6854,"Ġgenerated":6855,"mas":6856,"Ġkilling":6857,"Ġsustained":6858,"Ġinjured":6859,"Ġlose":6860,"Ġfamiliar":6861,"Ġ62":6862,"ordan":6863,"Ġcool":6864,"Ġrestricted":6865,"Ġpreparatory":6866,"Ġgst":6867,"Ġimposs":6868,"Ġverification":6869,"Ġrcmp":6870,"Ġrout":6871,"Ġbottom":6872,"Ġsuffering":6873,"Ġmobility":6874,"Ġpaying":6875,"Ġsubjects":6876,"Ġaband":6877,"Ġtrained":6878,"Ġguarantees":6879,"Ġwhatever":6880,"Ġpresents":6881,"Ġengagement":6882,"Ġhopes":6883,"Ġceremon":6884,"Ġiron":6885,"Ġhighlighted":6886,"Ġexposed":6887,"Ġstronger":6888,"Ġrub":6889,"300":6890,"Ġfinished":6891,"Ġexplos":6892,"Ġpp":6893,"rical":6894,"burgh":6895,"Ġcounse":6896,"Ġlawyers":6897,"Ġdream":6898,"Ġconsists":6899,"Ġstip":6900,"Ġdeadline":6901,"Ġ67":6902,"Ġvienna":6903,"fur":6904,"Ġcancell":6905,"Ġ02":6906,"Ġvast":6907,"Ġnecessarily":6908,"europe":6909,"Ġprotest":6910,"reuters":6911,"Ġrescue":6912,"riend":6913,"Ġlord":6914,"Ġaccurate":6915,"Ġcapacities":6916,"Ġnewly":6917,"aser":6918,"Ġsupporters":6919,"Ġinterventions":6920,"Ġfewer":6921,"chen":6922,"ros":6923,"Ġcyprus":6924,"ortion":6925,"Ġinterpre":6926,"Ġhorizon":6927,"Ġproactive":6928,"Ġbinding":6929,"Ã¡Ã¡":6930,"Ġepid":6931,"Ġregardless":6932,"Ġdefe":6933,"kh":6934,"Ġcomplic":6935,"Ġdrawing":6936,"Ġcyc":6937,"esco":6938,"Ġreturning":6939,"Ġdimension":6940,"Ġchile":6941,"Ġmotiv":6942,"Ġerror":6943,"Ġflat":6944,"Ġcameron":6945,"ules":6946,"Ġsi":6947,"inery":6948,"Ġreliable":6949,"Ġcolour":6950,"Ġlawyer":6951,"Ġrecre":6952,"Ġindonesia":6953,"Ġvisible":6954,"Ġcitizen":6955,"Ġfruit":6956,"inafter":6957,"Ġdiverse":6958,"haust":6959,"Ġtexas":6960,"ilty":6961,"Ġrough":6962,"oration":6963,"teg":6964,"Ġpour":6965,"Ġthor":6966,"Ġinitially":6967,"Ġtrials":6968,"fi":6969,"Ġpdf":6970,"Ġresum":6971,"Ġresidential":6972,"Ġpled":6973,"Ġinfection":6974,"Ġemot":6975,"Ġeasier":6976,"gression":6977,"Ġdaughter":6978,"Ġrw":6979,"Ġexperi":6980,"Ġrecognizes":6981,"Ġteacher":6982,"Ġforests":6983,"Ġsierra":6984,"Ġleads":6985,"Ġargument":6986,"Ġarrived":6987,"Ġspoke":6988,"Ġmoroc":6989,"Ġwet":6990,"Ġok":6991,"Ġdestination":6992,"Ġoecd":6993,"ato":6994,"Ġwider":6995,"inter":6996,"Ġfunctional":6997,"Ġcampaigns":6998,"Ġafterno":6999,"Ġgoogle":7000,"Ġpleas":7001,"Ġwrite":7002,"Ġrefused":7003,"Ġpace":7004,"Ġaddresses":7005,"Ġanc":7006,"Ġconj":7007,"Ġbearing":7008,"Ġdomain":7009,"Ġcolom":7010,"Ġombudsman":7011,"Ġpremium":7012,"%,":7013,"Ġadoles":7014,"Ġderived":7015,"Ġnutrition":7016,"Ġinvestigate":7017,"Ġstorm":7018,"Ġvessel":7019,"Ġdistingu":7020,"Ġembar":7021,"Ġcongr":7022,"Ġrecognizing":7023,"Ġannouncement":7024,"Ġmigrants":7025,"Ġdiscrimin":7026,"Ġ99":7027,"Ġdates":7028,"Ġlith":7029,"Ġjose":7030,"any":7031,"Ġconventional":7032,"Ġcalend":7033,"Ġpending":7034,"Ġsed":7035,"Ġcards":7036,"Ġentirely":7037,"Ġcad":7038,"Ġscene":7039,"Ġrapidly":7040,"tainment":7041,"Ġbudgets":7042,"Ġexploration":7043,"Ġfro":7044,"Ġformation":7045,"Ġutil":7046,"ieth":7047,"Ġseminar":7048,"Ġprosecutors":7049,"Ġstead":7050,"article":7051,"Ġjack":7052,"Ġerr":7053,"Ġnationals":7054,"ĪĴ":7055,"Ġgreek":7056,"Ġedward":7057,"Ġsac":7058,"Ġreproduct":7059,"Ġinsist":7060,"Ġmoder":7061,"ano":7062,"Ġfeas":7063,"Ġacknowledged":7064,"Ġ63":7065,"wgsc":7066,"Ġharvest":7067,"Ġwine":7068,"Ġinterior":7069,"Ġnarrow":7070,"Ġroll":7071,"Ġfrequency":7072,"Ġsubsidiary":7073,"Ġhazardous":7074,"Ġsmart":7075,"Ġpu":7076,"specific":7077,"Ġcry":7078,"Ġinsufficient":7079,"Ġexceptional":7080,"Ġdign":7081,"Ġinfring":7082,"Ġreply":7083,"Ġflexible":7084,"Ġnam":7085,"Ġcrew":7086,"cp":7087,"Ġconsolidated":7088,"Ġafternoon":7089,"Ġunctad":7090,"Ġseats":7091,"Ġ64":7092,"Ġbbc":7093,"Ġresort":7094,"ki":7095,"inks":7096,"Ġmeanwhile":7097,"Ġwides":7098,"Ġaspect":7099,"Ġimpossible":7100,"called":7101,"Ġreproductive":7102,"pread":7103,"Ġasking":7104,"Ġfinds":7105,"terrorism":7106,"Ġdanger":7107,"Ġdropped":7108,"Ġsponsors":7109,"Ġglass":7110,"Ġrespondent":7111,"utical":7112,"Ġdependent":7113,"Ġsmes":7114,"Ġguilty":7115,"Ġshooting":7116,"Ġug":7117,"Ġsubsc":7118,"Ġlegitimate":7119,"Ġdecent":7120,"bus":7121,"Ġcable":7122,"Ġportfolio":7123,"Ġfu":7124,"Ġpossibly":7125,"Ġjohnson":7126,"Ġrecru":7127,"Ġschol":7128,"Ġuniform":7129,"Ġstem":7130,"zegov":7131,"Ġabst":7132,"Ġclosing":7133,"Ġclust":7134,"Ġcoastal":7135,"Ġauthorization":7136,"Ã¢":7137,"Ġdup":7138,"uine":7139,"Ġwidespread":7140,"Ġdil":7141,"Ġprisoners":7142,"zegovina":7143,"Ġworst":7144,"Ġscr":7145,"Ġordered":7146,"Ġproof":7147,"Ġbarb":7148,"Ġconnected":7149,"Ġcroatia":7150,"Ġjuven":7151,"Ġequipped":7152,"Ġexactly":7153,"Ġdefic":7154,"Ġships":7155,"Ġimper":7156,"Ġguests":7157,"oses":7158,"Ġwindows":7159,"ement":7160,"abet":7161,"Ġending":7162,"Ġtransitional":7163,"Ġagri":7164,"Ġsegment":7165,"Ġsor":7166,"Ġcongrat":7167,"Ġrelevance":7168,"Ġluc":7169,"Ġentr":7170,"Ġexclusive":7171,"Ġingred":7172,"dy":7173,"Ġcollaborative":7174,"americ":7175,"Ġadmitted":7176,"Ġfaces":7177,"Ġshape":7178,"Ġreconstruction":7179,"pal":7180,"Ġanalysts":7181,"lets":7182,"Ġslovak":7183,"Ġparame":7184,"Ġindication":7185,"Ġwaiting":7186,"Ġexplicit":7187,"Ġprove":7188,"Ġjordan":7189,"scale":7190,"Ġ400":7191,"Ġcurric":7192,"Ġrare":7193,"Ġcensus":7194,"Ġpictures":7195,"Ġrevolution":7196,"embourg":7197,"Ã©e":7198,"ioned":7199,"Ġdisputes":7200,"Ġtypically":7201,"encing":7202,"Ġreaching":7203,"Ġjapanese":7204,"Ġpiece":7205,"Ġdoctors":7206,"400":7207,"Ġenact":7208,"Ġ08":7209,"Ġcooperate":7210,"mr":7211,"Ġgulf":7212,"Ġchampionship":7213,"Ġdiamond":7214,"uay":7215,"Ġexhaust":7216,"Ġexcellence":7217,"Ġliterature":7218,"Ġsalmon":7219,"Ġincidents":7220,"Ġanswers":7221,"Ġprohibited":7222,"Ġachievements":7223,"Ġgenerate":7224,"ĠdÃ©":7225,"otechn":7226,"Ġaccompanied":7227,"Ġgrade":7228,"Ġexplanation":7229,"Ġeligibility":7230,"tery":7231,"Ġtruth":7232,"Ġbirds":7233,"arus":7234,"Ġts":7235,"Ġteen":7236,"Ġgenuine":7237,"ea":7238,"enz":7239,"Ġremarks":7240,"imp":7241,"Ġdeals":7242,"Ġcabinet":7243,"Ġflows":7244,"Ġcree":7245,"forced":7246,"fall":7247,"inde":7248,"rev":7249,"vey":7250,"Ġincurred":7251,"ranean":7252,"Ġgingrich":7253,"Ġmeat":7254,"adequ":7255,"Ġtail":7256,"Ġserbia":7257,"Ġsurrounding":7258,"iop":7259,"Ġpassport":7260,"83":7261,"Ġneighbor":7262,"bound":7263,"Ġtransmitted":7264,"Ġprivile":7265,"eline":7266,"Ġecb":7267,"Ġanticipated":7268,"rating":7269,"Ġ150":7270,"Ġcompetence":7271,"Ġleone":7272,"Ġresponded":7273,"Ġcalendar":7274,"Ġforty":7275,"tur":7276,"Ġexchang":7277,"outs":7278,"Ġfamous":7279,"erly":7280,"Ġskin":7281,"Ġexpense":7282,"Ġobstacles":7283,"Ġmaur":7284,"Ġcontrovers":7285,"Ġsky":7286,"Ġcook":7287,"Ġnunav":7288,"Ġinstallation":7289,"Ġimprison":7290,"Ġbrain":7291,"Ġendorsed":7292,"Ġoffenders":7293,"profit":7294,"po":7295,"Ġadm":7296,"Ġsafeguard":7297,"Ġrenewable":7298,"Ġsocieties":7299,"Ġmeets":7300,"Ġah":7301,"Ġchristian":7302,"Ġcapability":7303,"eec":7304,"Ġbreed":7305,"Ġpublicly":7306,"rÃ©al":7307,"Ġworker":7308,"Ġchlor":7309,"Ġhighway":7310,"ĠÂ·":7311,"Ġmagazine":7312,"Ġbern":7313,"Ġpermits":7314,"Ġbalanced":7315,"Ġhouses":7316,"ani":7317,"Ġpretty":7318,"canadian":7319,"dec":7320,"ko":7321,"Ġproducing":7322,"Ġjim":7323,"Ġgm":7324,"ĠmontrÃ©al":7325,"Ġdoctor":7326,"ĠÃ©":7327,"Ġdynamic":7328,"teed":7329,"Ġconting":7330,"Ġgentle":7331,"Ã¤":7332,"Ġheight":7333,"ena":7334,"raints":7335,"Ġsignificance":7336,"Ġconclude":7337,"Ġlowest":7338,"Ġthereof":7339,"Ġjointly":7340,"93":7341,"chr":7342,"Ġnick":7343,"Ġfilms":7344,"Ġtaxpayer":7345,"Ġdisag":7346,"Ġnov":7347,"Ġlouis":7348,"Ġartist":7349,"Ġcolombia":7350,"iterranean":7351,"aceutical":7352,"Ġscored":7353,"Ġstores":7354,"Ġaccomplish":7355,"Ġrand":7356,"212":7357,"Ġlimitations":7358,"Ġbot":7359,"Ġtwitter":7360,"Ġvisited":7361,"iors":7362,"Ġphenomen":7363,"Ġfriendly":7364,"Ġbulgaria":7365,"ounded":7366,"intern":7367,"Ġhospitals":7368,"Ġunfortunately":7369,"Ġwitnesses":7370,"Ġedition":7371,"Ġprejud":7372,"Ġholds":7373,"Ġkuwa":7374,"bai":7375,"Ġsettlements":7376,"gans":7377,"Ġsurvival":7378,"Ġamaz":7379,"Ġhungary":7380,"Ġfocusing":7381,"mpts":7382,"Ġmachine":7383,"via":7384,"Ġopposed":7385,"ams":7386,"Ġdepr":7387,"Ġquestionnaire":7388,"Ġearned":7389,"Ġthomas":7390,"Ġtough":7391,"Ġbriefing":7392,"Ġcompat":7393,"itÃ©":7394,"Ġgrain":7395,"Ġtradem":7396,"Ġattempts":7397,"agency":7398,"oney":7399,"border":7400,"Ġauditor":7401,"Ġperforming":7402,"86":7403,"Ġbaby":7404,"Ġoperator":7405,"ares":7406,"Ġlia":7407,"Ġthreatened":7408,"Ġguaranteed":7409,"Ġsuspended":7410,"ander":7411,"Ġchronic":7412,"Ġproud":7413,"Ġazer":7414,"lights":7415,"hereinafter":7416,"Ġquantity":7417,"Ġluxembourg":7418,"itious":7419,"Ġexcluded":7420,"stat":7421,"Ġbea":7422,"baijan":7423,"Ġcited":7424,"teen":7425,"nipe":7426,"Ġopinions":7427,"het":7428,"Ġdesire":7429,"public":7430,"iner":7431,"Ġdivided":7432,"Ġideal":7433,"Ġwilliams":7434,"non":7435,"advant":7436,"igan":7437,"Ġgarden":7438,"reshold":7439,"Ġprosper":7440,"Ġcp":7441,"nipeg":7442,"Ġherzegovina":7443,"Ġunderlying":7444,"Ġgraph":7445,"Ġdun":7446,"Ġrid":7447,"Ġinadequ":7448,"Ġrecover":7449,"Ġadjustments":7450,"Ġsteering":7451,"Ġpossession":7452,"Ġpct":7453,"Ġstands":7454,"Ġprotocols":7455,"Ġbiod":7456,"Ġprohibition":7457,"Ġboards":7458,"Ġwage":7459,"Ġreductions":7460,"Ġformula":7461,"Ġcath":7462,"Ġsystematic":7463,"Ġtight":7464,"mond":7465,"Ġsuggestions":7466,"umin":7467,"Ġbreast":7468,"Ġchicago":7469,"91":7470,"Ġï":7471,"ef":7472,"Ġvolunteers":7473,"Ġsloven":7474,"Ġholder":7475,"utive":7476,"rolled":7477,"Ġediting":7478,"Ġconsc":7479,"Ġperce":7480,"enez":7481,"langu":7482,"Ġglobalization":7483,"Ġnigeria":7484,"Ġfalling":7485,"Ġrecording":7486,"Ġcarefully":7487,"Ġworkforce":7488,"Ġalban":7489,"Ġtrees":7490,"Ġgaps":7491,"Ġresid":7492,"when":7493,"Ġreconciliation":7494,"Ġrecalled":7495,"Ġwheel":7496,"Ġcustody":7497,"Ġguest":7498,"Ġgranting":7499,"Ġmoh":7500,"Ġ87":7501,"Ġfrancis":7502,"ented":7503,"Ġsummar":7504,"yp":7505,"osite":7506,"Ġtheatre":7507,"Ġphotograph":7508,"Ġemphasized":7509,"Ġsher":7510,"Ġfacilitating":7511,"Ġcrop":7512,"Ġcreative":7513,"Ġgay":7514,"Ġseeks":7515,"Ġkg":7516,"Ġrepair":7517,"Ġnotices":7518,"Ġric":7519,"iable":7520,"cult":7521,"Ġoccasion":7522,"othing":7523,"Ġpreparations":7524,"Ġbreakfast":7525,"Ġembass":7526,"Ġbes":7527,"isons":7528,"ager":7529,"Ġcommunicate":7530,"Ġ1970":7531,"Ġmines":7532,"Ġandrew":7533,"Ġcoordinating":7534,"84":7535,"Ġjac":7536,"Ġavenue":7537,"iture":7538,"Ġchris":7539,"Ġordinary":7540,"alities":7541,"Ġfeat":7542,"?\"":7543,"Ġexclusion":7544,"Ġrome":7545,"Ġdisadvant":7546,"ellow":7547,"Ġuncertainty":7548,"Ġgreenhouse":7549,"Ġ1986":7550,"Ġthreshold":7551,"Ġelectron":7552,"Ġtunis":7553,"Ġcaptain":7554,"Ġrefund":7555,"itudes":7556,"Ġsitting":7557,"Ġgallery":7558,"bro":7559,"Ġsigning":7560,"Ġconsultative":7561,"Ġturning":7562,"Ġgaza":7563,"Ġhoped":7564,"Ġconsultants":7565,"fire":7566,"Ġfox":7567,"Ġroutine":7568,"92":7569,"Ġmobil":7570,"Ġexemption":7571,"Ġinsure":7572,"Ġmassive":7573,"Ġbuff":7574,"Ġfix":7575,"Ġparas":7576,"gain":7577,"Ġalternatives":7578,"Ġcommissions":7579,"Ġlicensing":7580,"Ġforec":7581,"Ġharbour":7582,"Ġdrafting":7583,"Ġryan":7584,"Ġdiscover":7585,"Ġexped":7586,"Ġsquad":7587,"Ġsaudi":7588,"language":7589,"Ġrelax":7590,"Ġprofits":7591,"log":7592,"Ġincentives":7593,"Ġ66":7594,"Ġmixed":7595,"Ġwithdrawal":7596,"Ġdepends":7597,"Ġaccum":7598,"Ġpenalties":7599,"Ġedge":7600,"Ġrelate":7601,"Ġadministered":7602,"rog":7603,"ordin":7604,"Ġspectrum":7605,"ethyl":7606,"ĠfranÃ§ais":7607,"itis":7608,"Ġobjects":7609,"Ġ06":7610,"Ġproved":7611,"Ġbush":7612,"Ġow":7613,"break":7614,"Ġassurance":7615,"Ġcorp":7616,"after":7617,"direct":7618,"Ġazerbaijan":7619,"war":7620,"Ġmarg":7621,"Ġveterans":7622,"Ġbah":7623,"Ġknows":7624,"mod":7625,"Ġbrings":7626,"Ġconvin":7627,"atories":7628,"Ġoverseas":7629,"ruck":7630,"Ġhouseholds":7631,"Ġmt":7632,"Ġmachinery":7633,"reach":7634,"Ġschemes":7635,"Ġunlikely":7636,"Ġgrass":7637,"Ġcosta":7638,"Ġparalle":7639,"Ġjama":7640,"Ġsuspension":7641,"Ġpush":7642,"Ġconvicted":7643,"dum":7644,"Ġequitable":7645,"Ġbelarus":7646,"look":7647,"Ġdischarge":7648,"Ġcoordinate":7649,"verse":7650,"Ġpetro":7651,"Ġcohesion":7652,"Ġcomfortable":7653,"Ġprovider":7654,"Ġmandates":7655,"oma":7656,"Ġcultures":7657,"Ġbonds":7658,"dering":7659,"Ġcum":7660,"Ġict":7661,"aug":7662,"Ġpropose":7663,"Ġpartly":7664,"Ġairlines":7665,"Ġtimor":7666,"Ġnotably":7667,"Ġsick":7668,"Ġfeeling":7669,"oler":7670,"Ã³n":7671,"nor":7672,"Ġsynthe":7673,"Ġlegally":7674,"Ġwinner":7675,"Ġosce":7676,"Ġeyes":7677,"retion":7678,"Ġconvinced":7679,"Ġessentially":7680,"Ġviet":7681,"Ġoppon":7682,"morrow":7683,"Ġcease":7684,"Ġ68":7685,"Ġoccurs":7686,"Ġgrown":7687,"Ġjournalists":7688,"ailand":7689,"fts":7690,"Ġdisclos":7691,"mentioned":7692,"Ġtub":7693,"Ġmaxim":7694,"1998":7695,"Ġexhibit":7696,"aneous":7697,"Ġtomorrow":7698,"Ġowing":7699,"Ġbail":7700,"Ġattach":7701,"Ġlithu":7702,"Ġreferring":7703,"Ġgained":7704,"Ġcredits":7705,"Ġmaybe":7706,"Ġshop":7707,"har":7708,"Ġmeasuring":7709,"Ġchoices":7710,"Ġrenewed":7711,"Ġinteraction":7712,"Ġhereby":7713,"Ġthorough":7714,"Ġladies":7715,"Ġnas":7716,"adow":7717,"Ġinvestigators":7718,"ius":7719,"oman":7720,"Ġsomalia":7721,"writ":7722,"Ġshif":7723,"Ġdignity":7724,"Ġchann":7725,"Ġconstitutes":7726,"Ġreviewing":7727,"Ġturkish":7728,"Ġtank":7729,"Ġlisbon":7730,"uro":7731,"Ġmerg":7732,"\")":7733,"anne":7734,"Ġexpensive":7735,"Ġentering":7736,"gary":7737,"unity":7738,"Ġsuspected":7739,"Ġnationality":7740,"Ġhair":7741,"Ġmorocco":7742,"Ġratified":7743,"Ġadvised":7744,"Ġdiscovered":7745,"cla":7746,"Ġpoliticians":7747,"Ġcoff":7748,"Ġdirectives":7749,"Ġadvocacy":7750,"Ġexhibition":7751,"Ġ72":7752,"Ġlicense":7753,"Ġarrival":7754,"Ġacknowledge":7755,"Ġovercome":7756,"cription":7757,"Ġswiss":7758,"Ġadaptation":7759,"Ġorgans":7760,"anim":7761,"continued":7762,"Ġproductive":7763,"Ġ97":7764,"index":7765,"onym":7766,"Ġod":7767,"mis":7768,"Ġenlarge":7769,"Ġregulated":7770,"Ġreput":7771,"proliferation":7772,"Ġstudied":7773,"Ġfly":7774,"Ġelev":7775,"Ġpractition":7776,"sized":7777,"Ġhelic":7778,"Ġtruly":7779,"Ġdrivers":7780,"inn":7781,"bar":7782,"Ġ2013":7783,"Ġsituated":7784,"Ġbegun":7785,"Ġfootnote":7786,"Ġleaves":7787,"Ġresponding":7788,"Ġviolent":7789,"Ġcomposed":7790,"Ġ(\"":7791,"Ġintegrate":7792,"Ġappointments":7793,"Ġ`":7794,"Ġdifficulty":7795,"Ġmadrid":7796,"Ġoriginally":7797,"apore":7798,"gments":7799,"Ġseeing":7800,"Ġcatch":7801,"Ã¨re":7802,"Ġlived":7803,"Ġassignment":7804,"Ġrow":7805,"Ġscand":7806,"tw":7807,"Ġorganised":7808,"hus":7809,"Ġindicating":7810,"mad":7811,"Ġende":7812,"Ġmold":7813,"Ġpill":7814,"Ġsugar":7815,"Ġroma":7816,"Ġhighlights":7817,"lev":7818,"82":7819,"Ġsalv":7820,"Ġliver":7821,"Ġregret":7822,"Ġmerit":7823,"Ġaccred":7824,"market":7825,"def":7826,"Ġbelief":7827,"imed":7828,"Ġpharmaceutical":7829,"Ġsubstantially":7830,"Ġdesk":7831,"Ġprize":7832,"Ġlosing":7833,"Ġdelegates":7834,"sis":7835,"access":7836,"Ġappropriations":7837,"Ġworse":7838,"Ġmovements":7839,"enezuel":7840,"atch":7841,"600":7842,"Ġreferendum":7843,"Ġnunavut":7844,"Ġunac":7845,"Ġunece":7846,".-":7847,"ci":7848,"arms":7849,"Ġchampion":7850,"Ġseminars":7851,"Ġalter":7852,"Ġindicator":7853,"sex":7854,"Ġjones":7855,"commission":7856,"Ġpwgsc":7857,"Ġoperated":7858,"Ġendor":7859,".:":7860,"Ġcrossing":7861,"Ġdrew":7862,"Ġevolution":7863,"Ġadvancement":7864,"Ġinequ":7865,"Ġcounterpart":7866,"otechnology":7867,"Ġreception":7868,"Ġcommons":7869,"Ġconstraints":7870,"Ġpollut":7871,"Ġintegral":7872,"Ġpeak":7873,"Ġadminister":7874,"Ġendeav":7875,"Ġaffir":7876,"star":7877,"Ġmp":7878,"Ġ73":7879,"case":7880,"Ġthemes":7881,"Ġregarded":7882,"Ġeat":7883,"].":7884,"ructuring":7885,"oud":7886,"Ġobservation":7887,"Ġmarried":7888,"Ġunhcr":7889,"Ġsomewhat":7890,"Ġaside":7891,"Ġalger":7892,"Ġrental":7893,"Ġvocational":7894,"Ġdecreased":7895,"Ġanth":7896,"Ġthailand":7897,"Ġconcluding":7898,"Ġminute":7899,"Ġecu":7900,"Ġjon":7901,"inson":7902,"Ġpeer":7903,"Ġperu":7904,"Ġmunicipalities":7905,"Ġenvis":7906,"which":7907,"Ġswim":7908,"may":7909,"Ġcutting":7910,"Ġjo":7911,"box":7912,"ulates":7913,"Ġwinnipeg":7914,"Ġlov":7915,"Ġobviously":7916,"Ġsolely":7917,"orient":7918,"raising":7919,"Ġcida":7920,"Ġreservations":7921,"Ġcompromise":7922,"Ġlisting":7923,"Ġcooperative":7924,"Ġroads":7925,"Ġmetro":7926,"Ġheavily":7927,"Ġdies":7928,"Ġct":7929,"tegration":7930,"250":7931,"Ġthrow":7932,"Ġdfo":7933,"Ġassault":7934,"Ġstars":7935,"Ġsensit":7936,"Ġsubsidies":7937,"Ġsympt":7938,"Ġash":7939,"Ġtrig":7940,"fund":7941,"Ġsignal":7942,"Ġgeographic":7943,"Ġinvitation":7944,"Ġax":7945,"Ġexclus":7946,"ket":7947,"Ġserves":7948,"Ġpremier":7949,"Ġhelicop":7950,"Ġalbum":7951,"imony":7952,"ivo":7953,"Ġld":7954,"zing":7955,"Ġvisual":7956,"Ġfounded":7957,"Ġvirus":7958,"Ġhong":7959,"ourse":7960,"Ġshore":7961,"Ġpreval":7962,"Ġfalse":7963,"six":7964,"Ġgrew":7965,"Ġlod":7966,"Ġlies":7967,"stone":7968,"Ġmyself":7969,"Ġsurplus":7970,"Ġdnd":7971,"Ġcommander":7972,"Ġanalyses":7973,"Ġkenya":7974,"amin":7975,"Ġarguments":7976,"umped":7977,"Ġasp":7978,"Ġwages":7979,"jections":7980,"count":7981,"ifax":7982,"mc":7983,"discr":7984,"Ġsovereignty":7985,"Ġexecutives":7986,"Ġchannels":7987,"riptions":7988,"Ġia":7989,"llers":7990,"Ġaustralian":7991,"omic":7992,"Ġvenezuel":7993,"Ġrestructuring":7994,"ache":7995,"Ġstreets":7996,"minent":7997,"Ġreporters":7998,"Ġkong":7999,"Ġpublishing":8000,"Ġapparently":8001,"Ġidrc":8002,"Ġvictoria":8003,"european":8004,"Ġbilingual":8005,"Ġconvers":8006,"ivals":8007,"Ġcharl":8008,"Ġecological":8009,"soft":8010,"Ġusa":8011,"Ġabc":8012,"aded":8013,"Ġ98":8014,"Ġdeparture":8015,"Ġwarned":8016,"Ġkim":8017,"ilation":8018,"Ġpier":8019,"Ġkinds":8020,"Ġethiop":8021,"Ġhyp":8022,"Ġharass":8023,"ja":8024,"Ġbankrupt":8025,"Ġcontemporary":8026,"lec":8027,"Ġappearance":8028,"Ġparameters":8029,"Ġarmen":8030,"Ġoutreach":8031,"Ġcaught":8032,"plan":8033,"Ġjail":8034,"Ġ03":8035,"ading":8036,"cul":8037,"Ġempower":8038,"rators":8039,"Ġmir":8040,"ensee":8041,"antly":8042,"Ġcig":8043,"Ġlingu":8044,"Ġ07":8045,"Ġtourna":8046,"Ġinvite":8047,"Ġemerged":8048,"Ġmanif":8049,"Ġurg":8050,"rais":8051,"Ġlamp":8052,"Ġalign":8053,"Ġsecured":8054,"Ġru":8055,"gi":8056,"Ġpromoted":8057,"Ġ05":8058,"Ġyellow":8059,"otal":8060,"Ġ!":8061,"Ġrelates":8062,"Ġexpanding":8063,"Ġfib":8064,"effective":8065,"Ġweekly":8066,"Ġarchitecture":8067,"Ġdisasters":8068,"Ġdescribes":8069,"Ġjurisdictions":8070,"Ġcertified":8071,"Ġassume":8072,"Ġinterv":8073,"Ġrespecting":8074,"Ġradiation":8075,"Ġsad":8076,"eper":8077,"Ġblow":8078,"Ġsingapore":8079,"iot":8080,"bat":8081,"Ġsenator":8082,"icks":8083,"Ġresolved":8084,"Ġexceeding":8085,"Ġmilk":8086,"Ġdevoted":8087,"Ġcalculation":8088,"borne":8089,"friend":8090,"pel":8091,"Ġshipping":8092,"Ġcrowd":8093,"Ġcorn":8094,"Ġps":8095,"Ġnavy":8096,"Ġmalays":8097,"Ġgovernmental":8098,"Ġinstitutes":8099,"Ġethical":8100,"Ġconcepts":8101,"kin":8102,"Ġshortly":8103,"Ġohio":8104,"Ġassumed":8105,"Ġraw":8106,"Ġbru":8107,"Ġyugoslavia":8108,"Ġhence":8109,"79":8110,"ooth":8111,"Ġ\\":8112,"Ġconjunction":8113,"Ġari":8114,"Ġclarify":8115,"Ġring":8116,"ĠrÃ©":8117,"Ġsul":8118,"Ġron":8119,"ups":8120,"Ġreservation":8121,"hi":8122,"Ġacademy":8123,"Ġslovenia":8124,"ran":8125,"Ġnegotiating":8126,"Ġdisappear":8127,"umber":8128,"Ġonto":8129,"Ġlicensee":8130,"Ġpregnancy":8131,"Ġobtaining":8132,"race":8133,"Ġcompuls":8134,"sim":8135,"Ġyounger":8136,"Ġpossess":8137,"Ġsuspect":8138,"Ġnorms":8139,"Ġ69":8140,"Ġseventh":8141,"Ġourselves":8142,"Ġcausing":8143,"Ġprospects":8144,"Ġtang":8145,"Â®":8146,"Ġgreatly":8147,"Ġhero":8148,"elect":8149,"Ġmerely":8150,"Ġfleet":8151,"Ġparallel":8152,"Ġmayor":8153,"Ġmd":8154,"Ġrwanda":8155,"mic":8156,"iration":8157,"Ġmortgage":8158,"Ġmediterranean":8159,"Ġera":8160,"fra":8161,"71":8162,"Ġhorizontal":8163,"ras":8164,"Ġparking":8165,"Ġadviser":8166,"Ġbob":8167,"ressive":8168,"Ġmemory":8169,"Ġexchanges":8170,"Ġzero":8171,"Ġmenu":8172,"Ġboat":8173,"Ġrely":8174,"Ġaggreg":8175,"Ġautomatically":8176,"factory":8177,"itt":8178,"Ġnegotiation":8179,"Ġthematic":8180,"fourth":8181,"south":8182,"Ġ76":8183,"Ġprevail":8184,"date":8185,"Ġremark":8186,"Ġ78":8187,"ophob":8188,"Ġinadequate":8189,"Ġjew":8190,"Ġrespected":8191,"Ġflights":8192,"Ġaver":8193,"Ġconstitu":8194,"Ġdeeply":8195,"Ġproceeds":8196,"docu":8197,"Ġsuicide":8198,"Ġinstruct":8199,"Ġpreventive":8200,"Ġcharles":8201,"never":8202,"ordinary":8203,"heast":8204,"Ġassisting":8205,"Ġgentlemen":8206,"inform":8207,"Ġextrad":8208,"Ġembassy":8209,"Ġnearby":8210,"pd":8211,"Ġstruck":8212,"Ġdepth":8213,"Ġevaluations":8214,"Ġlease":8215,"Ġshell":8216,"bod":8217,"Ġyourself":8218,"Ġstopped":8219,"ucks":8220,"Ġadapted":8221,"Ġsalt":8222,"inburgh":8223,"Ġsmoke":8224,"Ġcomparable":8225,"Ġadvances":8226,"Ġceleb":8227,"Ġpolls":8228,"Ġsharp":8229,"Ġintroducing":8230,"Ġdiscretion":8231,"Ġtexts":8232,"secret":8233,"Ġnavigation":8234,"Ġbargain":8235,"american":8236,"Ġstret":8237,"Ġspecialist":8238,"Ġmike":8239,"Ġaccountable":8240,"Ġbroken":8241,"Ġtypical":8242,"Ġalt":8243,"Ġlev":8244,"umes":8245,"Ġjuvenile":8246,"Ġ84":8247,"Ġdriven":8248,"Ġadopting":8249,"llor":8250,"shore":8251,"Ġbacter":8252,"Ġabol":8253,"Ġimprisonment":8254,"order":8255,"Ġroot":8256,"Ġphilippines":8257,"iban":8258,"Ġbulletin":8259,"Ġauditors":8260,"Ġcarriers":8261,"Ġgam":8262,"Ġvirginia":8263,"Ġadjusted":8264,"Ġarbitration":8265,"Ġsym":8266,"exp":8267,"territ":8268,"Ġreinforce":8269,"requ":8270,"Ġmacro":8271,"74":8272,"Ġincidence":8273,"Ġplane":8274,"Ġacquire":8275,"treat":8276,"Ġabsor":8277,"Ġquiet":8278,"Ġarise":8279,"develop":8280,"Ġpure":8281,"Ġkb":8282,"anmar":8283,"teenth":8284,"Ġsampling":8285,"76":8286,"hour":8287,"Ġdress":8288,"ders":8289,"Ġpresentations":8290,"Ġtree":8291,"Ġmoral":8292,"Ġhaiti":8293,"Ġevident":8294,"itely":8295,"Ġfilled":8296,"Ġsending":8297,"Ġns":8298,"ller":8299,"72":8300,"Ġmarginal":8301,"Ġforestry":8302,"Ġexecution":8303,"Ġcalgary":8304,"monton":8305,"Ġduplic":8306,"Ġ250":8307,"cut":8308,"Ġassisted":8309,"Ġvig":8310,"Ġinvites":8311,"ulum":8312,"Ġframeworks":8313,"Ġprojected":8314,"Ġimpose":8315,"fp":8316,"missible":8317,"Ġvolunteer":8318,"Ġreputation":8319,"determin":8320,"Ġdiffer":8321,"income":8322,"Ġservants":8323,"Ġscholars":8324,"Ġstan":8325,"Ġrus":8326,"Ġcharity":8327,"iov":8328,"utor":8329,"Ġages":8330,"atemal":8331,"ido":8332,"Ġpassing":8333,"Ġbegins":8334,"Ġbiodiversity":8335,"Ġventure":8336,"fta":8337,"nity":8338,"Ġtransnational":8339,"Ġther":8340,"woman":8341,"Ġexcise":8342,"Ġgolf":8343,"kers":8344,"Ġpreserve":8345,"Ġkuwait":8346,"Ġneut":8347,"Ġreceives":8348,"Ġwalking":8349,"lements":8350,"town":8351,"Ġspecifications":8352,"eded":8353,"Ġaudits":8354,"Ġpalestine":8355,"Ġsubregional":8356,"Ġlandscape":8357,"Ġlithuania":8358,"Ġharmonization":8359,"Ġceremony":8360,"Ġbroadc":8361,"Ġmakers":8362,"Ġvisiting":8363,"enza":8364,"Ġdelays":8365,"Ġirish":8366,"Ġozone":8367,"fif":8368,"Ġorientation":8369,"emen":8370,"utors":8371,"aves":8372,"Ġformulation":8373,"Ġcorrections":8374,"81":8375,"Ġexclusively":8376,"Ġ120":8377,"Ġexcessive":8378,"Ġpremises":8379,"Ġisolated":8380,"Ġdeterior":8381,"Ġunus":8382,"Ġcarolina":8383,"pson":8384,"pi":8385,"location":8386,"Ġpin":8387,"Ġfocuses":8388,"sr":8389,"Ġextract":8390,"Ġcouldn":8391,"Ġproposes":8392,"Ġhappens":8393,"Ġunknown":8394,"Ġmusical":8395,"Ġtonnes":8396,"Ġcompulsory":8397,"Ġmigrant":8398,"Ġgenerations":8399,"sor":8400,"Ġcriticism":8401,"Ġbought":8402,"1997":8403,"Ġpair":8404,".'":8405,"Ġburund":8406,"Ġmachines":8407,"Ġshr":8408,"gery":8409,"Ġfinish":8410,"ashed":8411,"Ġmaced":8412,"foot":8413,"Ġsplit":8414,"Ġfairly":8415,"Ġrecipients":8416,"grap":8417,"chester":8418,"Ġedinburgh":8419,"tele":8420,"Ġexamining":8421,"Ġcargo":8422,"Ġundertakings":8423,"Ġseniors":8424,"Ġdiabet":8425,"Ġsupplier":8426,"orous":8427,"Ġinfant":8428,"Ġconsistently":8429,"Ġabsolutely":8430,"depart":8431,"Ġmu":8432,"Ġcompounds":8433,"Ġusual":8434,"Ġstresses":8435,"Ġdefer":8436,"iest":8437,"Ġtransformation":8438,"Ã±":8439,"Ġmount":8440,"Ġchildhood":8441,"pass":8442,"Ġbreach":8443,"Ġkaz":8444,"worth":8445,"anches":8446,"Ġeradication":8447,"hc":8448,"Ġpublis":8449,"Ġliaison":8450,"Ġspecify":8451,"Ġstarts":8452,"Ġanalytical":8453,"fish":8454,"Ġxen":8455,"Ġphysicians":8456,"Ġ71":8457,"ivation":8458,"Ġticket":8459,"Ġallegedly":8460,"ilton":8461,"Ġfan":8462,"Ġlam":8463,"ighter":8464,"Ġenorm":8465,"Ġstruggle":8466,"Ġdelivering":8467,"polit":8468,"Ġbou":8469,"Ġdirections":8470,"Ġdeployed":8471,"Ġclothing":8472,"Ġrequesting":8473,"ho":8474,"eding":8475,"Ġassociate":8476,"Ġeconomics":8477,"Ġinvas":8478,"Ġzones":8479,"Ġtaliban":8480,"Ġinstalled":8481,"Ġconstructive":8482,"Ġlee":8483,"Ġplate":8484,"omin":8485,"ĠÂ«":8486,"Ġdose":8487,"Ġdj":8488,"Ġaggress":8489,"tre":8490,"Ġsuspic":8491,"Ġhaven":8492,"Ġabd":8493,"Ġadvantages":8494,"bul":8495,"Ġspouse":8496,"Ġconsequence":8497,"Ġesc":8498,"ottawa":8499,"ml":8500,"Ġmyanmar":8501,"irt":8502,"Ġensures":8503,"Ġbuying":8504,"erted":8505,"oping":8506,"Ġtheory":8507,"vency":8508,"Ġelectrical":8509,"Ġprotests":8510,"Ġretention":8511,"Ġquot":8512,"Ġdestroyed":8513,"Ġsafeguards":8514,"Ġdismissed":8515,"Ġmissed":8516,"Ġmode":8517,"aux":8518,"Ġclinton":8519,"Ġjustified":8520,"Ġdeposited":8521,"ionally":8522,"Ġtoll":8523,"Ġparticipant":8524,"Ġsuite":8525,"Ġattitudes":8526,"eless":8527,"Ġoffset":8528,"Ġproven":8529,"Ġinvestigating":8530,"Ġcos":8531,"Ġdecree":8532,"Ġpieces":8533,"Ġprocessed":8534,"Ġstone":8535,"Ġunanim":8536,"Ġviewed":8537,"Ġcamera":8538,"lades":8539,"acult":8540,"Ġconsistency":8541,"Ġinm":8542,"Ġconsec":8543,"Ġ94":8544,"Ġhyper":8545,"Ġhalifax":8546,"Ġmanifest":8547,"Ġbiotechnology":8548,"Ġfi":8549,"Ġinstruction":8550,"Ġsr":8551,"Ġmurray":8552,"Ġends":8553,"Ġcompete":8554,"pers":8555,"osph":8556,"Ġjul":8557,"Ġinclusive":8558,"Ġlawrence":8559,"othes":8560,"Ġruled":8561,"Ġsecondly":8562,"Ġtact":8563,"such":8564,"Ġdiabetes":8565,"Ġfred":8566,"env":8567,"Ġlabelling":8568,"Ġinsol":8569,"Ġadequately":8570,"Ġseconds":8571,"Ġextraordinary":8572,"Ġperceived":8573,"cop":8574,"Ġfrust":8575,"Ġevaluated":8576,"Ġmetals":8577,"Ġrick":8578,"Ġjos":8579,"Ġathletes":8580,"ami":8581,"Ġuganda":8582,"Ġgop":8583,"rea":8584,"Ġdesignation":8585,"Ġfurniture":8586,"Ġunity":8587,"Ġadolesc":8588,"Ġliabilities":8589,"Ġly":8590,"child":8591,"Ġpregnant":8592,"ett":8593,"Ġceo":8594,"unt":8595,"Ġintoler":8596,"Ġspecialists":8597,"Ġsuperior":8598,"mann":8599,"Ġguatemal":8600,"Ġsubjected":8601,"=\"":8602,"Ġkel":8603,"Ġdance":8604,"Ġunep":8605,"Ġlicences":8606,"uracy":8607,"Ġsuffer":8608,"Ġpap":8609,"born":8610,"Ġincorporate":8611,"Ġcommodity":8612,"cow":8613,"wart":8614,"Ġcape":8615,"Ġcapture":8616,"ski":8617,"Ġ963":8618,"lla":8619,"Ġkick":8620,"international":8621,"Ġprospect":8622,"Ġinteractive":8623,"Ġapartment":8624,"ĠcÃ´":8625,"velo":8626,"Ġalternate":8627,"office":8628,"Ġhotels":8629,"Ġstephen":8630,"cho":8631,"Ġenvironments":8632,"Ġrh":8633,"Ġtrips":8634,"Ġestablishments":8635,"Ġroman":8636,"Ġcommence":8637,"rogen":8638,"Ġgang":8639,"Ġholders":8640,"Ġft":8641,"Ġdumping":8642,"Ġcnn":8643,"Ġrober":8644,"Ġremedies":8645,"Ġinstances":8646,"Ġfishery":8647,"Ġreintegration":8648,"Ġtherapy":8649,"Ġaccounted":8650,"anging":8651,"ceptable":8652,"Ġfailing":8653,"Ġgathered":8654,"Ġsupposed":8655,"Ġimpart":8656,"Ġdetection":8657,"iatric":8658,"Ġpup":8659,"Ġ74":8660,"Ġwheat":8661,"Ġaccidents":8662,"Ġhearings":8663,"Ġsalaries":8664,"Ġtestimony":8665,"Ġworry":8666,"Ġcot":8667,"Ġcul":8668,"Ġdistinction":8669,"Ġvaccine":8670,"Ġsudden":8671,"uous":8672,"Ġcel":8673,"Ġvisa":8674,"provin":8675,"Ġpsychological":8676,"Ġdesigns":8677,"due":8678,"Ġintends":8679,"Ġcrtc":8680,"Ġdetained":8681,"Ġdeduct":8682,"atus":8683,"Ġmadam":8684,"Ġmalaysia":8685,"Ġdens":8686,"Ġpreferred":8687,"Ġtolerance":8688,"pectives":8689,"Ġwouldn":8690,"Ġmixt":8691,"Ġbelonging":8692,"Ġcollections":8693,"rome":8694,"cultural":8695,"aine":8696,"Ġseparation":8697,"Ġnomination":8698,"eds":8699,"Ġcrops":8700,"Ġunfair":8701,"Ġpossibilities":8702,"Ġdesert":8703,"owned":8704,"Ġ81":8705,"Ġiraqi":8706,"Ġties":8707,"rooms":8708,"Ġlank":8709,"tering":8710,"Ġecosystems":8711,"inf":8712,"Ġsla":8713,"Ġiranian":8714,"Ġtackle":8715,"Ġenlargement":8716,"inger":8717,"Ġwoods":8718,"Ġdiscip":8719,"Ġposed":8720,"Ġcu":8721,"Ġjersey":8722,"Ġexceptions":8723,"Ġreim":8724,"Ġprair":8725,"Ġjudiciary":8726,"Ġprocedural":8727,"Ġalgeria":8728,"Ġaquatic":8729,"Ġmothers":8730,"Ġpurchased":8731,"Ġprinted":8732,"Ġnotified":8733,"Ġrefusal":8734,"Ġyemen":8735,"Ġpertaining":8736,"Ġmercury":8737,"Ġpatents":8738,"Ġpipeline":8739,"Ġreflecting":8740,"Ġactivists":8741,"Ġpy":8742,"Ġrecalls":8743,"Ġpermission":8744,"Ġelderly":8745,"Ġacute":8746,"Ġinternally":8747,"Ġmas":8748,"Ġ96":8749,"Ġolympics":8750,"Ġperspectives":8751,"Ġsentenced":8752,"Ġreuters":8753,"Ġerrors":8754,"ads":8755,"Ġdiet":8756,"apse":8757,"Ġweakness":8758,"este":8759,"Ġdutch":8760,"Ġpensions":8761,"Ġrestore":8762,"appropri":8763,"Ġcoffee":8764,"Ġbills":8765,"Ġsupplied":8766,"Ġpeacebuilding":8767,"pard":8768,".âĢĻ":8769,"Ġmarsh":8770,"leum":8771,"Ġsubcommittee":8772,"ladesh":8773,"rer":8774,"zed":8775,"Ġcontinent":8776,"opol":8777,"Ġministries":8778,"Ġdimensions":8779,"Ġblog":8780,"Ġinland":8781,"Ġidentical":8782,"Ġshopping":8783,"aire":8784,"hs":8785,"Ġcasual":8786,"Ġtaxable":8787,"Ġbin":8788,"Ġtb":8789,"Ġsymptoms":8790,"Ġcomparative":8791,"irable":8792,"Ġpreparedness":8793,"Ġcontractor":8794,"Ġtemperatures":8795,"phy":8796,"Ġapprove":8797,"Ġharmful":8798,"iox":8799,"dam":8800,"Ġunfpa":8801,"Ġvenezuela":8802,"Ġhelpful":8803,"Ġrangers":8804,"oll":8805,"Ġlasting":8806,"ugg":8807,"Ġjoe":8808,"Ġbright":8809,"âĤ¬":8810,"Ġreasonably":8811,"Ġmonitored":8812,"Ġcertificates":8813,"Ġstrip":8814,"Ġoutbreak":8815,"ounder":8816,"provincial":8817,"kb":8818,"Ġsri":8819,"Ġcow":8820,"Ġsufficiently":8821,"Ġlinguistic":8822,"Ġentertainment":8823,"Ġstad":8824,"Ġaccuracy":8825,"Ġmitigation":8826,"Ġburundi":8827,"Ġgazette":8828,"Ġjeff":8829,"Ġtracking":8830,"rative":8831,"Ġcouncils":8832,"Ġchecks":8833,"Ġarabia":8834,"oline":8835,"Ġbroke":8836,"country":8837,"Ġfaster":8838,"Ġhorse":8839,"fifth":8840,"ingly":8841,"Ġtab":8842,"ulative":8843,"Ġcontributes":8844,"Ġconsisting":8845,"Ġshap":8846,"Ġinspector":8847,"Ġ86":8848,"Ġhu":8849,"Ġ1982":8850,"mm":8851,"Ġforget":8852,"Ġtournament":8853,"Ġlobby":8854,"hips":8855,"Ġmun":8856,"Ġliteracy":8857,"Ġhealthcare":8858,"Ġmeaningful":8859,"Ġwars":8860,"Ġcomplexity":8861,"Ġhou":8862,"Ġlas":8863,"Ġsoph":8864,"Ġmacedonia":8865,"Ġliberty":8866,"nam":8867,"Ġexit":8868,"Ġforthcoming":8869,"Ġmitig":8870,"alling":8871,"Ġethiopia":8872,"Ġpresum":8873,"aculture":8874,"Ġrestoration":8875,"mans":8876,"Ġdinner":8877,"Ġinfluenza":8878,"Ġnewspapers":8879,"Ġconsulted":8880,"Ġbarack":8881,"Ġmontene":8882,"rape":8883,"Ġram":8884,"Ġsemi":8885,"vo":8886,"Ġrival":8887,"Ġ89":8888,"arians":8889,"Ġmichel":8890,"Ġautomatic":8891,"Ġsimult":8892,"Ġspr":8893,"Ġprejudice":8894,"Ġpackaging":8895,"Ġhumans":8896,"Ġflying":8897,"Ġenjoyment":8898,"Ġconversion":8899,"ethe":8900,"Ġhandle":8901,"ologist":8902,"Ġdefault":8903,"Ġurge":8904,"Ġrestaurants":8905,"Ġ1984":8906,"Ġ83":8907,"Ġutilization":8908,"Ġnursing":8909,"Ġbreat":8910,"Ġluck":8911,"Ġslovakia":8912,"Ġtwel":8913,"Ġedmonton":8914,"Ġcoc":8915,"Ġplain":8916,"rect":8917,"Ġballot":8918,"Ġfirearms":8919,"Ġdna":8920,"Ġcler":8921,"regular":8922,"Ġgrave":8923,"contract":8924,"Ġissuance":8925,"Ġcigare":8926,"Ġga":8927,"Ġconsultant":8928,"Ġchel":8929,"ione":8930,"Ġlending":8931,"Ġindu":8932,"Ġheaded":8933,"istence":8934,"Ġpharmac":8935,"Ġkorean":8936,"eda":8937,"Ġinvestigated":8938,"Ġstuff":8939,"held":8940,"atar":8941,"Ġdatabases":8942,"agen":8943,"Ġearn":8944,"Ġassad":8945,"Ġdefining":8946,"Ġtermination":8947,"700":8948,"esters":8949,"gas":8950,"Ġchristmas":8951,"Ġ1960":8952,"Ġrecession":8953,"Ġmolec":8954,"Ġaren":8955,"Ġpackages":8956,"Ġattending":8957,"Ġattain":8958,"Ġ800":8959,"{\\":8960,"Ġwave":8961,"Ġbulk":8962,"Ġ93":8963,"Ġvend":8964,"Ġsteve":8965,"Ġdegrees":8966,"ourage":8967,"Ġhumanity":8968,"Ġaquaculture":8969,"Ġwatching":8970,"Ġamid":8971,"oriented":8972,"kins":8973,"amm":8974,"lywood":8975,"Ġharassment":8976,"Ġlatvia":8977,"Ġcomputers":8978,"Ġlunch":8979,"rar":8980,"Ġretained":8981,"Ġgrate":8982,"Ġpaint":8983,"Ġjourney":8984,"Ġsilver":8985,"Ġchallenging":8986,"hem":8987,"gence":8988,"Ġliv":8989,"Ġgathering":8990,"Ġcontaminated":8991,"Ġsept":8992,"Ġgear":8993,"Ġadds":8994,"Ġ92":8995,"ĠÎ¼":8996,"Ġphenomenon":8997,"Ġfinanced":8998,"Ġ82":8999,"Ġsolar":9000,"Ġarsen":9001,"Ġaudio":9002,"fted":9003,"Ġjoseph":9004,"Ġconsecutive":9005,"Ġyards":9006,"ora":9007,"Ġwins":9008,"Ġboundaries":9009,"Ġnotify":9010,"Ġdebates":9011,"Ġconviction":9012,"Ġtay":9013,"Ġsout":9014,"imer":9015,"Ġdiscipline":9016,"enh":9017,"Ġfrequent":9018,"Ġeuros":9019,"Ġremun":9020,"Ġsurprising":9021,"Ġvulnerability":9022,"Ġrepeatedly":9023,"Ġscrut":9024,"Ġvirtually":9025,"Ġtiming":9026,"Ġgab":9027,"Ġneighb":9028,"Ġmile":9029,"Ġbranches":9030,"Ġqualify":9031,"Ġbatt":9032,"Ġbost":9033,"Ġattitude":9034,"Ġgate":9035,"lang":9036,"who":9037,"Ġece":9038,"Ġcurriculum":9039,"week":9040,"Ġconsolidation":9041,"Ġimf":9042,"Ġsurf":9043,"Ġmoves":9044,"Ġpestic":9045,"Ġincons":9046,"sites":9047,"Ġaccessibility":9048,"risk":9049,"Ġfired":9050,"Ġdub":9051,"Ġcbsa":9052,"Ġsurgery":9053,"kg":9054,"agement":9055,"paid":9056,"Ġeurozone":9057,"Ġfarming":9058,"illa":9059,"Ġmontenegro":9060,"Ġreass":9061,"Ġliberia":9062,"Ġheating":9063,"Ġwelcoming":9064,"kt":9065,"Ġclubs":9066,"Ġtravelling":9067,"Ġcrack":9068,"mun":9069,"Ġroughly":9070,"Ġbiom":9071,"Ġcredibility":9072,"Ġattendance":9073,"Ġfas":9074,"Ġnur":9075,"Ġanonym":9076,"Ġseparately":9077,"Ġwhenever":9078,"Ġexpresses":9079,"ser":9080,"Ġnetworking":9081,"ophobia":9082,"Ġ79":9083,"Ġlag":9084,"programme":9085,"ella":9086,"Ġiceland":9087,"bridge":9088,"Ġstabil":9089,"Ġconsiderably":9090,"Ġdamages":9091,"description":9092,"Ġpreservation":9093,"ricts":9094,"Ġdemographic":9095,"Ġmoldova":9096,"Ġgift":9097,"Ġbangladesh":9098,"Ġobjection":9099,"Ġsmooth":9100,"Ġaccommodate":9101,".).":9102,"Ġnos":9103,"Ġliable":9104,"Ġpip":9105,"Ġvs":9106,"Ġguided":9107,"ails":9108,"Ġhonor":9109,"Ġmaps":9110,"Ġlibr":9111,"han":9112,"Ġalongside":9113,"Ġunders":9114,"?âĢĿ":9115,"Ġorganize":9116,"Ġepp":9117,"english":9118,"quality":9119,"',":9120,"Ġshareholders":9121,"Ġformally":9122,"Ġsulph":9123,"idity":9124,"Ġrent":9125,"Ġpetroleum":9126,"atal":9127,"Ġmetres":9128,"Ġneighbouring":9129,"str":9130,"text":9131,"Ġ600":9132,"Ġprotein":9133,"hentic":9134,"Ġbrid":9135,"Ġrod":9136,"Ġmoscow":9137,"acters":9138,"Ġenormous":9139,"night":9140,"tar":9141,"Ġoutlook":9142,"Ġoperates":9143,"Ġguatemala":9144,"Ġtabled":9145,"astern":9146,"iances":9147,"Ġtowns":9148,"Ġinterd":9149,"Ġunesco":9150,"issue":9151,"Ġadmission":9152,"Ġlogistics":9153,"ï¿½ï¿½":9154,"âĢľ":9155,"Ġresumed":9156,"endum":9157,"Ġell":9158,"Ġfrancisco":9159,"Ġradical":9160,"Ġaffordable":9161,"Ġrefe":9162,"Ġwithdraw":9163,"'.":9164,"ifer":9165,"urrent":9166,"Ġestonia":9167,"enegal":9168,"Ġcounselling":9169,"resolution":9170,"Ġcharacters":9171,"Ġtunisia":9172,"Ġtwe":9173,"Ġeco":9174,"Ġextending":9175,"door":9176,"item":9177,"Ġride":9178,"Ġadvise":9179,"Ġversus":9180,"Ġenem":9181,"Ġremedy":9182,"Ġexperimental":9183,"Ġecuador":9184,"ouses":9185,"Ġofficially":9186,"Ġcomplementary":9187,"ila":9188,"Ġdistricts":9189,"Ġprosperity":9190,"Ġhin":9191,"Ġpose":9192,"Ġdarfur":9193,"Ġexplains":9194,"Ãł":9195,"Ġmaintains":9196,"iencies":9197,"Ġtrouble":9198,"Ġenjoyed":9199,"Ġvirtual":9200,"Ġ91":9201,"Ġtap":9202,"Ġkir":9203,"Ġphysician":9204,"Ġphilos":9205,"Ġroutes":9206,"Ġmicrosoft":9207,"Ġdramatic":9208,"lining":9209,"Ġcareful":9210,"Ġbrook":9211,"rine":9212,"icultural":9213,"Ġepis":9214,"ĠcÃ´te":9215,"Ġstring":9216,"una":9217,"mont":9218,"Ġtargeting":9219,"necess":9220,"Ġ09":9221,"Ġnegotiated":9222,"Ġinval":9223,"Ġstro":9224,"Ġboston":9225,"Ġactor":9226,"Ġoxy":9227,"Ġrenov":9228,"Ġ101":9229,"Ġultimate":9230,"Ġpursued":9231,"Ġtalent":9232,"play":9233,"Ġsleep":9234,"istry":9235,"Ġappreciate":9236,"utable":9237,"Ġsurprise":9238,"Ġdisturb":9239,"rapeut":9240,"Ġenthus":9241,"Ġbigger":9242,"Ġmomentum":9243,"Ġdaniel":9244,"Ġlac":9245,"Ġclosure":9246,"Ġmoderate":9247,"Ġunemployed":9248,"author":9249,"Ġdocumented":9250,"Ġmol":9251,"Ġeating":9252,"pool":9253,"Ġnutri":9254,"uration":9255,"Ġseized":9256,"Ġlanka":9257,"produ":9258,"heric":9259,"Ġabund":9260,"Ġadolescents":9261,"Ġease":9262,"Ġmediation":9263,"Ġkazak":9264,"Ġprostitution":9265,"commer":9266,"proactive":9267,"Ġcluster":9268,"Ġpractitioners":9269,"Ġcauc":9270,"bted":9271,"Ġmack":9272,"lict":9273,"Ġstood":9274,"enc":9275,"Ġrape":9276,"Ġretired":9277,"Ġdelayed":9278,"Ġkin":9279,"Ġster":9280,"Ġmanufactured":9281,"Ġdiscovery":9282,"Ġexporters":9283,"Ġstadium":9284,"Ġbreeding":9285,"Ġconvey":9286,"Ġallowances":9287,"Ġterminal":9288,"Ġenvironmentally":9289,"Ġprofiles":9290,"Ġgrateful":9291,"Ġexcellency":9292,"Ġskill":9293,"Ġjacks":9294,"Ġrivers":9295,"Ġaz":9296,"Ġproceeding":9297,"Ġig":9298,"Ġviable":9299,"Ġdemocrat":9300,"environ":9301,"Ġdual":9302,"Ġaffects":9303,"Ġreimbur":9304,"Ġauto":9305,"izations":9306,"cyc":9307,"Ġscandal":9308,"Ġfacult":9309,"reporting":9310,"Ġprevalence":9311,"Ġmunicipality":9312,"Ġattempted":9313,"Ġingredients":9314,"Ġgif":9315,"Ġtempor":9316,"Ġhosted":9317,"Ġminors":9318,"Ġtelling":9319,"div":9320,"Ġcarriage":9321,"sixth":9322,"acent":9323,"Ġstewards":9324,"Ġadministrator":9325,"Ġfo":9326,"Ġdispar":9327,"Ġinterpreted":9328,"Ġbeneficial":9329,"document":9330,"Ġlots":9331,"Ġlibya":9332,"through":9333,"Ġsandy":9334,"Ġplastic":9335,"Ġlinkages":9336,"Ġenables":9337,"lass":9338,"abeth":9339,"Ġrealization":9340,"atis":9341,"Ġagrees":9342,"Ġimpartial":9343,"Ġsanitation":9344,"link":9345,"Ġdemonstration":9346,"aked":9347,"Ġarmenia":9348,"Ġrandom":9349,"Ġparental":9350,"Ġfavourable":9351,"Ġawa":9352,"Ġtrademark":9353,"isciplinary":9354,"Ġbehavior":9355,"usted":9356,"Ġpromise":9357,"fc":9358,"determination":9359,"Ġwished":9360,"herent":9361,"iciaries":9362,"Ġscenario":9363,"got":9364,"spoke":9365,"Ġcompleting":9366,"Ġtitles":9367,"Ġbeings":9368,"page":9369,"----------------":9370,"Ġble":9371,"Ġperformances":9372,"icy":9373,"Ġny":9374,"ĠÌ":9375,"Ġhiring":9376,"Ġverify":9377,"Ġcambod":9378,"friendly":9379,"Ġmainstreaming":9380,"Ġthick":9381,"Ġestablishes":9382,"Ġrealize":9383,"Ġregulators":9384,"Ġdefeat":9385,"Ġscar":9386,"aska":9387,"Ġpalestinians":9388,"Ġfemales":9389,"lers":9390,"Ġrepay":9391,"Ġprox":9392,"Ġlind":9393,"Ġpreceding":9394,"Ġeighth":9395,"Ġcommonly":9396,"Ġquantitative":9397,"Ġunacceptable":9398,"agon":9399,"Ġscan":9400,"Ġboliv":9401,"Ġmerch":9402,"Ġintra":9403,"Ġ2015":9404,"Ġtied":9405,"Ġinspections":9406,"Ġtravellers":9407,"Ġauthentic":9408,"Ġintolerance":9409,"Ġsight":9410,"ivoire":9411,"Ġfallen":9412,"Ġnoise":9413,"Ġleaf":9414,"Ġorganizing":9415,"compass":9416,"pin":9417,"flow":9418,"Ġupcoming":9419,"tte":9420,"Ġwriter":9421,"Ġcritics":9422,"Ġtickets":9423,"Ġberlin":9424,"Ġranging":9425,"Ġwales":9426,"usalem":9427,"Ġchances":9428,"Ġwearing":9429,"Ġcontrolling":9430,"Ġinsolvency":9431,"Ġpurchases":9432,"Ġtotally":9433,"Ġwording":9434,"product":9435,"Ãª":9436,"Ġinhib":9437,"security":9438,"Ġgoverned":9439,"Ġemotional":9440,"Ġalph":9441,"Ġprotective":9442,"Ġsolic":9443,"Ġlisten":9444,"Ġdict":9445,"seventh":9446,"Ġsurviv":9447,"Ġadvent":9448,"Ġcruel":9449,"Ġalarm":9450,"Ġmalta":9451,"Ġclarification":9452,"Ġsenegal":9453,"agn":9454,"Ġfant":9455,"bb":9456,"007":9457,"Ġversions":9458,"Ġpand":9459,"Ġcreates":9460,"Ġverbal":9461,"Ġsupervisory":9462,"Ġdal":9463,"Ġrecyc":9464,"Ġminimize":9465,"Ġcharacterized":9466,"Ġconfidentiality":9467,"Ġcommodities":9468,"Ġrica":9469,"Ġrecognised":9470,"Ġsuperv":9471,"Ġquit":9472,"Ġdiscriminatory":9473,"Ġinfectious":9474,"oning":9475,"dation":9476,"Ġwireless":9477,"Ġgrie":9478,"Ġmodest":9479,"Ġjackson":9480,"Ġoccasions":9481,"Ġbrad":9482,"Ġevaluating":9483,"Ġmanchester":9484,"Ġpsc":9485,"Ġpi":9486,"Ġmarc":9487,"Ġprotesters":9488,"Ġcoherent":9489,"Ġpolling":9490,"Ġcontainer":9491,"Ġprogressive":9492,"Ġtourist":9493,"hone":9494,"Ġmemorial":9495,"hstan":9496,"weap":9497,"vol":9498,"Ġunp":9499,"power":9500,"Ġbankruptcy":9501,"bud":9502,"Ġvaried":9503,"Ġenvisaged":9504,"ninth":9505,"Ġpressures":9506,"Ġsettled":9507,"service":9508,"ti":9509,"Ġmarking":9510,"bek":9511,"ican":9512,"Ġsheets":9513,"lyn":9514,"Ġcamps":9515,"bank":9516,"Ġbargaining":9517,"Ġadvisor":9518,"Ġamongst":9519,"Ġsod":9520,"Ġcolleg":9521,"withstanding":9522,"Ġfeels":9523,"Ġrealized":9524,"1996":9525,"âĢĺ":9526,"Ġarrive":9527,"Ġartistic":9528,"Ġfears":9529,"Ġcleaning":9530,"Ġlawsu":9531,"Ġrally":9532,"Ġhond":9533,"Ġargue":9534,"Ġexcluding":9535,"âĢĲ":9536,"Ġchrom":9537,"Ġadvocate":9538,"Ġvii":9539,"Ġreportedly":9540,"Ġace":9541,"Ġjerusalem":9542,"Ġclassic":9543,"Ġmichigan":9544,"secondary":9545,"Ġhague":9546,"Ġchick":9547,"esc":9548,"Ġpromotes":9549,"Ġpublish":9550,"Ġstamp":9551,"Ġproliferation":9552,"group":9553,"Ġinquiries":9554,"dem":9555,"Ġkyoto":9556,"Ġutility":9557,"Ġopposite":9558,"Ġnbc":9559,"ighters":9560,"Ġremuneration":9561,"Ġbeneficiaries":9562,"Ġterrorists":9563,"ifiable":9564,"iami":9565,"Ġconcess":9566,"Ġdeposits":9567,"Ġneighborhood":9568,"Ġnurses":9569,"Ġngo":9570,"Ġunilateral":9571,"Ġfuels":9572,"Ġcollecting":9573,"Ġlikel":9574,"Ġinev":9575,"eighth":9576,"Ġquarterly":9577,"Ġmexican":9578,"Ġ1981":9579,"Ġcatholic":9580,"ref":9581,"Ġguys":9582,"Ġoutputs":9583,"Ġasks":9584,"news":9585,"western":9586,"Ġincentive":9587,"Ġgiant":9588,"owa":9589,"Ġvariable":9590,"Ġconfig":9591,"Ġdoors":9592,"Ġbasin":9593,"angered":9594,"intend":9595,"Ġforums":9596,"Ġdefect":9597,"ubs":9598,"made":9599,"Ġpoore":9600,"Ġdrag":9601,"iana":9602,"Ġpostal":9603,"east":9604,"ihood":9605,"itz":9606,"Ġoffshore":9607,"Ġcommem":9608,"Ġcontamin":9609,"territorial":9610,"post":9611,"ocial":9612,"ophy":9613,"front":9614,"Ġradi":9615,"Ġbasket":9616,"vens":9617,"Ġweapon":9618,"discrimination":9619,"Ġfrancophone":9620,"test":9621,"Ġvalidity":9622,"forcing":9623,"Ġpersu":9624,"Ġpersonally":9625,"uten":9626,"Ġjam":9627,"tax":9628,"whel":9629,"Ġsatisfactory":9630,"onic":9631,"Ġfocal":9632,"Ġexperiment":9633,"Ġsurge":9634,"%),":9635,"donald":9636,"Ġunm":9637,"viet":9638,"secretary":9639,"Ġrepeat":9640,"Ġshelter":9641,"oir":9642,"ati":9643,"Ġnepal":9644,"Ġdisposition":9645,"fig":9646,"inity":9647,"Ġchelsea":9648,"Ġcb":9649,"high":9650,"Ġtbs":9651,"Ġbrian":9652,"Ġencompass":9653,"ection":9654,"Ġhunting":9655,"Ġwear":9656,"Ġvolat":9657,"Ġspin":9658,"Ġoutline":9659,"Ġgolden":9660,"Ġrecreational":9661,"Ġcontinuation":9662,"Ġcreek":9663,"Ġwebsites":9664,"Ġphr":9665,"Ġskilled":9666,"Ġunusual":9667,"md":9668,"uguay":9669,"Ġibid":9670,"ester":9671,"Ġintense":9672,"Ġpollutants":9673,"Ġgraduate":9674,"etheless":9675,"ounced":9676,"Ġri":9677,"Ġextradition":9678,"Ġcorrespondence":9679,"Ġherself":9680,"Ġbull":9681,"Ġpursuing":9682,"Ġml":9683,"ois":9684,"azz":9685,"Ġporn":9686,"Ġunnecess":9687,"Ġtai":9688,"Ġnotwithstanding":9689,"Ġstick":9690,"Ġrice":9691,"eches":9692,"Ġdisclosed":9693,"ede":9694,"ye":9695,"aving":9696,"Ġdiscussing":9697,"Ġattractive":9698,"Ġcirculated":9699,"Ġdecentral":9700,"Ġlikelihood":9701,"Ġcredential":9702,"Ġentitlement":9703,"establ":9704,"Ġinvesting":9705,"Ġsister":9706,"Ġgradually":9707,"Ġinfo":9708,"Ġdavis":9709,"Ġdisclose":9710,"Ġlimitation":9711,"2010":9712,"Ġrr":9713,"Ġpostp":9714,"Ġlew":9715,"Ġinherent":9716,"Ġvic":9717,"Ġnonetheless":9718,"ĠÐ":9719,"Ġhits":9720,"Ġreactions":9721,"bow":9722,"Ġhollywood":9723,"Ġapprais":9724,"Ġariz":9725,"Ġclimb":9726,"Ġkazakhstan":9727,"Ġwake":9728,"Ġads":9729,"Ġenhancement":9730,"Ġvariation":9731,"Ġenjo":9732,"Ġincumb":9733,"Ġunlaw":9734,"Ġtaylor":9735,"Ġans":9736,"Ġspa":9737,"Ġinnoc":9738,"Ġmales":9739,"Ġbases":9740,"Ġglob":9741,"marks":9742,"Ġtag":9743,"Ġtie":9744,"Ġsatisfy":9745,"Ġregimes":9746,"Ġendangered":9747,"Ġdivor":9748,"Ġprecisely":9749,"Ġmandated":9750,"Ġconstantly":9751,"Ġepidem":9752,"Ġspaces":9753,"Ġboss":9754,"Ġarg":9755,"Ġinfections":9756,"Ġupdates":9757,"member":9758,"Ġattributed":9759,"Ġmiami":9760,"Ġker":9761,"Ġcomed":9762,"Ġcounts":9763,"Ġnaturally":9764,"elph":9765,"Ġreiterated":9766,"eg":9767,"Ġhospitality":9768,"Ġpropon":9769,"Ġcontroversial":9770,"Ġsectoral":9771,"lete":9772,"uct":9773,"Ġdivisions":9774,"Ġindications":9775,"Ġtanz":9776,"Ġdevast":9777,"Ġwhereby":9778,"Ġhazards":9779,"Ġambitious":9780,"Ġcreditors":9781,"Ġcaptured":9782,"represent":9783,"ala":9784,"ĠÂ±":9785,"Ġcompatible":9786,"Ġquantities":9787,"Ġcrises":9788,"Ġsab":9789,"Ġstruggling":9790,"Ġplanet":9791,"treatment":9792,"Ġairports":9793,"ĠÂ©":9794,"Ġenabled":9795,"iri":9796,"Ġcin":9797,"Ġxenophobia":9798,"Ġhay":9799,"Ġmodifications":9800,"Ġlock":9801,"Ġpromised":9802,"Ġcontainers":9803,"Ġhappening":9804,"Ġgases":9805,"Ġprinting":9806,"letter":9807,"Ġbreakdown":9808,"name":9809,"Ġcrash":9810,"aud":9811,"Ġsignals":9812,"Ġaging":9813,"Ġeverybody":9814,"Ġhouston":9815,"Ġpersistent":9816,"Ġprevented":9817,"Ġobliged":9818,"rets":9819,"Ġeggs":9820,"Ġimpressive":9821,"election":9822,"Ġreward":9823,"Ġdeliberations":9824,"chlor":9825,"Ġprominent":9826,"Ġintensive":9827,"Ġsd":9828,"Ġintegrating":9829,"Ġiso":9830,"ez":9831,"was":9832,"Ġswedish":9833,"Ġdod":9834,"Ġkilomet":9835,"Ġmounted":9836,"Ġrevers":9837,"Ġcoherence":9838,"ovic":9839,"Ġtelecom":9840,"ÂŃ":9841,"Ġou":9842,"Ġconcert":9843,"ocked":9844,"Ġtaste":9845,"Ġturns":9846,"Ġhurt":9847,"Ġinspired":9848,"Ġescape":9849,"expected":9850,"Ġblind":9851,"Ġdiversification":9852,"Ġauction":9853,"Ġregistrar":9854,"Ġnegotiate":9855,"Ġresign":9856,"Ġstored":9857,"Ġwishing":9858,"ribe":9859,"Ġghana":9860,"Ġkitchen":9861,"Ġmeals":9862,"Ġhunger":9863,"Ġalbania":9864,"Ġshots":9865,"Ġstewardship":9866,"Ġwillingness":9867,"Ġboundary":9868,"Ġexpects":9869,"roit":9870,"Ġunw":9871,"aid":9872,"Ġrecept":9873,"sharing":9874,"roph":9875,"Ġhamilton":9876,"Ġspeeches":9877,"Ġpull":9878,"Ġdor":9879,"eor":9880,"Ġcompound":9881,"Ġguiding":9882,"tts":9883,"Ġrio":9884,"Ġnitrogen":9885,"isive":9886,"Ġwalls":9887,"Ġtea":9888,"%).":9889,"Ġbare":9890,"Ġcolonial":9891,"Ġeric":9892,"Ġrecovered":9893,"Ġtanks":9894,"Ġreproduction":9895,"Ġmali":9896,"Ġbeef":9897,"Ġgren":9898,"main":9899,"Ġjustify":9900,"Ġsupportive":9901,"ople":9902,"rable":9903,"Ġjoining":9904,"Ġvariables":9905,"Ġclaiming":9906,"Ġswimming":9907,"bury":9908,"Ġdrought":9909,"!!":9910,"Ã©n":9911,".),":9912,"Ġpupils":9913,"Ġdow":9914,"Ġdegradation":9915,"pac":9916,"Ġsolve":9917,"Ġdiagnosis":9918,"Ġpleasure":9919,"Ġidentifies":9920,"Ġtells":9921,"Ġmini":9922,"Ġreverse":9923,"Ġdisappoint":9924,"amine":9925,"auc":9926,"weapon":9927,"Ġdamaged":9928,"Ġfoundations":9929,"Ġconvened":9930,"Ġsuggesting":9931,"Ġhired":9932,"atri":9933,"Ġconnections":9934,"Ġoverwhel":9935,"Ġhack":9936,"Ġcontractual":9937,"Ġtherapeut":9938,"Ġmeasurements":9939,"Ġfarms":9940,"Ġissuing":9941,"Ġdc":9942,"bell":9943,"wealth":9944,"Ġguideline":9945,"Ġdrama":9946,"ergies":9947,"Ġanton":9948,"Ġabstract":9949,"Ġoxygen":9950,"Ġacted":9951,"isp":9952,"Ġmaternal":9953,"Ġscores":9954,"achuse":9955,"Ġski":9956,"Ġsupervisor":9957,"Ġbh":9958,"Ġevac":9959,"Ġdisagree":9960,"umn":9961,"Ġurl":9962,"Ġforecasts":9963,"achusetts":9964,"Ġnest":9965,"Ġavo":9966,"Ġsettings":9967,"Ġinputs":9968,"Ġtraditions":9969,"ril":9970,"Ġqatar":9971,"Ġseal":9972,"Ġinvested":9973,"Ġpetition":9974,"weight":9975,"Ġinvestor":9976,"Ġdiox":9977,"aneously":9978,"cb":9979,"arked":9980,"qual":9981,"offic":9982,"Ġirregular":9983,"las":9984,"Ġfactory":9985,"Ġjudgement":9986,"Ġ613":9987,"Ġconfirmation":9988,"Ġlect":9989,"Ġappar":9990,"Ġimmunization":9991,"yard":9992,"Ġlicensed":9993,"Ġpel":9994,"Ġfreely":9995,"Ġlap":9996,"allow":9997,"stra":9998,"Ġfeasibility":9999,"celona":10000,"Ġpreca":10001,"Ġinitiate":10002,"ogenic":10003,"losed":10004,"boundary":10005,"Ġfitness":10006,"Ġsteady":10007,"Ġtruck":10008,"minute":10009,"Ġilo":10010,"Ġstrictly":10011,"otyp":10012,"Ġlegacy":10013,"Ġlyn":10014,"Ġmodule":10015,"Ġsponsored":10016,"Ġninth":10017,"Ġgov":10018,"Ġ1979":10019,"Ġ;":10020,"Ġweigh":10021,"Ġengaging":10022,"Ġcelebrate":10023,"Ġtech":10024,"Ġesp":10025,"Ġpartially":10026,"offs":10027,"bas":10028,"Ġamn":10029,"iÃ³n":10030,"Ġcaution":10031,"Ġtangible":10032,"Ġlibraries":10033,"idden":10034,"Ġmassachusetts":10035,"Ġjury":10036,"Ġdesired":10037,"1995":10038,"Ġuz":10039,"Ġmatt":10040,"aco":10041,"Ġexported":10042,"ube":10043,"shire":10044,"Ġrebels":10045,"Ġnomine":10046,"Ġjunior":10047,"Ġdisciplinary":10048,"Ġdefinitely":10049,"Ġcompeting":10050,"kind":10051,"Ġplenty":10052,"Ġ2014":10053,"Ġosc":10054,"Ġdecor":10055,"Ġpent":10056,"rist":10057,"Â©":10058,"Ġrear":10059,"Ġrefuse":10060,"space":10061,"project":10062,"Ġsinger":10063,"Ġmeal":10064,"Ġengines":10065,"Ġnotion":10066,"Ġdeserv":10067,"Ġopponents":10068,"Ġcorrectional":10069,"Ġdiagnost":10070,"Ġdisplayed":10071,"Ġsees":10072,"erated":10073,"Ġholdings":10074,"Ġuruguay":10075,"vert":10076,"âĪĴ":10077,"Ġallegation":10078,"essional":10079,"oz":10080,"tv":10081,"Ġallies":10082,"Ġford":10083,"Ġhurric":10084,"Ġpricing":10085,"Ġneuro":10086,"Ġrevol":10087,"Ġseasonal":10088,"Ġthousand":10089,"rin":10090,"Ġhi":10091,"Ġports":10092,"Ġadam":10093,"Ġlift":10094,"Ġprede":10095,"Ġdelic":10096,"Ġputs":10097,"Ġpassage":10098,"Ġpushed":10099,"Ġviolated":10100,"Ġbriefly":10101,"Ġ1983":10102,"iqu":10103,"Ġhunt":10104,"eries":10105,"amic":10106,"Ġsalvador":10107,"party":10108,"Ġencountered":10109,"tor":10110,"Ġcommunicated":10111,"Ġvillages":10112,"Ġsponsor":10113,"Ġnecessity":10114,"Ġdocumentary":10115,"Ġbeneficiary":10116,"Ġpurchasing":10117,"Ġimagine":10118,"eness":10119,"Ġmountains":10120,"Ġtanzania":10121,"Ġoccurring":10122,"Ġquestioned":10123,"isite":10124,"Ġgenoc":10125,"Ġfacilitation":10126,"Ġpassion":10127,"Ġinfected":10128,"Ġdeleted":10129,"Ġvib":10130,"Ġcomplicated":10131,"Ġcheap":10132,"odes":10133,"Ġsentences":10134,"Ġreaders":10135,"era":10136,"],":10137,"Ġseparated":10138,"Ġcenters":10139,"Ġcis":10140,"Ġconfusion":10141,"Ġintend":10142,"Ġsequence":10143,"Ġphosph":10144,"Ġconstituted":10145,"Ġnationally":10146,"irates":10147,"Ġrarely":10148,"Ġgraduates":10149,"Ġnap":10150,"Ġstudio":10151,"Ġsearc":10152,"Ġsid":10153,"Ġconfront":10154,"Ġcambodia":10155,"appropriate":10156,"Ġunclear":10157,"Ġclearance":10158,"grade":10159,"Ġdelight":10160,"Ġcompare":10161,"Ġaux":10162,"Ġtissue":10163,"Ġarbitrary":10164,"Ġdimin":10165,"Ġerit":10166,"issu":10167,"Ġexplicitly":10168,"Ġrobust":10169,"print":10170,"Ġimmigrant":10171,"Ġintermediate":10172,"Ġpolar":10173,"erion":10174,"rose":10175,"every":10176,"Ġatomic":10177,"Ġdevelopmental":10178,"Ġnarc":10179,"qa":10180,"Ġunre":10181,"Ġspokeswoman":10182,"inent":10183,"Ġcumulative":10184,"Ġairline":10185,"Ġgloss":10186,"ashes":10187,"anger":10188,"Ġmedicines":10189,"Ġancient":10190,"Ġapparatus":10191,"Ġware":10192,"Ġross":10193,"Ġcolorado":10194,"Ġdensity":10195,"Ġlaundering":10196,"Ġpulled":10197,"Ġbarcelona":10198,"Ġhanded":10199,"Ġpresenting":10200,"Ġplacement":10201,"uma":10202,"ext":10203,"Ġjewish":10204,"Ġsweet":10205,"Ġmaternity":10206,"Ġrealistic":10207,"Ġiowa":10208,"Ġbaseline":10209,"Ġshops":10210,"iously":10211,"Ġminimal":10212,"ologists":10213,"Ã©d":10214,"Ġlimiting":10215,"Ġbrig":10216,"yst":10217,"idays":10218,"Ġfaculty":10219,"Ġgill":10220,"Ġperception":10221,"Ġbom":10222,"Ġgenet":10223,"Ġgrat":10224,"Ġdegrading":10225,"Ġmalaria":10226,"hire":10227,"Ġbowl":10228,"athy":10229,"Ġpig":10230,"Ġexercises":10231,"Ġqualification":10232,"Ġstakeholder":10233,"Ġmeteor":10234,"people":10235,"Ġsuggestion":10236,"Ġempt":10237,"Ġoverl":10238,"Ġexpressing":10239,"Ġphotographs":10240,"Ġhybr":10241,"Ġcontrad":10242,"Ġreadily":10243,"Ġcommonwealth":10244,"izabeth":10245,"Ġvisitor":10246,"vd":10247,"arest":10248,"Ġtower":10249,"Ġneglect":10250,"Ġvacation":10251,"Ġced":10252,"001":10253,"sur":10254,"gar":10255,"ima":10256,"Ġunido":10257,")-":10258,"business":10259,"Ġdifferential":10260,"Ġcredentials":10261,"Ġcomprising":10262,"Ġretailers":10263,"Ġdental":10264,"nut":10265,"Ġundermin":10266,"Ġlady":10267,"Ġmood":10268,"Ġthro":10269,"Ġgasoline":10270,"abwe":10271,"ali":10272,"Ġattributable":10273,"Ġsubprogramme":10274,"Ġreproduced":10275,"Ġlayer":10276,"Ġwounded":10277,"Ġprofession":10278,"ulsion":10279,"cbs":10280,"Ġpays":10281,"Ġamnesty":10282,"Ġwilson":10283,"Ġcongratulate":10284,"Ġrestra":10285,"Ġcriterion":10286,"Ġvolumes":10287,"Ġhab":10288,"ema":10289,"Ġroof":10290,"Ġangola":10291,"Ġtraditionally":10292,"Ġward":10293,"Ġtony":10294,"Ġmoments":10295,"imbabwe":10296,"etime":10297,"Ġarizona":10298,"Ġneighbourhood":10299,"Ġaggressive":10300,"âĢĻ.":10301,"Ġanywhere":10302,"Ġluxury":10303,"type":10304,"Ġneutral":10305,"Ġbry":10306,"Ġintensity":10307,"Ġros":10308,"Ġmodification":10309,"Ġdemanding":10310,"xi":10311,"Ġholy":10312,"Ġmaria":10313,"Ġom":10314,"Ġinhuman":10315,"ram":10316,"Ġnavig":10317,"Ġqc":10318,"Ġchose":10319,"Ġquota":10320,"Ġsynd":10321,"poin":10322,"occ":10323,"Ġdiscipl":10324,"iano":10325,"Ġeliminating":10326,"Ġtreatments":10327,"rh":10328,"Ġsubmitting":10329,"depth":10330,"Ġremoving":10331,"aires":10332,"Ġgenocide":10333,"Ġmissile":10334,"Ġstructured":10335,"Ġkab":10336,"Ġfreight":10337,"Ġtechnique":10338,"coun":10339,"Ġrelatives":10340,"Ġbacked":10341,"Ġoriginating":10342,"Ġsoviet":10343,"Ġmatches":10344,"fed":10345,"Ġscrutiny":10346,"Ġaccru":10347,"Ġalien":10348,"Ġtransboundary":10349,"Ġanch":10350,"Ġphases":10351,"Ġratings":10352,"Ġholland":10353,"strong":10354,"Ġdetected":10355,"Ġcarries":10356,"Ġhoping":10357,"Ġlan":10358,"Ġinvo":10359,"Ġtensions":10360,"Ġdans":10361,"asse":10362,"Ġlaboratories":10363,"total":10364,"Ġexisted":10365,"Ġtow":10366,"Ġageing":10367,"Ġpicked":10368,"Ġarth":10369,"Ġretro":10370,"Ġefficiently":10371,"Ġcope":10372,"Ġwarnings":10373,"Ġalert":10374,"Ġkevin":10375,"Ġcontractors":10376,"Ġdesirable":10377,"Ġcrude":10378,"Ġbars":10379,"rat":10380,"Ġsongs":10381,"wall":10382,"Ġenforced":10383,"Ġboom":10384,"isan":10385,"cat":10386,"hu":10387,"Ġrationale":10388,"Ġgran":10389,"Ġunpre":10390,"Ġbears":10391,"Ġdonations":10392,"ferent":10393,"ordon":10394,"Ġbreaking":10395,"Ġbuyers":10396,"far":10397,"Ġupgrade":10398,"Ġaus":10399,"Ġescal":10400,"rob":10401,"Ġtenth":10402,"Ġearthqu":10403,"Ġ110":10404,"Ġcommissioners":10405,"Ġdominant":10406,"Ġlivest":10407,"Ġfao":10408,"Ġsubmits":10409,"these":10410,"ylv":10411,"Ġinteractions":10412,"Ġlastly":10413,"Ġpredicted":10414,"conflict":10415,"Ġwonderful":10416,"Ġportra":10417,"Ġmarketplace":10418,"Ġindirectly":10419,"Ġrap":10420,"Ġlung":10421,"Ġlau":10422,"Ġwithdrawn":10423,"Ġcompos":10424,"Ġaccomplishments":10425,"Ġgreg":10426,"Ġprairie":10427,"priv":10428,"Ġfairness":10429,"Ġfrozen":10430,"Ġiaea":10431,"human":10432,"Ġplacing":10433,"agan":10434,"Ġenrol":10435,"Ġlebanese":10436,"Ġeconomically":10437,"Ġmes":10438,"budget":10439,"azi":10440,"Ġtaxpayers":10441,"Ġreveal":10442,"Ġworkload":10443,"150":10444,"Ġsaving":10445,"Ġhabitats":10446,"cha":10447,"Ġregulate":10448,"Ġabandoned":10449,"Ġperpetrators":10450,"Ġbret":10451,"Ġcredible":10452,"Ġmechanical":10453,"Ġinvention":10454,"Ġshadow":10455,"Ġkent":10456,"Ġincred":10457,"Ġpropri":10458,"Ġtariffs":10459,"Ġinhabit":10460,"Ġinterference":10461,"iratory":10462,"Ġrebate":10463,"Ġcorps":10464,"Ġpear":10465,"Ġsensitivity":10466,"oct":10467,"Ġlibyan":10468,"bra":10469,"Ġextrem":10470,"Ġcolleges":10471,"Ġnd":10472,"range":10473,"Ġske":10474,"Ġclarity":10475,"sections":10476,"Ġirre":10477,"Ġdetainees":10478,"Ġgon":10479,"Ġinsisted":10480,"last":10481,"Ġ105":10482,"Ġspoken":10483,"Ġmeters":10484,"Ġelizabeth":10485,"Ġdescriptions":10486,"Ġcollapse":10487,"Ġjet":10488,"Ġloyal":10489,"Ġpromising":10490,"Ġouts":10491,"âĢĻ,":10492,"Ġqualifying":10493,"ĠÂ°":10494,"Ġknowing":10495,"Ġinfluenced":10496,"Ġimpunity":10497,"change":10498,"Ġtear":10499,"Ġgri":10500,"Ġvideos":10501,"1994":10502,"Ġmetab":10503,"Ġdeclarations":10504,"Ġzimbabwe":10505,"Ġsearching":10506,"Ġrestriction":10507,"Ġ1978":10508,"Ġrendered":10509,"Ġproduces":10510,"world":10511,"will":10512,"Ġtet":10513,"Ġdiesel":10514,"Ġdeclining":10515,"Ġdust":10516,"wear":10517,"900":10518,"izer":10519,"ele":10520,"Ġ(âĢľ":10521,"Ġseasons":10522,"Ġfostering":10523,"Ġlaunching":10524,"Ġcraft":10525,"Ġconcentrated":10526,"Ġinad":10527,"Ġlegitim":10528,"Ġmiller":10529,"Ġinfringement":10530,"Ġreaffirms":10531,"Ġpounds":10532,"Ġintr":10533,"Ġmobilization":10534,"Ġconversation":10535,"ĠmÃ©t":10536,"iry":10537,"Ġcancellation":10538,"Ġsoldier":10539,"Ġraises":10540,"Ġmovies":10541,"pur":10542,"Ġcompli":10543,"Ġtextile":10544,"wered":10545,"Ġmulticultural":10546,"Ġsin":10547,"Ġreplies":10548,"Ġmoz":10549,"Ġdozen":10550,"Ġvalued":10551,"Ġsophistic":10552,"Ġleis":10553,"iates":10554,"Ġtip":10555,"Ġalumin":10556,"Ġremarkable":10557,"Ġresume":10558,"Ġblank":10559,"Ġzam":10560,"Ġinspectors":10561,"zens":10562,"Ġcopper":10563,"Ġformats":10564,"olved":10565,"neys":10566,"Ġdrafted":10567,"Ġposting":10568,"Ġplot":10569,"Ġdefines":10570,"Ġpact":10571,"Ġsubsidy":10572,"Ġsecuring":10573,"Ġkat":10574,"Ġgeneric":10575,"Ġuzbek":10576,"Ġsmok":10577,"Ã©l":10578,"Ġpic":10579,"Ġtoxicity":10580,"fis":10581,"othe":10582,"Ġgenerating":10583,"Ġmanh":10584,"Ġmedal":10585,"Ġcounterparts":10586,"Ġswitch":10587,"Ġfertil":10588,"Ġrug":10589,"Ġconstructed":10590,"Ġcontamination":10591,"Ġadjacent":10592,"efficient":10593,"Ġdemonstrates":10594,"opard":10595,"Ġautonomy":10596,"Ġdoha":10597,"Ġmb":10598,"ttes":10599,"Ġpolitically":10600,"Ġcommentary":10601,"Ġmouth":10602,"iments":10603,"Ġunnecessary":10604,"Ġkne":10605,"Ġimpression":10606,"Ġstudying":10607,"Ġdeduction":10608,"Ġpanels":10609,"Ġreliability":10610,"immer":10611,"Ġepidemi":10612,"Ġmodernization":10613,"Ġfare":10614,"Ġandy":10615,"Ġstere":10616,"Ġreader":10617,"Ġtonight":10618,"arer":10619,"Ġisolation":10620,"Ġadministering":10621,"Ġtimber":10622,"Ġdepression":10623,"fil":10624,"Ġhills":10625,"Ġroots":10626,"ancies":10627,"Ġlivestock":10628,"Ġswift":10629,"Ġattacked":10630,"Ġwholes":10631,"Ġhan":10632,"illi":10633,"Ġcirculation":10634,"Ġtrem":10635,"Ġempowerment":10636,"Ġkeen":10637,"management":10638,"Ġantib":10639,"Ġroberts":10640,"Ġintake":10641,"Ġreadiness":10642,"Ġusage":10643,"erity":10644,"Ġtestified":10645,"Ġdisplace":10646,"cedented":10647,"cost":10648,"Ġhud":10649,"Ġpolicing":10650,"some":10651,"Ġabortion":10652,"Ġaccomplished":10653,"Ġchad":10654,"Ġcontinental":10655,"Ġunlawful":10656,"ilst":10657,"Ġsounds":10658,"Ġmorgan":10659,"Ġbarrier":10660,"Ġtribute":10661,"Ġfirmly":10662,"Ġpredomin":10663,"Ġpitch":10664,"Ġemergencies":10665,"Ġdeport":10666,"Ġmerits":10667,"Ġrum":10668,"Ġparad":10669,"Ġthin":10670,"Ġnafta":10671,"yes":10672,"Ġtroop":10673,"gic":10674,"Ġpierre":10675,"Ġoak":10676,"Ġfirstly":10677,"Ġleisure":10678,"Ġgil":10679,"Ġsimon":10680,"Ġprofound":10681,"Ġfolk":10682,"Ġoffensive":10683,"maker":10684,"Ġabilities":10685,"Ġcompetitors":10686,"Ġhaw":10687,"best":10688,"Ġtenn":10689,"Ġassumption":10690,"Ġhelicopter":10691,"ptions":10692,"Ġescap":10693,"Ġvertical":10694,"Ġcoinc":10695,"Ġdetroit":10696,"Ġfeeding":10697,"ascular":10698,"Ġfails":10699,"Ġbron":10700,"Ġak":10701,"Ġcircle":10702,"Ġannexes":10703,"Ġbahrain":10704,"ĠâĪĴ":10705,"Ġargues":10706,"Ġtherapeutic":10707,"Ġbands":10708,"Ġdozens":10709,"Ġseas":10710,"atial":10711,"Ġalive":10712,"Ġreserved":10713,"sector":10714,"Ġtam":10715,"Ġtips":10716,"Ġenquir":10717,"Ġremem":10718,"iac":10719,"Ġstating":10720,"Ġstriking":10721,"Ġpatri":10722,"Ġbeauty":10723,"Ġobserve":10724,"plant":10725,"half":10726,"Ġstras":10727,"wl":10728,"Ġhearts":10729,"Ġcomprises":10730,"arag":10731,"season":10732,"anol":10733,"Ã¡Ã¡Ã¡Ã¡":10734,"Ġtong":10735,"Ġemphasizes":10736,"olia":10737,"Ġsuperintend":10738,"lson":10739,"fault":10740,"Ġoffender":10741,"holm":10742,"Ġburn":10743,"Ġoccurrence":10744,"Ġfounder":10745,"Ġhandled":10746,"Ġblocks":10747,"Ġinstallations":10748,"Ġensured":10749,"Ġbread":10750,"Ġlanding":10751,"Ġreaffirmed":10752,"Ġjamaica":10753,"Ġldcs":10754,"Ġpray":10755,"Ġflav":10756,"Ġtig":10757,"Ġtimet":10758,"Ġlt":10759,"Ġcondu":10760,"seen":10761,"ppers":10762,"Ġjoy":10763,"Ġreflection":10764,"Ġhydrogen":10765,"Ġglobe":10766,"etal":10767,"uv":10768,"Ġabsent":10769,"estyle":10770,"Ġattra":10771,"Ġaffiliate":10772,"tail":10773,"Ġleon":10774,"Ġhardly":10775,"Ġcomprised":10776,"tim":10777,"Ġtrace":10778,"Ġniger":10779,"director":10780,"anium":10781,"Ġvisibility":10782,"Ġopens":10783,"rous":10784,"Ġexercised":10785,"Ġprisons":10786,"Ġfraser":10787,"chell":10788,"Ġvirtue":10789,"Ġhasn":10790,"good":10791,"Ġ?":10792,"Ġhed":10793,"quarter":10794,"Ġartic":10795,"Ġproposing":10796,"Ġcalm":10797,"Ġautumn":10798,"Ġhamp":10799,"gt":10800,"Ġassociates":10801,"Ġcircuit":10802,"itting":10803,"Ġloved":10804,"Ġslowly":10805,"Ġtours":10806,"Ġguides":10807,"Ġpursuit":10808,"fam":10809,"Ġcents":10810,"Ġreminded":10811,"Ġmuseums":10812,"compliance":10813,"Ġaggregate":10814,"Ġdebut":10815,"Ġbutton":10816,"Ġincomes":10817,"Ġendeavour":10818,"Ġaccreditation":10819,"Ġexceeded":10820,"Ġunderway":10821,"operative":10822,"Ġdescribing":10823,"Ġboe":10824,"Ġrespiratory":10825,"Ġdominated":10826,"Ġ2020":10827,"Ġbever":10828,"Ġindo":10829,"ylvania":10830,"uese":10831,"roc":10832,"Ġfavorite":10833,"Ġ**":10834,"Ġanderson":10835,"Ġoutdoor":10836,"Ġlocally":10837,"Ġinterviewed":10838,"Ġparliaments":10839,"Ġtuber":10840,"Ġsurprised":10841,"Ġtender":10842,"cm":10843,"yer":10844,"idation":10845,"Ġhonest":10846,"Ġaccompanying":10847,"Ġpor":10848,"apt":10849,"Ġpert":10850,"Ġholidays":10851,"Ġevolving":10852,"Ġcalculate":10853,"utenant":10854,"Ġastron":10855,"Ġemphasize":10856,"Ġhardware":10857,"Ġmixture":10858,"Ġserver":10859,"Ġinsert":10860,"}\\":10861,"Ġappropriately":10862,"Ġderiv":10863,"Ġexpiry":10864,"Ġquoted":10865,"Ġbroadly":10866,"Ġnaval":10867,"Ġunprecedented":10868,"Ġbrothers":10869,"Ġfinances":10870,"Ġvaluation":10871,"Ġwherever":10872,"wic":10873,"Ġunch":10874,"Ġdisorder":10875,"Ġchallenged":10876,"si":10877,"Ġreiterates":10878,"ratory":10879,"Ġqualitative":10880,"Ġenrich":10881,"Ġtempl":10882,"Ġfate":10883,"Ġreaffirming":10884,"Ġsympos":10885,"Ġpotato":10886,"Ġtrop":10887,"Ġcruise":10888,"Ġdeclare":10889,"Ġtraged":10890,"Ġcontacted":10891,"Ġmutually":10892,"Ġpenns":10893,"Ġhepat":10894,"shr":10895,"Ġbund":10896,"Ġimporter":10897,"school":10898,"oj":10899,"mus":10900,"sl":10901,"Ġwastes":10902,"Ġnai":10903,"Ġatmospheric":10904,"Ġoversee":10905,"Ġsmugg":10906,"Ġreplacing":10907,"Ġskip":10908,"rible":10909,"Ġpriorit":10910,"Ġ1967":10911,"Ġworried":10912,"Ġconcludes":10913,"Ġaudiences":10914,"Ġmistake":10915,"Ġtaught":10916,"Ġcav":10917,"station":10918,"wich":10919,"Ġunde":10920,"Ġfeasible":10921,"Ġabu":10922,"Ġendorsement":10923,"looking":10924,"Ġcontinuity":10925,"Ġimmunity":10926,"Ġgib":10927,"official":10928,"Ġtent":10929,"Ġfacilitated":10930,"stitutional":10931,"Ġwells":10932,"Ġportuguese":10933,"Ġhomeless":10934,"information":10935,"Ġpasses":10936,"Ġmarie":10937,"ili":10938,"Ġlikewise":10939,"Ġexplosive":10940,"attan":10941,"Ġtelegraph":10942,"Å¡":10943,"sell":10944,"condition":10945,"Ġemer":10946,"Ġcontingent":10947,"Ġrecital":10948,"Ġglobally":10949,"educ":10950,"Ġconfed":10951,"kina":10952,"Ġenemy":10953,"rage":10954,"Ġremind":10955,"Ġmodify":10956,"ccc":10957,"Ġconsort":10958,"Ġsurvive":10959,"backs":10960,"ansas":10961,"Ġ________________________________":10962,"about":10963,"Ġpatrick":10964,"robi":10965,"prov":10966,"hard":10967,"Ġcertainty":10968,"Ġammun":10969,"Ġva":10970,"Ġflash":10971,"mill":10972,"Ġscoring":10973,"plete":10974,"Ġaccelerate":10975,"idrc":10976,"Ġclim":10977,"signed":10978,"umps":10979,"ados":10980,"Ġeritrea":10981,"eted":10982,"Ġleak":10983,"ece":10984,"Ġhosting":10985,"try":10986,"Ġcompetencies":10987,"Ġbolivia":10988,"Ġgary":10989,"Ġundermine":10990,"Ġfrag":10991,"Ġranks":10992,"Ġliverpool":10993,"Ġdrain":10994,"Ġtheater":10995,"arios":10996,"Ġmagnitude":10997,"Ġunderground":10998,"Ġseaf":10999,"Ġassure":11000,"tenstein":11001,"Ġunexpected":11002,"Ġabandon":11003,"Ġenacted":11004,"away":11005,"Ġsimultaneously":11006,"Ġwhilst":11007,"dist":11008,"unk":11009,"Ġlewis":11010,"techn":11011,"Ġcryst":11012,"Ġtum":11013,"Ġpreference":11014,"Ġovertime":11015,"Ġconfer":11016,"Ġstimulate":11017,")).":11018,"Ġspiritual":11019,"Ġhire":11020,"âĢ²":11021,"Ġcompe":11022,"Ġcarc":11023,"Ġshock":11024,"Ġdisorders":11025,"Ġthompson":11026,"Ġtir":11027,"Ġtransc":11028,"Ġavoided":11029,"Ġlights":11030,"Ġegg":11031,"ependent":11032,"Ġadvisers":11033,"icts":11034,"Ġjump":11035,"Ġlighting":11036,"Ġvariations":11037,"Ġinappropriate":11038,"Ġseiz":11039,"Ġresearcher":11040,"exc":11041,"Ġgol":11042,"Ġni":11043,"step":11044,"Ġputin":11045,"Ġdisadvantaged":11046,"Ġstrengths":11047,"Ġtension":11048,"Ġclearing":11049,"Ġeliminated":11050,"Ġlinking":11051,"hal":11052,"Ġengineers":11053,"Ġtall":11054,"Ġnord":11055,"ificial":11056,"Ġinteract":11057,"lad":11058,"Ġexplosives":11059,"bis":11060,"elle":11061,"aust":11062,"mem":11063,"Ġmigratory":11064,"Ð¾":11065,"itary":11066,"Ġindians":11067,"Ġmapping":11068,"Ġstrain":11069,"Ġlesser":11070,"Ġtribal":11071,"Ġroy":11072,"indust":11073,"Ġpennsylvania":11074,"sky":11075,".(":11076,"Ġlip":11077,"prote":11078,"Ġadmit":11079,"Ġentrepreneurship":11080,"Ġstrasbourg":11081,"Ġmanip":11082,"Ġprescription":11083,"thal":11084,"Ġian":11085,"Ġoutlines":11086,"kyo":11087,"Ġbesides":11088,"Ġlawmakers":11089,"Ġcanal":11090,"Ġborrowing":11091,"Ġcord":11092,"Ġfault":11093,"itch":11094,"Ġalbert":11095,"urg":11096,"Ġ1977":11097,"inational":11098,"Ġadhe":11099,"Ġbusy":11100,"Ġdiagnostic":11101,"Ġmodalities":11102,"Ġprolong":11103,"Ġteach":11104,"Ġmonitors":11105,"Ġreluct":11106,"Ġwinners":11107,"Ġcommemor":11108,"Ġcher":11109,"Ġparole":11110,"Ġpublishers":11111,"Ġoj":11112,"Ġveteran":11113,"Ġdrum":11114,"Ġmethodologies":11115,"Ġnl":11116,"Ġcorrid":11117,"missibility":11118,"Ġconverted":11119,"Ġprompted":11120,"Ġforb":11121,"turn":11122,"Ġempty":11123,"Ġcombust":11124,"Ġtracks":11125,"Ġharmonized":11126,"Ġstrikes":11127,"airy":11128,"Ġsain":11129,"Ġadvertise":11130,"system":11131,"Ġbooking":11132,"leste":11133,"Ġnicarag":11134,"Ġembargo":11135,"ims":11136,"Ġexciting":11137,"Ġkur":11138,"Ġbanned":11139,"Ġlieutenant":11140,"Ġvoter":11141,"fu":11142,"Ġchancellor":11143,"Ġjes":11144,"Ġdecisive":11145,"Ġupdating":11146,"two":11147,"Ġallen":11148,"Ġexperiencing":11149,"Ġintim":11150,"Ġdeprived":11151,"Ġveterinary":11152,"Ġcyber":11153,"leading":11154,"nis":11155,"Ġreimbursement":11156,"ordination":11157,"Ġwd":11158,"Ġiphone":11159,"rator":11160,"Ġcameroon":11161,"style":11162,"Ġorange":11163,"Ġprecip":11164,"erts":11165,"Ġgordon":11166,"Ġinterface":11167,"Ġegyptian":11168,"Ġboats":11169,"Ġammunition":11170,"nedy":11171,"Ġï£":11172,"Ġmanhattan":11173,"Ġswing":11174,"imm":11175,"Ġchairs":11176,"awi":11177,"Ġpayroll":11178,"Ġvegetables":11179,"Ġ125":11180,"Ġexporter":11181,"Ġterry":11182,"Ġdogs":11183,"Ġsocialist":11184,"Ġgest":11185,"ustain":11186,"Ġmoham":11187,"default":11188,"Ġnu":11189,"Ġabuses":11190,"Ġprohibit":11191,"Ġtokyo":11192,"Ġlawsuit":11193,"gow":11194,"aka":11195,"Ġhenry":11196,"Ġkilometres":11197,"ceptions":11198,"Ġcolleague":11199,"illy":11200,"avail":11201,"Ġarchae":11202,"Ġduplication":11203,"Ġnominated":11204,"Ġorganisms":11205,"agers":11206,"matically":11207,"Ġlifetime":11208,"eme":11209,"Ġtwelve":11210,"omous":11211,"Ġconditional":11212,"Ġadditionally":11213,"Ġreceiv":11214,"bered":11215,"Ġmonu":11216,"Ġphotograp":11217,"Ġnairobi":11218,"liest":11219,"Ġanthony":11220,"rif":11221,"Ġindependently":11222,"isual":11223,"Ġreclass":11224,"chtenstein":11225,"itius":11226,"Ġblame":11227,"Ġexploring":11228,"pes":11229,"uana":11230,"Ġrespects":11231,"Ġecho":11232,"obile":11233,"Ġmong":11234,"Ġ130":11235,"Ġincumbent":11236,"Ġfoss":11237,"Ġcongression":11238,"Ġindividually":11239,"Ġcareg":11240,"jik":11241,"Ġphrase":11242,"Ġsenators":11243,"Ġcampus":11244,"1990":11245,"owners":11246,"Ġadvancing":11247,"locked":11248,"Ġhandbook":11249,"Ġbenefited":11250,"Ġpressing":11251,"Ġserge":11252,"itted":11253,"Ġsaved":11254,"Ġamazing":11255,"Ġfragment":11256,"Ġfluct":11257,"Ġalan":11258,"Ġpromises":11259,"Ġpalace":11260,"Ġmoon":11261,"Ġhole":11262,"otive":11263,"Ġbeer":11264,"Ġspite":11265,"Ġfaso":11266,"Ġsuppression":11267,"Ġshipments":11268,"Ġurgency":11269,"Ġvinc":11270,"Ġuc":11271,"Ġalexander":11272,"Ġmere":11273,"Ġdesper":11274,"ng":11275,"ospace":11276,"Ġrats":11277,"Ġcapita":11278,"Ġtranslated":11279,"Ġexclude":11280,"idae":11281,"Ġassumptions":11282,"Ġgiants":11283,"Ġsevent":11284,"ql":11285,"Ġcongressional":11286,"Ġtrades":11287,"Ġsixt":11288,"Ġbureauc":11289,"gam":11290,"Ġhurricane":11291,"Ġwol":11292,"Ġfulfilled":11293,"Ġpride":11294,"Ġrebel":11295,"Ġohchr":11296,"Ġincorporating":11297,"Ġsuperintendent":11298,"fb":11299,"Ġdeciding":11300,"Ġtiny":11301,"Ġseeds":11302,"Ġchat":11303,"Ġinhabitants":11304,"Ġprojections":11305,"Ġharder":11306,"Ġaudiov":11307,"Ġcalib":11308,"Ġpushing":11309,"support":11310,"Ġcapit":11311,"Ġwp":11312,"Ġcatalogue":11313,"Ġwrites":11314,"Ġwalker":11315,"idad":11316,"Ġdistinguished":11317,"Ġkennedy":11318,"Ġuzbekistan":11319,"Ġcairo":11320,"Ġinvasion":11321,"Ġannexed":11322,"del":11323,"Ġrecycling":11324,"ogram":11325,"core":11326,"izz":11327,"Ġsymp":11328,"minister":11329,"Ġdg":11330,"Ġinsect":11331,"Ġovern":11332,"och":11333,"Ġtourists":11334,"Ġinjection":11335,"Ġmills":11336,"Ġobstacle":11337,"Ġsubstitute":11338,"Ġincorporation":11339,"Ġ1975":11340,"uity":11341,"esity":11342,"Ġfern":11343,"asy":11344,"Ġmah":11345,"Ġresolving":11346,"cnn":11347,"Ġoutset":11348,")]":11349,"Ġstewart":11350,"Ġconvergence":11351,"Ġrivals":11352,"Ġtalked":11353,"speaking":11354,"Ġrect":11355,"Ġbenchmark":11356,"Ġ700":11357,"Ġhug":11358,"Ġvegetation":11359,"Ġjohan":11360,"Ġeag":11361,"Ġpron":11362,"Ġgrey":11363,"Ġjr":11364,"Ġrolling":11365,"Ġinvestigator":11366,"Ġformulated":11367,"Ġartificial":11368,"culosis":11369,"aba":11370,"Ġinnovations":11371,"doch":11372,"ocking":11373,"Ġminerals":11374,"Ġtons":11375,"home":11376,"Ġneighbours":11377,"Ġentrance":11378,"Ġaudiovisual":11379,"habit":11380,"Ġthunder":11381,"Ġ1950":11382,"Ġresponsive":11383,"Ġrevital":11384,"Ġcattle":11385,"jo":11386,"division":11387,"Ġadvocates":11388,"Ġseverely":11389,"Ġfranch":11390,"bing":11391,"Ġeverywhere":11392,"Ġsexually":11393,"Ġimpair":11394,"burn":11395,"employed":11396,"mart":11397,"Ġrelocation":11398,"Ġcourage":11399,"Ġpremiums":11400,"Ġforeigners":11401,"Ġspectac":11402,"Ġmotivated":11403,"Ġcancelled":11404,"Ġbrows":11405,"Ġtaiwan":11406,"Ġschedules":11407,"Ġpredecess":11408,"Ġay":11409,"Ġcharities":11410,"Ġconfron":11411,"books":11412,"contact":11413,"Ġcustomary":11414,"Ġrup":11415,"Ġdanish":11416,"Ġovernight":11417,"ratic":11418,"departmental":11419,"Ġscenarios":11420,"ĠÎ¼g":11421,"sd":11422,"ori":11423,"take":11424,"Ġnerv":11425,"Ġtremend":11426,"Ġ1971":11427,"rgy":11428,"Ġhip":11429,"Ġadministrators":11430,"Ġglossary":11431,"rier":11432,"Ġracing":11433,"Ġsurren":11434,"Ġaerospace":11435,"Ġll":11436,"Ġdefensive":11437,"Ġchaired":11438,"___":11439,"Ġceiling":11440,",'":11441,"Ġoverwhelming":11442,"Ġeditorial":11443,"inte":11444,"Ġtemporarily":11445,"Ġbish":11446,"Ġea":11447,"ascar":11448,"Ġthereafter":11449,"Ġliberalization":11450,"Ġrated":11451,"Ġavoiding":11452,"ika":11453,"Ġ1976":11454,"Ġmolecular":11455,"oes":11456,"Ġhondur":11457,"card":11458,"Ġappraisal":11459,"Ñģ":11460,"sum":11461,"Ġenrolment":11462,"Ġsediment":11463,"Ġstun":11464,"Ġbalk":11465,"Ġrevisions":11466,"perform":11467,"Ġannounces":11468,"Ġamericas":11469,"sb":11470,"Ġnewsletter":11471,"Ġcostly":11472,"Ġcouples":11473,"owered":11474,"Ġdynamics":11475,"Ġdos":11476,"ulous":11477,"Ġcorrectly":11478,"Ġcontaminants":11479,"Ġbrut":11480,"Ġkeeps":11481,"Ġcelebration":11482,"Ġpeters":11483,"Ġfeatured":11484,"iscons":11485,"Ġparam":11486,"Ġstaying":11487,"Ġfires":11488,"Ġhybrid":11489,"Ġliechtenstein":11490,"Ġparticipatory":11491,"Ġjournalist":11492,"Ġvilla":11493,"Ġtape":11494,"mg":11495,"Ġreorgan":11496,"Ġnationwide":11497,"Ġauthorize":11498,"berry":11499,"lihood":11500,"Ġrepatri":11501,"Ġbuyer":11502,"iliation":11503,"Ġparliamentarians":11504,"ishment":11505,"pec":11506,"Ġaspir":11507,"Ġcompt":11508,"Ġattempting":11509,"Ġdw":11510,"Ġshield":11511,"Ġloading":11512,"essed":11513,"funded":11514,"accessible":11515,"Ġmultinational":11516,"Ġmurdoch":11517,"Ġactress":11518,"Ġbloom":11519,"Ġ140":11520,"âĢ¨âĢ¨":11521,"Ġprivileges":11522,"Ġmodelling":11523,"Ġamounted":11524,"Ġstayed":11525,"Ġarabic":11526,"Ġultra":11527,"Ġpandemic":11528,"Ġexecuted":11529,"Ġhp":11530,"Ġlivelihood":11531,"isconsin":11532,"Ġtk":11533,"Ġassured":11534,"Ġtimel":11535,"Ġconcentrate":11536,"Ġprud":11537,"Ġinequality":11538,"Ġsoutheast":11539,"Ġmerger":11540,"anke":11541,"Ġinher":11542,"Ġeleg":11543,"Ġsophisticated":11544,"acer":11545,"Ġstockholm":11546,"Ġepidemic":11547,"Ġblast":11548,"Ġmacroeconomic":11549,"oli":11550,"Ġcircular":11551,"Ġcommencement":11552,"Ġnobody":11553,"Ġcorrective":11554,"Ġchicken":11555,"Ġpolish":11556,"Ġtribunals":11557,"Ġmauritius":11558,"tml":11559,"Ġcondemn":11560,"Ġbias":11561,"Ġstockp":11562,"Ġvenue":11563,"athan":11564,"Ġdetermines":11565,"Ġion":11566,"Ġanalyse":11567,"Ġsanta":11568,"Ġbiennial":11569,"Ġeros":11570,"Ġbacteria":11571,"vity":11572,"Ġhate":11573,"Ġcontested":11574,"Ġsah":11575,"Ġvarying":11576,"Ġthreatening":11577,"Ġdairy":11578,"Ġburkina":11579,"Ġplas":11580,"Ġobesity":11581,"Ġautomated":11582,".;":11583,"Ġpresidents":11584,"irts":11585,"Ġmilest":11586,"Ġdefending":11587,"ĠmÃ©tis":11588,"Ġfabrics":11589,"sters":11590,"Ġderog":11591,"Ġsurely":11592,"Ġye":11593,"Ġbruce":11594,"Ġtheore":11595,"Ġgraham":11596,"Ġave":11597,"Ġspan":11598,"Ġhect":11599,"weg":11600,"employment":11601,"Ġrib":11602,"Ġfid":11603,"ships":11604,"gill":11605,"Ġarray":11606,"Ġirres":11607,"819":11608,"Ġscul":11609,"Ġwatched":11610,"Ġmul":11611,"Ġarranged":11612,"Ġpock":11613,"Ġbattery":11614,"Ġguardian":11615,"Ġtherein":11616,"Ġappropriation":11617,"minist":11618,"Ġchapters":11619,"Ġwis":11620,"Ġbalances":11621,"antic":11622,"position":11623,"Ġgrid":11624,"Ġyields":11625,"olly":11626,"rgyz":11627,"Ġconsular":11628,"Ġspecially":11629,"Ġinnocent":11630,"Ġburning":11631,"Ġtrigger":11632,"only":11633,"teries":11634,"tit":11635,"Ġtennis":11636,"Ġlegitimacy":11637,"Ġvalidation":11638,"aming":11639,"Ġascertain":11640,"Ġfond":11641,"Ġthinks":11642,"len":11643,"Ġquarters":11644,"Ġunve":11645,"Ġunderlined":11646,"Ġcock":11647,"enter":11648,"Ġlang":11649,"Ġuphold":11650,"Ġinsight":11651,"Ġought":11652,"omer":11653,"Ġcalculations":11654,"Ġkelly":11655,"plain":11656,"Ġjeopard":11657,"Ġprest":11658,"Ġmaximize":11659,"Ġnad":11660,"ulus":11661,"grow":11662,"Ġdistinctive":11663,"lat":11664,"Ġhm":11665,"Ġanswered":11666,"rah":11667,"opher":11668,"Ġmargins":11669,"Ġhang":11670,"Ġarsenal":11671,"Ġzambia":11672,"Ġconvenient":11673,"uda":11674,"oxy":11675,"Ġeuropeans":11676,"Ġconsolidate":11677,"Ġdesertification":11678,"Ġbacking":11679,"game":11680,"Ġauthorisation":11681,"Ġreporter":11682,"Ġspecialty":11683,"Ġrapporteurs":11684,"Ġaccus":11685,"Ðµ":11686,"Ġperfectly":11687,"Ġtuberculosis":11688,"105":11689,"search":11690,"Ġtrustees":11691,"Ġdefenders":11692,"Ġsuccession":11693,"Ġtens":11694,"Ġbarcl":11695,"Ġnw":11696,"Ġinner":11697,"Ġmitigate":11698,"Ġdowntown":11699,"Ġimperative":11700,"Ġinac":11701,"Ġdivorce":11702,"Ġsuspects":11703,"Ġexpressly":11704,"pad":11705,"Ġbold":11706,"Ġcorr":11707,"Ġalg":11708,"Ġmiscon":11709,"aken":11710,"Ġpesticides":11711,"Ġsli":11712,"Ġcliff":11713,"Ġwisconsin":11714,"epa":11715,"Ġdisplacement":11716,"connect":11717,"Ġbaseball":11718,"Ġrecourse":11719,"Ġvaccines":11720,"adelph":11721,"Ġaccessed":11722,"Ġstatutes":11723,"Ġdeny":11724,"Ġinmates":11725,"Ġtouc":11726,"ourcing":11727,"Ġpersonality":11728,"Ġ(-":11729,"Ġdisseminate":11730,"Ð°":11731,"Ġbeliefs":11732,"Ġsulphur":11733,"Ġgifts":11734,"Ġlifestyle":11735,"Ġfulfilling":11736,"Ġfilling":11737,"==":11738,"Ġpoul":11739,"regist":11740,"Ġbib":11741,"Ġdelete":11742,"glas":11743,"Ġapolog":11744,"Ġrecruiting":11745,"lings":11746,"whe":11747,"press":11748,"Ġzimmer":11749,"Ġwriters":11750,"Ġlaying":11751,"Ġpine":11752,"Ġstabilization":11753,"Ġsystematically":11754,"Ġreplied":11755,"Ġpainting":11756,"many":11757,"Ġnicaragua":11758,"isa":11759,"Ġcomptroll":11760,"rass":11761,"Ġqa":11762,"otte":11763,"pres":11764,"lay":11765,"Ġbreaks":11766,"rem":11767,"Ġchecked":11768,"itar":11769,"Ġsie":11770,"Ġwhit":11771,"Ġbathroom":11772,"Ġthoughts":11773,"Ġimportantly":11774,"Ġcsc":11775,"Ġbeds":11776,"uce":11777,"fm":11778,"quest":11779,"Ġorche":11780,"Ġphilosophy":11781,"Ġlun":11782,"adelphia":11783,"Ġfasc":11784,"Ġmozamb":11785,"Ġchambers":11786,"inking":11787,"Ġsymposium":11788,"ested":11789,"Ġrocket":11790,"ji":11791,"Ġallev":11792,"trade":11793,"Ġchoosing":11794,"Ġcfia":11795,"Ġcoordinators":11796,"Ġentrepreneur":11797,"Ġthereto":11798,"Ġimplies":11799,"apsed":11800,"Ġwinds":11801,"Ġfought":11802,"osa":11803,"hydro":11804,"Ġexceeds":11805,"Ġexperiments":11806,"Ġdominican":11807,"Ġcigarettes":11808,"Ġconscious":11809,"Ġray":11810,"tan":11811,"telephone":11812,"mid":11813,"obe":11814,"Ġcombustion":11815,"Ġcompetitions":11816,"Ġsurvivors":11817,"Ġauthorised":11818,"development":11819,"Ġuranium":11820,"!\"":11821,"Ġbutter":11822,"Ġcompact":11823,"rific":11824,"Ġwond":11825,"rell":11826,"Ġvaries":11827,"Ġcondemned":11828,"Ġmedication":11829,"Ġintermed":11830,"Ġdemob":11831,"Ġcareers":11832,"Ġgmt":11833,"ocation":11834,"unate":11835,"bery":11836,"Ġstipulates":11837,"Ġpanama":11838,"Ġglas":11839,"Ġaccelerated":11840,"Ġprivat":11841,"phan":11842,"controlled":11843,"phones":11844,"Ġrestored":11845,"Ġstrat":11846,"Ġerosion":11847,"olas":11848,"Ġmps":11849,"Ġï£µ":11850,"enzie":11851,"Ġclauses":11852,"Ġausterity":11853,"Ġjay":11854,"Ġspatial":11855,"Ġstandardized":11856,"Ġcharitable":11857,"hetic":11858,"Ġreinforced":11859,"Ġpod":11860,"Ġaccessing":11861,"Ġkyrgyz":11862,"Ġphones":11863,"ounce":11864,"120":11865,"Ġhepatitis":11866,"Ġtimetable":11867,"Ġgray":11868,"spons":11869,"Ġarena":11870,"Ġduly":11871,"Ġelementary":11872,"Ġpoorest":11873,"Ġportal":11874,"Ġtragedy":11875,"Ġrelie":11876,"afc":11877,"simile":11878,"Ġexplanatory":11879,"Ġforming":11880,"Ġeconomist":11881,"Ġbrands":11882,"itors":11883,"Ġlitigation":11884,"Ġcombine":11885,"Ġclothes":11886,"Ġmuscle":11887,"Ġdiame":11888,"Ġexemptions":11889,"Ġcontinuously":11890,"ologically":11891,"Ġbonus":11892,"Ġelectro":11893,"Ġautonomous":11894,"rim":11895,"Ġupgrading":11896,"Ġepisode":11897,"Ġdirectory":11898,"Ġassists":11899,"Ġbasically":11900,"Ġdiscount":11901,"Ġhc":11902,"Ġrecreation":11903,"fn":11904,"Ġaffirm":11905,"Ġradioactive":11906,"Ġenzy":11907,"Ġemerge":11908,"Ġstroke":11909,"taking":11910,"Ġaggression":11911,"Ġsafer":11912,"Ġefflu":11913,"Ġthermal":11914,"stan":11915,"Ġwash":11916,"Ġshortage":11917,"Ġphysically":11918,"Ġbis":11919,"Ġunchanged":11920,"Ġbone":11921,"Ġcorporal":11922,"Ġcreativity":11923,"Ġneck":11924,"Ġfocuss":11925,"Ġipad":11926,"Ġcotton":11927,"ozy":11928,"Ġstol":11929,"Ġdrilling":11930,"Ġtenure":11931,"istically":11932,"Ġpromptly":11933,"Ġot":11934,"atlantic":11935,"Ġdramatically":11936,"finan":11937,"Ġrealities":11938,"Ġlesson":11939,"Ġdesigner":11940,"Ġlegislature":11941,"bian":11942,"Ġinterven":11943,"Ġretrie":11944,"Ġinvestigative":11945,"Ġhors":11946,"Ġratify":11947,"politan":11948,"Ġjenn":11949,"Ġtheft":11950,"Ġemirates":11951,"Ġcommissioned":11952,"Ġpione":11953,"proport":11954,"Ġbeating":11955,"olds":11956,"Ġmira":11957,"Ġimporters":11958,"Ġaccepting":11959,"Ġpersist":11960,"Ġphiladelphia":11961,"Ġdisciplines":11962,"Ġsteven":11963,"Ġdeductions":11964,"Ġsizes":11965,"Ġelectors":11966,"Ã¡n":11967,"rene":11968,"Ġbroker":11969,"gg":11970,"inct":11971,"lab":11972,"Ġshed":11973,"Ġexpressions":11974,"Ġvat":11975,"Ġdioxide":11976,"Ġfeaturing":11977,"rix":11978,"Ġsixtieth":11979,"Ġinsured":11980,"Ġsuddenly":11981,"Ġfinn":11982,"zes":11983,"open":11984,"agenda":11985,"Ġefficacy":11986,"Ġtablet":11987,"Ġengineer":11988,"Ġdraws":11989,"Ġguns":11990,"cellaneous":11991,"usive":11992,"Ġdivide":11993,"Ġfreshwater":11994,"Ġfutures":11995,"Ġfinalized":11996,"Ġthence":11997,"Ġowns":11998,"eared":11999,"Ġnoon":12000,"Ġkillings":12001,"Ġbelgian":12002,"Ã«":12003,"Ġmars":12004,"Ġimportation":12005,"rac":12006,"Ġtajik":12007,"meas":12008,"Ġmathe":12009,"Ġsummarized":12010,"ington":12011,"endable":12012,"Ġdeferred":12013,"ela":12014,"Ġdevelops":12015,"Ġprecedence":12016,"pop":12017,"Ġrush":12018,"Ġhart":12019,"pie":12020,"Ġbroch":12021,"Ġaddiction":12022,"enhagen":12023,"Ġrefrig":12024,"henyl":12025,"Ġatlant":12026,"Ġnominee":12027,"Ġwarming":12028,"Ġboxes":12029,"Ġreun":12030,"Ġpatrol":12031,"nat":12032,"Ġbasketball":12033,"Ġwalked":12034,"Ġharry":12035,"Ġkings":12036,"Ġbiomass":12037,"five":12038,"Ġfinger":12039,"Ġeconomists":12040,"Ġsegments":12041,"Ġpledged":12042,"heimer":12043,"rez":12044,"Ġranked":12045,"hot":12046,"Ġmultid":12047,"Ġoccupying":12048,"igue":12049,"Ġcommercialization":12050,"Ġcampbell":12051,"Ġccra":12052,"Ġelaborate":12053,"social":12054,"Ġdrinks":12055,"Ġfulfill":12056,"Ġimply":12057,"Ġtropical":12058,"Ġconcerted":12059,"Ġdistribute":12060,"Ġappealed":12061,"Ġdeficiencies":12062,"Ġmuslims":12063,"Ġsusan":12064,"Ġcw":12065,"Ġinject":12066,"Ġjane":12067,"Ġwastewater":12068,"fold":12069,"Äĩ":12070,"sens":12071,"Ġentrusted":12072,"Ġimproper":12073,"Ġeve":12074,"Ġclinic":12075,"fac":12076,"Ġtsun":12077,"Ġvendor":12078,"applic":12079,"Ġ104":12080,"Ġmozambique":12081,"Ġdemanded":12082,"Ġ350":12083,"Ġlistening":12084,"Ġeveryday":12085,"Ġviewers":12086,"took":12087,"bet":12088,"Ġul":12089,"Ġlogic":12090,"Ġentail":12091,"rupted":12092,"Ġvietnam":12093,"Ġctm":12094,"usc":12095,"issau":12096,"Ġinconsistent":12097,"Ġperry":12098,"uccess":12099,"Ġlabels":12100,"Ġconsortium":12101,"Ġunanimously":12102,"Ã©tÃ©":12103,"Ġplatforms":12104,"Ġappreciated":12105,"Ġkidna":12106,"Ġhonduras":12107,"hort":12108,"Ġshan":12109,"Ġincompat":12110,"edia":12111,"Ġextends":12112,"Ġranges":12113,"Ġpond":12114,"Ġallocations":12115,"Ġacknowledges":12116,"Ġglad":12117,"glo":12118,"sign":12119,"green":12120,"eb":12121,"Â§":12122,".);":12123,"Ġreper":12124,"Ġsurrounded":12125,"Ġemergence":12126,"Ġmetropolitan":12127,"mant":12128,"Ġbrazilian":12129,"Ġ@":12130,"Ġdebts":12131,"Ġmajesty":12132,"russ":12133,"habitat":12134,"Ġwidth":12135,"Ġbore":12136,"Ġcommunist":12137,"Ġfbi":12138,"Ġmaryland":12139,"Ġipc":12140,"nell":12141,"Ġcenturies":12142,"Ġcuban":12143,"Ġtries":12144,"Ġdistort":12145,"Ġmature":12146,"Ġclaimants":12147,"Ġfitted":12148,"financial":12149,"Ġvarieties":12150,"sterdam":12151,"Ġmonaco":12152,"Ġtremendous":12153,"Ġfines":12154,"Ġembra":12155,"Ġblocked":12156,"Ġ1974":12157,"idal":12158,"Ġneglig":12159,"Ġreceipts":12160,"ao":12161,"1991":12162,"Ġcompiled":12163,"Ġsphere":12164,"2011":12165,"special":12166,"Ġ1972":12167,"Ġweaknesses":12168,"Ġcomedy":12169,"owed":12170,"lie":12171,"Ġterrace":12172,"Ġconservatives":12173,"Ġopera":12174,"Ġdifferently":12175,"Ġverd":12176,"Ġhamas":12177,"arts":12178,"Ġfluid":12179,"Ġresidual":12180,"Ġdetri":12181,"vs":12182,"contrib":12183,"Ġsymbols":12184,"Ġrecruited":12185,"Ġhoward":12186,"limited":12187,"Ġces":12188,"alo":12189,"ysis":12190,"Ġsporting":12191,"ascus":12192,"Ġdeeper":12193,"compet":12194,"die":12195,"opy":12196,"Ġpilots":12197,"det":12198,"Ġillustrated":12199,"Ġstretch":12200,"Ġcream":12201,"Ġgenes":12202,"Ġreferees":12203,"france":12204,"Ġcta":12205,"Ġwolf":12206,"Ġheter":12207,"Ġaiming":12208,"Ġlacking":12209,"Ġrestraint":12210,"Ġrecons":12211,"Ġcooking":12212,"figure":12213,"Ġdoc":12214,"aza":12215,"Ġgaining":12216,"Ġusd":12217,"Ġraces":12218,"lical":12219,"Ġcontempl":12220,"issues":12221,"Ġcreditor":12222,"1992":12223,"1993":12224,"Ġoccupy":12225,"Ġvoices":12226,"udic":12227,"isse":12228,"Ġrisen":12229,"cycle":12230,"Ġrecognise":12231,"roid":12232,"thirds":12233,"atics":12234,"Ġfraction":12235,"Ġharv":12236,"Ġstipulated":12237,"Ġausp":12238,"Ġ160":12239,"Ġ103":12240,")/":12241,"Ġtire":12242,"Ġcsis":12243,"\";":12244,"Ġignored":12245,"Ġcraig":12246,"Ġreplic":12247,"Ġproductions":12248,"Ġaccurately":12249,"Ġkam":12250,"Ġmou":12251,"Ġmississ":12252,"Ġhs":12253,"Ġordin":12254,"master":12255,"Ġsubsections":12256,"Ġendorse":12257,"web":12258,"Ġingredient":12259,"Ġxi":12260,"Ġgn":12261,"Ġexplaining":12262,"Ġmamm":12263,"Ġbarclays":12264,"Ġfeelings":12265,"gregated":12266,"Ġbuck":12267,"Ġclassroom":12268,"Ġpenet":12269,"Ġredress":12270,"Ġdenial":12271,"Ġattracted":12272,"ģĦ":12273,"Ġliterary":12274,"Ġdisparities":12275,"Ġcess":12276,"Ġalaska":12277,"reens":12278,"Ġassuming":12279,"Ġshower":12280,"Ġ1000":12281,"Ġcycles":12282,"Ġgy":12283,"ÃŃa":12284,"manship":12285,"Ġfru":12286,"sit":12287,"Ġslip":12288,"Ġtoy":12289,"Ġacoa":12290,"ateur":12291,"Ġcivic":12292,"Ġpump":12293,"mble":12294,"aret":12295,"Ġfert":12296,"Ġoccasionally":12297,"cutting":12298,"Ġapartments":12299,"Ġdistinguish":12300,"Ġlegend":12301,",âĢĻ":12302,"Ġactivist":12303,"Ġlaugh":12304,"Ġzo":12305,"Ġreveals":12306,"Ġnich":12307,"Ġintervene":12308,"Ã¨s":12309,"Ġearthquake":12310,"Ġtorn":12311,"Ġtn":12312,"Ġdamascus":12313,"Ġnik":12314,"Ġinventories":12315,"Ġsodium":12316,"ibia":12317,"Ġcalculating":12318,"Ġparag":12319,"driven":12320,"ardo":12321,"Ġconvert":12322,"Ġflour":12323,"Ġimposing":12324,"proportion":12325,"invest":12326,"Ġdoubts":12327,"Ġdebtor":12328,"Ġbailout":12329,"Â£":12330,"****":12331,"Ġciting":12332,"million":12333,"Ġnr":12334,"Ġearliest":12335,"Ġcharacteristic":12336,"Ġenshr":12337,"Ġconceptual":12338,"Ġdilig":12339,"prom":12340,"Ġpassword":12341,"Ġdemonstrations":12342,"Ġapproached":12343,"Ġsty":12344,"dg":12345,"Ġdefendant":12346,"cive":12347,"Ġnights":12348,"Ġpenins":12349,"Ġviability":12350,"dig":12351,"Ãº":12352,"ifier":12353,"Ġbeck":12354,"Ġ1973":12355,"nrc":12356,"Ġtragic":12357,"ols":12358,"Ġmodes":12359,"Ġpropag":12360,"Ġamsterdam":12361,"Ġcollectively":12362,"Ġborne":12363,"Ġracist":12364,"Ġintercultural":12365,"Ġirrespective":12366,"Ġpornography":12367,"Ġ180":12368,"Ġmedicinal":12369,"etus":12370,"Ġapprent":12371,"Ġmistakes":12372,"alt":12373,"Ġdouglas":12374,"Ġaccumulated":12375,"Ġpreserving":12376,"Ġtrains":12377,"schedul":12378,"Ġreads":12379,"Ġpest":12380,"Ġtraine":12381,"Ġdelegate":12382,"Ġsurveyed":12383,"Ġmh":12384,"hran":12385,"Ġbenin":12386,"Ġnurse":12387,"forces":12388,"Ġscra":12389,"Ġclerk":12390,"Ġhub":12391,"Ġelite":12392,"Ġsynthesis":12393,"dh":12394,"anth":12395,"âģĦ":12396,"Ġconducive":12397,"Ġcogn":12398,"oubted":12399,"Ġregulating":12400,"ĠâĢĿ":12401,"aki":12402,"Ġ115":12403,"Ġautomotive":12404,"Ġmck":12405,"ito":12406,"Ġdispers":12407,"chairman":12408,"Ġreduces":12409,"ico":12410,"Ġchecking":12411,"Ġriding":12412,"Ġhidden":12413,"Ġpredictable":12414,"lon":12415,"Ġpromotional":12416,"Ġbelt":12417,"Ġappearing":12418,"Ġprobe":12419,"dad":12420,"Ġapproves":12421,"Ġabundance":12422,"Ġstepped":12423,"ertion":12424,"Ġsharply":12425,"Ġconfisc":12426,"Ġcopenhagen":12427,"Ġprecurs":12428,"Ġurgently":12429,"Ġencounter":12430,"Ġthanked":12431,"Ġnasa":12432,"Ġsem":12433,"Ġgovernors":12434,"olis":12435,"Ġforwarded":12436,"Ġdealers":12437,"Ġbroadcasters":12438,"Ġgrace":12439,"Ġfragile":12440,"Ġundergo":12441,"Ġplural":12442,"Ġnfl":12443,"Ġquotas":12444,"Ġfled":12445,"Ġceasefire":12446,"Ġgroundwater":12447,"Ġmaturity":12448,"ippers":12449,"Ġspecim":12450,"frame":12451,"Ġ1373":12452,"Ġturnover":12453,"Ġbiology":12454,"Ġguards":12455,"Ġdependence":12456,"cover":12457,"Ġshorter":12458,"Ġ108":12459,"Ġmongolia":12460,"Ġmanages":12461,"ometric":12462,"Ġjonathan":12463,"Ð¸":12464,"Ġshelf":12465,"Ġanger":12466,"ubar":12467,"administ":12468,"Ġdisappearance":12469,"Ġbriefings":12470,"Ġscript":12471,"Ġmetabol":12472,"Ġmethyl":12473,"dim":12474,"march":12475,"Ġdeserve":12476,"Ġglasgow":12477,"Ġtrick":12478,"Ġspeaks":12479,"nie":12480,"Ġcoaches":12481,"Ġsucceeded":12482,"bird":12483,"km":12484,"Ġgriff":12485,"Ġdak":12486,"assist":12487,"Ġanalyzed":12488,"sup":12489,"Ġspell":12490,"Ġupr":12491,"source":12492,"Ġseam":12493,"Ġfulfilment":12494,"Ġsteam":12495,"Ġ107":12496,"Ġturb":12497,"Ġundoubted":12498,"Ġrestrictive":12499,"Ġspur":12500,"Ġnutrient":12501,"Ġdonald":12502,"Ġbags":12503,"Ġclay":12504,"Ġdeterioration":12505,"Ġbp":12506,"Ġinstability":12507,"Ġobjections":12508,"Ġamazon":12509,"Ġsuccessor":12510,"Ġtwin":12511,"Ġspecification":12512,"Ġmaker":12513,"Ġradar":12514,"Ġimbal":12515,"Ġauspices":12516,"Ġelaboration":12517,"Ġexercising":12518,"Ġcomplied":12519,"Ġbasel":12520,"ifor":12521,"Ġpreferences":12522,"Ġtraders":12523,"asonable":12524,"bons":12525,"Ġoccupations":12526,"Ġdangers":12527,"iche":12528,"Ġcontributor":12529,"Ġpermanently":12530,"Ġproportional":12531,"Ġwealthy":12532,"private":12533,"scheduled":12534,"Ġdebris":12535,"children":12536,"wegian":12537,"Ġindoor":12538,"Ġbrom":12539,"Ġsummaries":12540,"Ġcameras":12541,"Ġsark":12542,"Ġwise":12543,"Ġtoile":12544,"Ġprobability":12545,"Ġchiefs":12546,"Ġramp":12547,"Ġoptical":12548,"Ġtehran":12549,"itement":12550,"Ġscientist":12551,"Ġprestig":12552,"Ġmedi":12553,"lv":12554,"Ġleather":12555,"Ġbarely":12556,"Ġadmissibility":12557,"Ġcontroversy":12558,"Ġcomplained":12559,"Ġcomputing":12560,"Ġzimmerman":12561,"tbs":12562,"Ġunpaid":12563,"Ġopenness":12564,"Ġunauthor":12565,"sta":12566,"Ġflaw":12567,"Ġdisappointed":12568,"Ġrepresentations":12569,"Ġsew":12570,"Ġunequ":12571,"anny":12572,"imedia":12573,"Ġpeninsula":12574,"zo":12575,"leton":12576,"Ġwitnessed":12577,"Ġelectronics":12578,"chers":12579,"Ġathens":12580,"Ġembry":12581,"Ġreferral":12582,"Ġincorrect":12583,"Ġtrucks":12584,"Ġbiograph":12585,"Ġthreaten":12586,"Ġcic":12587,"atson":12588,"ferential":12589,"nr":12590,"Ġroger":12591,"dens":12592,"Ġconvictions":12593,"oric":12594,"Ġwatershed":12595,"Ġpt":12596,"hill":12597,"Ġelector":12598,"din":12599,"urances":12600,"arial":12601,"Ġorth":12602,"Ġdiameter":12603,"atherine":12604,"Ġ---":12605,"Ġspouses":12606,"Ġdoubled":12607,"apping":12608,"Ġtreating":12609,"Ġtsunami":12610,"Ġhosts":12611,"Ġedwards":12612,"Ġsocially":12613,"ĠâĢľ(":12614,"inating":12615,"Ġmarshall":12616,"dog":12617,"icular":12618,"Ġclock":12619,"Ġcomparisons":12620,"Ġsulf":12621,"Ġodds":12622,"Ġincomplete":12623,"Ġannan":12624,"acious":12625,"lessly":12626,"Ġreaches":12627,"Ġflooding":12628,"Ġconvenience":12629,"Ġrelied":12630,"Ġexplosion":12631,"Ġhans":12632,"adi":12633,"Ġrigorous":12634,"Ġchains":12635,"tech":12636,"oen":12637,"Ġreceiver":12638,"Ġjav":12639,"Ġhalt":12640,"Ġproponent":12641,"Ġbirthday":12642,"Ġpav":12643,"Ġdisproportion":12644,"Ġconfiguration":12645,"Ġrobinson":12646,"haul":12647,"Ġcontingency":12648,"Ġsystemic":12649,"Ġpreclud":12650,"Ġei":12651,"Ġalle":12652,"Ġgag":12653,"Ġdall":12654,"Ġcheese":12655,"Ġsafely":12656,"bissau":12657,"Ġremainder":12658,"uing":12659,"Ġstereotyp":12660,"Ġale":12661,"Ġoperative":12662,"Ġshoes":12663,"Ġundertook":12664,"Ġstain":12665,"vas":12666,"Ġoptimal":12667,"Ġundue":12668,"grav":12669,"Ġtajikistan":12670,"omal":12671,"Ġentries":12672,"Ġhudson":12673,"june":12674,"âĢĶâĢĶ":12675,"Ġtrustee":12676,"Ġmasters":12677,"Ġselecting":12678,"Ġstolen":12679,"Ġcategor":12680,"urate":12681,"Ġcharts":12682,"Ġdesigning":12683,"Ġmatthe":12684,"Ġelectronically":12685,"bt":12686,"europa":12687,"Ġsheriff":12688,"Ġprevailing":12689,"Ġsuscept":12690,"Ġfiref":12691,"compan":12692,"Ġsculpt":12693,"Ġportable":12694,"Ġdrove":12695,"women":12696,"itably":12697,"Ġbog":12698,"Ġfounding":12699,"Ġdonation":12700,"Ġallocate":12701,"Ġexaminations":12702,"Ġnhs":12703,"Ġmodules":12704,"Ġammon":12705,"Ġmiscellaneous":12706,"Ġchurches":12707,"Ġterminated":12708,"Ġdelegated":12709,"annex":12710,"speed":12711,"Ġweren":12712,"Ġnan":12713,"Ġchen":12714,"working":12715,"Ġgardens":12716,"Ġparaguay":12717,"Ġsara":12718,"nesota":12719,"Ġsmuggling":12720,"ineau":12721,"Ġrocks":12722,"Ġfossil":12723,"Ġdesignate":12724,"Ġjohannes":12725,"Ã£o":12726,"Ġshoulder":12727,"Ġchocol":12728,"Ġmonopol":12729,"Ġdemonstrating":12730,"Ġsubdivision":12731,"Äį":12732,"Ġtib":12733,"Ġstreams":12734,"Ġmall":12735,"Ġquart":12736,"Ġacquiring":12737,"Ġdip":12738,"Ġregina":12739,"Ġproxim":12740,"cos":12741,"Ġcorrected":12742,"Ġanonymous":12743,"Ġsyndrome":12744,"Ġpillar":12745,"Ġrounds":12746,"xual":12747,"Ġnotable":12748,"Ġsyd":12749,"Ġupset":12750,"Ġposter":12751,"Ġdent":12752,"Ġunrest":12753,"Ġspare":12754,"acity":12755,"Ġplug":12756,"Ġdave":12757,"gregation":12758,"persons":12759,"Ġsquadron":12760,"san":12761,"Ġexplored":12762,"asi":12763,"aning":12764,"Ġhistorically":12765,"Ġaustrian":12766,"Ġ900":12767,"gradu":12768,"Ġsteadily":12769,"pack":12770,"Ġcriticized":12771,"Ġarriving":12772,"ourt":12773,"hq":12774,"Ġvoy":12775,"Ġwaves":12776,"Ġslavery":12777,"Ġevolved":12778,"Ġviii":12779,"start":12780,"Ġstanley":12781,"Ġsoils":12782,"lac":12783,"Ġenvoy":12784,"Ġbadly":12785,"Ġguess":12786,"Ġcorrel":12787,"Ġsme":12788,"Ġminds":12789,"check":12790,"Ġorally":12791,"Ġmoist":12792,"Ġlane":12793,"iÃ¨re":12794,"Ġgig":12795,"Ġexporting":12796,"Ġdisappeared":12797,"Ġprospective":12798,"Ġcomprise":12799,"Ġinability":12800,"Ġdrafts":12801,"Ġhide":12802,"Ġtrillion":12803,"Ġsolvent":12804,"Ġchristopher":12805,"Ġ1968":12806,"address":12807,"Ġaspirations":12808,"Ġjason":12809,"Ã©es":12810,"Ġhelicopters":12811,"Ġpertinent":12812,"Ġundoubtedly":12813,"Ġminnesota":12814,"acre":12815,"Ġstir":12816,"Ġyard":12817,"Ġgrades":12818,"sche":12819,"âĢĿ;":12820,"Ġreinforcing":12821,"Ġnpt":12822,"Ġconfederation":12823,"Ġdurable":12824,"commerce":12825,"Ġchemistry":12826,"Ġgradual":12827,"Ġfinancially":12828,"pacific":12829,"Ġmild":12830,"Ġnutritional":12831,"Ġsuccessive":12832,"Ġclark":12833,"Ġaddendum":12834,"Ġeradicate":12835,"Ġangry":12836,"Ġdeadly":12837,"Ġterminology":12838,"Ġdisplays":12839,"Ġpakistani":12840,"abil":12841,"mers":12842,"budgetary":12843,"Ġwatson":12844,"Ġforgot":12845,"final":12846,"Ġbout":12847,"âĢĿ)":12848,"Ġfla":12849,"Ġgenerous":12850,"ether":12851,"rov":12852,"Ġseattle":12853,"oty":12854,"Ġincremental":12855,"Ġcoupled":12856,"Ġinstal":12857,"Ġpuer":12858,"Ġunified":12859,"Ġrab":12860,"Ġviewing":12861,"Ġclarified":12862,"Ġhampshire":12863,"Ġranking":12864,"times":12865,"Ġmissiles":12866,"Ġexplanations":12867,"Ġmagic":12868,"Ġbac":12869,"101":12870,"Ġnorwegian":12871,"Ġatlanta":12872,"Ġmatching":12873,"nab":12874,"Ġformulate":12875,"iev":12876,"Ġalignment":12877,"french":12878,"Ġgram":12879,"region":12880,"Ġyar":12881,"Ġfranco":12882,"Ġinterrog":12883,"essment":12884,"issance":12885,"iere":12886,"Ġpoultry":12887,"Ġtone":12888,"map":12889,"Ġopponent":12890,"Ġspeculation":12891,"Ġcens":12892,"Ġspill":12893,"Ġmitchell":12894,"Ġbrooklyn":12895,"Ġshifts":12896,"Ġdiscre":12897,"Ġtriple":12898,"iral":12899,"odc":12900,"Ġintentions":12901,"zheimer":12902,"posed":12903,"Ġcelebrated":12904,"Ġpam":12905,"Ġriv":12906,"safe":12907,"Ġtract":12908,"Ġdeposition":12909,"points":12910,"Ġdiego":12911,"Ġperformers":12912,"Ġfilter":12913,"Ġcleared":12914,"Ġhockey":12915,"Ġtat":12916,"Ġreaffirm":12917,"Ġinstant":12918,"Ġaligned":12919,"Ġfantastic":12920,"imic":12921,"Ġsuccesses":12922,"bp":12923,"</":12924,"Ġlikes":12925,"Ġaccredited":12926,"Ġterrible":12927,"Ġarrests":12928,"gol":12929,"Ġutilities":12930,"dumping":12931,"Ġformerly":12932,"Ġbehaviours":12933,"Ġsponsorship":12934,"Ġloose":12935,"acerb":12936,"Ġoios":12937,"Ġladen":12938,"Ġphill":12939,"raid":12940,"Ġdevelopers":12941,"Ġpoison":12942,"Ġdelta":12943,"Ġempire":12944,"Ġlaur":12945,"Ġana":12946,"wat":12947,"mented":12948,"rition":12949,"Ġinsecurity":12950,"Ġdefinitive":12951,"usky":12952,"Ġshipment":12953,"ructures":12954,"Ġintensify":12955,"Ġmoore":12956,"Ġnortheast":12957,"Ġexcited":12958,"Ġgut":12959,"Ġasc":12960,"Ġrender":12961,"rend":12962,"Ġmyst":12963,"Ġfm":12964,"Ġkenn":12965,"Ġkabul":12966,"agascar":12967,"720":12968,"Ġsons":12969,"Ġsmokers":12970,"Ġnod":12971,"Ġexacerb":12972,"keep":12973,"Ġbridges":12974,"Ġenthusi":12975,"Ġoscar":12976,"Ġcredited":12977,"Ġprivilege":12978,"ucky":12979,"Ġrrsp":12980,"Ġimmune":12981,"pra":12982,"losure":12983,"Ġhorses":12984,"ubarak":12985,"Ġcrus":12986,"aciÃ³n":12987,"Ġtransmitting":12988,"Ġnou":12989,"hl":12990,"Ġhier":12991,"olon":12992,"Ġfighters":12993,"gel":12994,"umbered":12995,"Ġinaug":12996,"750":12997,"Ġdish":12998,"Ġconfined":12999,"Ġknee":13000,"Ġtendency":13001,"Ġchron":13002,"Ġpositively":13003,"lections":13004,"Ġrss":13005,"Ġcastle":13006,"Ġattachment":13007,"respons":13008,"Ġharmonisation":13009,"Ġpse":13010,"____________":13011,"Ġcultiv":13012,"Ġfacto":13013,"Ġautonum":13014,"unes":13015,"Ġrightly":13016,"Ġcessation":13017,"Ġprohibits":13018,"Ġdistributors":13019,"ipher":13020,"track":13021,"docs":13022,"Ġbrack":13023,"Ġdisrupt":13024,"Ġrejection":13025,"Ġepa":13026,"amas":13027,"urable":13028,"Ġairspace":13029,"Ġforcing":13030,"ripts":13031,"Ġvincent":13032,"judicial":13033,"Ġprecaution":13034,"inois":13035,"etown":13036,"Ġharvesting":13037,"Ġstrange":13038,"Ġnamibia":13039,"Ġpla":13040,"Ġutilized":13041,"Ġkansas":13042,"regard":13043,"Ġscales":13044,"Ġenshrined":13045,"Ġconfirms":13046,"Ġvolatile":13047,"eastern":13048,"Ġlav":13049,"sg":13050,"Ġquad":13051,"Ġlengthy":13052,"Ġshareholder":13053,"Ġlandlocked":13054,"Ġillegally":13055,"Ġquestionnaires":13056,"gered":13057,"ashing":13058,"iders":13059,"Ġharris":13060,"Ġjp":13061,"Ġmisconduct":13062,"Ġstrains":13063,"Ġprerequ":13064,"Ġukrain":13065,"Ġeuropa":13066,"aired":13067,"Ġscenes":13068,"Ġ106":13069,"ikh":13070,"Ġchest":13071,"Ġdeterminants":13072,"rock":13073,"Ġmultimedia":13074,"Ġsurvived":13075,"Ġdevastating":13076,"Ġmagnetic":13077,"Ġsail":13078,"Ġembarrass":13079,"afi":13080,"Ġdelighted":13081,"Ġpoet":13082,"ĠÌģ":13083,"Ġjazz":13084,"Ġinterfe":13085,"Ġjacques":13086,"Ġrussell":13087,"Ġaffair":13088,"jour":13089,"quet":13090,"Ġbeaten":13091,"Ġcorrig":13092,"Ġantonio":13093,"Ġlumber":13094,"Ġtwent":13095,"ilitary":13096,"Ġassass":13097,"Ġlakers":13098,"kn":13099,"Ġparticles":13100,"ensively":13101,"Ġfron":13102,"added":13103,"Ġquar":13104,"Ġembod":13105,"fit":13106,"Ġlug":13107,"Ġberg":13108,"Ġbrotherhood":13109,"Ġtuition":13110,"unc":13111,"rank":13112,"Ġspots":13113,"Ġderivatives":13114,"Ġadvisors":13115,"Ġsilence":13116,"Ġpurely":13117,"Ġlifel":13118,"Ġfavourite":13119,"Ġgast":13120,"Ġaliens":13121,"109":13122,"Ġguaranteeing":13123,"Ġexpulsion":13124,"Ġsarkozy":13125,"Ġlenders":13126,"Ġneil":13127,"user":13128,"Ġwound":13129,"Ġalike":13130,"Ġfier":13131,"vii":13132,"Ġlump":13133,"Ġtranslate":13134,"Ġandre":13135,"Ġliquidity":13136,"outube":13137,"Ġrubber":13138,"Ġvitamin":13139,"Ġadjour":13140,"Ġmackenzie":13141,"Ġarchitectural":13142,"Ġanyway":13143,"Ġumb":13144,"Ġdating":13145,"Ġhitting":13146,"Ġwr":13147,"Ġangle":13148,"Ġprivy":13149,"Ġeducated":13150,"fficiency":13151,"Ġconvening":13152,"etric":13153,"Ġmilitants":13154,"borough":13155,"Ġfranchise":13156,"Ġov":13157,"Ġlor":13158,"Ġbirths":13159,"anes":13160,"Ġpacked":13161,"Ġevans":13162,"Ġbart":13163,"Ġump":13164,"Ġadjudic":13165,"Ġbour":13166,"Ġwheelchair":13167,"Ġcaps":13168,"oting":13169,"Ġlanded":13170,"Ġbun":13171,"eval":13172,"Ġvegas":13173,"lah":13174,"Ġsupervisors":13175,"Ġrepairs":13176,"century":13177,"Ġsuitability":13178,"Ġqaeda":13179,"Ġexpectation":13180,"Ġbrilli":13181,"Ġoldest":13182,"Ġanxi":13183,"Ġfurnished":13184,"Ġenquiries":13185,"Ġdiagnosed":13186,"Ġutmost":13187,"Ġvon":13188,"Ġhkt":13189,"Ġgraphic":13190,"ected":13191,"Ġreiterate":13192,"Ġacids":13193,"Ġdemobilization":13194,"energy":13195,"Ġarc":13196,"ĠâĢ¨Ċ":13197,"Ã®":13198,"Ġclinics":13199,"Ġcater":13200,"iji":13201,"oard":13202,"Ġconsumed":13203,"Ġ123":13204,"Ġstruggled":13205,"Ġverified":13206,"Ġcuis":13207,"archy":13208,"Ġtran":13209,"learning":13210,"stage":13211,"Ġsoul":13212,"Ġtransformed":13213,"Ġprecipitation":13214,"function":13215,"Ġgrab":13216,"Ġwra":13217,"Ġghg":13218,"Ġtransplant":13219,"ipper":13220,"Ġinforming":13221,"Ġlamps":13222,"Ġsuspend":13223,"Ġrugby":13224,"Ġstance":13225,"Ġpresently":13226,"Ġalde":13227,"Ġdiamonds":13228,"Ġmaurit":13229,"Ġosborne":13230,"Ġcompilation":13231,"rien":13232,"Ġcommented":13233,"Ġbernard":13234,"Ġnearest":13235,"Ġsignatures":13236,"ista":13237,"Ġtrout":13238,"cod":13239,"Ġassurances":13240,"Ġassignments":13241,"Ġsuspicion":13242,"Ġie":13243,"Ġtast":13244,"iler":13245,"Ġhopefully":13246,"Ġ102":13247,"Ġmedicare":13248,"Ġliked":13249,"comings":13250,"worthy":13251,"Ġrevise":13252,"topic":13253,"Ġdismant":13254,"125":13255,"Ġtouchdown":13256,"Ġpredecessor":13257,"bly":13258,"Ġcaf":13259,"Ġnis":13260,"normal":13261,"Ġhunter":13262,"Ġexploit":13263,"Ġuncom":13264,"lore":13265,"Ġpd":13266,"Ġadherence":13267,"Ġmubarak":13268,"Ġaar":13269,"Ġaggrav":13270,"Ġcomparing":13271,"Ġholes":13272,"rencies":13273,"Ġlucky":13274,"available":13275,"Ġtransported":13276,"ursed":13277,"Ġillustrate":13278,"chief":13279,"Ġanchor":13280,"lit":13281,"Ġaltered":13282,"Ġmaple":13283,"pton":13284,"ials":13285,"Ġblamed":13286,"Ġillinois":13287,"Ġalzheimer":13288,"Ġodd":13289,"Ġlegs":13290,"redit":13291,"Ġfailures":13292,"Ġstrive":13293,"ictional":13294,"Ġregen":13295,"Ġanalog":13296,"ochem":13297,"ieu":13298,"Ġcivilization":13299,"Ġwedding":13300,"ensable":13301,"Ġoppose":13302,"Ġwholesale":13303,"Ġarchive":13304,"Ġapportion":13305,"Ġsurfaces":13306,"Ġfdi":13307,"Ġpenn":13308,"Ġadversely":13309,"Ġdock":13310,"Ġconciliation":13311,"regulation":13312,"Ġcounterfe":13313,"Ġinterdepartmental":13314,"Ġcole":13315,"Ġsoy":13316,"iciency":13317,"Ġservicing":13318,"incol":13319,"Ġbagh":13320,"Ġhards":13321,"Ġresil":13322,"Ġgym":13323,"Ġtrademarks":13324,"days":13325,"Ġtheoretical":13326,"ĠÃĹ":13327,"110":13328,"Ġmeantime":13329,"Ġbenchmarks":13330,"Ġjudgments":13331,"Ġdeple":13332,"Ġcats":13333,"fth":13334,"Ġtailored":13335,"Ġix":13336,"Ġjacob":13337,"Ġsomebody":13338,"Ġtube":13339,"Ġwarehouse":13340,"oni":13341,"wick":13342,"Ġnb":13343,"Ġreloc":13344,"Ġpulp":13345,"mt":13346,"Ġshortcomings":13347,"stop":13348,"Ġconstra":13349,"Ġ111":13350,"Ġmisleading":13351,"Ġnominations":13352,"Ġdividend":13353,"Ġaccessories":13354,"Ġeaster":13355,"Ġsoccer":13356,"Ġrefined":13357,"Ġgamb":13358,"community":13359,"Ġeib":13360,"Ġdividends":13361,"Ġpreferential":13362,"Ġcontracted":13363,"Ġafraid":13364,"mac":13365,"vals":13366,"Ġcolours":13367,"three":13368,"Ġposes":13369,"pered":13370,"aware":13371,"aboriginal":13372,"Ġ................................":13373,"Ġflowers":13374,"math":13375,"204":13376,"Ġcass":13377,"Ġyoutube":13378,"Ġtoug":13379,"Ġconced":13380,"Ġpublicity":13381,"Ġharsh":13382,"Ġrif":13383,"process":13384,"Ġpillars":13385,"Ġsimplified":13386,"Ġpink":13387,"Ġci":13388,"Ġcose":13389,"Ġsydney":13390,"heastern":13391,"amation":13392,"Ġveto":13393,"Ġindisp":13394,"Ġemphasizing":13395,"Ġcloud":13396,"ppy":13397,"beit":13398,"Ġbillions":13399,"except":13400,"Ġpub":13401,"Ġexhibits":13402,"inst":13403,"screen":13404,"omed":13405,"Ġnoticed":13406,"chem":13407,"ordinate":13408,"Ġ________________":13409,"Ġcoaching":13410,"arab":13411,"Ġpuerto":13412,"Ġcommunicating":13413,"Ġbub":13414,"entions":13415,"hiri":13416,"Ġconnecting":13417,"Ġnets":13418,"aya":13419,"van":13420,"council":13421,"hn":13422,"Ġmerchand":13423,"cas":13424,"Ġjub":13425,"Ġfuneral":13426,"Ġadministrations":13427,"Ġmobilize":13428,"sely":13429,"Ġdeadlines":13430,"Ġlifelong":13431,"Ġdick":13432,"Ġherb":13433,"Ġseafood":13434,"Ġmeps":13435,"Ġstressing":13436,"agger":13437,"Ġinstrumental":13438,"kok":13439,"Ġmonter":13440,"ĠÃ¢":13441,"Ġsandusky":13442,"Ġadolescent":13443,"Ġry":13444,"Ġbabies":13445,"Ġmadagascar":13446,"Ġmacdonald":13447,"Ġcoron":13448,"Ġfifteen":13449,"Ġvolunt":13450,"Ġabolition":13451,"Ġdoses":13452,"Ġgc":13453,"Ġignore":13454,"Ġtends":13455,"Â»":13456,"Ġdrawings":13457,"oria":13458,"Ġprocla":13459,"Ġselective":13460,"Ġdistress":13461,"Ġdir":13462,"Ġjen":13463,"Ġcommended":13464,"charge":13465,"Ġtrin":13466,"april":13467,"organized":13468,"Ġsearches":13469,"ijuana":13470,"Ġenrolled":13471,"Ġkra":13472,"Ġspar":13473,"Ġexhibitions":13474,"Ġpointing":13475,"Ġprolonged":13476,"Ġicc":13477,"Ġchase":13478,"urban":13479,"gart":13480,"Ġdining":13481,"Ġstops":13482,"Ġessence":13483,"ifact":13484,"Ġrefrain":13485,"Ġcombining":13486,"Ġsanction":13487,"Ġlogical":13488,"omes":13489,"Ġ118":13490,"130":13491,"Ġseals":13492,"Ġfreeze":13493,"Ġperceptions":13494,"Ġoxford":13495,"Ġpad":13496,"Ġfame":13497,"Ġmagazines":13498,"Ġspectacular":13499,"Ð½":13500,"Ġcurrencies":13501,"Ġnev":13502,"Ġscreens":13503,"his":13504,"sah":13505,"Ġtackling":13506,"gener":13507,"Ġrises":13508,"Ġcollaborate":13509,"Ġmanning":13510,"Ġpoorly":13511,"Ġaafc":13512,"Ġlocked":13513,"otics":13514,"Ġuncon":13515,"Ġplaint":13516,"Ġjamahiri":13517,"Ġhealing":13518,"Ġsarah":13519,"Ġimped":13520,"Ġcatast":13521,"Ġharvard":13522,"Ġglac":13523,"Ġanalysed":13524,"Ġvigil":13525,"Ġmotivation":13526,"*,":13527,"Ġgly":13528,"Ġcambridge":13529,"Ġmidfield":13530,"Ġannouncements":13531,"Ġstap":13532,"Ġsorry":13533,"cur":13534,"Ġcurricula":13535,"Ġjamahiriya":13536,"ivities":13537,"Ġanalyze":13538,"Ġvoluntarily":13539,"Ġlawful":13540,"Ġog":13541,"Ġsb":13542,"Ġslam":13543,"Ġprecision":13544,"Ġinitiation":13545,"Ġbattal":13546,"Ġgratitude":13547,"Ġarguing":13548,"Ġincompatible":13549,"Ġindispensable":13550,"Ġtox":13551,"beat":13552,"Ġdenver":13553,"Ġmedian":13554,"uffs":13555,"Ġtemplate":13556,"Ġthrew":13557,"Ġpeers":13558,"max":13559,"Ġtier":13560,"even":13561,"Ġtissues":13562,"Ġore":13563,"vre":13564,"Ġkyrgyzstan":13565,"ership":13566,"info":13567,"Ġattainment":13568,"Ġretreat":13569,"jet":13570,"Ġmeter":13571,"naissance":13572,"Ġprecious":13573,"Ġsynthetic":13574,"lee":13575,"Ġank":13576,"Ġexplorer":13577,"Ġreliance":13578,"Ġfda":13579,"Ġmanagerial":13580,"Ġsummits":13581,"lead":13582,"eman":13583,"lib":13584,"\").":13585,"pine":13586,"Ġspra":13587,"Ġjohannesburg":13588,"Ġaber":13589,"ben":13590,"Ġphilip":13591,"ĠâĢĻ":13592,"Ġloud":13593,"Ġfriendship":13594,"Ġattracting":13595,"nl":13596,"Ġslide":13597,"uan":13598,"iller":13599,"Ġrepatriation":13600,"Ġplea":13601,"Ġaffiliated":13602,"Ġinches":13603,"Ġcustod":13604,"ums":13605,"Ġsouthwest":13606,"Ġafore":13607,"Ġcompatibility":13608,"gone":13609,"Ġinfluences":13610,"Ġdisposed":13611,"Ġctmr":13612,"Ġpreserved":13613,"heading":13614,"Ġcuisine":13615,"Ġindicative":13616,"Ġleverage":13617,"cro":13618,"prin":13619,"\">":13620,"Ġmathemat":13621,"Ġcompensate":13622,"Ġcasino":13623,"Ġpledge":13624,"rq":13625,"Ġrim":13626,"money":13627,"sol":13628,"uate":13629,"Ġpremature":13630,"pelled":13631,"Ġhell":13632,"Ġhighlighting":13633,"session":13634,"omon":13635,"Ġwholly":13636,"xy":13637,"Ġdismissal":13638,"Ġmud":13639,"Ġstal":13640,"Ġlloy":13641,"Ġdiplomacy":13642,"Ġlifted":13643,"py":13644,"Ġdeprec":13645,"Ġathlete":13646,"Ġtunnel":13647,"anna":13648,"Ġislamist":13649,"proof":13650,"Ġspo":13651,"wind":13652,"Ġaccorded":13653,"Ġhypothes":13654,"Ġbroadband":13655,"Ġaudited":13656,"Ġstandardization":13657,"Ġ109":13658,"Ġnervous":13659,"ĠjosÃ©":13660,"Ġawaiting":13661,"Ġdamaging":13662,"Ġrotation":13663,"onie":13664,"Ġoverhead":13665,"Ġchocolate":13666,
[...]
