{"version":"1.0","truncation":null,"padding":null,"added_tokens":[{"id":0,"special":true,"content":"[UNK]","single_word":false,"lstrip":false,"rstrip":false,"normalized":false},{"id":1,"special":true,"content":"[SEP]","single_word":false,"lstrip":false,"rstrip":false,"normalized":false},{"id":2,"special":true,"content":"[PAD]","single_word":false,"lstrip":false,"rstrip":false,"normalized":false}],"normalizer":{"type":"Sequence","normalizers":[{"type":"NFKC"},{"type":"Lowercase"}]},"pre_tokenizer":{"type":"ByteLevel","add_prefix_space":true,"trim_offsets":true},"post_processor":null,"decoder":null,"model":{"type":"BPE","dropout":null,"unk_token":"[UNK]","continuing_subword_prefix":null,"end_of_word_suffix":null,"fuse_unk":false,"vocab":{"[UNK]":0,"[SEP]":1,"[PAD]":2,"!":3,"\"":4,"#":5,"$":6,"%":7,"&":8,"'":9,"(":10,")":11,"*":12,"+":13,",":14,"-":15,".":16,"/":17,"0":18,"1":19,"2":20,"3":21,"4":22,"5":23,"6":24,"7":25,"8":26,"9":27,":":28,";":29,"<":30,"=":31,">":32,"?":33,"@":34,"A":35,"B":36,"C":37,"D":38,"E":39,"F":40,"G":41,"H":42,"I":43,"J":44,"K":45,"L":46,"M":47,"N":48,"O":49,"P":50,"Q":51,"R":52,"S":53,"T":54,"U":55,"V":56,"W":57,"X":58,"Y":59,"Z":60,"[":61,"\\":62,"]":63,"^":64,"_":65,"`":66,"a":67,"b":68,"c":69,"d":70,"e":71,"f":72,"g":73,"h":74,"i":75,"j":76,"k":77,"l":78,"m":79,"n":80,"o":81,"p":82,"q":83,"r":84,"s":85,"t":86,"u":87,"v":88,"w":89,"x":90,"y":91,"z":92,"{":93,"|":94,"}":95,"~":96,"¡":97,"¢":98,"£":99,"¤":100,"¥":101,"¦":102,"§":103,"¨":104,"©":105,"ª":106,"«":107,"¬":108,"®":109,"¯":110,"°":111,"±":112,"²":113,"³":114,"´":115,"µ":116,"¶":117,"·":118,"¸":119,"¹":120,"º":121,"»":122,"¼":123,"½":124,"¾":125,"¿":126,"À":127,"Á":128,"Â":129,"Ã":130,"Ä":131,"Å":132,"Æ":133,"Ç":134,"È":135,"É":136,"Ê":137,"Ë":138,"Ì":139,"Í":140,"Î":141,"Ï":142,"Ð":143,"Ñ":144,"Ò":145,"Ó":146,"Ô":147,"Õ":148,"Ö":149,"×":150,"Ø":151,"Ù":152,"Ú":153,"Û":154,"Ü":155,"Ý":156,"Þ":157,"ß":158,"à":159,"á":160,"â":161,"ã":162,"ä":163,"å":164,"æ":165,"ç":166,"è":167,"é":168,"ê":169,"ë":170,"ì":171,"í":172,"î":173,"ï":174,"ð":175,"ñ":176,"ò":177,"ó":178,"ô":179,"õ":180,"ö":181,"÷":182,"ø":183,"ù":184,"ú":185,"û":186,"ü":187,"ý":188,"þ":189,"ÿ":190,"Ā":191,"ā":192,"Ă":193,"ă":194,"Ą":195,"ą":196,"Ć":197,"ć":198,"Ĉ":199,"ĉ":200,"Ċ":201,"ċ":202,"Č":203,"č":204,"Ď":205,"ď":206,"Đ":207,"đ":208,"Ē":209,"ē":210,"Ĕ":211,"ĕ":212,"Ė":213,"ė":214,"Ę":215,"ę":216,"Ě":217,"ě":218,"Ĝ":219,"ĝ":220,"Ğ":221,"ğ":222,"Ġ":223,"ġ":224,"Ģ":225,"ģ":226,"Ĥ":227,"ĥ":228,"Ħ":229,"ħ":230,"Ĩ":231,"ĩ":232,"Ī":233,"ī":234,"Ĭ":235,"ĭ":236,"Į":237,"į":238,"İ":239,"ı":240,"Ĳ":241,"ĳ":242,"Ĵ":243,"ĵ":244,"Ķ":245,"ķ":246,"ĸ":247,"Ĺ":248,"ĺ":249,"Ļ":250,"ļ":251,"Ľ":252,"ľ":253,"Ŀ":254,"ŀ":255,"Ł":256,"ł":257,"Ń":258,"Ġt":259,"Ġa":260,"he":261,"in":262,"Ġthe":263,"er":264,"Ġs":265,"on":266,"Ġ,":267,"re":268,"Ġw":269,"Ġc":270,"Ġo":271,"ed":272,"Ġb":273,"nd":274,"Ġf":275,"at":276,"Ġ.":277,"or":278,"it":279,"en":280,"Ġp":281,"Ġin":282,"Ġm":283,"is":284,"es":285,"ar":286,"Ġof":287,"an":288,"al":289,"ing":290,"Ġd":291,"as":292,"Ġand":293,"Ġh":294,"Ġto":295,"ro":296,"ic":297,"Ġl":298,"ion":299,"ĠĊ":300,"ou":301,"Ġn":302,"Ġre":303,"il":304,"Ġe":305,"Ġg":306,"Ġth":307,"Ġ=":308,"le":309,"ent":310,"Ġ\"":311,"Ġ1":312,"st":313,"Ġ@":314,"el":315,"am":316,"om":317,"Ġon":318,"ac":319,"ad":320,"Ġwas":321,"Ġst":322,"Ġbe":323,"Ġhe":324,"ur":325,"ly":326,"Ġ'":327,"Ġfor":328,"Ġu":329,"id":330,"im":331,"ol":332,"ter":333,"Ġas":334,"ir":335,"-@":336,"Ġ@-@":337,"iv":338,"ig":339,"ct":340,"ot":341,"ut":342,"Ġr":343,"et":344,"ith":345,"ay":346,"ow":347,"Ġ2":348,"Ġal":349,"ver":350,"Ġwith":351,"ce":352,"ation":353,"Ġthat":354,"Ġwh":355,"Ġit":356,"ch":357,"Ġcon":358,"Ġat":359,"Ġj":360,"Ġan":361,"Ġby":362,"Ġde":363,"Ġse":364,"Ġis":365,"us":366,"Ġk":367,"Ġv":368,"th":369,"Ġ)":370,"Ġ(":371,"ul":372,"ers":373,"Ġch":374,"and":375,"ain":376,"em":377,"Ġ19":378,"rom":379,"Ġhis":380,"os":381,"her":382,"ag":383,"av":384,"um":385,"est":386,"Ġcom":387,"00":388,"Ġsu":389,"ri":390,"Ġfrom":391,"Ġpro":392,"od":393,"pe":394,"Ġne":395,"ist":396,"if":397,"un":398,"ill":399,"ore":400,"ld":401,"ap":402,"Ġsh":403,"se":404,"Ġy":405,"ere":406,"igh":407,"res":408,"op":409,"ies":410,"Ġro":411,"qu":412,"art":413,"ber":414,"ard":415,"Ġor":416,"Ġex":417,"ich":418,"Ġpl":419,"Ġwere":420,"ak":421,"ate":422,"ort":423,"all":424,"Ġun":425,"ab":426,"Ġle":427,"ant":428,"ud":429,"oc":430,"gh":431,"ong":432,"ated":433,"ip":434,"ity":435,"ess":436,"Ġar":437,"ame":438,"ive":439,"Ġtr":440,"ie":441,"Ġhad":442,"Ġâ":443,"ack":444,"ĠâĢ":445,"ast":446,"red":447,"rou":448,"Ġwhich":449,"our":450,"ge":451,"Ġare":452,"ment":453,"Ġnot":454,"ian":455,"ov":456,"Ġaf":457,"ial":458,"pt":459,"ost":460,"ell":461,"ia":462,"ight":463,"Ġcl":464,"ust":465,"ary":466,"Ġwor":467,"ine":468,"Ġwhe":469,"pp":470,"cl":471,"rit":472,"ther":473,"Ġ3":474,"oun":475,"Ġad":476,"ical":477,"ave":478,"Ġsc":479,"cc":480,"Ġcomp":481,"Ġbut":482,"Ġen":483,"ction":484,"ord":485,"Ġthis":486,"Ġfir":487,"Ġher":488,"Ġ200":489,"te":490,"ould":491,"Ġtw":492,"Ġab":493,"ish":494,"Ġafter":495,"Ġcont":496,"Ġfirst":497,"ous":498,"so":499,"Ġte":500,"ide":501,"Ġ20":502,"Ġsp":503,"ure":504,"Ġits":505,"Ġnew":506,"ign":507,"Ġtheir":508,"Ġam":509,"Ġall":510,"Ġ;":511,"Ġman":512,"per":513,"Ġone":514,"ra":515,"ition":516,"Ġint":517,"Ġper":518,"ass":519,"ĠâĢĵ":520,"Ġalso":521,"ub":522,"Ġus":523,"Ġmar":524,"ire":525,"og":526,"ok":527,"Ġshe":528,"ru":529,"ear":530,"Ġ:":531,"ater":532,"ome":533,"Ġtim":534,"Ġres":535,"out":536,"orm":537,"age":538,"Ġrec":539,"ond":540,"Ġthey":541,"ry":542,"Ġser":543,"Ġi":544,"hed":545,"Ġtwo":546,"Ġfe":547,"Ġpart":548,"Ġ4":549,"Ġag":550,"ue":551,"Ġwho":552,"Ġcomm":553,"du":554,"Ġdes":555,"ans":556,"Ġhave":557,"Ġ5":558,"ree":559,"Ġbec":560,"ally":561,"ff":562,"Ġdis":563,"ance":564,"ile":565,"Ġgo":566,"Ġ18":567,"Ġwe":568,".@":569,"Ġ@.@":570,"pl":571,"Ġover":572,"Ġyear":573,"own":574,"ted":575,"ice":576,"Ġoff":577,"iz":578,"Ġplay":579,"Ġhas":580,"uring":581,"Ġbeen":582,"ence":583,"Ġco":584,"Ġother":585,"ect":586,"Ġ201":587,",@":588,"Ġ@,@":589,"Ġim":590,"ough":591,"ke":592,"are":593,"ory":594,"Ġcol":595,"ely":596,"ts":597,"Ġout":598,"Ġme":599,"ations":600,"clud":601,"Ġup":602,"ach":603,"ace":604,"Ġinter":605,"Ġpre":606,"ound":607,"land":608,"Ġev":609,"Ġpr":610,"Ġfin":611,"wn":612,"Ġwhen":613,"Ġbo":614,"ade":615,"ib":616,"act":617,"ions":618,"Ġspe":619,"Ġtime":620,"Ġduring":621,"Ġcan":622,"ail":623,"urn":624,"Ġinclud":625,"ress":626,"ced":627,"Ġap":628,"Ġfl":629,"ric":630,"ens":631,"Ġwould":632,"ks":633,"Ġsec":634,"man":635,"Ġfil":636,"one":637,"Ġind":638,"we":639,"ward":640,"Ġbr":641,"ang":642,"nder":643,"Ġinto":644,"Ġhim":645,"Ġatt":646,"Ġbl":647,"ite":648,"ult":649,"Ġear":650,"oll":651,"ates":652,"Ġ6":653,"Ġmore":654,"Ġqu":655,"able":656,"Ġjo":657,"Ġwar":658,"ces":659,"ased":660,"Ġpe":661,"Ġchar":662,"ited":663,"ren":664,"Ġcent":665,"amp":666,"ied":667,"Ġrep":668,"ase":669,"Ġbet":670,"Ġfilm":671,"rough":672,"way":673,"Ġgr":674,"ount":675,"Ġform":676,"les":677,"form":678,"Ġ7":679,"ors":680,"ason":681,"aw":682,"Ġpo":683,"ember":684,"ings":685,"Ġwhile":686,"ose":687,"Ġacc":688,"vel":689,"Ġmus":690,"Ġgame":691,"ne":692,"ild":693,"Ġmost":694,"ve":695,"ered":696,"Ġthere":697,"Ġrem":698,"Ġcar":699,"Ġfr":700,"ind":701,"Ġnor":702,"ck":703,"Ġpar":704,"Ġso":705,"Ġgen":706,"Ġsou":707,"Ġass":708,"ake":709,"ious":710,"att":711,"old":712,"Ġcons":713,"Ġhow":714,"ents":715,"aus":716,"Ġ8":717,"fer":718,"iss":719,"reat":720,"Ġem":721,"Ġno":722,"Ġlater":723,"Ġbu":724,"Ġsong":725,"ick":726,"round":727,"Ġreg":728,"Ġprodu":729,"Ġagain":730,"ft":731,"Ġonly":732,"gan":733,"Ġact":734,"rib":735,"ved":736,"Ġunder":737,"Ġwork":738,"ood":739,"Ġsy":740,"Ġmay":741,"Ġthem":742,"Ġkn":743,"Ġ9":744,"Ġsome":745,"Ġthan":746,"Ġret":747,"ters":748,"Ġthree":749,"als":750,"Ġabout":751,"ubl":752,"ix":753,"Ġ199":754,"ath":755,"ween":756,"Ġver":757,"Ġbetween":758,"ollow":759,"ph":760,"ons":761,"hip":762,"Ġday":763,"Ġhigh":764,"Ġbro":765,"Ġrele":766,"Ġeng":767,"Ġthrough":768,"Ġmon":769,"oth":770,"Ġrecord":771,"Ġfollow":772,"Ġmin":773,"eric":774,"Ġma":775,"fore":776,"ational":777,"Ġapp":778,"Ġsecond":779,"Ġrel":780,"Ġend":781,"Ġli":782,"Ġph":783,"Ġnum":784,"ict":785,"Ġsub":786,"Ġac":787,"Ġele":788,"ton":789,"ug":790,"Ġimp":791,"Ġpres":792,"iew":793,"Ġ00":794,"Ġsa":795,"Ġed":796,"Ġair":797,"Ġalb":798,"Ġseason":799,"Ġfour":800,"Ġep":801,"Ġdef":802,"Ġpos":803,"Ġdo":804,"Ġworld":805,"Ġameric":806,"Ġnorth":807,"Ġinc":808,"Ġent":809,"Ġwhere":810,"cted":811,"ral":812,"Ġbefore":813,"Ġteam":814,"ning":815,"Ġmov":816,"ular":817,"ating":818,"ames":819,"Ġspec":820,"Ġwrit":821,"Ġarm":822,"Ġmade":823,"Ġsm":824,"Ġlar":825,"Ġsch":826,"ision":827,"Ġloc":828,"Ġgu":829,"Ġwill":830,"ived":831,"Ġsuch":832,"hes":833,"Ġsur":834,"Ġcap":835,"Ġpol":836,"Ġdr":837,"Ġsing":838,"son":839,"Ġalbum":840,"Ġpubl":841,"Ġ000":842,"ished":843,"Ġsever":844,"io":845,"Ġyears":846,"ained":847,"ics":848,"Ġsupp":849,"iel":850,"Ġcall":851,"ode":852,"ever":853,"Ġ10":854,"ll":855,"Ġsouth":856,"Ġshow":857,"Ġback":858,"ident":859,"ros":860,"Ġadd":861,"Ġrev":862,"Ġ/":863,"Ġgener":864,"Ġboth":865,"ual":866,"tern":867,"ily":868,"Ġinv":869,"Ġthen":870,"Ġhowever":871,"Ġappe":872,"Ġepis":873,"Ġcount":874,"Ġused":875,"Ġdec":876,"Ġrece":877,"ute":878,"Ġmill":879,"ale":880,"ific":881,"Ġbeing":882,"Ġthese":883,"Ġwell":884,"ury":885,"Ġmet":886,"Ġset":887,"Ġstud":888,"Ġseries":889,"Ġagainst":890,"Ġbatt":891,"Ġz":892,"ten":893,"ank":894,"Ġcharac":895,"Ġinst":896,"ife":897,"Ġfound":898,"Ġnumber":899,"Ġste":900,"velop":901,"Ġbel":902,"Ġlead":903,"Ġmany":904,"Ġ17":905,"Ġmusic":906,"Ġsim":907,"Ġmat":908,"orn":909,"Ġperform":910,"Ġ0":911,"Ġmain":912,"ane":913,"Ġlong":914,"other":915,"Ġop":916,"Ġcity":917,"Ġter":918,"int":919,"Ġcre":920,"ool":921,"oy":922,"Ġbrit":923,"ause":924,"ince":925,"end":926,"Ġdevelop":927,"Ġbecame":928,"ert":929,"Ġunited":930,"Ġsl":931,"Ġdire":932,"igin":933,"Ġseveral":934,"Ġhist":935,"Ġart":936,"Ġincluding":937,"Ġship":938,"ĠâĢĶ":939,"hn":940,"Ġdep":941,"au":942,"ather":943,"air":944,"Ġstate":945,"Ġmil":946,"Ġexp":947,"ise":948,"Ġinf":949,"Ġearly":950,"Ġdiv":951,"ier":952,"Ġorigin":953,"ised":954,"ower":955,"Ġob":956,"vern":957,"Ġ198":958,"Ġ15":959,"Ġ12":960,"Ġpop":961,"Ġtrans":962,"Ġdid":963,"its":964,"ars":965,"Ġdist":966,"ired":967,"ement":968,"ject":969,"ork":970,"ley":971,"ures":972,"ines":973,"Ġnov":974,"Ġ194":975,"rop":976,"und":977,"iet":978,"Ġcontin":979,"Ġgovern":980,"olog":981,"Ġwin":982,"ities":983,"Ġpers":984,"der":985,"roup":986,"Ġprov":987,"led":988,"az":989,"Ġepisode":990,"til":991,"Ġstates":992,"elf":993,"ross":994,"ared":995,"Ġcrit":996,"anc":997,"Ġsaid":998,"Ġjohn":999,"Ġfollowing":1000,"ful":1001,"ird":1002,"Ġke":1003,"Ġest":1004,"Ġconst":1005,"Ġdesign":1006,"Ġgroup":1007,"Ġcould":1008,"Ġdif":1009,"Ġstr":1010,"ys":1011,"ative":1012,"iver":1013,"Ġreturn":1014,"Ġmed":1015,"Ġ16":1016,"Ġrun":1017,"Ġoper":1018,"Ġamerican":1019,"ock":1020,"Ġdesc":1021,"ouse":1022,"na":1023,"Ġalth":1024,"Ġknown":1025,"tend":1026,"Ġalthough":1027,"Ġcomple":1028,"ield":1029,"Ġaust":1030,"Ġany":1031,"ivers":1032,"Ġwest":1033,"Ġger":1034,"Ġsign":1035,"Ġ197":1036,"Ġmod":1037,"Ġking":1038,"Ġjun":1039,"ron":1040,"Ġserv":1041,"Ġpass":1042,"Ġlo":1043,"emb":1044,"Ġdown":1045,"ually":1046,"Ġ196":1047,"Ġ11":1048,"Ġland":1049,"uch":1050,"ty":1051,"Ġfam":1052,"Ġnear":1053,"ued":1054,"Ġbegan":1055,"ting":1056,"Ġlike":1057,"gr":1058,"Ġfeat":1059,"Ġoffic":1060,"ined":1061,"Ġeff":1062,"Ġuntil":1063,"row":1064,"ople":1065,"ism":1066,"Ġdisc":1067,"ange":1068,"Ġbar":1069,"aking":1070,"Ġhar":1071,"Ġalong":1072,"Ġschool":1073,"Ġbecause":1074,"Ġown":1075,"ern":1076,"ided":1077,"Ġreleased":1078,"Ġopen":1079,"Ġport":1080,"ccess":1081,"ins":1082,"ized":1083,"Ġcalled":1084,"Ġnational":1085,"Ġprev":1086,"Ġel":1087,"ger":1088,"Ġcr":1089,"Ġthough":1090,"uc":1091,"Ġmaj":1092,"ists":1093,"Ġwee":1094,"iam":1095,"Ġpeople":1096,"ured":1097,"stem":1098,"Ġyou":1099,"ially":1100,"up":1101,"Ġins":1102,"Ġgre":1103,"ution":1104,"Ġann":1105,"Ġclass":1106,"Ġcolle":1107,"ments":1108,"Ġmillion":1109,"osed":1110,"Ġjust":1111,"ium":1112,"Ġcour":1113,"Ġever":1114,"Ġsystem":1115,"cept":1116,"Ġbritish":1117,"ull":1118,"Ġge":1119,"Ã©":1120,"Ġsince":1121,"Ġhead":1122,"Ġla":1123,"Ġ13":1124,"Ġsix":1125,"ner":1126,"Ġadv":1127,"Ġbest":1128,"Ġaut":1129,"Ġaround":1130,"Ġaug":1131,"ark":1132,"Ġaward":1133,"Ġmajor":1134,"Ġlife":1135,"Ġcor":1136,"Ġ$":1137,"Ġif":1138,"Ġju":1139,"Ġeach":1140,"Ġsuccess":1141,"ains":1142,"Ġbre":1143,"Ġattack":1144,"Ġsept":1145,"any":1146,"xt":1147,"gest":1148,"ah":1149,"Ġvar":1150,"Ġcharacter":1151,"oot":1152,"Ġuse":1153,"Ġav":1154,"Ġseptember":1155,"Ġdescrib":1156,"Ġaugust":1157,"Ġstart":1158,"amed":1159,"Ġconf":1160,"rap":1161,"get":1162,"ible":1163,"Ġsame":1164,"Ġroad":1165,"Ġtri":1166,"Ġhel":1167,"ont":1168,"ik":1169,"Ġeast":1170,"aced":1171,"Ġfinal":1172,"Ġline":1173,"Ġsupport":1174,"Ġocc":1175,"Ġoct":1176,"Ġanother":1177,"ris":1178,"Ġdem":1179,"Ġfive":1180,"Ġcare":1181,"Ġpublic":1182,"aining":1183,"Ġ14":1184,"Ġprom":1185,"Ġsw":1186,"Ġkm":1187,"Ġty":1188,"Ġgreat":1189,"Ġbuild":1190,"Ġlit":1191,"Ġra":1192,"Ġold":1193,"Ġconc":1194,"els":1195,"Ġaustral":1196,"aving":1197,"Ġ195":1198,"Ġext":1199,"Ġmy":1200,"Ġgl":1201,"Ġtook":1202,"Ġcamp":1203,"Ġband":1204,"Ġgerman":1205,"ues":1206,"enn":1207,"Ġbook":1208,"Ġarea":1209,"Ġmid":1210,"Ġhouse":1211,"Ġsmall":1212,"ob":1213,"ove":1214,"ann":1215,"Ġreport":1216,"Ġ193":1217,"ep":1218,"Ġconsid":1219,"Ġcentury":1220,"ober":1221,"Ġturn":1222,"ped":1223,"Ġreceived":1224,"uss":1225,"Ġoctober":1226,"Ġcontro":1227,"ets":1228,"ants":1229,"ives":1230,"ble":1231,"Ġstre":1232,"Ġunivers":1233,"ically":1234,"Ġsk":1235,"hing":1236,"Ġ191":1237,"Ġwhat":1238,"Ġdue":1239,"Ġgames":1240,"Ġpartic":1241,"Ġshort":1242,"Ġlast":1243,"Ġgovernment":1244,"Ġdirect":1245,"ility":1246,"Ġref":1247,"Ġhal":1248,"Ġrest":1249,"Ġmarch":1250,"ately":1251,"ina":1252,"ene":1253,"cess":1254,"Ġcommand":1255,"Ġleg":1256,"Ġes":1257,"Ġperson":1258,"Ġhome":1259,"gin":1260,"Ġ]":1261,"Ġ[":1262,"ians":1263,"ored":1264,"Ġjan":1265,"ink":1266,"Ġway":1267,"Ġjune":1268,"tle":1269,"Ġmag":1270,"ril":1271,"Ġsingle":1272,"Ġthird":1273,"Ġmark":1274,"Ġgeneral":1275,"over":1276,"Ġmen":1277,"ime":1278,"Ġsqu":1279,"Ġtit":1280,"ission":1281,"Ġjuly":1282,"Ġchild":1283,"Ġ%":1284,"Ġcapt":1285,"iving":1286,"pect":1287,"Ġnovember":1288,"urch":1289,"Ġtrack":1290,"Ġdeath":1291,"Ġdel":1292,"Ġreview":1293,"ash":1294,"Ġmuch":1295,"Ġevent":1296,"Ġisland":1297,"raft":1298,"Ġarr":1299,"Ġyork":1300,"Ġapril":1301,"uro":1302,"Ġfur":1303,"Ġdam":1304,"Ġtop":1305,"Ġlarge":1306,"uary":1307,"Ġbattle":1308,"che":1309,"Ġaccord":1310,"Ġpower":1311,"lish":1312,"Ġvers":1313,"Ġeven":1314,"Ġleft":1315,"Ġdece":1316,"Ġtown":1317,"Ġsoc":1318,"ural":1319,"ctions":1320,"Ġcast":1321,"ional":1322,"..":1323,"Ġche":1324,"Ġvide":1325,"ient":1326,"Ġallow":1327,"ively":1328,"Ġintern":1329,"Ġgun":1330,"Ġdiffer":1331,"Ġmonth":1332,"Ġ30":1333,"idge":1334,"Ġstar":1335,"ilt":1336,"Ġkill":1337,"Ġpat":1338,"Ġstory":1339,"bo":1340,"Ġappro":1341,"Ġvis":1342,"aim":1343,"ms":1344,"Ġfamily":1345,"Ġbased":1346,"Ġplace":1347,"ague":1348,"Ġcur":1349,"Ġaddition":1350,"Ġnow":1351,"mber":1352,"Ġvict":1353,"min":1354,"ven":1355,"Ġincre":1356,"Ġcal":1357,"ales":1358,"Ġpark":1359,"Ġexpl":1360,"Ġblack":1361,"ified":1362,"Ġant":1363,"Ġright":1364,"Ġ...":1365,"Ġlaw":1366,"Ġcompany":1367,"Ġarmy":1368,"avy":1369,"empt":1370,"rote":1371,"Ġdecember":1372,"Ġhistory":1373,"eng":1374,"Ġclub":1375,"Ġplayed":1376,"Ġ25":1377,"Ġmor":1378,"Ġstorm":1379,"by":1380,"Ġaccording":1381,"Ġpost":1382,"ling":1383,"Ġincluded":1384,"Ġriver":1385,"ps":1386,"Ġname":1387,"ats":1388,"Ġlos":1389,"Ġjanuary":1390,"Ġwater":1391,"Ġled":1392,"Ġred":1393,"Ġ192":1394,"Ġir":1395,"rist":1396,"ograp":1397,"omet":1398,"bert":1399,"Ġhand":1400,"aged":1401,"Ġwind":1402,"ball":1403,"ony":1404,"apan":1405,"Ġwom":1406,"Ġwrote":1407,"inc":1408,"Ġii":1409,"Ġwon":1410,"Ġang":1411,"Ġhum":1412,"ently":1413,"erg":1414,"Ġresp":1415,"Ġjapan":1416,"Ġtimes":1417,"ages":1418,"Ġstru":1419,"Ġorgan":1420,"Ġopp":1421,"Ġval":1422,"ience":1423,"Ġrequ":1424,"Ġprevious":1425,"ital":1426,"Ġposition":1427,"Ġwithin":1428,"port":1429,"Ġappear":1430,"ody":1431,"Ġmake":1432,"med":1433,"Ġdescribed":1434,"Ġinit":1435,"Ġrad":1436,"Ġthose":1437,"Ġeuro":1438,"Ġdeb":1439,"Ġstill":1440,"Ġfore":1441,"Ġchamp":1442,"Ġvideo":1443,"Ġbill":1444,"Ġfar":1445,"ides":1446,"Ġnext":1447,"ott":1448,"Ġlate":1449,"Ġmemb":1450,"Ġstand":1451,"Ġnamed":1452,"omin":1453,"ney":1454,"Ġbelie":1455,"Ġbus":1456,"Ġamong":1457,"Ġoriginal":1458,"Ġrelease":1459,"Ġattempt":1460,"Ġeffect":1461,"por":1462,"Ġfurther":1463,"iven":1464,"Ġrepl":1465,"Ġlist":1466,"ster":1467,"ilar":1468,"Ġleague":1469,"Ġforce":1470,"Ġvery":1471,"Ġdest":1472,"Ġtele":1473,"Ġposs":1474,"cy":1475,"Ġfoot":1476,"Ġx":1477,"Ġview":1478,"Ġiss":1479,"ister":1480,"Ġbas":1481,"mer":1482,"Ġroute":1483,"iod":1484,"Ġrom":1485,"Ġreal":1486,"aff":1487,"bru":1488,"ention":1489,"Ġcy":1490,"ret":1491,"Ġ100":1492,"Ġcommun":1493,"Ġproduction":1494,"Ġexper":1495,"Ġspecies":1496,"erv":1497,"rench":1498,"ness":1499,"ior":1500,"ption":1501,"Ġmembers":1502,"ached":1503,"ival":1504,"Ġconstru":1505,"Ġsound":1506,"Ġpolit":1507,"pend":1508,"Ġwhite":1509,"Ġmilit":1510,"Ġformer":1511,"Ġchrist":1512,"Ġtour":1513,"Ġcoun":1514,"Ġfle":1515,"Ġfebru":1516,"Ġfebruary":1517,"Ġsimilar":1518,"Ġinfl":1519,"arch":1520,"Ġtak":1521,"Ġer":1522,"ances":1523,"Ġnort":1524,"Ġsold":1525,"Ġperiod":1526,"riend":1527,"Ġpa":1528,"br":1529,"Ġdivision":1530,"Ġdays":1531,"Ġbuilt":1532,"Ġmatch":1533,"Ġplan":1534,"Ġtem":1535,"ences":1536,"Ġside":1537,"Ġnat":1538,"ched":1539,"Ġroy":1540,"vers":1541,"Ġsuper":1542,"Ġprop":1543,"Ġheld":1544,"Ġeurope":1545,"ple":1546,"Ġyoun":1547,"Ġuniversity":1548,"Ġrock":1549,"Ġlight":1550,"Ġfrench":1551,"Ġgood":1552,"Ġpoint":1553,"Ġcle":1554,"ried":1555,"hen":1556,"Ġ2010":1557,"Ġservice":1558,"Ġsay":1559,"hor":1560,"Ġpresident":1561,"Ġlocal":1562,"Ġrole":1563,"Ġestab":1564,"Ġdesp":1565,"Ġmo":1566,"augh":1567,"uted":1568,"wards":1569,"Ġpresent":1570,"Ġequ":1571,"tended":1572,"Ġorder":1573,"Ġ21":1574,"Ġfre":1575,"ec":1576,"Ġdet":1577,"Ġcame":1578,"ropical":1579,"Ġevery":1580,"Ġtot":1581,"hy":1582,"Ġnever":1583,"Ġcaus":1584,"Ġsol":1585,"Ġbeh":1586,"ham":1587,"Ġhaving":1588,"Ġwilliam":1589,"Ġweek":1590,"self":1591,"Ġcross":1592,"oci":1593,"Ġeas":1594,"Ġresult":1595,"ense":1596,"Ġfew":1597,"Ġsum":1598,"ford":1599,"ĠÂ":1600,"Ġsug":1601,"ulation":1602,"Ġje":1603,"Ġtro":1604,"Ġtest":1605,"Ġassoci":1606,"Ġprof":1607,"Ġplayer":1608,"Ġchart":1609,"sh":1610,"Ġsee":1611,"ax":1612,"Ġtake":1613,"app":1614,"Ġ2008":1615,"Ġoften":1616,"Ġcommon":1617,"ices":1618,"Ġstat":1619,"ards":1620,"Ġhalf":1621,"Ġhur":1622,"Ġcareer":1623,"Ġ2009":1624,"Ġ24":1625,"ler":1626,"me":1627,"Ġcontinued":1628,"Ġgeor":1629,"Ġwat":1630,"Ġtech":1631,"Ġlow":1632,"ots":1633,"Ġfire":1634,"Ġpri":1635,"Ġclaim":1636,"Ġsty":1637,"Ġhistor":1638,"craft":1639,"ring":1640,"Ġ2011":1641,"Ġlevel":1642,"Ġsent":1643,"Ġmich":1644,"ator":1645,"Ġdifferent":1646,"Ġwithout":1647,"Ġpress":1648,"Ġfun":1649,"bs":1650,"Ġelect":1651,"estern":1652,"ese":1653,"Ġdespite":1654,"atic":1655,"Ġcover":1656,"Ġengland":1657,"Ġ&":1658,"ology":1659,"gram":1660,"Ġless":1661,"Ġmer":1662,"Ġcourt":1663,"Ġten":1664,"Ġparty":1665,"read":1666,"af":1667,"Ġconsidered":1668,"Ġcontr":1669,"Ġ22":1670,"ops":1671,"Ġec":1672,"gress":1673,"Ġdav":1674,"Ġdevelopment":1675,"aster":1676,"let":1677,"Ġchurch":1678,"Ġ2007":1679,"Ġarch":1680,"Ġrepres":1681,"par":1682,"Ġly":1683,"Ġtre":1684,"Ġnight":1685,"Ġcountry":1686,"ves":1687,"Ġcounty":1688,"Ġcomb":1689,"Ġinflu":1690,"Ġchampions":1691,"Ġfield":1692,"Ġroyal":1693,"Ġsongs":1694,"Ġfriend":1695,"Ġhy":1696,"Ġversion":1697,"Ġenglish":1698,"Ġmilitary":1699,"Ġmoved":1700,"Ġhighway":1701,"Ġhig":1702,"Ġdon":1703,"Ġwritten":1704,"Ġtrad":1705,"Ġwant":1706,"Ġstrong":1707,"ones":1708,"Ġdefe":1709,"rodu":1710,"co":1711,"vision":1712,"Ġconv":1713,"Ġprogram":1714,"Ġvol":1715,"Ġ2012":1716,"Ġprote":1717,"Ġbecome":1718,"Ġforces":1719,"Ġlim":1720,"Ġmi":1721,"Ġanim":1722,"Ġlittle":1723,"Ġchang":1724,"alk":1725,"side":1726,"Ġfact":1727,"Ġlost":1728,"Ġproject":1729,"ertain":1730,"ches":1731,"ize":1732,"Ġlond":1733,"Ġinternational":1734,"line":1735,"Ġbuilding":1736,"Ġ23":1737,"Ġson":1738,"Ġgiven":1739,"Ġmiss":1740,"urs":1741,"Ġtropical":1742,"Ġcontrol":1743,"Ġlondon":1744,"Ġtotal":1745,"Ġinvol":1746,"Ġaff":1747,"Ġauthor":1748,"Ġsuggest":1749,"elt":1750,"Ġord":1751,"Ġrefer":1752,"Ġhit":1753,"Ġbur":1754,"ison":1755,"utes":1756,"Ġphil":1757,"Ġ190":1758,"Ġannoun":1759,"Ġvir":1760,"hel":1761,"be":1762,"ged":1763,"atter":1764,"Ġlet":1765,"Ġlab":1766,"Ġhour":1767,"Ġread":1768,"Ġstreet":1769,"ald":1770,"Ġimport":1771,"Ġfree":1772,"iment":1773,"ened":1774,"Ġdecl":1775,"iety":1776,"ery":1777,"Ġget":1778,"Ġcanad":1779,"Ġho":1780,"Ġeight":1781,"roy":1782,"ai":1783,"sequ":1784,"Ġve":1785,"Ġvi":1786,"Ġrail":1787,"Ġperformance":1788,"que":1789,"Ġgold":1790,"ille":1791,"Ġsal":1792,"Ġsit":1793,"Ġstation":1794,"Ġgave":1795,"Ġearl":1796,"Ġwent":1797,"ering":1798,"Ġfind":1799,"Ġrepresent":1800,"rent":1801,"Ġcir":1802,"ae":1803,"Ġreturned":1804,"Ġsomet":1805,"ailed":1806,"Ġusing":1807,"Ġbroad":1808,"Ġjack":1809,"Ġneed":1810,"Ġfather":1811,"Ġpublished":1812,"Ġcoast":1813,"Ġproduced":1814,"Ġhen":1815,"Ġwestern":1816,"Ġcompet":1817,"Ġarg":1818,"Ġnews":1819,"Ġreported":1820,"Ġobs":1821,"ead":1822,"xim":1823,"Ġmass":1824,"Ġhun":1825,"Ġpopular":1826,"ably":1827,"Ġparticular":1828,"Ġrecorded":1829,"Ġchildren":1830,"ape":1831,"Ġtelevision":1832,"Ġinde":1833,"Ġ2006":1834,"Ġdu":1835,"ories":1836,"Ġstated":1837,"Ġaircraft":1838,"aign":1839,"Ġspecial":1840,"Ġcult":1841,"ama":1842,"Ġships":1843,"Ġinterest":1844,"itions":1845,"Ġground":1846,"Ġcampaign":1847,"Ġshould":1848,"Ġinclude":1849,"Ġlive":1850,"Ġlove":1851,"Ġmaking":1852,"Ġide":1853,"Ġdev":1854,"used":1855,"Ġdou":1856,"day":1857,"Ġcritic":1858,"omb":1859,"yl":1860,"Ġage":1861,"mit":1862,"Ġvo":1863,"ief":1864,"Ġfront":1865,"Ġwomen":1866,"ument":1867,"Ġhurric":1868,"Ġcentral":1869,"Ġ27":1870,"Ġcoll":1871,"aren":1872,"Ġcop":1873,"Ġthroughout":1874,"Ġprim":1875,"ints":1876,"Ġupon":1877,"Ġ50":1878,"Ġ28":1879,"Ġyoung":1880,"Ġonce":1881,"osp":1882,"iness":1883,"ploy":1884,"raw":1885,"Ġhom":1886,"Ġsuff":1887,"onom":1888,"Ġhimself":1889,"Ġofficial":1890,"Ġaustralia":1891,"Ġ2013":1892,"Ġchampionship":1893,"Ġdestroy":1894,"Ġtechn":1895,"Ġaud":1896,"ying":1897,"Ġdepart":1898,"Ġmot":1899,"Ġfac":1900,"Ġrich":1901,"Ġwall":1902,"Ġsen":1903,"Ġcharacters":1904,"ned":1905,"Ġnon":1906,"Ġsouther":1907,"cer":1908,"Ġvill":1909,"Ġball":1910,"ensive":1911,"Ġtrav":1912,"rest":1913,"Ġ40":1914,"rew":1915,"Ġcas":1916,"play":1917,"alth":1918,"Ġhor":1919,"Ġfav":1920,"Ġsea":1921,"Ġplayers":1922,"Ġsquad":1923,"Ġrelations":1924,"itive":1925,"Ġft":1926,"Ġ26":1927,"Ġpra":1928,"Ġcam":1929,"Ġcirc":1930,"Ġinstead":1931,"eder":1932,"Ġtur":1933,"Ġfall":1934,"Ġcommit":1935,"Ġsouthern":1936,"ither":1937,"Ġbase":1938,"Ġtitle":1939,"Ġseven":1940,"akes":1941,"Ġjames":1942,"Ġwriting":1943,"lo":1944,"Ġaway":1945,"Ġ189":1946,"Ġcost":1947,"ges":1948,"Ġmad":1949,"acy":1950,"Ġbegin":1951,"Ġacross":1952,"Ġfem":1953,"Ġintrodu":1954,"Ġdied":1955,"Ġremained":1956,"com":1957,"Ġmonths":1958,"Ġcenter":1959,"Ġfort":1960,"Ġsignific":1961,"Ġdeveloped":1962,"Ġce":1963,"Ġgrand":1964,"Ġpromot":1965,"dom":1966,"Ġfull":1967,"Ġhall":1968,"Ġpolitical":1969,"Ġlook":1970,"Ġmount":1971,"Ġvarious":1972,"ries":1973,"Ġmanag":1974,"Ġfif":1975,"Ġmodern":1976,"Ġhurricane":1977,"Ġwood":1978,"uck":1979,"Ġrace":1980,"Ġtoo":1981,"ration":1982,"Ġmc":1983,"Ġput":1984,"Ġaver":1985,"ency":1986,"Ġhill":1987,"fic":1988,"Ġhol":1989,"Ġnet":1990,"Ġham":1991,"Ġill":1992,"Ġcat":1993,"Ġfight":1994,"Ġcond":1995,"Ġhon":1996,"Ġoffice":1997,"hern":1998,"isted":1999,"Ġbig":2000,"Ġpal":2001,"inted":2002,"Ġhard":2003,"Ġbow":2004,"most":2005,"ael":2006,"Ġworks":2007,"Ġfelt":2008,"ef":2009,"Ġareas":2010,"Ġsil":2011,"Ġnoted":2012,"ked":2013,"Ġindust":2014,"orts":2015,"Ġamerica":2016,"Ġpit":2017,"Ġeventually":2018,"Ġruss":2019,"Ġstyle":2020,"erc":2021,"Ġannounced":2022,"Ġcreated":2023,"Ġmiles":2024,"Ġreached":2025,"Ġbrother":2026,"Ġcollege":2027,"Ġdiscover":2028,"Ġhot":2029,"Ġdi":2030,"Ġcro":2031,"Ġconstruction":2032,"Ġjapanese":2033,"Ġstri":2034,"Ġengine":2035,"ming":2036,"Ġsan":2037,"Ġsun":2038,"Ġsuccessful":2039,"Ġnorthern":2040,"Ġhold":2041,"Ġ2005":2042,"Ġmal":2043,"Ġbody":2044,"Ġseen":2045,"Ġpain":2046,"Ġsele":2047,"Ġheavy":2048,"Ġstruct":2049,"ising":2050,"cast":2051,"Ġcut":2052,"ĠâĢĻ":2053,"Ġagre":2054,"Ġfollowed":2055,"Ġ29":2056,"Ġrange":2057,"gether":2058,"Ġtogether":2059,"Ġsym":2060,"field":2061,"Ġmeet":2062,"Ġprot":2063,"Ġprocess":2064,"Ġmem":2065,"Ġperformed":2066,"Ġciv":2067,"ization":2068,"iting":2069,"Ġbrown":2070,"Ġserved":2071,"Ġhelp":2072,"Ġmember":2073,"Ġactiv":2074,"work":2075,"Ġ2014":2076,"Ġbridge":2077,"Ġknow":2078,"ality":2079,"Ġgeorge":2080,"Ġmix":2081,"Ġfootball":2082,"Ġtor":2083,"Ġesc":2084,"Ġkilled":2085,"Ġmur":2086,"Ġsignificant":2087,"Ġgod":2088,"ana":2089,"idence":2090,"Ġprofess":2091,"ids":2092,"Ġable":2093,"Ġtaken":2094,"Ġsaw":2095,"cent":2096,"olution":2097,"Ġestabl":2098,"Ġmm":2099,"ature":2100,"Ġident":2101,"Ġimpro":2102,"rict":2103,"elling":2104,"Ġsat":2105,"ze":2106,"Ġbecom":2107,"Ġaction":2108,"Ġround":2109,"Ġque":2110,"Ġpoints":2111,"Ġhuman":2112,"Ġborn":2113,"Ġdoes":2114,"Ġthought":2115,"oss":2116,"Ġestablished":2117,"Ġmean":2118,"Ġoriginally":2119,"Ġinvest":2120,"ius":2121,"bor":2122,"Ġthom":2123,"ds":2124,"Ġaustralian":2125,"Ġgar":2126,"Ġsubsequ":2127,"Ġgrow":2128,"aval":2129,"Ġenc":2130,"enth":2131,"Ġothers":2132,"Ġstage":2133,"ament":2134,"enced":2135,"Ġbri":2136,"irl":2137,"Ġentire":2138,"Ġappeared":2139,"ression":2140,"ara":2141,"Ġ!":2142,"Ġsn":2143,"Ġdavid":2144,"Ġlocated":2145,"Ġdirector":2146,"cil":2147,"Ġsurv":2148,"Ġredu":2149,"Ġfeatures":2150,"ctor":2151,"Ġden":2152,"ray":2153,"ett":2154,"Ġvoc":2155,"ox":2156,"Ġcrew":2157,"oon":2158,"iers":2159,"Ġcommission":2160,"ground":2161,"Ġbusiness":2162,"Ġstarted":2163,"rick":2164,"Ġplaying":2165,"Ġafric":2166,"Ġpot":2167,"bur":2168,"aves":2169,"Ġmother":2170,"odes":2171,"less":2172,"Ġcaused":2173,"ought":2174,"Ġdecided":2175,"Ġcivil":2176,"Ġcritics":2177,"yn":2178,"ressed":2179,"ript":2180,"Ġkingdom":2181,"Ġfeet":2182,"Ġur":2183,"Ġrather":2184,"Ġrank":2185,"ators":2186,"ship":2187,"Ġfourth":2188,"Ġmater":2189,"Ġfell":2190,"Ġpen":2191,"Ġreb":2192,"Ġrese":2193,"Ġinform":2194,"Ġeconom":2195,"den":2196,"Ġbehind":2197,"Ġindepend":2198,"Ġformed":2199,"Ġsite":2200,"ogn":2201,"Ġmagaz":2202,"Ġadded":2203,"Ã¡":2204,"Ġfleet":2205,"Ġimportant":2206,"Ġcase":2207,"Ġbi":2208,"ma":2209,"Ġ188":2210,"Ġsoon":2211,"gg":2212,"Ġpred":2213,"ample":2214,"reek":2215,"Ġcomment":2216,"ivid":2217,"ateg":2218,"Ġjud":2219,"Ġmart":2220,"wood":2221,"rought":2222,"Ġ31":2223,"Ġeastern":2224,"cing":2225,"Ġdamage":2226,"Ġital":2227,"Ġeduc":2228,"Ġpopulation":2229,"Ġcompleted":2230,"Ġgreen":2231,"ades":2232,"Ġguns":2233,"Ġmult":2234,"Ġalmost":2235,"Ġsam":2236,"Ġneg":2237,"Ġsex":2238,"head":2239,"dle":2240,"Ġpeak":2241,"Ġru":2242,"aces":2243,"Ġexec":2244,"Ġclose":2245,"Ġcup":2246,"ination":2247,"Ġtom":2248,"Ġinterv":2249,"Ġlang":2250,"emy":2251,"Ġindian":2252,"Ġjour":2253,"ata":2254,"Ġinitially":2255,"Ġawards":2256,"Ġregion":2257,"Ġloss":2258,"Ġinj":2259,"Ġtreat":2260,"lin":2261,"oney":2262,"ways":2263,"Ġoccur":2264,"Ġ2004":2265,"itar":2266,"Ġopened":2267,"Ġlack":2268,"Ġcreat":2269,"Ġsocial":2270,"Ġhost":2271,"go":2272,"aps":2273,"Ġpract":2274,"Ġmichael":2275,"Ġproble":2276,"Ġscre":2277,"Ġgirl":2278,"Ġrelationship":2279,"Ġ186":2280,"Ġindivid":2281,"Ġpur":2282,"ceed":2283,"Ġfa":2284,"Ġren":2285,"Ġfund":2286,"to":2287,"Ġul":2288,"Ġlou":2289,"ements":2290,"Ġsus":2291,"Ġleading":2292,"Ġtyp":2293,"cher":2294,"Ġweeks":2295,"Ġtradition":2296,"hic":2297,"Ġ2015":2298,"Ġworking":2299,"Ġradio":2300,"Ġbay":2301,"Ġsepar":2302,"ino":2303,"Ġclos":2304,"Ġworked":2305,"Ġfrance":2306,"Ġdiffic":2307,"Ġcurrent":2308,"Ġdifficult":2309,"Ġsour":2310,"Ġnar":2311,"Ġprem":2312,"Ġrecording":2313,"Ġsecret":2314,"ula":2315,"Ġtowards":2316,"Ġaccom":2317,"Ġale":2318,"Ġroom":2319,"Ġconn":2320,"medi":2321,"Ġappo":2322,"Ġbomb":2323,"Ġmel":2324,"ki":2325,"Ġbal":2326,"Ġmac":2327,"Ġcouncil":2328,"Ġlaun":2329,"Ġunion":2330,"Ġscene":2331,"Ġrain":2332,"umb":2333,"rison":2334,"istic":2335,"imes":2336,"Ġrap":2337,"Ġgoal":2338,"Ġwid":2339,"ica":2340,"asing":2341,"Ġrespect":2342,"Ġrepubl":2343,"Ġresul":2344,"Ġhenry":2345,"igned":2346,"Ġquick":2347,"anch":2348,"Ġnorm":2349,"Ġreve":2350,"Ġrobert":2351,"Ġbreak":2352,"ky":2353,"Ġmaterial":2354,"Ġnavy":2355,"Ġrecords":2356,"Ġaccept":2357,"eth":2358,"Ġvot":2359,"Ġtraining":2360,"Ġwashing":2361,"Ġleast":2362,"Ġscored":2363,"Ġ2000":2364,"pec":2365,"Ġprovided":2366,"Ġreach":2367,"Ġwanted":2368,"Ġmust":2369,"Ġey":2370,"Ġfig":2371,"Ġtroops":2372,"Ġbrought":2373,"Ġaverage":2374,"hest":2375,"Ġbrig":2376,"Ġdut":2377,"Ġspace":2378,"Ġrecogn":2379,"board":2380,"Ġfeatured":2381,"Ġearth":2382,"iding":2383,"ological":2384,"ows":2385,"Ġcru":2386,"Ġ500":2387,"osition":2388,"Ġcolon":2389,"Ġeither":2390,"Ġnomin":2391,"Ġquar":2392,"Ġ187":2393,"Ġproper":2394,"Ġfoc":2395,"Ġallowed":2396,"Ġangel":2397,"Ġrob":2398,"ected":2399,"Ġpast":2400,"Ġestim":2401,"Ġfut":2402,"Ġtar":2403,"Ġfeder":2404,"Ġwife":2405,"ams":2406,"Ġvictory":2407,"Ġstudio":2408,"Ġplaced":2409,"Ġgenerally":2410,"Ġavail":2411,"Ġwashington":2412,"Ġinn":2413,"Ġrul":2414,"iff":2415,"aut":2416,"Ġcho":2417,"Ġpriv":2418,"Ġcycl":2419,"here":2420,"ico":2421,"Ġach":2422,"Ġruns":2423,"Ġphys":2424,"Ġexample":2425,"Ġdark":2426,"aur":2427,"Ġevents":2428,"Ġmagazine":2429,"Ġchief":2430,"Ġbattal":2431,"mp":2432,"Ġder":2433,"Ġrepublic":2434,"Ġleng":2435,"Ġboard":2436,"Ġsummer":2437,"antic":2438,"ville":2439,"Ġinsp":2440,"Ġpaul":2441,"Ġstaff":2442,"Ġcred":2443,"Ġ2003":2444,"Ġparticip":2445,"ential":2446,"Ġwil":2447,"Ġdro":2448,"Ġjoined":2449,"Ġdesigned":2450,"Ġsquadron":2451,"Ġunc":2452,"Ġgrad":2453,"uel":2454,"Ġsurf":2455,"Ġhours":2456,"Ġregular":2457,"Ġspan":2458,"Ġpie":2459,"ike":2460,"Ġmiddle":2461,"Ġemploy":2462,"Ġdan":2463,"Ġquest":2464,"Ġspeed":2465,"Ġnine":2466,"Ġshot":2467,"Ġoperation":2468,"Ġcondu":2469,"ving":2470,"Ġthreat":2471,"Ġopening":2472,"ells":2473,"Ġmedia":2474,"ka":2475,"Ġbelieved":2476,"Ġrelig":2477,"ude":2478,"men":2479,"Ġ35":2480,"Ġscore":2481,"Ġregard":2482,"Ġcome":2483,"Ġcou":2484,"anks":2485,"Ġwinds":2486,"Ġox":2487,"Ġbir":2488,"tim":2489,"Ġmary":2490,"Ġflight":2491,"Ġtransport":2492,"aper":2493,"Ġreplaced":2494,"ugh":2495,"Ġmph":2496,"han":2497,"Ġprior":2498,"Ġstone":2499,"Ġscen":2500,"iction":2501,"Ġinfant":2502,"Ġpay":2503,"Ġben":2504,"Ġber":2505,"imin":2506,"Ġdeter":2507,"oring":2508,"Ġemp":2509,"Ġsequ":2510,"Ġcaptain":2511,"Ġpolice":2512,"Ġinvolved":2513,"Ġstop":2514,"Ġeuropean":2515,"ification":2516,"Ġlangu":2517,"Ġminutes":2518,"erous":2519,"Ġearlier":2520,"fall":2521,"west":2522,"Ġfinished":2523,"Ġresearch":2524,"Ġsociety":2525,"asion":2526,"aled":2527,"Ġhop":2528,"ha":2529,"Ġcontrib":2530,"utive":2531,"Ġlength":2532,"Ġpossible":2533,"Ġsaying":2534,"Ġindic":2535,"off":2536,"Ġroman":2537,"ago":2538,"lic":2539,"Ġimmedi":2540,"Ġcommerc":2541,"Ġchange":2542,"Ġny":2543,"reg":2544,"Ġpil":2545,"Ġtrib":2546,"Ġassociation":2547,"Ġkeep":2548,"Ġadmin":2549,"Ġremov":2550,"Ġlargest":2551,"Ġatl":2552,"Ġhighest":2553,"Ġparticularly":2554,"Ġlower":2555,"Ġboy":2556,"Ġfilms":2557,"Ġbeginning":2558,"Ġbad":2559,"Ġfly":2560,"Ġscott":2561,"Ġexist":2562,"Ġkey":2563,"Ġadm":2564,"Ġavailable":2565,"ishing":2566,"Ġrespons":2567,"Ġpercent":2568,"Ġplat":2569,"Ġvirgin":2570,"Ġforced":2571,"pected":2572,"Ġsection":2573,"Ġassist":2574,"Ġ2001":2575,"Ġbetter":2576,"wer":2577,"Ġweak":2578,"Ġachie":2579,"Ġdisp":2580,"Ġuk":2581,"hib":2582,"Ġoutside":2583,"Ġdeal":2584,"anned":2585,"Ġtaking":2586,"Ġanti":2587,"Ġlear":2588,"mar":2589,"Ġmeas":2590,"Ġcharles":2591,"Ġcommitte":2592,"aring":2593,"Ġheart":2594,"ography":2595,"Ġgrant":2596,"Ġnovel":2597,"Ġthomas":2598,"ĠÂ°":2599,"Ġmaint":2600,"Ġturned":2601,"Ġincreased":2602,"Ġended":2603,"ipp":2604,"Ġreason":2605,"Ġunits":2606,"of":2607,"ems":2608,"ida":2609,"Ġfeel":2610,"oke":2611,"Ġcommunity":2612,"Ġreviews":2613,"Ġcalif":2614,"sel":2615,"ases":2616,"Ġacad":2617,"Ġnin":2618,"Ġfuture":2619,"Ġpassed":2620,"Ġpraised":2621,"oph":2622,"Ġcaliforn":2623,"heast":2624,"Ġmove":2625,"Ġhous":2626,"Ġgoing":2627,"Ġbeat":2628,"Ġpan":2629,"Ġ2002":2630,"Ġabove":2631,"Ġmcc":2632,"Ġadditional":2633,"Ġtex":2634,"Ġappearance":2635,"iation":2636,"key":2637,"Ġphot":2638,"Ġthus":2639,"Ġguitar":2640,"for":2641,"su":2642,"Ġbird":2643,"action":2644,"ios":2645,"Ġtype":2646,"aded":2647,"Ġcanada":2648,"itor":2649,"Ġps":2650,"str":2651,"Ġlik":2652,"Ġenough":2653,"Ġliter":2654,"Ġcastle":2655,"Ġinfantry":2656,"ership":2657,"Ġordered":2658,"Ġlake":2659,"Ġsmith":2660,"Ġplot":2661,"Ġdaugh":2662,"Ġpreviously":2663,"Ġpun":2664,"Ġlat":2665,"tr":2666,"Ġpersonal":2667,"ocr":2668,"Ġsigned":2669,"Ġmusical":2670,"ey":2671,"Ġminor":2672,"nal":2673,"Ġdoc":2674,"Ġterrit":2675,"Ġrichard":2676,"tt":2677,"ston":2678,"Ġalex":2679,"Ġelements":2680,"Ġinstit":2681,"Ġrights":2682,"Ġmarket":2683,"arily":2684,"Ġdig":2685,"Ġpac":2686,"Ġtheat":2687,"Ġviol":2688,"Ġcalifornia":2689,"Ġabs":2690,"ush":2691,"pped":2692,"Ġpositive":2693,"agon":2694,"my":2695,"Ġprob":2696,"Ġcritical":2697,"Ġdead":2698,"ference":2699,"Ġparts":2700,"Ġha":2701,"Ġaccess":2702,"Ġfood":2703,"Ġlord":2704,"Ġbackground":2705,"Ġgive":2706,"erson":2707,"Ġlines":2708,"pper":2709,"gen":2710,"Ġbat":2711,"Ġtravel":2712,"Ġpow":2713,"Ġmoney":2714,"Ġfemale":2715,"sen":2716,"Ġspent":2717,"Ġbeg":2718,"Ġoverall":2719,"Ġtold":2720,"itz":2721,"Ġprinc":2722,"cts":2723,"Ġsubject":2724,"ique":2725,"ilities":2726,"clus":2727,"Ġscient":2728,"Ġtax":2729,"Ġmic":2730,"Ġdirected":2731,"Ġflood":2732,"uation":2733,"Ġblue":2734,"back":2735,"Ġcommittee":2736,"uter":2737,"Ġvictor":2738,"elled":2739,"Ġinterview":2740,"Ġfailed":2741,"Ġdeep":2742,"Ġ1990":2743,"Ġpet":2744,"Ġ60":2745,"nel":2746,"Ġdomin":2747,"Ġchap":2748,"Ġcorn":2749,"Ġsquare":2750,"Ġrequired":2751,"Ġpoor":2752,"Ġdebut":2753,"Ġgroups":2754,"reng":2755,"mon":2756,"Ġ45":2757,"Ġmach":2758,"Ġgermany":2759,"ga":2760,"Ġclear":2761,"Ġhapp":2762,"Ġkil":2763,"Ġbroadcast":2764,"Ġobject":2765,"bers":2766,"sc":2767,"nes":2768,"Ġterm":2769,"ĠÃ":2770,"Ġdistrict":2771,"Ġconstit":2772,"Ġpeter":2773,"Ġroll":2774,"ening":2775,"Ġexc":2776,"Ġenv":2777,"Ġanal":2778,"Ġitself":2779,"Ġhealth":2780,"ume":2781,"Ġindia":2782,"Ġchristian":2783,"Ġbattalion":2784,"Ġevidence":2785,"Ġsometimes":2786,"Ġwal":2787,"Ġstep":2788,"isl":2789,"Ġfrank":2790,"ibility":2791,"Ġprison":2792,"Ġbank":2793,"berg":2794,"Ġoccup":2795,"Ġreception":2796,"Ġcontract":2797,"Ġ185":2798,"Ġelection":2799,"Ġinvestig":2800,"Ġcommercial":2801,"Ġasked":2802,"Ġstars":2803,"Ġtransfer":2804,"Ġexcept":2805,"ĠÂ£":2806,"Ġ?":2807,"ready":2808,"Ġlu":2809,"Ġdefend":2810,"stand":2811,"erved":2812,"Ġparl":2813,"ii":2814,"Ġze":2815,"Ġstreng":2816,"ability":2817,"Ġliving":2818,"Ġadminist":2819,"Ġour":2820,"ays":2821,"Ġsov":2822,"Ġwhose":2823,"Ġmex":2824,"edy":2825,"aker":2826,"apt":2827,"gar":2828,"onse":2829,"Ġnatural":2830,"Ġstudy":2831,"airs":2832,"Ġcomplete":2833,"Ġalready":2834,"Ġclaimed":2835,"onna":2836,"Ġgovernor":2837,"Ġapproxim":2838,"Ġclim":2839,"ream":2840,"Ġchic":2841,"Ġbey":2842,"Ġsoviet":2843,"Ġflor":2844,"Ġintroduced":2845,"Ġfrequ":2846,"igan":2847,"Ġwhom":2848,"Ġforest":2849,"Ġminister":2850,"Ġthink":2851,"Ġusually":2852,"Ġamb":2853,"Ġburn":2854,"Ġwoman":2855,"Ġmuse":2856,"Ġstudents":2857,"enue":2858,"wor":2859,"Ġeducation":2860,"Ġquickly":2861,"acted":2862,"Ġidea":2863,"bc":2864,"Ġlimited":2865,"Ġbud":2866,"Ġwild":2867,"Ġbul":2868,"Ġrh":2869,"Ġfranc":2870,"Ġanc":2871,"Ġmight":2872,"Ġguard":2873,"Ġeffects":2874,"Ġmovement":2875,"Ġconcern":2876,"Ġ32":2877,"Ġresponse":2878,"Ġprevent":2879,"Ġlib":2880,"Ġsyn":2881,"Ġissue":2882,"Ġcertain":2883,"Ġcommander":2884,"Ġcentre":2885,"Ġslow":2886,"Ġgro":2887,"Ġqueen":2888,"atory":2889,"Ġ1970":2890,"Ġplant":2891,"Ġsurface":2892,"Ġpolic":2893,"Ġyour":2894,"Ġself":2895,"Ġlay":2896,"Ġtun":2897,"Ġdepartment":2898,"aint":2899,"Ġfifth":2900,"Ġarrived":2901,"Ġespec":2902,"bour":2903,"Ġ1980":2904,"Ġsand":2905,"Ġhosp":2906,"Ġbritain":2907,"Ġface":2908,"Ġespecially":2909,"Ġdecision":2910,"Ġservices":2911,"pr":2912,"sec":2913,"ergy":2914,"Ġfer":2915,"Ġoperations":2916,"Ġvillage":2917,"Ġteams":2918,"Ġvoice":2919,"Ġlie":2920,"Ġparliam":2921,"ties":2922,"Ġstructure":2923,"Ġbox":2924,"Ġshows":2925,"Ġrac":2926,"Ġran":2927,"ump":2928,"Ġgard":2929,"anded":2930,"Ġcongress":2931,"Ġmuseum":2932,"Ġindustry":2933,"Ġwalk":2934,"Ġlarger":2935,"ba":2936,"Ġfest":2937,"Ġwriter":2938,"Ġscience":2939,"Ġlyric":2940,"Ġbecoming":2941,"Ġremaining":2942,"Ġestimated":2943,"Ġlatter":2944,"Ġepisodes":2945,"Ġremain":2946,"Ġdefeated":2947,"Ġ-":2948,"Ġcarried":2949,"fl":2950,"Ġheav":2951,"Ġparliament":2952,"Ġgot":2953,"ises":2954,"Ġmultip":2955,"wh":2956,"Ġultim":2957,"Ġdraw":2958,"Ġnetwork":2959,"Ġdiscuss":2960,"aries":2961,"oor":2962,"pre":2963,"Ġol":2964,"Ġpressure":2965,"Ġblood":2966,"Ġ1999":2967,"Ġprogress":2968,"Ġsurround":2969,"Ġflag":2970,"ully":2971,"iron":2972,"Ġscenes":2973,"Ġcm":2974,"Ġconsider":2975,"Ġbrief":2976,"ites":2977,"de":2978,"Ġleaving":2979,"Ġrunning":2980,"Ġchanges":2981,"ulf":2982,"Ġacqu":2983,"Ġvirginia":2984,"Ġcand":2985,"Ġjew":2986,"Ġcomplet":2987,"Ġmas":2988,"ession":2989,"Ġ36":2990,"Ġnaval":2991,"porary":2992,"Ġdom":2993,"ror":2994,"Ġsuggested":2995,"outh":2996,"Ġentered":2997,"Ġnearly":2998,"val":2999,"Ġ80":3000,"Ġdepression":3001,"orial":3002,"ining":3003,"Ġquarter":3004,"Ġappointed":3005,"Ġwinning":3006,"Ġinfluence":3007,"Ġdate":3008,"Ġapproximately":3009,"ift":3010,"Ġfail":3011,"Ġchall":3012,"Ġtwent":3013,"Ġsize":3014,"Ġros":3015,"Ġemb":3016,"Ġcapital":3017,"Ġleader":3018,"Ġlanguage":3019,"Ġfant":3020,"erve":3021,"Ġshortly":3022,"Ġislands":3023,"Ġregiment":3024,"Ġestablish":3025,"Ġempire":3026,"Ġscript":3027,"Ġfederal":3028,"Ġfavor":3029,"Ġmeth":3030,"Ġequip":3031,"Ġcourse":3032,"Ġscreen":3033,"Ġtoday":3034,"Ġthr":3035,"ta":3036,"Ġjackson":3037,"Ġfinally":3038,"ania":3039,"Ġbra":3040,"change":3041,"Ġupper":3042,"Ġwide":3043,"ander":3044,"Ġtracks":3045,"Ġunl":3046,"Ġmission":3047,"Ġcann":3048,"Ġoly":3049,"Ġlouis":3050,"Ġdestroyed":3051,"Ġproposed":3052,"Ġdaughter":3053,"Ġpurch":3054,"ulated":3055,"Ġhigher":3056,"Ġolymp":3057,"Ġwing":3058,"Ġproducer":3059,"Ġmanager":3060,"burg":3061,"Ġarrang":3062,"Ġspanish":3063,"king":3064,"Ġcorps":3065,"abor":3066,"Ġlad":3067,"Ġexperience":3068,"Ġnature":3069,"Ġvan":3070,"Ġdistrib":3071,"Ġ75":3072,"Ġcer":3073,"Ġenviron":3074,"Ġprincip":3075,"Ġhorse":3076,"Ġprovide":3077,"Ġsubsequently":3078,"Ġbrigade":3079,"Ġbattles":3080,"idents":3081,"Ġrailway":3082,"Ġprofessional":3083,"ires":3084,"Ġaltern":3085,"mitted":3086,"Ġdiss":3087,"ension":3088,"Ġcompared":3089,"Ġbreed":3090,"iser":3091,"oid":3092,"Ġparen":3093,"Ġcomplex":3094,"Ġconcept":3095,"Ġhero":3096,"Ġintended":3097,"Ġemerg":3098,"Ġimmediately":3099,"Ġmarried":3100,"Ġdemocr":3101,"inese":3102,"Ġaw":3103,"Ġ1960":3104,"Ġprivate":3105,"Ġ184":3106,"Ġfans":3107,"Ġsaf":3108,"Ġcele":3109,"Ġtemper":3110,"Ġjournal":3111,"Ġ300":3112,"Ġpict":3113,"Ġsupported":3114,"ÃŃ":3115,"ns":3116,"Ġagreed":3117,"Ġstay":3118,"Ġspir":3119,"Ġentertain":3120,"Ġshoot":3121,"Ġintens":3122,"alled":3123,"Ġcompan":3124,"Ġbord":3125,"Ġdone":3126,"Ġmr":3127,"Ġedward":3128,"Ġarchit":3129,"Ġmodel":3130,"Ġfeature":3131,"Ġincreasing":3132,"Ġinitial":3133,"gy":3134,"Ġawarded":3135,"Ġliber":3136,"Ġgi":3137,"ria":3138,"Ġweap":3139,"Ġdisplay":3140,"Ġchicago":3141,"Ġbor":3142,"Ġarchitect":3143,"Ġchinese":3144,"Ġwhether":3145,"Ġhelped":3146,"Ġrelated":3147,"Ġlegisl":3148,"Ġplanned":3149,"Ġcard":3150,"down":3151,"Ġbooks":3152,"Ġofficer":3153,"Ġimm":3154,"ching":3155,"Ġ1998":3156,"aph":3157,"Ġsoldiers":3158,"Ġmom":3159,"Ġcreate":3160,"Ġbring":3161,"Ġlonger":3162,"Ġtrade":3163,"Ã¶":3164,"Ġartic":3165,"uk":3166,"hem":3167,"Ġfair":3168,"Ġmont":3169,"Ġhere":3170,"Ġwit":3171,"atively":3172,"Ġattr":3173,"Ġple":3174,"ores":3175,"Ġcause":3176,"Ġkore":3177,"thing":3178,"Ġgal":3179,"Ġcaptured":3180,"teen":3181,"Ġvalley":3182,"Ġplans":3183,"Ġyet":3184,"Ġiron":3185,"Ġbuildings":3186,"Ġconserv":3187,"Ġcolor":3188,"omm":3189,"ban":3190,"ny":3191,"Ġunit":3192,"Ġforward":3193,"Ġblock":3194,"inct":3195,"Ġchanged":3196,"Ġconclud":3197,"Ġq":3198,"Ġwinter":3199,"Ġwithd":3200,"Ġpenn":3201,"Ġcoach":3202,"asy":3203,"Ġassociated":3204,"Ġsubst":3205,"Ġfriends":3206,"Ġdance":3207,"chester":3208,"Ġsomething":3209,"Ġofficers":3210,"Ġinstr":3211,"Ġspring":3212,"ien":3213,"Ġremains":3214,"Ġmostly":3215,"selves":3216,"Ġpacific":3217,"Ġsingles":3218,"Ġ33":3219,"Ġbillboard":3220,"Ġsev":3221,"abit":3222,"Ġjohnson":3223,"Ġthemselves":3224,"Ġstandard":3225,"Ġrat":3226,"Ġ70":3227,"ronic":3228,"Ġtarget":3229,"Ġcountries":3230,"Ġlyrics":3231,"oms":3232,"Ġexam":3233,"Ġmixed":3234,"Ġprobably":3235,"ken":3236,"riage":3237,"Ġreally":3238,"Ġmethod":3239,"hl":3240,"Ġextended":3241,"well":3242,"Ġray":3243,"Ġmoving":3244,"Ġpu":3245,"Ġnumerous":3246,"Ġfinanc":3247,"Ġfit":3248,"Ġattend":3249,"Ã¼":3250,"ena":3251,"Ġinformation":3252,"Ġportray":3253,"Ġcontem":3254,"leg":3255,"Ġcopies":3256,"Ġalways":3257,"Ġrequest":3258,"Ġnation":3259,"Ġvisit":3260,"Ġscot":3261,"Ġlocation":3262,"Ġgoals":3263,"Ġca":3264,"Ġoce":3265,"isions":3266,"Ġrid":3267,"Ġindividual":3268,"Ġbirth":3269,"Ġsales":3270,"Ġcit":3271,"Ġfocus":3272,"Ġ1997":3273,"rated":3274,"rd":3275,"Ġissued":3276,"Ġcounter":3277,"Ġstatus":3278,"Ġmess":3279,"Ġleave":3280,"Ġenergy":3281,"Ġatlantic":3282,"Ġincludes":3283,"Ġartist":3284,"andon":3285,"olic":3286,"ili":3287,"Ġtas":3288,"Ġconference":3289,"Ġ37":3290,"Ġsuffered":3291,"Ġjim":3292,"Ġmale":3293,"can":3294,"Ġsinger":3295,"Ġvia":3296,"Ġadmir":3297,"Ġtraff":3298,"Ġhospital":3299,"Ġtal":3300,"Ġimpact":3301,"ands":3302,"Ġflorida":3303,"Ġmartin":3304,"Ġedition":3305,"Ġproblems":3306,"Ġalbums":3307,"Ġbene":3308,"Ġmaxim":3309,"Ġmeeting":3310,"Ġtermin":3311,"hood":3312,"Ġdouble":3313,"Ġgall":3314,"Ġlikely":3315,"Ġchina":3316,"Ġincrease":3317,"Ġcarry":3318,"Ġassemb":3319,"Ġremoved":3320,"Ġapproach":3321,"Ġindependent":3322,"bury":3323,"Ġcelebr":3324,"Ġmovie":3325,"Ġbond":3326,"bed":3327,"Ġdog":3328,"Ġtexas":3329,"Ġrevolution":3330,"pan":3331,"Ġinspired":3332,"Ġforeign":3333,"atives":3334,"chan":3335,"Ġrang":3336,"Ġrefle":3337,"ole":3338,"Ġmaster":3339,"Ġterms":3340,"Ġprimary":3341,"Ġcreek":3342,"Ġdv":3343,"Ġmajority":3344,"lands":3345,"Ġsir":3346,"Ġcompos":3347,"Ġkind":3348,"Ġast":3349,"Ġoffered":3350,"Ġwa":3351,"Ġice":3352,"Ġinterse":3353,"Ġconsist":3354,"Ġtakes":3355,"Ġqual":3356,"Ġminute":3357,"vin":3358,"Ġvehic":3359,"ograph":3360,"Ġtons":3361,"isc":3362,"vey":3363,"Ġstad":3364,"aily":3365,"Ġens":3366,"Ġdrum":3367,"ously":3368,"Ġadop":3369,"iter":3370,"Ġattacks":3371,"ounted":3372,"Ġsar":3373,"Ġut":3374,"Ġfox":3375,"Ġentertainment":3376,"Ġmakes":3377,"Ġconfir":3378,"Ġign":3379,"Ġword":3380,"Ġcomposed":3381,"Ġdamaged":3382,"Ġoil":3383,"Ġcombat":3384,"Ġraised":3385,"Ġ183":3386,"Ġcanadian":3387,"Ġranked":3388,"Ġenvironment":3389,"ounds":3390,"Ġafrica":3391,"etic":3392,"Ġprec":3393,"Ġconcert":3394,"Ġlog":3395,"icted":3396,"Ġcarol":3397,"Ã³":3398,"aches":3399,"Ġcyclone":3400,"Ġshar":3401,"Ġwrest":3402,"het":3403,"Ġdaily":3404,"Ġletter":3405,"Ġund":3406,"Ġappears":3407,"Ġfighting":3408,"Ġselected":3409,"Ġmountain":3410,"light":3411,"Ġrevealed":3412,"Ġdiscovered":3413,"Ġcateg":3414,"oo":3415,"Ġsimp":3416,"Ġtrain":3417,"Ġmetal":3418,"Ġactive":3419,"Ġdeterm":3420,"Ġrussian":3421,"Ġera":3422,"Ġdeg":3423,"ify":3424,"Ġ90":3425,"ucle":3426,"Ġmorning":3427,"ails":3428,"Ġinside":3429,"Ġsports":3430,"Ġconditions":3431,"ung":3432,"Ġtwenty":3433,"Ġkent":3434,"aland":3435,"Ġdemon":3436,"Ġunable":3437,"Ġschol":3438,"Ġlaunched":3439,"ari":3440,"uries":3441,"Ġgreater":3442,"era":3443,"umed":3444,"Ġrespectively":3445,"ste":3446,"Ġwr":3447,"Ġven":3448,"Ġtv":3449,"Ġsched":3450,"Ġwhole":3451,"Ġ1995":3452,"Ġnumbers":3453,"Ġissues":3454,"Ġneeded":3455,"Ġsister":3456,"Ġsmaller":3457,"Ġbelow":3458,"Ġangeles":3459,"Ġos":3460,"Ġincor":3461,"ee":3462,"Ġthir":3463,"Ġlived":3464,"Ġconnect":3465,"ado":3466,"Ġadvance":3467,"Ġtouch":3468,"Ġcontains":3469,"Ġ34":3470,"uth":3471,"Ġyard":3472,"Ġattempted":3473,"Ġslight":3474,"Ġattacked":3475,"Ġtraditional":3476,"lor":3477,"Ġyards":3478,"Ġshown":3479,"ription":3480,"zz":3481,"Ġbed":3482,"Ġstra":3483,"Ġculture":3484,"Ġoccurred":3485,"Ġnewsp":3486,"Ġreligious":3487,"uments":3488,"aj":3489,"Ġpick":3490,"Ġcart":3491,"uals":3492,"use":3493,"Ġnick":3494,"Ġiii":3495,"Ġ38":3496,"Ġsilver":3497,"aging":3498,"Ġrein":3499,"iest":3500,"Ġdefeat":3501,"Ġring":3502,"Ġcab":3503,"Ġtourn":3504,"ortun":3505,"joy":3506,"Ġrecover":3507,"Ġactor":3508,"Ġannual":3509,"Ġlarg":3510,"anced":3511,"ech":3512,"Ġrare":3513,"Ġelected":3514,"Ġfestival":3515,"Ġiv":3516,"Ġ2016":3517,"Ġpeace":3518,"Ġreferred":3519,"Ġ1996":3520,"aught":3521,"Ġ1950":3522,"Ġconstant":3523,"new":3524,"Ġreform":3525,"Ġbon":3526,"izing":3527,"uing":3528,"cting":3529,"Ġfrancis":3530,"Ġmind":3531,"Ġneigh":3532,"Ġdra":3533,"rial":3534,"urity":3535,"amb":3536,"Ġbab":3537,"olk":3538,"vert":3539,"Ġjose":3540,"Ġaudience":3541,"Ġschools":3542,"Ġtheme":3543,"Ġsav":3544,"Ġresulted":3545,"Ġlargely":3546,"Ġpsy":3547,"rian":3548,"Ġassigned":3549,"Ġmagn":3550,"Ġcovered":3551,"Ġprince":3552,"asc":3553,"Ġris":3554,"Ġocean":3555,"enant":3556,"Ġath":3557,"Ġdar":3558,"Ġfast":3559,"Ġdun":3560,"Ġexpress":3561,"Ġlink":3562,"Ġitalian":3563,"Ġvariety":3564,"Ġlisted":3565,"Ġcollection":3566,"Ġpurp":3567,"uated":3568,"Ġban":3569,"Ġ1994":3570,"Ġguest":3571,"Ġglob":3572,"Ġcompetition":3573,"hold":3574,"ya":3575,"Ġcath":3576,"Ġnames":3577,"Ġash":3578,"mi":3579,"Ġearned":3580,"Ġstadium":3581,"Ġcontrovers":3582,"Ġexpected":3583,"ls":3584,"Ġcommented":3585,"Ġhaw":3586,"tered":3587,"Ġsout":3588,"itude":3589,"Ġstarting":3590,"Ġrapid":3591,"Ġclosed":3592,"ãĥ":3593,"quar":3594,"Ġperformances":3595,"Ġattention":3596,"Ġnucle":3597,"Ġdocument":3598,"Ġquestion":3599,"Ġimper":3600,"Ġenter":3601,"Ġairport":3602,"Ġgiving":3603,"Ġmichigan":3604,"ental":3605,"Ġlegal":3606,"Ġaccount":3607,"Ġrefused":3608,"Ġviet":3609,"Ġextre":3610,"Ġmir":3611,"Ġeconomic":3612,"Ġfigh":3613,"Ġkar":3614,"Ġrepe":3615,"Ġcrow":3616,"Ġcham":3617,"ij":3618,"Ġcust":3619,"ounts":3620,"Ġcompl":3621,"Ġgreatest":3622,"Ġwaters":3623,"Ġsett":3624,"aped":3625,"Ġenjoy":3626,"ples":3627,"Ġelectric":3628,"Ġtower":3629,"Ġwales":3630,"utions":3631,"Ġability":3632,"Ġserious":3633,"Ġdirection":3634,"nding":3635,"Ġstories":3636,"Ġnotes":3637,"Ġnative":3638,"Ġdie":3639,"Ġhund":3640,"Ġpromin":3641,"Ġ1940":3642,"Ġdeclared":3643,"Ġrate":3644,"Ġmun":3645,"Ġmeant":3646,"Ġmatches":3647,"Ġstan":3648,"Ġvocals":3649,"bridge":3650,"Ġthings":3651,"Ġod":3652,"Ġpoll":3653,"pted":3654,"Ġspl":3655,"Ġ49":3656,"Ġ180":3657,"bre":3658,"Ġhundred":3659,"isher":3660,"Ġmention":3661,"Ġhus":3662,"Ġabandon":3663,"Ġlevels":3664,"uf":3665,"Ġwords":3666,"Ġswe":3667,"uff":3668,"Ġkh":3669,"Ġnearby":3670,"gl":3671,"ims":3672,"Ġchann":3673,"ona":3674,"Ġmarriage":3675,"Ġproduce":3676,"Ġtext":3677,"Ġdoctor":3678,"Ġnecess":3679,"Ġconstitution":3680,"ker":3681,"Ġcry":3682,"Ġpractice":3683,"Ġdefense":3684,"Ġprep":3685,"Ġconstructed":3686,"Ġfill":3687,"Ġemper":3688,"win":3689,"Ġsource":3690,"odies":3691,"ols":3692,"Ġlot":3693,"Ġfantasy":3694,"iences":3695,"Ġ41":3696,"icient":3697,"Ġ1992":3698,"Ġcandid":3699,"wide":3700,"Ġmatt":3701,"pass":3702,"road":3703,"gs":3704,"Ġdvd":3705,"Ġvocal":3706,"Ġseparate":3707,"Ġhighly":3708,"ram":3709,"Ġlabor":3710,"Ġess":3711,"icated":3712,"Ġmeans":3713,"Ġeth":3714,"Ġfarm":3715,"Ġwriters":3716,"ette":3717,"Ġrow":3718,"umn":3719,"Ġmedical":3720,"itation":3721,"Ġspot":3722,"Ġzealand":3723,"Ġcontroll":3724,"Ġexecutive":3725,"ging":3726,"Ġles":3727,"Ġexhib":3728,"Ġdirectly":3729,"ishop":3730,"Ġpositions":3731,"Ġultimately":3732,"Ġpurs":3733,"ellow":3734,"Ġobserv":3735,"Ġda":3736,"Ġnorthwest":3737,"Ġweather":3738,"ping":3739,"Ġsle":3740,"Ġcontinue":3741,"Ġpresented":3742,"Ġreduced":3743,"Ġeffort":3744,"kin":3745,"Ġafrican":3746,"mas":3747,"Ġmexico":3748,"Ġcub":3749,"Ġmultiple":3750,"Ġadmiral":3751,"Ġjer":3752,"Ġbound":3753,"Ġ400":3754,"Ġchem":3755,"writ":3756,"Åį":3757,"Ġflow":3758,"Ġefforts":3759,"Ġbrad":3760,"Ġdism":3761,"ibly":3762,"Ġanimals":3763,"Ġmechan":3764,"Ġformation":3765,"Ġdyn":3766,"Ġ1930":3767,"Ġhouses":3768,"Ġlieut":3769,"Ġchris":3770,"ding":3771,"Ġstrateg":3772,"ogue":3773,"Ġsettle":3774,"band":3775,"Ġtried":3776,"rical":3777,"Ġlin":3778,"Ġgas":3779,"Ġmemorial":3780,"Ġattended":3781,"Ġ55":3782,"kn":3783,"Ġbatter":3784,"Ġstudies":3785,"Ġaccepted":3786,"Ġstating":3787,"Ġfinancial":3788,"Ġwear":3789,"Ġparal":3790,"Ġtalk":3791,"Ġrule":3792,"Ġlibr":3793,"Ġmadonna":3794,"vement":3795,"acher":3796,"don":3797,"Ġpair":3798,"Ġseem":3799,"Ġspecific":3800,"Ġsymb":3801,"la":3802,"Ġdepend":3803,"rie":3804,"Ġ1993":3805,"Ġbob":3806,"Ġ1991":3807,"Ġoh":3808,"Ġhonor":3809,"Ġadvent":3810,"Ġincorpor":3811,"track":3812,"rier":3813,"isation":3814,"Ġending":3815,"Ġbegins":3816,"Ġthick":3817,"Ġsaint":3818,"Ġcerem":3819,"Ġrecomm":3820,"Ġinch":3821,"Ġorganization":3822,"Ġ179":3823,"Ġram":3824,"Ġpilot":3825,"Äĩ":3826,"anes":3827,"Ġlif":3828,"Ġtrue":3829,"Ġtheatre":3830,"Ġtraffic":3831,"ruction":3832,"Ġsides":3833,"Ġenemy":3834,"Ġcases":3835,"Ġscotland":3836,"Ġjones":3837,"Ġrough":3838,"illery":3839,"Ġdrive":3840,"Ġarrest":3841,"ners":3842,"house":3843,"Ġire":3844,"rey":3845,"Ġbell":3846,"Ġpack":3847,"oper":3848,"Ġflying":3849,"Ġluc":3850,"Ġmob":3851,"Ġresponsible":3852,"Ġconfl":3853,"Ġeye":3854,"Ġmanaged":3855,"Ġpath":3856,"Ġforms":3857,"Ġwound":3858,"Ġmeaning":3859,"Ġ+":3860,"Ġuses":3861,"Ġarab":3862,"Ġresulting":3863,"Ġgreek":3864,"Ġkenn":3865,"Ġ39":3866,"Ġtournament":3867,"Ġkept":3868,"Ġsoundtrack":3869,"Ġlieutenant":3870,"Ġacademy":3871,"Ġdropped":3872,"Ġprotest":3873,"Ġshowed":3874,"Ġrose":3875,"Ġauthority":3876,"Ġpolicy":3877,"Ġedge":3878,"Ġbost":3879,"Ġmos":3880,"Ġprime":3881,"Ġ182":3882,"Ġquality":3883,"une":3884,"Ġstrugg":3885,"Ġ48":3886,"Ġemperor":3887,"Ġexped":3888,"Ġ42":3889,"Ġfat":3890,"Ġwick":3891,"Ġartillery":3892,"Ġapart":3893,"Ġcombined":3894,"Ġhors":3895,"claim":3896,"Ġdru":3897,"Ġboat":3898,"ceeded":3899,"Ġacting":3900,"uit":3901,"Ġded":3902,"Ġfounded":3903,"Ġsecretary":3904,"Ġell":3905,"Ġspirit":3906,"Ġcontinues":3907,"Ġtrial":3908,"Ġmarked":3909,"Ġadministration":3910,"ada":3911,"Ġinches":3912,"Ġproperty":3913,"ips":3914,"Ġwilliams":3915,"Ġbit":3916,"Ġsystems":3917,"Ġencoun":3918,"Ġsubsequent":3919,"Ġpropos":3920,"nam":3921,"Ġartists":3922,"ero":3923,"Ġcontemporary":3924,"Ġ181":3925,"Ġattempts":3926,"Ġsearch":3927,"ex":3928,"Ġextr":3929,"Ġterritory":3930,"Ġparis":3931,"gypt":3932,"iated":3933,"Ġdraft":3934,"Ġnortheast":3935,"uge":3936,"Ġsteam":3937,"Ġrear":3938,"Ġcompanies":3939,"thel":3940,"Ġpotential":3941,"Ġmarsh":3942,"Ġperf":3943,"Ġpresence":3944,"Ġmetres":3945,"Ġviewers":3946,"Ġplanet":3947,"icip":3948,"Ġallowing":3949,"ani":3950,"Ġthous":3951,"Ġstudios":3952,"Ġsixth":3953,"ulations":3954,"Ġprepar":3955,"Ġrecent":3956,"Ġsuppl":3957,"Ġscale":3958,"Ġ1942":3959,"Ġcoal":3960,"Ġofficials":3961,"Ġconducted":3962,"ket":3963,"Ġbehav":3964,"je":3965,"Ġegypt":3966,"Ġmu":3967,"thur":3968,"Ġobt":3969,"Ġseg":3970,"Ġjob":3971,"Ġrespond":3972,"Ġpiece":3973,"Ġdigital":3974,"Ġfilming":3975,"Ġhyd":3976,"Ġdefence":3977,"Ġmachine":3978,"Ġlee":3979,"Ġheadquar":3980,"Ġcontrast":3981,"oe":3982,"Ġamount":3983,"Ġtemple":3984,"olf":3985,"Ġtransferred":3986,"Ġcollabor":3987,"standing":3988,"Ġlatin":3989,"Ġparents":3990,"Ġyellow":3991,"ingu":3992,"Ġscoring":3993,"Ġopportun":3994,"Ġic":3995,"Ġmaximum":3996,"Ġsenior":3997,"rain":3998,"Ġcorpor":3999,"Ġfigure":4000,"Ġcoming":4001,"Ġstephen":4002,"Ġdise":4003,"Ġ65":4004,"Ġsac":4005,"Ġallied":4006,"enge":4007,"Ġbeaut":4008,"Ġfeaturing":4009,"inem":4010,"Ġtorped":4011,"Ġtherefore":4012,"Ġprimarily":4013,"cle":4014,"Ġ47":4015,"Ġrelatively":4016,"Ġoxford":4017,"Ġgeorg":4018,"Ġelev":4019,"Ġowned":4020,"Ġpeaked":4021,"Ġtheory":4022,"Ġbecomes":4023,"Ġstudent":4024,"Ġcold":4025,"Ġtitled":4026,"Ġjoseph":4027,"Ġtorpedo":4028,"Ġmort":4029,"Ġactually":4030,"aga":4031,"Ġrecommend":4032,"iance":4033,"Ġportion":4034,"Ġdistance":4035,"Ġbattleship":4036,"Ġcert":4037,"Ġcitiz":4038,"Ġconcluded":4039,"ersey":4040,"Ġstock":4041,"Ġboston":4042,"Ġconver":4043,"Ġpremi":4044,"Ġmanchester":4045,"Ġmut":4046,"Ġton":4047,"Ġinvasion":4048,"Ġsituation":4049,"Ġstrength":4050,"Ġwrite":4051,"Ġbass":4052,"Ġchair":4053,"Ġharrison":4054,"orter":4055,"Ġpsych":4056,"Ġtransl":4057,"Ġjeff":4058,"osh":4059,"Ġbroke":4060,"Ġfunction":4061,"Ġshare":4062,"Ġobserved":4063,"Ġselling":4064,"Ġphysical":4065,"Ġsecurity":4066,"Ġalongside":4067,"Ġcommunic":4068,"arent":4069,"Ġdistinct":4070,"ca":4071,"Ġtree":4072,"Ġswed":4073,"ented":4074,"Ġplays":4075,"Ġpersonnel":4076,"Ġresults":4077,"Ġconcent":4078,"Ġ46":4079,"Ġliver":4080,"Ġ52":4081,"Ġdivided":4082,"Ġsources":4083,"stein":4084,"Ġdoll":4085,"istics":4086,"Ġpaid":4087,"Ġseconds":4088,"Ġresist":4089,"Ġcalling":4090,"ita":4091,"Ġcities":4092,"Ġrating":4093,"Ġ1944":4094,"Ġslightly":4095,"ini":4096,"Ġborder":4097,"Ġshell":4098,"Ġinh":4099,"Ġreturning":4100,"Ġpowerful":4101,"Ġcolumb":4102,"Ġfred":4103,"Ġmanagement":4104,"Ġcontest":4105,"Ġarts":4106,"Ġreject":4107,"Ġhistorian":4108,"Ġott":4109,"Ġhistorical":4110,"Ġ64":4111,"Ġhan":4112,"Ġimperial":4113,"Ġminim":4114,"Ġonto":4115,"Ġsust":4116,"Ġactions":4117,"Ġ43":4118,"Ġelse":4119,"Ġmile":4120,"Ġvess":4121,"Ġplatform":4122,"Ġadj":4123,"aming":4124,"Ġfear":4125,"Ġnothing":4126,"Ġbirds":4127,"ider":4128,"Ġbeach":4129,"Ġkg":4130,"Ġfreed":4131,"Ġinfluenced":4132,"Ġow":4133,"Ġactivity":4134,"Ġcanc":4135,"Ġinnings":4136,"ctive":4137,"astic":4138,"Ġfan":4139,"Ġtrust":4140,"ils":4141,"unt":4142,"Ġ44":4143,"Ġsuc":4144,"Ġresidents":4145,"Ġathlet":4146,"Ġcomedy":4147,"ellig":4148,"force":4149,"Ġbbc":4150,"Ġpoet":4151,"Ġdesignated":4152,"Ġpromoted":4153,"osaur":4154,"Ġnominated":4155,"Ġpassing":4156,"Ġresc":4157,"Ġcultural":4158,"Ġrod":4159,"Ġcrown":4160,"mond":4161,"Ġcompletely":4162,"stone":4163,"Ġcroat":4164,"Ġconflict":4165,"po":4166,"Ġlane":4167,"Ġmis":4168,"Ġproblem":4169,"Ġavenue":4170,"Ġlov":4171,"Ġorche":4172,"Ġweight":4173,"Ġheight":4174,"Ġmainly":4175,"Ġsubs":4176,"phy":4177,"Ġsexual":4178,"Ġtrail":4179,"ault":4180,"Ġstruck":4181,"Ġcharts":4182,"istry":4183,"Ġarms":4184,"iced":4185,"Ġsought":4186,"Ġreplac":4187,"Ġpaper":4188,"Ġrot":4189,"Ġ1920":4190,"Ġhands":4191,"Ġencour":4192,"Ġancient":4193,"Ġsense":4194,"Ġ1945":4195,"Ġseasons":4196,"nds":4197,"Ġwebs":4198,"Ġcontent":4199,"lement":4200,"Ġ1941":4201,"Ġvari":4202,"Ġ150":4203,"Ġdoub":4204,"Ġpul":4205,"Ġconsec":4206,"Ġfeed":4207,"Ġwars":4208,"za":4209,"Ġfish":4210,"Ġcharge":4211,"Ġimage":4212,"Ġreaching":4213,"while":4214,"Ġspect":4215,"ills":4216,"Ġfellow":4217,"Ġweapons":4218,"yer":4219,"zy":4220,"Ġitaly":4221,"Ġcell":4222,"Ġinstrument":4223,"iano":4224,"olved":4225,"Ġdang":4226,"Ġamericans":4227,"Ġchannel":4228,"Ġwidely":4229,"Ġmit":4230,"Ġfavour":4231,"acts":4232,"Ġmedal":4233,"Ġgil":4234,"Ġsr":4235,"Ġry":4236,"Ġbaseball":4237,"Ġappearances":4238,"Ġhabit":4239,"Ġalone":4240,"Ġintellig":4241,"Ġemot":4242,"ura":4243,"Ġjersey":4244,"ques":4245,"Ġconfirmed":4246,"iber":4247,"Ġfres":4248,"Ġkr":4249,"Ġgained":4250,"Ġshel":4251,"ylv":4252,"Ġgra":4253,"Ġbeyond":4254,"Ġfiction":4255,"Ġireland":4256,"Ġchoice":4257,"adel":4258,"Ġbrothers":4259,"Ġjoin":4260,"Ġmurder":4261,"roll":4262,"Ġreign":4263,"ota":4264,"Ġolder":4265,"rative":4266,"Ġbru":4267,"Ġelement":4268,"Ġproved":4269,"Ġsteel":4270,"Ġversions":4271,"Ġanalys":4272,"Ġcrick":4273,"Ġlibrary":4274,"Ġcarl":4275,"uled":4276,"Ġheadquarters":4277,"Ġfloor":4278,"oration":4279,"Ġexplained":4280,"Ġsays":4281,"mans":4282,"cers":4283,"Ġoffer":4284,"Ġahead":4285,"Ġsens":4286,"oman":4287,"Ġalt":4288,"aling":4289,"Ġexpans":4290,"known":4291,"Ġnegot":4292,"ule":4293,"Ġdw":4294,"Ġserve":4295,"Ġrainfall":4296,"Ġ1989":4297,"bon":4298,"Ġcausing":4299,"town":4300,"Ġcomes":4301,"Ġspeech":4302,"Ġsant":4303,"Ġ1943":4304,"Ġhotel":4305,"Ġvictoria":4306,"Ġopt":4307,"ican":4308,"Ġcharl":4309,"Ġsuit":4310,"Ġrecon":4311,"dy":4312,"Ġrequire":4313,"Ġfal":4314,"Ġ51":4315,"Ġexpressed":4316,"Ġcatholic":4317,"Ġequipment":4318,"Ġworkers":4319,"Ġsplit":4320,"Ġhorses":4321,"Ġarticle":4322,"Ġapparent":4323,"ety":4324,"ares":4325,"Ġroads":4326,"Ġreports":4327,"ees":4328,"Ġgrowth":4329,"Ġpap":4330,"Ġprominent":4331,"Ġoffensive":4332,"Ġoccasion":4333,"Ġbranch":4334,"Ġgross":4335,"Ġdrama":4336,"Ġadvanced":4337,"Ġbowl":4338,"Ġexperiment":4339,"ancy":4340,"Ġcapture":4341,"Ġidentified":4342,"Ġofficially":4343,"oured":4344,"Ġsetting":4345,"Ġhusband":4346,"Ġworldwide":4347,"Ġarmed":4348,"ufact":4349,"gu":4350,"usion":4351,"Ġpattern":4352,"Ġsoft":4353,"Ġcategory":4354,"Ġsnow":4355,"ighth":4356,"Ġsurre":4357,"Ġmanufact":4358,"Ġtells":4359,"Ġheavily":4360,"Ġreserve":4361,"Ġsenate":4362,"Ġbott":4363,"Ġjustice":4364,"Ġsport":4365,"Ġmatter":4366,"Ġcomputer":4367,"Ġrepresented":4368,"Ġextra":4369,"iÄĩ":4370,"Ġtrees":4371,"Ġactivities":4372,"Ġescape":4373,"iring":4374,"Ġspread":4375,"mark":4376,"Ġcricket":4377,"Ġunf":4378,"Ġplaces":4379,"Ġmeanwhile":4380,"Ġtreatment":4381,"Ġadapt":4382,"Ġpieces":4383,"bit":4384,"Ġleaves":4385,"ĠÎ":4386,"Ġtay":4387,"bi":4388,"Ġactress":4389,"Ġleaders":4390,"Ġfigures":4391,"Ġjul":4392,"Ġavoid":4393,"Ġfired":4394,"Ġwhy":4395,"Ġinjury":4396,"Ġbelieve":4397,"Ġtoward":4398,"ube":4399,"Ġduke":4400,"Ġagreement":4401,"Ġsupply":4402,"Ġexpedition":4403,"Ġdutch":4404,"Ġlives":4405,"ylvania":4406,"where":4407,"abeth":4408,"Ġunknown":4409,"Ġillust":4410,"Ġdoing":4411,"Ġanth":4412,"Ġcasual":4413,"Ġalbert":4414,"Ġdata":4415,"Ġcouple":4416,"Ġkilomet":4417,"Ġunlike":4418,"Ġprin":4419,"Ġimag":4420,"Ġeliz":4421,"Ġlaid":4422,"Ġeditor":4423,"Ġstrike":4424,"Ġconsisted":4425,"Ġpin":4426,"Ġdebuted":4427,"hire":4428,"essions":4429,"Ġdin":4430,"acity":4431,"Ġwalls":4432,"ours":4433,"ads":4434,"pool":4435,"Ġri":4436,"Ġmig":4437,"Ġdream":4438,"Ġaired":4439,"Ġid":4440,"Ġbart":4441,"Ġargued":4442,"ushed":4443,"Ġopin":4444,"Ġstations":4445,"Ġwatch":4446,"Ġtypically":4447,"Ġopposition":4448,"more":4449,"Ġsevere":4450,"Ġspin":4451,"Ġmoment":4452,"Ġstore":4453,"Ġreference":4454,"Ġmounted":4455,"osen":4456,"Ġhomer":4457,"iles":4458,"Ġtwice":4459,"Ġclaims":4460,"Ġnations":4461,"Ġaffected":4462,"Ġpolish":4463,"Ġdescription":4464,"bn":4465,"Ġactors":4466,"Ġcra":4467,"oty":4468,"Ġanimal":4469,"Ġaspect":4470,"Ġfaced":4471,"inson":4472,"Ġindustrial":4473,"Ġpowers":4474,"Ġ600":4475,"lines":4476,"Ġemph":4477,"Ġnotable":4478,"Ġsupre":4479,"Ġsher":4480,"Ġjon":4481,"Ġsky":4482,"Ġmaintained":4483,"Ġaccident":4484,"Ġtechnology":4485,"Ġtrying":4486,"Ġprotection":4487,"Ġvalue":4488,"elle":4489,"gers":4490,"Ġknight":4491,"Ġvisited":4492,"Ġtable":4493,"ifying":4494,"Ġorders":4495,"Ġdaniel":4496,"Ġconvers":4497,"Ġcriticized":4498,"Ġlanding":4499,"Ġconne":4500,"Ġdelay":4501,"Ġfuel":4502,"Ġmotor":4503,"ux":4504,"Ġcarolina":4505,"Ġbroken":4506,"Ġholly":4507,"Ġsom":4508,"Ġsail":4509,"Ġfully":4510,"emic":4511,"Ġresident":4512,"Ġba":4513,"worth":4514,"Ġgrowing":4515,"Ġchosen":4516,"Ġmotion":4517,"ockey":4518,"Ġtwel":4519,"Ġet":4520,"har":4521,"ruit":4522,"Ġ53":4523,"Ġ1987":4524,"Ġinstitute":4525,"Ġcooper":4526,"ocks":4527,"Ġmul":4528,"Ġscottish":4529,"enger":4530,"Ġlabel":4531,"Ġtwelve":4532,"Ġdur":4533,"Ġdemonstr":4534,"gian":4535,"Ġ1988":4536,"Ġcriticism":4537,"Ġhat":4538,"Ġproducers":4539,"Ġyouth":4540,"Ġfrequently":4541,"Ġcompar":4542,"ola":4543,"Ġsolo":4544,"Ġentr":4545,"Ġseventh":4546,"Ġurban":4547,"Ġphilos":4548,"Ġta":4549,"Ġjoint":4550,"clusion":4551,"Ġcondition":4552,"Ġwounded":4553,"Ġ85":4554,"Ġlands":4555,"ayer":4556,"Ġaccompan":4557,"Ġpenns":4558,"Ġmd":4559,"Ġvice":4560,"Ġnest":4561,"Ġbenef":4562,"Ġlooking":4563,"Ġinte":4564,"Ġtra":4565,"Ġgolden":4566,"Ġnewspaper":4567,"Ġoppos":4568,"Ġsurrounding":4569,"ala":4570,"agn":4571,"Ġbillion":4572,"Ġchor":4573,"Ġbol":4574,"Ġindependence":4575,"Ġdegree":4576,"Ġlew":4577,"Ġcomposition":4578,"rael":4579,"Ġmoon":4580,"Ġregister":4581,"Ġoperated":4582,"Ġbarb":4583,"Ġrepublican":4584,"Ġassembly":4585,"Ġnuclear":4586,"Ġbudget":4587,"Ġchampion":4588,"izes":4589,"ordin":4590,"Ġcomic":4591,"Ġperfect":4592,"Ġserving":4593,"Ġgrew":4594,"Ġdry":4595,"Ġcreation":4596,"Ġsoutheast":4597,"uous":4598,"Ġsimply":4599,"Ġhip":4600,"Ġfollows":4601,"Ġrival":4602,"Ġincident":4603,"Ġvote":4604,"Ġlosing":4605,"Ġexpansion":4606,"Ġcool":4607,"Ġfamous":4608,"ano":4609,"Ġkilling":4610,"Ġcontained":4611,"Ġrisk":4612,"under":4613,"Ġnewly":4614,"Ġagric":4615,"wise":4616,"ias":4617,"Ġcontact":4618,"Ġbc":4619,"mission":4620,"Ġherself":4621,"Ġpasses":4622,"Ġoppon":4623,"Ġandrew":4624,"Ġweekly":4625,"Ġends":4626,"Ġindividuals":4627,"Ġcaval":4628,"Ġbac":4629,"yle":4630,"Ġpros":4631,"Ġchristmas":4632,"urb":4633,"Ġcinem":4634,"ivity":4635,"hew":4636,"wall":4637,"Ġnormal":4638,"Ġapplic":4639,"Ġjac":4640,"Ġ54":4641,"Ġsin":4642,"yr":4643,"Ġheard":4644,"Ġgh":4645,"Ġeyes":4646,"Ġhomes":4647,"Ġattrib":4648,"Ġconsecutive":4649,"Ã¨":4650,"ote":4651,"Ġwilson":4652,"Ġtam":4653,"cul":4654,"isters":4655,"Ġemphas":4656,"Ġnav":4657,"Ġchronic":4658,"Ġtaylor":4659,"Ġcrossing":4660,"ucky":4661,"Ġaer":4662,"Ġcannot":4663,"Ġthing":4664,"Ġorchest":4665,"Ġwebsite":4666,"Ġmeasure":4667,"Ġnarrow":4668,"Ġevac":4669,"Ġsupporting":4670,"Ġ1986":4671,"Ġconsequ":4672,"Ġperman":4673,"Ġchose":4674,"pton":4675,"fully":4676,"Ġelizabeth":4677,"ults":4678,"Ġjoe":4679,"Ġopposed":4680,"Ġ95":4681,"Ġ97":4682,"illy":4683,"ographer":4684,"Ġsequence":4685,"Ġalexander":4686,"Ġnote":4687,"Ġ56":4688,"Ġvolume":4689,"Ġparticipated":4690,"Ġagricult":4691,"Ġpoly":4692,"Ġhistoric":4693,"Ġthemes":4694,"Ġvon":4695,"Ġwave":4696,"Ġrise":4697,"cend":4698,"Ġdub":4699,"Ġleadership":4700,"Ġskin":4701,"lam":4702,"water":4703,"rid":4704,"Ġadopted":4705,"jo":4706,"Ġcolonel":4707,"Ġeld":4708,"Ġfresh":4709,"Ġcapacity":4710,"Ġtry":4711,"prise":4712,"Ġabandoned":4713,"Ġdisease":4714,"Ġadvant":4715,"Ġhair":4716,"ancing":4717,"Ġstanding":4718,"ãĤ":4719,"estic":4720,"Ġextend":4721,"Ġfilmed":4722,"Ġfamil":4723,"Ġdefin":4724,"Ġplants":4725,"Ã¤":4726,"Ġdemocratic":4727,"Ġmax":4728,"Ġvisual":4729,"imens":4730,"Ġbasis":4731,"Ġstraight":4732,"uting":4733,"Ġnegative":4734,"Ġpennsylvania":4735,"Ġegg":4736,"Ġdeploy":4737,"greg":4738,"Ġpier":4739,"Ġtall":4740,"Ġrand":4741,"iled":4742,"Ġlic":4743,"Ġfailure":4744,"tery":4745,"Ġcreating":4746,"Ġchalleng":4747,"Ġdrop":4748,"Ġgameplay":4749,"Ġmike":4750,"Ġappl":4751,"Ġ177":4752,"Ġregarded":4753,"Ġpossibly":4754,"Ġsund":4755,"Ġclin":4756,"uses":4757,"Ġtank":4758,"kins":4759,"Ġharry":4760,"Ġarc":4761,"Ġtreaty":4762,"ko":4763,"Ġirish":4764,"Ġlap":4765,"isers":4766,"Ġbodies":4767,"Ġpalace":4768,"Ġcore":4769,"Ġseat":4770,"Ġdistingu":4771,"Ġtrip":4772,"Ġcanal":4773,"Ġgirls":4774,"ev":4775,"Ġflu":4776,"Ġfoundation":4777,"Ġlady":4778,"rane":4779,"Ġlege":4780,"Ġinterchange":4781,"Ġtend":4782,"Ġkid":4783,"Ġspain":4784,"Ġadult":4785,"Ġmerch":4786,"amm":4787,"Ġkick":4788,"Ġparalle":4789,"Ġreact":4790,"Ġideas":4791,"Ġzone":4792,"Ġeag":4793,"Ġridge":4794,"Ġretired":4795,"Ġadvert":4796,"Ġdismiss":4797,"Ġsel":4798,"Ġsurrender":4799,"Ġlind":4800,"Ġtell":4801,"Ġwel":4802,"Ġped":4803,"Ġmist":4804,"tv":4805,"Ġextensive":4806,"Ġdeliver":4807,"Ġdeck":4808,"Ġ76":4809,"rol":4810,"gal":4811,"onc":4812,"Ġ178":4813,"azz":4814,"ruct":4815,"Ġaid":4816,"Ġyounger":4817,"Ġhockey":4818,"Ġscholars":4819,"Ġroles":4820,"Ġexplos":4821,"Ġnob":4822,"Ġgarden":4823,"Ġdial":4824,"Ġatm":4825,"Ġrailroad":4826,"ledge":4827,"Ġbasket":4828,"Ġhope":4829,"Ġanalysis":4830,"ato":4831,"Ġbishop":4832,"Ġclassic":4833,"Ġaim":4834,"Ġfranch":4835,"Ġ1939":4836,"Ġopera":4837,"Ġworth":4838,"Ġgate":4839,"anda":4840,"Ġdrew":4841,"Ġrepeated":4842,"Ġimproved":4843,"uls":4844,"Ġachieved":4845,"Ġeconomy":4846,"Ġga":4847,"Ġeffective":4848,"icks":4849,"Ġbom":4850,"Ġsoul":4851,"Ġlem":4852,"Ġbriefly":4853,"Ġglass":4854,"Ġbanks":4855,"mes":4856,"Ġisrael":4857,"Ġhay":4858,"Ġpiano":4859,"ienced":4860,"Ġdip":4861,"Ġsche":4862,"Ġthor":4863,"Ġunsu":4864,"Ġchamber":4865,"iana":4866,"Ġwed":4867,"Ġcurrently":4868,"orters":4869,"Ġsouthwest":4870,"Ġtrou":4871,"Ġhousehold":4872,"Ġnecessary":4873,"rich":4874,"Ġvehicles":4875,"Ġsud":4876,"Ġgranted":4877,"Ġdefensive":4878,"Ġroof":4879,"Ġ61":4880,"Ġpurpose":4881,"Ġregional":4882,"Ġfame":4883,"Ġ1985":4884,"Ġturns":4885,"hol":4886,"Ġcitizens":4887,"Ġrejected":4888,"Ġcaught":4889,"Ġarthur":4890,"arked":4891,"Ġorganized":4892,"Ġ1968":4893,"Ġ66":4894,"Ġrecently":4895,"Ġtypes":4896,"Ġgenus":4897,"Ġkilometres":4898,"Ġfro":4899,"Ġspeak":4900,"Ġkir":4901,"Ġmarine":4902,"Ġprovince":4903,"ja":4904,"Ġreceive":4905,"Ġexpanded":4906,"Ġcorre":4907,"Ġsecondary":4908,"resp":4909,"Ġatmosp":4910,"Ġauthorities":4911,"Ġflooding":4912,"Ġsell":4913,"Ġcommissioned":4914,"Ġonline":4915,"Ġrhy":4916,"Ġdidn":4917,"Ġble":4918,"lers":4919,"Ġbraz":4920,"Ġcavalry":4921,"iments":4922,"Ġohio":4923,"station":4924,"Ġjes":4925,"Ġtransform":4926,"Ġfamilies":4927,"onic":4928,"Ġsuccessfully":4929,"Ġperforming":4930,"Ġdivers":4931,"Ġletters":4932,"Ġori":4933,"Ġdetermined":4934,"Ġfreedom":4935,"Ġliterature":4936,"Ġalle":4937,"Ġweb":4938,"Ġdescribes":4939,"Ġfought":4940,"Ġagent":4941,"Ġassistant":4942,"Ġwhit":4943,"utation":4944,"Ġhydro":4945,"Ġtowns":4946,"uate":4947,"Å¡":4948,"Ġdram":4949,"Ġsafety":4950,"Ġpicture":4951,"Ġunus":4952,"iday":4953,"adelph":4954,"Ġtail":4955,"Ġ1984":4956,"Ġupgr":4957,"Ġgoes":4958,"Ġcustom":4959,"Ġsinging":4960,"Ġprefer":4961,"iate":4962,"Ġfreeway":4963,"Ġhorn":4964,"umber":4965,"Ġ800":4966,"Ġacquired":4967,"illa":4968,"Ġphiladelph":4969,"Ġtitles":4970,"set":4971,"Ġsuggests":4972,"stream":4973,"Ġcommonly":4974,"Ġplanning":4975,"Ġgives":4976,"rif":4977,"ading":4978,"oln":4979,"Ġcenturies":4980,"alty":4981,"Ġsupreme":4982,"Ġvac":4983,"Ġclou":4984,"oted":4985,"Ġmicro":4986,"ifications":4987,"Ġmentioned":4988,"Ġrevol":4989,"Ġdistribution":4990,"Ġgeorgia":4991,"Ġ57":4992,"Ġcambridge":4993,"inn":4994,"Ġron":4995,"Ġscheduled":4996,"aven":4997,"Ġcontain":4998,"Ġtrains":4999,"Ġcontrolled":5000,"ope":5001,"Ġwithdraw":5002,"Ġconvention":5003,"Ġalternative":5004,"Ġ120":5005,"Ġmyth":5006,"Ġprotect":5007,"Ġphiladelphia":5008,"Ġsets":5009,"Ġshooting":5010,"isf":5011,"Ġsimple":5012,"Ġcook":5013,"attle":5014,"Ġkel":5015,"Ġclar":5016,"haps":5017,"Ġchance":5018,"Ġprincipal":5019,"Ġunique":5020,"Ġreaction":5021,"Ġgraph":5022,"Ġvirt":5023,"Ġperhaps":5024,"Ġregarding":5025,"Ġka":5026,"Ġsie":5027,"Ġfix":5028,"Ġdecre":5029,"Ġss":5030,"Ġwrestling":5031,"Ġfinds":5032,"Ġ1967":5033,"hi":5034,"oul":5035,"Ġwitness":5036,"Ġsave":5037,"Ġmoder":5038,"Ġrussia":5039,"Ġsubmar":5040,"Ġestate":5041,"een":5042,"Ġcrime":5043,"Ġrules":5044,"Ġfacilities":5045,"umes":5046,"Ġkit":5047,"Ġ62":5048,"Ġreading":5049,"Ġarrival":5050,"Ġtag":5051,"amin":5052,"Ġscientific":5053,"Ġkorean":5054,"Ġdemand":5055,"Ġgain":5056,"tic":5057,"Ġscout":5058,"Ġmedic":5059,"Ġsession":5060,"Ġcontaining":5061,"Ġexchange":5062,"Ġaz":5063,"Ġpublication":5064,"Ġaccompanied":5065,"Ġuns":5066,"Ġteach":5067,"Ġlis":5068,"Ġrated":5069,"Ġtact":5070,"Ġnintend":5071,"pa":5072,"Ġmouth":5073,"Ġprice":5074,"Ġlocations":5075,"Ġbelong":5076,"Ġfighter":5077,"Ġrub":5078,"Ġfinish":5079,"Ġtouchdown":5080,"Ġceremony":5081,"Ġliverpool":5082,"mouth":5083,"Ġanne":5084,"Ġbrid":5085,"Ġboats":5086,"Ġmap":5087,"Ġquite":5088,"Ġselection":5089,"Ġhits":5090,"Ġbrook":5091,"Ġevening":5092,"Ġnintendo":5093,"Ġentirely":5094,"Ġlinc":5095,"Ġasia":5096,"Ġcd":5097,"Ġmand":5098,"unk":5099,"Ġconcer":5100,"Ġcolumbia":5101,"Ġpy":5102,"Ġexisting":5103,"ington":5104,"Ġfirm":5105,"Ġrum":5106,"Ġdedicated":5107,"Ġgri":5108,"Ġcrowd":5109,"Ġintensity":5110,"agan":5111,"och":5112,"Ġsingap":5113,"shire":5114,"Ġcontributed":5115,"rupt":5116,"Ġfash":5117,"da":5118,"Ġlegacy":5119,"Ġjean":5120,"Ġjewish":5121,"Ġbrand":5122,"Ġremix":5123,"Ġgrey":5124,"Ġprovides":5125,"Ġpurchased":5126,"etts":5127,"Ġ58":5128,"Ġcasualties":5129,"Ġkings":5130,"Ġadap":5131,"Ġken":5132,"oma":5133,"Ġwindows":5134,"Ġ1983":5135,"Ġbrazil":5136,"Ġresemb":5137,"Ġpage":5138,"rising":5139,"Ġok":5140,"Ġ74":5141,"Ġcampus":5142,"inger":5143,"Ġthrow":5144,"Ġbattery":5145,"Ġax":5146,"kes":5147,"room":5148,"Ġadvantage":5149,"ables":5150,"Ġresistance":5151,"Ġproduct":5152,"inity":5153,"Ġsites":5154,"Ġoccupied":5155,"Ġcarey":5156,"Ġboys":5157,"Ġsingapore":5158,"sey":5159,"Ġfrancisco":5160,"Ġ1969":5161,"Ġeighth":5162,"respond":5163,"Ġcorrespond":5164,"Ġheads":5165,"Ġholding":5166,"Ġ1964":5167,"Ġbasketball":5168,"Ġgib":5169,"Ġlincoln":5170,"oses":5171,"Ġcode":5172,"Ġ72":5173,"Ġgulf":5174,"Ġbes":5175,"Ġpromotion":5176,"Ġstructures":5177,"Ġbright":5178,"Ġgay":5179,"Ġelimin":5180,"Ġmiller":5181,"Ġprotected":5182,"Ġdrawn":5183,"Ġregions":5184,"Ġmerc":5185,"Ġresour":5186,"Ġnap":5187,"Ġmarc":5188,"Ġcoastal":5189,"Ġ1914":5190,"Ġconqu":5191,"Ġhms":5192,"Ġgill":5193,"Ġreceiving":5194,"Ġspr":5195,"Ġclosely":5196,"fort":5197,"rons":5198,"ection":5199,"Ġplaystation":5200,"ĠâĪ":5201,"Ġcars":5202,"Ġ1918":5203,"Ġlaws":5204,"Ġdisney":5205,"cript":5206,"Ġjudge":5207,"itled":5208,"Ġopportunity":5209,"Ġturning":5210,"Ġ1971":5211,"Ġ1982":5212,"Ġlewis":5213,"Ġgeneration":5214,"gn":5215,"Ġcalls":5216,"Ġconsists":5217,"Ġroughly":5218,"iger":5219,"Ġ1972":5220,"Ġsteve":5221,"Ġ1966":5222,"Ġgrade":5223,"Ġ1979":5224,"Ġ59":5225,"iny":5226,"Ġcorner":5227,"Ġdefined":5228,"Ġreserv":5229,"Ġacts":5230,"Ġanderson":5231,"Ġbyz":5232,"ware":5233,"burgh":5234,"wick":5235,"Ġstrengt":5236,"Ġsymbol":5237,"Ġjr":5238,"Ġbrian":5239,"Ġexperienced":5240,"Ġextrem":5241,"Ġanything":5242,"Ġneighbor":5243,"Ġtenn":5244,"Ġolympic":5245,"Ġlosses":5246,"Ġrolling":5247,"Ġfashion":5248,"Ġtask":5249,"Ġheat":5250,"garian":5251,"Ġassault":5252,"Ġhyp":5253,"verse":5254,"otic":5255,"ocated":5256,"box":5257,"Ġbyzant":5258,"Ġsurvey":5259,"Ġ1965":5260,"Ġbands":5261,"ek":5262,"Ġretire":5263,"Ġfocused":5264,"Ġviewed":5265,"Ġengaged":5266,"Ġhind":5267,"awa":5268,"ua":5269,"Ġpolitics":5270,"Ġreligion":5271,"Ġintelligence":5272,"Ġ#":5273,"Ġproviding":5274,"Ġflat":5275,"mann":5276,"rate":5277,"Ġrelief":5278,"Ġdeveloping":5279,"engers":5280,"Ġ1975":5281,"Ġnhl":5282,"Ġ99":5283,"Ġappeal":5284,"Ġsemi":5285,"Ġdomestic":5286,"Ġuncle":5287,"Ġrapidly":5288,"Ġinvestigation":5289,"Ġshared":5290,"Ġbottom":5291,"rant":5292,"Ġwond":5293,"Ġoak":5294,"Ġshall":5295,"Ġmales":5296,"Ġhired":5297,"Ġenl":5298,"Ġdisapp":5299,"Ġwalter":5300,"Ġtow":5301,"Ã¸":5302,"Ġhollywood":5303,"Ġphase":5304,"Ġmyster":5305,"Ġtemperature":5306,"Ġhighlight":5307,"Ġguy":5308,"Ġcredits":5309,"Ġans":5310,"Ġgermans":5311,"Ġgram":5312,"Ġsolid":5313,"Ġmountains":5314,"Ġeverything":5315,"Ġintroduction":5316,"Ã¡n":5317,"Ġfaith":5318,"Ġlaunch":5319,"Ġmissing":5320,"Ġrecognized":5321,"cles":5322,"Ġ1974":5323,"Ġpainting":5324,"ifically":5325,"Ġdavis":5326,"Ġvent":5327,"Ġjunior":5328,"Ġbelief":5329,"opher":5330,"Ġjourney":5331,"Ġhart":5332,"Ġ1973":5333,"bound":5334,"Ġappoint":5335,"Ġ63":5336,"Ġhell":5337,"Ġgetting":5338,"Ġisol":5339,"Ġ77":5340,"heim":5341,"Ġgord":5342,"Ġfalls":5343,"iat":5344,"Ġsubstant":5345,"Ġtyph":5346,"Ġprepared":5347,"Ġ73":5348,"Ġshape":5349,"active":5350,"Ġconve":5351,"essed":5352,"Ġfolk":5353,"Ġrome":5354,"Ġtick":5355,"Ġfranchise":5356,"ilton":5357,"enc":5358,"Ġknew":5359,"Ġserb":5360,"Ġthin":5361,"Ġopinion":5362,"Ġcens":5363,"Ġnaz":5364,"Ġglobal":5365,"Ġamend":5366,"Ġ1976":5367,"Ġsignificantly":5368,"Ġprojects":5369,"Ġintersection":5370,"Ġexact":5371,"Ġauth":5372,"Ġapproved":5373,"Ġsort":5374,"Ġlb":5375,"tar":5376,"Ġliterary":5377,"Ġadding":5378,"Ġarchae":5379,"Ġpenins":5380,"Ġhung":5381,"Ġlas":5382,"friend":5383,"eper":5384,"Ġknowledge":5385,"Ġconfeder":5386,"Ġreasons":5387,"Ġwings":5388,"wart":5389,"Ġwheel":5390,"ographic":5391,"Ġunsuccess":5392,"Ġraid":5393,"Ġsab":5394,"ishes":5395,"ologist":5396,"Ġchallenge":5397,"Ġplayoff":5398,"oncÃ©":5399,"Ġward":5400,"iful":5401,"rence":5402,"Ġmusl":5403,"Ġvic":5404,"Ġsyd":5405,"eme":5406,"erted":5407,"Ġviews":5408,"Ġstages":5409,"Ġsettlement":5410,"Ġcabin":5411,"ulate":5412,"achus":5413,"Ġpoem":5414,"Ġ250":5415,"Ġescort":5416,"Ġevolution":5417,"eman":5418,"Ġcris":5419,"Ġoperating":5420,"Ġstoryline":5421,"asty":5422,"Ġexerc":5423,"ocked":5424,"Ġ67":5425,"Ġequal":5426,"va":5427,"unte":5428,"Ġshut":5429,"break":5430,"Ġinternal":5431,"Ġrenamed":5432,"eds":5433,"lav":5434,"Ġexpect":5435,"Ġscul":5436,"Ġreputation":5437,"Ġrebu":5438,"ĠbeyoncÃ©":5439,"Ġshaped":5440,"ira":5441,"ador":5442,"Ġwatched":5443,"Ġneverthel":5444,"Ġemployed":5445,"Ġnevertheless":5446,"Ġsed":5447,"Ġproceed":5448,"Ġvolunte":5449,"Ġbaby":5450,"Ġallies":5451,"ients":5452,"Ġpopularity":5453,"Ġautom":5454,"Ġlimit":5455,"Ġfine":5456,"Ġinjured":5457,"Ġthirty":5458,"Ġcape":5459,"Ġshore":5460,"itan":5461,"Ġprofessor":5462,"Ġhumans":5463,"Ġguide":5464,"Ġtriple":5465,"Ġfemales":5466,"Ġpaint":5467,"Ġbull":5468,"Ġneut":5469,"Ġblues":5470,"Ġincreasingly":5471,"Ġcited":5472,"Ġkentucky":5473,"Ġheaded":5474,"Ġneither":5475,"hens":5476,"aver":5477,"Ġ1946":5478,"Ġbern":5479,"Ġmodels":5480,"Ġwealth":5481,"Ġdeclined":5482,"Ġ1981":5483,"zen":5484,"Ġhills":5485,"appe":5486,"Ġraf":5487,"Ġfinding":5488,"Ġconnected":5489,"antly":5490,"Ġcollected":5491,"Ġviolence":5492,"Ġ82":5493,"Ġgrav":5494,"Ġdetails":5495,"Ġjam":5496,"see":5497,"arm":5498,"istan":5499,"Ġ96":5500,"Ġ68":5501,"Ġexistence":5502,"Ġconverted":5503,"Ġdiam":5504,"Ġlabour":5505,"Ġdepth":5506,"Ġsustained":5507,"Ġenjoyed":5508,"ĠâĪĴ":5509,"inum":5510,"Ġcontroversy":5511,"mod":5512,"Ġlearned":5513,"Ġnorway":5514,"Ġentry":5515,"onym":5516,"Ġtorn":5517,"Ġconsum":5518,"Ġ1917":5519,"aka":5520,"Ġimpl":5521,"Ġvolcan":5522,"Ġbron":5523,"nic":5524,"Ġmassachus":5525,"Ġolympics":5526,"rec":5527,"Ġouter":5528,"Ġchampionships":5529,"ceived":5530,"Ġapplied":5531,"bl":5532,"Ġmassachusetts":5533,"Ġsynt":5534,"hr":5535,"Ġsad":5536,"Ġvel":5537,"Ġari":5538,"iform":5539,"Ġcrimin":5540,"ella":5541,"Ġallows":5542,"Ġcamera":5543,"istol":5544,"Ġinterp":5545,"Ġteacher":5546,"Ġ87":5547,"Ġpear":5548,"Ġswim":5549,"Ġways":5550,"Ġoccas":5551,"Ġcells":5552,"ava":5553,"Ġclark":5554,"Ġentrance":5555,"Ġapproached":5556,"Ġpremier":5557,"Ġaware":5558,"apes":5559,"Ġarsen":5560,"Ġdecade":5561,"Ġcarrying":5562,"Ġeasily":5563,"osis":5564,"ropri":5565,"Ġdesigns":5566,"Ġtests":5567,"Ġgree":5568,"Ġ160":5569,"Ġresponded":5570,"Ġloy":5571,"Ġconfron":5572,"Ġmine":5573,"Ġfoss":5574,"Ġdownlo":5575,"atures":5576,"Ġgang":5577,"Ġts":5578,"Ġdiscovery":5579,"Ġnic":5580,"Ġtechnical":5581,"Ġ1948":5582,"rel":5583,"Ġindu":5584,"Ġgray":5585,"Ġpitch":5586,"Ġchairman":5587,"Ġburied":5588,"Ġduty":5589,"Ġhang":5590,"Ġextension":5591,"psons":5592,"Ġ700":5593,"omy":5594,"Ġconvoy":5595,"Ġgradually":5596,"Ġsax":5597,"Ġsucceeded":5598,"eral":5599,"Ġsections":5600,"ima":5601,"Äģ":5602,"Ġmayor":5603,"Ġspecifically":5604,"Ġbreeding":5605,"Ġhull":5606,"Ġacres":5607,"Ġshowing":5608,"Ġprograms":5609,"Ġnas":5610,"Ġraw":5611,"una":5612,"Ġjay":5613,"ignment":5614,"Ġhug":5615,"Ġbush":5616,"Ġmunicip":5617,"Ġastron":5618,"Ġsons":5619,"Ġdoor":5620,"Ġmode":5621,"Ġprize":5622,"Ġinstall":5623,"aine":5624,"Ġstret":5625,"Ġsimpsons":5626,"Ġlev":5627,"tical":5628,"ati":5629,"Ġ69":5630,"Ġitems":5631,"Ġprisoners":5632,"Ġexclus":5633,"Ġ1978":5634,"ÅĤ":5635,"Ġarranged":5636,"Ġshop":5637,"Ġnone":5638,"Ġcredited":5639,"Ġgone":5640,"Ġgenre":5641,"Ġlegend":5642,"wa":5643,"Ġaddress":5644,"iro":5645,"Ġsimilarly":5646,"Ġvietnam":5647,"itors":5648,"Ġutil":5649,"Ġ78":5650,"Ġstatement":5651,"Ġteen":5652,"Ġweakened":5653,"Ġseems":5654,"Ġproducing":5655,"Ġwinner":5656,"Ġadditionally":5657,"Ġcad":5658,"Ġimprove":5659,"Ġearliest":5660,"Ġparties":5661,"Ġcryst":5662,"Ġlandfall":5663,"Ġ91":5664,"Ġross":5665,"come":5666,"Ġrural":5667,"Ġwarning":5668,"ss":5669,"Ġroutes":5670,"Ġpresidential":5671,"put":5672,"Ġthreatened":5673,"Ġplac":5674,"Ġdivisions":5675,"Ġ1915":5676,"Ġcandidate":5677,"ogen":5678,"Ġfields":5679,"Ġengineer":5680,"Ġretained":5681,"Ġsounds":5682,"Ġottoman":5683,"Ġinner":5684,"entions":5685,"Ġcombination":5686,"Ġbear":5687,"Ġsydney":5688,"Ġadam":5689,"Ġlasted":5690,"Ġmoore":5691,"Ġproducts":5692,"Ġspok":5693,"Ġ1977":5694,"Ġpoland":5695,"Ġbrain":5696,"Ġinstru":5697,"now":5698,"Ġmtv":5699,"Ġkim":5700,"Ġ94":5701,"ipe":5702,"Ġhear":5703,"Ġmaryland":5704,"issance":5705,"inking":5706,"Ġsha":5707,"Ġreplace":5708,"Ġsupplies":5709,"Ġones":5710,"ivered":5711,"onia":5712,"Ġdress":5713,"Ġchemical":5714,"Ġadapted":5715,"ctors":5716,"met":5717,"Ġinterior":5718,"Ġevil":5719,"Ġot":5720,"Ġanimated":5721,"Ġdowntown":5722,"Ġbasic":5723,"Ġintegr":5724,"eless":5725,"Ġ81":5726,"Ġpeninsula":5727,"Ġafterwards":5728,"Ġfrag":5729,"Ġkur":5730,"athan":5731,"Ġgrounds":5732,"Ġengines":5733,"Ġdelivered":5734,"Ġinspir":5735,"Ġ98":5736,"Ġ1963":5737,"Ġagency":5738,"Ġcul":5739,"math":5740,"Ġspeaking":5741,"Ġmagic":5742,"Ġfilled":5743,"Ġmaintain":5744,"Ġmessage":5745,"Ġsurviv":5746,"Ġrhodes":5747,"Ġcrash":5748,"rets":5749,"Ġcalc":5750,"Ġequival":5751,"Ġstopped":5752,"oli":5753,"Ġentitled":5754,"Ġpermanent":5755,"Ġaffairs":5756,"aly":5757,"Ġcow":5758,"Ġ1916":5759,"Ġsupporters":5760,"Ġindicated":5761,"Ġclean":5762,"Ġsusp":5763,"Ġclimate":5764,"Ġextremely":5765,"Ġwides":5766,"Ġarchitecture":5767,"izations":5768,"Ġengineering":5769,"ali":5770,"mun":5771,"Ġdeaths":5772,"Ġsole":5773,"Ġcauses":5774,"Ġaffect":5775,"Ġdiamond":5776,"Ġphilipp":5777,"Ġbath":5778,"ushing":5779,"Ġalien":5780,"Ġbuff":5781,"Ġgreg":5782,"Ġfruit":5783,"Ġ71":5784,"Ġsecure":5785,"Ġdrug":5786,"apped":5787,"Ġproposal":5788,"Ġimportance":5789,"Ġrestaur":5790,"Ġmars":5791,"Ġreturns":5792,"Ġgordon":5793,"Ġmulder":5794,"time":5795,"sp":5796,"Ġdeleg":5797,"lee":5798,"Ġspons":5799,"Ġratings":5800,"othes":5801,"Ġtyphoon":5802,"osa":5803,"Ġknots":5804,"cks":5805,"Ġtel":5806,"Ġstreets":5807,"Ġphilip":5808,"itt":5809,"Ġimplement":5810,"Ġacid":5811,"Ġharv":5812,"Ġ1919":5813,"Ġcomposer":5814,"leton":5815,"Ġ1962":5816,"Ġches":5817,"emies":5818,"Ġ89":5819,"Ġpig":5820,"Ġko":5821,"book":5822,"Ġmans":5823,"Ġtanks":5824,"ropol":5825,"iversary":5826,"Ġsurvived":5827,"Ġconsc":5828,"Ġjur":5829,"Ġclassical":5830,"pective":5831,"Ġbure":5832,"Ġswit":5833,"Ġaftermath":5834,"Ġira":5835,"Ġdescribing":5836,"Ġcompon":5837,"Ġreferences":5838,"Ġcolour":5839,"Ġwrites":5840,"bourne":5841,"Ġkat":5842,"Ġconvin":5843,"Ġgiant":5844,"Ġll":5845,"Ġprint":5846,"chers":5847,"Ġbos":5848,"Ġfict":5849,"Ġmah":5850,"Ġclassification":5851,"Ġbought":5852,"Ġconcerns":5853,"Ġmes":5854,"Ġsongwrit":5855,"Ġholy":5856,"Ġalf":5857,"Ġimages":5858,"oles":5859,"inois":5860,"Ġeric":5861,"Ġvul":5862,"Ġflo":5863,"Ġ1938":5864,"Ġruled":5865,"Ġack":5866,"Ġrab":5867,"Ġsomeone":5868,"Ġmedie":5869,"Ġtypical":5870,"Ġentering":5871,"Ġrivers":5872,"Ġarmor":5873,"Ġenvironmental":5874,"ela":5875,"Ġ88":5876,"Ġjane":5877,"Ġremember":5878,"Ġgy":5879,"ante":5880,"Ġna":5881,"Ġstudied":5882,"Ġarrested":5883,"Ġdecline":5884,"Ġportrayed":5885,"entially":5886,"Ġcruiser":5887,"Ġvoted":5888,"Ġpreced":5889,"Ġretreat":5890,"mus":5891,"Ġuniverse":5892,"Ġreduce":5893,"Ġsale":5894,"Ġrecalled":5895,"Ġshr":5896,"Ġscar":5897,"Ġeleven":5898,"Ġago":5899,"Ġsiege":5900,"Ġpurchase":5901,"Ġcorporation":5902,"Ġsculpt":5903,"ansas":5904,"Ġquant":5905,"Ġactual":5906,"Ġcapable":5907,"Ġmedieval":5908,"Ġfeeling":5909,"cop":5910,"Ġbang":5911,"Ġacademic":5912,"zer":5913,"aki":5914,"adow":5915,"Ġalliance":5916,"Ġowner":5917,"Ġobjects":5918,"Ġnomination":5919,"lying":5920,"Ġalan":5921,"Ġcolonial":5922,"Ġliberal":5923,"Ġpav":5924,"Ġrecognition":5925,"Ġsessions":5926,"Ġdriving":5927,"Ġobl":5928,"Ġsufficient":5929,"Ġchapter":5930,"Ġtony":5931,"Ġequipped":5932,"Ġnel":5933,"Ġkong":5934,"Ġ130":5935,"Ġthousands":5936,"Ġoffers":5937,"Ġidentity":5938,"Ġhunting":5939,"Ġfunds":5940,"Ġhistorians":5941,"Ġpassage":5942,"Ġnoting":5943,"Ġmarg":5944,"Ġ175":5945,"Ġcamer":5946,"Ġconcerned":5947,"Ġconnection":5948,"Ġanniversary":5949,"Ġfinals":5950,"Ġ1956":5951,"Ġmeters":5952,"Ġbry":5953,"Ġdecades":5954,"Ġdebate":5955,"Ġcrossed":5956,"Ġconsisting":5957,"Ġundert":5958,"Ġadmitted":5959,"hus":5960,"Ġrecommended":5961,"Ġprincess":5962,"Ġ79":5963,"Ġprogramme":5964,"Ġplate":5965,"Ġdetect":5966,"Ġinterested":5967,"right":5968,"Ġthunder":5969,"uct":5970,"Ġinvited":5971,"Ġdipl":5972,"Ġgam":5973,"inal":5974,"eller":5975,"Ġinstalled":5976,"Ġdougl":5977,"Ġsight":5978,"Ġker":5979,"Ġadams":5980,"Ġbreaking":5981,"Ġconsiderable":5982,"Ġarsenal":5983,"Ġpound":5984,"Ġstarts":5985,"Ġuniversal":5986,"Ġhou":5987,"Ġjord":5988,"Ġak":5989,"uan":5990,"Ġmonument":5991,"Ġestablishment":5992,"Ġcourts":5993,"Ġdates":5994,"Ġcolony":5995,"Ġwarm":5996,"Ġdecor":5997,"Ġ1936":5998,"Ġmaria":5999,"Ġeat":6000,"aked":6001,"Ġsequel":6002,"oir":6003,"wich":6004,"Ġhamilton":6005,"Ġbou":6006,"Ġenemies":6007,"Ġstyles":6008,"iques":6009,"acks":6010,"Ġcharged":6011,"Ġsimon":6012,"Ġduties":6013,"Ġimprov":6014,"Ġremainder":6015,"ranean":6016,"Ġveter":6017,"Ġparallel":6018,"heas":6019,"pread":6020,"oked":6021,"Ġutc":6022,"Ġmanner":6023,"Ġtruth":6024,"ora":6025,"Ġwidespread":6026,"Ġjump":6027,"Ġalleg":6028,"Ġready":6029,"Ġshield":6030,"Ġpure":6031,"Ġ92":6032,"Ġsharp":6033,"Ġnegoti":6034,"Ġcommunist":6035,"Ġ93":6036,"eb":6037,"Ġpromote":6038,"Ġpictures":6039,"eland":6040,"Ġsalt":6041,"Ġconservative":6042,"ilation":6043,"Ġnether":6044,"Ġpad":6045,"Ġ1961":6046,"osaurus":6047,"Ġindones":6048,"Ġthro":6049,"Ġcontinuing":6050,"Ġbid":6051,"Ġ84":6052,"Ġslowly":6053,"Ġdean":6054,"Ġmole":6055,"Ġherit":6056,"ingly":6057,"igation":6058,"Ġdeparture":6059,"Ġbehavior":6060,"Ġaspects":6061,"Ġoccasionally":6062,"Ġdiet":6063,"Ġclasses":6064,"Ġtransition":6065,"Ġnba":6066,"Ġwwe":6067,"Ġcos":6068,"Ġelectronic":6069,"Ġanimation":6070,"Ġlam":6071,"Ġ1953":6072,"Ġargent":6073,"Ġbeautiful":6074,"Ġresources":6075,"Ġromantic":6076,"Ġhitler":6077,"iling":6078,"Ġdestruction":6079,"Ġorchestra":6080,"Ġhappy":6081,"Ġrhyth":6082,"Ġrug":6083,"Ġkennedy":6084,"Ġwearing":6085,"Ġposted":6086,"Ġemergency":6087,"Ġacclaim":6088,"Ġsunday":6089,"Ġtransportation":6090,"Ġhoward":6091,"Ġassistance":6092,"Ġdisappo":6093,"akers":6094,"Ġtreas":6095,"Ġsweet":6096,"Ġsenator":6097,"Ġsuperior":6098,"Ġindiana":6099,"Ġride":6100,"atch":6101,"Ġcarbon":6102,"outs":6103,"Ġformal":6104,"Ġvessels":6105,"ione":6106,"Ġleon":6107,"Ġoccurs":6108,"aken":6109,"ashed":6110,"Ġaccur":6111,"hetic":6112,"Ġnorwe":6113,"Ġcertified":6114,"Ġdated":6115,"Ġincome":6116,"Ġbot":6117,"Ġcredit":6118,"Ġmemory":6119,"Ġpopulations":6120,"Ġscully":6121,"Ġattached":6122,"Ġ1947":6123,"Ġproperties":6124,"Ġdemol":6125,"Ġancest":6126,"Ġchorus":6127,"Ġpassengers":6128,"bey":6129,"Ġ1958":6130,"Ġconservation":6131,"Ġshots":6132,"Ġequivalent":6133,"aware":6134,"Ġportug":6135,"Ġmathem":6136,"Ġchapel":6137,"Ġoldest":6138,"Ġinvolving":6139,"Ġturk":6140,"regon":6141,"icide":6142,"ophy":6143,"Ġ1910":6144,"after":6145,"Ġcircum":6146,"Ġterminus":6147,"Ġ110":6148,"Ġ86":6149,"oard":6150,"Ġtunnel":6151,"Ġacknow":6152,"Ġheritage":6153,"Ġcant":6154,"no":6155,"Ġoregon":6156,"Ġadventure":6157,"Ġ1957":6158,"Ġpriest":6159,"Ġexpand":6160,"Ġsettled":6161,"Ġcatch":6162,"Ġrig":6163,"Ġwins":6164,"Ġryan":6165,"pir":6166,"veland":6167,"Ġobtained":6168,"Ġpink":6169,"Ġpope":6170,"Ġbombard":6171,"Ġsleep":6172,"Ġ1937":6173,"Ġjunction":6174,"Ġfisher":6175,"Ġrescue":6176,"Ġdynasty":6177,"Ġcolumn":6178,"icit":6179,"Ġaccused":6180,"Ġauthors":6181,"Ġfinishing":6182,"Ġworst":6183,"Ġderived":6184,"Ġcharges":6185,"Ġninth":6186,"agues":6187,"Ġincorporated":6188,"ivals":6189,"Ġreviewers":6190,"Ġfavorite":6191,"Ġdouglas":6192,"Ġcircuit":6193,"rus":6194,"Ġreplacement":6195,"Ġeu":6196,"Ġprede":6197,"Ġcrisis":6198,"Ġcleveland":6199,"heastern":6200,"Ġillinois":6201,"Ġcommitted":6202,"Ġmissions":6203,"Ġhosted":6204,"hered":6205,"Ġprey":6206,"Ġsword":6207,"Ġmoves":6208,"Ġ<":6209,"Ġbelt":6210,"Ġsegment":6211,"wan":6212,"etime":6213,"Ġrebell":6214,"Ġbringing":6215,"Ġvehicle":6216,"bar":6217,"Ġshear":6218,"Ġgrass":6219,"Ġsupposed":6220,"Ġaudio":6221,"Ġandy":6222,"Ġlenn":6223,"aret":6224,"Ġassumed":6225,"Ġmediter":6226,"Ġdenied":6227,"Ġ1959":6228,"Ġweeke":6229,"Ġstanley":6230,"inary":6231,"ĠâĢĿ":6232,"Ġinterpret":6233,"western":6234,"Ġcirculation":6235,"Ġrooms":6236,"Ġclubs":6237,"Ġrecre":6238,"Ġrepresentatives":6239,"Ġjordan":6240,"oes":6241,"Ġunusual":6242,"Ġunp":6243,"Ġdens":6244,"Ġtheater":6245,"Ġfictional":6246,"Ġmediterranean":6247,"Ġmusicians":6248,"Ġcommanded":6249,"ji":6250,"Ġstrongly":6251,"Ġroger":6252,"Ġkevin":6253,"Ġseeing":6254,"Ġbeatles":6255,"eline":6256,"agonist":6257,"Ġoutstanding":6258,"Ġbegun":6259,"Ġintercept":6260,"Ġdeput":6261,"Ġmexican":6262,"Ġcompletion":6263,"Ġconte":6264,"Ġsurviving":6265,"Ġbruce":6266,"Ġcharacteristics":6267,"ran":6268,"Ġdeem":6269,"Ġ1955":6270,"Ġbristol":6271,"Ġmaterials":6272,"Ġrif":6273,"Ġ1954":6274,"Ġreality":6275,"Ġsolar":6276,"ĠâĢľ":6277,"Ġcathed":6278,"Ġgust":6279,"Ġisbn":6280,"Ġnorwegian":6281,"Ġalleged":6282,"ician":6283,"Ġpersu":6284,"Ġattor":6285,"Ġmonarch":6286,"Ġcosts":6287,"ooth":6288,"Ġmol":6289,"Ġwickets":6290,"Ġexception":6291,"Ġdescend":6292,"Ġlanc":6293,"Ġtied":6294,"Ġpossibility":6295,"Ġmethods":6296,"Ġsailed":6297,"Ġwet":6298,"Ġresponsibility":6299,"borne":6300,"works":6301,"Ġhaz":6302,"Ġreconst":6303,"Ġbah":6304,"Ġvision":6305,"Ġpraise":6306,"Ġpassenger":6307,"Ġeveryone":6308,"Ġcancer":6309,"Ġdriven":6310,"Ġford":6311,"Ġaggress":6312,"lets":6313,"state":6314,"Ġopposite":6315,"ami":6316,"Ġdifferences":6317,"ager":6318,"Ġeru":6319,"Ġcarrier":6320,"Ġrepresentative":6321,"Ġmissed":6322,"Ġintention":6323,"Ġatmosphere":6324,"Ġscheme":6325,"Ġhabitat":6326,"Ġlisa":6327,"Ġkorea":6328,"Ġbuy":6329,"uv":6330,"weight":6331,"Ġthereafter":6332,"Ġdesire":6333,"Ġvoy":6334,"Ġvary":6335,"con":6336,"ĠÃĹ":6337,"Ġrecovered":6338,"Ġotherwise":6339,"Ġmassive":6340,"char":6341,"Ġorange":6342,"organ":6343,"arian":6344,"Ġthrone":6345,"onto":6346,"Ġfunding":6347,"Ġwrong":6348,"Ġplatinum":6349,"Ġnich":6350,"burn":6351,"Ġdragon":6352,"Ġstrategy":6353,"Ġattributed":6354,"Ġreinforce":6355,"itable":6356,"Ġwarri":6357,"Ġphill":6358,"Ġserves":6359,"ucks":6360,"erged":6361,"Ġske":6362,"Ġstayed":6363,"Ġshif":6364,"Ġtwin":6365,"Ġdisappe":6366,"Ġ83":6367,"Ġemerged":6368,"Ġretirement":6369,"Ġeffectively":6370,"Ġcommunities":6371,"Ġclassified":6372,"Ġ1952":6373,"Ġmorris":6374,"Ġlun":6375,"Ġpunk":6376,"Ġoutbreak":6377,"Ġtownship":6378,"Ġille":6379,"Ġministry":6380,"Ġceme":6381,"Ġadults":6382,"Ġweapon":6383,"alf":6384,"Ġaboard":6385,"Ġrobinson":6386,"Ġinse":6387,"Ġaccommod":6388,"Ġmorgan":6389,"elsh":6390,"Ġmobile":6391,"Ġregularly":6392,"ez":6393,"Ġcrosses":6394,"Ġnorman":6395,"Ġdissip":6396,"bell":6397,"rell":6398,"aza":6399,"Ġdocumentary":6400,"Ġelections":6401,"Ġnelson":6402,"Ġtoll":6403,"Ġaccounts":6404,"Ġpartn":6405,"Ġpremiere":6406,"Ġlies":6407,"Ġhawai":6408,"riers":6409,"Ġunderground":6410,"Ġfalling":6411,"Ġstrengthen":6412,"Ġ1933":6413,"Ġcircle":6414,"Ġwonder":6415,"Ġpleas":6416,"Ġstead":6417,"Ġattracted":6418,"Ġcrop":6419,"Ġneck":6420,"Ġcha":6421,"Ġinspiration":6422,"Ġstood":6423,"isms":6424,"Ġsubmarine":6425,"Ġpir":6426,"Ġforming":6427,"Ġtrials":6428,"Ġsatisf":6429,"Ġ176":6430,"enses":6431,"oslav":6432,"Ġangle":6433,"Ġfactor":6434,"Ġraces":6435,"Ġracing":6436,"Ġcriminal":6437,"Ġpret":6438,"Ġcla":6439,"Ġparks":6440,"Ġmovements":6441,"Ġlith":6442,"Ġcommem":6443,"Ġrenew":6444,"Ġjenn":6445,"sole":6446,"Ġadvis":6447,"rett":6448,"Ġlyn":6449,"Ġinjuries":6450,"Ġvotes":6451,"Ġbattleships":6452,"pping":6453,"Ġbatting":6454,"Ġimmig":6455,"Ġsid":6456,"Ġanton":6457,"Ġpull":6458,"Ġdor":6459,"Ġneeds":6460,"anth":6461,"Ġraise":6462,"Ġmck":6463,"abled":6464,"oking":6465,"Ġ1935":6466,"Ġconduct":6467,"Ġseparated":6468,"Ġsweden":6469,"20":6470,"Ġpatrick":6471,"Ġrelative":6472,"Ġallen":6473,"Ġgarrison":6474,"Ġpredecess":6475,"Ġchain":6476,"Ġphotograph":6477,"Ġsudden":6478,"Ġwy":6479,"Ġ1949":6480,"Ġrecru":6481,"Ġshark":6482,"Ġpublisher":6483,"Ġ1951":6484,"Ġwelsh":6485,"Ġearn":6486,"Ġpale":6487,"Ġbag":6488,"idden":6489,"Ġtemporary":6490,"Ġnom":6491,"Ġqueens":6492,"uts":6493,"Ġremn":6494,"Ġplane":6495,"Ġdesert":6496,"Ġsymph":6497,"Ġflank":6498,"Ġdifficulty":6499,"aug":6500,"Ġorb":6501,"Ġdistinguished":6502,"Ġech":6503,"Ġpartner":6504,"bing":6505,"Ġseemed":6506,"Ġports":6507,"Ġrequested":6508,"Ġdelayed":6509,"Ġhem":6510,"teenth":6511,"Ġuss":6512,"Ġbarr":6513,"Ġtoronto":6514,"Ġfacility":6515,"Ġsoph":6516,"Ġdepict":6517,"Ġrestored":6518,"Ġsurrounded":6519,"Ġelder":6520,"Ġgets":6521,"Ġstandards":6522,"Ġmatthew":6523,"Ġeggs":6524,"Ã³n":6525,"Ġatom":6526,"Ġscr":6527,"ogy":6528,"Ġcurt":6529,"Ġbyzantine":6530,"coming":6531,"Ġhoped":6532,"imate":6533,"Ġom":6534,"Ġharm":6535,"Ġclaiming":6536,"Ġelsewhere":6537,"Ġbridges":6538,"Ġnetherlands":6539,"Ġsend":6540,"Ġshir":6541,"Ġchildhood":6542,"Ġhin":6543,"Ġmetropol":6544,"Ġtu":6545,"Ġpenalty":6546,"Ġconvection":6547,"Ġamaz":6548,"Ġreviewer":6549,"abil":6550,"Ġmurd":6551,"rad":6552,"oyd":6553,"Ġtemperatures":6554,"oral":6555,"Ġframe":6556,"Ġinternet":6557,"Ġmeets":6558,"Ġali":6559,"Ġstands":6560,"Ġrud":6561,"Ġconvinced":6562,"Ġkiss":6563,"Ġages":6564,"Ġexamples":6565,"Ġere":6566,"Ġiraq":6567,"Ġgreatly":6568,"Ġmoderate":6569,"Ġjews":6570,"Ġcathedral":6571,"Ġlock":6572,"Ġpublishing":6573,"Ġjacob":6574,"Ġwolf":6575,"rations":6576,"Ġjazz":6577,"Ġdangerous":6578,"Ġinvolvement":6579,"Ġcycle":6580,"Ġpainted":6581,"Ġappropri":6582,"Ġeasy":6583,"Ġtub":6584,"Ġye":6585,"Ġrick":6586,"yard":6587,"Ġwooden":6588,"Ġaccompl":6589,"Ġdrag":6590,"Ġrit":6591,"Ġalco":6592,"Ġ1900":6593,"oz":6594,"Ġadaptation":6595,"Ġsatell":6596,"Ġwright":6597,"Ġhundreds":6598,"Ġspoke":6599,"Ġtries":6600,"Ġattract":6601,"Ġlearn":6602,"iley":6603,"Ġimmediate":6604,"Ġfled":6605,"Ġrecordings":6606,"Ġah":6607,"Ġarn":6608,"Ġanyone":6609,"Ġsumm":6610,"Ġexcell":6611,"pson":6612,"Ġleaf":6613,"Ġparish":6614,"erto":6615,"Ġtechniques":6616,"Ġcheck":6617,"Ġstrip":6618,"Ġdod":6619,"Ġbureau":6620,"Ġcoin":6621,"Ġsalv":6622,"war":6623,"imet":6624,"Ġappearing":6625,"Ġlearning":6626,"what":6627,"Ġsynthes":6628,"uther":6629,"bro":6630,"Ġassass":6631,"Ġencouraged":6632,"reck":6633,"omot":6634,"Ġsomewhat":6635,"berts":6636,"Ġsuffering":6637,"Ġchur":6638,"Ġarmen":6639,"Ġsafe":6640,"Ġdispl":6641,"Ġmeasures":6642,"Ġprohib":6643,"Ġip":6644,"Ġcroatian":6645,"Ġpoetry":6646,"Ġgraphics":6647,"Ġinsur":6648,"Ġveget":6649,"agement":6650,"Ġpatri":6651,"Ġrussell":6652,"bra":6653,"Ġpel":6654,"Ġlegislation":6655,"Ġbears":6656,"Ġdetermine":6657,"Ġjournalist":6658,"Ġdismissed":6659,"Ġhorror":6660,"Ġthompson":6661,"Ġusa":6662,"Ġtan":6663,"sex":6664,"Ġdating":6665,"Ġhub":6666,"going":6667,"Ġislam":6668,"Ġflash":6669,"Ġinterests":6670,"Ġensure":6671,"Ġfacing":6672,"Ġhud":6673,"Ġhend":6674,"Ġpak":6675,"formula":6676,"Ġwhereas":6677,"Ġattempting":6678,"Ġmargin":6679,"Ġnickn":6680,"Ġfu":6681,"Ġgor":6682,"Ġabsor":6683,"Ġupd":6684,"Ġkelly":6685,"Ġfighters":6686,"iva":6687,"Ġ06":6688,"Ġbuck":6689,"Ġnfl":6690,"Ġfitted":6691,"Ġcarter":6692,"Ġkl":6693,"Ġholds":6694,"agre":6695,"Ġcommonwe":6696,"Ġthousand":6697,"Ġtip":6698,"igg":6699,"Ġtrophy":6700,"Ġstarred":6701,"Ġpuerto":6702,"body":6703,"Ġbypass":6704,"Ġattacking":6705,"Ġdepos":6706,"Ġformerly":6707,"Ġgent":6708,"Ġscrap":6709,"Ġvisible":6710,"Ġcommonwealth":6711,"eld":6712,"Ġquestions":6713,"Ġcloser":6714,"Ġextreme":6715,"Ġconclusion":6716,"Ġbiggest":6717,"encies":6718,"Ġspears":6719,"iant":6720,"Ġbats":6721,"Ġmete":6722,"apping":6723,"Ġabsence":6724,"itzer":6725,"Ġwes":6726,"ighter":6727,"Ã±":6728,"Ġproductions":6729,"Ġhungarian":6730,"Ġinfluences":6731,"Ġmodified":6732,"Ġniel":6733,"fe":6734,"Ġprosec":6735,"Ġreprodu":6736,"Ġdeemed":6737,"Ġhonour":6738,"real":6739,"Ġbatman":6740,"Ġcloth":6741,"Ġinstruments":6742,"Ġlion":6743,"Ġoverse":6744,"Ġdiplom":6745,"Ġ1913":6746,"Ġpremiered":6747,"Ġapparently":6748,"night":6749,"Ġparker":6750,"Ġcontroversial":6751,"Ġbronze":6752,"ito":6753,"Ġlanded":6754,"Ġlandsc":6755,"Ġlaboratory":6756,"alo":6757,"Ġscand":6758,"Ġnovels":6759,"Ġharris":6760,"Ġharbor":6761,"Ġnarrative":6762,"á»":6763,"Ġmurray":6764,"Ġlongest":6765,"Ġdistributed":6766,"Ġdre":6767,"Ġgather":6768,"Ġ1927":6769,"Ġterritories":6770,"rete":6771,"Ġleads":6772,"Ġlocomot":6773,"Ġoperate":6774,"Ġ1926":6775,"Ġgallery":6776,"ila":6777,"Ġrestoration":6778,"Ġfiles":6779,"Ġunderstand":6780,"ameter":6781,"Ġvictims":6782,"Ġalph":6783,"Ġattorney":6784,"Ġarrangement":6785,"Ġtrained":6786,"Ġjoy":6787,"Ġdiscip":6788,"Ġlaure":6789,"Ġcreative":6790,"Ġacknowled":6791,"chang":6792,"Ġrhythm":6793,"ivan":6794,"Ġ1934":6795,"Ġ1921":6796,"Ġcloud":6797,"Ġvisitors":6798,"Ġstor":6799,"Ġuniform":6800,"Ġmainstream":6801,"Ġunsuccessful":6802,"Ġmamm":6803,"Ġweekend":6804,"Ġsubstit":6805,"vis":6806,"Ġreleases":6807,"Ġconcur":6808,"Ġrefuge":6809,"Ġsor":6810,"Ġsees":6811,"Ġrepresenting":6812,"owa":6813,"Ġbelieves":6814,"Ġdynam":6815,"Ġdna":6816,"Ġkw":6817,"Ġexcess":6818,"Ġdepicted":6819,"Ġinfluential":6820,"Ġberlin":6821,"Ġresolution":6822,"Ġowners":6823,"Ġcoins":6824,"Ġliqu":6825,"Ġbasin":6826,"entional":6827,"agu":6828,"ici":6829,"Ġexit":6830,"Ġlooked":6831,"Ġdominated":6832,"Ġ08":6833,"apers":6834,"Ġ900":6835,"hanna":6836,"Ġhouston":6837,"Ġraaf":6838,"dd":6839,"aws":6840,"Ġyan":6841,"Ġsecured":6842,"Ġchurches":6843,"ixon":6844,"Ġvideos":6845,"Äį":6846,"Ġsanta":6847,"Ġwol":6848,"eler":6849,"tz":6850,"chen":6851,"Ġwag":6852,"Ġfinn":6853,"Ġnotably":6854,"roit":6855,"Ġyug":6856,"Ġinformed":6857,"Ġcomics":6858,"Ġ1912":6859,"Ġexpos":6860,"Ġcasting":6861,"Ġwatching":6862,"Ġlegs":6863,"illing":6864,"pany":6865,"Ġreun":6866,"Ġdriver":6867,"Ġgiants":6868,"Ġlod":6869,"Ġindians":6870,"Ġoffices":6871,"using":6872,"aya":6873,"Ġcemetery":6874,"ture":6875,"Ġroberts":6876,"Ġswedish":6877,"Ġdeployed":6878,"Ġhut":6879,"Ġlanguages":6880,"atically":6881,"Ġimposs":6882,"Ġguardian":6883,"Ġsimpson":6884,"Ġterror":6885,"Ġrelationships":6886,"Ġbehavi":6887,"oster":6888,"ultane":6889,"Ġ1932":6890,"Ġtone":6891,"Ġdick":6892,"Ġsimultane":6893,"Ġresear":6894,"Ġneighbour":6895,"Ġhousing":6896,"illed":6897,"eenth":6898,"vens":6899,"Ġdies":6900,"aska":6901,"Ġhu":6902,"ĠâĤ":6903,"Ġhearing":6904,"Ġdevice":6905,"Ġtesting":6906,"acent":6907,"Ġtie":6908,"Ġopponents":6909,"Ġskills":6910,"Ġcabinet":6911,"Ġmeteor":6912,"Ġdiagn":6913,"Ġcov":6914,"ication":6915,"Ġkne":6916,"Ġachieve":6917,"Ġpregn":6918,"Ġbh":6919,"apse":6920,"Ġwarner":6921,"Ġoperational":6922,"Ġabd":6923,"Ġcock":6924,"Ġincom":6925,"Ġdetail":6926,"Ġsang":6927,"Ġdrums":6928,"Ġfreder":6929,"Ġimpressed":6930,"Ġgenerated":6931,"ructure":6932,"Ġintense":6933,"Ġemotional":6934,"Ġjason":6935,"Ġ09":6936,"Ġliz":6937,"Ġfactors":6938,"Ġreportedly":6939,"Ġmainten":6940,"rig":6941,"Ġdialogue":6942,"li":6943,"Ġagents":6944,"Ġhappened":6945,"Ġau":6946,"Ġbapt":6947,"Ġmaintenance":6948,"ternal":6949,"Ġwindow":6950,"Ġdownload":6951,"Ġcommemor":6952,"fare":6953,"Ġay":6954,"Ġrender":6955,"iously":6956,"Ġnbc":6957,"Ġyugoslav":6958,"Ġformat":6959,"Ġsuccessor":6960,"Ġagricultural":6961,"Ġanthony":6962,"Ġfiring":6963,"Ġfootage":6964,"Ġemployees":6965,"Ġexperiences":6966,"Ġmud":6967,"Ġsatur":6968,"Ġsomers":6969,"Ġabbey":6970,"arts":6971,"Ġtrek":6972,"olph":6973,"Ġclay":6974,"Ġrising":6975,"otype":6976,"Ġgaga":6977,"Ġdetroit":6978,"tw":6979,"Ġfishing":6980,"udes":6981,"ci":6982,"Ġcroatia":6983,"Ġlose":6984,"mate":6985,"Ġsure":6986,"Ġteeth":6987,"Ġdefended":6988,"Ġnegotiations":6989,"Ġcu":6990,"Ġlowest":6991,"Ġscientists":6992,"Ġbun":6993,"ache":6994,"fire":6995,"Ġzero":6996,"Ġraj":6997,"Ġrevolutionary":6998,"Ġ1929":6999,"Ġstem":7000,"ih":7001,"icial":7002,"Ġexecuted":7003,"Ġbelg":7004,"Ġark":7005,"Ġku":7006,"Ġ1911":7007,"Ġcod":7008,"Ġfried":7009,"Ġmedium":7010,"Ġdiscussed":7011,"Ġcollect":7012,"Ġgilbert":7013,"ctic":7014,"Ġpersonality":7015,"Ġfeud":7016,"Ġ140":7017,"Ġnormally":7018,"Ġrecur":7019,"Ġtreated":7020,"Ġseas":7021,"igen":7022,"noon":7023,"aints":7024,"Ġsic":7025,"Ġenters":7026,"Ġportra":7027,"anny":7028,"Ġtribute":7029,"Ġasian":7030,"Ġafternoon":7031,"Ġinterstate":7032,"Ġtenth":7033,"Ġsympt":7034,"Ġstewart":7035,"Ġlob":7036,"Ġradar":7037,"Ġdj":7038,"Ġresign":7039,"Ġ1931":7040,"Ġdrawing":7041,"Ġ1922":7042,"Ġclinton":7043,"Ġresidential":7044,"achment":7045,"Ġcarib":7046,"Ġmelbourne":7047,"ontin":7048,"Ġstorms":7049,"30":7050,"Ġflew":7051,"Ġjesus":7052,"Ġresigned":7053,"Ġaccompany":7054,"Ġgoods":7055,"Ġcher":7056,"Ġdifference":7057,"Ġvessel":7058,"Ġadvoc":7059,"Ġdetailed":7060,"iliar":7061,"Ġethnic":7062,"Ġinhabit":7063,"Ġtornado":7064,"Ġbreat":7065,"Ġboil":7066,"ois":7067,"Ġorigins":7068,"Ġaged":7069,"Ġevans":7070,"Ġformally":7071,"Ġpointed":7072,"Ġbudd":7073,"Ġnielsen":7074,"Ġpartnership":7075,"Ġtechnique":7076,"Ġmilitia":7077,"Ġreveals":7078,"Ġprevented":7079,"Ġsynd":7080,"Ġinnov":7081,"Ġpreferred":7082,"Ġloop":7083,"Ġglac":7084,"Ġxbox":7085,"pet":7086,"Ġpushed":7087,"Ġstable":7088,"Ġdirectors":7089,"Ġtempor":7090,"Ġhuge":7091,"oen":7092,"Ġkeeping":7093,"Ġforb":7094,"Ġarriving":7095,"Ġannounce":7096,"Ġapprec":7097,"Ġexposed":7098,"Ġ05":7099,"arf":7100,"Ġorganizations":7101,"Ġisolated":7102,"Ġinstitution":7103,"Ġneighborhood":7104,"Ġsisters":7105,"orous":7106,"Ġatlant":7107,"ni":7108,"Ġsubstantial":7109,"Ġdisturb":7110,"sk":7111,"Ġpartly":7112,"Ġhanded":7113,"Ġsevent":7114,"Ġmetro":7115,"Ġmoments":7116,"Ġforty":7117,"Ġmuslim":7118,"Ġmarshall":7119,"Ġlinked":7120,"Ġfounder":7121,"Ġsamuel":7122,"otes":7123,"Ġturkish":7124,"iner":7125,"Ġoxy":7126,"Ġphen":7127,"lie":7128,"Ġimprison":7129,"Ġenthus":7130,"Ġsarah":7131,"Ġdeparted":7132,"Ġanaly":7133,"Ġmack":7134,"Ġhans":7135,"rees":7136,"Ġherald":7137,"Ġcontinental":7138,"Ġdesigner":7139,"Ġfactory":7140,"vere":7141,"Ġaustria":7142,"Ġcomplic":7143,"mad":7144,"Ġcorrect":7145,"rose":7146,"Ġcolorado":7147,"Ġsuspend":7148,"Ġlennon":7149,"Ġexisted":7150,"Ġassess":7151,"Ġfrequent":7152,"Ġpione":7153,"Ġmanh":7154,"Ġmeg":7155,"Ġfifteen":7156,"Ġdramatic":7157,"Ġgreece":7158,"Ġimpossible":7159,"ologists":7160,"Ġperiods":7161,"bean":7162,"Ġranking":7163,"Ġinstrumental":7164,"Ġbenn":7165,"Ġproced":7166,"Ġavo":7167,"Ġextent":7168,"Ġwedding":7169,"Ġmoral":7170,"Ġoccupation":7171,"Ġbaltim":7172,"Ġparticipate":7173,"Ġconcerts":7174,"Ġcatal":7175,"sa":7176,"ģĦ":7177,"Ġsymp":7178,"Ġinstance":7179,"Ġ170":7180,"Ġpatrol":7181,"Ġinher":7182,"Ġload":7183,"Ġbaltimore":7184,"Ġshock":7185,"rome":7186,"imb":7187,"olis":7188,"Ġseeking":7189,"Ġiniti":7190,"mat":7191,"lev":7192,"usted":7193,"Ġarmament":7194,"Ġcruisers":7195,"Ġscholar":7196,"inder":7197,"Ġapple":7198,"Ġanticip":7199,"stic":7200,"Ġalter":7201,"Ġmalays":7202,"Ġdeputy":7203,"Ġspecimens":7204,"Ġgrace":7205,"Ġmail":7206,"Ġtru":7207,"Ġtaught":7208,"Ġturb":7209,"ullivan":7210,"Ġaqu":7211,"Ġhelic":7212,"Ġverse":7213,"Ġfinale":7214,"Ġghost":7215,"lyn":7216,"Ġseek":7217,"music":7218,"Ġimpress":7219,"Ġfab":7220,"die":7221,"Ġern":7222,"Ġmanus":7223,"Ġhunt":7224,"Ġrarely":7225,"Ġgates":7226,"Ġsem":7227,"Ġrepair":7228,"Ġsmooth":7229,"Ġamendment":7230,"Ġnewspapers":7231,"Ġcreator":7232,"Ġfriendly":7233,"Ġspending":7234,"Ġdave":7235,"fr":7236,"arn":7237,"Ġupgraded":7238,"Ġalab":7239,"Ġmetropolitan":7240,"Ġgene":7241,"Ġobser":7242,"Ġdiameter":7243,"Ġdoesn":7244,"Ġwithdrew":7245,"Ġdir":7246,"Ġrelie":7247,"gate":7248,"Ġarena":7249,"Ġabsol":7250,"Ġprecip":7251,"Ġchase":7252,"cope":7253,"mal":7254,"Ġpip":7255,"Ġdivor":7256,"Ġ1928":7257,"Ġstro":7258,"Ġpoison":7259,"idae":7260,"Ġtimber":7261,"Ġlisten":7262,"Ġnag":7263,"Ġuncertain":7264,"Ġexhibition":7265,"Ġcovers":7266,"Ġpicked":7267,"Ġencountered":7268,"iami":7269,"Ġmathemat":7270,"Ġfrederick":7271,"Ġpermission":7272,"ras":7273,"Ġpounds":7274,"iller":7275,"Ġjoining":7276,"Ġlect":7277,"obi":7278,"Ġchanc":7279,"Ġboss":7280,"umin":7281,"Ġrefere":7282,"boy":7283,"icians":7284,"Ġcollaps":7285,"Ġdifficulties":7286,"Ġpolicies":7287,"Ġrates":7288,"Ġchanging":7289,"Ġschedule":7290,"Ġmario":7291,"Ġskull":7292,"Ġsomerset":7293,"Ġplus":7294,"Ġlegislature":7295,"Ġgab":7296,"Ġconsult":7297,"Ġ1925":7298,"Ġinaug":7299,"Ġmississ":7300,"Ġmulti":7301,"Ġanna":7302,"Ġsuicide":7303,"Ġcous":7304,"Ġpartially":7305,"sea":7306,"Ġ1890":7307,"Ġinqu":7308,"borough":7309,"Ġanch":7310,"Ġrestrict":7311,"Ġturrets":7312,"Ġmerchant":7313,"ski":7314,"Ġadvice":7315,"ĠÃ¦":7316,"Ġsank":7317,"anium":7318,"Ġanglo":7319,"Ġfederation":7320,"Ġovers":7321,"Ġbombers":7322,"Ġathletic":7323,"Ġmiami":7324,"aria":7325,"chell":7326,"Ġseed":7327,"Ġric":7328,"Ġpilots":7329,"Ġloan":7330,"Ġdisaster":7331,"Ġfran":7332,"Ġrestric":7333,"Ġadjacent":7334,"Ġtraveled":7335,"Ġsector":7336,"Ġrefers":7337,"Ġgap":7338,"Ġseattle":7339,"Ġcomments":7340,"col":7341,"Ġmines":7342,"Ġ1924":7343,"Ġrebellion":7344,"Ġbenefit":7345,"olas":7346,"Ġagree":7347,"Ġaffair":7348,"Ġwaves":7349,"Ġdal":7350,"Ġpref":7351,"Ġexplo":7352,"Ġsoldier":7353,"Ġphilosophy":7354,"Ġseats":7355,"Ġgardens":7356,"Ġplain":7357,"Ġsigns":7358,"Ã©e":7359,"Ġproport":7360,"Ġkal":7361,"Ġmarry":7362,"Ġworship":7363,"amese":7364,"Ġpitched":7365,"Ġminimum":7366,"Ġian":7367,"Ġ07":7368,"Ġshakes":7369,"Ġcriticised":7370,"Ġeagle":7371,"Ġiowa":7372,"Ġmeat":7373,"Ġmunicipal":7374,"Ġphr":7375,"Ġcoordin":7376,"ti":7377,"Ġsi":7378,"Ġbases":7379,"Ġalabama":7380,"Ġsoil":7381,"Ġnapole":7382,"esis":7383,"sters":7384,"Ġaustralians":7385,"Ġdestroyers":7386,"iot":7387,"Ġprompted":7388,"Ġcompete":7389,"Ġstruggle":7390,"Ġmint":7391,"Ġremove":7392,"gery":7393,"Ġmissou":7394,"Ġrepr":7395,"Ġpc":7396,"Ġsurprise":7397,"Ġswift":7398,"Ġdanc":7399,"Ġoverl":7400,"usal":7401,"Ġindicate":7402,"Ġwhil":7403,"attan":7404,"Ġhelicop":7405,"Ġcollapse":7406,"Ġion":7407,"Ġrav":7408,"power":7409,"inction":7410,"Ġcommunication":7411,"Ġneutral":7412,"Ġcaribbean":7413,"uster":7414,"Ġmedicine":7415,"Ġcharlie":7416,"Ġspiritual":7417,"Ġmanuscript":7418,"Ġforcing":7419,"Ġlawrence":7420,"Ġcapit":7421,"Ġdesignation":7422,"Ġstring":7423,"Ġhalo":7424,"Ġindeed":7425,"Ġgrown":7426,"Ġminnes":7427,"Ġsatellite":7428,"Ġbros":7429,"Ġarmored":7430,"Ġ1923":7431,"Ġparent":7432,"Ġblow":7433,"Ġenterprise":7434,"enh":7435,"Ġpowered":7436,"pie":7437,"Ġwalker":7438,"attered":7439,"Ġgat":7440,"Ġcopy":7441,"Ġteaching":7442,"Ġpaintings":7443,"Ġwhilst":7444,"gi":7445,"Ġstream":7446,"Ġcollaboration":7447,"isd":7448,"Ġum":7449,"nings":7450,"Ġciting":7451,"Ġsurvivors":7452,"Ġrestaurant":7453,"Ġyanke":7454,"Ġvalues":7455,"Ġelectron":7456,"Ġprotagonist":7457,"gas":7458,"Ġwreck":7459,"Ġfifty":7460,"Ġkhan":7461,"Ġmarketing":7462,"Ġyor":7463,"Ġbranc":7464,"Ġpossession":7465,"Ġcovering":7466,"Ġappointment":7467,"Ġharbour":7468,"mont":7469,"Ġdescribe":7470,"Ġrounds":7471,"Ġapproval":7472,"esh":7473,"Ġprovinc":7474,"Ġencounter":7475,"Ġnazi":7476,"oren":7477,"Ġcandidates":7478,"Ġtravelled":7479,"ascar":7480,"Ġdepending":7481,"Ġjen":7482,"Ġmane":7483,"Ġformula":7484,"ika":7485,"Ġpretty":7486,"mates":7487,"rum":7488,"Ġcharter":7489,"Ġunderstanding":7490,"Ġabb":7491,"Ġpoems":7492,"Ġbalance":7493,"Ġfortress":7494,"Ġreconna":7495,"Ġdispute":7496,"Ġbrill":7497,"Ġhungary":7498,"Ġpine":7499,"Ġorbit":7500,"Ġoxygen":7501,"Ġvictories":7502,"Ġbenj":7503,"imeter":7504,"Ġcyl":7505,"Ġdollars":7506,"mo":7507,"Ġmall":7508,"Ġprompt":7509,"Ġlisting":7510,"Ġsituated":7511,"Ġbowling":7512,"Ġdisplayed":7513,"Ġpic":7514,"Ġbattalions":7515,"Ġvillages":7516,"Ġarticles":7517,"Ġminimal":7518,"Ġdim":7519,"ception":7520,"Ġpole":7521,"Ġchristopher":7522,"icate":7523,"lan":7524,"Ġsurvive":7525,"Ġviolent":7526,"Ġwake":7527,"Ġfel":7528,"Ġbelgium":7529,"Ġhamp":7530,"Ġrugby":7531,"Ġlegislative":7532,"Ġreconnaissance":7533,"Ġearthqu":7534,"Ġcot":7535,"Ġalive":7536,"Ġserial":7537,"Ġoption":7538,"Ġdock":7539,"Ġfemin":7540,"Ġassisted":7541,"Ġclosing":7542,"Ġtelling":7543,"Ġdegrees":7544,"Ġplayoffs":7545,"Ġ01":7546,"Ġpublications":7547,"Ġnam":7548,"Ġcargo":7549,"Ġforests":7550,"Ġdiego":7551,"Ġprol":7552,"Ġdiff":7553,"Ġsoftware":7554,"Ġdancing":7555,"Ġinterpre":7556,"Ġamongst":7557,"Ġfuneral":7558,"Ġhelping":7559,"Ġguil":7560,"Ġsymptoms":7561,"Ġmarks":7562,"Ġcolonies":7563,"Ġshakespe":7564,"Ġeliminated":7565,"Ġtomb":7566,"Ġacted":7567,"Ġjar":7568,"Ġasks":7569,"odore":7570,"Ġbrun":7571,"Ġmonster":7572,"Ġsugar":7573,"Ġriders":7574,"Ġski":7575,"Ġadministrative":7576,"nie":7577,"Ġ*":7578,"Ġnad":7579,"Ġpurposes":7580,"phone":7581,"Ġdrivers":7582,"Ġalfred":7583,"Ġdisl":7584,"anna":7585,"Ġmys":7586,"Ġ1908":7587,"velt":7588,"Ġmichel":7589,"Ġcircumst":7590,"Ġpron":7591,"Ġrepairs":7592,"Ġ1905":7593,"Ġcompilation":7594,"Ġsimpl":7595,"Ġtrouble":7596,"Ġoccasions":7597,"Ġfatal":7598,"Ġmississipp":7599,"Ġ1909":7600,"Ġbenjamin":7601,"Ġmason":7602,"Ġroose":7603,"Ġblind":7604,"Ġconcrete":7605,"orted":7606,"Ġjok":7607,"Ġstatue":7608,"Ã§":7609,"Ġhong":7610,"Ġrout":7611,"Ġalcohol":7612,"Ġinland":7613,"Ġminnesota":7614,"Ġvietn":7615,"Ġcrus":7616,"Ġvietnamese":7617,"Ġlists":7618,"Ġinteract":7619,"Ġattendance":7620,"Ġcannon":7621,"atus":7622,"Ġpreserved":7623,"Ġpreparation":7624,"Ġanime":7625,"Ġpublicly":7626,"Ġhoriz":7627,"Ġgrammy":7628,"Ġconsole":7629,"Ġbusinesses":7630,"rupted":7631,"inals":7632,"Ġmental":7633,"Ġstevens":7634,"Ġmanhattan":7635,"Ġpool":7636,"leman":7637,"Ġabilities":7638,"Ġvoiced":7639,"Ġtang":7640,"Ġsick":7641,"Ġorganisation":7642,"Ġcommunications":7643,"Ġ105":7644,"Ġwider":7645,"ng":7646,"Ġpant":7647,"Ġdefeating":7648,"Ġillness":7649,"Ġ125":7650,"Ġhighways":7651,"fted":7652,"Ġramp":7653,"Ġargument":7654,"forced":7655,"ographical":7656,"Ġfranklin":7657,"uman":7658,"eing":7659,"Ġtouring":7660,"Ġ04":7661,"Ġelabor":7662,"jan":7663,"Ġsignal":7664,"Ġammun":7665,"Ġjet":7666,"Ġresumed":7667,"Ġroosevelt":7668,"Ġkansas":7669,"Ġvs":7670,"uda":7671,"Ġresidence":7672,"Ġ1907":7673,"Ġprel":7674,"Ġcompeted":7675,"Ġbelieving":7676,"Ġintensified":7677,"ivated":7678,"agen":7679,"Ġsas":7680,"Ġsurge":7681,"atherine":7682,"Ġammunition":7683,"Ġalignment":7684,"opes":7685,"Ġcrews":7686,"Ġcoff":7687,"Ġarchb":7688,"Ġexcav":7689,"Ġthinking":7690,"Ġ164":7691,"Ġflights":7692,"Ġdollar":7693,"Ġcounties":7694,"Ġairborne":7695,"Ġbacking":7696,"Ġportland":7697,"Ġfallen":7698,"Ġopponent":7699,"Ġstrategic":7700,"ounced":7701,"Ġunderst":7702,"Ġdocuments":7703,"acle":7704,"ishment":7705,"Ġsigning":7706,"Ġsubjects":7707,"Ġrib":7708,"Ġnit":7709,"Ġnash":7710,"Ġdeliber":7711,"Ġamate":7712,"iable":7713,"Ġing":7714,"Ġusd":7715,"Ġassists":7716,"Ġwalking":7717,"Ġfriendship":7718,"Ġwilling":7719,"Ġaudiences":7720,"din":7721,"Ġalternate":7722,"Ġusual":7723,"Ġceremon":7724,"Ġbiographer":7725,"Ġphilippines":7726,"Ġsuitable":7727,"Ġsib":7728,"Ġgenetic":7729,"Ġinteresting":7730,"Ġstu":7731,"orph":7732,"Ġdoubt":7733,"Ġengineers":7734,"Ġrush":7735,"Ġnoble":7736,"Ġatomic":7737,"Ġmississippi":7738,"Ġ1880":7739,"ensions":7740,"Ġfeelings":7741,"Ġabol":7742,"Ġspar":7743,"Ġradical":7744,"Ġsaturday":7745,"Ġ165":7746,"Ġchand":7747,"Ġwarren":7748,"Ġloyal":7749,"Ġprovincial":7750,"Ġpeters":7751,"Ġguards":7752,"Ġtribes":7753,"Ġdc":7754,"Ġunderw":7755,"Ġsubmitted":7756,"Ġpercentage":7757,"Ġcompleting":7758,"Ġwaiting":7759,"Ġwoods":7760,"à¤":7761,"Ġownership":7762,"Ġexplosion":7763,"Ġcob":7764,"Ġfunctions":7765,"Ġadopt":7766,"Ġbehalf":7767,"Ġtab":7768,"itated":7769,"Ġcharity":7770,"Ġalexand":7771,"donald":7772,"Ġasking":7773,"Ġautobi":7774,"iveness":7775,"Ġhook":7776,"utor":7777,"Ġpor":7778,"Ġdisord":7779,"Ġtast":7780,"Ġsullivan":7781,"Ġrip":7782,"Ġvinc":7783,"Ġguer":7784,"Ġpolar":7785,"Ġtennes":7786,"Ġretail":7787,"Ġartistic":7788,"Ġcampbell":7789,"Ġshakespeare":7790,"Ġevolved":7791,"Ġstick":7792,"ods":7793,"Ġhindu":7794,"dale":7795,"Ġcinema":7796,"Ġchronicle":7797,"Ġlex":7798,"Ġfrust":7799,"Ġtargets":7800,"Ġfalse":7801,"Ġrevenue":7802,"Ġwire":7803,"ifer":7804,"Ġsteven":7805,"Ġobv":7806,"Ġquad":7807,"Ġted":7808,"Ġfrig":7809,"Ġchest":7810,"Ġremark":7811,"Ġregistered":7812,"Ġbirthday":7813,"Ġastronom":7814,"cular":7815,"Ġlakes":7816,"onymous":7817,"Ġsuspended":7818,"Ġcass":7819,"Ġrice":7820,"Ġcartoon":7821,"ader":7822,"Ġhole":7823,"ses":7824,"Ġgoth":7825,"Ġnep":7826,"Ġfavorable":7827,"Ġdimens":7828,"Ġmovies":7829,"ige":7830,"Ġreluct":7831,"Ġjosh":7832,"Ġkin":7833,"Ġcivilian":7834,"Ġlucas":7835,"ãģ":7836,"Ġbeauty":7837,"Ġpoorly":7838,"Ġborough":7839,"icts":7840,"Ġprovision":7841,"Ġheading":7842,"Ġguilty":7843,"10":7844,"Ġpok":7845,"father":7846,"pecies":7847,"Ġegyptian":7848,"Äĥ":7849,"Ġreplacing":7850,"Ġhob":7851,"Ġforth":7852,"eston":7853,"Ġcomfort":7854,"Ġliked":7855,"Ġpace":7856,"Ġpup":7857,"Ġmush":7858,"oto":7859,"Ġrecip":7860,"Ġcliff":7861,"Ġarmies":7862,"Ġarmour":7863,"Ġideal":7864,"Ġ1870":7865,"Ġshells":7866,"Ġaimed":7867,"Ġquiet":7868,"Ġoffering":7869,"Ġsolution":7870,"Ġmeasured":7871,"inea":7872,"Ġmissouri":7873,"Ġtennessee":7874,"Ġboundary":7875,"Ġjos":7876,"Ġengagement":7877,"Ġclearly":7878,"Ġprospect":7879,"Ġacceler":7880,"Ġretrie":7881,"Ġlouisiana":7882,"Ġmargaret":7883,"Ġrocks":7884,"Ġ1906":7885,"inations":7886,"Ġexpensive":7887,"sky":7888,"Ġtemporarily":7889,"pes":7890,"ËĪ":7891,"Ġpalest":7892,"lah":7893,"Ġrecognised":7894,"Ġ360":7895,"Ġmontreal":7896,"Ġsimultaneously":7897,"Ġshipping":7898,"Ġ1904":7899,"Ġgear":7900,"Ġfiled":7901,"Ġesp":7902,"zech":7903,"Ġvulner":7904,"Ġsequences":7905,"uable":7906,"Ġbehaviour":7907,"Ġbrick":7908,"Ġaviation":7909,"Ġsubt":7910,"Ġremnants":7911,"Ġbutter":7912,"Ġgran":7913,"Ġbilly":7914,"Ġrepresents":7915,"Ġgalax":7916,"Ġstorage":7917,"Ġblocks":7918,"Ġagriculture":7919,"Ġcraw":7920,"Ġmonaster":7921,"crib":7922,"Ġwore":7923,"cel":7924,"Ġconspir":7925,"Ġreaders":7926,"Ġessential":7927,"Ġcontext":7928,"Ġfra":7929,"wned":7930,"Ġwants":7931,"Ġsaved":7932,"Ġtox":7933,"Ġcoverage":7934,"Ġstores":7935,"oh":7936,"Ġmitchell":7937,"Ġerr":7938,"Ġtalent":7939,"Ġamph":7940,"Ġsket":7941,"Ġcomparison":7942,"Ġcoinc":7943,"Ġmining":7944,"Ġpatterns":7945,"iac":7946,"Ġczech":7947,"Ġcancelled":7948,"Ġpars":7949,"Ġphone":7950,"Ġphoen":7951,"Ġkirk":7952,"Ġpropag":7953,"Ġaside":7954,"Ġsurgery":7955,"Ġtight":7956,"Ġ03":7957,"Ġperspective":7958,"Ġsuggesting":7959,"Ġinstitutions":7960,"Ġoverseas":7961,"Ġcoc":7962,"rix":7963,"Ġcontinu":7964,"Ġfaster":7965,"Ġspotted":7966,"Ġil":7967,"Ġthirteen":7968,"Ġfamiliar":7969,"Ġgraham":7970,"Ġmatters":7971,"Ġreflected":7972,"Ġmaneu":7973,"Ġwasn":7974,"Ġpractices":7975,"Ġcontributions":7976,"Ġrebuilt":7977,"Ġnotice":7978,"Ġbare":7979,"Ġfurn":7980,"Ġprotein":7981,"issions":7982,"Ġdogs":7983,"Ġlesser":7984,"ylan":7985,"Ġfastest":7986,"mn":7987,"life":7988,"Ġther":7989,"ori":7990,"Ġcarn":7991,"Ġhunter":7992,"Ġglobe":7993,"Ġfurthermore":7994,"Ġpredomin":7995,"Ġshadow":7996,"Ġdestroyer":7997,"Ġpulled":7998,"Ġvertical":7999,"Ġapplication":8000,"net":8001,"Ġarchbishop":8002,"rator":8003,"Ġranks":8004,"Ġcrystal":8005,"Ġescaped":8006,"rim":8007,"Ġroots":8008,"Ġflagship":8009,"Ġbadly":8010,"Ġariz":8011,"Ġoliv":8012,"Ġdrugs":8013,"Ġstrict":8014,"Ġsummit":8015,"Ġsubspecies":8016,"yon":8017,"storm":8018,"Ġforg":8019,"unes":8020,"Ġamounts":8021,"Ġjobs":8022,"Ġsult":8023,"car":8024,"Ġlacked":8025,"Ġcuba":8026,"rants":8027,"Ġsq":8028,"Ġdrove":8029,"Ġcave":8030,"Ġexclud":8031,"Ġallmusic":8032,"Ġdecides":8033,"Ġintelle":8034,"Ġslaves":8035,"Ġpanel":8036,"Ġbombs":8037,"Ġempt":8038,"Ġconfederate":8039,"Ġosc":8040,"Ġargues":8041,"Ġwicket":8042,"Ġintellect":8043,"tha":8044,"Ġbulk":8045,"Ġtoky":8046,"Ġunex":8047,"Ġsubur":8048,"Ġportions":8049,"Ġtriang":8050,"vereign":8051,"kshire":8052,"Ġindies":8053,"Ġsovereign":8054,"Ġautumn":8055,"Ġcontrols":8056,"osing":8057,"artney":8058,"Ġexpression":8059,"Ġsquadrons":8060,"Ġquarterback":8061,"Ġml":8062,"Ġspider":8063,"Ġseverely":8064,"Ġinhabitants":8065,"Ġearning":8066,"Ġstriking":8067,"Ġbiography":8068,"urally":8069,"Ġprinted":8070,"Ġstarring":8071,"Ġtort":8072,"Ġdistinctive":8073,"Ġtamil":8074,"Ġwarship":8075,"Ġcrest":8076,"Ġtoy":8077,"Ġcondem":8078,"Ġambass":8079,"Ġtack":8080,"Ġmainland":8081,"Ġpersian":8082,"Ġguitarist":8083,"Ġsony":8084,"Ġferry":8085,"Ġobservations":8086,"Ġstern":8087,"Ġarizona":8088,"Ġfo":8089,"Ġchick":8090,"Ġcoron":8091,"Ġgodd":8092,"Ġbonus":8093,"Ġrestricted":8094,"Ġtale":8095,"Ġwish":8096,"Ġmarie":8097,"Ġcharacterized":8098,"Ãº":8099,"Ġorth":8100,"Ġvast":8101,"Ġconstitutional":8102,"Ġstere":8103,"Ġplanets":8104,"lings":8105,"urer":8106,"Ġexcellent":8107,"Ġ115":8108,"Ġranging":8109,"Ġclock":8110,"Ġliberty":8111,"Ġbald":8112,"Ġdylan":8113,"Ġvisiting":8114,"iy":8115,"Ġspend":8116,"ieties":8117,"Ġcommanding":8118,"Ġsitting":8119,"Ġflower":8120,"cru":8121,"Ġjury":8122,"Ġrevival":8123,"Ġphenom":8124,"Ġdefinition":8125,"Ġpearl":8126,"rog":8127,"Ġnik":8128,"Ġfixed":8129,"Ġcurren":8130,"Ġmik":8131,"Ġrings":8132,"Ġwilhel":8133,"Ġwait":8134,"Ġvib":8135,"Ġplut":8136,"athy":8137,"idency":8138,"Ġmeetings":8139,"Ġlt":8140,"Ġnominations":8141,"Ġtiss":8142,"Ġwine":8143,"Ġholiday":8144,"Ġthrew":8145,"Ġexplain":8146,"Ġexplains":8147,"Ġbombing":8148,"Ġathletes":8149,"Ġultimate":8150,"Ġsig":8151,"Ġdominant":8152,"olid":8153,"Ġcarriers":8154,"Ġstatistics":8155,"Ġdemonstrated":8156,"Ġamateur":8157,"Ġacou":8158,"fish":8159,"Ġoklah":8160,"Ġillegal":8161,"Ġtig":8162,"Ġbone":8163,"Ġarrive":8164,"Ġbroadway":8165,"equ":8166,"Ġdy":8167,"oga":8168,"Ġdanger":8169,"Ġmultipl":8170,"Ġeducational":8171,"Ġparliamentary":8172,"unction":8173,"Ġartific":8174,"ract":8175,"Ġpill":8176,"Ġaustrian":8177,"Ġmarvel":8178,"Ġfounding":8179,"Ġmetall":8180,"vo":8181,"Ġhidden":8182,"Ġyield":8183,"Ġmrs":8184,"Ġmaur":8185,"Ġswitzer":8186,"Ġticket":8187,"owed":8188,"Ġdust":8189,"Ġforecast":8190,"Ġrook":8191,"Ġartwork":8192,"Ġlen":8193,"Ġcoat":8194,"Ġgrave":8195,"Ġnorthward":8196,"Ġprepare":8197,"Ġharvey":8198,"hu":8199,"thy":8200,"estone":8201,"Ġorn":8202,"Ġarist":8203,"Ġ1901":8204,"Ġaerial":8205,"Ġ174":8206,"Ġcensus":8207,"Ġabund":8208,"Ġswitzerland":8209,"anian":8210,"Ġmurphy":8211,"Ġpredicted":8212,"Ġtalking":8213,"Ġbeam":8214,"Ġamy":8215,"Ġpush":8216,"Ġrever":8217,"ested":8218,"Ġexperimental":8219,"Ġdeclar":8220,"Ġpm":8221,"Ġreaches":8222,"Ġpeaking":8223,"Ġconversion":8224,"Ġslave":8225,"away":8226,"Ġdread":8227,"Ġbarry":8228,"Ġdelaware":8229,"Ġanat":8230,"emen":8231,"Ġovert":8232,"ulating":8233,"Ġfeeding":8234,"Ġconscious":8235,"orer":8236,"Ġlanes":8237,"asts":8238,"Ġsteps":8239,"Ġvii":8240,"Ġabc":8241,"Ġberg":8242,"Ġhouseholds":8243,"Ġdisagre":8244,"Ġchel":8245,"di":8246,"Ġoverw":8247,"grad":8248,"Ġapartment":8249,"Ġnut":8250,"Ġoklahoma":8251,"uations":8252,"Ġaccum":8253,"Ġni":8254,"Ġinnoc":8255,"Ġwestward":8256,"Ġcruc":8257,"Ġfeels":8258,"Ġliquid":8259,"Ġinterf":8260,"Ġbaker":8261,"orship":8262,"Ġseriously":8263,"Ġjoh":8264,"Ġobtain":8265,"Ġrepeatedly":8266,"Ġva":8267,"Ġuseful":8268,"Ġmembership":8269,"Ġaudition":8270,"Ġpredecessor":8271,"Ġbach":8272,"Ġswimming":8273,"Ġsymphony":8274,"Ġmate":8275,"Ġconsidering":8276,"Ġchoose":8277,"Ġcopper":8278,"Ġlayer":8279,"bec":8280,"Ġlaugh":8281,"Ġlon":8282,"Ġ02":8283,"Ġcongreg":8284,"Ġpatron":8285,"Ġ1903":8286,"Ġbones":8287,"Ġwells":8288,"Ġninet":8289,"Ġ155":8290,"Ġconsequently":8291,"Ġcircumstances":8292,"Ġattained":8293,"Ġthanks":8294,"Ġmini":8295,"Ġ1902":8296,"Ġpreserv":8297,"Ġkurt":8298,"elli":8299,"Ġperry":8300,"Ġbacked":8301,"Ġbod":8302,"Ġfasc":8303,"Ġgw":8304,"Ġdelivery":8305,"Ġmelody":8306,"Ġphysics":8307,"Å«":8308,"Ġtodd":8309,"Ġfeather":8310,"Ġrevolt":8311,"imen":8312,"Ġrico":8313,"umps":8314,"Ġperceived":8315,"Ġmemor":8316,"eton":8317,"Ġlooks":8318,"Ġmong":8319,"Ġmillenn":8320,"uma":8321,"Ġmadag":8322,"Ġleslie":8323,"icut":8324,"iders":8325,"Ġshaw":8326,"cs":8327,"Ġrevers":8328,"Ġstones":8329,"Ġvig":8330,"rast":8331,"Ġpages":8332,"Ġhav":8333,"Ġflowers":8334,"isp":8335,"Ġeve":8336,"Ġvaluable":8337,"Ġbernard":8338,"Ġbour":8339,"Ġsunk":8340,"Ġsubsid":8341,"ridge":8342,"Ġballad":8343,"ĠÎ¼":8344,"Ġimprovements":8345,"Ġtokyo":8346,"Ġask":8347,"Ġcomed":8348,"oned":8349,"angel":8350,"Ġremarked":8351,"Ġpossess":8352,"Ġduo":8353,"Ġtactics":8354,"Ġretain":8355,"Ġcompens":8356,"Ġengage":8357,"Ġdenmark":8358,"ym":8359,"Ġturret":8360,"Ġjonathan":8361,"Ġtowers":8362,"Äĳ":8363,"Ġpromised":8364,"Ġpersonally":8365,"Ġrenov":8366,"Ġairlines":8367,"Ġbattlecru":8368,"Ġlandscape":8369,"Ġguar":8370,"Ġjohnny":8371,"Ġatlanta":8372,"rating":8373,"Ġmusician":8374,"Ġtheatrical":8375,"Ġedwards":8376,"Ġment":8377,"Ġexecution":8378,"Ġdawn":8379,"Ġenlisted":8380,"Ġairfield":8381,"Ġobst":8382,"Ġrihanna":8383,"Ġpatt":8384,"Ġhog":8385,"Ġkam":8386,"Ġkids":8387,"Ġspart":8388,"Ġcompound":8389,"Ġmanga":8390,"apolis":8391,"Ġdemands":8392,"Ġsixteen":8393,"asa":8394,"Ġstrengthened":8395,"fa":8396,"Ġnixon":8397,"Ġ101":8398,"Ġtravels":8399,"Ġcampaigns":8400,"onomy":8401,"Ġjuan":8402,"Ġprofile":8403,"Ġsung":8404,"itter":8405,"Ġisa":8406,"uded":8407,"mingham":8408,"Ġqualified":8409,"Ġexplan":8410,"Ġrede":8411,"Ġelevation":8412,"Ġraising":8413,"Ġfunny":8414,"Ġmechanical":8415,"vi":8416,"abs":8417,"Ġdemanded":8418,"inian":8419,"Ġral":8420,"Ġspa":8421,"Ġpapers":8422,"low":8423,"ruption":8424,"Ġillustrated":8425,"Ġ168":8426,"Ġarnold":8427,"ele":8428,"Ġsuccession":8429,"bard":8430,"estyle":8431,"Ġburns":8432,"Ġaggreg":8433,"Ġpitts":8434,"Ġwaste":8435,"Ġinterpretation":8436,"arr":8437,"Ġms":8438,"ova":8439,"Ġinsisted":8440,"Ġclothing":8441,"mith":8442,"Ġkeith":8443,"Ġstress":8444,"Ġenroll":8445,"rows":8446,"Ġcompounds":8447,"Ġruling":8448,"Ġelectricity":8449,"bird":8450,"nik":8451,"yt":8452,"Ġbeats":8453,"Ġsettlers":8454,"Ġcanter":8455,"Ġjimmy":8456,"Ġmirror":8457,"Ġbak":8458,"Ġdressed":8459,"Ġlying":8460,"Ġjudg":8461,"Ġsak":8462,"ghan":8463,"Ġphoenix":8464,"Ġbaron":8465,"Ġfewer":8466,"Ġmeter":8467,"Ġstruggled":8468,"Ġhood":8469,"Ġglee":8470,"Ġcarp":8471,"Ġruth":8472,"Ġtales":8473,"Ġvik":8474,"Ġprost":8475,"uki":8476,"Ġhybr":8477,"Ġrachel":8478,"ĠÏ":8479,"Ġdemolished":8480,"Ġencl":8481,"Ġsucceed":8482,"Ġerected":8483,"Ġpersons":8484,"Ġtrading":8485,"Ġstronger":8486,"esty":8487,"Ġfourteen":8488,"Ġpassion":8489,"ulty":8490,"Ġdecisions":8491,"Ġconquest":8492,"Ġincreases":8493,"Ġriding":8494,"Ġshift":8495,"ensis":8496,"Ġparas":8497,"Ġinsects":8498,"acked":8499,"Ġcutting":8500,"Ġcoup":8501,"Ġyankees":8502,"odox":8503,"Ġtracy":8504,"Ġ166":8505,"Ġremoval":8506,"Ġfis":8507,"Ġhugh":8508,"utt":8509,"Ġexternal":8510,"Ġobjective":8511,"Ġwatershed":8512,"Ġsurpass":8513,"Ġmills":8514,"Ġbirmingham":8515,"Ġdaughters":8516,"Ġcompliment":8517,"Ġpursue":8518,"Ġblu":8519,"jection":8520,"Ġadvertising":8521,"Ġculmin":8522,"nat":8523,"Ġbog":8524,"acre":8525,"Ġdefences":8526,"Ġsuperst":8527,"Ġlights":8528,"xual":8529,"Ġwarfare":8530,"Ġburial":8531,"Ġdeterior":8532,"Ġbobby":8533,"gie":8534,"Ġdevelopers":8535,"avery":8536,"Ġexactly":8537,"folk":8538,"aro":8539,"Ġ109":8540,"Ġobama":8541,"Ġkiller":8542,"Ġoverwhel":8543,"Ġconcentration":8544,"Ġdenn":8545,"eled":8546,"Ġcomprom":8547,"Ġresol":8548,"Ġdiscovers":8549,"Ġgriff":8550,"Ġmercury":8551,"omp":8552,"Ġorganised":8553,"Ġmagazines":8554,"lock":8555,"Ġfate":8556,"Ġlip":8557,"Ġbacter":8558,"Ġfossil":8559,"fts":8560,"Ġaltered":8561,"Ġspur":8562,"Ġdefending":8563,"Ġranges":8564,"Ġbuddh":8565,"Ġmant":8566,"Ġvenue":8567,"kh":8568,"Ġwealthy":8569,"Ġemployment":8570,"Ġhydrogen":8571,"Ġhudson":8572,"erb":8573,"Ġelectrical":8574,"Ġgosp":8575,"Ġloved":8576,"Ġfold":8577,"Ġapproaching":8578,"Ġdall":8579,"Ġeval":8580,"Ġdebt":8581,"Ġexercise":8582,"Ġarmoured":8583,"Ġced":8584,"season":8585,"ctr":8586,"Ġkarl":8587,"Ġadventures":8588,"Ġraids":8589,"zzle":8590,"cha":8591,"Ġestablishing":8592,"Ġselect":8593,"Ġexposure":8594,"Ġwayne":8595,"Ġinvestment":8596,"Ġcommentary":8597,"Ġlimits":8598,"Ġhearts":8599,"Ġmccartney":8600,"Ġmadagascar":8601,"Ġtong":8602,"Ġprofit":8603,"Ġmood":8604,"Ġshak":8605,"Ġconnecticut":8606,"Ġjurisd":8607,"rises":8608,"Ġjup":8609,"Ġconnecting":8610,"Ġaggressive":8611,"mund":8612,"Ġvanc":8613,"Ġhence":8614,"Ġcenters":8615,"Ġepic":8616,"Ġmature":8617,"Ġgods":8618,"Ġpartial":8619,"Ġarchitectural":8620,"Ġqualifying":8621,"Ġontar":8622,"rams":8623,"Ġparach":8624,"Ġliv":8625,"iden":8626,"Ġoutd":8627,"Ġcanterbury":8628,"Ġontario":8629,"Ġprove":8630,"Ġfriday":8631,"Ġmorrison":8632,"Ġslip":8633,"Ġlor":8634,"Ġtrick":8635,"ensively":8636,"Ġindicating":8637,"Ġdwarf":8638,"Ġgren":8639,"Ġongoing":8640,"Ġexter":8641,"Ġedited":8642,"Ġmarkets":8643,"Ġdetermin":8644,"Ġtraveling":8645,"Ġnapoleon":8646,"Ġarrangements":8647,"Ġextrat":8648,"Ġisot":8649,"Ġshorter":8650,"Ġradiation":8651,"Ġimprovement":8652,"Ġwithdrawal":8653,"Ġannouncement":8654,"ardo":8655,"ouver":8656,"Ġsultan":8657,"Ġunless":8658,"aux":8659,"Ġvolumes":8660,"Ġcelebrated":8661,"Ġappropriate":8662,"py":8663,"Ġtheore":8664,"Ġstationed":8665,"Ġevacuated":8666,"Ġpruss":8667,"Ġdissipated":8668,"Ġacknowledged":8669,"Ġextratropical":8670,"Ġhoney":8671,"Ġputting":8672,"Ġpredict":8673,"Ġbomber":8674,"Ġprecipitation":8675,"Ġacoustic":8676,"rous":8677,"Ġsciences":8678,"Ġpermitted":8679,"Ġslavery":8680,"Ġsurvival":8681,"Ġtube":8682,"Ġdict":8683,"Ġcler":8684,"Ġpreparations":8685,"ifies":8686,"Ġdiscussion":8687,"Ġrealized":8688,"Ġsilent":8689,"Ġnurs":8690,"Ġrend":8691,"Ġyoungest":8692,"Ġtna":8693,"Ġinitiated":8694,"Ġdubbed":8695,"Ġplacing":8696,"iph":8697,"Ġgraduated":8698,"caa":8699,"lain":8700,"oons":8701,"Ġkills":8702,"bow":8703,"anger":8704,"Ġhosts":8705,"efa":8706,"Ġpotter":8707,"Ġrecovery":8708,"Ġphotographs":8709,"Ġvoices":8710,"Ġdisappoint":8711,"Ġcort":8712,"Ġhardy":8713,"Ġindustries":8714,"adi":8715,"Ġmcm":8716,"Ġwis":8717,"Ġfleming":8718,"Ġtranslation":8719,"Ġparam":8720,"Ġterr":8721,"Ġgraduate":8722,"Ġkon":8723,"itis":8724,"Ġtruck":8725,"Ġhypothes":8726,"Ġuefa":8727,"Ġgary":8728,"shore":8729,"ulous":8730,"Ġattitude":8731,"Ġ152":8732,"uese":8733,"Ġrehe":8734,"Ġvancouver":8735,"Ġrequires":8736,"Ġstrongest":8737,"Ġconventional":8738,"Ġaffili":8739,"Ġburning":8740,"Ġconfront":8741,"Ġoriginated":8742,"Ġvoyage":8743,"Ġestimates":8744,"itudes":8745,"Ġvamp":8746,"Ġjupiter":8747,"aser":8748,"Ġreporter":8749,"pled":8750,"Ġharmon":8751,"Ġtransit":8752,"amental":8753,"hard":8754,"Ġstol":8755,"hips":8756,"Ġreferring":8757,"Ġtubes":8758,"Ġtrough":8759,"Ġknock":8760,"Ã©t":8761,"Ġdonated":8762,"Ġsonic":8763,"Ġexha":8764,"Ġmend":8765,"Ġexclusive":8766,"Ġecho":8767,"Ġnerv":8768,"Ġedin":8769,"Ġdevast":8770,"Ġrus":8771,"Ġendors":8772,"Ġtours":8773,"Ġsupplement":8774,"Ġexpert":8775,"Ġspecimen":8776,"Ġsignature":8777,"Ġrp":8778,"Ġ104":8779,"Ã¦":8780,"Ġeug":8781,"Ġcolleagues":8782,"Ġclosest":8783,"hous":8784,"itively":8785,"Ġparody":8786,"Ġguinea":8787,"autical":8788,"Ġminority":8789,"Ġsoutheastern":8790,"Ġpakistan":8791,"ingham":8792,"Ġpromotional":8793,"Ġaxis":8794,"Ġindicates":8795,"Ġbearing":8796,"Ġdecide":8797,"Ġcord":8798,"Ġhey":8799,"oven":8800,"Ġkap":8801,"Ġmonte":8802,"Ġdrinking":8803,"Ġearthquake":8804,"Ġrecall":8805,"Ġ173":8806,"ĠÃ¦thel":8807,"rep":8808,"Ġlac":8809,"Ġscattered":8810,"Ġportuguese":8811,"Ġwool":8812,"Ġmanor":8813,"Ġvisits":8814,"Ġ1860":8815,"Ġbradman":8816,"Ġoutf":8817,"Ġlegit":8818,"Ġchallenged":8819,"Ġluke":8820,"Ġattending":8821,"Ġdensity":8822,"Ġcraft":8823,"ivation":8824,"Ġheaven":8825,"inces":8826,"Ġalice":8827,"Ġlawyer":8828,"Ġconcentrated":8829,"Ġgathered":8830,"cr":8831,"Ġmerely":8832,"Ġusers":8833,"Ġprogramming":8834,"Ġemphasis":8835,"Ġcollapsed":8836,"Ġidentify":8837,"Ġcruise":8838,"Ġdwight":8839,"Ġmorph":8840,"Ġtraditionally":8841,"Ġcoalition":8842,"pers":8843,"Ġoverlo":8844,"Ġpam":8845,"Ġterritorial":8846,"Ġsupplied":8847,"à¸":8848,"Ġncaa":8849,"Ġgovernments":8850,"Ġhanna":8851,"case":8852,"Ġdale":8853,"Ġannually":8854,"Ġscreenplay":8855,"Ġdemocrats":8856,"Ġcotton":8857,"Ġov":8858,"ulted":8859,"uration":8860,"Ġindigen":8861,"Ġ1893":8862,"Ġprinciples":8863,"Ġartificial":8864,"mers":8865,"adier":8866,"Ġachievement":8867,"Ġbeng":8868,"Ġbarn":8869,"Ġdevil":8870,"Ġcousin":8871,"Ġelectro":8872,"Ġphotography":8873,"Ġsacrif":8874,"Ġtai":8875,"Ġcash":8876,"graph":8877,"claimed":8878,"Ġcelt":8879,"ello":8880,"Ġportrait":8881,"bal":8882,"Ġprovinces":8883,"Ġlawsu":8884,"Ġ1896":8885,"Ġalpha":8886,"Ġstal":8887,"soft":8888,"Ġprisoner":8889,"nia":8890,"Ġuncom":8891,"Ġprices":8892,"Ġpredators":8893,"Ġoptim":8894,"Ġdoctr":8895,"Ġfed":8896,"Ġoffense":8897,"Ġchemistry":8898,"Ġhampshire":8899,"otte":8900,"Ġafghan":8901,"Ġoliver":8902,"Ġdeclaration":8903,"Ġseized":8904,"Ġterrain":8905,"Ġboom":8906,"Ġaccompanying":8907,"Ġedinburgh":8908,"Ġtalks":8909,"Ġapplications":8910,"Ġtopped":8911,"Ġcompeting":8912,"Ġpond":8913,"Ġfailing":8914,"Ġig":8915,"andy":8916,"Ġreinforcements":8917,"Ġindigenous":8918,"agger":8919,"Ġturner":8920,"Ġinvestigate":8921,"Ġveloc":8922,"Ġreverse":8923,"Ġmosc":8924,"feld":8925,"Ġuranium":8926,"Ġ127":8927,"Ġuniversities":8928,"Ġstuff":8929,"Ġsending":8930,"Ġmaya":8931,"Ġportrayal":8932,"Ġ1898":8933,"Ġsmart":8934,"Ġglen":8935,"Ġtenure":8936,"Ã¼r":8937,"Ġrangers":8938,"Ġpenet":8939,"Ġvictorian":8940,"Ġheir":8941,"Ġchord":8942,"irm":8943,"Ġbroadcasting":8944,"Ġgaz":8945,"Ġoutput":8946,"Ġrevenge":8947,"pin":8948,"Ġnu":8949,"Ġregime":8950,"Ġ350":8951,"Ġreconstruction":8952,"Ġ172":8953,"Ġexperiments":8954,"Ġcros":8955,"Ġconsolid":8956,"Ġvolunteers":8957,"bu":8958,"Ġbeneath":8959,"imetres":8960,"Ġtap":8961,"Ġkan":8962,"Ġflooded":8963,"Ġcertainly":8964,"Ġterminal":8965,"Ġrecurring":8966,"Ġguid":8967,"Ġhitting":8968,"Ġtroub":8969,"iti":8970,"Ġjuven":8971,"Ġprofession":8972,"Ġgoddess":8973,"Ġdual":8974,"Ġyam":8975,"Ġsharks":8976,"Ġbranches":8977,"aks":8978,"Ġargentina":8979,"Ġ111":8980,"Ġcontribution":8981,"Ġlav":8982,"ieth":8983,"Ġredes":8984,"Ġobsc":8985,"Ġsuspect":8986,"Ġvoting":8987,"Ġyorkshire":8988,"Ġhes":8989,"Ġceased":8990,"Ġlords":8991,"Ġralph":8992,"idal":8993,"Ġapoll":8994,"Ġassembled":8995,"Ġimagery":8996,"Ġcraig":8997,"Ġspaces":8998,"Ġibn":8999,"Ġtribe":9000,"itch":9001,"Ġspy":9002,"Ġtexts":9003,"Ġquestioned":9004,"Ġsongwriter":9005,"Ġjama":9006,"ellation":9007,"Ġrio":9008,"Ġstrange":9009,"Ġhyper":9010,"Ã°":9011,"Ġdecay":9012,"Ġgender":9013,"Ġhistorically":9014,"gle":9015,"Ġsmoke":9016,"Ġmasters":9017,"Ġdrummer":9018,"Ġrevised":9019,"Ġcommenting":9020,"Ġimpression":9021,"Ġinfrast":9022,"Ġunderwent":9023,"cribed":9024,"Ġcable":9025,"Ġhast":9026,"Ġconce":9027,"Ġenforce":9028,"Ã©s":9029,"owski":9030,"Ġreflect":9031,"Ġdors":9032,"Ġvirus":9033,"Ġjerry":9034,"Ġelig":9035,"Ġstops":9036,"Ġchristianity":9037,"Ġcomponents":9038,"imp":9039,"Ġdestroying":9040,"Ġmillennium":9041,"iary":9042,"Ġreward":9043,"Ġreorgan":9044,"ayan":9045,"Ġserge":9046,"Ġreduction":9047,"Ġreducing":9048,"Ġchoir":9049,"Ġcomponent":9050,"oviÄĩ":9051,"Ġreplied":9052,"Ġdevices":9053,"Ġunclear":9054,"Ġstamp":9055,"Ġ1899":9056,"Ġduration":9057,"Ġsurve":9058,"rh":9059,"Ġnice":9060,"Ġruler":9061,"Ġfulf":9062,"onian":9063,"unc":9064,"hammad":9065,"Ġqueensland":9066,"Ġtrium":9067,"Ġapproaches":9068,"Ġcollins":9069,"Ġconsistent":9070,"ologies":9071,"atra":9072,"Ġmarge":9073,"Ġidentical":9074,"Ġreveal":9075,"Ġmarines":9076,"Ġmultiplayer":9077,"Ġandre":9078,"Ġturnp":9079,"Ġbuffalo":9080,"pler":9081,"Ġambassador":9082,"rawn":9083,"Ġsamples":9084,"Ġcole":9085,"Ġcorrid":9086,"Ġpatients":9087,"Ġgarn":9088,"Ġhowe":9089,"Ġlloyd":9090,"Ġgaming":9091,"Ġfinland":9092,"Ġhumor":9093,"Ġfrequency":9094,"Ġproposals":9095,"Ġrena":9096,"Ġpartis":9097,"Ġrequirements":9098,"Ġarrives":9099,"Ġtraded":9100,"Ġsurrendered":9101,"Ġsings":9102,"Ġdak":9103,"Ġ108":9104,"Ġintervention":9105,"oting":9106,"Ġspoken":9107,"Ġlifetime":9108,"Ġchess":9109,"Ġreed":9110,"Ġfier":9111,"Ġconflic":9112,"Ġbub":9113,"ensed":9114,"Ġmond":9115,"atever":9116,"Ġnorfolk":9117,"Ġclimb":9118,"Ġplatforms":9119,"Ġconceived":9120,"Ġunw":9121,"Ġturkey":9122,"Ġhawaii":9123,"itary":9124,"Ġplaza":9125,"Ġwinners":9126,"Ġwhatever":9127,"Ġresearchers":9128,"Ġwii":9129,"Ġsprings":9130,"Ġrejo":9131,"Ġdistant":9132,"Ġ169":9133,"Ġromance":9134,"Ġdonald":9135,"Ġburton":9136,"Ġbanned":9137,"ricts":9138,"Ġasc":9139,"place":9140,"Ġrepresentation":9141,"Ġexclusively":9142,"rates":9143,"Ġpractical":9144,"Ġrobin":9145,"Ġnicholas":9146,"Ġsuddenly":9147,"cott":9148,"Ġbench":9149,"Ġconnections":9150,"Ġtape":9151,"Ġchore":9152,"Ġbelgian":9153,"Ġcelebration":9154,"Ġcrimes":9155,"Ġwarriors":9156,"Ġcommanders":9157,"uras":9158,"Ġstyl":9159,"Ġ1850":9160,"Ġsubm":9161,"Ġfaces":9162,"Ġburned":9163,"gom":9164,"run":9165,"Ġweigh":9166,"Ġfinance":9167,"Ġcollections":9168,"Ġcontinuous":9169,"Ġrebels":9170,"Ġbennett":9171,"illes":9172,"Ġresur":9173,"ibilities":9174,"Ġvaried":9175,"Ġcatherine":9176,"Ġdavies":9177,"itarian":9178,"Ġvincent":9179,"Ġdistricts":9180,"Ġlighting":9181,"Ġcompetitive":9182,"Ġpraising":9183,"dles":9184,"phal":9185,"Ġmansion":9186,"Ġflames":9187,"nda":9188,"Ġinvent":9189,"Ġpod":9190,"Ġconfidence":9191,"Ġshoulder":9192,"Ġdarwin":9193,"Ġreactions":9194,"Ġthorough":9195,"gam":9196,"Ġbast":9197,"Ġspeaker":9198,"Ġguild":9199,"Ġdispers":9200,"Ġprogressive":9201,"Ġpon":9202,"ista":9203,"Ġmanif":9204,"Ġlux":9205,"Ġsample":9206,"Ġabuse":9207,"Ġcamps":9208,"Ġreviewed":9209,"Ġsignificance":9210,"Ġlauren":9211,"icy":9212,"Ġadvised":9213,"Ġprix":9214,"Ġtaxes":9215,"iciency":9216,"nell":9217,"Ġprest":9218,"Ġconsiders":9219,"Ġscientology":9220,"Ġpas":9221,"Ġub":9222,"hs":9223,"ethel":9224,"Ġcompr":9225,"Ġsailing":9226,"Ġboilers":9227,"Ġworn":9228,"Ġintersects":9229,"Ġtranslated":9230,"Ġhughes":9231,"Ġshares":9232,"Ġ163":9233,"Ġvulnerable":9234,"Ġfern":9235,"Ġproceeded":9236,"ugu":9237,"haw":9238,"ded":9239,"Ġdischar":9240,"Ġgirlfriend":9241,"born":9242,"oly":9243,"wing":9244,"acles":9245,"Ġshep":9246,"Ġpresidency":9247,"Ġharvard":9248,"Ġeleph":9249,"Ġjudges":9250,"terly":9251,"Ġtrig":9252,"ffield":9253,"Ġfilmm":9254,"Ġscores":9255,"Ġwitch":9256,"Ġunderstood":9257,"zh":9258,"Ġhandled":9259,"Ġ1897":9260,"Ġopportunities":9261,"point":9262,"Ġministers":9263,"Ġmedals":9264,"Ġpresentation":9265,"ellor":9266,"Ġpall":9267,"Ġpairs":9268,"Ġcompanion":9269,"Ġgeoff":9270,"Ġmarshal":9271,"Ġmanufacturing":9272,"Ġnumbered":9273,"Ġbombardment":9274,"Ġcrops":9275,"Ġinfrastructure":9276,"Ġrivalry":9277,"Ġenthusi":9278,"Ġphrase":9279,"Ġds":9280,"Ġracial":9281,"Ġfairly":9282,"Ġoslo":9283,"Ġbind":9284,"Ġswiss":9285,"Ġobservation":9286,"Ġsaxon":9287,"Ġflows":9288,"Ġnautical":9289,"Ġ106":9290,"Ġpetition":9291,"Ġgif":9292,"Ġrocky":9293,"Ġindonesia":9294,"Ġfoster":9295,"itely":9296,"Ġrespective":9297,"Ġkate":9298,"Ġvital":9299,"uating":9300,"Ġexceed":9301,"Ġdescent":9302,"Ġexplicit":9303,"Ġmoscow":9304,"Ġcleared":9305,"Ġcyclones":9306,"Ġgrossing":9307,"Ġpeng":9308,"Ġtransported":9309,"Ġjtw":9310,"Ġseal":9311,"Ġproof":9312,"Ġintermedi":9313,"Ġgrap":9314,"Ġcommissioner":9315,"Ġjtwc":9316,"igs":9317,"Ġassum":9318,"Ġtraditions":9319,"Ã¶n":9320,"Ġknights":9321,"Ġextending":9322,"Ġcameron":9323,"Ġrehears":9324,"Ġcards":9325,"encing":9326,"Ġexile":9327,"Ġspong":9328,"Ġoutl":9329,"Ġvl":9330,"Ġunlik":9331,"Ġprotests":9332,"sts":9333,"strong":9334,"Ġteles":9335,"Ġreinforced":9336,"Ġhide":9337,"roph":9338,"Ġ167":9339,"Ġmim":9340,"Ġmystery":9341,"Ġpittsburgh":9342,"Ġ154":9343,"vant":9344,"Ġdrain":9345,"Ġstructural":9346,"Ġtoured":9347,"Ġelite":9348,"Ġnonethel":9349,"Ġcuts":9350,"Ġtonnes":9351,"Ġnonetheless":9352,"Ġfee":9353,"Ġcommenced":9354,"Ġdrink":9355,"Ġcharacteristic":9356,"Ġrandom":9357,"Ġtoler":9358,"Ġexists":9359,"Ġtroop":9360,"Ġtrend":9361,"Ġdecorated":9362,"Ġparticipation":9363,"erce":9364,"Ġrivals":9365,"Ġterry":9366,"Ã«":9367,"Ġtiger":9368,"Ġrelatives":9369,"Ġmaintaining":9370,"Ġkane":9371,"Ġsteep":9372,"Ġrestore":9373,"Ġgift":9374,"Ġalaska":9375,"Ġtested":9376,"Ġnavigation":9377,"Ġfert":9378,"Ġnur":9379,"Ġdri":9380,"Ġdaw":9381,"berry":9382,"Ġcolum":9383,"Ġwithdrawn":9384,"Ġcanyon":9385,"Ġvictim":9386,"Ġwallace":9387,"Ġanswer":9388,"Ġantonio":9389,"hum":9390,"Ġtheories":9391,"Ġdil":9392,"Ġrelocated":9393,"Ġbin":9394,"inge":9395,"oa":9396,"Ġclan":9397,"Ġabsent":9398,"Ġbert":9399,"Ġskill":9400,"Ġreforms":9401,"Ġpreparing":9402,"Ġturnpike":9403,"Ġmp":9404,"Ġgest":9405,"Ġwarnings":9406,"Ġsenators":9407,"cules":9408,"Ġguerr":9409,"Ġeating":9410,"Ġairline":9411,"Ġcel":9412,"Ġeis":9413,"Ġhonours":9414,"Ġbib":9415,"Ġpse":9416,"Ġcosm":9417,"Ġinquir":9418,"Ġtoxic":9419,"Ġhollow":9420,"Ġmicrosoft":9421,"Ġdum":9422,"ashes":9423,"Ġstef":9424,"Ġmonthly":9425,"Ġsyria":9426,"Ġwritings":9427,"minster":9428,"Ġnord":9429,"cester":9430,"Ġrichmond":9431,"oria":9432,"hers":9433,"Ġdisplaced":9434,"itious":9435,"Ġupset":9436,"Ġrepublicans":9437,"world":9438,"Ġsculpture":9439,"Ġempty":9440,"Ġunexpected":9441,"illo":9442,"Ġcoaches":9443,"anche":9444,"Ġarchaeological":9445,"Ġclothes":9446,"Ġcarries":9447,"Ġmanip":9448,"Ġinterviews":9449,"Ġmagnitude":9450,"Ġamazing":9451,"ario":9452,"Ġinteraction":9453,"Ġheavyweight":9454,"Ġmixing":9455,"Ġfitz":9456,"Ġblo":9457,"Ġconcerning":9458,"Ġsheffield":9459,"Ġsusan":9460,"Ġansw":9461,"Ġlarry":9462,"Ġdying":9463,"aha":9464,"Ġtelegraph":9465,"Ġvariations":9466,"yan":9467,"rooms":9468,"Ġsega":9469,"Ġlightning":9470,"Ġmythology":9471,"Ġmalaysia":9472,"Ġww":9473,"Ġvit":9474,"Ġcourses":9475,"ashi":9476,"Ġinterpreted":9477,"Ġdreadn":9478,"fc":9479,"isive":9480,"avia":9481,"Ġnev":9482,"Ġbeck":9483,"Ġdisplays":9484,"Ġhurricanes":9485,"Ġvilla":9486,"Ġlearns":9487,"Ġchambers":9488,"Ġisraeli":9489,"Ġmeteorological":9490,"Ġdallas":9491,"aired":9492,"hal":9493,"Ġ1895":9494,"Ġcommercially":9495,"Ġjefferson":9496,"Ġidol":9497,"Ġmilk":9498,"Ġjohnston":9499,"Ġconfusion":9500,"Ġarguing":9501,"Ġadvertis":9502,"aman":9503,"Ġaft":9504,"Ġdesper":9505,"Ġpseud":9506,"Ġgolf":9507,"olds":9508,"Ġdemo":9509,"Ġparkway":9510,"Ġessentially":9511,"Ġdoors":9512,"Ġblocked":9513,"Ġflex":9514,"Ġpock":9515,"Ġtooth":9516,"Ġemmy":9517,"Ġsalary":9518,"Ġsegments":9519,"Ġowen":9520,"Ġdinner":9521,"Ġvolcanic":9522,"Ġjess":9523,"Ġvariation":9524,"Ġloud":9525,"Ġcorporate":9526,"Ġclarke":9527,"Ġairing":9528,"Ġconstitu":9529,"Ġfbi":9530,"adesh":9531,"Ġuncon":9532,"Ġaustin":9533,"Ġheroes":9534,"Ġregiments":9535,"Ġ171":9536,"Ġfaculty":9537,"Ġbryan":9538,"Ġlover":9539,"Ġshifted":9540,"Ġcolors":9541,"Ġmyc":9542,"Ġgrandfather":9543,"Ġcyrus":9544,"beat":9545,"Ġcostume":9546,"Ġaccurate":9547,"Ġreleg":9548,"Ġinternation":9549,"pot":9550,"Ġcircular":9551,"Ġunlikely":9552,"Ġacre":9553,"Ġeditions":9554,"Ġswing":9555,"Ġopposing":9556,"Ġshallow":9557,"Ġreh":9558,"Ġduch":9559,"oda":9560,"Ġcolours":9561,"Ġstall":9562,"eted":9563,"Ġneil":9564,"Ġsuspic":9565,"Ġemotion":9566,"Ġparsons":9567,"Ġpent":9568,"Ġsponsored":9569,"prised":9570,"Ġbreaks":9571,"Ġcorp":9572,"Ġvalid":9573,"Ġboulev":9574,"Ã¥":9575,"Ġangry":9576,"nan":9577,"Ġcattle":9578,"abe":9579,"Ġ102":9580,"Ã¢":9581,"Ġarmstrong":9582,"leans":9583,"Ġ121":9584,"Ġlasting":9585,"Ġdancers":9586,"Ġcommerce":9587,"keeper":9588,"Ġrebel":9589,"Ġwished":9590,"Ġdanish":9591,"Ġchelsea":9592,"Ġties":9593,"Ġgon":9594,"Ġworlds":9595,"Ġxx":9596,"Ġaber":9597,"icing":9598,"Ġsurprised":9599,"Ġbrazilian":9600,"lete":9601,"Ġbible":9602,"agi":9603,"Ġembr":9604,"Ġquebec":9605,"atched":9606,"Ġgru":9607,"Ġmckin":9608,"rot":9609,"onium":9610,"Ġmacar":9611,"Ġprinciple":9612,"Ġdiverse":9613,"Ġtickets":9614,"Ġdiplomatic":9615,"eness":9616,"ussion":9617,"Ġsnake":9618,"Ġdeeply":9619,"Ġsustain":9620,"Ġrecreation":9621,"hell":9622,"Ġnewton":9623,"Ġkaiser":9624,"Ġwart":9625,"Ġexamination":9626,"Ġtension":9627,"Ġcav":9628,"isons":9629,"asters":9630,"Ġgamb":9631,"Ġhammer":9632,"Ġefficient":9633,"Ġcott":9634,"Ġadvancing":9635,"Ġpitcher":9636,"Ġferr":9637,"Ġhd":9638,"Ġnorthwestern":9639,"Ġprosper":9640,"Ġinclusion":9641,"Ġstim":9642,"Ġcivilians":9643,"Ġcaes":9644,"Ġnose":9645,"Ġnaming":9646,"Ġopens":9647,"Ġdrafted":9648,"Ġcrazy":9649,"Ġdisturbance":9650,"Ġliner":9651,"Ġrevel":9652,"Ġbiological":9653,"Ġparachute":9654,"Ġpursuit":9655,"Ġkilome":9656,"Ġconstantin":9657,"Ġtir":9658,"Ġbeating":9659,"Ġblacks":9660,"Ġtravelling":9661,"Ġine":9662,"ortion":9663,"Ġsheep":9664,"Ġemer":9665,"Ġrebuild":9666,"Ġplum":9667,"Ġfi":9668,"Ġreich":9669,"Ġhamlet":9670,"wright":9671,"arsh":9672,"Ġhoping":9673,"Ġdreams":9674,"Ġwilhelm":9675,"Ġstolen":9676,"Ġdioc":9677,"Ġconcurrent":9678,"Ġdivorce":9679,"Ġlag":9680,"Ġorleans":9681,"osexual":9682,"Ġhappen":9683,"Ġinfer":9684,"Ġmg":9685,"Ġwhale":9686,"ules":9687,"ĠâĢ²":9688,"Ġratio":9689,"Ġsporting":9690,"enon":9691,"Ġmild":9692,"Ġalg":9693,"Ġorient":9694,"Ġdirections":9695,"Ġpromise":9696,"Ġstreak":9697,"Ġprocesses":9698,"Ġnavig":9699,"Ġinsurance":9700,"abilities":9701,"Ġutah":9702,"Ġsettlements":9703,"Ġsubstitute":9704,"Ġverte":9705,"castle":9706,"Ġparad":9707,"Ġ158":9708,"Ġ1861":9709,"nor":9710,"Ġpotentially":9711,"uri":9712,"landers":9713,"Ġlocally":9714,"Ġharold":9715,"Ġvillain":9716,"Ġquarters":9717,"Ġchallenges":9718,"Ġmonastery":9719,"lane":9720,"Ġdense":9721,"Ġchile":9722,"asha":9723,"Ġfifa":9724,"inis":9725,"itted":9726,"Ġ1889":9727,"Ġserbian":9728,"Ġtaste":9729,"itate":9730,"Ġrect":9731,"iko":9732,"Ġbeaten":9733,"Ġequally":9734,"Ġfunded":9735,"rac":9736,"Ġyout":9737,"Ġcharted":9738,"Ġsentence":9739,"Ġcolumns":9740,"iqu":9741,"Ġpump":9742,"Ġrocket":9743,"Ġproportion":9744,"Ġconspiracy":9745,"Ġlift":9746,"Ġevident":9747,"Ġfollowers":9748,"Ġbenefits":9749,"Ġrookie":9750,"Ġrains":9751,"Ġafford":9752,"Ġmanage":9753,"Ġcox":9754,"Ġdelta":9755,"Ġknows":9756,"Ġaltitude":9757,"Ġtet":9758,"Ġbore":9759,"Ġenzy":9760,"Ġcanon":9761,"Ġkeys":9762,"Ġexplaining":9763,"Ġscandal":9764,"rin":9765,"Ġoffshore":9766,"Ġ161":9767,"Ġparticipants":9768,"Ġmuhammad":9769,"Ġmerged":9770,"chi":9771,"Ġ1894":9772,"rehens":9773,"Ġperc":9774,"Ġdisb":9775,"Ġrecept":9776,"Ġadminister":9777,"Ġrunner":9778,"Ġextinct":9779,"Ġerror":9780,"Ġtill":9781,"Ġcbs":9782,"Ġsemin":9783,"Ġabu":9784,"Ġrequiring":9785,"Ġ1000":9786,"Ġoptions":9787,"Ġstuart":9788,"bri":9789,"Ġcaps":9790,"Ġboulevard":9791,"reated":9792,"Ġjurisdiction":9793,"vised":9794,"Ġnova":9795,"Ġ162":9796,"Ġkidn":9797,"Ġpersuaded":9798,"Ġconven":9799,"Ġmemoir":9800,"Ġconstantine":9801,"Ġ113":9802,"Ġveteran":9803,"Ġlud":9804,"Ġtyler":9805,"Ġoperates":9806,"Ġaa":9807,"Ġsimilarities":9808,"Ġrifle":9809,"Ġxii":9810,"Ġborrow":9811,"Ġwitnesses":9812,"Ġyoutube":9813,"Ġ1891":9814,"Ġjudicial":9815,"Ġimplemented":9816,"Ġpregnant":9817,"Ġdevoted":9818,"Ġcounterp":9819,"Ġfarmers":9820,"Ġreservoir":9821,"Ġwisc":9822,"Ġgaining":9823,"onsin":9824,"Ġeducated":9825,"Ġsocialist":9826,"Ġveterans":9827,"rov":9828,"ampton":9829,"Ġdivine":9830,"Ġparaly":9831,"Ġknee":9832,"Ġapollo":9833,"Ġhi":9834,"Ġvin":9835,"Ġblast":9836,"Ġaddressed":9837,"Ġprototype":9838,"Ġinitiative":9839,"cription":9840,"Ġtuck":9841,"onica":9842,"Ġstatements":9843,"Ġmcl":9844,"master":9845,"Ġreef":9846,"affe":9847,"Ġmassacre":9848,"Ġlinks":9849,"Ġvirtually":9850,"Ġbrooks":9851,"Ġindonesian":9852,"Ġaccommodate":9853,"Ġoz":9854,"Ġstrikes":9855,"Ġwildlife":9856,"Ġbent":9857,"Ġforever":9858,"Ġoriented":9859,"Ġcardiff":9860,"Ġdisorder":9861,"Ġtools":9862,"Ġpersona":9863,"Ġproteins":9864,"Ġoblig":9865,"Ġtent":9866,"aters":9867,"Ġfeared":9868,"Ġweakening":9869,"Ġcategories":9870,"Ġcomplained":9871,"Ġodd":9872,"vet":9873,"heric":9874,"Ġflav":9875,"Ġboundaries":9876,"Ġfavourite":9877,"Ġ156":9878,"cliff":9879,"Ġjoan":9880,"Ġ1892":9881,"piece":9882,"ocation":9883,"iah":9884,"Ġnickel":9885,"Ġamid":9886,"Ġnan":9887,"mented":9888,"Ġkeen":9889,"Ġ135":9890,"hill":9891,"Ġanarch":9892,"Ġknocked":9893,"boards":9894,"Ġchrom":9895,"Ġ1800":9896,"Ġpeas":9897,"Ġstudying":9898,"Ġtempo":9899,"Ġthreats":9900,"Ġtactical":9901,"Ġhipp":9902,"Ġhostile":9903,"Ġpanzer":9904,"Ġtide":9905,"Ġsox":9906,"Ġtrapped":9907,"pert":9908,"Ġwisconsin":9909,"Ġaar":9910,"Ġky":9911,"Ġ240":9912,"enos":9913,"Ġdealing":9914,"pine":9915,"Ġkyle":9916,"Ġextensively":9917,"osph":9918,"rific":9919,"Ġmarit":9920,"Ġhonorary":9921,"Ġmaps":9922,"Ġzh":9923,"Ġthrown":9924,"Ġmontgom":9925,"usalem":9926,"nels":9927,"Ġboyfriend":9928,"Ġdanny":9929,"Ġstretch":9930,"osaurs":9931,"izer":9932,"Ġsoap":9933,"Ġhenri":9934,"gow":9935,"gus":9936,"Ġpreserve":9937,"Ġmidnight":9938,"Ġembarked":9939,"Ġivan":9940,"Ġmyself":9941,"Ġgothic":9942,"Ġfires":9943,"Ġrider":9944,"Ġislamic":9945,"Ġjohann":9946,"ometric":9947,"Ġsized":9948,"ĠâģĦ":9949,"Ġgalaxy":9950,"Ġgospel":9951,"Ġconflicts":9952,"Ġsentenced":9953,"Ġtune":9954,"Ġhighlighted":9955,"Ġrey":9956,"Ġ153":9957,"Ġhonors":9958,"Ġjerusalem":9959,"Ġost":9960,"Ġtyr":9961,"ashing":9962,"Ġschum":9963,"Ġjustin":9964,"Ġcitizen":9965,"Ġtribune":9966,"Ġusage":9967,"Ġtasked":9968,"Ġteammate":9969,"Ġnights":9970,"backs":9971,"Ġwarships":9972,"Ġtigers":9973,"Ġtourism":9974,"Ġmacarthur":9975,"Ġobvious":9976,"rically":9977,"Ġresolved":9978,"Ġdocumented":9979,"Ġvelocity":9980,"Ġboeing":9981,"othy":9982,"ĠâĤ¹":9983,"Ġremote":9984,"Ġtrio":9985,"Ġevacuation":9986,"eto":9987,"Ġpoliticians":9988,"Ġlacking":9989,"Ġmachin":9990,"Ġhybrid":9991,"Ġpartners":9992,"auc":9993,"Ġprovisions":9994,"Ġfus":9995,"Ġabroad":9996,"Ġ1888":9997,"hop":9998,"Ġchad":9999,"Ġsaturn":10000,"Ġreass":10001,"Ġintent":10002,"Ġstein":10003,"Ġordinary":10004,"Ġrenewed":10005,"Ġrushing":10006,"Ġsurp":10007,"Ġdiscontin":10008,"Ġregardless":10009,"ÃŃn":10010,"Ġrecruited":10011,"Ġlamb":10012,"Ġrescued":10013,"Ġscholarship":10014,"Ġassert":10015,"Ġbarnes":10016,"Ġdefenders":10017,"fly":10018,"Ġcolored":10019,"Ġexplore":10020,"Ġdarkness":10021,"enburg":10022,"istent":10023,"Ġuser":10024,"Ġorthodox":10025,"zing":10026,"Ġdimin":10027,"Ġencounters":10028,"Ġbeer":10029,"ackdown":10030,"Ġtelephone":10031,"Ġguests":10032,"Ġhoused":10033,"Ġescorted":10034,"Ġamphib":10035,"lington":10036,"Ġbeliefs":10037,"ju":10038,"Ġrogers":10039,"Ġbattlefield":10040,"Ġauthorized":10041,"Ġpp":10042,"aments":10043,"Ġenabled":10044,"Ġcompetitions":10045,"Ġconsiderably":10046,"roid":10047,"Ġreceives":10048,"Ġhelps":10049,"Ġisn":10050,"Ġnoise":10051,"Ġ1885":10052,"Ġseparation":10053,"Ġcats":10054,"Ġgau":10055,"Ġscots":10056,"Ġpresents":10057,"Ġbrigadier":10058,"ulsion":10059,"urst":10060,"uches":10061,"Ġpursued":10062,"Ġelaborate":10063,"Ġmontgomery":10064,"Ġinhib":10065,"Ġsean":10066,"Ġcrashed":10067,"Ġsuspension":10068,"Ġimprisoned":10069,"Ġspo":10070,"Ġashore":10071,"Ġpyram":10072,"Ġconj":10073,"Ġtrunk":10074,"Ġprayer":10075,"Ġobserver":10076,"aved":10077,"Ġconfident":10078,"Ġhurt":10079,"Ġfrontier":10080,"Ġhumanity":10081,"Ġgarnered":10082,"Ġsinking":10083,"Ġware":10084,"Ġspeculation":10085,"Ġhandle":10086,"Ġinvolves":10087,"Ġtherap":10088,"olly":10089,"Ġjaw":10090,"Ġmonitor":10091,"Ġchristians":10092,"Ġpromoting":10093,"Ġpierre":10094,"Ġbills":10095,"Ġpalm":10096,"Ġtrailer":10097,"eg":10098,"Ġinning":10099,"Ġunve":10100,"ocene":10101,"Ġdepicts":10102,"Ġdat":10103,"Ġchop":10104,"oded":10105,"Ġhandling":10106,"amas":10107,"Ġbaltic":10108,"ĠÎ¼m":10109,"Ġuprising":10110,"Ġ978":10111,"far":10112,"anim":10113,"Ġkrist":10114,"ÃŃa":10115,"Ġpupp":10116,"uters":10117,"Ġbatteries":10118,"erts":10119,"akh":10120,"Ġzoo":10121,"Ġbrilliant":10122,"uz":10123,"Ġfru":10124,"Ġbackst":10125,"Ġbatted":10126,"Ġconfirm":10127,"Ġoccasional":10128,"Ġtriumph":10129,"Ġdevelopments":10130,"Ġhopes":10131,"Ġflour":10132,"Ġregulations":10133,"Ġsanct":10134,"Ġarcade":10135,"ÉĻ":10136,"Ġlaps":10137,"oca":10138,"Ġloose":10139,"Ġcapturing":10140,"Ġremembered":10141,"Ġpirates":10142,"Ġmagnetic":10143,"Ġiceland":10144,"ovak":10145,"Ġ112":10146,"Ġurged":10147,"Ġace":10148,"Ġbeth":10149,"Ġleop":10150,"Ġsuspected":10151,"Ġbreeds":10152,"Ġthames":10153,"Ġeventual":10154,"Ġorganisms":10155,"Ġmixture":10156,"Ġthunderstorm":10157,"Ġglas":10158,"Ġleonard":10159,"Ġinternationally":10160,"Ġmarl":10161,"Ġbarbara":10162,"Ġediting":10163,"Ġtint":10164,"Ġ145":10165,"Ġcompositions":10166,"Ġimpressive":10167,"Ġmetric":10168,"Ġlicense":10169,"sch":10170,"Ġdozen":10171,"Ġensemb":10172,"Ġowing":10173,"Ġaest":10174,"Ġbooth":10175,"Ġtissue":10176,"Ġcs":10177,"enberg":10178,"kee":10179,"Ġ1865":10180,"Ġathens":10181,"Ġtruly":10182,"Ġdug":10183,"Ġrailways":10184,"Ġcastles":10185,"Ġassociate":10186,"Ġcardinals":10187,"Ġsherman":10188,"Ġhorizont":10189,"Ġsap":10190,"Ġlions":10191,"Ġphoto":10192,"Ġchron":10193,"Ġrelation":10194,"Ġreagan":10195,"Ġromney":10196,"Ġlyrical":10197,"Ġmechanism":10198,"Ġvolunteer":10199,"Ġrendered":10200,"Ġdecreased":10201,"Ġthereby":10202,"Ġ159":10203,"Ġ117":10204,"Ġnato":10205,"Ġdisappointed":10206,"Î±":10207,"Ġpolitician":10208,"Ġchancellor":10209,"Ġnancy":10210,"zed":10211,"Ġburg":10212,"Ġintellectual":10213,"Ġwiz":10214,"Ġclip":10215,"Ġbund":10216,"Ġtracked":10217,"Ġmccar":10218,"Ġchamberlain":10219,"Ġrestrictions":10220,"rang":10221,"Å¾":10222,"acing":10223,"Ġunn":10224,"Ġwarned":10225,"Ġmarking":10226,"Ġorganic":10227,"Ġconsumption":10228,"Ġinherited":10229,"Ġshah":10230,"Ġpositively":10231,"Ġcounsel":10232,"Ġupdated":10233,"Ġbee":10234,"Ġenh":10235,"Ġmutual":10236,"Ġcustomers":10237,"arest":10238,"ublin":10239,"Ġanticipated":10240,"aco":10241,"agh":10242,"Ġballs":10243,"Ġernest":10244,"Ġhelicopter":10245,"Ġupcoming":10246,"Ġspokes":10247,"Ġswitch":10248,"isition":10249,"Ġdirecting":10250,"Ġinhab":10251,"Ġapply":10252,"oys":10253,"Ġaccidentally":10254,"ando":10255,"rible":10256,"Ġcontracts":10257,"Ġmammals":10258,"rage":10259,"Ġcum":10260,"cht":10261,"Ġkos":10262,"Ġgenu":10263,"Ġinvaded":10264,"mel":10265,"Ġmachines":10266,"udi":10267,"Ġsouthwestern":10268,"Ġpatient":10269,"Ġ114":10270,"Ġ118":10271,"Ġvolt":10272,"Ġclosure":10273,"Ġ450":10274,"Ġdependent":10275,"Ġconversation":10276,"Ġdetective":10277,"Ġportugal":10278,"Ġheb":10279,"unning":10280,"Ġantib":10281,"Ġdelegates":10282,"Ġconstantinople":10283,"Î¿":10284,"Ġhaven":10285,"Ġnewcastle":10286,"Ġbreast":10287,"Ġassessment":10288,"ĠÄĳ":10289,"enter":10290,"Ġauto":10291,"Ġinaugural":10292,"Ġlighter":10293,"ended":10294,"Ġlodge":10295,"idia":10296,"Ġroot":10297,"Ã©n":10298,"Ġreader":10299,"Ġfossils":10300,"Ġmcg":10301,"Ġpete":10302,"Ġbradley":10303,"Ġcharlotte":10304,"Ġmak":10305,"Ġgrid":10306,"Ġtitan":10307,"Ġdebris":10308,"Ġcorridor":10309,"Ġvoters":10310,"Ġlawsuit":10311,"gue":10312,"Ġdud":10313,"Ġrally":10314,"Ġeddie":10315,"ĠjosÃ©":10316,"nery":10317,"Ġconstruct":10318,"restrial":10319,"Ġfundamental":10320,"Ġborders":10321,"Ġcinc":10322,"Ġnickname":10323,"Ġplates":10324,"annon":10325,"Ġgibral":10326,"Ġbesides":10327,"colm":10328,"Ġnephew":10329,"aders":10330,"Ġunre":10331,"Ġtram":10332,"Ġ1864":10333,"Ġaccessible":10334,"Ġgibraltar":10335,"Ġeasier":10336,"Ġmerced":10337,"Ġsweep":10338,"phan":10339,"Ġantar":10340,"Ġcornwall":10341,"Ġpsychiat":10342,"Ġcomplicated":10343,"Ġinfection":10344,"Ġboost":10345,"Ġmemories":10346,"Ġoccurring":10347,"aire":10348,"Ġvick":10349,"Ġspit":10350,"Ġpeop":10351,"zo":10352,"áº":10353,"Ġtib":10354,"Ġsheriff":10355,"Ġshaft":10356,"Ġsharing":10357,"anton":10358,"ovic":10359,"Ġprelimin":10360,"Ġmetre":10361,"Ġversus":10362,"Ġchester":10363,"Ġpand":10364,"Ġagu":10365,"took":10366,"Ġmolecular":10367,"view":10368,"ilda":10369,"Ġheights":10370,"pat":10371,"Ġremar":10372,"Ġlesb":10373,"Ġsupports":10374,"Ġparticles":10375,"ught":10376,"Ġfeathers":10377,"Ġkaz":10378,"Ġslav":10379,"Ġxi":10380,"neys":10381,"Ġmalcolm":10382,"Ġavoided":10383,"wald":10384,"Ġflags":10385,"Ġster":10386,"Ġaj":10387,"Ġcurve":10388,"Ġprogressed":10389,"Ġkenneth":10390,"Ġprotestant":10391,"Ġmurdered":10392,"Ġthrowing":10393,"Ġarmenian":10394,"Ġcena":10395,"Ġupl":10396,"Ġrecruit":10397,"Ġeastward":10398,"edia":10399,"Ġleices":10400,"Ġsyl":10401,"Ġdoctrine":10402,"Ġwartime":10403,"Ġpom":10404,"Ġib":10405,"Ġnortheastern":10406,"Ġshelter":10407,"Ġconsequence":10408,"Ġicon":10409,"Ġautobiography":10410,"Ġoscar":10411,"lu":10412,"Ġimposed":10413,"Ġinspect":10414,"Ġintermediate":10415,"var":10416,"Ġwrap":10417,"Ġunt":10418,"Ġpunishment":10419,"Ġlung":10420,"Ġintegrated":10421,"Ġtier":10422,"Ġmv":10423,"icon":10424,"Ġwalt":10425,"Ġunh":10426,"Ġproduces":10427,"Ġreporting":10428,"Ġconvicted":10429,"Ġisaac":10430,"Ġãĥ":10431,"Ġbris":10432,"Ġtourist":10433,"Ġkilog":10434,"Ġexhibit":10435,"Ġbotan":10436,"Ġdepicting":10437,"inated":10438,"Ġnoticed":10439,"Ġmicha":10440,"Ġpedro":10441,"changed":10442,"Ġmounts":10443,"roe":10444,"ether":10445,"assy":10446,"Ġcrane":10447,"Ġexploration":10448,"Ġduck":10449,"Ġthreatening":10450,"Ġthriller":10451,"ht":10452,"Ġmonit":10453,"Ġclouds":10454,"enna":10455,"Ġresid":10456,"Ġtouchdowns":10457,"Ġdublin":10458,"ielder":10459,"gett":10460,"heimer":10461,"Ġ131":10462,"Ġviewing":10463,"Ġ1862":10464,"Ġphilosopher":10465,"Ġpeoples":10466,"Ġverses":10467,"Ġposts":10468,"Ġvicinity":10469,"Ġyes":10470,"ellar":10471,"oba":10472,"Ġannex":10473,"Ġseb":10474,"Ġholes":10475,"Ġmathematics":10476,"Ġhier":10477,"acht":10478,"Ġattraction":10479,"Ġsaints":10480,"Ġfib":10481,"Ġbailey":10482,"Ġsri":10483,"Ġlinear":10484,"flow":10485,"hall":10486,"tra":10487,"Ġcage":10488,"Ġcamb":10489,"Ġmelod":10490,"Ġundertaken":10491,"ĠÃ©":10492,"Ġdent":10493,"Ġsheet":10494,"Ġbrut":10495,"Ġreleasing":10496,"Ġcourage":10497,"Ġremoving":10498,"Ġshin":10499,"Ġtennis":10500,"Ġsulf":10501,"Ġheath":10502,"Ġhed":10503,"Ġ107":10504,"Ġdiversity":10505,"Ġjournalists":10506,"Ġignored":10507,"Ġwarrior":10508,"zes":10509,"Ġmk":10510,"Ġblame":10511,"Ġcream":10512,"Ġconstantly":10513,"Ġdecrease":10514,"Ġå":10515,"orf":10516,"Ġcoaching":10517,"Ġgabri":10518,"Ġsear":10519,"Ġexecut":10520,"bie":10521,"ho":10522,"encer":10523,"Ġclergy":10524,"Ġapolog":10525,"Ġentert":10526,"Ġmartial":10527,"Ġlan":10528,"Ġtommy":10529,"Ġpredominantly":10530,"fast":10531,"Ġfract":10532,"Ġrealistic":10533,"Ġfacil":10534,"Ġexpanding":10535,"gÃ©":10536,"Ġcincinn":10537,"cca":10538,"Ġsubd":10539,"aneous":10540,"Ġfare":10541,"Ġspell":10542,"irect":10543,"Ġremind":10544,"Ġanthem":10545,"Ġeighteen":10546,"Ġaux":10547,"ulk":10548,"Ġsacrifice":10549,"held":10550,"pez":10551,"Ġluft":10552,"Ġns":10553,"Ġtwitter":10554,"Ġspringfield":10555,"Ġ157":10556,"Ġfortune":10557,"Ġcongressional":10558,"Ġserbia":10559,"Ġmaritime":10560,"gent":10561,"aping":10562,"Ġups":10563,"Ġalberta":10564,"Ġ220":10565,"Ġkru":10566,"Ġcontacted":10567,"Ġfocuses":10568,"Ġdolph":10569,"Ġparking":10570,"Ġdisappeared":10571,"Ġenorm":10572,"Ġgenerals":10573,"Ġtwentieth":10574,"Ġrelieved":10575,"Ġarose":10576,"Ġincred":10577,"Ġbarrier":10578,"Ġgrows":10579,"Ġindependently":10580,"Ġbulgar":10581,"Ġnes":10582,"Ġisle":10583,"Ġpleased":10584,"Ġpropaganda":10585,"Ġdoctors":10586,"Ġ1840":10587,"Ġteachers":10588,"found":10589,"Ġaur":10590,"umped":10591,"Ġmeasuring":10592,"Ġtaiwan":10593,"Ġbil":10594,"Ġcentered":10595,"Ġchurchill":10596,"Ġcreature":10597,"Ġexplanation":10598,"olia":10599,"Ġcouldn":10600,"Ġsentiment":10601,"Ġstability":10602,"Ġencom":10603,"Ġsacred":10604,"Ġasserted":10605,"Ġmask":10606,"Ġmuslims":10607,"Ġpreliminary":10608,"Ġhack":10609,"Ġmetac":10610,"Ġestates":10611,"Ġnept":10612,"Ġcanceled":10613,"Ġfriedrich":10614,"adal":10615,"Ġcompiled":10616,"Ġmalta":10617,"Ġoxid":10618,"Ġtren":10619,"Ġjake":10620,"Ġroster":10621,"Ġyugoslavia":10622,"Ġparade":10623,"Ġspeeds":10624,"hanced":10625,"Ġinducted":10626,"ais":10627,"ener":10628,"Ġmonsters":10629,"Ġsituations":10630,"Ġcelebrate":10631,"Ġcollaborated":10632,"Ġsubtropical":10633,"Ġshiva":10634,"Ġbutt":10635,"Ġenhanced":10636,"Ġroadway":10637,"Ġpaying":10638,"Ġabsorbed":10639,"Ġlocomotives":10640,"iture":10641,"Ġincidents":10642,"Ġbrah":10643,"Ġwagner":10644,"ws":10645,"Ġtol":10646,"Ġcontinent":10647,"Ġscientist":10648,"Ġlayers":10649,"Ġsaving":10650,"Ġmaine":10651,"Ġgravity":10652,"Ġexterior":10653,"Ġreiss":10654,"ulum":10655,"Ġworse":10656,"Ġachiev":10657,"Ġcale":10658,"amine":10659,"Ġchuck":10660,"Ġplains":10661,"ective":10662,"Ġfocusing":10663,"Ġvarying":10664,"Ġaided":10665,"gans":10666,"Ġbullet":10667,"avan":10668,"ahl":10669,"Ġsubmarines":10670,"osion":10671,"Ġbetray":10672,"Ġgenres":10673,"Ġappeals":10674,"Ġpublicity":10675,"Ġcincinnati":10676,"Ġtum":10677,"Ġsut":10678,"Ġtob":10679,"icus":10680,"ocol":10681,"Ġnetworks":10682,"Ġmaced":10683,"Ġburke":10684,"Ġnormandy":10685,"Ġtargeted":10686,"Ġleo":10687,"Ġregist":10688,"Ġ126":10689,"Ġfortifications":10690,"Ġdiscussing":10691,"Ġritual":10692,"Ġolivia":10693,"Ġ132":10694,"Ġbrowns":10695,"Ġangelou":10696,"rels":10697,"Ġirreg":10698,"Ġafghanistan":10699,"iga":10700,"Ġbeta":10701,"Ġscouting":10702,"Ġirregular":10703,"Ġtensions":10704,"elin":10705,"Ġcreatures":10706,"Ġdislik":10707,"Ġatop":10708,"Ġinterc":10709,"Ġbars":10710,"asm":10711,"Ġleeds":10712,"Ġvegas":10713,"etta":10714,"Ġdropping":10715,"Ġdive":10716,"Ġtea":10717,"Ġmarched":10718,"Ġreminis":10719,"Ġpositioned":10720,"Ġfungus":10721,"lett":10722,"Ġmadison":10723,"Ġpreceding":10724,"Ġhir":10725,"Ġtough":10726,"Ġ119":10727,"Ġ1887":10728,"ritic":10729,"Ġcritically":10730,"Ġconfused":10731,"aughter":10732,"Ġsummon":10733,"Ġswept":10734,"Ġkitchen":10735,"Ġacclaimed":10736,"Ġtreasury":10737,"Ġelevated":10738,"Ġresignation":10739,"Ġabsolute":10740,"hin":10741,"zac":10742,"Ġedmund":10743,"Ġtransmission":10744,"Ġcompromise":10745,"Ġaub":10746,"Ġtender":10747,"Ġmechanics":10748,"£o":10749,"eda":10750,"Ġpi":10751,"Ġleagues":10752,"Ġbutler":10753,"ĠpokÃ©":10754,"idd":10755,"Ġhelen":10756,"Ġglad":10757,"Ġconcepts":10758,"Ġcinemat":10759,"Ã´":10760,"Ġmentions":10761,"roscop":10762,"Ġ1863":10763,"Ġply":10764,"Ġmega":10765,"Ġeagles":10766,"Ġanchor":10767,"Ġcapitol":10768,"Ġbold":10769,"Ġspots":10770,"Ġresort":10771,"Ġbrigades":10772,"orious":10773,"Ġpover":10774,"Ġcarr":10775,"Ġcorruption":10776,"Ġviii":10777,"Ġ1886":10778,"Ġspacecraft":10779,"Ġbonds":10780,"Ġgregory":10781,"Ġsmoking":10782,"ront":10783,"Ġarguments":10784,"Ġproxim":10785,"Ġflot":10786,"Ġventure":10787,"Ġmushroom":10788,"Ġmam":10789,"Ġjna":10790,"ipher":10791,"nn":10792,"Ġworker":10793,"Ġsuggestion":10794,"Ġathletics":10795,"Ġsailors":10796,"Ġpoverty":10797,"hart":10798,"Ġstored":10799,"Ġgrove":10800,"umberland":10801,"imony":10802,"Ġmanaging":10803,"Ġwalks":10804,"Ġmlb":10805,"Ġmanifest":10806,"Ġschumacher":10807,"Ġstair":10808,"Ġconced":10809,"Ġdevot":10810,"Ġatmospheric":10811,"Ġassassination":10812,"Ġseam":10813,"Ġgraves":10814,"Ġfarmer":10815,"Ġbrooklyn":10816,"Ġcorresponding":10817,"Ġcondemned":10818,"aba":10819,"Ġflown":10820,"Ġphyl":10821,"Ġdennis":10822,"Ġorton":10823,"Ġtrap":10824,"Ġiran":10825,"Ġmissile":10826,"instein":10827,"stan":10828,"Ġfloren":10829,"Ã¶r":10830,"Ġjulian":10831,"Ġeman":10832,"leted":10833,"acular":10834,"Ġhispan":10835,"Ġloaded":10836,"Ġrar":10837,"Ġmarath":10838,"issioned":10839,"alt":10840,"Ġwidow":10841,"Ġorchestral":10842,"ĠËĪ":10843,"Ġhass":10844,"Ġisab":10845,"Ġepit":10846,"Ġslam":10847,"Ġmoist":10848,"inter":10849,"Ġintr":10850,"Ġtrem":10851,"Ġphysically":10852,"Ġprinceton":10853,"eding":10854,"Ġinver":10855,"rogen":10856,"Ġtorpedoes":10857,"Ġmigration":10858,"Ġinstructions":10859,"Ġaria":10860,"Ġdelight":10861,"Ġpurple":10862,"Ġinhg":10863,"Ġrotation":10864,"Ġretreated":10865,"Ġdetected":10866,"Ġceremonies":10867,"Ġmckinley":10868,"Ġfing":10869,"Ġhok":10870,"Ġblamed":10871,"ugg":10872,"Ġchallenging":10873,"Ġpreservation":10874,"Ġcaf":10875,"Ġbutton":10876,"Ġpride":10877,"Ġparticipating":10878,"Ġgusts":10879,"Ġmouse":10880,"Ġnathan":10881,"Ġbeau":10882,"Ġfinger":10883,"Ġknowing":10884,"Ġhubbard":10885,"Ġdisbanded":10886,"Ġmull":10887,"Ġsue":10888,"Ġfluor":10889,"Ġnasa":10890,"Ġconsciousness":10891,"Ġachievements":10892,"Ġnass":10893,"Ġbarcel":10894,"Ġ1884":10895,"Ġsteadily":10896,"Ġcomposers":10897,"Ġmock":10898,"Ġagencies":10899,"Ġdisabled":10900,"Ġflesh":10901,"Ġmessages":10902,"Ġcalculated":10903,"Ġcomprehens":10904,"Ġemerging":10905,"Ġvariable":10906,"Ġvegetation":10907,"Ġdistinction":10908,"Ġposter":10909,"Ġcommitment":10910,"Ġholland":10911,"Ġmontana":10912,"mill":10913,"Ġants":10914,"Ġsummar":10915,"Ġdarker":10916,"Ġglasgow":10917,"eter":10918,"omon":10919,"Ġadri":10920,"izz":10921,"Ġgenesis":10922,"Ġsoci":10923,"Ġmaple":10924,"Ġprinting":10925,"rod":10926,"agers":10927,"Ġsmackdown":10928,"Ġ103":10929,"Ġpostp":10930,"Ġconvey":10931,"Ġseeds":10932,"Ġfinest":10933,"Ġquit":10934,"aja":10935,"usters":10936,"Ġcanucks":10937,"Ġaustro":10938,"Ġconvince":10939,"ettes":10940,"Ġreserves":10941,"Ġsingers":10942,"Ġconfig":10943,"Ġelectoral":10944,"Ġvenues":10945,"Ġmour":10946,"Ġbrings":10947,"Ġrebounds":10948,"Ġvest":10949,"Ġquoted":10950,"Ġopinions":10951,"Ġsolely":10952,"Ġintend":10953,"Ġbelle":10954,"Ġmotif":10955,"Ġendang":10956,"Ġmysterious":10957,"arus":10958,"Ġconducting":10959,"Ġpilgr":10960,"Ġsongwriting":10961,"Ġneuro":10962,"Ġfavored":10963,"Ġcooperation":10964,"Ġgentle":10965,"ËĲ":10966,"Ġgig":10967,"Ġwhales":10968,"Ġherbert":10969,"iens":10970,"agg":10971,"Ġmodest":10972,"Ġphillies":10973,"oi":10974,"sis":10975,"Ġtheodore":10976,"Ġcope":10977,"Ġradius":10978,"Ġexamined":10979,"Ġceltic":10980,"Ġgraphic":10981,"Ġpocket":10982,"lem":10983,"Ġtril":10984,"Ġnaturally":10985,"Ġwalked":10986,"Ġisles":10987,"Ġsod":10988,"Ġhein":10989,"Ġpriority":10990,"Ġessay":10991,"Ġindirect":10992,"Ġwestminster":10993,"Ġeverybody":10994,"Ġtheaters":10995,"itals":10996,"aku":10997,"Ġdenver":10998,"Ġeligible":10999,"Ġrenaissance":11000,"onso":11001,"Ġbce":11002,"Ġrouting":11003,"Ġtemples":11004,"Ġrounded":11005,"Ġtintin":11006,"Ġaids":11007,"Ġdepot":11008,"Ġtracking":11009,"Ġpatro":11010,"dam":11011,"Ġharsh":11012,"Ġremake":11013,"lla":11014,"Ġbark":11015,"Ġhomosexual":11016,"ishops":11017,"Ġdecisive":11018,"Ġcurved":11019,"Ġscreens":11020,"Ġ1877":11021,"Ġvolcano":11022,"Ġawareness":11023,"Ġshopping":11024,"Ġfragments":11025,"Ġgast":11026,"Ġjin":11027,"Ġlibert":11028,"Ġ129":11029,"Ġdemographic":11030,"Ġextraordin":11031,"ulu":11032,"Ġpoe":11033,"Ġauthen":11034,"Ġtaxonomy":11035,"Ġpray":11036,"Ġnationalist":11037,"Ġ138":11038,"Ġ230":11039,"Ġprompting":11040,"isations":11041,"Ġphon":11042,"Ġ1876":11043,"Ġconsideration":11044,"Ġlogo":11045,"arded":11046,"abad":11047,"Ġmarqu":11048,"Ġ122":11049,"Ġlegion":11050,"Ġposthum":11051,"Ġfarms":11052,"Ġmercedes":11053,"Ġvern":11054,"Ġfault":11055,"ĠÐ":11056,"Ġcomparing":11057,"Ġ116":11058,"Ġangles":11059,"Ġpenal":11060,"Ġspectrum":11061,"Ġlaz":11062,"Ġnem":11063,"Ġyd":11064,"Ġmanuel":11065,"Ġthemed":11066,"Ġglou":11067,"Ġheavier":11068,"Ġcontrad":11069,"Ġbulgarian":11070,"Ġnevada":11071,"Ġnewfound":11072,"Ġconsens":11073,"Ġperformers":11074,"Ġelementary":11075,"Ġlut":11076,"Ġproclaimed":11077,"Ġunoff":11078,"Ġafterward":11079,"Ġmanning":11080,"Ġlikewise":11081,"Ġpossessed":11082,"Ġprivile":11083,"iev":11084,"Ġplayable":11085,"Ġemig":11086,"Ġtourists":11087,"Ġagrees":11088,"Ġconnects":11089,"Ġaccomplished":11090,"Ġdynamic":11091,"iors":11092,"Ġdeer":11093,"Ġalbany":11094,"Ġ134":11095,"Ġronald":11096,"Ġvirtual":11097,"Ġexpectations":11098,"add":11099,"Ġpercy":11100,"Ġrefuses":11101,"Ġsearching":11102,"Ġfrigate":11103,"gary":11104,"atisf":11105,"Ġcommentators":11106,"Ġpsychological":11107,"umbered":11108,"Ġandr":11109,"Ġsignals":11110,"Ġcarlos":11111,"Ġconfer":11112,"Ġrosen":11113,"Ġrefugees":11114,"Ġensemble":11115,"asia":11116,"Ġinsuff":11117,"Ġcubic":11118,"Ġsensitive":11119,"Ġconsequences":11120,"Ġmunicipality":11121,"Ġkilometers":11122,"Ġsurprising":11123,"Ä«":11124,"roc":11125,"Ġcomprising":11126,"Ġottawa":11127,"Ġsergeant":11128,"Ġmast":11129,"Ġnok":11130,"oming":11131,"Ġlistening":11132,"Ġukrain":11133,"Ġsans":11134,"istical":11135,"Ġcommons":11136,"Ġoutcome":11137,"izers":11138,"Ġnig":11139,"acc":11140,"Ġcong":11141,"Ġdrake":11142,"Ġdiscour":11143,"á»ĩ":11144,"Ġdiscipline":11145,"Ġstom":11146,"olan":11147,"Ġjoke":11148,"Ġdepiction":11149,"Ġdescript":11150,"ennial":11151,"Ġ1830":11152,"Ġtransformed":11153,"Ġencompass":11154,"Ġopined":11155,"Ġintelligent":11156,"Ġharvest":11157,"Ġrational":11158,"Ġguit":11159,"Ġmilan":11160,"Ġbanksia":11161,"Ġexercises":11162,"Ġdeposits":11163,"Ġmisc":11164,"Ġabra":11165,"Ġpioneer":11166,"Ġprocedure":11167,"Ġnak":11168,"Ġpla":11169,"Ġcelebrity":11170,"Ġemotions":11171,"Ġwidth":11172,"Ġproperly":11173,"Ġdeliberately":11174,"Ġmichaels":11175,"Ġexecutives":11176,"ĠpokÃ©mon":11177,"Ġbarcelona":11178,"Ġ1875":11179,"Ġpayment":11180,"Ġweakness":11181,"Ġcolin":11182,"Ġlandmark":11183,"Ġladies":11184,"Ġbarracks":11185,"Ġsaga":11186,"Ġgrim":11187,"Ġphosph":11188,"Ġchiefs":11189,"Ġkeyboard":11190,"Ġreluctant":11191,"Ġadjust":11192,"Ġgale":11193,"chy":11194,"Ġunderwater":11195,"Ġprocessing":11196,"Ġsteady":11197,"Ġfabric":11198,"Ġtwe":11199,"assic":11200,"Ġformations":11201,"anka":11202,"Ġstrings":11203,"atar":11204,"Ġaccus":11205,"atty":11206,"Ġ128":11207,"Ġroutine":11208,"Ġchal":11209,"rians":11210,"Ġenix":11211,"Ġpermit":11212,"Ġceo":11213,"Ġcontribute":11214,"Ġlatest":11215,"Ġdialect":11216,"Ġcomplimented":11217,"Ġinex":11218,"ulates":11219,"Ġsilence":11220,"star":11221,"ighed":11222,"Ġmiddles":11223,"Ġraymond":11224,"Ġextends":11225,"Ġloyalty":11226,"Ġgauge":11227,"Ġtool":11228,"Ġunanim":11229,"Ġmetals":11230,"Ġvaries":11231,"reen":11232,"Ġecl":11233,"Ġjets":11234,"Ġchip":11235,"Ġestimate":11236,"Ġtribut":11237,"Ġenlar":11238,"Ġhenderson":11239,"Ġgathering":11240,"amation":11241,"Ġanger":11242,"Ġherb":11243,"Ġbowled":11244,"Ġfears":11245,"Ġphilosoph":11246,"Ġguitars":11247,"Ġonwards":11248,"Ġemma":11249,"Ġfarming":11250,"Ġexpressway":11251,"icking":11252,"Ġcollecting":11253,"Ġ1883":11254,"Ġvocalist":11255,"Ġparalymp":11256,"Ġdome":11257,"Ġsting":11258,"etary":11259,"Ġproud":11260,"ampa":11261,"Ġcarved":11262,"Ġromanian":11263,"Ġphotos":11264,"Ġgem":11265,"Ġalam":11266,"Ġchains":11267,"Ġspite":11268,"Ġpoles":11269,"Ġcomplement":11270,"Ġcontributing":11271,"Ġcontempor":11272,"herent":11273,"Ġfile":11274,"Ġstaged":11275,"eta":11276,"Ġmillions":11277,"Ġ1881":11278,"cot":11279,"oric":11280,"chw":11281,"ĠâĻ":11282,"Ġroller":11283,"Ġalumn":11284,"umi":11285,"Ġrent":11286,"Ġberm":11287,"Ġcomplaints":11288,"Ġinstrumentation":11289,"Ġrevealing":11290,"Ġsandy":11291,"Ġinput":11292,"Ġstabil":11293,"Ġblair":11294,"Ġfunk":11295,"Ġdiseases":11296,"aun":11297,"Ġassets":11298,"Ġdamaging":11299,"Ġconsistently":11300,"appa":11301,"Ġlemurs":11302,"Ġcoffee":11303,"Ġcameo":11304,"Ġsymbols":11305,"lake":11306,"yers":11307,"Ġdop":11308,"Ġunaware":11309,"iki":11310,"Ġrichardson":11311,"Ġrag":11312,"Ġclause":11313,"Ġblog":11314,"Ġvenice":11315,"Ġpont":11316,"Ġferdin":11317,"Ġenvironments":11318,"Ġlancash":11319,"Ġlocomotive":11320,"Ġnervous":11321,"Ġjamaica":11322,"Ġpix":11323,"Ġusher":11324,"Ġmonk":11325,"Ġchen":11326,"Ġpermanently":11327,"Ġphenomenon":11328,"Ġpolitically":11329,"Ġ1869":11330,"Ġbeds":11331,"Ġbelonging":11332,"Ġpowell":11333,"Ġjumping":11334,"kar":11335,"Ġpowder":11336,"Ġpreventing":11337,"Ġstaying":11338,"Ġduncan":11339,"Ġadvisory":11340,"ema":11341,"anted":11342,"actic":11343,"Ġ151":11344,"Ġsixty":11345,"Ġcalgary":11346,"Ġimproving":11347,"Ġdisputed":11348,"Ġlancashire":11349,"Ġbever":11350,"Ġrays":11351,"iper":11352,"Ġmidway":11353,"Ġradi":11354,"dan":11355,"Ġlamp":11356,"Ġdetachment":11357,"Ġpercussion":11358,"Ġgenera":11359,"Ġacceptance":11360,"Ġreferee":11361,"Ġdispatched":11362,"Ġchlor":11363,"Ġ1866":11364,"Ġeruption":11365,"Ġtelescope":11366,"Ġng":11367,"atern":11368,"Ġveronica":11369,"Ġlessons":11370,"Ġwanting":11371,"Ġceiling":11372,"Ġchapters":11373,"Ġerupt":11374,"Ġretrieved":11375,"stown":11376,"Ġally":11377,"Ġcolleges":11378,"Ġhabitats":11379,"Ġhypothesis":11380,"Ġpatrols":11381,"yll":11382,"adows":11383,"Ġbend":11384,"riages":11385,"Ġfloyd":11386,"Ġfaction":11387,"Ġobjectives":11388,"Ġrodrig":11389,"Ġrequirement":11390,"Ġswitched":11391,"Ġredevelop":11392,"iar":11393,"hening":11394,"Ġfantastic":11395,"Ġblockade":11396,"Ġwitnessed":11397,"Ġfraud":11398,"Ġconsensus":11399,"Ġstir":11400,"Ġfrances":11401,"Ġ750":11402,"Ġunsuccessfully":11403,"Ġinteractions":11404,"Ġargue":11405,"Ġironcl":11406,"Ġfart":11407,"omed":11408,"Ġbeij":11409,"Ġanx":11410,"Ġgrants":11411,"Ġcostumes":11412,"Ġpleasure":11413,"bus":11414,"alia":11415,"Ġreson":11416,"Ġangels":11417,"Ġcircles":11418,"Ġlengths":11419,"Ġellen":11420,"Ġadaptations":11421,"Ġdimensional":11422,"Ġsag":11423,"Ġtrinity":11424,"iang":11425,"inth":11426,"Ġwheat":11427,"Ġencourage":11428,"Ġfreshman":11429,"Ġpublishers":11430,"Ġsyndrome":11431,"Ġbacteria":11432,"Ġunrel":11433,"Ġactively":11434,"Ġeccles":11435,"Ġtradem":11436,"Ġhomeless":11437,"Ġderby":11438,"Ġallegations":11439,"Ġcrawford":11440,"Ġana":11441,"Ġexplosive":11442,"Ġimmigrants":11443,"Ġdigit":11444,"cu":11445,"Ġincl":11446,"Ġmbar":11447,"Ġling":11448,"Ġperpet":11449,"Ġ124":11450,"Ġbelonged":11451,"Ġjudgment":11452,"Ġwer":11453,"Ġflanders":11454,"Ġaccol":11455,"Ġconvert":11456,"rium":11457,"Ġrenown":11458,"Ġdistinguish":11459,"Ġpalestine":11460,"Ġleicester":11461,"zig":11462,"Ġdot":11463,"Ġeb":11464,"Ġchannels":11465,"Ġhemisp":11466,"Ġabundant":11467,"brien":11468,"Ġguadal":11469,"Ġlandings":11470,"Ġglory":11471,"Ġdestiny":11472,"Ġplanes":11473,"Ġsuffer":11474,"enues":11475,"Ġreop":11476,"Ġdiary":11477,"Ġburger":11478,"Ġ1873":11479,"Ġnicknamed":11480,"Ġcongregation":11481,"Ġfischer":11482,"Ġparamount":11483,"assed":11484,"boat":11485,"Ġtasks":11486,"Ġunusually":11487,"Ġinnocent":11488,"Ġtucker":11489,"omys":11490,"Ġoverd":11491,"Ġintroduce":11492,"Ġ1882":11493,"Ġsubmerged":11494,"Ġdudley":11495,"Ġlava":11496,"Ġdesired":11497,"Ġcontrary":11498,"Ġloves":11499,"Ġforgot":11500,"Ġbeast":11501,"istle":11502,"abl":11503,"Ġshipped":11504,"Ġthoughts":11505,"Ġteenage":11506,"Ġoutdoor":11507,"Ġeldest":11508,"Ġmachinery":11509,"Ġwatson":11510,"Ġ1871":11511,"Ġproceedings":11512,"Ġadvocate":11513,"Ġcylinder":11514,"Ġbeijing":11515,"eon":11516,"Ġeg":11517,"Ġfringe":11518,"Ġdistr":11519,"fin":11520,"Ġnaked":11521,"Ġnewman":11522,"Ġ1867":11523,"Ġcrucial":11524,"Ġnineteenth":11525,"Ġoverwhelming":11526,"Ġadequ":11527,"Ġsubordin":11528,"Ġinstruction":11529,"Ġsurpassed":11530,"Ġald":11531,"avian":11532,"Ġdemocracy":11533,"Ġ202":11534,"Ġiw":11535,"Ġfever":11536,"Ġrepet":11537,"rington":11538,"Ġwelcome":11539,"Ġdefenses":11540,"Ġkepler":11541,"Ġadvocated":11542,"Ġbachel":11543,"Ġmccarthy":11544,"Ãł":11545,"Ġkem":11546,"Ġproc":11547,"Ġexport":11548,"Ġhorsepower":11549,"Ġreviewing":11550,"Ġplatoon":11551,"Ġfestivals":11552,"Ġhorns":11553,"Ġaristocr":11554,"Ġtrench":11555,"Ġcric":11556,"Ġviv":11557,"Ġunity":11558,"Ġtruman":11559,"Ġclif":11560,"ulture":11561,"Ġmonuments":11562,"Ġzones":11563,"Ġmalay":11564,"Ġmott":11565,"Ġchet":11566,"Ġpounder":11567,"Ġspores":11568,"Ġintim":11569,"Ġverd":11570,"Ġstorylines":11571,"Ġhunters":11572,"Ġcomprised":11573,"Ġadela":11574,"Ġdiving":11575,"mother":11576,"Ġitunes":11577,"Ġetc":11578,"Ġnests":11579,"Ã¨re":11580,"Ġbiz":11581,"nae":11582,"Ġ1878":11583,"Ġmanufactured":11584,"Ġtil":11585,"Ġsau":11586,"Ġmosque":11587,"waffe":11588,"Ġrushed":11589,"Ġstrat":11590,"Ġ137":11591,"Ġexplored":11592,"Ġcustoms":11593,"Ġvariant":11594,"Ġnobel":11595,"Ġwolver":11596,"inqu":11597,"Ġhil":11598,"Ġgeography":11599,"Ġborne":11600,"Ġeleventh":11601,"Ġtriangle":11602,"Ġvampire":11603,"Ġvlad":11604,"fs":11605,"Ġfount":11606,"Ġune":11607,"Ġmacdonald":11608,"Ġgibson":11609,"Ġendangered":11610,"Ġauthentic":11611,"erm":11612,"Ġbout":11613,"Ġholl":11614,"Ġturbines":11615,"Ġunveiled":11616,"Ġhorizontal":11617,"bach":11618,"ystem":11619,"zi":11620,"olith":11621,"Ġboot":11622,"Ġcriter":11623,"Ġrams":11624,"Ġshan":11625,"Ġspeculated":11626,"Ġaveraged":11627,"Ġeconomics":11628,"heads":11629,"Ġresemble":11630,"Ġdere":11631,"utely":11632,"chel":11633,"Ġindex":11634,"ipping":11635,"Ġspectators":11636,"Ġcurrency":11637,"Ġferg":11638,"Ġdorm":11639,"Ġnh":11640,"Ġthorn":11641,"Ġundertook":11642,"Ġrelating":11643,"Ġbigger":11644,"Ġchaos":11645,"Ġlp":11646,"Ġliterally":11647,"Ġdissolved":11648,"Ġming":11649,"Ġchi":11650,"Ġensu":11651,"Ġquint":11652,"Ġgrain":11653,"Ġdamages":11654,"Ġlengthy":11655,"Ġshirt":11656,"Ġineff":11657,"Ġwander":11658,"opol":11659,"keep":11660,"Ġtrips":11661,"Ġfights":11662,"Ġathlete":11663,"Ġraven":11664,"Ġaston":11665,"Ġlone":11666,"Ġtrump":11667,"Ġouts":11668,"Ġcoastline":11669,"Ġstripped":11670,"Ġfairy":11671,"yright":11672,"Ġprostit":11673,"Ġenormous":11674,"Ġensuing":11675,"Ġlil":11676,"ums":11677,"Ġswamp":11678,"Ġcopyright":11679,"Ġadmiralty":11680,"Ġmaneuver":11681,"Ġsara":11682,"Ġmick":11683,"stad":11684,"Ġmeyer":11685,"Ġbaptist":11686,"Ġtrigger":11687,"Ġmetacritic":11688,"Ġrah":11689,"Ġank":11690,"Ġmanages":11691,"Ġovercome":11692,"Ġembassy":11693,"Ġeditorial":11694,"otypes":11695,"Ġinstallation":11696,"Ġaaron":11697,"Ġluther":11698,"Ġwellington":11699,"Ġinterviewed":11700,"Ġdiscussions":11701,"alid":11702,"Ġoral":11703,"occ":11704,"Ġadds":11705,"Ġguarant":11706,"eur":11707,"pit":11708,"Ġanonymous":11709,"Ġrelied":11710,"Ġcoral":11711,"Ġstroke":11712,"oning":11713,"Ġintact":11714,"Ġhonest":11715,"Ġjail":11716,"employ":11717,"Ġawa":11718,"Ġqualities":11719,"Ġmerchand":11720,"Ġlemur":11721,"Ġwishes":11722,"Ġextinction":11723,"Ġfusion":11724,"Ġlaf":11725,"Ġdestination":11726,"jections":11727,"Ġluftwaffe":11728,"Ġsoccer":11729,"ographed":11730,"Ġshelley":11731,"Ġbermuda":11732,"Ġengaging":11733,"Ġsilk":11734,"Ġinsufficient":11735,"ichi":11736,"Ġbankrupt":11737,"Ġlifted":11738,"Ġalert":11739,"Ġdeals":11740,"Ġmonroe":11741,"Ġrelay":11742,"Ġadvances":11743,"origin":11744,"enz":11745,"through":11746,"Ġbrew":11747,"overed":11748,"Ġmistake":11749,"Ġlynch":11750,"Ãª":11751,"asaki":11752,"Ġmarx":11753,"Ġnomine":11754,"Ġaguil":11755,"Ġtrilogy":11756,"Ġrevived":11757,"Ġbattlecruisers":11758,"imer":11759,"igo":11760,"Ġleather":11761,"Ġadrian":11762,"Ġweighed":11763,"Ġflee":11764,"Ġgains":11765,"Ġcultures":11766,"Ġ1868":11767,"Ġ1872":11768,"Ġgrossed":11769,"Ġproceeds":11770,"cock":11771,"Ġ123":11772,"Ġnegle":11773,"Ġfluid":11774,"Ġotto":11775,"hand":11776,"Ġtin":11777,"Ġinstructed":11778,"appy":11779,"Ġselena":11780,"Ġreminiscent":11781,"Ġaguilera":11782,"monton":11783,"Ġfeminist":11784,"Ġaus":11785,"oves":11786,"Ġsuccessive":11787,"Ġrulers":11788,"Ġphotographer":11789,"Ġsummary":11790,"Ġcere":11791,"ovsky":11792,"mitt":11793,"Ġincomple":11794,"Ġchandler":11795,"Ġenrolled":11796,"Ġcres":11797,"Ġasp":11798,"Ġintersections":11799,"Ġfunctional":11800,"Ġcurtis":11801,"Ġcoronation":11802,"Ġchin":11803,"Ġunemploy":11804,"Ġnewport":11805,"Ġglam":11806,"Ġsoviets":11807,"Ġellis":11808,"lia":11809,"Ġdakota":11810,"nar":11811,"Ġbishops":11812,"Ġsuited":11813,"Ġdisgu":11814,"Ġappealed":11815,"Ġscreening":11816,"gener":11817,"Ġranch":11818,"Ġdeeper":11819,"Ġslower":11820,"Ġmasses":11821,"Ġrapper":11822,"Ġdealt":11823,"Ġmerchants":11824,"Ġrumors":11825,"Ġwise":11826,"Ġriley":11827,"Ġarctic":11828,"ubs":11829,"Ġgrammar":11830,"Ġaliens":11831,"Ġbatsman":11832,"Ġamp":11833,"Ġinterference":11834,"neath":11835,"Ġphant":11836,"Ġtermed":11837,"Ġdeployment":11838,"Ġleigh":11839,"Ġtrace":11840,"Ġconting":11841,"Ġwald":11842,"Ġraz":11843,"Ġriff":11844,"Ġbread":11845,"Ġfloating":11846,"Ġquantities":11847,"Ġpengu":11848,"Ġdart":11849,"Ġhond":11850,"Ġkay":11851,"Ġarbit":11852,"Ġdisrupt":11853,"Ġundergrad":11854,"Ġgamespot":11855,"Ġsymmet":11856,"Ġdisputes":11857,"Ġinvestigations":11858,"Ġmaxwell":11859,"Ġphillips":11860,"Ġbarely":11861,"kas":11862,"hend":11863,"Ġgle":11864,"ocy":11865,"Ġprivately":11866,"Ġpanels":11867,"Ġadelaide":11868,"keley":11869,"Ġassign":11870,"aurus":11871,"Ġras":11872,"bery":11873,"Ġretros":11874,"Ġpersec":11875,"Ġgorge":11876,"Ġferdinand":11877,"Ġhanc":11878,"Ġblank":11879,"Ġexhibited":11880,"Ġmobil":11881,"inus":11882,"Ġdad":11883,"Ġjoins":11884,"obile":11885,"Ġbusy":11886,"Ġgeoffrey":11887,"Ġsier":11888,"Ġbik":11889,"Ġconform":11890,"Ġinsist":11891,"Ġseparately":11892,"Ġanalog":11893,"Ġthickness":11894,"Ġwwf":11895,"Ġsurrey":11896,"Ġpackage":11897,"Ġcurves":11898,"Ġrobot":11899,"Ġinquiry":11900,"Ġitem":11901,"odon":11902,"Ġunrest":11903,"ologically":11904,"Ġecology":11905,"alling":11906,"Ġimported":11907,"gon":11908,"ptic":11909,"Ġnobody":11910,"Ġmarcus":11911,"olo":11912,"Ġsupporter":11913,"Ġbarrett":11914,"Ġessex":11915,"Ġdelays":11916,"Ġinvolve":11917,"Ġdisliked":11918,"Ġflotilla":11919,"rect":11920,"Ġpagan":11921,"Ġshoo":11922,"Ġblake":11923,"Ġsubsc":11924,"Ġdecomp":11925,"Ġpatch":11926,"Ġcasino":11927,"Ġcustody":11928,"Ġabraham":11929,"Ġexpense":11930,"Ġrealm":11931,"Ġcylind":11932,"Ġredesign":11933,"Ġspencer":11934,"Ġcoaster":11935,"Ġromans":11936,"Ġcease":11937,"Ġescal":11938,"Ġpuzz":11939,"Ġtasman":11940,"Ġanthrop":11941,"Ġplymouth":11942,"vent":11943,"eries":11944,"Ġrepaired":11945,"Ġdeveloper":11946,"Ġmagical":11947,"Ġcalm":11948,"Ġexperts":11949,"Ġdeton":11950,"Ġdunge":11951,"Ġcontested":11952,"Ġlicensed":11953,"Ġtherapy":11954,"Ġproximity":11955,"Ġmadrid":11956,"Ġwarrant":11957,"issa":11958,"Ġunderneath":11959,"Ġmaybe":11960,"Ġrefit":11961,"Ġtribal":11962,"Ġblend":11963,"Ġdescendants":11964,"rs":11965,"Ġfog":11966,"Ġchan":11967,"Ġpresum":11968,"eches":11969,"Ġprotecting":11970,"writer":11971,"pic":11972,"Ġfm":11973,"Ġnl":11974,"utors":11975,"Ġplastic":11976,"Ġmolecules":11977,"Ġplutonium":11978,"list":11979,"Ġalk":11980,"Ġinterrupted":11981,"Ġgenius":11982,"Ġcaliber":11983,"Ġlimestone":11984,"Ġballet":11985,"Ġautomatic":11986,"Ġmathematical":11987,"bt":11988,"front":11989,"Ġruins":11990,"Ġpavil":11991,"Ġlunar":11992,"Ġmvp":11993,"Ġwashed":11994,"urd":11995,"Ġump":11996,"Ġkub":11997,"Ġoperator":11998,"Ġcaptivity":11999,"Ġvienna":12000,"Ġmotors":12001,"Ġcardinal":12002,"Ġpedest":12003,"Ġexcessive":12004,"Ġnico":12005,"Ġstark":12006,"Ġria":12007,"Ġpled":12008,"Ġsecular":12009,"Ġprojected":12010,"uits":12011,"Ġsul":12012,"Ġkes":12013,"Ġcoloured":12014,"Ġdelegation":12015,"Ġltd":12016,"Ġcec":12017,"iri":12018,"Ġcomet":12019,"Ġnorse":12020,"kinson":12021,"Ġfergus":12022,"Ġrockets":12023,"Ġassociates":12024,"Ġcollision":12025,"Ġfloods":12026,"Ġarchitects":12027,"Ġdaniels":12028,"Ġbosnia":12029,"Ġfloors":12030,"Ġhancock":12031,"Ġoval":12032,"urg":12033,"Ġneo":12034,"Ġmonks":12035,"Ġinvented":12036,"Ġmyst":12037,"opsis":12038,"Ġacquisition":12039,"Ġflorence":12040,"Ġkeeps":12041,"Ġsurvivor":12042,"Ġpronounced":12043,"Ġcrom":12044,"Ġful":12045,"aching":12046,"Ġtunnels":12047,"Ġtotally":12048,"Ġthrust":12049,"Ġseemingly":12050,"Ġbengal":12051,"Ġá":12052,"Ġporter":12053,"Ġallocated":12054,"dot":12055,"Î½":12056,"Ġmaiden":12057,"Ġedmonton":12058,"Ġstrang":12059,"Ġrestaurants":12060,"acon":12061,"Ġhect":12062,"Ġcomparable":12063,"Ġimmun":12064,"nut":12065,"inte":12066,"Ġsubtle":12067,"Ġacquire":12068,"Ġjeremy":12069,"athetic":12070,"Ġforts":12071,"Ġundergo":12072,"Ġclimbing":12073,"Ġdemanding":12074,"Ġjennifer":12075,"Ġimmigration":12076,"Ġbaldwin":12077,"bel":12078,"Ġmoor":12079,"Ġreflecting":12080,"Ġarkansas":12081,"Ġleban":12082,"Ġfatalities":12083,"xide":12084,"icity":12085,"ido":12086,"Ġtwelf":12087,"aceous":12088,"Ġpublish":12089,"Ġpopulated":12090,"grade":12091,"Ġtrout":12092,"Ġlifestyle":12093,"Ġchicken":12094,"Ġpyramid":12095,"Ġtwelfth":12096,"ÏĤ":12097,"Ġshops":12098,"Ġunst":12099,"ĠhergÃ©":12100,"Ġromania":12101,"Ġdomain":12102,"Ġevolutionary":12103,"Ġextraordinary":12104,"Ġpreston":12105,"guard":12106,"Ġdisappear":12107,"Ġlobby":12108,"ourt":12109,"Ġjungle":12110,"Ġcrust":12111,"Ġstarr":12112,"Ġgarc":12113,"Ġ1879":12114,"Ġquart":12115,"Ġtransp":12116,"Ġmodifications":12117,"Ġenforcement":12118,"imir":12119,"osity":12120,"Ġpend":12121,"Ġbitter":12122,"Ġseventeen":12123,"wig":12124,"Ġcree":12125,"immer":12126,"Ġyok":12127,"Ġmuscle":12128,"Ġgenes":12129,"Ġsuburb":12130,"Ġmcdonald":12131,"Ġstruggling":12132,"Ġaccomplish":12133,"Ġauction":12134,"Ġdiscontinued":12135,"Ġsne":12136,"asi":12137,"urbed":12138,"Ġbyr":12139,"Ġgenerations":12140,"Ġgarage":12141,"Ġscrapped":12142,"Ġnun":12143,"Ġunfortun":12144,"stration":12145,"Ġsavage":12146,"Ġpierce":12147,"Ġneighbouring":12148,"Ġlesbian":12149,"ean":12150,"Ġai":12151,"Ġperimeter":12152,"Ġcrowned":12153,"Ġdemonstrate":12154,"Ġfierce":12155,"Ġvander":12156,"ishn":12157,"Ġdemonstration":12158,"Ġshack":12159,"Ġperth":12160,"Ġinteractive":12161,"Ġstreams":12162,"Ġpaved":12163,"Ġadministered":12164,"Ġhate":12165,"Ġnost":12166,"Ġshank":12167,"Ġminer":12168,"Ġminogue":12169,"Ġ141":12170,"Ġhalted":12171,"Ġlithuan":12172,"Ġyu":12173,"Ġopenly":12174,"Ġmerit":12175,"Ġmccain":12176,"Ġdescended":12177,"Ġsuburban":12178,"Ġelephant":12179,"irts":12180,"Ġfilter":12181,"Ġskinner":12182,"Ġbesie":12183,"Ġsketch":12184,"Ġdio":12185,"Ġreyn":12186,"abet":12187,"Ġarcher":12188,"Ġregained":12189,"Ġbowie":12190,"Ġrewrit":12191,"Ġspeakers":12192,"Ġdirty":12193,"Ġworried":12194,"Ġjanet":12195,"Ġsubstance":12196,"Ġhawk":12197,"Ġcreates":12198,"Ġhawaiian":12199,"Ġclerk":12200,"Ġcompact":12201,"Ġattachment":12202,"Ġoperas":12203,"Ġerosion":12204,"Ġcontracted":12205,"Ġdeclaring":12206,"Ġscenario":12207,"Ġupgrade":12208,"Ġlancaster":12209,"Ġelderly":12210,"Ġartif":12211,"Ġmodes":12212,"atorial":12213,"Ġ270":12214,"Ġturks":12215,"Ġkoreans":12216,"Ġlogan":12217,"Ġbanner":12218,"Ġtables":12219,"Ġbackup":12220,"Ġantiqu":12221,"Ġpregnancy":12222,"atem":12223,"eling":12224,"Ġmonarchy":12225,"Ġnewfoundland":12226,"anto":12227,"Ġtraged":12228,"Ġconfess":12229,"Ġtorch":12230,"Ġwonderful":12231,"Ġjokes":12232,"Ġbalk":12233,"eli":12234,"Ġassa":12235,"Ġwoodland":12236,"Ġcaution":12237,"Ġridic":12238,"Ġdiesel":12239,"Ġopted":12240,"Ġerrors":12241,"gins":12242,"Ð°":12243,"entric":12244,"Ġambitious":12245,"Ġscouts":12246,"Ġgonz":12247,"Ġpist":12248,"Ġkom":12249,"Ġampl":12250,"Ġidentification":12251,"Ġbiology":12252,"Ġdrunk":12253,"Ġprohibited":12254,"Ġdivide":12255,"Ġfindings":12256,"Ġspecialized":12257,"Ġnorthwestward":12258,"Ġbj":12259,"Ġmath":12260,"Ġluck":12261,"Ġperm":12262,"enson":12263,"Ġhoff":12264,"Ġnecessarily":12265,"Ġbuddhist":12266,"Ġcalend":12267,"Ġdecomm":12268,"Ġ146":12269,"Ġvalent":12270,"Ġog":12271,"Ġjg":12272,"ripp":12273,"Ġmotorway":12274,"Ġstrengthening":12275,"Ġthroat":12276,"Ġgriffin":12277,"Ġcricke":12278,"Ġinvitation":12279,"Ġaggregate":12280,"Ġfool":12281,"Ġpus":12282,"umar":12283,"Ġlease":12284,"Ġdetached":12285,"Ġlacks":12286,"natural":12287,"Ġspongeb":12288,"Ġsierra":12289,"Ġcig":12290,"Ġchances":12291,"pro":12292,"lew":12293,"Ġretro":12294,"Ġkle":12295,"Ġcontents":12296,"Ġcheer":12297,"lessly":12298,"Ġlouise":12299,"Ġcaroline":12300,"Ġremarkable":12301,"Ġcomprehensive":12302,"Ġroth":12303,"Ġrode":12304,"Ġteammates":12305,"Ġsocieties":12306,"Ġmerger":12307,"Ġmemorable":12308,"Ġarrow":12309,"Ġsphere":12310,"Ġrunway":12311,"Ġfreight":12312,"Ġdraws":12313,"Ġliberation":12314,"Ġdeciding":12315,"Ġrecognize":12316,"Ġcorners":12317,"50":12318,"bank":12319,"gel":12320,"anus":12321,"Ġgut":12322,"Ġstuck":12323,"Ġcentres":12324,"Ġloading":12325,"Ġpalmer":12326,"Ġfragment":12327,"Ġanatomy":12328,"Ġmold":12329,"Ġrunners":12330,"Ġcollector":12331,"Ġswan":12332,"Ġnashville":12333,"Ġrut":12334,"Ġharper":12335,"Ġallegedly":12336,"Ġjuvenile":12337,"ao":12338,"how":12339,"Ġkens":12340,"Ġ149":12341,"Ġstrait":12342,"Ġmeasurements":12343,"Ġobservers":12344,"Ġbachelor":12345,"core":12346,"Ġses":12347,"Ġkra":12348,"Ġmetab":12349,"inae":12350,"Ġtopic":12351,"Ġlayout":12352,"Ġmoz":12353,"Ġbassist":12354,"sl":12355,"Ġwelf":12356,"Ġhann":12357,"Ġkas":12358,"Ġard":12359,"Ġhealthy":12360,"Ġprogression":12361,"Ġriot":12362,"Ġcompensation":12363,"Ġtran":12364,"Ġintroducing":12365,"Ġdrowned":12366,"Ġdiagnosis":12367,"houses":12368,"Ġincomplete":12369,"Ġmere":12370,"ovich":12371,"uba":12372,"Ġcalvin":12373,"Ġspecialist":12374,"Ġmuzzle":12375,"Ġconsumer":12376,"Ġjag":12377,"Ġsurfaces":12378,"Ġlegends":12379,"Ã£o":12380,"Ġhiding":12381,"Ġplug":12382,"Ġspare":12383,"Ġspark":12384,"Ġreserved":12385,"Ġsuburbs":12386,"Ġhab":12387,"Ġforget":12388,"Ġemily":12389,"Ġedges":12390,"Ġdefender":12391,"Ġmaurice":12392,"Ġfen":12393,"Ġfond":12394,"Ġvow":12395,"Ġmarble":12396,"Ġspeeches":12397,"Ġmoreover":12398,"Ġgenerate":12399,"Ġdevon":12400,"Ġsynth":12401,"hero":12402,"Ġdys":12403,"Ġease":12404,"Ġunpre":12405,"Ġproven":12406,"Ġbusch":12407,"Ġrealizes":12408,"Ġattractive":12409,"Ġdoubles":12410,"Ġdiamonds":12411,"Ġore":12412,"Ġdh":12413,"Ġkot":12414,"Ġoverth":12415,"Ġconsent":12416,"Ġbasement":12417,"Ġeliminate":12418,"Ġdrainage":12419,"Ġpushing":12420,"Ġkath":12421,"Ġguatem":12422,"ficial":12423,"Ġperfectly":12424,"Ġreversed":12425,"tan":12426,"ormal":12427,"Ġ210":12428,"Ġgarfield":12429,"Ġcater":12430,"Ġrna":12431,"Ġbrass":12432,"Ġgrab":12433,"Ġberry":12434,"Ġconjunction":12435,"atri":12436,"Ġsecuring":12437,"Ġcollective":12438,"Ġrandy":12439,"Ġbred":12440,"Ġcomputers":12441,"Ġslot":12442,"Ġsupervis":12443,"Ġsolutions":12444,"Ġsufficiently":12445,"Ġbio":12446,"Ġregulation":12447,"Ġ1848":12448,"Ġunpop":12449,"Ġclaire":12450,"Ġdian":12451,"Ġrhodesia":12452,"Ġrifles":12453,"Ġsubdiv":12454,"Ġned":12455,"Ġmann":12456,"Ġlocked":12457,"Ġsuperman":12458,"Ġhospitals":12459,"Ġembarr":12460,"Ġtonight":12461,"Ġwelfare":12462,"pow":12463,"Ġcure":12464,"Ġfuck":12465,"Ġ1874":12466,"Ġfranco":12467,"Ġcameras":12468,"Ġcatalog":12469,"hd":12470,"Ġgir":12471,"urers":12472,"Ġwhites":12473,"Ġhardware":12474,"Ġpanama":12475,"holm":12476,"Ġdesperate":12477,"Ġpian":12478,"Ġscales":12479,"Ġairplay":12480,"Ġhelm":12481,"oop":12482,"Ġlingu":12483,"ayette":12484,"Ġhemisphere":12485,"Ġspongebob":12486,"Ġhanging":12487,"Ġcontend":12488,"Ġbuses":12489,"Ġvolunt":12490,"Ġholmes":12491,"Ġchoosing":12492,"Ġtreasure":12493,"Ġsop":12494,"Ġelim":12495,"Ġirving":12496,"Ġsolomon":12497,"Ġdefinitely":12498,"Ġplateau":12499,"birds":12500,"Ġauxili":12501,"Ġemphasized":12502,"Ġarmenia":12503,"Ġevol":12504,"Ġanywhere":12505,"Ġbreakthrough":12506,"Ġcounteratt":12507,"Ġfinnish":12508,"Ġdegener":12509,"Ġspiel":12510,"Ġedwin":12511,"Ġrape":12512,"Ġeaster":12513,"Ġarabic":12514,"Ġillustrations":12515,"Ġassessed":12516,"Ġvariants":12517,"brook":12518,"mons":12519,"Ġaster":12520,"Ġix":12521,"Ġinfected":12522,"erness":12523,"Ġ144":12524,"Ġmichelle":12525,"Ġhod":12526,"Ġtract":12527,"Ġnotion":12528,"Ġaborigin":12529,"Ġcrack":12530,"Ġcheap":12531,"Ġcompetitors":12532,"Ġgraduating":12533,"Ġwindsor":12534,"Ġdimensions":12535,"Ġlegitimate":12536,"ye":12537,"Ġket":12538,"ulus":12539,"Ġmanual":12540,"Ġserbs":12541,"achi":12542,"Ġincorporates":12543,"Ġjacques":12544,"Ġmurders":12545,"Ġfrustrated":12546,"post":12547,"Ġdow":12548,"elines":12549,"Ġvect":12550,"quer":12551,"Ġpromising":12552,"Ġdoug":12553,"Ġputs":12554,"Ġlindwall":12555,"Ġwounds":12556,"Ġkang":12557,"Ġincons":12558,"osphere":12559,"Ġcoupled":12560,"Ġcitizenship":12561,"Ġwo":12562,"ovo":12563,"Ġcalcul":12564,"Ġmissiles":12565,"Ġburst":12566,"Ġbloody":12567,"Ġdiagnosed":12568,"Ġglacier":12569,"Ġhale":12570,"qual":12571,"Ġterrestrial":12572,"Ġaugustus":12573,"Ġcontrolling":12574,"Ġstalin":12575,"istically":12576,"Ġorgans":12577,"Ġpanic":12578,"Ġdinosaurs":12579,"person":12580,"alous":12581,"Ġberkeley":12582,"Ġinvestigated":12583,"Ġunders":12584,"Ġpupils":12585,"Ġmonday":12586,"Ġstunt":12587,"Ġves":12588,"Ġnorthbound":12589,"Ġshipyard":12590,"Ġgerald":12591,"Ġmercy":12592,"Ġbreakdown":12593,"Ġluis":12594,"Ġtiny":12595,"oline":12596,"Ġpreval":12597,"Ġphysician":12598,"Ġranged":12599,"Ġtended":12600,"Ġappreciated":12601,"ĠÅ¡":12602,"Ġmoss":12603,"ĠrÃ©":12604,"cker":12605,"Ġlineup":12606,"Ġstanford":12607,"Ġdrift":12608,"Ġelimination":12609,"oni":12610,"agic":12611,"Ġdrives":12612,"Ġreads":12613,"Ġfrozen":12614,"Ġaccolades":12615,"12":12616,"Ġchim":12617,"Ġadmit":12618,"Ġassignment":12619,"Ġpresley":12620,"Ġseasonal":12621,"Ġconfined":12622,"Ġtestimony":12623,"Ġsexually":12624,"Ġstance":12625,"Ġwouldn":12626,"Ġpatent":12627,"Ġgrandson":12628,"Ġqualify":12629,"Ġskeleton":12630,"Ġsebast":12631,"Ġober":12632,"Ġnearest":12633,"Ġmartha":12634,"Ġflet":12635,"Ġpressed":12636,"Ġlaying":12637,"Ġsummers":12638,"Ġhelicopters":12639,"rez":12640,"Ġcircus":12641,"Ġsatir":12642,"Ġcuban":12643,"Ġcomfortable":12644,"Ġinhabited":12645,"Ġsz":12646,"Ġalc":12647,"Ġsunder":12648,"ailing":12649,"Ġpreview":12650,"Ġcarefully":12651,"Ġredd":12652,"Ġmaintains":12653,"Ġexciting":12654,"Ġoccupy":12655,"Ġtravers":12656,"Ġskiing":12657,"ocaust":12658,"elia":12659,"Ġved":12660,"Ġgover":12661,"Ġmonkey":12662,"Ġbulgaria":12663,"Ġdelhi":12664,"Ġpainter":12665,"Ġharmony":12666,"Ġtat":12667,"Ġenable":12668,"Ġevangel":12669,"Ġcarriage":12670,"Ġzel":12671,"Ġemployee":12672,"Ġbree":12673,"Ġdish":12674,"Ġsuite":12675,"Ġblown":12676,"Ġdesigners":12677,"Ġvacc":12678,"Ġexhaust":12679,"Ġgenuine":12680,"Ġunofficial":12681,"Ġheter":12682,"Ġseiz":12683,"Ġmanagers":12684,"Ġreformed":12685,"Ġfrost":12686,"do":12687,"cending":12688,"quet":12689,"Ġblond":12690,"Ġstatute":12691,"Ġecos":12692,"Ġjennings":12693,"Ġcauc":12694,"Ġprofits":12695,"Ġduet":12696,"Ġfacts":12697,"Ġmaneuvers":12698,"Ġcarpenter":12699,"Ġsuccesses":12700,"Ġglenn":12701,"Ġdefeats":12702,"Ġ280":12703,"Ġmistaken":12704,"matic":12705,"isle":12706,"rosse":12707,"Ġtopics":12708,"atsu":12709,"Ġhonored":12710,"Ġboxing":12711,"Ġfitting":12712,"Ġenthusiastic":12713,"Ġentertaining":12714,"tes":12715,"yd":12716,"omes":12717,"Ġtechnologies":12718,"Ġchapman":12719,"Ġ1851":12720,"Ġhazard":12721,"Ġabsolutely":12722,"Ġenhance":12723,"Ġgabriel":12724,"Ġgoverning":12725,"Ġscope":12726,"ishi":12727,"Ġwaterline":12728,"Ġbasil":12729,"canal":12730,"Ġsleeping":12731,"Ġgav":12732,"Ġprosecution":12733,"raid":12734,"Ã¡r":12735,"Ġbism":12736,"acement":12737,"Ġprose":12738,"Ġweird":12739,"Ġrepeat":12740,"Ġprocedures":12741,"Ġisotopes":12742,"Ġduches":12743,"Ġwash":12744,"Ġblade":12745,"Ġdepr":12746,"Ġescapes":12747,"Ġhayes":12748,"Ġdisappointment":12749,"Ġashes":12750,"Ġdisco":12751,"Ġholocaust":12752,"Ġcivilization":12753,"Ġhopkins":12754,"Ġaccuracy":12755,"Ġsophistic":12756,"Ġphylogen":12757,"Ġmumb":12758,"Ġstepped":12759,"umble":12760,"Ġgoeb":12761,"neum":12762,"Ġmineral":12763,"Ġinscription":12764,"Ġanglic":12765,"Ġprotective":12766,"Ġreconcil":12767,"atoes":12768,"Ġneighboring":12769,"Ġreferend":12770,"Ġguadalcanal":12771,"Ġdign":12772,"Ġnurse":12773,"Ġcement":12774,"Ġinspe":12775,"Ġ148":12776,"Ġdinosaur":12777,"Ġregret":12778,"Ġedgar":12779,"Ġguided":12780,"uchi":12781,"Ġcivic":12782,"Ġmomentum":12783,"Ġeurop":12784,"Ġinnovative":12785,"Ġspielberg":12786,"Ġfet":12787,"Ġdup":12788,"Ġbuzz":12789,"Ġdemocrat":12790,"Ġtraits":12791,"Ġspawned":12792,"Ġtrails":12793,"okes":12794,"Ġsubmit":12795,"Ġrequests":12796,"Ġbolton":12797,"Ġsynthesis":12798,"Ġunnamed":12799,"ook":12800,"Ġrises":12801,"Ġexceeded":12802,"Ġgraduation":12803,"Ġacadem":12804,"Ġslowed":12805,"Ġnationally":12806,"Ġincorporate":12807,"Ġkenny":12808,"Ġraiders":12809,"Ġimprisonment":12810,"Ġfletcher":12811,"lies":12812,"Ġbicy":12813,"Ġfake":12814,"Ġrely":12815,"stock":12816,"opp":12817,"Ġperformer":12818,"Ġeisenh":12819,"Ġlean":12820,"Ġears":12821,"Ġimped":12822,"rup":12823,"Ġbrandon":12824,"onsc":12825,"Ġsouthampton":12826,"Ġreadily":12827,"Ġstruggles":12828,"Ġpard":12829,"Ġshale":12830,"Ġlaura":12831,"Ġaval":12832,"Ġreds":12833,"Ġirre":12834,"Ġconvinc":12835,"ophone":12836,"Ġbangl":12837,"Ġrehabil":12838,"Ġphilosophical":12839,"Ġtrademark":12840,"Ġ136":12841,"Ġconcludes":12842,"Ġlig":12843,"Ġatoms":12844,"Ġvas":12845,"Ġshepher":12846,"ications":12847,"oud":12848,"Ġasyl":12849,"odia":12850,"Ġkeyboards":12851,"Ġvenus":12852,"Ġaffecting":12853,"Ġassume":12854,"cycl":12855,"Ġreflects":12856,"rified":12857,"Ġtongue":12858,"Ġdreadnought":12859,"Ġunpopular":12860,"Ġshout":12861,"pling":12862,"Ġthirds":12863,"Ġderiv":12864,"Ġnobility":12865,"Ġpatton":12866,"Ġtoss":12867,"Ġvand":12868,"Ġconsumed":12869,"Ġtheft":12870,"Ġstup":12871,"apa":12872,"ibal":12873,"Ġ133":12874,"Ġchoices":12875,"Ġnegotiated":12876,"Ġpreceded":12877,"Ġlocate":12878,"Ġrust":12879,"Ġposed":12880,"Ġarray":12881,"Ġdemolition":12882,"bage":12883,"Ġcombine":12884,"Ġilleg":12885,"Ġpredecessors":12886,"gro":12887,"kel":12888,"Ġtus":12889,"Ġecc":12890,"Ġpitching":12891,"Ġanthology":12892,"Ġhendrix":12893,"Ġalumni":12894,"Ġeisenhower":12895,"Ġbav":12896,"Ġemble":12897,"Ġdistances":12898,"Ġrealize":12899,"rews":12900,"Ġ370":12901,"Ġstomach":12902,"Ġlia":12903,"Ġathen":12904,"Ġrelevant":12905,"Ġcapabilities":12906,"Ġlimitations":12907,"cliffe":12908,"Ġbarber":12909,"Ġultr":12910,"Ġwals":12911,"Ġrespected":12912,"Ġcertific":12913,"Ġaltar":12914,"Ġgravel":12915,"Ġplacement":12916,"aul":12917,"Ġnebr":12918,"Ġcluster":12919,"Ġloos":12920,"Ġhammond":12921,"Ġargentine":12922,"Ġancestors":12923,"Ġecosystem":12924,"clamation":12925,"Ġconviction":12926,"Ġcrowds":12927,"kat":12928,"Ġlined":12929,"soon":12930,"Ġinfin":12931,"Ġrhode":12932,"Ġcubs":12933,"Ġsexuality":12934,"Ġstefani":12935,"Ġferguson":12936,"eit":12937,"Ġdigest":12938,"Ġclimax":12939,"Ġwarsaw":12940,"Ġhutch":12941,"Ġgore":12942,"ogical":12943,"Ġcorrespondence":12944,"Ġpose":12945,"Ġefficiency":12946,"Ġvarieties":12947,"Ġrussians":12948,"Ġbadge":12949,"Ġincorrect":12950,"Ġobservatory":12951,"Ġaltog":12952,"Ġyosh":12953,"Ġextant":12954,"Ġvictorious":12955,"Ġtrustees":12956,"Ġhatch":12957,"Ġaltogether":12958,"tershire":12959,"Ġacids":12960,"Ġlucy":12961,"Ġug":12962,"olics":12963,"Ġprecise":12964,"Ġethan":12965,"Ġdoubled":12966,"Ġsprint":12967,"Ġnamely":12968,"Ġbust":12969,"Ġspike":12970,"Ġmaturity":12971,"Ġsussex":12972,"Ġjeffrey":12973,"Ġcolumbus":12974,"Ġadoption":12975,"hurst":12976,"Ġdex":12977,"Ġretaining":12978,"Ġwillis":12979,"Ġbritney":12980,"Ġsettings":12981,"Ġinsect":12982,"Ġforgotten":12983,"Ġordin":12984,"Ġ260":12985,"Ġkicked":12986,"rimination":12987,"Ġwu":12988,"Ġinade":12989,"Ġkre":12990,"berger":12991,"Ġunderlying":12992,"Ġcastro":12993,"Ġsometime":12994,"Ġhaun":12995,"Ġconquered":12996,"iott":12997,"Ġhort":12998,"Ġhighlights":12999,"changes":13000,"Ġfranz":13001,"Ġgifts":13002,"Ġinadequ":13003,"kers":13004,"Ġcp":13005,"Ġnie":13006,"Ġriv":13007,"Ġtears":13008,"Ġamino":13009,"Ġfees":13010,"Ġsouthbound":13011,"Ġmorton":13012,"Ġsemif":13013,"Ġendorsed":13014,"Ġreynolds":13015,"uates":13016,"van":13017,"Ġbam":13018,"Ġterrible":13019,"Ġconcluding":13020,"Ġnc":13021,"Ġkor":13022,"Ġcran":13023,"Ġ142":13024,"Ġrankings":13025,"lemania":13026,"Ġrectang":13027,"nas":13028,"uania":13029,"Ġwillie":13030,"Ġsteering":13031,"Ġgoalkeeper":13032,"Ġachieving":13033,"Ġexcited":13034,"aic":13035,"isbury":13036,"Ġhighlands":13037,"Ġservants":13038,"Ġsecretly":13039,"Ġviolin":13040,"Ġtheoretical":13041,"Ġunhappy":13042,"Ġfountain":13043,"ben":13044,"jud":13045,"Ġstap":13046,"idian":13047,"Ġtrin":13048,"kson":13049,"Ġdepartments":13050,"Ġmunich":13051,"Ġsatisfied":13052,"Ġeugene":13053,"essa":13054,"Ġperception":13055,"Ġapprent":13056,"Ġannie":13057,"Ġfortified":13058,"Ġwrestlers":13059,"Ġcountryside":13060,"Ġivy":13061,"Ġconfronted":13062,"Ġlithuania":13063,"Ġabolished":13064,"Ġnebraska":13065,"Ġwan":13066,"Ġorch":13067,"Ġclash":13068,"Ġprimitive":13069,"Ġhomage":13070,"Ġlandsl":13071,"Ġtransformation":13072,"Ġgreeks":13073,"Ġyar":13074,"Ġschem":13075,"Ġcomprises":13076,"Ġmusically":13077,"Ġfails":13078,"Ġrecreational":13079,"Ġsubsidiary":13080,"jar":13081,"pur":13082,"vae":13083,"Ġpepper":13084,"Ġdeceased":13085,"Ġpawn":13086,"Ġpointing":13087,"Ġsolve":13088,"Ġresembles":13089,"Ġaccidents":13090,"iast":13091,"Ġactivated":13092,"ÅĦ":13093,"Ġseize":13094,"Ġformats":13095,"Ġboyd":13096,"Ġeaten":13097,"Ġpleasant":13098,"Ġbinding":13099,"lined":13100,"Ġdrawings":13101,"Ġcherry":13102,"oft":13103,"Ġphases":13104,"Ġsubc":13105,"Ġaccordance":13106,"Ġderek":13107,"Ġreferendum":13108,"itating":13109,"Ġrelax":13110,"Ġannoy":13111,"Ġdispos":13112,"Ġ1859":13113,"Ġdiocese":13114,"Ġlithuanian":13115,"icia":13116,"Ġballot":13117,"Ġorbital":13118,"Ġfol":13119,"Ġroc":13120,"Ġsubstantially":13121,"Ġdorsal":13122,"Ġwoll":13123,"Ġgenet":13124,"Ġrhys":13125,"Ġsafely":13126,"Ġprecurs":13127,"Ġcatholics":13128,"Ġnegotiate":13129,"ĠâĤ¬":13130,"Ġyang":13131,"Ġparan":13132,"Ġmedley":13133,"Ġstopping":13134,"Ġchronicles":13135,"ĠfranÃ§":13136,"Ġenacted":13137,"Ġtwins":13138,"Ġconcord":13139,"Ġbusinessman":13140,"Ã¡l":13141,"Ġcalendar":13142,"Ġlau":13143,"Ġalbeit":13144,"Ġlois":13145,"ãĥ¼":13146,"Ġshrine":13147,"Ġinherit":13148,"Ġbloom":13149,"bone":13150,"Ġlighth":13151,"Ġcoch":13152,"Ġfactions":13153,"Ġtotaled":13154,"criptions":13155,"ÅĽ":13156,"Ġstam":13157,"Ġathe":13158,"Ġstew":13159,"shi":13160,"Ġmemoirs":13161,"idel":13162,"iolet":13163,"Ġsalam":13164,"jord":13165,"Ġrept":13166,"Ġalpine":13167,"ipel":13168,"Ġmillimetres":13169,"Ġsalisbury":13170,"Ġavailability":13171,"Ġboarding":13172,"Ġsandstone":13173,"Ġdecommissioned":13174,"yth":13175,"Ġnd":13176,"Ġcanber":13177,"Ġgeographical":13178,"Ġrobertson":13179,"Ġscorer":13180,"Ġ1200":13181,"Ġgeological":13182,"Ġ139":13183,"Ġcareers":13184,"Ġcoul":13185,"Ġresolve":13186,"Ġspont":13187,"Ġwend":13188,"Ġfraser":13189,"ictions":13190,"Ġarchives":13191,"Ġconception":13192,"Ġpapal":13193,"Ġruther":13194,"Ġswall":13195,"Ġwelcom":13196,"Ġancestry":13197,"Ġjoyce":13198,"Ġsparrow":13199,"drop":13200,"Ġtheor":13201,"Ġsuz":13202,"Ġcolomb":13203,"Ġeffectiveness":13204,"Ġmotivated":13205,"Ġcontroller":13206,"Ġimagination":13207,"Ġsg":13208,"Ġlg":13209,"Ġnim":13210,"Ġstur":13211,"abling":13212,"ructed":13213,"Ġblaine":13214,"Ġmedian":13215,"Ġthinks":13216,"Ġgly":13217,"Ġeditors":13218,"Ġreceiver":13219,"Ġclearing":13220,"inely":13221,"Ġhiv":13222,"Ġcaptive":13223,"Ġinflicted":13224,"Ġpropulsion":13225,"Ġtorres":13226,"Ġlinda":13227,"Ġphilippine":13228,"Ġpipe":13229,"Ġtrucks":13230,"Ġcommodore":13231,"Ġjoel":13232,"Ġconductor":13233,"Ġexpend":13234,"Ġlawyers":13235,"Ġmorale":13236,"Ġpollution":13237,"Ġcomparisons":13238,"Ġintercepted":13239,"vik":13240,"Ġoath":13241,"Ġpneum":13242,"Ġcaliph":13243,"agonists":13244,"Ġ1845":13245,"Ġmagnific":13246,"Ġabolition":13247,"Ġdescriptions":13248,"Ġsunderland":13249,"riet":13250,"imeters":13251,"Ġhamburg":13252,"Ġcroc":13253,"Ġfarther":13254,"Ġkaren":13255,"Ġtrigg":13256,"Ġangela":13257,"Ġslee":13258,"Ġreproduction":13259,"Ġasylum":13260,"Ġdiction":13261,"aceae":13262,"Ġblaz":13263,"Ġadmired":13264,"Ġmortal":13265,"Ġisolation":13266,"Ġaccelerated":13267,"Ġtyrann":13268,"bul":13269,"âģĦ":13270,"Ġcogn":13271,"Ġgott":13272,"adic":13273,"Ġsteal":13274,"Ġcommands":13275,"Ġintroduces":13276,"Ġexhibits":13277,"Ġtendency":13278,"Ġjenna":13279,"gun":13280,"orp":13281,"Ġstrick":13282,"Ġkun":13283,"Ġbrighton":13284,"Ġfow":13285,"Ġoperators":13286,"Ġvisuals":13287,"Ġorganisations":13288,"Ġrubber":13289,"itic":13290,"ĠmÃ¼":13291,"Ġanders":13292,"Ġquinn":13293,"Ġacute":13294,"Ġfoundations":13295,"Ġadmission":13296,"iji":13297,"Ġpolls":13298,"Ġriaa":13299,"Ġbened":13300,"ĠâĢĺ":13301,"agonal":13302,"Ġdominican":13303,"Ġwhitney":13304,"Ġæ":13305,"Ġtul":13306,"Ġrealised":13307,"Ġclem":13308,"Ġinteg":13309,"Ġmanuscripts":13310,"11":13311,"ilia":13312,"Ġshed":13313,"Ġausten":13314,"Ġconquer":13315,"Ġtimberlake":13316,"Ġpike":13317,"roke":13318,"Ġveto":13319,"Ġabstr":13320,"Ġmatched":13321,"Ġinsight":13322,"Ġwatches":13323,"Ġdenomin":13324,"Ġorchestr":13325,"Ġcowboy":13326,"Ġwang":13327,"Ġgills":13328,"Ġlarvae":13329,"Ġnorton":13330,"Ġbowler":13331,"Ġconservatives":13332,"Ġarabian":13333,"Ġelliott":13334,"Ġbutterfly":13335,"Ġundergraduate":13336,"cat":13337,"aru":13338,"Ġspear":13339,"Ġbuenos":13340,"Ġreliable":13341,"Ġzinc":13342,"Ġincorporating":13343,"Ġshawn":13344,"Ġportsmouth":13345,"isch":13346,"omorph":13347,"Ġkann":13348,"Ġdayton":13349,"Ġ147":13350,"Ġdominance":13351,"Ġavoiding":13352,"Ġespn":13353,"Ġmcmah":13354,"Ġremarks":13355,"ĠãĤ":13356,"Ġdrops":13357,"Ġcaesar":13358,"bane":13359,"ui":13360,"Ġdull":13361,"Ġaveraging":13362,"Ġhik":13363,"Ġgand":13364,"Ġshapes":13365,"Ġtwist":13366,"Ġsuperhero":13367,"Ġpresenting":13368,"Ġscotia":13369,"Ġaccounting":13370,"Ġclinical":13371,"iatus":13372,"Ġpetersburg":13373,"Ġborrowed":13374,"Ġcommended":13375,"Ġdepress":13376,"Ġforbes":13377,"Ġdear":13378,"Ġretiring":13379,"Ġlegally":13380,"Ġdurham":13381,"Ġkerr":13382,"Ġeccentric":13383,"vas":13384,"Ġplent":13385,"Ġcurric":13386,"Ġ....":13387,"Ġlyrically":13388,"Ġfavoured":13389,"Ġhugo":13390,"Ġsaves":13391,"Ġstake":13392,"Ġdowned":13393,"Ġsalmon":13394,"Ġaccepting":13395,"Ġambig":13396,"Ġdepends":13397,"Ġinev":13398,"Ġpatroll":13399,"Ġfuller":13400,"Ġkrish":13401,"Ġpartisan":13402,"Ġpuzzles":13403,"Ġduchess":13404,"armed":13405,"Ġvene":13406,"Ġende":13407,"Ġbreath":13408,"Ġdetermination":13409,"child":13410,"Ġfins":13411,"Ã©r":13412,"Ġnationwide":13413,"Ġ1820":13414,"Ġclaud":13415,"Ġscandin":13416,"Ġbibl":13417,"Ġattributes":13418,"Ġsicily":13419,"Ġauxiliary":13420,"itory":13421,"ithm":13422,"Ġwhenever":13423,"Ġsms":13424,"Ġsingh":13425,"Ġgeographic":13426,"ylon":13427,"Ġactivist":13428,"Ġmagnet":13429,"Ġastronomical":13430,"Ġferrari":13431,"Ġmonitoring":13432,"Ġwong":13433,"Ġeject":13434,"Ġslopes":13435,"Ġcolleague":13436,"Ġhallow":13437,"Ġcommissioners":13438,"Ġgardner":13439,"Ġgalile":13440,"Ġpeaceful":13441,"Ġworthy":13442,"Ġpoisoning":13443,"Ġsovereignty":13444,"ections":13445,"oton":13446,"Ġgovernors":13447,"Ġhumph":13448,"Ġwebber":13449,"Ïģ":13450,"Ġtired":13451,"Ġstab":13452,"estock":13453,"Ġamber":13454,"Ġindie":13455,"ikh":13456,"Ġimmort":13457,"Ġremixes":13458,"Ġsink":13459,"Ġrats":13460,"Ġrovers":13461,"Ġstrain":13462,"Ġcolleg":13463,"Ġtestament":13464,"Ġresponses":13465,"Ġimplementation":13466,"Ġomaha":13467,"Ġdodgers":13468,"gence":13469,"roft":13470,"Ġpharm":13471,"Ġharder":13472,"boro":13473,"Ġphysic":13474,"Ġscripts":13475,"Ġpriests":13476,"Ġlance":13477,"Ġnumer":13478,"Ġpersisted":13479,"ÅĤaw":13480,"Ġconfiguration":13481,"Ġtrop":13482,"Ġwigg":13483,"Ġbf":13484,"ovan":13485,"Ġdisk":13486,"Ġspecified":13487,"Ġhappens":13488,"Ġdissent":13489,"Ġshelters":13490,"Ġtherm":13491,"fold":13492,"oan":13493,"Ġcly":13494,"Ġgur":13495,"Ġexagger":13496,"Ġmillimeter":13497,"Ġbritt":13498,"Ġgoverned":13499,"Ġfurious":13500,"Ġtaun":13501,"Ġbacon":13502,"Ġbahamas":13503,"Ġthermal":13504,"Ġcelest":13505,"Ġthunderstorms":13506,"oro":13507,"Ġmerg":13508,"rock":13509,"Ġzomb":13510,"retion":13511,"Ġcharting":13512,"Ġexplicitly":13513,"Ġrer":13514,"keys":13515,"Ġguys":13516,"Ġvalued":13517,"Ġresponsibilities":13518,"Ġimmune":13519,"Ġti":13520,"Ġleaked":13521,"Ġenthusias":13522,"Ġaspir":13523,"irmed":13524,"Ġja":13525,"Ġinstallment":13526,"Ġquantum":13527,"Ġlunch":13528,"Ġjoshua":13529,"Ġcanberra":13530,"orus":13531,"Ġkend":13532,"arte":13533,"Ġovertime":13534,"Ġaccent":13535,"Ġstriker":13536,"Ġsiblings":13537,"Ġmumbai":13538,"Ġcompart":13539,"Ġvisitor":13540,"Ġ1854":13541,"Ġspirits":13542,"Ġwrestlemania":13543,"Ġtalked":13544,"Ġaccommodation":13545,"Ġintentions":13546,"Ġconsort":13547,"Ġmagist":13548,"Ġtournaments":13549,"Ġcontemporaries":13550,"xton":13551,"Ġbm":13552,"omer":13553,"Ġperforms":13554,"Ġexpelled":13555,"Ġdevils":13556,"Ġactivists":13557,"Ġcommittees":13558,"Ġfrog":13559,"Ġreunited":13560,"Ġneighborhoods":13561,"Ġlecture":13562,"Ġnitrogen":13563,"uana":13564,"Î¹":13565,"Ġspor":13566,"Ġmonica":13567,"Ġdiscrimination":13568,"Ġprussia":13569,"Ġpoul":13570,"Ġnme":13571,"Ġyank":13572,"Ġfreestyle":13573,"rina":13574,"igious":13575,"sover":13576,"Ġoutlets":13577,"Ġepid":13578,"Ġshortened":13579,"Ġ1857":13580,"Ġpearson":13581,"unciation":13582,"Ġia":13583,"Ġdol":13584,"acco":13585,"ellers":13586,"Ġpoetic":13587,"Ġresource":13588,"Ġfrigates":13589,"Ġrutherford":13590,"Ġengr":13591,"Ġprimetime":13592,"Ġradioactive":13593,"marks":13594,"Ġflora":13595,"Ġrhine":13596,"Ġensured":13597,"Ġorbits":13598,"Ġaccumulated":13599,"hey":13600,"Ġregener":13601,"Ġsaff":13602,"Ġlopez":13603,"Ġambul":13604,"Ġfinancially":13605,"Ġcertifications":13606,"Ġrebuilding":13607,"Ġregistration":13608,"Ġcriteria":13609,"lon":13610,"Ġtailed":13611,"Ġshocked":13612,"Ġpoets":13613,"Ġhelium":13614,"Ġunwilling":13615,"Ġsued":13616,"Ġoverha":13617,"Ġinterim":13618,"Ġsyrian":13619,"Ġdisturbed":13620,"Ġcrater":13621,"Ġinvestigating":13622,"Ġiconic":13623,"mir":13624,"Ġaires":13625,"ilis":13626,"Ġnewark":13627,"Ġoversee":13628,"Ġsomebody":13629,"hyd":13630,"Ġconvoys":13631,"Ġtornadoes":13632,"Ġtragedy":13633,"Ġà":13634,"Ġtampa":13635,"Ġfalk":13636,"Ġdiana":13637,"ounce":13638,"Ġlaunching":13639,"Ġreunion":13640,"Ġguidance":13641,"Ġlent":13642,"ady":13643,"Ġsounded":13644,"Ġbenz":13645,"Ġnortheastward":13646,"Ġroofs":13647,"care":13648,"oufl":13649,"Ġintrig":13650,"Ġboards":13651,"Ġminers":13652,"Ġrevenues":13653,"Ġoppen":13654,"Ġcasc":13655,"Ġpitt":13656,"Ġdisagreed":13657,"Ġlivestock":13658,"Ġenthusiasm":13659,"aid":13660,"Ġdining":13661,"Ġgag":13662,"Ġholden":13663,"Ġexpressing":13664,"Ġlinking":13665,"Ġprominence":13666,"Ġsymbolic":13667,"Ġcontinuously":13668,"Ġrejoined":13669,"dal":13670,"ĠnÃ©e":13671,"Ġdevelops":13672,"Ġsuperv":13673,"Ġtense":13674,"Ġhr":13675,"empl":13676,"quin":13677,"Ġvalve":13678,"Ġconfrontation":13679,"bin":13680,"Ġdoz":13681,"Ġolive":13682,"ovakia":13683,"Ġenlarged":13684,"enary":13685,"Ġpony":13686,"Ġinability":13687,"Ġlich":13688,"Ġhers":13689,"Ġnewer":13690,"Ġfratern":13691,"Ġportal":13692,"Ġpatric":13693,"Ġscreened":13694,"Ġnarrowly":13695,"Ġbiblical":13696,"Ġbury":13697,"Ġamal":13698,"Ġsupernatural":13699,"Ġlowered":13700,"Ġdiá»ĩ":13701,"Ġportrays":13702,"Ġjesse":13703,"Ġlaser":13704,"Ġwages":13705,"Ġmaker":13706,"anor":13707,"Ġlucky":13708,"Ġwhip":13709,"Ġwheels":13710,"Ġregain":13711,"Ġorganize":13712,"Ġtelevised":13713,"Ġjudged":13714,"Ġdanube":13715,"Ġpersuade":13716,"Ġaunt":13717,"Ġleis":13718,"Ã©l":13719,"Ġillumin":13720,"Ġhotels":13721,"Ġcruz":13722,"Ġdedication":13723,"Ġdiá»ĩm":13724,"inos":13725,"icles":13726,"Ġperipher":13727,"Ġsegreg":13728,"Ġrelegated":13729,"onscious":13730,"tor":13731,"Ġwhis":13732,"Ġcompton":13733,"Ġgrandmother":13734,"Ġpursuing":13735,"Ġbeside":13736,"Ġprolong":13737,"Ġantarctic":13738,"Ġporn":13739,"Ġwors":13740,"Ġcapcom":13741,"Ġinvention":13742,"Ġsmallest":13743,"Ġviewer":13744,"Ġnarrator":13745,"Ġbrom":13746,"opl":13747,"Ġplas":13748,"Ġfreely":13749,"Ġrainbow":13750,"Ġcollectively":13751,"Ġdexter":13752,"Ġmcmahon":13753,"tender":13754,"Ġbrock":13755,"Ġstafford":13756,"Ġ320":13757,"Ġpsyched":13758,"Ġodds":13759,"Ġrows":13760,"Ġimagine":13761,"Ġlectures":13762,"Ġsanctuary":13763,"Ġheating":13764,"Ġtrim":13765,"Ġentries":13766,"Ġshipments":13767,"Ġeighteenth":13768,"Ġcosta":13769,"Ġknowles":13770,"Ġcompanions":13771,"Ġsympathetic":13772,"ailand":13773,"Ġcedar":13774,"Ġhannah":13775,"Ġencycl":13776,"Ġapoc":13777,"auer":13778,"Ġcasem":13779,"Ġadriatic":13780,"itational":13781,"ifax":13782,"Ġframes":13783,"Ġshortage":13784,"Ġexcluded":13785,"Ġbubble":13786,"Ġecclesiast":13787,"Ġbangladesh":13788,"swick":13789,"Ġmits":13790,"Ġthailand":13791,"Ġstun":13792,"Ġabrupt":13793,"Ġcunning":13794,"idity":13795,"Ġjaws":13796,"aird":13797,"ropods":13798,"Ġmakeup":13799,"Ġsitcom":13800,"Ġashley":13801,"Ġcooking":13802,"Ġinterface":13803,"Ġbattlecruiser":13804,"Ġwade":13805,"Ġmating":13806,"Ġgaza":13807,"Ġclad":13808,"Ġdeclining":13809,"Ġbedroom":13810,"Ġ550":13811,"Ġrecommendation":13812,"Ġconsolidated":13813,"Ġresurre":13814,
[...]
