{"<pad>":0,"<s>":1,"</s>":2,"!":3,"\"":4,"#":5,"$":6,"%":7,"&":8,"'":9,"(":10,")":11,"*":12,"+":13,",":14,"-":15,".":16,"/":17,"0":18,"1":19,"2":20,"3":21,"4":22,"5":23,"6":24,"7":25,"8":26,"9":27,":":28,";":29,"<":30,"=":31,">":32,"?":33,"@":34,"A":35,"B":36,"C":37,"D":38,"E":39,"F":40,"G":41,"H":42,"I":43,"J":44,"K":45,"L":46,"M":47,"N":48,"O":49,"P":50,"Q":51,"R":52,"S":53,"T":54,"U":55,"V":56,"W":57,"X":58,"Y":59,"Z":60,"[":61,"\\":62,"]":63,"^":64,"_":65,"`":66,"a":67,"b":68,"c":69,"d":70,"e":71,"f":72,"g":73,"h":74,"i":75,"j":76,"k":77,"l":78,"m":79,"n":80,"o":81,"p":82,"q":83,"r":84,"s":85,"t":86,"u":87,"v":88,"w":89,"x":90,"y":91,"z":92,"{":93,"|":94,"}":95,"~":96,"¡":97,"¢":98,"£":99,"¤":100,"¥":101,"¦":102,"§":103,"¨":104,"©":105,"ª":106,"«":107,"¬":108,"®":109,"¯":110,"°":111,"±":112,"²":113,"³":114,"´":115,"µ":116,"¶":117,"·":118,"¸":119,"¹":120,"º":121,"»":122,"¼":123,"½":124,"¾":125,"¿":126,"À":127,"Á":128,"Â":129,"Ã":130,"Ä":131,"Å":132,"Æ":133,"Ç":134,"È":135,"É":136,"Ê":137,"Ë":138,"Ì":139,"Í":140,"Î":141,"Ï":142,"Ð":143,"Ñ":144,"Ò":145,"Ó":146,"Ô":147,"Õ":148,"Ö":149,"×":150,"Ø":151,"Ù":152,"Ú":153,"Û":154,"Ü":155,"Ý":156,"Þ":157,"ß":158,"à":159,"á":160,"â":161,"ã":162,"ä":163,"å":164,"æ":165,"ç":166,"è":167,"é":168,"ê":169,"ë":170,"ì":171,"í":172,"î":173,"ï":174,"ð":175,"ñ":176,"ò":177,"ó":178,"ô":179,"õ":180,"ö":181,"÷":182,"ø":183,"ù":184,"ú":185,"û":186,"ü":187,"ý":188,"þ":189,"ÿ":190,"Ā":191,"ā":192,"Ă":193,"ă":194,"Ą":195,"ą":196,"Ć":197,"ć":198,"Ĉ":199,"ĉ":200,"Ċ":201,"ċ":202,"Č":203,"č":204,"Ď":205,"ď":206,"Đ":207,"đ":208,"Ē":209,"ē":210,"Ĕ":211,"ĕ":212,"Ė":213,"ė":214,"Ę":215,"ę":216,"Ě":217,"ě":218,"Ĝ":219,"ĝ":220,"Ğ":221,"ğ":222,"Ġ":223,"ġ":224,"Ģ":225,"ģ":226,"Ĥ":227,"ĥ":228,"Ħ":229,"ħ":230,"Ĩ":231,"ĩ":232,"Ī":233,"ī":234,"Ĭ":235,"ĭ":236,"Į":237,"į":238,"İ":239,"ı":240,"Ĳ":241,"ĳ":242,"Ĵ":243,"ĵ":244,"Ķ":245,"ķ":246,"ĸ":247,"Ĺ":248,"ĺ":249,"Ļ":250,"ļ":251,"Ľ":252,"ľ":253,"Ŀ":254,"ŀ":255,"Ł":256,"ł":257,"Ń":258,"Ġd":259,"es":260,"Ã©":261,"Ġl":262,"on":263,"en":264,"Ġp":265,"ti":266,"Ġc":267,"Ġ<":268,"Ġde":269,"an":270,"Ġs":271,"Ġa":272,"re":273,"er":274,"ent":275,"ur":276,"tion":277,"in":278,"qu":279,"is":280,"Ġe":281,"Ġla":282,"it":283,"Ġ</":284,"Ġm":285,"ra":286,"Ġet":287,"le":288,"Ġdes":289,"ou":290,"or":291,"ar":292,"un":293,"Ġle":294,"Ġles":295,"Ġt":296,"ment":297,"Ġpr":298,"ĠÃ":299,"ation":300,"Ġn":301,"Ġqu":302,"Ġf":303,"om":304,"ĠÃł":305,"Ġr":306,"te":307,"il":308,"âĢ":309,"Ġen":310,"Ġcon":311,"Ġau":312,"our":313,"Ã©s":314,"ant":315,"al":316,"Ġdu":317,"el":318,"âĢĻ":319,"Ã¨":320,"ic":321,"ĠÃ©":322,"Ġun":323,"si":324,"Ġv":325,"Ġpar":326,"au":327,"ta":328,"ce":329,"Ġpro":330,"ans":331,"Ġin":332,"ir":333,"Ġcom":334,"me":335,"ĠdÃ©":336,"Ġg":337,"Ġb":338,"ement":339,"tÃ©":340,"Ġpour":341,"Ġre":342,"ri":343,"us":344,"ont":345,"ci":346,"li":347,"pp":348,"ec":349,"as":350,"que":351,"Ġdans":352,"ire":353,"Ġque":354,"tre":355,"ch":356,"Ġsur":357,"ĠrÃ©":358,"Ġ(":359,"itÃ©":360,"Ġ1":361,"00":362,"et":363,"est":364,"Ġ2":365,"di":366,"se":367,"res":368,"les":369,"ro":370,"la":371,"tu":372,"ff":373,"ol":374,"Ġj":375,"mp":376,"onn":377,"ter":378,"Ġo":379,"Ġune":380,"eu":381,"de":382,"ouv":383,"ts":384,"Ã©e":385,"Ġqui":386,"ac":387,"ag":388,"iv":389,"Ġav":390,"ous":391,"ations":392,"ers":393,"ons":394,"Ġpl":395,"os":396,"ces":397,"Ġch":398,"ale":399,"Ã©es":400,"urs":401,"Ġaux":402,"ie":403,"Ġou":404,"Ġest":405,"Ġfa":406,"ul":407,"ad":408,"tions":409,"ig":410,"Ġh":411,"tiv":412,"Ġex":413,"ques":414,"mes":415,"pÃ©":416,"Ġsu":417,"pr":418,"Ġcomm":419,"du":420,"Ġac":421,"ne":422,"ab":423,"mb":424,"Ġpa":425,"aux":426,"ort":427,"Ġma":428,"Ã¨re":429,"Ġ200":430,"Ġra":431,"Ġmo":432,"end":433,"Ġil":434,"elle":435,"ires":436,"sion":437,"Ġce":438,"and":439,"Ġcan":440,"orm":441,"tr":442,"Ġtra":443,"Ã©n":444,"cu":445,"tif":446,"Ġse":447,"ins":448,"Ġpo":449,"Ġpas":450,"Ġparti":451,"Ãª":452,"ance":453,"Ġser":454,"ten":455,"rÃ©":456,"tes":457,"Ġcons":458,"ction":459,"gra":460,"min":461,"id":462,"Ġplus":463,"at":464,"Ġso":465,"ĠÃ©ta":466,"ys":467,"Ã©ra":468,"Ġsont":469,"ence":470,"gi":471,"ient":472,"ex":473,"iss":474,"ĠprÃ©":475,"Ġi":476,"Ġtr":477,"entre":478,"Ġinter":479,"tra":480,"ants":481,"ens":482,"itÃ©s":483,"Ã©r":484,"une":485,"Ã¨s":486,"Ġtou":487,"aire":488,"Ġapp":489,"Ġ:":490,"ue":491,"Ġont":492,"Ġcomp":493,"ĠÂ":494,"ord":495,"ven":496,"lo":497,"its":498,"aires":499,"ern":500,"lÃ©":501,"Ġan":502,"ĠprÃ©s":503,"Ġdis":504,"ite":505,"Ġne":506,"Ġgr":507,"Ġavec":508,"Ġdo":509,"Ġsa":510,"ise":511,"Ġno":512,"Ġli":513,"ĠÃ©tÃ©":514,"ĠrÃ©s":515,"lement":516,"Ġco":517,"Ġcet":518,"ĠâĢ":519,"Ġres":520,"org":521,"bl":522,"ure":523,"va":524,"ine":525,"pe":526,"Ġconc":527,"form":528,"tres":529,"ada":530,"ĠdÃ©c":531,"ique":532,"anis":533,"Ġ3":534,"Ġpu":535,"oir":536,"am":537,"ales":538,"ond":539,"oc":540,"ge":541,"jet":542,"ration":543,"Ġdro":544,"ign":545,"Ġ19":546,"ication":547,"Ġserv":548,"Ġpeu":549,"elles":550,"age":551,"ux":552,"Ġces":553,"Ġper":554,"ements":555,"Ġrapp":556,"Ã´":557,"ion":558,"Ġcanada":559,"Ġsi":560,"Ġad":561,"Ġentre":562,"ures":563,"Ġpers":564,"teur":565,"che":566,"ait":567,"tique":568,"Ġmar":569,"ĠsÃ©":570,"po":571,"gram":572,"Ã¨me":573,"ĠÃª":574,"um":575,"Ġsec":576,"Ġdi":577,"ve":578,"tri":579,"ss":580,"Ġ-":581,"bli":582,"ture":583,"Ã©d":584,"organis":585,"Ġfin":586,"ph":587,"ĠÃªtre":588,"Ġcette":589,"ille":590,"Ġservic":591,"Ġprogram":592,"ĠgÃ©n":593,"emp":594,"Ġnous":595,"titu":596,"Ġca":597,"..":598,"Ġpersonn":599,"Ġintern":600,"til":601,"cip":602,"teurs":603,"Ġme":604,"Ġmin":605,"tin":606,"eau":607,"ier":608,"app":609,"ang":610,"Ġsou":611,"ours":612,"Ġeff":613,"Ġren":614,"Ġpays":615,"Ġrec":616,"Ġses":617,"Ġter":618,"tiques":619,"Ã©ri":620,"Ġnom":621,"opp":622,"Ġar":623,"vel":624,"Ġcommun":625,"ĠgÃ©nÃ©ra":626,"ission":627,"Ġimp":628,"Ġins":629,"els":630,"ist":631,"ĠdÃ©p":632,"bre":633,"Ġinternation":634,"Ġleur":635,"velopp":636,"opÃ©":637,"ĠprÃ©sent":638,"able":639,"Ġmes":640,"Ġprodu":641,"estion":642,"__":643,"seil":644,"ande":645,"Ġtrava":646,"ĠdÃ©velopp":647,"Ġconseil":648,"Ġ4":649,"Ġbi":650,"Ã©g":651,"Ġson":652,"Ġlo":653,"Ã¨res":654,"Ã©ta":655,"ĠâĢ¢":656,"Ġob":657,"ies":658,"Ġtrans":659,"Ġdonn":660,"ĠÂ«":661,"ouvern":662,"fin":663,"Ġnouv":664,"tic":665,"ble":666,"Ġ5":667,"Ġcomme":668,"Ġdire":669,"ari":670,"adi":671,"Ġvo":672,"Ġdem":673,"ments":674,"rer":675,"Ġsoci":676,"enne":677,"tive":678,"isation":679,"ui":680,"to":681,"Ġmon":682,"ici":683,"Ã§":684,"util":685,"Ġpos":686,"Ġconf":687,"cess":688,"Ġgouvern":689,"ĠÃ©c":690,").":691,"ĠrÃ©p":692,"ors":693,"iques":694,"Ġnation":695,"Ġy":696,"ĠrÃ©gi":697,"ut":698,"ĠdÃ©veloppement":699,"omm":700,"),":701,"Ġtravail":702,"eur":703,"Ġfor":704,"op":705,"ines":706,"Ġservices":707,"Ġprojet":708,"Ġes":709,"Ġrapport":710,"Ġfait":711,"ica":712,"Ġacc":713,"Ġpoli":714,"ents":715,"Ġal":716,"alement":717,"ĠÃ©g":718,"Ġdev":719,"av":720,"Ġw":721,"Ġmemb":722,"ises":723,"ice":724,"th":725,"posi":726,"ix":727,"Ġcol":728,"ution":729,"tru":730,"tives":731,"im":732,"tifs":733,"Ġel":734,"ass":735,"Ġ199":736,"Ġgrou":737,"Ġti":738,"Ġpre":739,"ourn":740,"ard":741,"Ġcer":742,"eux":743,"bil":744,"Ġorganis":745,"Ġeur":746,"Ġcommission":747,"onom":748,"Ġcanadi":749,"int":750,"ĠmÃ©":751,"met":752,"Ġje":753,"Ġresp":754,"iÃ¨re":755,"lec":756,"Ġon":757,"Ġdeux":758,"Ġdroits":759,"Ġat":760,"rit":761,"cher":762,"Ã¨g":763,"Ġnon":764,"Ġain":765,"des":766,"Ġainsi":767,"Ġass":768,"Ġann":769,"ĠÃ©tats":770,"Ġprop":771,"Ġfond":772,"Ġprogramme":773,"antÃ©":774,"Ġmil":775,"lu":776,"200":777,"ante":778,"Ġvous":779,"uation":780,"Ġam":781,"Ġ6":782,"aut":783,"Ġform":784,"val":785,"Ġcha":786,"ois":787,"Ġvis":788,"Ġdiff":789,"olo":790,"Ġgouvernement":791,"enn":792,"ĠsantÃ©":793,"Ãł":794,"Ġexp":795,"hn":796,"Ġsys":797,"Ġtous":798,"ĠÂ»":799,"cur":800,"bles":801,"Ġnombre":802,"Ãªme":803,"Ġpeut":804,"Ġdirec":805,"Ġmais":806,"tis":807,"tÃ©ri":808,"trib":809,"Ġprin":810,"tivitÃ©s":811,"Ġk":812,"ĠcomitÃ©":813,"tÃ©g":814,"acc":815,"alitÃ©":816,"Ġmembres":817,"Ġju":818,"Ġleurs":819,"ente":820,"Ġpla":821,"Ġsuiv":822,"prÃ¨s":823,"ticle":824,"Ġfon":825,"vention":826,"Ġth":827,"Ġrepr":828,"vir":829,"Ġrela":830,"ĠcrÃ©":831,"ais":832,"co":833,"orts":834,"ĠrÃ¨g":835,"Ġcerta":836,"pÃ©ci":837,"Ġsous":838,"ob":839,"graph":840,"Ġsyst":841,"Ġprem":842,"sions":843,"ĠsÃ©cur":844,"endre":845,"semb":846,"ues":847,"ĠÃ©galement":848,"Ġcas":849,"ĠspÃ©ci":850,"Ġfaire":851,"ĠnÃ©":852,"ences":853,"mbre":854,"Ġman":855,"vis":856,"ĠeuropÃ©":857,"vent":858,"ill":859,"Ġnations":860,"ĠsÃ©curitÃ©":861,"Ġlors":862,"tant":863,"Ã®":864,"tionn":865,"Ġcompr":866,"Ġautres":867,"em":868,"alis":869,"if":870,"Ġtout":871,"tiÃ¨re":872,"Ġoff":873,"Ġloi":874,"Ġ7":875,"Ġutil":876,"rait":877,"Ã£":878,"Ġtec":879,"Ġvi":880,"Ã»":881,"Ġsit":882,"ma":883,"Ġtechn":884,"Ġpara":885,"Ġcad":886,"autres":887,"Ġgestion":888,"vre":889,"Ġaus":890,"Ġ9":891,"ances":892,"enti":893,"Ġ%":894,"Ġconcern":895,"ĠreprÃ©s":896,"formation":897,"erv":898,"cep":899,"mis":900,"Ġfourn":901,"seign":902,"ĠmÃªme":903,"Ġpubl":904,"onnement":905,"Ġcontre":906,"ources":907,"Ġrecher":908,"Ã¢":909,"vo":910,"ing":911,"ivers":912,"Ġ8":913,"Ġjus":914,"Ġdroit":915,"Ġind":916,"mment":917,"Ġdocu":918,"lab":919,"Ġparticu":920,"tement":921,"Ġmesures":922,"Ġimport":923,"Ã©li":924,"minis":925,"par":926,"Ġbien":927,"Ġplan":928,"ulta":929,"ĠÃ©conom":930,"aient":931,"ud":932,"ĠrÃ©gion":933,"Ġelle":934,"Ġress":935,"ĠactivitÃ©s":936,"uer":937,"Ġparticip":938,"jec":939,"for":940,"Ġgroupe":941,"Ġpermet":942,"Ġprincip":943,"Ġparticuli":944,"Ġaussi":945,"cer":946,"ils":947,"Ġto":948,"oma":949,"Ġaff":950,"pa":951,"Ġpartie":952,"iti":953,"ide":954,"Ġag":955,"olution":956,"lar":957,"Ġdont":958,"oci":959,"Ġtoute":960,"Ġunies":961,"cÃ©":962,"Ġcadre":963,"Ġmise":964,"ouver":965,"Â©":966,"Ġpersonnes":967,"Ã©qu":968,"Ġfonction":969,"Ġfr":970,"ĠdÃ©cis":971,"Ġcap":972,"Ġafin":973,"Ġdoit":974,"tÃ©s":975,"Ġten":976,"Ġfinan":977,"ĠnÃ©cess":978,"Ġsta":979,"Ġmarch":980,"Ġaut":981,"Ġniv":982,"Ġdemande":983,"ĠreprÃ©sent":984,"imp":985,"Ġindi":986,"antes":987,"Ġcor":988,"article":989,"ca":990,"Ġfem":991,"Ġ0":992,"Ã´le":993,"cri":994,"exp":995,"ĠgÃ©nÃ©ral":996,"Ġcours":997,"Ã©tÃ©":998,"____":999,"Ġpubli":1000,"Ġpublic":1001,"Ġutilis":1002,"sid":1003,"ables":1004,"eurs":1005,"Ġph":1006,"Ġmoy":1007,"ĠprÃ©sid":1008,"endant":1009,"Ġbas":1010,"ate":1011,"Ã©rence":1012,"vironnement":1013,"Ġemp":1014,"ĠmatiÃ¨re":1015,"Ġcar":1016,"Ġcompte":1017,"Ġcel":1018,"iÃ¨me":1019,"union":1020,"Ġcour":1021,"ct":1022,"ĠdonnÃ©es":1023,"ind":1024,"Ġver":1025,"Ġcommer":1026,"Ġtro":1027,"ions":1028,"estions":1029,"ministra":1030,"Ġprof":1031,"Ġdisposi":1032,"Ġrecherche":1033,"Ġcl":1034,"Ġmen":1035,"Ġstra":1036,"iste":1037,"voir":1038,"mo":1039,"ĠtÃ©":1040,"Ġinc":1041,"Ġdur":1042,"ves":1043,"ĠsystÃ¨me":1044,"Ġchar":1045,"iter":1046,"ez":1047,"Ġsoit":1048,"Ġressources":1049,"Ġmont":1050,"tection":1051,"Ã¨mes":1052,"information":1053,"Ġpolitique":1054,"Ġprogrammes":1055,"Ġquestions":1056,"ĠrÃ©g":1057,"tal":1058,"pes":1059,"taire":1060,"ong":1061,"entes":1062,"Ġsans":1063,"ivent":1064,"Ġparagraph":1065,"Ġpossi":1066,"Ġquestion":1067,"Ġ10":1068,"labo":1069,"abil":1070,"Ġconcernant":1071,"Ġpouv":1072,"ĠrÃ¨glement":1073,"Ġavant":1074,"mÃ©":1075,"Ġsub":1076,"Ġcontrib":1077,"ĠsecrÃ©":1078,"cÃ©d":1079,"tamment":1080,"pu":1081,"Ġproduits":1082,"....":1083,"elon":1084,"ats":1085,"lication":1086,"Ġrespons":1087,"Ġtemp":1088,"Ġtoutes":1089,"Ġenf":1090,"omme":1091,"Ã¹":1092,"Åĵ":1093,"Ġdoma":1094,"Ġfinanci":1095,"gie":1096,"Ġprotection":1097,"oris":1098,"Ġseu":1099,"xe":1100,"Ġmet":1101,"Ġrecomm":1102,"dif":1103,"Ġfemmes":1104,"Ġdemand":1105,"Ġpoint":1106,"Ġconsid":1107,"Ġminist":1108,"Ġplu":1109,"Ġconstitu":1110,"ications":1111,"Ġfac":1112,"Ġentrepr":1113,"ellement":1114,"ĠrÃ©sulta":1115,"tro":1116,"Ġinternational":1117,"loy":1118,"ĠoÃ¹":1119,"lÃ©e":1120,"lev":1121,"Ġmain":1122,"bilitÃ©":1123,"eaux":1124,"ton":1125,"Ġent":1126,"action":1127,"ages":1128,"ich":1129,"Ġ[":1130,"orte":1131,"lÃ¨":1132,"valuation":1133,"ann":1134,"Ġpolitiques":1135,"Ġpeuvent":1136,"pec":1137,"Ġhum":1138,"Ġprom":1139,"Ġselon":1140,"ĠâĢĵ":1141,"ĠdÃ©f":1142,"ode":1143,"ulture":1144,"rÃª":1145,"onc":1146,"Ġcontin":1147,"Ġniveau":1148,"istre":1149,"Ġconvention":1150,"Ġrenseign":1151,"Ã©ment":1152,"ĠpÃ©ri":1153,"Ġder":1154,"ler":1155,"quer":1156,"Ġpe":1157,"Ġsign":1158,"ĠgÃ©nÃ©rale":1159,"rations":1160,"Ġparagraphe":1161,"Ã©tat":1162,"oire":1163,"Ġnotamment":1164,"ulation":1165,"Ġinf":1166,"tation":1167,"Ġprocess":1168,"Ġbure":1169,"Ġna":1170,"Ġpra":1171,"Ġbes":1172,"Ġmoins":1173,"Ġcontra":1174,"Ġtrois":1175,"ĠdÃ©s":1176,"Ġdoivent":1177,"Ġjour":1178,"ress":1179,"Ġprocessus":1180,"ĠdÃ©b":1181,"Ġbeso":1182,"ologi":1183,"Ġcommunau":1184,"ĠlÃ©g":1185,"Ġinform":1186,"Åĵu":1187,"Ġcondi":1188,"Ġobjec":1189,"amen":1190,"anti":1191,"Ġservice":1192,"19":1193,"laire":1194,"cid":1195,"Ġmal":1196,"Ġenfants":1197,"issement":1198,"Ġinternationale":1199,"Ġmodif":1200,"Ã©lio":1201,"Ġconn":1202,"Ġdisp":1203,"Ġdern":1204,"Ġ.":1205,"Ġconform":1206,"ĠdiffÃ©r":1207,"Ġoc":1208,"Ġcro":1209,"Ġgrand":1210,"ĠÃ©tait":1211,"ĠÃ©tu":1212,"Ġab":1213,"Ġmilli":1214,"Ġrecommand":1215,"Ġparties":1216,"Ġinstitu":1217,"Ġtransp":1218,"Ġmondi":1219,"Ġrenseignements":1220,"ĠcoopÃ©":1221,"tÃ©e":1222,"miner":1223,"Ġadop":1224,"ĠdÃ©cla":1225,"inter":1226,"Ġvue":1227,"ĠprÃ©sident":1228,"one":1229,"Ġz":1230,"Ã©dÃ©ra":1231,"Ġans":1232,"Ġappro":1233,"Ġexemp":1234,"tien":1235,"Ġcent":1236,"tenir":1237,"ĠrÃ©du":1238,"homme":1239,"Ġcontr":1240,"ber":1241,"000":1242,"ric":1243,"ĠrÃ©sultats":1244,"ustri":1245,"Ġrenfor":1246,"ĠaprÃ¨s":1247,"organisation":1248,"Ġactu":1249,"Ã©c":1250,"ĠeuropÃ©enne":1251,"lic":1252,"gag":1253,"Ġris":1254,"Ġof":1255,"Ġrespec":1256,"Ġ15":1257,"su":1258,"gation":1259,"Ġtri":1260,"ets":1261,"urer":1262,"Ġprobl":1263,"Ġ$":1264,"loi":1265,"pÃ©ri":1266,"Ġloc":1267,"Ġ2006":1268,"Ġmod":1269,"ĠfÃ©dÃ©ra":1270,"issance":1271,"Ġ20":1272,"ĠrÃ©solution":1273,"ĠrÃ©f":1274,"Ġ2005":1275,"ĠdÃ©m":1276,"Ġaccord":1277,"Ġautre":1278,"Ġdocument":1279,"Ġ\"":1280,"Ġthe":1281,"Ġformation":1282,"Ġ12":1283,"Ġtrait":1284,"ĠdÃ©fin":1285,"ennes":1286,"erc":1287,"Ġils":1288,"Ġsupp":1289,"Ġbase":1290,"Åĵuvre":1291,"ili":1292,"Ġnotre":1293,"Ġpop":1294,"Ġrais":1295,"ĠdÃ©cision":1296,"Ġas":1297,"man":1298,"ĠÃ©conomique":1299,"Ġgar":1300,"10":1301,"ĠdÃ©ter":1302,"raient":1303,"ĠÃ©lec":1304,"ches":1305,"tivitÃ©":1306,"Ġ2004":1307,"ww":1308,"Ġeffec":1309,"Ġsession":1310,"Ġsecteur":1311,"Ã©cu":1312,"ĠministÃ¨re":1313,"oy":1314,"omp":1315,"Ġcli":1316,"rais":1317,"lÃ©ment":1318,"vi":1319,"Ġchaque":1320,"ĠcompÃ©":1321,"Ġconsul":1322,"Ġci":1323,"ariat":1324,"Ġtrav":1325,"ites":1326,"Ġbureau":1327,"Ġlim":1328,"Ġsal":1329,"Ġsituation":1330,"ĠtÃ©lÃ©":1331,"acitÃ©":1332,"Ġpri":1333,"tel":1334,"eff":1335,"ĠopÃ©":1336,"ru":1337,"Ġfonds":1338,"tention":1339,"ĠtrÃ¨s":1340,"ĠintÃ©":1341,"ap":1342,"semblÃ©e":1343,"Ġpres":1344,"eure":1345,"Ġlieu":1346,"Ġtemps":1347,"Ġplace":1348,"Ġsera":1349,"Ġgra":1350,"gr":1351,"Ġvie":1352,"oritÃ©s":1353,"vin":1354,"gÃ©":1355,"Ġnational":1356,"Ġjur":1357,"ĠcoopÃ©ration":1358,"Ġvale":1359,"mer":1360,"Ġvers":1361,"ĠfaÃ§":1362,"ĠmÃ©d":1363,"ĠÃ©tabl":1364,"ĠprÃ©c":1365,"Ġvotre":1366,"Ġobs":1367,"Ġbud":1368,"Ġpor":1369,"Ġtitre":1370,"ole":1371,"Ġparten":1372,"puis":1373,"Ġcertains":1374,"duc":1375,"sieurs":1376,"Ġpol":1377,"Ġpart":1378,"ĠÃ©qu":1379,"Ġlong":1380,"Ġmesure":1381,"agn":1382,"gment":1383,"ancement":1384,"abilitÃ©":1385,"ĠsociÃ©tÃ©":1386,"Ġlui":1387,"anc":1388,"Ġprojets":1389,"Ġpass":1390,"Ġ2007":1391,"isse":1392,"itia":1393,"Ġdate":1394,"Ġchang":1395,"uses":1396,"Ġand":1397,"Â»":1398,"Ġess":1399,"Ġpropos":1400,"ĠÅĵuvre":1401,"laboration":1402,"yant":1403,"ĠpÃ©riode":1404,"mination":1405,"quÃ©":1406,"Ãªtre":1407,"Ġquel":1408,"Ġavait":1409,"Ġdol":1410,"Ġbudg":1411,"Ġfam":1412,"Ġpriv":1413,"ateurs":1414,"tent":1415,"Ġconcer":1416,"Ġdivers":1417,"Ġ2003":1418,"Ġim":1419,"Ġnor":1420,"iÃ¨res":1421,"Ġor":1422,"sionn":1423,"Ġvol":1424,"ai":1425,"lation":1426,"Ġdollar":1427,"Ġpersonnel":1428,"Ġcollec":1429,"Ġavoir":1430,"oup":1431,"semble":1432,"ĠcoÃ»":1433,"Ġdepuis":1434,"Ġmis":1435,"Ġplusieurs":1436,"ĠconformÃ©ment":1437,"Ġ000":1438,"Ġ11":1439,"Ġâ":1440,"ĠfaÃ§on":1441,"Ġnature":1442,"Ã´t":1443,"illeurs":1444,"application":1445,"assemblÃ©e":1446,"Ã©valuation":1447,"Ġdispositions":1448,"Ġty":1449,"oni":1450,"entif":1451,"Ġauc":1452,"Ġ13":1453,"Ġ2002":1454,"aff":1455,"Ġdiv":1456,"sition":1457,"Ġmettre":1458,"Ġparticulier":1459,"ordin":1460,"Ġconna":1461,"Ġprovin":1462,"Ġpersonne":1463,"unis":1464,"Ġ18":1465,"Ġconditions":1466,"Ã©v":1467,"Ġnouveau":1468,"cue":1469,"unes":1470,"Ġdollars":1471,"venir":1472,"ĠprÃ©v":1473,"Ġexig":1474,"ĠconfÃ©rence":1475,"Ã©nÃ©":1476,"Ġculture":1477,"nexe":1478,"ĠpremiÃ¨re":1479,"era":1480,"Ġfonctionn":1481,"tÃ©es":1482,"Ġviol":1483,"Ġdomaine":1484,"truc":1485,"ope":1486,"environnement":1487,"Ġcompris":1488,"utions":1489,"Ġobjectifs":1490,"Ġprofes":1491,"off":1492,"ĠÃ©v":1493,"Ġterrit":1494,"ĠqualitÃ©":1495,"Ġproposi":1496,"core":1497,"ordre":1498,"Ġtrib":1499,"ora":1500,"Ġcentre":1501,"Ġcommerci":1502,"Ġsol":1503,"Ġdevrait":1504,"Ġparlement":1505,"Ġtaux":1506,"Ġhuma":1507,"Ã©ro":1508,"Ġdou":1509,"oritÃ©":1510,"quÃª":1511,"ĠprocÃ©d":1512,"Ġnos":1513,"ĠÃ©ch":1514,"alisation":1515,"Ġencore":1516,"Ġcin":1517,"tivement":1518,"intÃ©":1519,"eures":1520,"cement":1521,"crip":1522,"Ġsujet":1523,"itaire":1524,"Ġreconn":1525,"Ġsci":1526,"Ã©ch":1527,"toc":1528,"Ġadministra":1529,"ĠmarchÃ©":1530,"ĠdÃ©pens":1531,"Ġ14":1532,"ĠcontrÃ´le":1533,"tÃ©gi":1534,"Ġpendant":1535,"mi":1536,"Ġpublique":1537,"Ġ2000":1538,"ĠstratÃ©gi":1539,"ver":1540,"ĠÌ":1541,"pro":1542,"Ġentreprises":1543,"Ġ2001":1544,"ĠannÃ©es":1545,"tiss":1546,"ĠsecrÃ©taire":1547,"cup":1548,"rÃ©e":1549,"Ġprendre":1550,"lations":1551,"Ġtravaux":1552,"Ġnouvelle":1553,"lig":1554,"ĠrÃ´le":1555,"ip":1556,"trang":1557,"ange":1558,"Ġnationale":1559,"Ġfois":1560,"Ġche":1561,"Ġceux":1562,"ĠlÃ©gis":1563,"Ġemploy":1564,"Ġcau":1565,"Ġexa":1566,"Ġassoci":1567,"Ġsep":1568,"itation":1569,"Ã©p":1570,"fois":1571,"ĠrÃ©alis":1572,"Ġreven":1573,"ĠmÃ©th":1574,"Ġ30":1575,"Ġgroupes":1576,"Ġrapports":1577,"ĠbÃ©nÃ©":1578,"Ġsite":1579,"Ġorganismes":1580,"illes":1581,"Ġexemple":1582,"examen":1583,"Ġnu":1584,"Ġcela":1585,"Ġgrande":1586,"omb":1587,"Ġaur":1588,"Ġis":1589,"ennent":1590,"tric":1591,"aide":1592,"Ġcal":1593,"Ġciv":1594,"ĠnÃ©g":1595,"ĠdÃ©claration":1596,"Ġpaix":1597,"Ġcri":1598,"Ġdocuments":1599,"az":1600,"endement":1601,"ommes":1602,"Ġcara":1603,"Ġorganisations":1604,"Ġfinancement":1605,"Ġministre":1606,"ĠdÃ©penses":1607,"Ġtant":1608,"Ġnouvelles":1609,"Ġvertu":1610,"ile":1611,"Ġ>":1612,"ĠÃ©n":1613,"rent":1614,"iers":1615,"Ġpremier":1616,"Ġdonc":1617,"Ġtribun":1618,"Ġpopulation":1619,"blique":1620,"Ġvisant":1621,"quement":1622,"ĠmaniÃ¨re":1623,"ense":1624,"utilisation":1625,"Ġengag":1626,"no":1627,"Ġauto":1628,"itaires":1629,"Ã©rif":1630,"Ġayant":1631,"Ġconcerne":1632,"ĠrÃ©pu":1633,"igne":1634,"Ġbr":1635,"ges":1636,"Ġ16":1637,"uÃ©":1638,"________":1639,"Ġsy":1640,"Ġfer":1641,"og":1642,"ducation":1643,"iser":1644,"fr":1645,"Ġenvironnement":1646,"Ġobli":1647,"ori":1648,"ĠvÃ©rif":1649,"Ġrelatives":1650,"Ġlang":1651,"Ã¯":1652,"reg":1653,"Ġrou":1654,"Ġremp":1655,"Ġpouvoir":1656,"Ġta":1657,"issant":1658,"cembre":1659,"Ġtable":1660,"sif":1661,"Ġjusqu":1662,"Ġsus":1663,"ologie":1664,"20":1665,"Ġmillions":1666,"Ã®tre":1667,"ĠprÃ©sente":1668,"administra":1669,"Ġbesoins":1670,"Ġlorsque":1671,"idi":1672,"Ġpeti":1673,"Ġelles":1674,"aly":1675,"Ġseront":1676,"Ġesti":1677,"ĠdÃ©cembre":1678,"issent":1679,"Ġmoyen":1680,"jo":1681,"ĠrÃ©union":1682,"Ġcanadiens":1683,"ĠdÃ©lÃ©":1684,"Ġali":1685,"Ġsavoir":1686,"Ġii":1687,"ĠreÃ§":1688,"Ġlut":1689,"Ġaffaires":1690,"Ġmonde":1691,"Ġsoient":1692,"Ġparticipation":1693,"tenant":1694,"ĠconsÃ©qu":1695,"Ġproduction":1696,"Ġoutre":1697,"cc":1698,"Ã©liorer":1699,"ĠrÃ©pond":1700,"Ã©tabl":1701,"emploi":1702,"quelle":1703,"Ġoffici":1704,"gations":1705,"chton":1706,"ĠcommunautÃ©":1707,"accord":1708,"ĠÃ©taient":1709,"Ġlaquelle":1710,"tÃ©rieur":1711,"out":1712,"ĠbÃ©nÃ©f":1713,"Ġcanadien":1714,"Ġnum":1715,"Ġconclu":1716,"Ġnord":1717,"Ġ2008":1718,"Ġ17":1719,"rÃªt":1720,"Ġid":1721,"Ġsuite":1722,"Ġjeunes":1723,"Ġcanadienne":1724,"pit":1725,"inte":1726,"Ġcomment":1727,"Ġinformations":1728,"Ġgaranti":1729,"11":1730,"ert":1731,"xes":1732,"ĠrÃ©c":1733,"Ġautochton":1734,"Ġefforts":1735,"Ã©tu":1736,"Ġpossible":1737,"Ġcommerce":1738,"Ġpoursu":1739,"Ġeffectu":1740,"ĠproblÃ¨mes":1741,"Ġcertaines":1742,"cour":1743,"Ġmois":1744,"use":1745,"Ġmul":1746,"ints":1747,"eb":1748,"ateur":1749,"Ġjuin":1750,"Ġprofessionn":1751,"Ġaugment":1752,"st":1753,"Ġdirection":1754,"ordonn":1755,"ĠdÃ©j":1756,"Ã©ration":1757,"ĠrÃ©publique":1758,"erts":1759,"Ġpris":1760,"Ġvaleur":1761,"Ġport":1762,"Ġnouveaux":1763,"ercice":1764,"Ġseulement":1765,"oles":1766,"Ġu":1767,"Ġ198":1768,"Ġprix":1769,"12":1770,"Ġcr":1771,"Ġesp":1772,"........":1773,"abit":1774,"Ġtex":1775,"organ":1776,"Ġaid":1777,"Ġjuridi":1778,"Ġtrouv":1779,"Ġ25":1780,"Ġmi":1781,"ĠnÃ©cessaire":1782,"Ġfaut":1783,"Ġessenti":1784,"truction":1785,"administration":1786,"Ġdisponi":1787,"Ã¨rement":1788,"yer":1789,"import":1790,"Ġfig":1791,"tenu":1792,"lÃ©ments":1793,"Ġmars":1794,"ĠmÃ©c":1795,"ĠrÃ©glement":1796,"Ġop":1797,"ctions":1798,"ustrie":1799,"ĠÃ©tat":1800,"Ġterme":1801,"rique":1802,"Ġtotal":1803,"13":1804,"Ġinitia":1805,"Ġpromo":1806,"alyse":1807,"Ġtraitement":1808,"accÃ¨s":1809,"Ġdestin":1810,".,":1811,"Ġappr":1812,"Ġimportant":1813,"rier":1814,"istance":1815,"uel":1816,"ĠdÃ©ta":1817,"Ġtoutefois":1818,"Ġatte":1819,"Ġlib":1820,"Ġavons":1821,"Ġjou":1822,"liqu":1823,"Ġcomb":1824,"Ġunivers":1825,"ĠÃ©lev":1826,"tariat":1827,"ario":1828,"inf":1829,"Ġvou":1830,"Ġmontant":1831,"Ġtransport":1832,"ĠdÃ©fini":1833,"ĠsystÃ¨mes":1834,"Ġobserv":1835,"Ġfran":1836,"Ġconsomm":1837,"Ġsurve":1838,"art":1839,"Ġmand":1840,"tructure":1841,"Ġnote":1842,"Ġchez":1843,"Ġpourrait":1844,"Ġnormes":1845,"illet":1846,"ps":1847,"Ġpropri":1848,"onne":1849,"ensemble":1850,"ĠeuropÃ©en":1851,"jour":1852,"od":1853,"ĠsecrÃ©tariat":1854,"Ġtribunal":1855,"occup":1856,"ral":1857,"tÃ©gie":1858,"ĠmatÃ©ri":1859,"Ġeffet":1860,"Ġliste":1861,"isant":1862,"Ġsoutien":1863,"asse":1864,"ĠannÃ©e":1865,"ĠÃ©tant":1866,"laires":1867,"Ġbudget":1868,"enf":1869,"ĠdÃ©jÃł":1870,"ĠstratÃ©gie":1871,");":1872,"--":1873,"Ġinstitutions":1874,"Ġcir":1875,"pri":1876,"Ã©ducation":1877,"lection":1878,"Ġraison":1879,"dit":1880,"avant":1881,"Ã©h":1882,"per":1883,"Ġrecommandations":1884,"ĠÃ©trang":1885,"ba":1886,"Ġcelui":1887,"ell":1888,"ril":1889,"tice":1890,"gu":1891,"Ġautochtones":1892,"mÃ©di":1893,"ĠcompÃ©ten":1894,"rie":1895,"Ġcelle":1896,"ĠÃ©tabli":1897,"fs":1898,"rÃ©s":1899,"dure":1900,"wa":1901,"Ġrap":1902,"Ġpratiques":1903,"grÃ¨s":1904,"ras":1905,"tembre":1906,"Ġinternationales":1907,"Ġarticle":1908,"ris":1909,"Ġsoulig":1910,"Ġsc":1911,"Ġtype":1912,"ĠÃ©val":1913,"Ġsein":1914,"vestiss":1915,"tage":1916,"quel":1917,"osÃ©":1918,"ĠtraitÃ©":1919,"ali":1920,"agne":1921,"Ġhau":1922,"ĠrÃ©un":1923,"Ġqua":1924,"Ġseptembre":1925,"lais":1926,"Ġni":1927,"ception":1928,"Ġcit":1929,"Ġconta":1930,"inÃ©":1931,"Ġhaut":1932,"Ġrest":1933,"Ġsurveill":1934,"Ġeu":1935,"Ġmme":1936,"Ġproduit":1937,"ot":1938,"oires":1939,"Ġjan":1940,"ĠprÃ©pa":1941,"aprÃ¨s":1942,"rale":1943,"Ġban":1944,"ĠdÃ©cisions":1945,"tie":1946,"Ġfins":1947,"Ġdevraient":1948,"Ġval":1949,"Ġx":1950,"ĠnÃ©cessaires":1951,"Ġpau":1952,"Ġcommunication":1953,"Ġsoins":1954,"lob":1955,"199":1956,"ĠgÃ©":1957,"Ġappel":1958,"Ġmondiale":1959,"Ġfacil":1960,"hui":1961,"ĠmÃ©canis":1962,"ĠcrÃ©ation":1963,"pose":1964,"ĠÃ©lÃ©ments":1965,"ĠspÃ©cif":1966,"Ġrenforcer":1967,"Ġsection":1968,"cueil":1969,"cription":1970,"ara":1971,"Ġrequ":1972,"Ġperman":1973,"Ġsocial":1974,"cle":1975,"ĠsupplÃ©ment":1976,"iÃ©":1977,"Ġtransf":1978,"Ġfournir":1979,"Ġ24":1980,"ĠdeuxiÃ¨me":1981,"Ġalors":1982,"ĠintÃ©g":1983,"alitÃ©s":1984,"Ġven":1985,"cÃ©dure":1986,"Ġ;":1987,"ĠreprÃ©sentant":1988,"Ġst":1989,"ueur":1990,"tisf":1991,"arti":1992,"ĠpÃ©n":1993,"Ġmoyens":1994,"quÃªte":1995,"Ġmission":1996,"ensi":1997,"ĠÌģ":1998,"Ġple":1999,"europe":2000,"vier":2001,"Ġavis":2002,"ĠauprÃ¨s":2003,"...":2004,"Ġinv":2005,"ĠprocÃ©dure":2006,"ĠopÃ©rations":2007,"Ġbeau":2008,"mon":2009,"oi":2010,"Ġrev":2011,"did":2012,"Ġlog":2013,"jou":2014,"Ġtechnologi":2015,"Ġref":2016,"Ġrisque":2017,"ĠdonnÃ©":2018,"Ġbesoin":2019,"tiÃ¨res":2020,"Ġfrais":2021,"Ã©rique":2022,"Ġjustice":2023,"Ġcelles":2024,"Ġsud":2025,"tt":2026,"ocra":2027,"Ġexamin":2028,"Ġlutte":2029,"Ġ1999":2030,"ression":2031,"tron":2032,"sie":2033,"Ġvoir":2034,"explo":2035,"Ġconfl":2036,"Ã¨ne":2037,"Ġproposition":2038,"Ġsouh":2039,"ossi":2040,"Ġdomaines":2041,"Ġtenu":2042,"Ġdirecteur":2043,"Ġsatisf":2044,"Ġcandid":2045,"tobre":2046,"lique":2047,"ager":2048,"ones":2049,"Ġmai":2050,"cont":2051,"Ġreconna":2052,"ls":2053,"Ġjo":2054,"ĠnÃ©goci":2055,"Ã©rÃ©":2056,"ĠcapacitÃ©":2057,"duction":2058,"Ġcou":2059,"Ġserait":2060,"Ġjuillet":2061,"Ġsau":2062,"Ġlorsqu":2063,"Ġba":2064,"Ġpromotion":2065,"Ġfix":2066,"Ġminis":2067,"cul":2068,"exercice":2069,"Ġweb":2070,"Ġmaj":2071,"annÃ©e":2072,"vembre":2073,"Ġrece":2074,"ĠpÃª":2075,"Ġterr":2076,"industrie":2077,"Ġ21":2078,"Ġeffica":2079,"Ġexc":2080,"Ġang":2081,"viron":2082,"Ġeffets":2083,"tex":2084,"Ġdurable":2085,"Ġret":2086,"Ġvig":2087,"entrepr":2088,"Ġpuis":2089,"ĠmodÃ¨":2090,"Ġsp":2091,"Ġmoment":2092,"ĠnumÃ©ro":2093,"Ġreg":2094,"Ġpi":2095,"Ġnovembre":2096,"Ġencour":2097,"br":2098,"Ġsociale":2099,"ĠmÃ©di":2100,"Ġagric":2101,"Ġprest":2102,"Ġorgan":2103,"Ġrep":2104,"ĠrÃ©gions":2105,"Ġ100":2106,"ĠdÃ©mocra":2107,"Ġmulti":2108,"odes":2109,"rir":2110,"ĠÃ£":2111,"Ġlar":2112,"Ġgu":2113,"Ġcommuni":2114,"ĠÃ©conomiques":2115,"Ġmeille":2116,"Ġstatis":2117,"ification":2118,"ĠcoÃ»ts":2119,"ventions":2120,"cs":2121,"objet":2122,"urg":2123,"01":2124,"tÃ©gor":2125,"ront":2126,"taires":2127,"lant":2128,"jours":2129,"indre":2130,"vision":2131,"Ġ22":2132,"Ġavril":2133,"Ġvic":2134,"Ġjanvier":2135,"bec":2136,"mar":2137,"Ġheures":2138,"Ġ31":2139,"af":2140,"Ġdiscri":2141,"dio":2142,"ĠrÃ©pon":2143,"ipe":2144,"Ġrevenu":2145,"Ġcep":2146,"ditionn":2147,"Ġsemb":2148,"Ġmembre":2149,"Ġtechnique":2150,"Ġ23":2151,"Ġsouv":2152,"are":2153,"isme":2154,"Ġprincipes":2155,"lan":2156,"Ġoctobre":2157,"Ġquatre":2158,"ĠautoritÃ©s":2159,"ĠreprÃ©sentants":2160,"Ġmieux":2161,"Ġdisc":2162,"appro":2163,"erve":2164,"Ġcher":2165,"Ġcroissance":2166,"Ã¢ce":2167,"Ġpermis":2168,"Ġforme":2169,"Ã©laboration":2170,"gc":2171,"ien":2172,"ĠrÃ¨gles":2173,"ĠcatÃ©gor":2174,"Ġsuivi":2175,"ĠgrÃ¢ce":2176,"ĠprogrÃ¨s":2177,"ner":2178,"autre":2179,"Ġtoujours":2180,"Ġdemandes":2181,"Ġlet":2182,"ĠsupÃ©ri":2183,"ess":2184,"Ġrisques":2185,"Ġindustri":2186,"Ġpoints":2187,"Ġrelations":2188,"Ġnationales":2189,"Ġmaladi":2190,"Ġtechniques":2191,"Ġsensi":2192,"Ġassurer":2193,"Ġbut":2194,"ĠspÃ©cial":2195,"inc":2196,"50":2197,"Ġmandat":2198,"liquer":2199,"Ġpertin":2200,"Ġgen":2201,"Ġlesqu":2202,"dic":2203,"orter":2204,"Ġprotoc":2205,"coup":2206,"Ġnationaux":2207,"ĠexÃ©cu":2208,"tations":2209,"ĠÃ©tudi":2210,"ger":2211,"Ġrelative":2212,"ĠÂ»,":2213,"Ã©conom":2214,"ĠrÃ©gime":2215,"Ã¨ces":2216,"ose":2217,"cha":2218,"Ġsuff":2219,"ĠdÃ©terminer":2220,"xim":2221,"cipe":2222,"Ġglob":2223,"Ġcependant":2224,"ĠresponsabilitÃ©":2225,"ivre":2226,"jourd":2227,"Ġbeaucoup":2228,"resp":2229,"Ã©gard":2230,"Ġgouvernements":2231,"Ġpromouv":2232,"ension":2233,"Ġprises":2234,"Ġaucune":2235,"ĠprotÃ©g":2236,"Ġjours":2237,"office":2238,"Ġinstru":2239,"Ġdistrib":2240,"part":2241,"ĠprocÃ©dures":2242,"Ġdonner":2243,"Ġcode":2244,"Ġcitoy":2245,"Ġcapit":2246,"nes":2247,"Ġstatu":2248,"Ġmili":2249,"onu":2250,"Ġligne":2251,"ĠrÃ©seau":2252,"Ġsimp":2253,"ament":2254,"tient":2255,"ision":2256,"Ġpromouvoir":2257,"Ġvigueur":2258,"adop":2259,"Ġcoordin":2260,"Ġus":2261,"Ġpage":2262,"oli":2263,"ĠÃ©lectron":2264,"Ġcomple":2265,"Ġcanadiennes":2266,"ĠprÃ©vention":2267,"Ġir":2268,"Ġvoy":2269,"Ġbar":2270,"ĠdÃ©termin":2271,"ĠâĢĶ":2272,"ĠprÃ©vo":2273,"Ġcinq":2274,"icacitÃ©":2275,"Ġavaient":2276,"Ġappu":2277,"Ã©tÃ©s":2278,"icu":2279,"cr":2280,"assurer":2281,"Ġvari":2282,"Ġposte":2283,"Ġcorresp":2284,"Ġpai":2285,"Ġpeup":2286,"usion":2287,"appel":2288,"Ġparticipants":2289,"Ġjourn":2290,"Ġdit":2291,"ticles":2292,"Ġsurveillance":2293,"tification":2294,"Ġsitu":2295,"Ġpermettre":2296,"Ġoeu":2297,"ĠemployÃ©s":2298,"ĠdiffÃ©rents":2299,"Ġnombreux":2300,"15":2301,"Ġaucun":2302,"Ġcirc":2303,"ira":2304,"ĠproblÃ¨me":2305,"dess":2306,"Ġappropri":2307,"Ġannexe":2308,"Ġcorrespond":2309,"Ġcompos":2310,"ĠrÃ©fÃ©rence":2311,"ĠÂ».":2312,"Ġtel":2313,"ĠdÃ©fense":2314,"dro":2315,"Ġpreu":2316,"Ġautoris":2317,"resse":2318,"ĠconsidÃ©r":2319,"Ġfondament":2320,"ergie":2321,"Ġcontex":2322,"Ġve":2323,"Ġfai":2324,"Ġfav":2325,"ĠamÃ©liorer":2326,"Ġexigences":2327,"Ġcapac":2328,"Ġaccep":2329,"Ġfont":2330,"Ġsais":2331,"ĠcÃ´":2332,"Ġveu":2333,"Ġtermes":2334,"ĠprÃª":2335,"lles":2336,"ervation":2337,"Ġcrit":2338,"ĠfÃ©":2339,"Ġsouvent":2340,"Ġchangements":2341,"Ġconsta":2342,"alog":2343,"Ġliber":2344,"Ġhabit":2345,"Ġcoordination":2346,"Ġreli":2347,"ĠrÃ©sid":2348,"Ġexplo":2349,"Ġtels":2350,"appui":2351,"//":2352,"Ġscientif":2353,"tm":2354,"Ġenreg":2355,"Ġfamille":2356,"ĠdÃ©cid":2357,"Ġcertain":2358,"Ġnav":2359,"ĠÃ©tudes":2360,"Ġpartenaires":2361,"lus":2362,"ĠsÃ©ance":2363,"Ġlic":2364,"Ġparmi":2365,"Ġinitiatives":2366,"Ġbre":2367,"Ġsecteurs":2368,"ĠprÃ©cÃ©d":2369,"Ã©tablissement":2370,"Ġ28":2371,"exÃ©cu":2372,"ĠÃ©gard":2373,"ĠcapacitÃ©s":2374,"Ġterroris":2375,"Ġforces":2376,"ttp":2377,"Ġcontinuer":2378,"avantage":2379,"Ġcamp":2380,"Ġ|":2381,"ĠspÃ©cialis":2382,"Ġpartir":2383,"Ġ26":2384,"clÃ©":2385,"Ã©m":2386,"Ġtableau":2387,"ĠmarchÃ©s":2388,"ĠrÃ©duire":2389,"Ġinternationaux":2390,"agit":2391,"Ġcause":2392,"Ġaccomp":2393,"Ġexamen":2394,"30":2395,"://":2396,"nÃ©":2397,"ĠdÃ©clar":2398,"Ġapplication":2399,"ource":2400,"vait":2401,"Ġcollaboration":2402,"uelle":2403,"ĠlÃ©gislation":2404,"Ġ1998":2405,"Ġaliment":2406,"Ġgaz":2407,"mun":2408,"Ġdevant":2409,"Ġapprouv":2410,"annexe":2411,"ay":2412,"aces":2413,"Ġ27":2414,"ĠvÃ©h":2415,"ĠprÃ©occup":2416,"gh":2417,"Ã©pend":2418,"Ġtexte":2419,"vement":2420,"Ġsuivants":2421,"lin":2422,"Ġaujourd":2423,"Ġprise":2424,"ke":2425,"Ġinstal":2426,"Ġchapit":2427,"ĠdÃ©lÃ©gation":2428,"act":2429,"ĠparticuliÃ¨rement":2430,"Ġsubst":2431,"intes":2432,"Ġdossi":2433,"Ġtor":2434,"Ġdiscrimination":2435,"pÃ©rience":2436,"ase":2437,"Ġcy":2438,"tim":2439,"Ġquelques":2440,"orig":2441,"Ġactuellement":2442,"ĠdurÃ©e":2443,"Ġplein":2444,"Ġbiens":2445,"Ġconv":2446,"Ġcontexte":2447,"ĠrÃ©duction":2448,"ices":2449,"tte":2450,"issances":2451,"Ġrespect":2452,"ĠvÃ©hicu":2453,"Ġchac":2454,"Ġproduc":2455,"importance":2456,"Ġprocha":2457,"comm":2458,"Ġformu":2459,"Ġdisposition":2460,"Ã©vrier":2461,"Ġniveaux":2462,"veur":2463,"urance":2464,"Ġlois":2465,"Ġplans":2466,"Ġ50":2467,"Ġroy":2468,"14":2469,"lent":2470,"Ġmondial":2471,"urant":2472,"Ġdirective":2473,"lande":2474,"Ġaspec":2475,"Ã»t":2476,"ĠdÃ©bat":2477,"Ġorganisation":2478,"Ġterritoire":2479,"Ġouver":2480,"missions":2481,"ĠdÃ©sign":2482,"Ġdernier":2483,"ĠquÃ©":2484,"grÃ©":2485,"ĠfÃ©dÃ©ral":2486,"Ġplanification":2487,"Â°":2488,"ĠrÃ©ponse":2489,"ĠaccÃ¨s":2490,"Ġplupart":2491,"ĠpropriÃ©tÃ©":2492,"Ġprotocole":2493,"ĠprÃ©cis":2494,"ĠfÃ©vrier":2495,"issements":2496,"ĠfinanciÃ¨re":2497,"ĠopÃ©ration":2498,"Ġmarchand":2499,"forme":2500,"Ġaf":2501,"ĠnuclÃ©":2502,"Ġvicti":2503,"Ġconcur":2504,"Ġexist":2505,"Ġefficace":2506,"raÃ®":2507,"ace":2508,"Ġprincipe":2509,"www":2510,"Ġobtenir":2511,"ĠintÃ©ress":2512,"truct":2513,"Ġhy":2514,"Ġnorm":2515,"Ġrelev":2516,"Ġ/":2517,"laborer":2518,"Ġrecours":2519,"Ġsix":2520,"ĠadoptÃ©":2521,"ĠcrÃ©er":2522,"Ġmer":2523,"Ġstructure":2524,"table":2525,"institu":2526,"Ġviolence":2527,"Ġbon":2528,"osition":2529,"Ġrempla":2530,"Ġpublics":2531,"Ġpratique":2532,"Ġaider":2533,"16":2534,"Ġoeuvre":2535,"Ġhuman":2536,"Ġrenforcement":2537,"Ġfi":2538,"Ġcoordonn":2539,"Ġda":2540,"be":2541,"Ġarticles":2542,"Ã©rer":2543,"Ġfau":2544,"Ã©nergie":2545,"Ġanti":2546,"Ġconcurr":2547,"Ã©galitÃ©":2548,"Ġtechnologies":2549,"uni":2550,"Ã©rica":2551,"Ġdir":2552,"Ġprincipaux":2553,"rÃªts":2554,"ĠÃ©valuation":2555,"seignement":2556,"com":2557,"Ġdurant":2558,"ttes":2559,"Ġcommiss":2560,"exÃ©cution":2561,"Ã¨ge":2562,"ĠnÃ©cessitÃ©":2563,"cent":2564,"Ġenviron":2565,"Ġaide":2566,"ctÃ©":2567,"Ġdavantage":2568,"Ġ29":2569,"ĠvÃ©rification":2570,"gement":2571,"esp":2572,"Ġposi":2573,"Ã¨ce":2574,"Ġfournit":2575,"Ġfavoris":2576,"Ġfaveur":2577,"02":2578,"Ġprovinci":2579,"Ġpolice":2580,"ses":2581,"Ġconsac":2582,"Ġajou":2583,"ĠmÃ©thodes":2584,"activitÃ©":2585,"gÃ©s":2586,"Ã©lioration":2587,"oÃ»t":2588,"Ġchapitre":2589,"Ġbo":2590,"tenus":2591,"Ġpourraient":2592,"ii":2593,"Ġfut":2594,"exploitation":2595,"Ġtrouver":2596,"Ġsens":2597,"inÃ©a":2598,"Ġvos":2599,"ĠrÃ©unions":2600,"Ġtour":2601,"sc":2602,"isc":2603,"Ġmaintien":2604,"Ġsommes":2605,"ĠcompÃ©tences":2606,"Ġmus":2607,"Ġhumaines":2608,"Ġpostes":2609,"efficacitÃ©":2610,"bilisation":2611,"Ġmilieu":2612,"ĠrÃ©serve":2613,"Ġsociaux":2614,"Ġparce":2615,"Ġhttp":2616,"Ã©tude":2617,"ĠprÃ©senter":2618,"Ġresponsabil":2619,"ĠprioritÃ©s":2620,"Ġailleurs":2621,"Ġrendement":2622,"gration":2623,"trices":2624,"intÃ©rÃªt":2625,"Ġdirig":2626,"Ġnet":2627,"iles":2628,"agence":2629,"Ġzone":2630,"Ġface":2631,"Ġvolon":2632,"ĠfranÃ§":2633,"Ġmaintenant":2634,"ed":2635,"18":2636,"ach":2637,"rant":2638,"Ġfonctions":2639,"Ġchangement":2640,"Ġindiqu":2641,"ĠrÃ©pondre":2642,"ĠÃ¢":2643,"Ġtelles":2644,"ĠmatÃ©riel":2645,"lage":2646,"Ġtechnologie":2647,"Ġtenir":2648,"avis":2649,"Ġsuivant":2650,"con":2651,"ĠquÃ©bec":2652,"Ġcivile":2653,"ity":2654,"ĠdiffÃ©rentes":2655,"ontario":2656,"Ġtransports":2657,"Ġhommes":2658,"Ġjuridique":2659,"ultatif":2660,"Ġhist":2661,"Ġatt":2662,"Ġcondu":2663,"Ġsema":2664,"Ġparticiper":2665,"Ġcontribution":2666,"Ġdiffic":2667,"tuelle":2668,"ritann":2669,"25":2670,"Ġmarchandises":2671,"Ġimportante":2672,"ĠlÃ©gisla":2673,"ĠprÃ©sentÃ©":2674,"ĠdÃ©but":2675,"nov":2676,"ĠpossibilitÃ©":2677,"Ġcommunications":2678,"ĠcaractÃ©":2679,"sique":2680,"ĠsÃ©lection":2681,"ĠmÃ©dic":2682,"Ġphy":2683,"oser":2684,"Ġsyn":2685,"urent":2686,"Ġproven":2687,"lem":2688,"Ġquant":2689,"lam":2690,"Ġsom":2691,"Ġchef":2692,"Ġradio":2693,"ĠdemandÃ©":2694,"Ġsex":2695,"orteur":2696,"Ġfacteurs":2697,"Ġrendre":2698,"Ġfra":2699,"Ġpreuve":2700,"ĠcritÃ¨res":2701,"ĠrÃ©serv":2702,"toire":2703,"03":2704,"ĠconsidÃ©ra":2705,"dition":2706,"Ġobligations":2707,"ĠfinanciÃ¨res":2708,"Ġzones":2709,"Ġmentionn":2710,"ĠsociÃ©tÃ©s":2711,"Ġliens":2712,"Ġlign":2713,"alogue":2714,"Ġdistin":2715,"Ġrelatifs":2716,"ards":2717,"Ġpauvre":2718,"Ġconnaissances":2719,"Ġrus":2720,"Ġstatut":2721,"casion":2722,"Ġforce":2723,"Ġbonne":2724,"Ġvaleurs":2725,"Ġdiverses":2726,"Ġsuivantes":2727,"Ġsignif":2728,"origine":2729,"objec":2730,"ĠprÃ¨s":2731,"Ġcharge":2732,"Ġtend":2733,"Ġconsultations":2734,"Ġtouch":2735,"ĠcoÃ»t":2736,"Ġfinanciers":2737,"Ãªmes":2738,"go":2739,"ĠindiquÃ©":2740,"Ġsh":2741,"Ġporte":2742,"ĠsÃ©rie":2743,"uli":2744,"Ġcalcul":2745,"Ġcommunautaire":2746,"Ġtelle":2747,"land":2748,"rez":2749,"Ġdom":2750,"tta":2751,"intention":2752,"Ġvoie":2753,"Ġlequel":2754,"Ġtravailleurs":2755,"Ġ1997":2756,"Ġcommunaut":2757,"Ġsources":2758,"ĠtÃ©lÃ©ph":2759,"ĠpremiÃ¨res":2760,"Ġcontributions":2761,"Ġaffec":2762,"Ġmig":2763,"rÃ©es":2764,"ograph":2765,"Ġpropositions":2766,"Ġfil":2767,"mise":2768,"Ġchois":2769,"ouest":2770,"rain":2771,"Ġhar":2772,"Ġapplic":2773,"17":2774,"Ġconjo":2775,"analyse":2776,"Ġmaxim":2777,"ologiques":2778,"Ġjud":2779,"ume":2780,"ĠderniÃ¨re":2781,"ĠpauvretÃ©":2782,"Ġconstitue":2783,"2005":2784,"Ġcontrat":2785,"missi":2786,"enseignement":2787,"Ġaspects":2788,"ĠdÃ©li":2789,"pl":2790,"assurance":2791,"Ġeng":2792,"Ġacqu":2793,"initia":2794,"Ġorient":2795,"Ġlangues":2796,"Ġbanque":2797,"Ġcommen":2798,"Ġclients":2799,"Ġarmes":2800,"Ġsalle":2801,"ĠcommunautÃ©s":2802,"ulations":2803,"istes":2804,"tenti":2805,"Ġminim":2806,"obs":2807,"alys":2808,"att":2809,"hy":2810,"employ":2811,"04":2812,"sieur":2813,"Ġprincipal":2814,"ĠmodÃ¨le":2815,"adoption":2816,"iquement":2817,"Ġdeme":2818,"Ã´tel":2819,"Ġsucc":2820,"Ġposition":2821,"Ġamendement":2822,"bilitÃ©s":2823,"Ġmonsieur":2824,"ĠliÃ©s":2825,"ĠfÃ©lic":2826,"Ġlangue":2827,"Ġterres":2828,"ĠsÃ»":2829,"Ġprovis":2830,"abs":2831,"Ġprob":2832,"vers":2833,"ĠâĹ":2834,"Ġdivision":2835,"Ġeux":2836,"Ġversion":2837,"ĠaoÃ»t":2838,"ĠprivÃ©":2839,"Ġextra":2840,"rim":2841,"Ġrelatif":2842,"Ġdisponibles":2843,"Ġcomprend":2844,"ia":2845,"ret":2846,"Ġcinqu":2847,"Ġqual":2848,"24":2849,"ologique":2850,"Ġcitoyens":2851,"Ã©taire":2852,"ĠliÃ©es":2853,"Ġcho":2854,"Ġconstruction":2855,"Ġcu":2856,"Ġconfor":2857,"cessi":2858,"Ã©conomie":2859,"Ġmu":2860,"Ġfaciliter":2861,"ĠpÃªche":2862,"Ġvictimes":2863,"ĠrÃ©glementation":2864,"Ġportant":2865,"acqu":2866,"Ġclaire":2867,"Ġcontribuer":2868,"ĠmÃ©canismes":2869,"Ġsuffis":2870,"Ġ*":2871,"Ġconcent":2872,"05":2873,"Ã¨de":2874,"ĠtroisiÃ¨me":2875,"icile":2876,"Ġlignes":2877,"Ġguer":2878,"ides":2879,"Ġliv":2880,"Ġjudici":2881,"Ġpubliques":2882,"ĠderniÃ¨res":2883,"ĠministÃ¨res":2884,"Ġtran":2885,"mettre":2886,"dem":2887,"olog":2888,"Ã®t":2889,"Ġnombreuses":2890,"Ġrappel":2891,"Ġbil":2892,"ombie":2893,"ussions":2894,"ĠaÃ©ri":2895,"Ġrencont":2896,"all":2897,"ĠopÃ©rationn":2898,"23":2899,"ritannique":2900,"ĠsupplÃ©mentaires":2901,"ĠrÃ©alisation":2902,"onde":2903,"vestissement":2904,"Ġtari":2905,"tructures":2906,"Ġdirectement":2907,"ĠrÃ©gional":2908,"ĠstratÃ©gies":2909,"Ġpermettant":2910,"entreprise":2911,"uels":2912,"ĠÃ©lectronique":2913,"Ġoutil":2914,"Ġpropre":2915,"Ġ197":2916,"Ġsorte":2917,"ĠstratÃ©gique":2918,"dire":2919,"Ġarri":2920,"Ġtrouve":2921,"mission":2922,"ĠreÃ§u":2923,"labor":2924,"Ġterre":2925,"yn":2926,"ĠdÃ©par":2927,"iÃ©e":2928,"inform":2929,"ks":2930,"ĠcaractÃ©ris":2931,"Ġexiste":2932,"Ġdescription":2933,"thÃ¨":2934,"Ġsource":2935,"ĠâĹ¦":2936,"ablement":2937,"vie":2938,"atri":2939,"Ġlettre":2940,"ĠÃ©tude":2941,"Ġuti":2942,"Ġur":2943,"iller":2944,"lai":2945,"Ġsim":2946,"Ġprend":2947,"ĠcontrÃ´":2948,"Ġanglais":2949,"Ġ,":2950,"Ġtraditionn":2951,"Ġenti":2952,"Ġintel":2953,"Ġcaract":2954,"frica":2955,"ĠÃ©vent":2956,"vidu":2957,"Ġdimin":2958,"Ġpotenti":2959,"Ġarm":2960,"Ġprog":2961,"Ġant":2962,"2006":2963,"Ġeurope":2964,"Ġsuit":2965,"ĠdÃ©pla":2966,"Ġresponsable":2967,"Ġfeu":2968,"Ġtu":2969,"Ġcherche":2970,"Ġviv":2971,"Ġreste":2972,"Ġinternet":2973,"enfant":2974,"cif":2975,"irm":2976,"engag":2977,"________________":2978,"Ġincid":2979,"Ġtransfert":2980,"Ġavantages":2981,"Ġinstruments":2982,"ĠrÃ©guli":2983,"Ġfonctionnement":2984,"mig":2985,"Ġproc":2986,"trice":2987,"Ġdemander":2988,"Ġterrorisme":2989,"lure":2990,"ĠprotÃ©ger":2991,"Ġattrib":2992,"ĠcollectivitÃ©s":2993,"titude":2994,"Ġbou":2995,"ĠpossibilitÃ©s":2996,"suite":2997,"ĠtÃ©mo":2998,"ron":2999,"Ġintitu":3000,"Ġmodifications":3001,"ĠdÃ©finition":3002,"Ġpales":3003,"ĠchargÃ©":3004,"ĠconsÃ©quent":3005,"associ":3006,"gent":3007,"Ġlarge":3008,"Ġville":3009,"Ġpay":3010,"Ġfaisant":3011,"prÃ©":3012,"auteur":3013,"Ġâĸ":3014,"ana":3015,"ĠrÃ©sol":3016,"Ġsouhait":3017,"urgence":3018,"je":3019,"Ã©rences":3020,"Ġensemble":3021,"Ġ1996":3022,"da":3023,"men":3024,"lis":3025,"avoir":3026,"Ġ40":3027,"Ġfinancier":3028,"Ġsecond":3029,"Ġtenue":3030,"hÃ©s":3031,"Ġapproche":3032,"ĠlibertÃ©":3033,"Ġchoix":3034,"ib":3035,"Ġcontinu":3036,"cles":3037,"vÃ©":3038,"mps":3039,"Ġrendu":3040,"ĠtÃ¢":3041,"ĠdÃ©lai":3042,"cier":3043,"Ġva":3044,"29":3045,"Ġabs":3046,"istr":3047,"ane":3048,"Ġimportants":3049,"ĠprÃ©sentation":3050,"ĠmÃ©dica":3051,"60":3052,"Ġretra":3053,"ote":3054,"ĠdÃ¨s":3055,"Ġriv":3056,"orient":3057,"matique":3058,"Ġmun":3059,"Ã©tait":3060,"ĠintÃ©ri":3061,"cide":3062,"Ġaccords":3063,"Ġobjectif":3064,"ĠmatiÃ¨res":3065,"Ġrecommandation":3066,"crit":3067,"Ġrend":3068,"ĠÃ©levÃ©":3069,"Ġvisite":3070,"ĠmÃ©dias":3071,"istrement":3072,"bes":3073,"intÃ©gration":3074,"cie":3075,"Ġcentres":3076,"Ġresponsables":3077,"Ġenvis":3078,"Ġconseils":3079,"tÃ©ra":3080,"ĠÃ©tablissements":3081,"Ġdifficul":3082,"Ġoffre":3083,"ĠprÃ©voit":3084,"Ġvente":3085,"afrique":3086,"Ġfaible":3087,"Ġguerre":3088,"ĠprÃ©sence":3089,"Ġiniti":3090,"ugi":3091,"ĠÃ©missions":3092,"Ġjam":3093,"Ġconclusions":3094,"Ġdrog":3095,"Ġfournisse":3096,"Ġprovince":3097,"ĠamÃ©rica":3098,"Ġgrands":3099,"uk":3100,"ow":3101,"tait":3102,"mement":3103,"lle":3104,"chÃ©":3105,"acte":3106,"Ġstatistiques":3107,"Ġquanti":3108,"dÃ©":3109,"Ġconsultation":3110,"Ġsoumis":3111,"ied":3112,"Ġpermettra":3113,"assistance":3114,"Ã«":3115,"Ġrur":3116,"Ġclass":3117,"tout":3118,"Ġpartenariat":3119,"Ġinterven":3120,"2007":3121,"26":3122,"Ġvih":3123,"Ġax":3124,"Ġmanif":3125,"Ġsites":3126,"Ġcommand":3127,"ĠfrÃ©":3128,"Ġstoc":3129,"rou":3130,"ĠintÃ©rÃªts":3131,"ĠbÃ©nÃ©fici":3132,"ĠdÃ©cidÃ©":3133,"Ġinformation":3134,"gÃ©e":3135,"Ã©chelle":3136,"Ġnew":3137,"tibles":3138,"Ġconflits":3139,"Ġcircons":3140,"tance":3141,"Ġgrandes":3142,"aume":3143,"Ġpopulations":3144,"Ġformul":3145,"Ġutiliser":3146,"initiative":3147,"ĠlimitÃ©":3148,"ĠresponsabilitÃ©s":3149,"ĠcatÃ©gorie":3150,"Ġactions":3151,"Ġadress":3152,"ĠcomplÃ¨":3153,"2004":3154,"................":3155,"visi":3156,"tern":3157,"Ġobservations":3158,"Ġwww":3159,"Ġplut":3160,"Ġenregistr":3161,"Ġdialogue":3162,"Ġcontinue":3163,"jus":3164,"Ġchi":3165,"alinÃ©a":3166,"Ġcrimin":3167,"Ġfonctionnaires":3168,"ĠproposÃ©":3169,"Ġrelativement":3170,"cad":3171,"Ġcomptes":3172,"Ġpatri":3173,"icateurs":3174,"Ã©quipe":3175,"Ġorganes":3176,"anie":3177,"Ġconvient":3178,"iÃ©s":3179,"Ġlimite":3180,"Ġanim":3181,"ox":3182,"Ġsoli":3183,"ĠrÃ©fugi":3184,"ork":3185,"ult":3186,"Ġ?":3187,"Ġappar":3188,"ĠmÃ©thode":3189,"cn":3190,"ĠprÃ©vues":3191,"ĠÃ©valu":3192,"Ġindividu":3193,"Ġsignal":3194,"ĠprioritÃ©":3195,"oncÃ©":3196,"Ġhand":3197,"roÃ®tre":3198,"gion":3199,"Ġchim":3200,"Ġanalyse":3201,"exc":3202,"pace":3203,"ĠindÃ©pend":3204,"matiques":3205,"Ġtermin":3206,"Ġvoyage":3207,"Ġru":3208,"Ġbul":3209,"Ġbe":3210,"Ġpropres":3211,"Ġquand":3212,"ĠcrÃ©dit":3213,"till":3214,"tances":3215,"appr":3216,"Ġâĸª":3217,"Ġaccueil":3218,"Ġcn":3219,"Ġdonne":3220,"Ġlit":3221,"Ã©taires":3222,"objectif":3223,"Ġcondition":3224,"Ġlan":3225,"Ġgarantir":3226,"Ġterritoires":3227,"ĠespÃ¨ces":3228,"air":3229,"uit":3230,"fic":3231,"Ġrenouv":3232,"Ġtur":3233,"ĠplutÃ´t":3234,"Ġconven":3235,"Ġmodification":3236,"ĠmontrÃ©":3237,"Ġconsultatif":3238,"Ġgro":3239,"Ġidentif":3240,"Ġcontenu":3241,"amb":3242,"Ġjuridiques":3243,"Ġara":3244,"ĠdÃ©ch":3245,"Ġlab":3246,"ĠsuccÃ¨s":3247,"2003":3248,"Ġmoyenne":3249,"Ġfamili":3250,"orisation":3251,"amÃ©liorer":3252,"Ġetc":3253,"odi":3254,"Ġgouvernementales":3255,"position":3256,"Ġremb":3257,"lif":3258,"Ġformes":3259,"ĠrÃ©forme":3260,"Ġfaits":3261,"dessus":3262,"Ġcolombie":3263,"Ġcentrale":3264,"ĠnÃ©gociations":3265,"gÃ©es":3266,"Ġauxqu":3267,"uration":3268,"Ġentreprise":3269,"Ġenvo":3270,"Ġenfin":3271,"22":3272,"tine":3273,"Ġ60":3274,"enquÃªte":3275,"Ġpn":3276,"63":3277,"Ġfisc":3278,"uide":3279,".)":3280,"Ġagents":3281,"amÃ©lioration":3282,"Ġexaminer":3283,"quoi":3284,"ĠÃ©tablir":3285,"nexes":3286,"Ġquo":3287,"Ġrapid":3288,"ouverture":3289,"ade":3290,"demn":3291,"Ġrapporteur":3292,"ĠfÃ©dÃ©rale":3293,"ĠmÃ©dec":3294,"Ġsurtout":3295,"Ġmaladies":3296,"Ġcompa":3297,"ttawa":3298,"Ġministres":3299,"Ġseul":3300,"Ġaurait":3301,"Ġcorre":3302,"experts":3303,"Ġappliqu":3304,"Ġottawa":3305,"Ġlibre":3306,"ĠdÃ©clarÃ©":3307,"ĠentraÃ®":3308,"Ġanalys":3309,"Ġprim":3310,"ĠbÃ©nÃ©fic":3311,"ĠÌĪ":3312,"tale":3313,"Ġconsommation":3314,"Ġvise":3315,"emb":3316,"Ġtypes":3317,"ĠutilisÃ©s":3318,"gar":3319,"Ġengagements":3320,"ination":3321,"ov":3322,"Ġit":3323,"ĠutilisÃ©":3324,"Ġadap":3325,"icro":3326,"rage":3327,"Ġintellec":3328,"itable":3329,"tir":3330,"Ġpren":3331,"Ġpourquoi":3332,"Ġconcurrence":3333,"Ġtiers":3334,"Ġlocaux":3335,"Ġcommune":3336,"dits":3337,"Ġfab":3338,"2001":3339,"Ġ2009":3340,"ĠÃ©labor":3341,"Ġdirectives":3342,"Ġait":3343,"Ġprestations":3344,"Ġhandica":3345,"can":3346,"icip":3347,"antill":3348,"ĠdÃ©partement":3349,"Ġrecherches":3350,"Ġtrop":3351,"ĠrÃ©mun":3352,"Ġactuelle":3353,"isi":3354,"Ġchacun":3355,"40":3356,"Ġcandidats":3357,"ĠrÃ©us":3358,"univers":3359,"ask":3360,"ĠprÃ©vu":3361,"Ġfich":3362,"amÃ©rique":3363,"Ġvoud":3364,"atoire":3365,"Ġopp":3366,"Ġhistor":3367,"Ġ1995":3368,"blement":3369,"Ġiii":3370,"Ġconflit":3371,"ĠcaractÃ¨re":3372,"Ġcommissaire":3373,"Ġer":3374,"Ġisra":3375,"ĠÃ©p":3376,"identi":3377,"----":3378,"Ġmunicip":3379,"Ġbrev":3380,"df":3381,"ĠrÃ¨glements":3382,"Ã¨rent":3383,"Ġcompagn":3384,"ĠimmÃ©di":3385,"Ġparc":3386,"Ġcommis":3387,"novation":3388,"Ġroyaume":3389,"Ġsubs":3390,"Ġprovisoire":3391,"Ġlac":3392,"Ġpacif":3393,"Ġsuper":3394,"enreg":3395,"endu":3396,"Ġafrica":3397,"Ġlu":3398,"rimer":3399,"Ġrembours":3400,"Ġcomprendre":3401,"hÃ©sion":3402,"oto":3403,"Ãªte":3404,"ĠdÃ©pos":3405,"ĠthÃ©":3406,"ĠspÃ©ciale":3407,"Ġeffic":3408,"Ġveiller":3409,"expÃ©rience":3410,"Ġmilitaires":3411,"ĠrÃ©gionaux":3412,"Ġmilitaire":3413,"Ġtranspar":3414,"Ġinterne":3415,"Ġaliments":3416,"Ã©tique":3417,"ting":3418,"ĠrÃ©gionales":3419,"Ġprestation":3420,"27":3421,"tendu":3422,"Ġcoup":3423,"ĠvÃ©hicules":3424,"28":3425,"ĠtraitÃ©s":3426,"Ġintro":3427,"Ġrevenus":3428,"Ġclas":3429,"Ġdistribution":3430,"onnes":3431,"Ġvra":3432,"Ġcommentaires":3433,"ĠpÃ©":3434,"Ġordin":3435,"ĠrÃ©vis":3436,"ĠrÃ©parti":3437,"vestissements":3438,"ĠlÃł":3439,"Ġsolution":3440,"Ġpermanent":3441,"Ġdevons":3442,"tas":3443,"Ġchambre":3444,"Ġavez":3445,"Ġmac":3446,"exa":3447,"Ġaura":3448,"augment":3449,"entiss":3450,"osph":3451,"Ġcoll":3452,"pati":3453,"Ġmort":3454,"Ġsociales":3455,"Ġconstitution":3456,"Ġpublication":3457,"Ġatta":3458,"rc":3459,"Ġdix":3460,"Ġetats":3461,"illez":3462,"Ġsolutions":3463,"Ġhe":3464,"Ġquelque":3465,"Ġfrance":3466,"06":3467,"ĠactivitÃ©":3468,"actions":3469,"Ġperspec":3470,"Ġneu":3471,"Ġclairement":3472,"Ġsubstances":3473,"Ġpil":3474,"Ġraisons":3475,"investissement":3476,"occasion":3477,"ath":3478,"Ġestim":3479,"Ġvote":3480,"Ġsommet":3481,"Ġmarque":3482,"Ġcertif":3483,"Ġici":3484,"ak":3485,"Ġpalestin":3486,"vres":3487,"yl":3488,"entrÃ©e":3489,"ain":3490,"Ġsco":3491,"Ġunique":3492,"lair":3493,"Ġconsommateurs":3494,"Ġguide":3495,"Ġchine":3496,"Ġlesquelles":3497,"Ã¢ge":3498,"britannique":3499,"ĠrÃ©fugiÃ©s":3500,"ĠcompÃ©t":3501,"Ġorig":3502,"Ġ35":3503,"ĠdÃ©clarations":3504,"ore":3505,"Ġlocales":3506,"Ġhandicap":3507,"ĠgÃ©nÃ©ralement":3508,"Ġprovinces":3509,"Ġactes":3510,"Ġprovenant":3511,"ĠcrÃ©Ã©":3512,"Ġmess":3513,"Ġsuscep":3514,"Ġlesquels":3515,"issons":3516,"bation":3517,"Ġremer":3518,"Ġseule":3519,"arb":3520,"ick":3521,"ĠdÃ©mocratique":3522,"Ġannuel":3523,"ĠbÃ¢":3524,"ĠmÃ©canisme":3525,"prÃ©s":3526,"Ã¨ve":3527,"dis":3528,"Ġlicence":3529,"ĠÃ©crit":3530,"heure":3531,"Ġrepro":3532,".-":3533,"cident":3534,"Ġrapidement":3535,"Ġcop":3536,"Ġprincipales":3537,"Ġtravailler":3538,"urÃ©":3539,"Ġforum":3540,"ette":3541,"Ġsouha":3542,"ative":3543,"dite":3544,"dation":3545,"avenir":3546,"adap":3547,"Ġpaiement":3548,"Ġfron":3549,"lier":3550,"Ġphase":3551,"Ġfabr":3552,"vez":3553,"Ġpouvoirs":3554,"ĠÃ©tro":3555,"vous":3556,"Ġfavoriser":3557,"Ġchiff":3558,"gique":3559,"Ġmissions":3560,"Ġposs":3561,"Ġdon":3562,"Ġaction":3563,"dam":3564,"ider":3565,"lois":3566,"Ġ=":3567,"ĠÃ©li":3568,"Ġensuite":3569,"Ġouv":3570,"amment":3571,"Ġcontribu":3572,"Ġinstallations":3573,"Ġsuis":3574,"Ġsug":3575,"Ġprofessionnels":3576,"association":3577,"Ã©gi":3578,"Ġfabrication":3579,"Ġintellectuelle":3580,"Ġcharte":3581,"ĠspÃ©cifiques":3582,"Ġcarb":3583,"ĠfranÃ§ais":3584,"arm":3585,"ature":3586,"berta":3587,"Ġmicro":3588,"yp":3589,"do":3590,"ĠÃ©nonc":3591,"Ġgestionn":3592,"intÃ©rieur":3593,"loc":3594,"Ġdess":3595,"21":3596,"Ġpouvez":3597,"opie":3598,"Ġjustif":3599,"Ġsemble":3600,"Ġeaux":3601,"ariats":3602,"absence":3603,"aliment":3604,"iance":3605,"ĠtÃ©lÃ©phone":3606,"Ġpersonnels":3607,"quÃªtes":3608,"2002":3609,"Ġpoursuivre":3610,"lie":3611,"Ġbureaux":3612,"ĠministÃ©ri":3613,"Ġmeilleure":3614,"Ã¨te":3615,"Ġpied":3616,"Ġdivul":3617,"vaient":3618,"ĠdÃ©taill":3619,"ly":3620,"iz":3621,"ĠdÃ»":3622,"ĪĴ":3623,"ĠdÃ©pend":3624,"Ġfort":3625,"lex":3626,"sification":3627,"Ã§u":3628,"Ġquelle":3629,"idÃ©":3630,"Ġexclu":3631,"abord":3632,"Ġpeuples":3633,"ĠreprÃ©sente":3634,"cueill":3635,"Ġsciences":3636,"ĠrelÃ¨":3637,"Ġobjet":3638,"ĠprÃ©paration":3639,"Ġimportantes":3640,"moine":3641,"leur":3642,"Ġanci":3643,"Ġsuivante":3644,"autoritÃ©":3645,"uellement":3646,"Ã¡":3647,"Ġtarif":3648,"Ġexer":3649,"Ġestime":3650,"Ã¨tres":3651,"usement":3652,"Ġbel":3653,"Ġsan":3654,"ĠrÃ©sum":3655,"Ġrussie":3656,"Ġmouv":3657,"Ġveuillez":3658,"Ġ33":3659,"Ã©rÃ©s":3660,"ry":3661,"Ġ--":3662,"ĠinfÃ©ri":3663,"Ġfaud":3664,"tez":3665,"Ġqualif":3666,"Ġ45":3667,"ĠmÃ©dicaments":3668,"apon":3669,"Ġarch":3670,"ĠcompÃ©tence":3671,"alie":3672,"Ġraisonn":3673,"Ġall":3674,"habit":3675,"ĠnuclÃ©aires":3676,"Ġbu":3677,"riel":3678,"Ġgens":3679,"Ġmodifier":3680,"ĠdÃ©cou":3681,"Ġfamilles":3682,"htm":3683,"Ġdossier":3684,"agric":3685,"Ġdiffusion":3686,"Ġaugmentation":3687,"Ġcaus":3688,"Ġpleinement":3689,"aine":3690,"Ġfigure":3691,"ĠdÃ©mont":3692,"Ġsuivre":3693,"ĠintÃ©rieur":3694,"impÃ´t":3695,"Ġterrain":3696,"Ġro":3697,"Ġtitu":3698,"Ġtard":3699,"Ã©limination":3700,"ĠmajoritÃ©":3701,"ĠfrÃ©qu":3702,"ĠdÃ©mar":3703,"Ġcommunautaires":3704,"Ġobsta":3705,"Ġvas":3706,"Ġ1994":3707,"Ġdipl":3708,"Ġpatrimoine":3709,"ĠconsÃ©quences":3710,"quÃ©s":3711,"Ġmaladie":3712,"Ġdispose":3713,"ĠÃ©trangÃ¨res":3714,"Ġgre":3715,"cupÃ©":3716,"Ġnaturelles":3717,"enregistrement":3718,"Ġscientifiques":3719,"Ġinvestissements":3720,"qui":3721,"entissage":3722,"Ġfais":3723,"07":3724,"tionnelle":3725,"ms":3726,"Ġfemme":3727,"ome":3728,"Ġservir":3729,"Ġconservation":3730,"agement":3731,"Ġemploi":3732,"ĠrÃ©seaux":3733,"ĠÃ©valuer":3734,"Ġul":3735,"anci":3736,"Ġrespecter":3737,"Ã©tablir":3738,"Ĥ¬":3739,"der":3740,"Ġcapital":3741,"uelles":3742,"ï¿":3743,"ï¿½":3744,"ĠÃ©lÃ©ment":3745,"Ġpasse":3746,"ĠexaminÃ©":3747,"reur":3748,"Ġadmissi":3749,"Ġrecru":3750,"Ġ&":3751,"cÃ©s":3752,"Ġdisponible":3753,"Ġhumanitaire":3754,"Ġchamp":3755,"Ġrefus":3756,"ĠprÃ©f":3757,"Ġvu":3758,"ĠrÃ©sultat":3759,"Ġair":3760,"Ġps":3761,"Ġdifficile":3762,"ĠsupÃ©rieur":3763,"ĠtrÃ©s":3764,"lait":3765,"Ġremar":3766,"ĠÃ©ner":3767,"anges":3768,"Ġcommuniquer":3769,"Ġrempl":3770,"09":3771,"Ġrapide":3772,"Ġappui":3773,"lor":3774,"67":3775,"Ġpen":3776,"ĠrÃ¨gle":3777,"rastructure":3778,"ĠvÃ©r":3779,"jud":3780,"ith":3781,"ĠdifficultÃ©s":3782,"Ġefficaces":3783,"Ġjamais":3784,"Ġpropor":3785,"tiÃ¨me":3786,"âĢĵ":3787,"lemagne":3788,"atriÃ¨me":3789,"Ġconnaissance":3790,"ĠcaractÃ©ristiques":3791,"Ġofficielles":3792,"Ġoutils":3793,"sig":3794,"anger":3795,"Ã©trang":3796,"Ġpropose":3797,"aritÃ©":3798,"tan":3799,"ĠsiÃ¨ge":3800,"ĠdÃ©fis":3801,"Ġcontact":3802,"aise":3803,"wan":3804,"ĠÃ©vÃ©n":3805,"oun":3806,"agriculture":3807,"Ġdirectrices":3808,"Ã©co":3809,"armement":3810,"Ġparticuliers":3811,"57":3812,"Ġoccup":3813,"Ġassociation":3814,"Ġappor":3815,"ĠantÃ©ri":3816,"Ġtraite":3817,"Ġcommerciales":3818,"erver":3819,"Ġpublications":3820,"59":3821,"rement":3822,"Ġjuge":3823,"Ġpaiements":3824,"dre":3825,"Ġmariti":3826,"Ġcouv":3827,"Ġjapon":3828,"Ġconstituent":3829,"Ġinitiative":3830,"Ġintervenants":3831,"arch":3832,"endra":3833,"adresse":3834,"temps":3835,"ĠpassÃ©":3836,"mÃªme":3837,"Ġretour":3838,"ident":3839,"onto":3840,"ĠÃ©quip":3841,"tiquement":3842,"Ġconcep":3843,"sida":3844,"examiner":3845,"ĠdiversitÃ©":3846,"Ġclasse":3847,"Ġhumains":3848,"ĠconformitÃ©":3849,"cÃ©es":3850,"onses":3851,"unitÃ©":3852,"Ġjudiciaire":3853,"Ġmises":3854,"Ã©tudes":3855,"Ġvul":3856,"ĠstratÃ©giques":3857,"Ġpartenariats":3858,"ĠportÃ©e":3859,"Ġontario":3860,"Ġmine":3861,"ĠÃ©lections":3862,"pc":3863,"erva":3864,"Ġchau":3865,"Ġpal":3866,"Ġseraient":3867,"obli":3868,"instal":3869,"ĠrÃ©solutions":3870,"ister":3871,"Ġatteindre":3872,"istan":3873,"Ġach":3874,"aisse":3875,"08":3876,"cemment":3877,"Ġchercheurs":3878,"Ġconsoli":3879,"tenue":3880,"Ġpuisse":3881,"ĠcomplÃ©ment":3882,"Ġclient":3883,"Ġporter":3884,"aÃ¯":3885,"Ġinfra":3886,"Ã«l":3887,"aus":3888,"orta":3889,"affaires":3890,"ĠrÃ©aliser":3891,"Ġessentiel":3892,"universitÃ©":3893,"obtenir":3894,"Ġtox":3895,"let":3896,"tence":3897,"Ġtravers":3898,"ĠprivÃ©e":3899,"Ġpasser":3900,"2000":3901,"Ġsoutenir":3902,"Ġpetites":3903,"itant":3904,"Ġcontac":3905,"Ġdirige":3906,"esti":3907,"ĠrÃ©ponses":3908,"ĠrÃ©gionale":3909,"ĠrÃ©cemment":3910,"prÃ©tation":3911,"ĠprÃ©al":3912,"Ġrestric":3913,"Ġcompter":3914,"Ġcoh":3915,"Ġprincipalement":3916,"Ġpourcent":3917,"aison":3918,"58":3919,"Ġmultip":3920,"applique":3921,"Ġconsci":3922,"ĠcatÃ©gories":3923,"ĠdÃ©tail":3924,"Ġuniquement":3925,"Ġutilisation":3926,"ĠdÃ©velopper":3927,"âĢĿ":3928,"Ġafrique":3929,"Â».":3930,"Ġindique":3931,"informations":3932,"Ġenseign":3933,"ĠdÃ©pÃ´t":3934,"ĠpubliÃ©":3935,"Ġpens":3936,"ĠÃ©chÃ©":3937,"fc":3938,"Ġdispos":3939,"Ġinves":3940,"Ġsaint":3941,"Ġcompara":3942,"Ġcrise":3943,"Ġfaites":3944,"ĠrÃ©aff":3945,"Ġterritori":3946,"yÃ©":3947,"Ġfaci":3948,"Ġrich":3949,"Ġconnexes":3950,"Ġconfiance":3951,"Ġencourage":3952,"ĠgÃ©nÃ©rales":3953,"ĠmÃªmes":3954,"mat":3955,"ka":3956,"oph":3957,"Ġinflu":3958,"Ġprocu":3959,"ption":3960,"ĠÃ©trangers":3961,"Ġsexes":3962,"tables":3963,"Ġsemaine":3964,"lications":3965,"tori":3966,"institut":3967,"49":3968,"Ġbal":3969,"ĠâĢľ":3970,"Ġparents":3971,"Ġred":3972,"Ġmanque":3973,"ĠdÃ©posÃ©":3974,"Ã©change":3975,"Ġparagraphes":3976,"Ġscientifique":3977,"Ġq":3978,"mbres":3979,"ina":3980,"Ġconception":3981,"Ġmaintenir":3982,"sse":3983,"sive":3984,"Ã©t":3985,"Ġtransition":3986,"Ã©tranger":3987,"Ã©volution":3988,"activitÃ©s":3989,"Ġexpos":3990,"nÃ©s":3991,"Ġmobil":3992,"Ġmilliards":3993,"ĠpÃ©nale":3994,"ouvernement":3995,"Ġfinances":3996,"Ġenvironnementale":3997,"Ġimpos":3998,"ĠcrÃ©dits":3999,"Ġparta":4000,"Ġ1990":4001,"Ã©lec":4002,"Ġtest":4003,"Ġpermettent":4004,"larg":4005,"Ġpan":4006,"Ġalimentaire":4007,"ĠdÃ©sarmement":4008,"ĠdÃ©ploy":4009,"Ġdouan":4010,"Ġlimites":4011,"ĠdÃ©lÃ©gations":4012,"Ġcontrac":4013,"ĠrÃ©sul":4014,"33":4015,"tÃ©n":4016,"Ġextr":4017,"ĠeuropÃ©ens":4018,"tenues":4019,"apprentissage":4020,"prit":4021,"Ġindicateurs":4022,"ĠfondÃ©e":4023,"Ġmas":4024,"Ġlocal":4025,"troph":4026,"Ġdeven":4027,"istence":4028,"Ġcontient":4029,"lÃ©g":4030,"ĠconnaÃ®tre":4031,"Ġpetit":4032,"Ġdrogues":4033,"Ġtab":4034,"ran":4035,"itement":4036,"ids":4037,"attention":4038,"raison":4039,"Ġamb":4040,"55":4041,"Ġfinal":4042,"Ġoblig":4043,"nation":4044,"ĠclÃ©s":4045,"Ġrecettes":4046,"ĠtÃ©lÃ©c":4047,"Ġ37":4048,"Ã§ant":4049,"ĠenquÃªte":4050,"Ġtoronto":4051,"Ġsensibilisation":4052,"tionnel":4053,"Ã©quip":4054,"Ġabord":4055,"ompi":4056,"Ġpros":4057,"quie":4058,"irme":4059,"mor":4060,"Ġmag":4061,"rants":4062,"ĠapprouvÃ©":4063,"Ġ500":4064,"Ġache":4065,"engagement":4066,"Ġfaite":4067,"iÃ©es":4068,"tisation":4069,"Ġsch":4070,"Ġjuste":4071,"ĠadÃ©qu":4072,"Ã¨nes":4073,"minaire":4074,"Ġlien":4075,"Ġcorpo":4076,"Ġcontraire":4077,"ortation":4078,"ĠdÃ©cide":4079,"Ġdirect":4080,"lantique":4081,"ĠprÃ©vue":4082,"Ġsituations":4083,"ĠâĪĴ":4084,"Ġsatisfaction":4085,"Ġvoudrais":4086,"cipÃ©":4087,"vÃ©e":4088,"ĠmodÃ¨les":4089,"Ġment":4090,"Ġtent":4091,"ĠdÃ©crit":4092,"Ġadministratives":4093,"istique":4094,"Ġstatistique":4095,"arc":4096,"Ġhaute":4097,"Ġtot":4098,"indi":4099,"td":4100,"Ġtaille":4101,"ĠstabilitÃ©":4102,"mont":4103,"Ã©val":4104,"Ġdossiers":4105,"Ġvit":4106,"Ġconclusion":4107,"net":4108,"identif":4109,"ĠÃ©tudiants":4110,"innovation":4111,"âĤ¬":4112,"Ġemb":4113,"Ġinten":4114,"Ġiv":4115,"Ġjeu":4116,"ĠrÃ©munÃ©ration":4117,"Ġagricoles":4118,"Ġpacte":4119,"bi":4120,"Ġvuln":4121,"espace":4122,"ĠgÃ©nÃ©raux":4123,"Ġpacifique":4124,"Ġ34":4125,"Ġcycle":4126,"ritÃ©":4127,"angere":4128,"ĠdÃ©chets":4129,"esse":4130,"Ġcourriel":4131,"gouvernement":4132,"Ġphysique":4133,"Ġrecommande":4134,"Ġorigin":4135,"ĠrequÃ©r":4136,"Ġsouhaite":4137,"andis":4138,"Ġurba":4139,"tag":4140,"Ġcellu":4141,"ĠadoptÃ©e":4142,"ĠforÃª":4143,"Ġbois":4144,"vant":4145,"Ġformulaire":4146,"fi":4147,"99":4148,"Ġconsiste":4149,"Ġcondam":4150,"Ã©th":4151,"ĠvulnÃ©ra":4152,"ĠempÃª":4153,"Ġimportance":4154,"ÂĴ":4155,"ĠfÃ©dÃ©ration":4156,"Ġcirconstances":4157,"ĠsoulignÃ©":4158,"Ġapplicables":4159,"2008":4160,"Ġsauf":4161,"Ġpartage":4162,"Ġpourcentage":4163,"neu":4164,"port":4165,"Ġexige":4166,"askat":4167,"tible":4168,"ĠgÃ©ograph":4169,"appu":4170,"rons":4171,"ych":4172,"ĠconsÃ©quence":4173,"ĠrÃ©vision":4174,"die":4175,"Ġdomm":4176,"ĠmontrÃ©al":4177,"ĠmodalitÃ©s":4178,"Ġdangere":4179,"Ġpeine":4180,"Ġminu":4181,"add":4182,"appliquer":4183,"joint":4184,"Ġgouvernance":4185,"lusion":4186,"Ġexperts":4187,"Ġarb":4188,"ĠextÃ©ri":4189,"ĠrÃ©partition":4190,"Ġmener":4191,"ĠdÃ©n":4192,"Ġcommerciaux":4193,"ĠdÃ©liv":4194,"31":4195,"vora":4196,"lÃ©s":4197,"riÃ¨re":4198,"Ġmodern":4199,"tur":4200,"Ġrenvo":4201,"chement":4202,"ĠÃ©laborer":4203,"atique":4204,"ĠcompÃ©ti":4205,"Ġtempora":4206,"ĠmalgrÃ©":4207,"Ġappare":4208,"Ġfourni":4209,"Ġtraiter":4210,"Ġpetits":4211,"Ġfournisseurs":4212,"Ġsujets":4213,"uns":4214,"Ġdiver":4215,"Ġfavora":4216,"ĠprÃ©venir":4217,"Ġconcours":4218,"accent":4219,"Ġbibli":4220,"Ġamp":4221,"Ġpresse":4222,"Ġglobale":4223,"Ġauteurs":4224,"inde":4225,"intÃ©g":4226,"Ġsubventions":4227,"ival":4228,"atives":4229,"Ġorganisme":4230,"Ġchimiques":4231,"Ġavanc":4232,"itent":4233,"ĠentiÃ¨re":4234,"ĠparticipÃ©":4235,"Ġclin":4236,"Ġutile":4237,"ha":4238,"Ġate":4239,"Ġroute":4240,"Ġcomporte":4241,"augmentation":4242,"Ġvir":4243,"atta":4244,"impact":4245,"Ġchambres":4246,"oba":4247,"ĠutilisÃ©es":4248,"Ġprofessionnelle":4249,"ĠrÃ£":4250,"toires":4251,"Ġ!":4252,"Ġcarte":4253,"ĠintitulÃ©":4254,"Ġjouer":4255,"Ġsusp":4256,"ĠcomplÃ¨te":4257,"yc":4258,"Ġattribu":4259,"Ġfu":4260,"Ġaccessi":4261,"Ġsurf":4262,"once":4263,"criptions":4264,"inion":4265,"ĠparticuliÃ¨re":4266,"56":4267,"Ġrac":4268,"Ã©lÃ©":4269,"ĠprÃ©occupations":4270,"Ġpertinentes":4271,"irmÃ©":4272,"Ġgarde":4273,"Ġmultila":4274,"Ġpron":4275,"sec":4276,"Ã©lior":4277,"Ġassistance":4278,"iment":4279,"Ġtrafic":4280,"Ġcinquante":4281,"Ġfigurant":4282,"agent":4283,"rales":4284,"Ġpuissent":4285,"Ġtandis":4286,"Ġinsu":4287,"Ġmill":4288,"fa":4289,"pi":4290,"ĠsÃ»re":4291,"Ġfondamentaux":4292,"intervention":4293,"Ġethn":4294,"ĠÃ©lecto":4295,"Ġiss":4296,"ĠexpÃ©ri":4297,"ze":4298,"oses":4299,"Ġ38":4300,"Ġderniers":4301,"Ġpeuple":4302,"Ġjohn":4303,"hum":4304,"ĠconfÃ©rences":4305,"duit":4306,"Ġdivulgation":4307,"ĠenquÃªtes":4308,"itoba":4309,"ynam":4310,"Ġagricole":4311,"Ġcampagne":4312,"Ġexport":4313,"hist":4314,"ĠrÃ©sumÃ©":4315,"Ġbro":4316,"avait":4317,"ok":4318,"Ġprincipale":4319,"her":4320,"existence":4321,"Ġlogici":4322,"Ġcompor":4323,"Ġattention":4324,"Ġdr":4325,"Ġrecevoir":4326,"Ġdiscu":4327,"ĠamÃ©lior":4328,"organisme":4329,"Ġlieux":4330,"Ġsouligne":4331,"Â»,":4332,"ĠarrÃª":4333,"Ġpap":4334,"Ġforte":4335,"Ã´m":4336,"Ġsouff":4337,"oit":4338,"liquent":4339,"isent":4340,"Ġvice":4341,"Ġrelation":4342,"mÃ©diaire":4343,"ĠprÃ©sidence":4344,"cÃ©e":4345,"Ġcivils":4346,"Ġordre":4347,"ĠpÃªches":4348,"Ġaccr":4349,"ĠtrÃ©sor":4350,"diction":4351,"Ġproduire":4352,"Ġrig":4353,"Ġnavig":4354,"Ġproducteurs":4355,"Ġdiffus":4356,"\".":4357,"dessous":4358,"44":4359,"bas":4360,"Ġsimil":4361,"Ġmau":4362,"pection":4363,"mises":4364,"Ġpati":4365,"ga":4366,"Ġpuisque":4367,"Ġving":4368,"Ġconsulter":4369,"ds":4370,"Ġreconnaissance":4371,"ĠdonnÃ©e":4372,"ĠrÃ©alisÃ©s":4373,"Ġmanifest":4374,"ĠprÃ©sentÃ©e":4375,"iditÃ©":4376,"atement":4377,"Ġyork":4378,"exportation":4379,"Ġ36":4380,"ĠsystÃ©":4381,"Ġvolume":4382,"Ġdan":4383,"Ġglobal":4384,"sez":4385,"Ġcrime":4386,"Ġtraitements":4387,"Ġ90":4388,"Ġcontenant":4389,"Ġlabora":4390,"Ġstock":4391,"ĠprÃªts":4392,"Ġordonn":4393,"Ġ1993":4394,"eter":4395,"ĠdÃ©part":4396,"Ġhumaine":4397,"Ġartis":4398,"Ġ39":4399,"migration":4400,"Ġlogement":4401,"Ġmex":4402,"ĠÃ©coles":4403,"oss":4404,"ĠprocÃ©der":4405,"Ġapporter":4406,"enfants":4407,"Ġintergouvernement":4408,"ki":4409,"Ġactuel":4410,"Ġchefs":4411,"Ġprior":4412,"Ġmc":4413,"obligation":4414,"ĠdestinÃ©s":4415,"isÃ©":4416,"Ġ48":4417,"ĠfÃ©dÃ©raux":4418,"ĠpÃ©riodi":4419,"ingu":4420,"Ġrejet":4421,"armes":4422,"ood":4423,"ĠsupplÃ©mentaire":4424,"Ġcontrats":4425,"ĠtÃ¢ches":4426,"mobil":4427,"liers":4428,"Ġpense":4429,"Ã©nie":4430,"Ġappliquer":4431,"Ġtotale":4432,"ĠrÃ©serves":4433,"ĠdÃ©pass":4434,"ĠbÃ¢ti":4435,"Ġcentral":4436,"rimÃ©":4437,"Ġcivil":4438,"atte":4439,"he":4440,"Ġexcep":4441,"hÃ´tel":4442,"tabl":4443,"ennal":4444,"ĠvolontÃ©":4445,"ĠdÃ©finir":4446,"Ġpoursuiv":4447,"utiliser":4448,"Ġperf":4449,"fon":4450,"Ġaffich":4451,"Ġgenre":4452,"Ġgraves":4453,"Ġsugg":4454,"tastroph":4455,"Ġutilisateurs":4456,"ĠpÃ©tro":4457,"Ġslo":4458,"ives":4459,"ĠcollÃ¨g":4460,"effec":4461,"irs":4462,"ĠmenÃ©es":4463,"Ġcompagnie":4464,"Ġdevait":4465,"Ġlum":4466,"Ġsignifica":4467,"accueil":4468,"Ġcatastroph":4469,"ĠgenÃ¨ve":4470,"ĠorganisÃ©":4471,"ĠintÃ©rÃªt":4472,"61":4473,"Ġsexe":4474,"Ġrien":4475,"ola":4476,"ĠspÃ©ciales":4477,"47":4478,"Ġautant":4479,"auc":4480,"program":4481,"Ġtransparence":4482,"Ġcommerciale":4483,"duire":4484,"moins":4485,"37":4486,"Ġbl":4487,"Ġcollecte":4488,"Ġsusceptibles":4489,"Ġtaxe":4490,"Ã©cole":4491,"del":4492,"Ġfournis":4493,"Ġoffrir":4494,"ĠrecommandÃ©":4495,"mosph":4496,"Ġsaskat":4497,"Ġcommunes":4498,"oms":4499,"Ġperte":4500,"Ġ+":4501,"Ġresta":4502,"39":4503,"expression":4504,"ĠaccroÃ®tre":4505,"48":4506,"Ġlec":4507,"Ġtribunaux":4508,"Ġmots":4509,"Ġ55":4510,"Ġfl":4511,"Ġparvenir":4512,"Ġmode":4513,"Ġengagement":4514,"Ġnorme":4515,"ĠpiÃ¨ces":4516,"Ġcombat":4517,"Ġadditionn":4518,"ĠcollectivitÃ©":4519,"tidi":4520,"iant":4521,"35":4522,"Ġconduite":4523,"ĠallÃ©":4524,"Ġ1992":4525,"essai":4526,"Ġte":4527,"Ġdocumentation":4528,"ĠmillÃ©n":4529,"tiennent":4530,"Ġpermanente":4531,"isp":4532,"ussion":4533,"ĠhÃ´tel":4534,"Ġamend":4535,"Ġtient":4536,"Ġpremiers":4537,"Ġpouvant":4538,"ĠdÃ©mocratie":4539,"Ġrenouvel":4540,"Ġlead":4541,"Ġfal":4542,"Ġendro":4543,"Ġcess":4544,"alth":4545,"char":4546,"Ġtrou":4547,"Ġimporte":4548,"Ġretr":4549,"Ġmaison":4550,"Ġsoix":4551,"Ġmari":4552,"Ġcommercial":4553,"ĠassociÃ©s":4554,"66":4555,"Ġrob":4556,"commun":4557,"har":4558,"Ġcru":4559,"Ġdemeure":4560,"ĠexpÃ©rience":4561,"chewan":4562,"Ġphoto":4563,"quÃ©e":4564,"itter":4565,"erie":4566,"Ġsemaines":4567,"ĠÃ©vÃ©nements":4568,"Ġconva":4569,"Ġconforme":4570,"Ġmauva":4571,"Ġbord":4572,"Ġga":4573,"ĠrÃ©perc":4574,"ĠmillÃ©naire":4575,"ĠÃ©nergÃ©":4576,"Ġdynam":4577,"ĠprÃ©sentÃ©s":4578,"lÃ¨ves":4579,"Ġtravaille":4580,"Ġplainte":4581,"tc":4582,"Ġdiscussions":4583,"ruption":4584,"Ġcra":4585,"accep":4586,"yst":4587,"vid":4588,"onora":4589,"resser":4590,"Ġcomprennent":4591,"ĠquantitÃ©":4592,"Ġstructures":4593,"Ġatteint":4594,"less":4595,"ĠreprÃ©sentent":4596,"Ġ...":4597,"ĠsiÃ¨":4598,"Ġbri":4599,"formes":4600,"Ġchemin":4601,"Ġpourra":4602,"45":4603,"Ġmontre":4604,"cadre":4605,"Ġmeilleur":4606,"Ġnomination":4607,"Ġviolations":4608,"Ġsept":4609,"Ġ80":4610,"Ġnaturel":4611,"Ġlongue":4612,"88":4613,"Ġvil":4614,"ĠaugmentÃ©":4615,"Ġencourager":4616,"ĠnuclÃ©aire":4617,"Ġcourt":4618,"Ġap":4619,"Ġaccompagn":4620,"Ġinclu":4621,"Ġrue":4622,"diff":4623,"Ġobtenu":4624,"Ã¨le":4625,"Ġtextes":4626,"Ġcombin":4627,"erait":4628,"para":4629,"Ġvenir":4630,"Ġquotidi":4631,"siques":4632,"ĠvÃ©hicule":4633,"ĠprocÃ¨s":4634,"Ġcab":4635,"ĠeuropÃ©ennes":4636,"'s":4637,"ĠsituÃ©":4638,"Ġcirculation":4639,"Ġminimum":4640,"Ġperform":4641,"Ġindemn":4642,"Ġsor":4643,"Ġparcs":4644,"hip":4645,"dc":4646,"ĠpÃ©r":4647,"Ġsomme":4648,"Ġadul":4649,"Ġsimple":4650,"eng":4651,"ĠlumiÃ¨re":4652,"Ġappuyer":4653,"iens":4654,"Ġfilles":4655,"\",":4656,"ĠrÃ©percussions":4657,"Ġge":4658,"ĠminoritÃ©s":4659,"rastructures":4660,"ya":4661,"Ġauxquels":4662,"Ġsomm":4663,"rateurs":4664,"ĠquatriÃ¨me":4665,"Ġobstacles":4666,"Ġdiscussion":4667,"visionnement":4668,"ĠrÃ©v":4669,"ourg":4670,"Ġ49":4671,"Ġexter":4672,"Ġfre":4673,"Ġheure":4674,"utÃ©s":4675,"seurs":4676,"Ġbiais":4677,"Ġassur":4678,"Ġcorps":4679,"Ġreti":4680,"oug":4681,"fond":4682,"active":4683,"Ġportu":4684,"ĠconsidÃ©ration":4685,"ju":4686,"infrastructure":4687,"Ġ2010":4688,"aider":4689,"effet":4690,"Ã©l":4691,"Ġbiblio":4692,"Ġsuffisamment":4693,"ĠdÃ©rou":4694,"lÃ©es":4695,"âĢĲ":4696,"Ã©der":4697,"Ġanimaux":4698,"Ġretraite":4699,"Ġpsych":4700,"ĠocÃ©":4701,"adaptation":4702,"Ġcomportement":4703,"affaire":4704,"anda":4705,"anmoins":4706,"crire":4707,"Ġvar":4708,"dr":4709,"Ġgouvernementaux":4710,"affec":4711,"Ġjournal":4712,"ĠdÃ©lais":4713,"Ġmotifs":4714,"ĠutilisÃ©e":4715,"tat":4716,"rite":4717,"Ġsuc":4718,"Ġillic":4719,"ĠÃ©changes":4720,"enz":4721,"Ġspati":4722,"Ã¨tes":4723,"ĠconsidÃ©rÃ©":4724,"Ġgam":4725,"tionnels":4726,"liquÃ©":4727,"ĠÃ©chÃ©ant":4728,"Ġviolation":4729,"ĠnÃ©anmoins":4730,"orientation":4731,"Ġ47":4732,"isition":4733,"Ġ1991":4734,"Ġgard":4735,"ĠeffectuÃ©":4736,"tionnement":4737,"Ġpatients":4738,"ĠtempÃ©ra":4739,"ĠsÃ©ances":4740,"Ġculturels":4741,"ĠprÃ©par":4742,"Ġhors":4743,"Ġmanitoba":4744,"ĠÃ©tablissement":4745,"kistan":4746,"Ġinternes":4747,"Ġinstrument":4748,"ciale":4749,"ĠjournÃ©e":4750,"ĠÃ©valuations":4751,"viennent":4752,"ĠadoptÃ©es":4753,"ĠprÃ©vus":4754,"Ġplaintes":4755,"Ġconver":4756,"ĠcÃ´tÃ©":4757,"Ġadopter":4758,"Ġperfec":4759,"Ġstu":4760,"Ġprochaine":4761,"ĠdÃ©tention":4762,"asie":4763,"ĠdegrÃ©":4764,"Ġconventions":4765,"Ġconsens":4766,"uler":4767,"Ġregr":4768,"1999":4769,"Ġvaste":4770,"Ġbur":4771,"itiÃ©":4772,"Ġspec":4773,"Ã©riques":4774,"ida":4775,"ĠthÃ¨me":4776,"rs":4777,"autorisation":4778,"ĠhÃ´":4779,"Ġessais":4780,"oxy":4781,"ĠconsidÃ¨re":4782,"Â«":4783,"orth":4784,"Ġpoids":4785,"Ġdoute":4786,"ĠÃ®":4787,"Ġpoll":4788,"Ã©cos":4789,"Ġbrevets":4790,"Ġhistorique":4791,"Ġvois":4792,"agissant":4793,"nement":4794,"Ġpension":4795,"ilibre":4796,"Ġparfois":4797,"Ġutilisant":4798,"Ġcult":4799,"Ġcandidat":4800,"ail":4801,"ĠexÃ©cutif":4802,"interprÃ©tation":4803,"ates":4804,"extÃ©rieur":4805,"Ġnutri":4806,"oudre":4807,"aliser":4808,"Ġchacune":4809,"ĠconsidÃ©rÃ©e":4810,"Ġinfec":4811,"Ġtorture":4812,"ĠcomitÃ©s":4813,"Ġmaximum":4814,"38":4815,"letin":4816,"Ġdevra":4817,"Ġremboursement":4818,"Ġexportations":4819,"mine":4820,"ĠgÃ©rer":4821,"Ġapplicable":4822,"Ġconstru":4823,"ĠplÃ©n":4824,"long":4825,"quÃ©es":4826,"Ġsubvention":4827,"Ġcomplet":4828,"Ġautoma":4829,"Ġber":4830,"Ġacte":4831,"ĠapprÃ©":4832,"ula":4833,"Ġtendances":4834,"ĠmÃ©r":4835,"ĠchargÃ©e":4836,"ĠfÃ©licite":4837,"Ġtps":4838,"ĠbudgÃ©taires":4839,"Ġcomposition":4840,"argent":4841,"Ġmenace":4842,"Ġbis":4843,"Ġreconnu":4844,"ĠÃ©chantill":4845,"Ġste":4846,"enci":4847,"anistan":4848,"Ġhom":4849,"Ġ32":4850,"ala":4851,"ghanistan":4852,"Ġmol":4853,"Ġpotentiel":4854,"habitat":4855,"Ġconcr":4856,"ĠÃ©lectroniques":4857,"Ġtendance":4858,"ĠprÃ©sidente":4859,"Ġsenti":4860,"Ġlutter":4861,"ĠimmÃ©diatement":4862,"Ġaient":4863,"Ġexerc":4864,"ĠintÃ©grÃ©e":4865,"we":4866,"Ġsoup":4867,"ĠprÃ©li":4868,"environ":4869,"36":4870,"ĠcomprÃ©h":4871,"Ġnouvel":4872,"Ġbila":4873,"lut":4874,"Ġprovinciaux":4875,"ĠÃ©lÃ¨ves":4876,"Ġclassification":4877,"ĠbÃ©nÃ©ficier":4878,"Ġindiquer":4879,"programme":4880,"Ġpression":4881,"ĠprÃ©jud":4882,"Ġsignature":4883,"histoire":4884,"Ġmouvement":4885,"Ġprofessionnel":4886,"Ġentendu":4887,"ĠphÃ©n":4888,"icat":4889,"Ġquoi":4890,"rang":4891,"Ġpopu":4892,"ĠÃ©viter":4893,"Ġscience":4894,"Ġassociations":4895,"Ġinscr":4896,"arma":4897,"ĠvisÃ©es":4898,"Ġpetite":4899,"ĠconcernÃ©s":4900,"Ġdette":4901,"Ġvingt":4902,"Ġouvert":4903,"ĠrÃ©gimes":4904,"ude":4905,"ĠdiffÃ©rences":4906,"exposition":4907,"approbation":4908,"Ġsanc":4909,"ĠdÃ©termination":4910,"Ġtch":4911,"Ġcam":4912,"Ġcadres":4913,"Ġrecens":4914,"ĠbibliothÃ¨":4915,"ĠdÃ©tails":4916,"ĠinvitÃ©":4917,"Ġrecrutement":4918,"ĠchaÃ®":4919,"Ġdistinc":4920,"agers":4921,"Ġ00":4922,"andes":4923,"Ġgratu":4924,"Ġfourniture":4925,"Ġdevenir":4926,"sivement":4927,"iction":4928,"Ġgarantie":4929,"html":4930,"Ġexercice":4931,"Ġauquel":4932,"Ġactive":4933,"34":4934,"atifs":4935,"Ġbulletin":4936,"Ġprie":4937,"quent":4938,"ĠtÃ©lÃ©copie":4939,"isson":4940,"Ġessentiellement":4941,"Ġmor":4942,"Ġconsensus":4943,"ĠprÃ©para":4944,"Ġpresque":4945,"Ġ70":4946,"ĠmÃ©n":4947,"ifor":4948,"ĠprÃ©sentÃ©es":4949,"Ġbru":4950,"Ġlaiss":4951,"Ġpertinents":4952,"esprit":4953,"tionnelles":4954,"Ġsurface":4955,"Ġbless":4956,"ley":4957,"Ġtirer":4958,"Ġtenant":4959,"ko":4960,"ĠÃ©levÃ©s":4961,"adhÃ©sion":4962,"wick":4963,"Ã©rÃ©e":4964,"Ġvacc":4965,"Ġcorrec":4966,"Ġlingu":4967,"Ġoui":4968,"Ġproportion":4969,"Ġsaskatchewan":4970,"uits":4971,"Ġfaudrait":4972,"Ã©rÃ©es":4973,"Ġcouver":4974,"usage":4975,"ĠprÃ©alable":4976,"aur":4977,"Ġ%)":4978,"Ġpossibles":4979,"62":4980,"tor":4981,"Ġannuelle":4982,"ĠintÃ©rim":4983,"Ġfaibles":4984,"son":4985,"Ġexcell":4986,"Ġjurid":4987,"ĠrÃ©ception":4988,"Ġpouvait":4989,"ĠsiÃ¨cle":4990,"ĠmodifiÃ©":4991,"Ġliqu":4992,"ĠvisÃ©s":4993,"nous":4994,"Ã§ons":4995,"approche":4996,"atif":4997,"ĠspÃ©ciaux":4998,"ck":4999,"ĠlimitÃ©e":5000,"Ġclimatiques":5001,"Ġhausse":5002,"Ġinvite":5003,"ĠprÃ©cise":5004,"Ġinterventions":5005,"Ġutilise":5006,"Ġconseiller":5007,"Ġlocale":5008,"Ġmontants":5009,"Ġmach":5010,"Ġgestionnaires":5011,"Ã©rance":5012,"ĠprÃ©parer":5013,"Ġ44":5014,"ĠsÃ»retÃ©":5015,"immigration":5016,"Ġsembla":5017,"Ġ57":5018,"Ġautonom":5019,"Ġvoit":5020,"Ġobligatoire":5021,"ispens":5022,"ĠlÃ©gi":5023,"Ġalimentaires":5024,"Ġcalend":5025,"oure":5026,"Ġparal":5027,"ienne":5028,"sifs":5029,"Ġ99":5030,"Ġong":5031,"Ġfacteur":5032,"achat":5033,"Ġltd":5034,"Ġclair":5035,"Ġeau":5036,"Ġhydro":5037,"Ġferme":5038,"Ġtitulaire":5039,"alimentation":5040,"Ã©valuer":5041,"Ã´ts":5042,"Ã©quipement":5043,"Ġassure":5044,"Ġadministration":5045,"amp":5046,"ĠsÃ©n":5047,"ĠrÃ©vÃ©":5048,"Ġvision":5049,"Ġprolong":5050,"ontal":5051,"oncer":5052,"**":5053,"trich":5054,"Ġadminis":5055,"nu":5056,"ĠforÃªts":5057,"Ġol":5058,"ĠamÃ©lio":5059,"Ġindispens":5060,"fp":5061,"ĠÃ©tablie":5062,"cueillir":5063,"undi":5064,"ĠÃ©tape":5065,"Ġharmon":5066,"Ġexemples":5067,"Ġsanctions":5068,"ĠconÃ§":5069,"Ġsimplement":5070,"Ġcrois":5071,"Ġpnud":5072,"ĠcomplÃ©":5073,"Ġira":5074,"Ġcompren":5075,"Ġadjoint":5076,"ties":5077,"Ġcompens":5078,"Ġvendre":5079,"Ġfabric":5080,"ĠfrontiÃ¨res":5081,"Ġarchives":5082,"Ġsond":5083,"Ġofficielle":5084,"Ġwh":5085,"installation":5086,"Ġperspectives":5087,"ĠvidÃ©":5088,"Ġvilles":5089,"Ġmarques":5090,"ĠÃ©tablis":5091,"ĠcongÃ©":5092,"approvisionnement":5093,"Ġtemporaire":5094,"gal":5095,"itations":5096,"Ġsuisse":5097,"Ġrecons":5098,"Ġcongo":5099,"Ġemplois":5100,"ĠcommencÃ©":5101,"ffis":5102,"Ã©laborer":5103,"Ġculturelles":5104,"Ġcat":5105,"Ġadresse":5106,"vidus":5107,"Ġregistre":5108,"Ġquelles":5109,"Ġpollution":5110,"Ġimmobil":5111,"Ġloin":5112,"Ġdirigeants":5113,"ĠtÃ©lÃ©vision":5114,"Ġefficacement":5115,"Ġprofit":5116,"entement":5117,"Ġsignifie":5118,"68":5119,"ĠrÃ©guliÃ¨rement":5120,"ĠdÃ£":5121,"Ġgamme":5122,"ÃŃ":5123,"intro":5124,"exemp":5125,"yle":5126,"Ġquar":5127,"Ġmm":5128,"ĠunitÃ©s":5129,"Ġtiss":5130,"ĠdÃ©cenn":5131,"tements":5132,"Ġobtenus":5133,"Ġrecouv":5134,"Ġmines":5135,"doc":5136,"ĠrÃ©tabl":5137,"umer":5138,"Ġ58":5139,"Ġrespectivement":5140,"ĠprÃ©cÃ©dent":5141,"rid":5142,"Ġremplir":5143,"Ġchange":5144,"Ã®le":5145,"ĠÃ©laborÃ©":5146,"ĠillÃ©g":5147,"Ġvoix":5148,"raine":5149,"ĠvÃ©rifier":5150,"32":5151,"ĠmÃ©dicaux":5152,"cl":5153,"Ġlargement":5154,"incid":5155,"Ġrequis":5156,"Ġradiodiff":5157,"fe":5158,"Ġminutes":5159,"ĠÃ©qui":5160,"Ġmaritime":5161,"ĠbudgÃ©taire":5162,"icateur":5163,"olu":5164,"Ġveut":5165,"ancouver":5166,"Ġappara":5167,"Ġdistric":5168,"orde":5169,"delÃł":5170,"Ġesc":5171,"Ġsoumettre":5172,"ouss":5173,"icef":5174,"Ġconcentration":5175,"atiques":5176,"ĠÃ©du":5177,"unswick":5178,"Ġrang":5179,"ĠappropriÃ©es":5180,"Ã´mage":5181,"64":5182,"Ġsauve":5183,"ĠcomprÃ©hension":5184,"tabilitÃ©":5185,"Ġraisonnable":5186,"ĠÃ©quipe":5187,"contre":5188,"ban":5189,"ĠcinquiÃ¨me":5190,"Ġ75":5191,"Ġvisi":5192,"Ġpourront":5193,"Ġpassage":5194,"bs":5195,"nie":5196,"Ġinscrit":5197,"Ġtransmission":5198,"Ġtransformation":5199,"Ġadoption":5200,"Ġbande":5201,"rad":5202,"Ġconseill":5203,"ĠlancÃ©":5204,"Ġ59":5205,"Ġaccrue":5206,"offre":5207,"Ġdispositifs":5208,"Ġpertes":5209,"Ġapprofon":5210,"tier":5211,"Ġjeux":5212,"thÃ¨se":5213,"Ġbass":5214,"dan":5215,"Ġpouvons":5216,"Ġsoulev":5217,"ĠcÃ´te":5218,"Ġassez":5219,"Ġbaisse":5220,"cap":5221,"Ġacteurs":5222,"nouv":5223,"ĠnotÃ©":5224,"ĠrÃ©uss":5225,"omc":5226,"Ġceci":5227,"Ġcultures":5228,"ignant":5229,"Ġprogramm":5230,"Ġretard":5231,"tructions":5232,"ĠrÃ©d":5233,"Ġinde":5234,"Ġpayer":5235,"Ġparole":5236,"ĠÃ©quitable":5237,"Ġregard":5238,"Ġcertificat":5239,"inspection":5240,"Ġenfant":5241,"ĠmoitiÃ©":5242,"Ġfigurent":5243,"ĠparallÃ¨":5244,"Ġhong":5245,"Ġnoter":5246,"Ġratif":5247,"Ġmexique":5248,"Ġauront":5249,"Ġcombus":5250,"tralie":5251,"Ġirsc":5252,"Ġtourisme":5253,"Ġdonateurs":5254,"seur":5255,"ĠcontribuÃ©":5256,"Ġkos":5257,"ĠextrÃªme":5258,"col":5259,"Ġexprim":5260,"Ġinfrastructures":5261,"ĠdÃ©mo":5262,"ld":5263,"Ġchose":5264,"Ġculturel":5265,"ende":5266,"ĠpÃ©nal":5267,"Ġsport":5268,"bie":5269,"Ġtrouvent":5270,"Ġprochain":5271,"ĠÃ©tapes":5272,"Ġimportations":5273,"Ġconfidenti":5274,"ormais":5275,"Ġadmissibles":5276,"Ġrelevant":5277,"atoires":5278,"ĠspÃ©cifique":5279,"Ġoptions":5280,"Ġarabe":5281,"observation":5282,"Ġcomprom":5283,"Ġtrain":5284,"ĠdÃ©bats":5285,"Ġnour":5286,"appliquent":5287,"Ã¨que":5288,"Ġturquie":5289,"Ġfranco":5290,"onie":5291,"ĠreprÃ©sentation":5292,"Ġgaranties":5293,"instru":5294,"198":5295,"Ġ300":5296,"auche":5297,"Ġbiennal":5298,"inn":5299,"Ġbases":5300,"ĠtÃ¢che":5301,"ĠsignÃ©":5302,"Ġvancouver":5303,"Ġaven":5304,"Ġextraordin":5305,"Ġmeilleures":5306,"Ġcourant":5307,"Ġhuit":5308,"Ġbanques":5309,"alberta":5310,"Ġrurales":5311,"ĠtÃ©lÃ©commun":5312,"Ġgagn":5313,"Ġessentiels":5314,"Ġofficiel":5315,"Ġhos":5316,"entente":5317,"ĠrelÃ¨ve":5318,"Ġsoixante":5319,"visions":5320,"chÃ©s":5321,"Ġcommissions":5322,"Ġ95":5323,"ĠrÃ©gler":5324,"Ġnotes":5325,"Ġstim":5326,"Ġparis":5327,"Ġprivil":5328,"Ġ`":5329,"Ġoffic":5330,"ĠdÃ©cret":5331,"ĠdÃ©sormais":5332,"Ġkm":5333,"Ġchiffres":5334,"Ã©taient":5335,"613":5336,"ĠagrÃ©":5337,"Ġnavires":5338,"Ġentend":5339,"Ã³":5340,"sep":5341,"Ġ)":5342,"ĠcriminalitÃ©":5343,"ĠbrÃ©s":5344,"Ġrestrictions":5345,"Ġneuf":5346,"Ġstand":5347,"ah":5348,"Ã©rone":5349,"ĠrÃ©pa":5350,"Ġadultes":5351,"ium":5352,"Ġbos":5353,"ĠrÃ©di":5354,"aie":5355,"iliation":5356,"Ġho":5357,"Ġindustries":5358,"Ġremise":5359,"Ġbonnes":5360,"Ġcorruption":5361,"Ġmatern":5362,"ĠlibertÃ©s":5363,"entiel":5364,"ĠdÃ©ployÃ©s":5365,"ĠorganisÃ©e":5366,"por":5367,"Ġmich":5368,"ĠentitÃ©s":5369,"ĠtÃ©moign":5370,"ĠcorÃ©e":5371,"ĠrÃ©soudre":5372,"tÃ©raux":5373,"Ġamendements":5374,"Ġ77":5375,"Ġpoursuite":5376,"ĠintÃ©gra":5377,"ĠrÃ©formes":5378,"Ã©pendant":5379,"assade":5380,"Ġarbit":5381,"Ġressor":5382,"Ġrelever":5383,"Ġrecueil":5384,"chent":5385,"Ġtransform":5386,"eront":5387,"ĠdÃ©cÃ¨s":5388,"Ġdiscip":5389,"rÃ©gion":5390,"acquisition":5391,"dent":5392,"Ġusage":5393,"Ġcrimes":5394,"ĠisraÃ«l":5395,"41":5396,"Ġleaders":5397,"Ġdevront":5398,"intermÃ©diaire":5399,"ĠcÃ©rÃ©":5400,"Ġmot":5401,"Ġoccident":5402,"Ġventes":5403,"Ġofferts":5404,"Ġenj":5405,"ĠvisÃ©e":5406,"ĠÃ©vid":5407,"pos":5408,"Ġconcentrations":5409,"entretien":5410,"Ġprogres":5411,"ĠadressÃ©e":5412,"Ġdestruction":5413,"ends":5414,"Ġsm":5415,"ĠsÃ©par":5416,"Ġclimat":5417,"Ġcalendrier":5418,"ĠisraÃ©li":5419,"ĠultÃ©ri":5420,"Ġcancer":5421,"Ã©tiques":5422,"Ġtouchant":5423,"Ġsti":5424,"minaires":5425,"Ġenvironnementales":5426,"Ġsolid":5427,"Ġaccomplis":5428,"Ġcos":5429,"ĠhandicapÃ©es":5430,"Ġhealth":5431,"Ġhumain":5432,"pital":5433,"Ġcommuns":5434,"Ġlou":5435,"Ġchoses":5436,"ĠdestinÃ©es":5437,"Ġdiminution":5438,"ĠestimÃ©":5439,"parle":5440,"Ġfinancer":5441,"Ġtabac":5442,"ĠbÃ©":5443,"Ġregroup":5444,"Ġdirecteurs":5445,"ĠÃ©tablies":5446,"identitÃ©":5447,"Ġtransit":5448,"Ġdouanes":5449,"Ġenvers":5450,"Ġformat":5451,"ĠdÃ©terminÃ©":5452,"Ġincomb":5453,"Ġmention":5454,"Ġculturelle":5455,"ĠinformÃ©":5456,"chn":5457,"Ġincidences":5458,"Ġprobablement":5459,"Ġocca":5460,"ĠsupÃ©rieure":5461,"Ġdel":5462,"ĠocÃ©ans":5463,"Ã©pendance":5464,"ĠÃ©quival":5465,"Ġactuelles":5466,"Ġquels":5467,"Ġlocation":5468,"Ġterroristes":5469,"istiques":5470,"Ġpauvres":5471,"Ã©rap":5472,"Ġdouble":5473,"ĠprÃ©sentes":5474,"titution":5475,"ĠentiÃ¨rement":5476,"Ġactivement":5477,"cra":5478,"Ġcartes":5479,"Ġproactive":5480,"mÃªmes":5481,"ĠprÃªt":5482,"69":5483,"Ġmessage":5484,"trique":5485,"ĠÃ©duca":5486,"bler":5487,"ee":5488,"ĠprocÃ©dÃ©":5489,"auto":5490,"Ġsalari":5491,"istant":5492,"Ġindustrie":5493,"65":5494,"Ġpartis":5495,"issait":5496,"Ġsexuelle":5497,"ĠrÃ©alitÃ©":5498,"ĠlÃ©gislatives":5499,"Ġha":5500,"Ġeffectuer":5501,"employeur":5502,"Ġadministratif":5503,"Ġsouligner":5504,"ĠphÃ©nom":5505,"Ġconjoint":5506,"Ġpages":5507,"Ġradi":5508,"Ġstation":5509,"wn":5510,"osla":5511,"Ġjury":5512,"ĠrÃ©sidence":5513,"ĠspÃ©cialistes":5514,"Ġray":5515,"Ġconnu":5516,"ĠrÃ©clam":5517,"Ġom":5518,"ty":5519,"ĠprÃ©cÃ©dente":5520,"ĠdÃ©coulant":5521,"Ġconvenu":5522,"ĠdiffÃ©rence":5523,"Ġparticipant":5524,"Ġcul":5525,"lifÃ©ration":5526,"ĠdÃ©gra":5527,"):":5528,"identification":5529,"Ġtre":5530,"asp":5531,"ĠlibÃ©ra":5532,"ĠindÃ©pendant":5533,"Ġbanc":5534,"isÃ©e":5535,"euros":5536,"Ã©nagement":5537,"agir":5538,"Ġtoxic":5539,"Ġopport":5540,"Ġcommencer":5541,"exig":5542,"Ġentrepris":5543,"Ġblan":5544,"ovo":5545,"Ġ41":5546,"43":5547,"Ġquestionn":5548,"Ġentente":5549,"ĠassemblÃ©e":5550,"Ã¨tre":5551,"ĠnÃ©gociation":5552,"Ġfondation":5553,"Ġprati":5554,"Ġincor":5555,"Ġaccus":5556,"sa":5557,"Ġautom":5558,"ĠrÃ©ussi":5559,"Ġflo":5560,"olesc":5561,"Ġenvisag":5562,"espÃ¨ce":5563,"entreprises":5564,"Ġdim":5565,"ĠprÃ©voir":5566,"Ã©cosse":5567,"Ġexistants":5568,"inscription":5569,"ĠÃ©conomies":5570,"erm":5571,"Ġaller":5572,"Ġattend":5573,"73":5574,"Ġagent":5575,"ĠprÃ©sentent":5576,"atlantique":5577,"Ã©lÃ¨":5578,"Ġallant":5579,"harmon":5580,"tures":5581,"--------":5582,"Ġapport":5583,"ĠdatÃ©e":5584,"Ġremplacement":5585,"Ġcertaine":5586,"irmer":5587,"ĠannoncÃ©":5588,"unicef":5589,"ĠprÃ©occupation":5590,"Ġdispositif":5591,"Ġgl":5592,"Ġmanifes":5593,"Ġauxquelles":5594,"Ġlivre":5595,"Ġstocks":5596,"Ġpopulaire":5597,"Ġfamiliale":5598,"inet":5599,"Ġpartout":5600,"Ġrappelant":5601,"Ġconsolidation":5602,"brunswick":5603,"Ġutiles":5604,"cool":5605,"Ġpresta":5606,"meu":5607,"feu":5608,"ĠparticuliÃ¨res":5609,"ĠaccordÃ©e":5610,"Ġras":5611,"ĠmaÃ®":5612,"Ġentier":5613,"ĠaÃ©ro":5614,"Ġaper":5615,"cum":5616,"Ġliaison":5617,"Ġdomin":5618,"ĠbÃ©nÃ©ficiaires":5619,"Ġassu":5620,"accroÃ®tre":5621,"asi":5622,"Ġfondamentales":5623,"Ġformule":5624,"ukon":5625,"oriz":5626,"Ġparlementaire":5627,"Ġperspective":5628,"dn":5629,"allemagne":5630,"Ġpoly":5631,"ĠreconnaÃ®t":5632,"Ã´les":5633,"affectation":5634,"ĠdÃ©fi":5635,"Ġconclure":5636,"ĠemployÃ©":5637,"Ġprogrammation":5638,"Ġcoun":5639,"ĠintitulÃ©e":5640,"lt":5641,"Ġ42":5642,"imposition":5643,"Ġcre":5644,"Ġja":5645,"Ġsusc":5646,"tiers":5647,"Ġ%.":5648,"Ġenvironnementaux":5649,"Ġexh":5650,"ĠdÃ©cri":5651,"ary":5652,"Ġaqu":5653,"anim":5654,"Ġwas":5655,"line":5656,"anche":5657,"tec":5658,"Ġtransfr":5659,"ĠfondÃ©":5660,"Ġjustification":5661,"Ġpoissons":5662,"Ġdestination":5663,"Ġmodes":5664,"ĠÃ©levÃ©e":5665,"Ġgal":5666,"tell":5667,"indemn":5668,"ĠappropriÃ©e":5669,"ĠtempÃ©rature":5670,"ougosla":5671,"ĠeffectuÃ©es":5672,"rance":5673,"Ġec":5674,"accomp":5675,"Ġmoi":5676,"prÃ©sident":5677,"ĠÃ©nergÃ©tique":5678,"Ġmeilleurs":5679,"2009":5680,"icats":5681,"exception":5682,"Ġjeunesse":5683,"Ġdistribu":5684,"Ġatti":5685,"Ġgrave":5686,"Ġprenant":5687,"Ġtitres":5688,"Ġmettant":5689,"Ġprofond":5690,"ĠenregistrÃ©":5691,"Ã©chantill":5692,"Ġalli":5693,"Ġpharma":5694,"Ġincidence":5695,"ĠvulnÃ©rables":5696,"Ġsommaire":5697,"incidence":5698,"importation":5699,"encontre":5700,"ĠprÃ©visions":5701,"Ġafricaine":5702,"Ġcauses":5703,"pdf":5704,"90":5705,"ĠarmÃ©s":5706,"Ġmigrants":5707,"Ġlongtemps":5708,"Ġrent":5709,"Ġagence":5710,"Ġouverte":5711,"Ġlis":5712,"Ġkosovo":5713,"Ġgros":5714,"ville":5715,"Ġmineurs":5716,"Ġcontinuent":5717,"Ġactuels":5718,"Ġvites":5719,"ĠcontrÃ´les":5720,"ical":5721,"Ġtourn":5722,"Ã©larg":5723,"Ġcopie":5724,"Ġgol":5725,"interdiction":5726,"Ġcorrespondant":5727,"Ġindividus":5728,"Ġvoici":5729,"Ġed":5730,"Ġdra":5731,"Ġmultiples":5732,"Ġchoisir":5733,"Ġclau":5734,"Ġlimiter":5735,"idÃ©e":5736,"Ġ65":5737,"Ġrestre":5738,"Ġactifs":5739,"wp":5740,"ĠÃ©th":5741,"Ġcomplexe":5742,"Ġbate":5743,"Ġtraditionnels":5744,"80":5745,"Ġillus":5746,"Ġanciens":5747,"adopter":5748,"Ġsold":5749,"ĠvÃ©g":5750,"77":5751,"Ġsecondaire":5752,"Ã©tats":5753,"Ġconcept":5754,"Ġjuges":5755,"Ġvoies":5756,"ĠliÃ©e":5757,"ĠexposÃ©":5758,"Ġappareils":5759,"ĠconcernÃ©es":5760,"Ġsang":5761,"Ġdistance":5762,"Ġcircu":5763,"Ġcellules":5764,"Ġparam":5765,"cides":5766,"onorable":5767,"orise":5768,"Ġdommages":5769,"ted":5770,"Ġradiodiffusion":5771,"employÃ©":5772,"ĠmenÃ©e":5773,"ĠprÃ©ciser":5774,"Ġ54":5775,"ĠÎ":5776,"Ġuniversity":5777,"yth":5778,"isÃ©s":5779,"ĠreconnaÃ®tre":5780,"intÃ©gritÃ©":5781,"Ġspor":5782,"Ġlux":5783,"ĠÃ©noncÃ©s":5784,"ars":5785,"hÃ©":5786,"Ġyukon":5787,"ĠmentionnÃ©":5788,"Ġalberta":5789,"ĠchÃ´mage":5790,"Ġmenaces":5791,"opÃ©ration":5792,"Ġpme":5793,"ĠÃ¢gÃ©es":5794,"ĠaÃ©rien":5795,"ĠdestinÃ©":5796,"Ã©tudi":5797,"Ġconformes":5798,"itec":5799,"Ġremplacer":5800,"utÃ©":5801,"ĠamÃ©lioration":5802,"ĠproposÃ©e":5803,"Ġfrancoph":5804,"Ġauraient":5805,"effectu":5806,"Ġ]":5807,"Ġperfectionnement":5808,"Ġmada":5809,"ĠsÃ©jour":5810,"Ġcuba":5811,"ymp":5812,"graphie":5813,"Ġhumanitaires":5814,"Ġinterpr":5815,"neuve":5816,"illi":5817,"ik":5818,"fait":5819,"Ġscolaire":5820,"ĠÃ©quipes":5821,"Ġconstituer":5822,"Ġprovo":5823,"Ġsoulign":5824,"tons":5825,"Ġfc":5826,"Ġcee":5827,"ĠÃ©conomie":5828,"ĠdÃ©marche":5829,"ĠuniversitÃ©s":5830,"ĠÅĵu":5831,"Ġ43":5832,"75":5833,"ĠeffectuÃ©e":5834,"Ġnoms":5835,"Ġvues":5836,"Ġcommercialisation":5837,"ĠautorisÃ©":5838,"excell":5839,"cin":5840,"tricitÃ©":5841,"ĠcommuniquÃ©":5842,"Ġdiploma":5843,"ouverne":5844,"98":5845,"Ġinclure":5846,"internet":5847,"Ġlaboratoire":5848,"ĠchargÃ©s":5849,"ĠconsidÃ©rant":5850,"ĠcollÃ¨gues":5851,"Ġseconde":5852,"ĠintÃ©ressÃ©s":5853,"ĠÃ®les":5854,"ĠuniversitÃ©":5855,"Ġencourag":5856,"ĠappropriÃ©":5857,"Ġdiss":5858,"ĠthÃ¨mes":5859,"Ġconstruc":5860,"Ġconsentement":5861,"enc":5862,"Ġvaloir":5863,"quant":5864,"ĠdÃ©tenus":5865,"Ġ56":5866,"Ġsatisfaire":5867,"ĠÃ©liminer":5868,"gue":5869,"reurs":5870,"lacement":5871,"olÃ©rance":5872,"tendue":5873,"Ġden":5874,"issante":5875,"dience":5876,"Ġextraordinaire":5877,"opinion":5878,"tuel":5879,"ĠproposÃ©es":5880,"Ġbrevet":5881,"Ġpilo":5882,"Ġinstitution":5883,"ĠmatÃ©riaux":5884,"ĠrÃ©pondants":5885,"igh":5886,"Ġvac":5887,"Ġby":5888,"Ġordinaire":5889,"tagne":5890,"Ġvivant":5891,"Ġcomport":5892,"Ġeffectivement":5893,"ft":5894,"Ġoffice":5895,"Ġmadame":5896,"ĠtÃ©lÃ©communications":5897,"Ġlettres":5898,"Ġmasse":5899,"ĠprivÃ©s":5900,"Ġaffaire":5901,"encour":5902,"dia":5903,"ĠconsidÃ©rablement":5904,"Ġraciale":5905,"commiss":5906,"ĠpÃ©riodes":5907,"Ġfidu":5908,"Ġsatell":5909,"Ġlour":5910,"ĠintÃ©grÃ©":5911,"Ġinfractions":5912,"ĠriviÃ¨re":5913,"Ġdirecte":5914,"Ġmusique":5915,"Ġnova":5916,"arri":5917,"Ġurg":5918,"ws":5919,"ĠexposÃ©s":5920,"agnos":5921,"ĠeffectuÃ©s":5922,"ĠsuÃ¨de":5923,"Ġmanu":5924,"Ġadministrative":5925,"ĠgÃ©ographique":5926,"ast":5927,"Ġexistantes":5928,"ĠpublicitÃ©":5929,"Ġflu":5930,"Ġsessions":5931,"so":5932,"Ġaugmenter":5933,"Ġindire":5934,"ĠrÃ©alisÃ©":5935,"Ġsurv":5936,"Ġsocio":5937,"Ã©quitÃ©":5938,"ĠsÃ»r":5939,"titudes":5940,"manie":5941,"iseaux":5942,"bo":5943,"ĠrÃ©duit":5944,"alisme":5945,"Ġmilliers":5946,"Ġimpact":5947,"Ġdanger":5948,"Ġnotification":5949,"Ġstric":5950,"ĠtÃ©lÃ©copieur":5951,"Ġpoisson":5952,"Ġrappelle":5953,"Ġsubstance":5954,"Ġjean":5955,"taient":5956,"ule":5957,"Ġcotis":5958,"sp":5959,"Ġ85":5960,"mm":5961,"Ġvisent":5962,"effor":5963,"Ġavoc":5964,"Ġprojec":5965,"Ġtravaillent":5966,"poque":5967,"42":5968,"ham":5969,"Ġgla":5970,"tront":5971,"Ġdimension":5972,"octro":5973,"Ġchances":5974,"Ġrencontre":5975,"ĠaperÃ§u":5976,"ĠbÃ©nÃ©vo":5977,"triques":5978,"Ġher":5979,"erte":5980,"ĠÃ©troite":5981,"ĠextrÃªmement":5982,"ionn":5983,"ĠmortalitÃ©":5984,"estation":5985,"Ġlacs":5986,"Ġsoutenu":5987,"na":5988,"97":5989,"xx":5990,"ĠrÃ©action":5991,"ĠbrÃ©sil":5992,"organisations":5993,"ark":5994,"Ġmanuel":5995,"ĠconstatÃ©":5996,"ĠidÃ©":5997,"Ġcc":5998,"ĠcomposÃ©":5999,"Ġwith":6000,"ĠdÃ©lib":6001,"ĠvÃ©ritable":6002,"Ġimprim":6003,"ĠrequÃ©rant":6004,"ĠaccordÃ©":6005,"mentionn":6006,"Ġchr":6007,"Ġinspec":6008,"tÃ£":6009,"Ġappels":6010,"Ġmg":6011,"Ġvient":6012,"Ġenjeux":6013,"Ġallem":6014,"Ġvoyages":6015,"Ġoccasion":6016,"ĠamÃ©ricains":6017,"Ġcanadian":6018,"ĠreÃ§ues":6019,"Ġcontinuera":6020,"Ġpleine":6021,"Ġplur":6022,"Ġprochaines":6023,"Ġofficiels":6024,"ĠcompÃ©tentes":6025,"Ġrub":6026,"Ġajouter":6027,"ĠunitÃ©":6028,"Ġappartenant":6029,"................................":6030,"ĠmÃ©l":6031,"Ġobligation":6032,"Ġdispens":6033,"Ġenvoy":6034,"ĠrÃ©cente":6035,"Ġhu":6036,"alisÃ©s":6037,"Ġfera":6038,"Ġparent":6039,"Ġmoteur":6040,"Ġpou":6041,"ced":6042,"change":6043,"ĠdisponibilitÃ©":6044,"Ġfutures":6045,"icience":6046,"Ġsimplif":6047,"Ġ400":6048,"Ġsymp":6049,"46":6050,"Ġpuissance":6051,"Ġautour":6052,"Ġinstructions":6053,"ervateurs":6054,"ortÃ©":6055,"Ã¶":6056,"Ġrural":6057,"Ġprofonde":6058,"Ġfacilement":6059,"Ġapplications":6060,"ĠdÃ©couver":6061,"Ġanalyses":6062,"Ġdevaient":6063,"ĠtÃ©l":6064,"Ġdirectrice":6065,"Ġcontamin":6066,"Ġpapier":6067,"Ġparticipent":6068,"itÃ©e":6069,"ĠfÃ©dÃ©rales":6070,"Ġhabituellement":6071,"Ġgroup":6072,"tration":6073,"ĠÃ©cos":6074,"ĠrevÃª":6075,"Ġdoc":6076,"ĠpÃ©trole":6077,"Ġsusmentionn":6078,"Ġchin":6079,"95":6080,"Ġatmosph":6081,"Ġparler":6082,"Ġhal":6083,"lons":6084,"Ġallemagne":6085,"gen":6086,"Ġ%,":6087,"tÃ©ral":6088,"Ġsoudan":6089,"ĠconsacrÃ©":6090,"Ġacquis":6091,"Ġcouverture":6092,"ish":6093,"Ġfixe":6094,"Ġindustrielle":6095,"Ġsort":6096,"biliser":6097,"isations":6098,"inv":6099,"Ġadministrations":6100,"ĠprÃ©liminaire":6101,"ĠreflÃ¨":6102,"ho":6103,"Ã¨ges":6104,"guer":6105,"Ġdiagnos":6106,"Ġquarti":6107,"Ġconfirm":6108,"issue":6109,"cee":6110,"Ġdomicile":6111,"Ġrepos":6112,"Ġassujet":6113,"Ġmondialisation":6114,"ĠaÃ©rienne":6115,"taux":6116,"Ġcatastrophes":6117,"ditions":6118,"Ġstade":6119,"io":6120,"Ġdistrict":6121,"ĠÃ©trangÃ¨re":6122,"Ġinstamment":6123,"ĠaxÃ©e":6124,"Ġretrouv":6125,"lies":6126,"Ġconseillers":6127,"ĠexprimÃ©":6128,"las":6129,"Ġexpress":6130,"erti":6131,"Ġcommande":6132,"ago":6133,"Ġperformance":6134,"ĠhÃ©":6135,"Ġimpliqu":6136,"Ġbac":6137,"Ġfabri":6138,"istÃ©":6139,"Ġadministr":6140,"Ġmr":6141,"itÃ£":6142,"ĠplÃ©niÃ¨re":6143,"Ġrequises":6144,"ĠdÃ©t":6145,"Ġindiquent":6146,"ĠdÃ©lin":6147,"Ġlicences":6148,"Ġprennent":6149,"Ġseuls":6150,"amens":6151,"iver":6152,"ĠnumÃ©rique":6153,"Ġislam":6154,"uc":6155,"Ã©mie":6156,"Ġfichier":6157,"Ġprocureur":6158,"chant":6159,"ĠfranÃ§aise":6160,"Ġend":6161,"Ġ88":6162,"Ġcontinent":6163,"existe":6164,"Ġimmig":6165,"Ġprofessionnelles":6166,"extra":6167,"oz":6168,"Ġprofil":6169,"influ":6170,"ĠespÃ©":6171,"ĠproductivitÃ©":6172,"Ġchron":6173,"Ġliban":6174,"Ġdevoir":6175,"Ġvraiment":6176,"Ġbiologique":6177,"Ġobserver":6178,"Ġportent":6179,"armÃ©e":6180,"Ġsyndic":6181,"Ġcarbone":6182,"indÃ©pendance":6183,"mestre":6184,"cession":6185,"enfance":6186,"Ġinscrits":6187,"ĠcongrÃ¨s":6188,"ologne":6189,"Ġcontribue":6190,"ĠmonÃ©taire":6191,"ĠmÃ©decins":6192,"Ã©sie":6193,"ppe":6194,"acquitter":6195,"Ġestimations":6196,"Ġadolesc":6197,"Ġdemandeur":6198,"Ġamples":6199,"Ġvolontaires":6200,"Ġdynamique":6201,"ĠcarriÃ¨re":6202,"Ġsil":6203,"cial":6204,"Ġgouverne":6205,"Ġconserver":6206,"Ã©ria":6207,"isÃ©es":6208,"Ġcomparaison":6209,"Ġpier":6210,"ĠinvitÃ©s":6211,"Ġprovincial":6212,"Ġpensions":6213,"Ġindispensable":6214,"aÃ©ro":6215,"vÃ©s":6216,"Ġarts":6217,"________________________________":6218,"ĠrÃ©el":6219,"gÃ¨ne":6220,"Ã©viter":6221,"Ġcabinet":6222,"ĠmusÃ©e":6223,"ĠcaraÃ¯":6224,"pour":6225,"jan":6226,"Ġbra":6227,"ĠrÃ©alisations":6228,"gin":6229,"Ġleadership":6230,"ĠdÃ©putÃ©s":6231,"Ġoffrent":6232,"Ġpdf":6233,"Ġsupr":6234,"Ġmodu":6235,"tÃ©rales":6236,"ĠcommuniquÃ©s":6237,"Ġintroduction":6238,"roissement":6239,"arition":6240,"ĠamÃ©liorations":6241,"canada":6242,"Ġateliers":6243,"Ġorientations":6244,"avec":6245,"onneur":6246,"Ġvitesse":6247,"Ġracisme":6248,"Ġreje":6249,"Ġententes":6250,"Ġcollective":6251,"Ġprioritaires":6252,"Ġmaximale":6253,"ĠrÃ©daction":6254,"Ġtaxes":6255,"ĠempÃªcher":6256,"ouvrir":6257,"arrÃªt":6258,"vÃ¨ge":6259,"raux":6260,"ĠrÃ©glementaires":6261,"Ġsimilaires":6262,"Ġmilieux":6263,"aci":6264,"Ġtrente":6265,"Ġflux":6266,"tants":6267,"gÃ©n":6268,"Ġdevez":6269,"car":6270,"Ġclimatique":6271,"introduction":6272,"Ġ46":6273,"Ġbour":6274,"Ġquin":6275,"Ġmentale":6276,"ĠcompÃ©titivitÃ©":6277,"Ġgestionnaire":6278,"publique":6279,"ĠmodifiÃ©e":6280,"Ġfacile":6281,"Ġcomplexes":6282,"exclusion":6283,"triche":6284,"Ġprimaire":6285,"ĠapprÃ©ci":6286,"appuyer":6287,"Ġwest":6288,"Ġliti":6289,"Ġdisposer":6290,"ĠspÃ©cialisÃ©es":6291,"nel":6292,"Ġmenac":6293,"acts":6294,"ĠmÃ©mo":6295,"Ġmy":6296,"Ġfile":6297,"oivent":6298,"Ġpalestinien":6299,"Ġgross":6300,"Ġremercier":6301,"octroi":6302,"Ġcm":6303,"ĠvisÃ©":6304,"Ġpuisqu":6305,"Ġdrogue":6306,"Ġappuie":6307,"ĠclÃ©":6308,"Ġvont":6309,"inÃ©e":6310,"ĠÃ©cou":6311,"ĠconsidÃ©rer":6312,"ĠmaÃ®tr":6313,"lez":6314,"Ġpollu":6315,"Ġart":6316,"Ġbelgique":6317,"Ġ53":6318,"ĠchaÃ®ne":6319,"Ġarrang":6320,"Ġmerc":6321,"ĠformulÃ©es":6322,"Ġautochtone":6323,"Ġcontribuent":6324,"Ġko":6325,"Ġsouver":6326,"dies":6327,"Ġcodes":6328,"Ġfinale":6329,"Ã©rir":6330,"ald":6331,"ĠprotÃ©":6332,"ĠfÃ©min":6333,"Ã©lection":6334,"hydro":6335,"Ġcontacts":6336,"ĠpiÃ¨ce":6337,"ĠbibliothÃ¨que":6338,"Ġbus":6339,"ĠconsidÃ©rÃ©s":6340,"Ġfavorable":6341,"Ġinitiale":6342,"ĠinfÃ©rieur":6343,"ĠprivÃ©es":6344,"ĠsupÃ©rieurs":6345,"ĠliÃ©":6346,"ĠcaraÃ¯bes":6347,"ansion":6348,"Ġproxim":6349,"Ġprescriptions":6350,"Ġcorporation":6351,"Ġenseignants":6352,"Ġnorth":6353,"honorable":6354,"Ġindirec":6355,"ĠmenÃ©":6356,"Ġferro":6357,"Ġisol":6358,"ceu":6359,"Ġvolontaire":6360,"ĠsÃ©ri":6361,"Ġratification":6362,"Ġwe":6363,"onomie":6364,"ĠidÃ©es":6365,"Ġlecture":6366,"ĠÃ©change":6367,"Ġlivres":6368,"Ġnig":6369,"Ġexercer":6370,"ĠappelÃ©":6371,"Ã¼":6372,"ĠintÃ©ressÃ©es":6373,"Ġ1989":6374,"bres":6375,"Ġnaissance":6376,"Ġvoulu":6377,"Ġvisiteurs":6378,"ĠÃ©num":6379,"Ġconstate":6380,"ington":6381,"Ġjudiciaires":6382,"rich":6383,"Ġkil":6384,"ĠÃ©ducation":6385,"ieuses":6386,"Ġ51":6387,"ĠvidÃ©o":6388,"quants":6389,"Ġapproches":6390,"Ġnavigation":6391,"esc":6392,"ĠdÃ©l":6393,"andu":6394,"pol":6395,"Ġadministratifs":6396,"Ġscru":6397,"Ġbosnie":6398,"als":6399,"appare":6400,"Ġvisites":6401,"ĠdÃ©clare":6402,"reu":6403,"ennetÃ©":6404,"Ã¨vement":6405,"dom":6406,"Ġmesurer":6407,"Ġessentielles":6408,"trans":6409,"Ġ52":6410,"lages":6411,"ings":6412,"guÃ©s":6413,"Ġillicite":6414,"Ġmarine":6415,"Ġinstance":6416,"Ġcorrection":6417,"ja":6418,"Ġsert":6419,"Ġhotel":6420,"ĠlÃ©giti":6421,"appelant":6422,"Ġemployeurs":6423,"index":6424,"Ġpreuves":6425,"ĠfrontiÃ¨re":6426,"ajou":6427,"Ġmad":6428,"Ġfortement":6429,"Ġteneur":6430,"Ġdispar":6431,"Ġinclus":6432,"Ġavantage":6433,"Ġunion":6434,"Ġdiscuter":6435,"rador":6436,"Ġmix":6437,"ĠexpÃ©riences":6438,"ĠpossÃ¨de":6439,"ĠavancÃ©s":6440,"alcool":6441,"Ġplate":6442,"moni":6443,"Ġphot":6444,"Ġ1987":6445,"erne":6446,"Ġsac":6447,"ĠantÃ©rieure":6448,"lue":6449,"Ġ04":6450,"Ġconserv":6451,"Ġmotiv":6452,"orteurs":6453,"gies":6454,"ĠalinÃ©a":6455,"Ġconvain":6456,"Ġabou":6457,"cements":6458,"ĠopÃ©rationnelles":6459,"amÃ©rica":6460,"Ġlatine":6461,"Ġfournies":6462,"Ġsatisfais":6463,"ĠrÃ©centes":6464,"Ġ02":6465,"ortateurs":6466,"Ġdiscrimin":6467,"aa":6468,"Ġblanc":6469,"Ġservi":6470,"Ġ01":6471,"Ġessentielle":6472,"utilis":6473,"ĠconÃ§u":6474,"imer":6475,"ĠÃ©vo":6476,"velop":6477,"offrir":6478,"Ã©lectricitÃ©":6479,"Ġprovenance":6480,"hom":6481,"Ġrevue":6482,"Ġpilote":6483,"pt":6484,"ĠengagÃ©":6485,"Ġ67":6486,"ĠlÃ©gislatif":6487,"Ġatteinte":6488,"earch":6489,"ĠirrÃ©":6490,"Ġaccorder":6491,"Ġplanif":6492,"run":6493,"Ġfar":6494,"Ġprofiter":6495,"ĠÃªtes":6496,"Ġeffective":6497,"udence":6498,"ministre":6499,"ĠtÃ©moins":6500,"ĠtÃ´t":6501,"Ã´me":6502,"ĠÃ©t":6503,"Ġsollic":6504,"Ġcibl":6505,"Ġsondage":6506,"rets":6507,"Ġreligie":6508,"Ġroumanie":6509,"igu":6510,"aucune":6511,"Ġmillion":6512,"Ġmotif":6513,"ĠdÃ©terminÃ©e":6514,"Ġferrovi":6515,"].":6516,"Ġespagn":6517,"ĠrÃ©gissant":6518,"arbit":6519,"ax":6520,"ĠdÃ©faut":6521,"Ġautrement":6522,"Ġreproduction":6523,"za":6524,"Ġparlementaires":6525,"ĠdÃ©signÃ©":6526,"entrer":6527,"Ġnomin":6528,"Ġ61":6529,"Ġrevend":6530,"Ġphysiques":6531,"Ġentrepren":6532,"Ġmagn":6533,"Ġcapitaux":6534,"ĠÃ©noncÃ©es":6535,"Ġfournissent":6536,"ĠfondÃ©es":6537,"Ġinh":6538,"Ġuk":6539,"ĠprÃ©server":6540,"Åĵur":6541,"ano":6542,"autom":6543,"mc":6544,"idation":6545,"ĠtÃ©lÃ©char":6546,"Ġautorisation":6547,"Ġdiscours":6548,"Ġdevient":6549,"Ġproche":6550,"Ġdonnent":6551,"ĠportÃ©":6552,"Ġcoordonner":6553,"Ġimpossi":6554,"atteindre":6555,"otechn":6556,"rera":6557,"Ġoffert":6558,"fer":6559,"ĠsuprÃªme":6560,"Ġjoue":6561,"Ġconten":6562,"ĠapportÃ©es":6563,"Ġbiologiques":6564,"ĠnorvÃ¨ge":6565,"tissement":6566,"Ġdav":6567,"ĠcoopÃ©ra":6568,"intement":6569,"Ġvivent":6570,"etat":6571,"Ġsalaire":6572,"Ġphili":6573,"Ġreprise":6574,"nex":6575,"Ġlistes":6576,"Ġmontrent":6577,"Ġcontractant":6578,"ĠnationalitÃ©":6579,"ila":6580,"bc":6581,"Ġ1988":6582,"Ġlancement":6583,"Ġtechnologique":6584,"Ġhypo":6585,"viÃ¨me":6586,"ĠappropriÃ©s":6587,"ĠdÃ©cider":6588,"amendement":6589,"loiement":6590,"Ġfournisseur":6591,"Ġpositive":6592,"Ġcd":6593,"ection":6594,"Ġlivraison":6595,"Ġtiendra":6596,"ĠfixÃ©":6597,"ĠconsidÃ©rable":6598,"ĠtchÃ¨que":6599,"Ġsubsi":6600,"Ġtraditionnelles":6601,"ĠprÃ©judice":6602,"Ġsoutient":6603,"ressions":6604,"iner":6605,"Ġinstitutionnels":6606,"Ġrecour":6607,"Ġenvisager":6608,"ĠcontrÃ´ler":6609,"urÃ©e":6610,"ĠindÃ©pendants":6611,"Ġ98":6612,"mping":6613,"Ġhabitants":6614,"prin":6615,"Ġrapportant":6616,"ĠdÃ©ri":6617,"ĠrÃ©sultant":6618,"Ġtests":6619,"ĠcomplÃ©mentaires":6620,"ĠrequÃªte":6621,"Ġlanc":6622,"vage":6623,"ĠmÃ©decine":6624,"Ġindustriels":6625,"hors":6626,"erra":6627,"instruction":6628,"Ġtenus":6629,"Ġfeuille":6630,"Ġcombattre":6631,"entraÃ®":6632,"Ġdevelop":6633,"Ġinsuffis":6634,"Ġfaudra":6635,"Ġinitial":6636,"Ġasie":6637,"Ġconjointement":6638,"ico":6639,"Ġtraduction":6640,"Ġarabes":6641,"ertise":6642,"Ġvolet":6643,"tante":6644,"iraq":6645,"ĠrÃ©pondu":6646,"Ã¤":6647,"ĠcohÃ©r":6648,"Ġpologne":6649,"ĠprÃ©sentant":6650,"amÃ©nagement":6651,"Ġinfraction":6652,"artis":6653,"Ġcorri":6654,"Ġpalestiniens":6655,"Ġdangereuses":6656,"Ġeffectifs":6657,"ĠrÃ©sistance":6658,"itÃ©es":6659,"Ġgraph":6660,"Ġafghanistan":6661,"Ġfrom":6662,"ĠtÃªte":6663,"Ġappelle":6664,"ĠconcrÃ¨tes":6665,"rÃ©publique":6666,"Ġlacunes":6667,"78":6668,"ĠacceptÃ©":6669,"Ġrenouvellement":6670,"Ġconscience":6671,"vabilitÃ©":6672,"ĠentrÃ©e":6673,"ĠthÃ©or":6674,"Ġlire":6675,"ĠconstituÃ©":6676,"ĠprÃ©cisÃ©ment":6677,"Ġindiquant":6678,"Ġfacultatif":6679,"ĠproximitÃ©":6680,"ĠrÃ©sidents":6681,"Ġgrc":6682,"Ġquestionnaire":6683,"Ġretrait":6684,"51":6685,"cupe":6686,"quÃ©bec":6687,"Ġnun":6688,"pm":6689,"ĠÃ©volution":6690,"Ġsections":6691,"ache":6692,"Ġ800":6693,"Ġplantes":6694,"orge":6695,"alisÃ©":6696,"Ġallou":6697,"Ã©mission":6698,"ĠdÃ©finitions":6699,"Ġchauff":6700,"Ġresearch":6701,"Ġbrut":6702,"Ġapparti":6703,"Ġnul":6704,"alistes":6705,"Ġsurveiller":6706,"Ġmou":6707,"ĠfrÃ©quence":6708,"Ġmessages":6709,"ĠrÃ©ussite":6710,"ĠnommÃ©":6711,"Ġcharges":6712,"Ġhoriz":6713,"Ġcotisations":6714,"Ġcapitale":6715,"andonn":6716,"54":6717,"endrait":6718,"Ġannuels":6719,"ourses":6720,"Ġentra":6721,"Ġreligion":6722,"hc":6723,"tribution":6724,"ĠdÃ©veloppÃ©s":6725,"und":6726,"Ġproposer":6727,"Ã¨dent":6728,"irlande":6729,"Ġpont":6730,"asile":6731,"Ġressort":6732,"Ġreport":6733,"cidents":6734,"exer":6735,"Ġfuturs":6736,"Ġpakistan":6737,"organismes":6738,"Ġblo":6739,"Ġendroit":6740,"Ġsav":6741,"Ġactif":6742,"ĠÃ©larg":6743,"Ġadh":6744,"Ġrh":6745,"Ġpost":6746,"Ã©ronefs":6747,"ĠdÃ©taillÃ©e":6748,"Ġbuts":6749,"Ġlogiciel":6750,"Ġreconstruction":6751,"Ġgouvernementale":6752,"Ġlogiciels":6753,"Ġdevi":6754,"actes":6755,"ĠreÃ§us":6756,"Ġplas":6757,"Ġsin":6758,"Ġtitulaires":6759,"ĠexcÃ©d":6760,"Ġ68":6761,"Ġsymb":6762,"Ġintervention":6763,"onnage":6764,"Ã©rant":6765,"location":6766,"96":6767,"Ġeuro":6768,"ĠultÃ©rieure":6769,"avaient":6770,"ertion":6771,"âĢĶ":6772,"Ġfinlande":6773,"Ġcritique":6774,"Ġvienne":6775,"giques":6776,"Ġsupport":6777,"ĠrÃ´les":6778,"ĠclientÃ¨le":6779,"Ġunifor":6780,"ĠcontinuÃ©":6781,"Ġgri":6782,"ĠrÃ©flex":6783,"Ġsoldats":6784,"Ġformuler":6785,"zÃ©":6786,"ĠsolidaritÃ©":6787,"ovine":6788,"owe":6789,"len":6790,"ulÃ©":6791,"Ġfranc":6792,"ĠamÃ©rique":6793,"Ġbourses":6794,"zÃ©g":6795,"Ġfournie":6796,"Ġindustriel":6797,"Ġavan":6798,"Ġpose":6799,"Ġinformer":6800,"ĠexpÃ©riment":6801,"Ġopportun":6802,"ĠmÃ©tÃ©":6803,"gents":6804,"ĠlÃ¢":6805,"ĠmÃ©rite":6806,"Ġtonnes":6807,"organe":6808,"zÃ©govine":6809,"tiles":6810,"ĠrÃ©cip":6811,"Ġmens":6812,"iration":6813,"Ġsubsidi":6814,"ĠmÃ¨re":6815,"emark":6816,"Ġfro":6817,"Ġexamens":6818,"Ġduquel":6819,"Ġdiam":6820,"Ġexamine":6821,"uxelles":6822,"ĠprÃ©sents":6823,"ĠappliquÃ©es":6824,"Ġformer":6825,"Ġdurables":6826,"ĠdÃ©placement":6827,"Ġfonctionnaire":6828,"nent":6829,"Ġgh":6830,"Ġpib":6831,"Ġchev":6832,"ĠrÃ©pÃ©":6833,"ĠdÃ©cennie":6834,"urants":6835,"outil":6836,"ziÃ¨me":6837,"Ġaccessible":6838,"Ġmoyennes":6839,"Ã©thique":6840,"Ġchale":6841,"Ġtransferts":6842,"Ġhistoriques":6843,"Ġargu":6844,"Ġinvestis":6845,"Ġfaute":6846,"the":6847,"Ġaccessibles":6848,"ĠÃ©lar":6849,"Ġinterdit":6850,"ĠprÃ©oc":6851,"ĠbÃ©nÃ©ficiaire":6852,"Ġdign":6853,"ocde":6854,"ĠrÃ©glementaire":6855,"70":6856,"tar":6857,"Ġatelier":6858,"Ġcollabo":6859,"ĠallÃ©gations":6860,"Ġcompar":6861,"Ġib":6862,"Ġtransactions":6863,"ĠdÃ©fic":6864,"Ġrappro":6865,"Ġimpossible":6866,"Ġjugement":6867,"Ġsecours":6868,"ĠautorisÃ©e":6869,"Ġvillage":6870,"ĠarmÃ©es":6871,"ĠrÃ©paration":6872,"Ġpouvaient":6873,"Ġsup":6874,"ĠprÃ©val":6875,"ĠthÃ©rap":6876,"Ġtan":6877,"ji":6878,"herzÃ©govine":6879,"Ġislamique":6880,"Ġpassagers":6881,"ambassade":6882,"Ġdisposent":6883,"Ġcont":6884,"endent":6885,"Ġsoi":6886,"cevoir":6887,"ĠÃ©vidence":6888,"Ġrassemb":6889,"ĠrÃ©cupÃ©":6890,"ĠrÃ©visÃ©":6891,"ouse":6892,"Ġadmissible":6893,"ettes":6894,"ae":6895,"Ġpouss":6896,"ĠÃ©tudier":6897,"Ġfichiers":6898,"bal":6899,"ĠlibÃ©ration":6900,"Ġrecueillir":6901,"Ġexemplaires":6902,"ĠdÃ©finis":6903,"ĠdiffÃ©rends":6904,"ĠÃ©tablit":6905,"Ġnomm":6906,"Ġsk":6907,"leurs":6908,"ĠparamÃ¨tres":6909,"Ġdar":6910,"ni":6911,"sh":6912,"ĠopÃ©rationnel":6913,"iation":6914,"ports":6915,"Ġnaturels":6916,"ĠdÃ©sir":6917,"ĠÃ©vol":6918,"admissi":6919,"ĠefficacitÃ©":6920,"Ġcommence":6921,"tv":6922,"ailleurs":6923,"rages":6924,"ĠautoritÃ©":6925,"ades":6926,"Ġnuit":6927,"actif":6928,"ĠprÃ£":6929,"Ġmoderne":6930,"Ġpoursuites":6931,"entitÃ©":6932,"ĠjouÃ©":6933,"ĠphÃ©nomÃ¨ne":6934,"Ġmanifestations":6935,"isses":6936,"Ġadolescents":6937,"Ġdistinction":6938,"tens":6939,"Ġmauvais":6940,"tenance":6941,"oeu":6942,"ĠextÃ©rieur":6943,"ĠassociÃ©":6944,"ĠenregistrÃ©s":6945,"Ġcliniques":6946,"Ġpersonnelles":6947,"Ġchoisi":6948,"Ġsouhaitent":6949,"Ġtableaux":6950,"Ġplais":6951,"ena":6952,"pect":6953,"Ġcomposante":6954,"Ġsolide":6955,"ony":6956,"Ġyougosla":6957,"entine":6958,"ĠrÃ©tablissement":6959,"Ġagro":6960,"ĠproposÃ©s":6961,"Ġattentes":6962,"iii":6963,"ĠministÃ©rielle":6964,"Ġrenseignement":6965,"ĠindÃ©pendante":6966,"Ã©rations":6967,"Ġnunav":6968,"Ġmouvements":6969,"Ġajus":6970,"ĠmÃ©thod":6971,"aurer":6972,"ĠengagÃ©s":6973,"Ġprotocoles":6974,"ĠprÃ©ven":6975,"Ġvan":6976,"ker":6977,"ĠÃ¢ge":6978,"Ġpes":6979,"ĠintÃ©grer":6980,"apporter":6981,"ĠÃ©troitement":6982,"ĠperÃ§":6983,"Ġfruits":6984,"ĠcitoyennetÃ©":6985,"Ġrester":6986,"ĠcÅĵur":6987,"ĠmÃ©decin":6988,"Ġitalie":6989,"Ġcur":6990,"Ġexternes":6991,"Ġeuros":6992,"rÃ©d":6993,"Ġinstitut":6994,"Ġlundi":6995,"ĠÃ©quipements":6996,"atie":6997,"omÃ©":6998,"deux":6999,"Ġrappeler":7000,"Ġvendredi":7001,"Ġsida":7002,"Ã©rie":7003,"bÃ©":7004,"Ġchem":7005,"Ġcampagn":7006,"Ġpointe":7007,"ĠrÃ©tro":7008,"accessi":7009,"harmonisation":7010,"Ġbruxelles":7011,"sb":7012,"ocation":7013,"Ġpermettront":7014,"Ġnotion":7015,"Ġmalheure":7016,"Ġsurven":7017,"Ġcourrier":7018,"gence":7019,"Ġvirus":7020,"ĠstÃ©":7021,"envo":7022,"ĠÃ¢gÃ©s":7023,"ĠdÃ©ploiement":7024,"Ġquarante":7025,"ĠtÃ©lÃ©phon":7026,"Ġ600":7027,"Ġmaritimes":7028,"Ġconcernent":7029,"Ġvoyageurs":7030,"Ġportugal":7031,"Ġconsulta":7032,"ĠbÃ¢timent":7033,"dra":7034,"Ġscol":7035,"ĠrÃ©fÃ©rences":7036,"uced":7037,"hi":7038,"Ã©quilibre":7039,"oth":7040,"ĠÃ©lectorale":7041,"Ġsaur":7042,"Ġcompagnies":7043,"ĠmobilitÃ©":7044,"ĠspÃ©cialisÃ©s":7045,"ĠqualitÃ©s":7046,"Ġoct":7047,"ypte":7048,"Ġafricains":7049,"Ġphotos":7050,"Ġdotation":7051,"ĠcritÃ¨re":7052,"Ġcle":7053,"Ġexplique":7054,"ervateur":7055,"ute":7056,"Ġpermettrait":7057,"ĠÃ©chantillons":7058,"ĠhandicapÃ©s":7059,"Ġ08":7060,"Ġnormalement":7061,"ĠsixiÃ¨me":7062,"ores":7063,"Ġsing":7064,"ressÃ©":7065,"Ġinterro":7066,"Ġladite":7067,"ĠajoutÃ©":7068,"Ġolymp":7069,"ĠreÃ§oivent":7070,"Ġcomposantes":7071,"Ġcomprenant":7072,"Ġsemblent":7073,"ystÃ¨mes":7074,"Ġmonn":7075,"Ġjuridiction":7076,"graphique":7077,"Ġtarifs":7078,"Ġscolaires":7079,"lish":7080,"94":7081,"ĠrelevÃ©":7082,"Ġpeines":7083,"Ġregis":7084,"Ġenregistre":7085,"Ġaffirme":7086,"ĠgrÃ¨ce":7087,"Ġrecouvrement":7088,"Ġconstater":7089,"ety":7090,"Ġral":7091,"Ġlake":7092,"ĠmÃ©ta":7093,"Ġdehors":7094,"ani":7095,"Ġutilisent":7096,"Ġsalaires":7097,"gentine":7098,"Ġgains":7099,"oute":7100,"Ġfoy":7101,"1998":7102,"ĠmÃ©dical":7103,"Ġdanemark":7104,"Ġpotentiels":7105,"ĠbÃ¢timents":7106,"Ġstockage":7107,"Ġmaroc":7108,"Ġrestru":7109,"Ġlond":7110,"dev":7111,"ypre":7112,"trait":7113,"ĠlibÃ©ral":7114,"Ġressortiss":7115,"ĠsÃ©minaire":7116,"ĠsituÃ©s":7117,"ĠdÃ©bou":7118,"Ġcroy":7119,"Ġ62":7120,"ĠpropriÃ©taire":7121,"Ġplacement":7122,"Ġfour":7123,"Ġwa":7124,"Ġchanger":7125,"utation":7126,"Ġbudgets":7127,"100":7128,"Ġattendu":7129,"Ġaz":7130,"rions":7131,"Ġsierra":7132,"ĠpubliÃ©s":7133,"Ġslova":7134,"ĠsituÃ©e":7135,"emplois":7136,"Ġorgane":7137,"Ġ'":7138,"Ġmur":7139,"Ġindiens":7140,"Ġdangereux":7141,"inage":7142,"garie":7143,"otan":7144,"Ġobjets":7145,"ĠdÃ»ment":7146,"trois":7147,"comitÃ©":7148,"Ġtenues":7149,"pir":7150,"Ġcampagnes":7151,"ĠcohÃ©rence":7152,"Ġvivre":7153,"Ġpolici":7154,"Ġissus":7155,"ĠsignalÃ©":7156,"Ġ78":7157,"ĠreÃ§oit":7158,"ĠdÃ©ro":7159,"ama":7160,"ĠapportÃ©":7161,"ĠÃ©clair":7162,"Ġatlantique":7163,"ulteurs":7164,"Ġlimited":7165,"ĠconsidÃ©rÃ©es":7166,"tiens":7167,"occupation":7168,"Ġtechnologiques":7169,"riture":7170,"duits":7171,"entremise":7172,"roy":7173,"Ġaccepter":7174,"avons":7175,"ĠrÃ©elles":7176,"53":7177,"Ġsoumises":7178,"Ġsalu":7179,"Ġdescrip":7180,"guay":7181,"Ġmodernisation":7182,"Ġtissus":7183,"nels":7184,"Ġblanch":7185,"Ġmodifiant":7186,"52":7187,"Ġfallait":7188,"ĠintÃ©rimaire":7189,"Ġendroits":7190,"xy":7191,"ĠdÃ©signation":7192,"infra":7193,"Ġwor":7194,"Ġsaisie":7195,"212":7196,"tÃ©rale":7197,"Ġinu":7198,"ĠprÃ©cises":7199,"Ġrestent":7200,"Ġstandard":7201,"Ġreligi":7202,"Ġ#":7203,"rin":7204,"ĠquantitÃ©s":7205,"Ġsolde":7206,"Ġsectori":7207,"Ã¯d":7208,"Ġrepose":7209,"ĠpÃ©riodique":7210,"Ġfo":7211,"Ġtransmettre":7212,"Ġrw":7213,"ĠremÃ©di":7214,"mber":7215,"Ġcolon":7216,"Ġspecta":7217,"Ġpct":7218,"journ":7219,"ĠminÃ©ra":7220,"Ġrecensement":7221,"attÃ©n":7222,"Ġnotif":7223,"Ġdevelopment":7224,"ĠassociÃ©e":7225,"oirs":7226,"Ġcote":7227,"honneur":7228,"ĠcohÃ©sion":7229,"Ġaccess":7230,"Ġoptim":7231,"ech":7232,"ĠcomposÃ©s":7233,"ĠexpressÃ©ment":7234,"Ġfranch":7235,"Ġlancer":7236,"paravant":7237,"Ġcertification":7238,"insertion":7239,"ĠrÃ©per":7240,"audience":7241,"Ġresponsabilisation":7242,"Ġdommage":7243,"Ġinqui":7244,"ĠÃ©tranger":7245,"Ġretourn":7246,"ĠdÃ©gag":7247,"ĠmÃ©tal":7248,"ĠdÃ©sire":7249,"ault":7250,"Ġeffort":7251,"ĠdÃ©tru":7252,"Ġsupprimer":7253,"Ġluxemb":7254,"eld":7255,"orÃ©":7256,"Ġflex":7257,"Ġ64":7258,"ataire":7259,"Ġpharmaceu":7260,"Ġbilan":7261,"effectuer":7262,"Ġchili":7263,"Ġoiseaux":7264,"Ġ87":7265,"Ġfiscale":7266,"ĠrÃ©elle":7267,"Ġ150":7268,"Ġvoisins":7269,"Ġchypre":7270,"Ġvols":7271,"ĠinfÃ©rieure":7272,"Ġouest":7273,"ĠamÃ©ricain":7274,"ĠappliquÃ©e":7275,"Ġethniques":7276,"graphiques":7277,"Ġcnuced":7278,"ĠtotalitÃ©":7279,"Ġlaw":7280,"Ġrom":7281,"Ġordonnance":7282,"Ġoffrant":7283,"Ġagences":7284,"ipeg":7285,"Ġachats":7286,"Ġethnique":7287,"Ġmondiaux":7288,"Ġnetto":7289,"nouveau":7290,"istent":7291,"Ġsolides":7292,"Ġidentifier":7293,"Ġlaisse":7294,"Ġjac":7295,"innipeg":7296,"Ġincombe":7297,"Ġpassant":7298,"Ġbons":7299,"tension":7300,"Ġpourtant":7301,"Ġsuivent":7302,"Ġbassin":7303,"Ġvieill":7304,"institution":7305,"Ġexistant":7306,"uner":7307,"itte":7308,"ventaire":7309,"Ġmaur":7310,"ĠexpÃ©":7311,"Ġbritannique":7312,"Ġfutur":7313,"Ġchasse":7314,"Ġapprofondie":7315,"Ã©largissement":7316,"Ġconcert":7317,"Ġportefeu":7318,"Ġsensibiliser":7319,"Ġdue":7320,"appar":7321,"ĠintÃ©grÃ©s":7322,"commission":7323,"Ġconsig":7324,"Ġsusceptible":7325,"ĠscÃ¨ne":7326,"Ġenvisage":7327,"ung":7328,"Ġsatisfait":7329,"Ġremercie":7330,"Ġagir":7331,"Ġ63":7332,"Ġnavire":7333,"Ġmalheureusement":7334,"talement":7335,"Ã©re":7336,"osce":7337,"Ġdg":7338,"tue":7339,"Ġscrutin":7340,"Ġremerci":7341,"Ġformulation":7342,"Ġsecondaires":7343,"australie":7344,"laise":7345,"Ġagriculture":7346,"Ġamor":7347,"Ġcouleur":7348,"ĠdÃ©signÃ©s":7349,"ĠopÃ©rationnelle":7350,"Ġclinique":7351,"importe":7352,"ĠcompÃ©tents":7353,"any":7354,"Ġadministrateurs":7355,"onÃ©sie":7356,"ataires":7357,"sim":7358,"Ġvia":7359,"Ġmettent":7360,"bonne":7361,"ĠdifficultÃ©":7362,"Ġdonnant":7363,"ĠcoopÃ©rer":7364,"Ġminor":7365,"Ġcroatie":7366,"Ġbio":7367,"Ġcoordonnateur":7368,"dez":7369,"Ġpersonnelle":7370,"ĠrÃ©alisÃ©es":7371,"Ġpartager":7372,"Ġmariage":7373,"Ġprintemps":7374,"Ġtax":7375,"Ġï":7376,"Ġ1985":7377,"ĠpayÃ©":7378,"ĠÃ©levÃ©es":7379,"leu":7380,"Ġdemandeurs":7381,"ĠmÃ©taux":7382,"Ġcouvrir":7383,"Ġsait":7384,"arif":7385,"ĠÂ·":7386,"Ġsaisi":7387,"ĠajoutÃ©e":7388,"ĠcÃ©lÃ©":7389,"Ġbay":7390,"Ġfuture":7391,"ĠÃ©crite":7392,"Ġdavid":7393,"Ġfondamental":7394,"ortateur":7395,"opposition":7396,"arts":7397,"ĠdÃ©placÃ©es":7398,"Ġbat":7399,"Ãªtements":7400,"Ġslov":7401,"vues":7402,"ologation":7403,"lÃ¨vement":7404,"Ġcollection":7405,"ĠdiminuÃ©":7406,"ĠmÃ©moire":7407,"ĠsystÃ©matique":7408,"image":7409,"Ġfiducie":7410,"Ġrapporte":7411,"ousse":7412,"ĠrÃ©col":7413,"Ġcollaborer":7414,"Ġrechange":7415,"Ġinvo":7416,"Ġpartenaire":7417,"Ġfes":7418,"ĠbÃ©nÃ©ficient":7419,"Ġaides":7420,"Ġcible":7421,"ĠÃ©ventail":7422,"Ġpermanents":7423,"Ġdil":7424,"inions":7425,"Ġbiotechn":7426,"encourager":7427,"Ġ97":7428,"Ġiden":7429,"ĠsÃ©v":7430,"))":7431,"Ġtic":7432,"Ġaltern":7433,"ciation":7434,"ĠÃ©lo":7435,"Ġparticipe":7436,"Ġpenser":7437,"Ġuniversitaires":7438,"Ġprovinciales":7439,"rits":7440,"ĠscÃ©n":7441,"itables":7442,"iversaire":7443,"traduction":7444,"Ġbout":7445,"Ġquartier":7446,"attants":7447,"93":7448,"Ġpierre":7449,"lets":7450,"Ġdesqu":7451,"Ġservent":7452,"ĠdÃ©finies":7453,"Ã©lÃ©rer":7454,"ĠassociÃ©es":7455,"Ġfas":7456,")(":7457,"Ġofficieuses":7458,"endice":7459,"Ġmachines":7460,"oweÃ¯":7461,"ĠpriÃ©":7462,"Ã¨lement":7463,"Ġfoi":7464,"Ġfils":7465,"Ġham":7466,"Ġrendus":7467,"temp":7468,"Ġexclusivement":7469,"ĠconfirmÃ©":7470,"Ġposer":7471,"Ġken":7472,"Ġchercher":7473,"Ġsemblables":7474,"ĠÃ©mis":7475,"Ġbag":7476,"point":7477,"intÃ©rÃªts":7478,"itablement":7479,"ĠconsidÃ©rations":7480,"Ġwinnipeg":7481,"Ġroutes":7482,"dp":7483,"italie":7484,"Ġbulgarie":7485,"ĠobservÃ©":7486,"ĠnÃ©cessairement":7487,"Ã©conomique":7488,"ulsion":7489,"ĠtrouvÃ©":7490,"excellence":7491,"Ġespagne":7492,"Ġkg":7493,"Ã©do":7494,"Ġrenvoi":7495,"ĠtouchÃ©s":7496,"Ġclu":7497,"wer":7498,"Ġtar":7499,"hÃ´":7500,"ĠdÃ©tection":7501,"tawa":7502,"estres":7503,"Ġconvi":7504,"iteur":7505,"session":7506,"ĠcrÃ©di":7507,"Ġimages":7508,"umes":7509,"vitÃ©":7510,"Ġstable":7511,"Ġmajeure":7512,"Ġfilm":7513,"Ġvictime":7514,"Ġstruct":7515,"Ġoccasions":7516,"Ġrequise":7517,"demment":7518,"ĠsÃ©pa":7519,"quez":7520,"ĠjugÃ©":7521,"Ġeffectif":7522,"Ã©lÃ©ment":7523,"Ġdevenu":7524,"pers":7525,"Ġenregistrement":7526,"Ġinterd":7527,"ĠmÃ©diateur":7528,"exemple":7529,"Ġpositif":7530,"empÃª":7531,"Ġpartiel":7532,"ĠmÃ©dicament":7533,"ĠentraÃ®ner":7534,"Ġquelcon":7535,"orgie":7536,"tile":7537,"istage":7538,"ĠarrÃªt":7539,"Ġreprises":7540,"Ġannonce":7541,"iterran":7542,"acdi":7543,"Ġexterne":7544,"ĠconsacrÃ©e":7545,"ĠopÃ©rationnels":7546,"Ġsyste":7547,"Ġnunavut":7548,"Ġcritiques":7549,"Ġsaison":7550,"Ġarrangements":7551,"tisme":7552,"Ġpositifs":7553,"cieux":7554,"Ġtiens":7555,"Ġrendue":7556,"Ġconduit":7557,"Ġchiffre":7558,"ĠconsidÃ©rables":7559,"ĠorganisÃ©es":7560,"ĠpÃ©d":7561,"Ġ250":7562,"ĠkoweÃ¯":7563,"ampleur":7564,"ive":7565,"Ġsols":7566,"Ġclassement":7567,"nÃ©es":7568,"Ġappuy":7569,"Ġexpliquer":7570,"Ġrouge":7571,"Ġparven":7572,"Ġpositions":7573,"dh":7574,"inal":7575,"ĠoccupÃ©":7576,"ĠÃ©chelle":7577,"Ġtiennent":7578,"ĠautorisÃ©s":7579,"Ġserre":7580,"Ġronde":7581,"Ġitali":7582,"ĠprivilÃ©gi":7583,"ĠappliquÃ©":7584,"Ġbang":7585,"Ġrestruct":7586,"Ã³n":7587,"erba":7588,"Ġlaisser":7589,"Ġtouche":7590,"Ġare":7591,"sur":7592,"Ġamen":7593,"Ġprenantes":7594,"Ġinvestissement":7595,"oupe":7596,"Ġlogements":7597,"ĠremÃ©dier":7598,"Ġgo":7599,"Ġtarifaire":7600,"Ġobservateurs":7601,"Ġconstante":7602,"ĠpropriÃ©taires":7603,"Ġvrai":7604,"ĠrÃ©cep":7605,"Ġformulaires":7606,"anglais":7607,"Ġobstacle":7608,"Ġserbie":7609,"Ġvoil":7610,"Ġengage":7611,"Ġsurvie":7612,"ĠdÃ©pit":7613,"Ġprimaires":7614,"ĠdÃ©finit":7615,"Ġhauteur":7616,"Ġinvesti":7617,"Ġhongrie":7618,"ĠÃ©noncÃ©":7619,"Ġ1980":7620,"Ġmarge":7621,"Ġenglish":7622,"Ġimmun":7623,"Ġnette":7624,"ĠspÃ©cialement":7625,"Ġpertur":7626,"illon":7627,"landais":7628,"vient":7629,"parg":7630,"institutions":7631,"Ġsouples":7632,"zÃ©lande":7633,"Ġtimor":7634,"autonomie":7635,"Ġaudio":7636,"sta":7637,"jac":7638,"positions":7639,"endro":7640,"Ġroyale":7641,"Â®":7642,"ĠpÃ¢":7643,"exercer":7644,"Ġlinguistique":7645,"eral":7646,"admissibilitÃ©":7647,"91":7648,"âĢ°":7649,"deau":7650,"phab":7651,"Ġsuspension":7652,"Ġprestataire":7653,"ĠprÃ©occupÃ©":7654,"aliste":7655,"Ġdates":7656,"ĠcompÃ©tente":7657,"Ġaccru":7658,"ortÃ©es":7659,"Ġhol":7660,"Ġsouveraine":7661,"Ġsubi":7662,"ĠmunicipalitÃ©s":7663,"Ġtrimestre":7664,"Ġescomp":7665,"human":7666,"ĠextÃ©rieure":7667,"ky":7668,"Ġprogresser":7669,"Ġgarder":7670,"ĠdÃ©fav":7671,"cons":7672,"Ġrigoure":7673,"ĠreflÃ©":7674,"Ġfaune":7675,"erbaÃ¯d":7676,"Ã©chelon":7677,"ĠmÃ©tÃ©or":7678,"Ġgi":7679,"ĠdÃ©tec":7680,"Ġlongueur":7681,"Ġcum":7682,"Ġcolonne":7683,"iran":7684,"Ġconvainc":7685,"Ġdemeurent":7686,"gary":7687,"prolifÃ©ration":7688,"Ã´ture":7689,"cÃ©demment":7690,"Ġmigrations":7691,"ĠadoptÃ©s":7692,"Ã©vÃ©n":7693,"Ġlucra":7694,"ĠrÃ©flexion":7695,"avancement":7696,"espagne":7697,"ology":7698,"Ġincluant":7699,"ĠextÃ©rieures":7700,"Ã©tape":7701,"Ġverser":7702,"ĠfixÃ©s":7703,"Ġquelconque":7704,"Ġavenir":7705,"ĠrappelÃ©":7706,"sifier":7707,"ilib":7708,"Ġperdu":7709,"chÃ©e":7710,"ĠdÃ©finitive":7711,"Ġartistes":7712,"inscrire":7713,"engager":7714,"fact":7715,"Ã¡Ã¡":7716,"Ġdifficiles":7717,"Ġlisbonne":7718,"ĠclÃ´ture":7719,"Ġ1986":7720,"Ġreconnus":7721,"Ġveulent":7722,"ĠcomplÃ©ter":7723,"Ġcs":7724,"dÃ©c":7725,"terr":7726,"Ġuniverselle":7727,"Ġaccorde":7728,"Ġexistent":7729,"lir":7730,"Ġsignificative":7731,"Ġjuris":7732,"Ġfla":7733,"Ġfabricant":7734,"Ġrectif":7735,"onnements":7736,"Ġcontract":7737,"Ġpotable":7738,"Ġtransporteur":7739,"ĠÃ©cosystÃ¨mes":7740,"ĠmÃ¨tres":7741,"Ġpror":7742,"Ġlicenci":7743,"rante":7744,"Ġapprobation":7745,"Ġfixer":7746,"Ã©tudier":7747,"Ġjeune":7748,"Ġtotalement":7749,"Ġbei":7750,"Ġdiffuser":7751,"lÃ©ch":7752,"ĠrÃ©alisÃ©e":7753,"92":7754,"Ġtransnation":7755,"ĠprÃ©cÃ©demment":7756,"instrument":7757,"eric":7758,"ĠfinancÃ©s":7759,"Ġjouent":7760,"ĠlÃ©gÃ¨res":7761,"fre":7762,"prÃ©sid":7763,"Ġos":7764,"ĠdÃ©montrÃ©":7765,"Ġ06":7766,"Ġcrdi":7767,"Ġcuis":7768,"audit":7769,"Ġconformer":7770,"Ġtal":7771,"ainissement":7772,"ĠÃ©quilibre":7773,"ĠdÃ©taillÃ©es":7774,"Ġplaignant":7775,"inÃ©as":7776,"Ġseuil":7777,"Ġger":7778,"Ġanniversaire":7779,"Ġlogistique":7780,"ĠbÃ©nÃ©fices":7781,"Ġauparavant":7782,"iez":7783,"expansion":7784,"Ġmandats":7785,"Ġinstances":7786,"Ġdomes":7787,"1997":7788,"Ġindications":7789,"kh":7790,"Ġpolluants":7791,"ĠdÃ©livrance":7792,"ram":7793,"ĠintÃ©gration":7794,"ĠaffirmÃ©":7795,"ĠdÃ©bit":7796,"Ġmarche":7797,"aÃ©roport":7798,"Ġfum":7799,"conf":7800,"ĠsÃ©minaires":7801,"ĠrÃ©pression":7802,"Ã©conomiques":7803,"ĠterminÃ©":7804,"ĠamÃ©ricaine":7805,"Ġfinalement":7806,"ĠmaÃ®trise":7807,"ĠdÃ©pistage":7808,"Ġfe":7809,"istait":7810,"Ġclasses":7811,"ĠÃªtres":7812,"ĠmatÃ©riels":7813,"ĠsynthÃ¨se":7814,"Ġversement":7815,"ĠvÃ©rifications":7816,"Ġaspect":7817,"keting":7818,"ĠintÃ©ressant":7819,"Ġdiagnostic":7820,"obile":7821,"Ġprair":7822,"Ġpc":7823,"ĠprÃ©parÃ©":7824,"atelier":7825,"Ġoption":7826,"Ġexplic":7827,"Ġflexi":7828,"Ġsanction":7829,"Ġaccidents":7830,"Ġuniversitaire":7831,"Ġlinguistiques":7832,"Ġabsolu":7833,"Ġrepas":7834,"ĠintÃ©rieure":7835,"Ġxx":7836,"Ġbateaux":7837,"ĠdÃ©posÃ©e":7838,"Ġhistoire":7839,"obtention":7840,"ĠdestinÃ©e":7841,"ild":7842,"endus":7843,"ĠmÃ©nages":7844,"Ġcomportements":7845,"Ġportefeuille":7846,"Ġsen":7847,"Ġsatellite":7848,"esses":7849,"Ġcibles":7850,"Ġsuffisant":7851,"allÃ©":7852,"inves":7853,"Ġamis":7854,"Ġgouverneur":7855,"icy":7856,"ĠprÃ©paratoire":7857,"Ġtransmis":7858,"tuelles":7859,"ĠfaÃ§ons":7860,"king":7861,"Ġphilipp":7862,"Ġprot":7863,"Ġluxembourg":7864,"Ġsuffisante":7865,"lore":7866,"ĠÃ©gal":7867,"intÃ©grer":7868,"locu":7869,"Ġppe":7870,"Ġ963":7871,"Ġfabricants":7872,"ĠcomptabilitÃ©":7873,"Ġlin":7874,"Ġmoindre":7875,"Ġcontraintes":7876,"ĠprÃ©cÃ©dentes":7877,"ĠsuggÃ©":7878,"Ġtroubles":7879,"Ġmatin":7880,"bert":7881,"ĠprocÃ©dÃ©s":7882,"Ġanglaise":7883,"Ġservant":7884,"Ġespagnol":7885,"Ġcarburant":7886,"ĠmÃ©dicale":7887,"Ġopinion":7888,"ients":7889,"Ġalg":7890,"accorder":7891,"articles":7892,"ĠexaminÃ©es":7893,"Ġconjointe":7894,"Ġjeudi":7895,"ĠdÃ©g":7896,"Ġparfait":7897,"Ġremis":7898,"ĠdÃ©linquants":7899,"Ġfaisait":7900,"Ġpilotes":7901,"pn":7902,"Ġrecyc":7903,"ĠrÃ©vÃ©lÃ©":7904,"Ġpertinence":7905,"Ġgreff":7906,"ancien":7907,"Ġfou":7908,"Ġvariables":7909,"Ġcombattants":7910,"ĠconcernÃ©":7911,"Ġagriculteurs":7912,"ĠrÃ©sident":7913,"Ġcroire":7914,"cueille":7915,"avance":7916,".).":7917,"taurer":7918,"Ġredev":7919,"hol":7920,"Ġleone":7921,"ĠaÃ©riens":7922,"ĠtravaillÃ©":7923,"bri":7924,"Ġstations":7925,"Ġsw":7926,"Ġbaie":7927,"Ġmpo":7928,"Ġopinions":7929,"Ġblessures":7930,"ĠespÃ¨ce":7931,"Ġprovinciale":7932,"ĠdÃ©v":7933,"ĠÃ©man":7934,"Ġcomplex":7935,"duite":7936,"Ġdimen":7937,"Ġpur":7938,"Ġord":7939,"ĠcrÃ©Ã©s":7940,"Ġtpsgc":7941,"ĠÃ©lu":7942,"ĠdignitÃ©":7943,"Ġsavoirs":7944,"redi":7945,"ĠcÃ¢":7946,"Ġprononc":7947,"Ġerreur":7948,"ĠcrÃ©Ã©e":7949,"ĠministÃ©riel":7950,"dy":7951,"isra":7952,"attribution":7953,"ĠÃ©to":7954,"Ġactiv":7955,"troisiÃ¨me":7956,"Ġclarif":7957,"Ġtomb":7958,"ystÃ¨me":7959,"anes":7960,"Ġration":7961,"Ã´mes":7962,"Ġinstituts":7963,"Ġsuperfic":7964,"Ġremettre":7965,"Ġinfluence":7966,"ĠgÃ©nÃ©ration":7967,"ordonnance":7968,"Ġenglob":7969,"Ġlitu":7970,"estim":7971,"ye":7972,"ciens":7973,"Ġrubrique":7974,"Ġfournitures":7975,"Ġcroissant":7976,"oration":7977,"ĠÃ©lection":7978,"Ġcomportant":7979,"homologation":7980,"Ġacceptable":7981,"Ġmobilisation":7982,"appareil":7983,"mr":7984,"alli":7985,"Ġben":7986,"ĠaccÃ©der":7987,"erbaÃ¯djan":7988,"Ġke":7989,"ordanie":7990,"Ġcliquez":7991,"Ġhcr":7992,"atmosph":7993,"avoc":7994,"urÃ©s":7995,"ĠexÃ©cution":7996,"Ġtendant":7997,"Ġvoire":7998,"geant":7999,"Ġmdn":8000,"Ġaustra":8001,"ottawa":8002,"pic":8003,"ĠparallÃ¨lement":8004,"Ġannexes":8005,"Ġfestiv":8006,"Ġimmeu":8007,"Ġmaisons":8008,"try":8009,"Ã¨ses":8010,"rÃ©solution":8011,"itecture":8012,"ĠhaÃ¯":8013,"Ġjurispr":8014,"Ġalb":8015,"ĠarrÃªtÃ©":8016,"Ġhab":8017,"Ġentendre":8018,"oriste":8019,"ĠenvoyÃ©":8020,"ĠmentionnÃ©s":8021,"ifax":8022,"Ġseules":8023,"Ġprescrit":8024,"Ã©vent":8025,"Ġinfrastructure":8026,"alimentaire":8027,"rime":8028,"pla":8029,"ĠpÃ©riodiques":8030,"Ġnam":8031,"Ġprioritaire":8032,"ĠattÃ©n":8033,"=\"":8034,"Ġvoulons":8035,"Ġ05":8036,"Ġconvo":8037,"ĠdÃ©je":8038,"Ġinvestisseurs":8039,"Ġconduc":8040,"Ġ\\":8041,"guÃ©":8042,"Ġcalgary":8043,"fais":8044,"Ġcorpore":8045,"Ġfid":8046,"ĠnumÃ©ros":8047,"allage":8048,"loir":8049,"ĠgÃ©orgie":8050,"ĠsÃ©qu":8051,"humanitÃ©":8052,"Ġtrouverez":8053,"ĠaÃ©ronefs":8054,"Ġchap":8055,"tein":8056,"Ġinformatique":8057,"Ġenvoyer":8058,"Ġcommissariat":8059,"Ġcompromis":8060,"Ġestima":8061,"dd":8062,"ĠlÃ©gislative":8063,"Ġsortie":8064,"Ġindividuels":8065,"ĠviabilitÃ©":8066,"Ġprofession":8067,"ĠengagÃ©es":8068,"Ġbce":8069,"Ġ(Â«":8070,"ĠguinÃ©e":8071,"Ġincap":8072,"Ġdirects":8073,"Ġpressions":8074,"gl":8075,"Ġrobert":8076,"Ġnat":8077,"Ġinstallation":8078,"itants":8079,"Ġrusse":8080,"Ġciviles":8081,"Ġcath":8082,"Ġmixte":8083,"Ã©lÃ©ments":8084,"bretagne":8085,"Ġsubstanti":8086,"Ġ03":8087,"Ġsoir":8088,"ĠaxÃ©":8089,"Ġfavorables":8090,"Ġfondement":8091,"Ġretenue":8092,"partie":8093,"Ġinnov":8094,"Ġsyri":8095,"Ġindex":8096,"Ġpho":8097,"ĠthÃ©Ã¢":8098,"aucun":8099,"Ġallemand":8100,"Ġatteints":8101,"bon":8102,"Ġterritoriaux":8103,"Ã©dition":8104,"Ġorganiser":8105,"aines":8106,"Ġvoter":8107,"udes":8108,"organiser":8109,"Ã©gal":8110,"ĠdÃ©placements":8111,"ĠtraitÃ©es":8112,"ĠdÃ©cideurs":8113,"Ġ66":8114,"ĠpropriÃ©tÃ©s":8115,"expiration":8116,"ayant":8117,"Ġtravaillant":8118,"Ġcrises":8119,"ĠantÃ©rieures":8120,"ĠdÃ©char":8121,"four":8122,"Ġchimique":8123,"nelle":8124,"infection":8125,"1996":8126,"ĠprÃ©con":8127,"way":8128,"Ġrenouvelables":8129,"Ġcroissante":8130,"osent":8131,"ases":8132,"Ġcamb":8133,"Ġmontrer":8134,"hu":8135,"Ã©poque":8136,"Ġsoumise":8137,"Ġtrouvera":8138,"Ġky":8139,"Ã©lev":8140,"Ġfondamentale":8141,"Ġjustifier":8142,"Ġconstruire":8143,"extr":8144,"ĠapprouvÃ©s":8145,"ĠcoordonnÃ©es":8146,"Ġchinois":8147,"''":8148,"Ġryth":8149,"Ġdimensions":8150,"main":8151,"ĠdeuxiÃ¨mement":8152,"ĠgÃ©nie":8153,"Ġintergouvernementales":8154,"vue":8155,"Ġtunis":8156,"Ġsuggestions":8157,"ĠgÃ©nÃ©tique":8158,"Ãªtes":8159,"Ġcompany":8160,"Ã©cart":8161,"Ġmercredi":8162,"ĠdÃ©cent":8163,"Ġtransfrontal":8164,"lines":8165,"quemment":8166,"Ġmuni":8167,"Ġexhaus":8168,"ukraine":8169,"Ġorientale":8170,"Ġcig":8171,"Ġsignaler":8172,"Ġentrepreneurs":8173,"ĠrÃ©visÃ©e":8174,"Ġcentrales":8175,"Ġviolences":8176,"accroissement":8177,"Ġcorrectement":8178,"ĠdÃ©cisionn":8179,"yage":8180,"Ġauth":8181,"ĠrÃ©pondant":8182,"augmenter":8183,"ains":8184,"ouard":8185,"bile":8186,"Ġlucratif":8187,"Ġmanagement":8188,"Ġbandes":8189,"Ġespace":8190,"Ġarme":8191,"Ġ07":8192,"Ġrecev":8193,"Ġmonnaie":8194,"Ġatten":8195,"ĠpubliÃ©e":8196,"85":8197,"ĠrÃ©ellement":8198,"omes":8199,"cp":8200,"Ġyeux":8201,"pule":8202,"omÃ¨tres":8203,"ĠdÃ©signe":8204,"administrateur":8205,"ĠdÃ©montrer":8206,"Ġrecourir":8207,"ĠcoÃ»te":8208,"ĠprÃ©cision":8209,"pitaux":8210,"ertes":8211,"ĠadÃ©quate":8212,"Ġmardi":8213,"aujourd":8214,"Ġbran":8215,"Ġadd":8216,"Ġforesti":8217,"parti":8218,"Ġjurisprudence":8219,"automne":8220,"iciens":8221,"ĠprÃ©sentations":8222,"Ġinfirm":8223,"ĠÃ©cologique":8224,"Ġmarketing":8225,"Ġprobable":8226,"Ġaugmente":8227,"Ġinno":8228,"Ġvenez":8229,"Ġexploitation":8230,"ĠimposÃ©es":8231,"ĠrÃ©guliÃ¨re":8232,"actu":8233,"ĠgÃ©nÃ©tiques":8234,"umeurs":8235,"Ġasi":8236,"ĠrelÃ¨vent":8237,"quatriÃ¨me":8238,"wg":8239,"adapter":8240,"ĠÃ©gale":8241,"Ġfiscales":8242,"Ġspe":8243,"ester":8244,"Ġchamps":8245,"ĠdÃ©poser":8246,"Ġgauche":8247,"ĠlittÃ©ra":8248,"Ġenvironment":8249,"ami":8250,"rac":8251,"Ġcombler":8252,"Ġofficiellement":8253,"Ġheureux":8254,"apprÃ©":8255,"Ġconvaincu":8256,"Ġtac":8257,"identifier":8258,"garde":8259,"Ġcouvre":8260,"ĠcÃ©rÃ©mon":8261,"Ġcontiennent":8262,"ĠperpÃ©":8263,"non":8264,"ĠfrÃ©quent":8265,"Ġdose":8266,"ĠprÃ©sum":8267,"israÃ«l":8268,"Ġbienfais":8269,"septiÃ¨me":8270,"Ġincom":8271,"toria":8272,"Ã§on":8273,"Ð³":8274,"Ġwind":8275,"Ġreconnaissant":8276,"Ġincl":8277,"ĠmÃ©can":8278,"Ġconsommateur":8279,"lÃł":8280,"assainissement":8281,"ultan":8282,"by":8283,"Ġcandidature":8284,"Ġpossession":8285,"ĠprÃ©visi":8286,"utilisateur":8287,"Ġmigration":8288,"ĠremplacÃ©":8289,"monter":8290,"appelante":8291,"Ġbienven":8292,"Ġcommandement":8293,"Ġferroviaire":8294,"ĠÂ°":8295,"Ġmagas":8296,"Ġtransmet":8297,"alisÃ©e":8298,"ĠrÃ©conc":8299,"Ġterra":8300,"pre":8301,"onner":8302,"ondes":8303,"commissariat":8304,"lang":8305,"six":8306,"Ġ73":8307,"ino":8308,"Ġcombien":8309,"Ġsaisir":8310,"monton":8311,"rat":8312,"onniers":8313,"ĠdÃ©mocratiques":8314,"neuviÃ¨me":8315,"Ġdens":8316,"Ġparticules":8317,"ĠsiÃ¨ges":8318,"Ġagissant":8319,"ictions":8320,"ĠslovÃ©nie":8321,"ĠsouverainetÃ©":8322,"Ġrestaurant":8323,"ney":8324,"Ġbienfaisance":8325,"ĠthaÃ¯":8326,"ĠÃ§":8327,"Ġremarquer":8328,"Ġvieillissement":8329,"Ġfinance":8330,"Ġpoursuit":8331,"ĠexaminÃ©s":8332,"don":8333,"Ġmass":8334,"ĠvotÃ©":8335,"Ġrevendications":8336,"entielle":8337,"ĠcomplÃ¨tement":8338,"ographie":8339,"Ġintervenir":8340,"Ġprofesseur":8341,"Ġwater":8342,"Ġ700":8343,"ĠversÃ©es":8344,"ĠformÃ©":8345,"Ġact":8346,"aw":8347,"angle":8348,"Ġmos":8349,"Ġsoc":8350,"Ġsanitaires":8351,"Ġpress":8352,"ĠentraÃ®ne":8353,"Ġhauts":8354,"ĠpÃ©ril":8355,"Ġsigne":8356,"analys":8357,"Ġfores":8358,"ĠdÃ©fendre":8359,"Ġassor":8360,"deuxiÃ¨me":8361,"Ã¨se":8362,"ĠÃ©ventuellement":8363,"Ġurbain":8364,"icatif":8365,"ĠconÃ§us":8366,"rateur":8367,"Ġporta":8368,"gure":8369,"ĠreflÃ¨te":8370,"cure":8371,"Ġmilliard":8372,"ĠsÃ©rieux":8373,"ĠintÃ©grante":8374,"Ġfournissant":8375,"emplacement":8376,"Ġcontro":8377,"Ġ72":8378,"ozone":8379,"huitiÃ¨me":8380,"Ġchlor":8381,"Ġsct":8382,"Ġsauv":8383,"tuels":8384,"Ġaccompli":8385,"ĠdÃ©pÃ´ts":8386,"ĠbÃ©nÃ©voles":8387,"Ġfili":8388,"ĠdiffÃ©rente":8389,"ulf":8390,"Ġnormale":8391,"espÃ¨re":8392,"Ġaffili":8393,"ĠÃ©vident":8394,"sives":8395,"Ġmondiales":8396,"ĠalinÃ©as":8397,"Ġfed":8398,"immun":8399,"agrÃ©":8400,"ĠaffÃ©r":8401,"ĠdÃ©taillÃ©":8402,"ĠrÃ©cents":8403,"rev":8404,"ĠÃ©quilib":8405,"omique":8406,"arrivÃ©e":8407,"Ġpatient":8408,"Ġ84":8409,"Ġpertinente":8410,"ĠrÃ©pondent":8411,"hiver":8412,"Ġcnrc":8413,"impression":8414,"Ġcomparativement":8415,"Ġfeuilles":8416,"Ġexac":8417,"md":8418,"opÃ©rations":8419,"87":8420,"effic":8421,"Ġinstitute":8422,"rapp":8423,"ĠaffectÃ©s":8424,"trer":8425,"Ġaccum":8426,"ĠdÃ©crites":8427,"exploration":8428,"Ġfinales":8429,"cf":8430,"sud":8431,"bergement":8432,"Ġadopte":8433,"afghanistan":8434,"Ġterritoriales":8435,"Ġfrapp":8436,"dification":8437,"Ġconfirmer":8438,"terre":8439,"Ġrome":8440,"dans":8441,"curr":8442,"ĠrÃ©affirme":8443,"Ġsentiment":8444,"Ġconcevoir":8445,"ĠexpliquÃ©":8446,"Ġmacro":8447,"pal":8448,"loie":8449,"abus":8450,"Ġ94":8451,"Ġcrtc":8452,"Ġmajor":8453,"alisÃ©es":8454,"quet":8455,"Ġtherm":8456,"Ġsupervision":8457,"Ġriver":8458,"http":8459,"ĠÃ©tablissant":8460,"ĠlimitÃ©es":8461,"morandu":8462,"Ġcp":8463,"Ġrwanda":8464,"Ġventil":8465,"prince":8466,"ĠrÃ©affirm":8467,"oeuvre":8468,"Ġressortissants":8469,"Ġplafond":8470,"ĠgÃ©ographiques":8471,"Ġplaisir":8472,"ows":8473,"ĠentitÃ©":8474,"ĠreprÃ©senter":8475,"ĠboÃ®":8476,"Ġraisonnables":8477,"Ġmicha":8478,"liques":8479,"ĠdÃ©jeuner":8480,"Ġsalles":8481,")]":8482,"Ġoffices":8483,"Ġath":8484,"Ġthat":8485,"Ġexposition":8486,"timis":8487,"Ġquit":8488,"rec":8489,"Ġaudi":8490,"Ġcombinaison":8491,"ĠprÃ©cisions":8492,"ĠinterprÃ©tation":8493,"ĠconfidentialitÃ©":8494,"oux":8495,"ajouter":8496,"Ġindiennes":8497,"ĠprospÃ©":8498,"ĠdÃ©nom":8499,"nuap":8500,"Ġnourriture":8501,"Ġmark":8502,"Ġorientation":8503,"Ġspatiales":8504,"Ġannuelles":8505,"gs":8506,"ĠxÃ©n":8507,"Ġincorpor":8508,"Ġroyal":8509,"Ġcommandant":8510,"Ġcommissaires":8511,"ĠÃ©loign":8512,"Ġsuivie":8513,"larus":8514,"Ġemprun":8515,"Ġvariation":8516,"ĠfinancÃ©":8517,"Ġanaly":8518,"Ġterminer":8519,"Ġautonome":8520,"ĠvÃªtements":8521,"Ġpic":8522,"ford":8523,"Ġmargin":8524,"hypo":8525,"ĠdÃ¢":8526,"Ġancien":8527,"Ġbiodi":8528,"ĠÃ©lectrique":8529,"Ġconduire":8530,"ĠdÃ©crire":8531,"hr":8532,"ĠpremiÃ¨rement":8533,"Ġfrontal":8534,"Ã©rable":8535,"ĠidÃ©e":8536,"Ġrespectifs":8537,"Ġtotales":8538,"tress":8539,"ĠintÃ©grÃ©es":8540,"Ġimage":8541,"Ġnaturelle":8542,"ĠmÃ©diterran":8543,"Ġcapable":8544,"publ":8545,"Ġindustrielles":8546,"ĠaÃ®":8547,"Ġavions":8548,"deur":8549,"Ġ120":8550,"ĠentraÃ®nÃ©":8551,"Ġyou":8552,"ĠmentionnÃ©es":8553,"Ġing":8554,"Ġcontactez":8555,"Ġbloc":8556,"mÃ©th":8557,"Ġavocats":8558,"Ġinfluen":8559,"ĠassurÃ©":8560,"Ġratta":8561,"Ġmarins":8562,"Ġletton":8563,"ĠpÃ¨re":8564,"Ġordinaires":8565,"eth":8566,"endront":8567,"Ġcatastrophe":8568,"riÃ¨res":8569,"Ġentour":8570,"ophob":8571,"justement":8572,"Ġcomptables":8573,"Ġcoop":8574,"Ġintr":8575,"Ġentrer":8576,"ĠbilatÃ©raux":8577,"affich":8578,"Ġhon":8579,"ĠtolÃ©rance":8580,"arn":8581,"Ġdroite":8582,"Ġmobile":8583,"Ġsour":8584,"Ġremarqu":8585,"Ġretirer":8586,"ĠtirÃ©s":8587,"Ġrevanche":8588,"Ġfir":8589,"alogues":8590,"Ġclar":8591,"Ġconclut":8592,"Ġstyle":8593,"erner":8594,"ignent":8595,"Ġveill":8596,"Ġillicites":8597,"Ġcourte":8598,"Ġviennent":8599,"Ġconstatations":8600,"ĠcomplexitÃ©":8601,"Ġenvir":8602,"endroit":8603,"Ġhypoth":8604,"Ġinuits":8605,"Ġcontenus":8606,"Ġsoin":8607,"arctique":8608,"Ġpaul":8609,"Ġbarre":8610,"ĠprÃ©t":8611,"Ġkir":8612,"{\\":8613,"Ġmodernes":8614,"hington":8615,"Ġvariations":8616,"cil":8617,"ĠmÃ©lange":8618,"ĠappuyÃ©":8619,"Ġrestructuration":8620,"ĠprÃ©voient":8621,"Ġesprit":8622,"Ġpalestine":8623,"ĠmultilatÃ©ral":8624,"ĠkoweÃ¯t":8625,"rom":8626,"Ġregistres":8627,"Ġcontemp":8628,"Ġdouane":8629,"Ġsubstitu":8630,"Ġsuperficie":8631,"Ġveille":8632,"ĠcrÃ©e":8633,"Ġhas":8634,"Ġence":8635,"ĠdÃ©pendance":8636,"Ġimpu":8637,"Ġdiab":8638,"Ġdemi":8639,"Ġblanchiment":8640,"ek":8641,"ĠrÃ©conciliation":8642,"cal":8643,"Ġimmigrants":8644,"attÃ©nuation":8645,"ĠdÃ©passe":8646,"Ġdiminuer":8647,"Ġrythme":8648,"Ġcaisse":8649,"ita":8650,"ĠsupÃ©rieures":8651,"ock":8652,"anne":8653,"bu":8654,"Ġvent":8655,"carb":8656,"ĠpubliÃ©es":8657,"mal":8658,"Ġcontingents":8659,"ĠrÃ©actions":8660,"Ġnutrition":8661,"Ġuniforme":8662,"Ġhi":8663,"influence":8664,"ĠchÃ¢":8665,"Ġcertainement":8666,"Ġprouv":8667,"Ġdang":8668,"opa":8669,"Ġexploiter":8670,"pard":8671,"Ġcommentaire":8672,"ĠchargÃ©es":8673,"Ġdescriptif":8674,"Ġbata":8675,"Ġports":8676,"Ġcontrairement":8677,"79":8678,"ĠmÃ©morandu":8679,"Ġjard":8680,"ĠÃ©mer":8681,"Ġexercices":8682,"Ġstress":8683,"ĠsÃ©nat":8684,"ĠrÃ©jou":8685,"Ġcosta":8686,"Ġterrestres":8687,"Ġsemblable":8688,"importantes":8689,"ĠrÃ©duite":8690,"Ġsociety":8691,"ĠvaliditÃ©":8692,"Ġcommandes":8693,"Ġworld":8694,"Ġphilippines":8695,"ĠdÃ©couvrir":8696,"ĠÃ©valuÃ©":8697,"Ġverb":8698,"rase":8699,"Ġmoteurs":8700,"tauration":8701,"ĠhÃ´pitaux":8702,"Ġchris":8703,"Ġtv":8704,"accise":8705,"Ġlituanie":8706,"Ġpeter":8707,"Ġsimultan":8708,"entrepren":8709,"ĠindiquÃ©es":8710,"ool":8711,"Ġsuffisantes":8712,"Ġsomalie":8713,"Ġbiling":8714,"Ġtoxiques":8715,"mique":8716,"litÃ©":8717,"ambassadeur":8718,"Ġoubli":8719,"diteurs":8720,"ĠqualifiÃ©s":8721,"Ġoppos":8722,"Ġ76":8723,"ellÃ©":8724,"ĠconnaÃ®t":8725,"Ġcorrespondance":8726,"Ġhora":8727,"Ġautorisations":8728,"Ġfiscal":8729,"Ġboli":8730,"ĠrÃ©examen":8731,"Ġhalifax":8732,"Ġgarantiss":8733,"lÃ¨ge":8734,"Ġign":8735,"ator":8736,"ĠorganisÃ©s":8737,"71":8738,"Ġmaternelle":8739,"agissait":8740,"Ġfonci":8741,"aud":8742,"onnÃ©s":8743,"ĠbactÃ©ri":8744,"Ġbref":8745,"Ġvii":8746,"instruments":8747,"Ġsimples":8748,"Ġpond":8749,"berg":8750,"ĠÃ©tique":8751,"aisie":8752,"Ġdessins":8753,"arbitrage":8754,"Ġconfig":8755,"veloppement":8756,"Ġaccident":8757,"Ġerreurs":8758,"onf":8759,"ĠindemnitÃ©s":8760,"Ã±":8761,"ĠlibÃ©ralisation":8762,"Ġfrancophones":8763,"ust":8764,"ĠdÃ©clarer":8765,"Ġ69":8766,"Ġdumping":8767,"Ġsynd":8768,"Ġvisiter":8769,"ĠdÃ©ficit":8770,"ĠrÃ©ductions":8771,"Ġassumer":8772,"ĠconsacrÃ©s":8773,"Ġhui":8774,"den":8775,"ĠprÃ©voy":8776,"Ġutilisations":8777,"Ġinclut":8778,"laient":8779,"Ġtir":8780,"Ġint":8781,"work":8782,"ĠimpÃ©ra":8783,"fiants":8784,"Ġmajeur":8785,"itons":8786,"aqu":8787,"Ġharc":8788,"Ã©nag":8789,"ĠrÃ©clamations":8790,"Ġmauvaise":8791,"Ġordinateur":8792,"Ġnotant":8793,"Ġafgh":8794,"duites":8795,"ĠprÃ©cisÃ©":8796,"Ġdangers":8797,"Ġvin":8798,"ĠspÃ©cifiquement":8799,"nÃ©e":8800,"ĠÎ¼":8801,"Ġsem":8802,"attaquer":8803,"gov":8804,"ĠÃ©nergie":8805,"Ġfol":8806,"Ġmarin":8807,"Ġfamiliales":8808,"Ġaim":8809,"ĠÃ©cole":8810,"ĠÃ©vÃ©nement":8811,"arrÃª":8812,"ĠdÃ©gradation":8813,"tÃ©nÃ©g":8814,"Ã©doine":8815,"desh":8816,"indemnisation":8817,"Ġic":8818,"istra":8819,"ĠpossÃ©d":8820,"ĠÃ©limin":8821,"ĠprotÃ©gÃ©s":8822,"ĠespÃ©rons":8823,"Ġaustralie":8824,"unesco":8825,"Ġsignes":8826,"ĠversÃ©":8827,"Ġprison":8828,"Ġautonomes":8829,"ĠgÃ©nÃ©rations":8830,"ĠprÃ©sidents":8831,"ĠbÃ©larus":8832,"low":8833,"Ġcis":8834,"Ġ613":8835,"Ġproduisent":8836,"Ġcertificats":8837,"Ġconsultez":8838,"Ġuniversel":8839,"tvh":8840,"ciplin":8841,"gÃ¨nes":8842,"ĠreprÃ©sentante":8843,"ague":8844,"Ġarc":8845,"Ġ$.":8846,"atis":8847,"actifs":8848,"Ġapporte":8849,"cro":8850,"Ġaires":8851,"Ġsensiblement":8852,"Ġcultiv":8853,"ĠmacÃ©doine":8854,"ĠdÃ©finie":8855,"Ġprofondeur":8856,"76":8857,"ĠÃ©laboration":8858,"Ġtoxicom":8859,"prouv":8860,"Ġarriver":8861,"arr":8862,"Ġlaboratoires":8863,"expertise":8864,"onnÃ©es":8865,"Ġquasi":8866,"anciers":8867,"Ġnominations":8868,"Ġsent":8869,"risonnement":8870,"Ġsoulignant":8871,"cor":8872,"Ġcouche":8873,"Ġabandonn":8874,"Ġhay":8875,"Ġneur":8876,"instance":8877,"tain":8878,"83":8879,"Ġmodule":8880,"ĠuniÃ¨me":8881,"ns":8882,"ĠrÃ©insertion":8883,"ĠbÃ©nÃ©fice":8884,"Ġ900":8885,"umin":8886,"oÃ¹":8887,"Ġpatr":8888,"Ġassurant":8889,"ĠÃ©tudiÃ©":8890,"ĠcollÃ¨ge":8891,"Ġsauvetage":8892,"mail":8893,"Ġsuppression":8894,"Ġimpacts":8895,"ĠdÃ©posant":8896,"Ġfavorise":8897,"ĠchangÃ©":8898,"Ġcorrespondent":8899,"Ġpp":8900,"72":8901,"Ġchance":8902,"Ġlogique":8903,"Ġmobiliser":8904,"Ġ96":8905,"Ġcoali":8906,"Ġorateurs":8907,"ĠlÃ©gÃ¨rement":8908,"ĠtÃ©moin":8909,"Ġatteintes":8910,"ĠindemnitÃ©":8911,"gy":8912,"Ġmassive":8913,"Ġterritoriale":8914,"vergure":8915,"Ã©liminer":8916,"ĠrÃ©els":8917,"Ġhomme":8918,"Ġautomatiquement":8919,"Ġimparti":8920,"ĠdÃ©libÃ©rations":8921,"Ġenseignements":8922,"Ġsouci":8923,"Ġcesse":8924,"attend":8925,"ĠxÃ©nophob":8926,"89":8927,"obil":8928,"Ġsurmonter":8929,"Ġcontes":8930,"ĠthÃ©rapeu":8931,"Ġsensible":8932,"Ġphrase":8933,"Ġiso":8934,"ĠbasÃ©e":8935,"74":8936,"Ġdisparition":8937,"ĠsituÃ©es":8938,"andon":8939,"Ġexportateurs":8940,"iteurs":8941,"ĠvÃ©gÃ©t":8942,"Ġvaccin":8943,"Ġimplique":8944,"ĠcomplÃ©mentaire":8945,"ĠvariÃ©tÃ©":8946,"ĠÅĵuvres":8947,"Ġnormal":8948,"Ġrigh":8949,"ams":8950,"ĠstupÃ©":8951,"Ġvert":8952,"Ġkenya":8953,"Ġkh":8954,"Ġgel":8955,"Ġsyndicats":8956,"ĠindiquÃ©s":8957,"Ġcla":8958,"Ġcuisine":8959,"ĠdÃ©tÃ©ri":8960,"aviation":8961,"Ġadmis":8962,"Ġeconom":8963,"oise":8964,"jout":8965,"Ġtabag":8966,"ĠprÃ©servation":8967,"Ġfur":8968,"ao":8969,"Ġvouloir":8970,"Ġslovaquie":8971,"Ġarrive":8972,"Ġobligatoires":8973,"Ġcertes":8974,"ited":8975,"bur":8976,"Ġmanufact":8977,"Ġsimilaire":8978,"acceptation":8979,"Ġarguments":8980,"Ġreligieuses":8981,"ities":8982,"aisons":8983,"antiÃ¨me":8984,"ĠmultilatÃ©raux":8985,"Ġfilms":8986,"Ġinscrites":8987,"ua":8988,"Ġalig":8989,"ĠforÃªt":8990,"serv":8991,"Ã©mo":8992,"Ġcontractantes":8993,"Ġindividuelles":8994,"Ġfacul":8995,"Ġmercure":8996,"Ġfavorisant":8997,"Ġdesign":8998,"Ã©douard":8999,"ack":9000,"Ġannonc":9001,"Ġfasse":9002,"Ġsoumet":9003,"Ġ89":9004,"Ġsensibles":9005,"ĠfondÃ©s":9006,"Ġdig":9007,"Ġfonctionne":9008,"omen":9009,"Ġminimale":9010,"ĠprÃ©cÃ©dents":9011,"Ġsports":9012,"engage":9013,"sr":9014,"attente":9015,"ev":9016,"tÃ©nÃ©gro":9017,"Ġconcepts":9018,"Ġclause":9019,"giÃ¨ne":9020,"Ġorganiques":9021,"Ã©missions":9022,"Ġfront":9023,"Ġdons":9024,"Ġbiotechnologie":9025,"Ġenvironnemental":9026,"ĠintermÃ©diaire":9027,"Ġbell":9028,"ĠÃ©met":9029,"expert":9030,"Ġwashington":9031,"ĠÃ©cologiques":9032,"Ġsuffit":9033,"ef":9034,"euro":9035,"Ġcontempora":9036,"ĠapprouvÃ©e":9037,"Ġvictoria":9038,"Ġbor":9039,"Ġcontribuable":9040,"Ġrestauration":9041,"Ġsigner":9042,"Ġraff":9043,"Ġconfront":9044,"ĠmÃ©diation":9045,"ition":9046,"Ġjournaux":9047,"Ġbroch":9048,"Ġ%).":9049,"ĠdotÃ©s":9050,"ĠadressÃ©es":9051,"ĠsystÃ©ma":9052,"Ġexprimer":9053,"Ġstimuler":9054,"ĠbÃ©nÃ©ficiÃ©":9055,"Ġclos":9056,"Ġconcentrer":9057,"Ġmartin":9058,"Ġprime":9059,"Ġmessieurs":9060,"ĠÃ©dition":9061,"asfc":9062,"ige":9063,"culaire":9064,"Ġmeu":9065,"inclusion":9066,"Ġdevenue":9067,"Ġintention":9068,"sci":9069,"chÃ©es":9070,"ĠprÃ©co":9071,"hou":9072,"validitÃ©":9073,"Ġvendu":9074,"mala":9075,"Ġ71":9076,"ivoire":9077,"Ġ93":9078,"Ġ74":9079,"Ġthis":9080,"Ġreporter":9081,"Ġcens":9082,"Ġwal":9083,"Ã©chantillon":9084,"erican":9085,"reuve":9086,"Ġ[...":9087,"Ġpluri":9088,"Ġsouplesse":9089,"ĠadaptÃ©s":9090,"Ġtransporteurs":9091,"Ġirlande":9092,"ĠdÃ©lÃ©guÃ©s":9093,".),":9094,"Ġrenfer":9095,"Ġviande":9096,"Ġunis":9097,"ĠaxÃ©s":9098,"Ġtransfron":9099,"ĠÃ§a":9100,"Ġmorale":9101,"Ġanalyser":9102,"Ġconsistant":9103,"Ġemployeur":9104,"admission":9105,"Ġbiodivers":9106,"Ġpropag":9107,"Ġvacances":9108,"Ġtuber":9109,"Ġfermeture":9110,"Ġfonctionner":9111,"ĠrÃ©fÃ©r":9112,"Ġappartient":9113,"Ġburundi":9114,"ĠrejetÃ©":9115,"Ġrestriction":9116,"Ġaccueill":9117,"Ġtabagisme":9118,"ics":9119,"ular":9120,"Ġcaf":9121,"Ġabsolument":9122,"Ġcourants":9123,"ĠinÃ©g":9124,"docu":9125,"ĠrÃ©flÃ©ch":9126,"nd":9127,"Ġ81":9128,"enda":9129,"ologues":9130,"Ġautriche":9131,"Ġsympt":9132,"Ġfen":9133,"Ġrace":9134,"Ġinscrire":9135,"Ġaigu":9136,"ĠrÃ©sulte":9137,"Ġ110":9138,"bus":9139,"Ġlettonie":9140,"ĠdÃ©grad":9141,"Ġexemplaire":9142,"Ġtes":9143,"ĠthaÃ¯lande":9144,"infraction":9145,"ĠrÃ©unir":9146,"Ġattaques":9147,"Ġ83":9148,"ĠfÃ©liciter":9149,"Ġintra":9150,"Ġprogressivement":9151,"Ġwilli":9152,"Ġressource":9153,"gua":9154,"Ġplaign":9155,"Ġsecret":9156,"toral":9157,"Ġrefuser":9158,"ĠtouchÃ©es":9159,"Ġoccidentale":9160,"ĠexaminÃ©e":9161,"Ã¯n":9162,"atre":9163,"Ġcoeur":9164,"rables":9165,"ĠpÃ©nales":9166,"ĠpossÃ¨dent":9167,"ĠexcÃ©dent":9168,"Ġkaz":9169,"ĠcorrÃ©":9170,"oh":9171,"provin":9172,"ĠpÃ©rou":9173,"ural":9174,"Ġassurance":9175,"ĠvulnÃ©rabilitÃ©":9176,"Ġroms":9177,"Ġfiscaux":9178,"atteinte":9179,"Ġ86":9180,"Ġconclus":9181,"Ġmichael":9182,"instauration":9183,"Ġinformatiques":9184,"envis":9185,"Ġperception":9186,"Ġposent":9187,"ĠimmÃ©diate":9188,"Ġpanne":9189,"territ":9190,"Ġpratiquement":9191,"icitÃ©":9192,"Ġfamilial":9193,"ĠhaÃ¯ti":9194,"cinqu":9195,"Ġpairs":9196,"Ġintergouvernemental":9197,"ĠcausÃ©":9198,"umb":9199,"ĠleÃ§ons":9200,"Ġciter":9201,"ĠrÃ©adaptation":9202,"Ġpesti":9203,"ĠprospÃ©ritÃ©":9204,"Ġoffertes":9205,"ĠlÃ©gislatifs":9206,"Ġprononcer":9207,"ĠengagÃ©e":9208,"hab":9209,"ĠfrÃ©quemment":9210,"Ġfraude":9211,"observateur":9212,"Ġobtenues":9213,"Ġspir":9214,"conseil":9215,"entend":9216,"Ġinstitutionnel":9217,"Ġrecommander":9218,"Ġmenu":9219,"ĠautorisÃ©es":9220,"informer":9221,"ĠthÃ©Ã¢tre":9222,"ĠÃ©lus":9223,"iopie":9224,"Ġ92":9225,"Ġlibrement":9226,"ĠmÃ©dicales":9227,"Ã©tiquetage":9228,"verse":9229,"ĠprÃ©lev":9230,"ĠprotÃ©gÃ©es":9231,"Ġsouter":9232,"ĠmolÃ©cu":9233,"007":9234,"initiatives":9235,"Ġcoutu":9236,"Ġdos":9237,"Ġmagistra":9238,"apour":9239,"Ġphil":9240,"Ġdiversification":9241,"ĠintÃ©rieures":9242,"ĠprolifÃ©ration":9243,"ĠmenÃ©s":9244,"ĠfacilitÃ©":9245,"Ġfnuap":9246,"Ġlimitation":9247,"%)":9248,"ĠnÃ©gatifs":9249,"Ġpeux":9250,"fas":9251,"ĠministÃ©riels":9252,"ĠkilomÃ¨tres":9253,"ĠdÃ©putÃ©":9254,"Ġcommunique":9255,"dÃ©ter":9256,"Ġadditionnels":9257,".Â»":9258,"ĠpÃ©nit":9259,"outils":9260,"Ġsavons":9261,"curitÃ©":9262,"Ġinnova":9263,"ters":9264,"internation":9265,"ĠimprÃ©":9266,"sixiÃ¨me":9267,"Ġdoter":9268,"ĠnÃ©cessite":9269,"Ġcessation":9270,"lit":9271,"Ġconsultatifs":9272,"Ġsoumission":9273,"Ġcompromet":9274,"activ":9275,"ĠrÃ©pertoire":9276,"dg":9277,"importants":9278,"Ġpublier":9279,"ĠindiquÃ©e":9280,"ĠmÃ¨ne":9281,"icon":9282,"Ġcalculer":9283,"Ġhel":9284,"Ġstabilisation":9285,"akh":9286,"ĠmÃ©thodologie":9287,"Ġjoindre":9288,"habil":9289,"ĠplacÃ©":9290,"Ġrendent":9291,"ĠgarÃ§ons":9292,"Ġlibres":9293,"Ġapprouve":9294,"ĠrenforcÃ©":9295,"Ġlot":9296,"ĠamÃ©liorÃ©":9297,"ĠaxÃ©es":9298,"Ġai":9299,"Ġattirer":9300,"ladesh":9301,"Ġquantita":9302,"Ġpourrez":9303,"ench":9304,"burg":9305,"atemala":9306,"ĠsuggÃ©rÃ©":9307,"Ġhospital":9308,"Ġarbitra":9309,"Ġpath":9310,"ĠdÃ©signÃ©e":9311,"Ġtraduit":9312,"Ġ1982":9313,"ĠdiplÃ´me":9314,"ĠstupÃ©fiants":9315,"Ġstipule":9316,"Ġissues":9317,"Ġchauffage":9318,"Ġnettement":9319,"Ġprocurer":9320,"Ġouverts":9321,"ops":9322,"Ġnettoyage":9323,"ĠdÃ©ficience":9324,"Ã©sira":9325,"dium":9326,"Ġfestival":9327,"accus":9328,"efforts":9329,"lise":9330,"Ġmiss":9331,"ĠexprimÃ©es":9332,"Ġentreprendre":9333,"Ġcombustible":9334,"Ġhautement":9335,"offres":9336,"Ġviet":9337,"Ġouvrir":9338,"1995":9339,"Ġreligieux":9340,"Ġurbaines":9341,"ĠmÃ¢":9342,"Ġconnec":9343,"Ġrecueillies":9344,"ĠreÃ§ue":9345,"ĠindÃ©sira":9346,"Ġchemins":9347,"Ġassemb":9348,"Ġpoursuivi":9349,"Ġbiom":9350,"ĠconsacrÃ©es":9351,"ĠÃ©tage":9352,"Ġlait":9353,"expÃ©":9354,"Ġferont":9355,"Ġfigurer":9356,"Ġbourse":9357,"Ġpoliciers":9358,"Ġdent":9359,"86":9360,"Ġreconnue":9361,"Ġgraphique":9362,"accessibilitÃ©":9363,"Ġgab":9364,"Ġaccueille":9365,"Ġvarie":9366,"Ġdesc":9367,"vÃ©n":9368,"Ġofficiers":9369,"ĠlibellÃ©":9370,"Ġcontenues":9371,"ency":9372,"84":9373,"Ġprince":9374,"Ġapprendre":9375,"Ġsynth":9376,"bel":9377,"Ġoccasionn":9378,"stan":9379,"ĠpÃ©dago":9380,"osi":9381,"ĠblÃ©":9382,"Ġjames":9383,"ĠconcrÃ©":9384,"Ġexception":9385,"Ġrecr":9386,"Ġexigent":9387,"iness":9388,"Ġconstant":9389,"Ġmit":9390,"Ġvola":9391,"Ġsaurait":9392,"Ġhabitats":9393,"Ġsauvages":9394,"Ġrevoir":9395,"ĠharcÃ¨lement":9396,"Ġcollabor":9397,"Ã©parg":9398,"----------------":9399,"Ġindication":9400,"autÃ©":9401,"Ġgrossesse":9402,"ĠÐ":9403,"ize":9404,"Ġabus":9405,"Ġgagner":9406,"ĠespÃ¨re":9407,"lements":9408,"Ġconnaissent":9409,"Ġtradition":9410,"ĠsÃ©di":9411,"Ġconstitutionnelle":9412,"Ġgrandement":9413,"Ġprairies":9414,"Ġinterc":9415,"Ġdic":9416,"apec":9417,"cinquiÃ¨me":9418,"espoir":9419,"Ġlabrador":9420,"Ġmadrid":9421,"inno":9422,"Ġincidents":9423,"Ġintroduit":9424,"Ġquotidienne":9425,"ĠprÃ©voyant":9426,"ĠimpÃ´ts":9427,"ĠratifiÃ©":9428,"Ġcompensation":9429,"Ġexcellent":9430,"ĠdÃ©central":9431,"Ġbancaire":9432,"ĠmunicipalitÃ©":9433,"iert":9434,"Ġaver":9435,"Ġcouncil":9436,"Ġfardeau":9437,"ĠcontrÃ´leur":9438,"illets":9439,"Ġdarfour":9440,"ison":9441,"Ġgaza":9442,"empÃªcher":9443,"ĠdÃ©clen":9444,"tish":9445,"Ġrapides":9446,"ĠconsÃ©cu":9447,"Ġvivement":9448,"vÃ©es":9449,"urÃ©es":9450,"Ġibid":9451,"Ġconstamment":9452,"certitude":9453,"issez":9454,"Ġmunicipal":9455,"ĠextÃ©rieurs":9456,"Ġclub":9457,"Ġimprimer":9458,"obiles":9459,"Ġsaou":9460,"ĠÃ©ventuels":9461,"ĠÃ©lecteurs":9462,"Ġdistribuer":9463,"Ġradic":9464,"ĠbibliothÃ¨ques":9465,"nelles":9466,"utilitÃ©":9467,"dames":9468,"ĠdÃ©passer":9469,"Ġmat":9470,"ĠÃ©ventuelle":9471,"Ġgarantit":9472,"Ġprovisoires":9473,"Ġmutuelle":9474,"Ġ[...]":9475,"ĠÃ©manant":9476,"accompagn":9477,"Ġrares":9478,"alphab":9479,"Ġexiger":9480,"Ġdeviennent":9481,"Ġcapables":9482,"ĠprÃ©paratifs":9483,"colombie":9484,"signÃ©":9485,"Ġcopies":9486,"ĠsystÃ©matiquement":9487,"Ġqualifications":9488,"kg":9489,"Ġsuppose":9490,"ĠÃ©lectriques":9491,"ĠdiffÃ©rent":9492,"Ġaborder":9493,"Ġmunitions":9494,"istants":9495,"Ġaccessoires":9496,"tio":9497,"antis":9498,"ĠsubsÃ©qu":9499,"ĠlÃ©gitime":9500,"Ġcolle":9501,"Ġpassation":9502,"Ġcompta":9503,"Ġ1984":9504,"moi":9505,"accords":9506,"Ġcigare":9507,"ĠcaractÃ¨res":9508,"Ġsri":9509,"inflation":9510,"Ġrencontrer":9511,"orer":9512,"ĠaÃ®nÃ©s":9513,"Ġconcrets":9514,"isions":9515,"ml":9516,"Ġmesdames":9517,"uela":9518,"Ġportes":9519,"Ġcase":9520,"Ġbla":9521,"Ġnormalisation":9522,"ĠpriÃ¨re":9523,"Ġrisquent":9524,"Ġgas":9525,"Ġpuits":9526,"rey":9527,"Ġsitue":9528,"Ġ91":9529,"Ġfiables":9530,"Â§":9531,"intolÃ©rance":9532,"avocat":9533,"olvabilitÃ©":9534,"oxyde":9535,"ĠmÃ©morandum":9536,"Ġmains":9537,"ĠcompÃ©tent":9538,"inten":9539,"ĠÃ©quipement":9540,"Ġ79":9541,"Ġgrie":9542,"ĠapparaÃ®t":9543,"inqui":9544,"plus":9545,"bro":9546,"ĠgravitÃ©":9547,"Ġtol":9548,"Ġindividuelle":9549,"Ġattribuable":9550,"ĠcÃ©rÃ©monie":9551,"Ġcitoyen":9552,"Ġvoiture":9553,"Ġconsolider":9554,"option":9555,"Ġrejets":9556,"ĠnigÃ©ria":9557,"Ġexceptions":9558,"ling":9559,"Ġsingapour":9560,"aises":9561,"indemnitÃ©":9562,"Ġstre":9563,"Ġconju":9564,"2010":9565,"Ġdieu":9566,"Ġchir":9567,"locations":9568,"ĠbiodiversitÃ©":9569,"Ġfax":9570,"Ġconfron":9571,"Ġtouchent":9572,"Ġretrouve":9573,"Ġrencontres":9574,"ĠÃ©nergÃ©tiques":9575,"Ġcanal":9576,"Ġmultic":9577,"Ġannon":9578,"ĠspÃ©cialiste":9579,"ĠultÃ©rieurement":9580,"Ġadjo":9581,"Ġavenue":9582,"Ġmalaisie":9583,"Ġrespecte":9584,"iel":9585,"Ġmusic":9586,"verbal":9587,"ĠaidÃ©":9588,"projet":9589,"med":9590,"Ġcoalition":9591,"alliance":9592,"Ġdiplomatique":9593,"bul":9594,"sses":9595,"Ġproducteur":9596,"Ġgend":9597,"Ġaidera":9598,"Ġlitige":9599,"terie":9600,"emballage":9601,"Ġsaine":9602,"Ã¸":9603,"ĠexÃ©cuter":9604,"zz":9605,"Ġconversion":9606,"Ġbern":9607,"Ġagroalimentaire":9608,"Ġrica":9609,"Ġpet":9610,"ĠconcernÃ©e":9611,"ĠdÃ©cennies":9612,"Ġsainte":9613,"Ġlondres":9614,"Ġpure":9615,"Ġaccueilli":9616,"aurait":9617,"Ġquotidien":9618,"82":9619,"Ġparfaitement":9620,"version":9621,"ĠplacÃ©s":9622,"Ġ82":9623,"Ġfermement":9624,"Ġinhum":9625,"Ġdessin":9626,"ĠdÃ©veloppÃ©":9627,"Ġassister":9628,"ĠpÃªcheurs":9629,"ĠrÃ©cent":9630,"inventaire":9631,"Ġgratuitement":9632,"Ġfeux":9633,"Ġconnex":9634,"Ġcontacter":9635,"Ġhoc":9636,"ĠingrÃ©":9637,"Ġdors":9638,"miers":9639,"idemment":9640,"Ġbancaires":9641,"ĠingrÃ©di":9642,"emprisonnement":9643,"Ġvertic":9644,"Ġretomb":9645,"ĠplanÃ¨te":9646,"Ġenrich":9647,"ĠamÃ©ricaines":9648,"ini":9649,"Ġappareil":9650,"Ġtraditionnelle":9651,"Ġpnue":9652,"Ġincorpo":9653,"ĠdÃ©terminÃ©es":9654,"Ġinn":9655,"Ġgeorge":9656,"Ġfusion":9657,"Ġtemporaires":9658,"ĠsalariÃ©s":9659,"Ġenseignement":9660,"ĠapprouvÃ©es":9661,"Ġschool":9662,"ĠbÃ©nÃ©ficie":9663,"ĠversÃ©s":9664,"ĠÃ©prouv":9665,"Ã©rar":9666,"amend":9667,"Ġspirit":9668,"Ġchoc":9669,"ĠappelÃ©e":9670,"ĠconstituÃ©e":9671,"ĠdÃ©terminÃ©s":9672,"Ġguatemala":9673,"Ġacquise":9674,"Ġrevient":9675,"Ġrel":9676,"Ġexerce":9677,"mÃ©diaires":9678,"ĠrÃ©clamation":9679,"ĠÃ©chantillon":9680,"Ġmoldo":9681,"oriser":9682,"ĠÃ©carts":9683,"ĠÃ©dif":9684,"Ġsexuelles":9685,"occuper":9686,"ĠenquÃª":9687,"ĠÃ©labo":9688,"Ġentam":9689,"Ġsexuels":9690,"Ġfondant":9691,"Ġbomb":9692,"Ġkyoto":9693,"Ã©quival":9694,"autant":9695,"Ġtom":9696,"Ġplage":9697,"Ġabouti":9698,"ĠÂ±":9699,"ĠmÃ¨":9700,"Ġland":9701,"cuitÃ©":9702,"ĠprÃ©fÃ©rence":9703,"Ġsel":9704,"Ġlaur":9705,"Ġinsulaires":9706,"atrice":9707,"Ġcant":9708,"achÃ¨vement":9709,"ving":9710,"alo":9711,"ĠdotÃ©":9712,"Ġpositives":9713,"arienne":9714,"Ġinjus":9715,"cas":9716,"Ġouverture":9717,"Ġcfp":9718,"ĠdurabilitÃ©":9719,"Ġges":9720,"Ġspatiale":9721,"Ġexcessi":9722,"Ġsurpr":9723,"Ġrecyclage":9724,"Ġclassiques":9725,"ĠreprÃ©sentÃ©":9726,"Ġ%),":9727,"insolvabilitÃ©":9728,"exprimer":9729,"Ġparle":9730,"Ġincen":9731,"issants":9732,"Ġcourse":9733,"annes":9734,"Ġpromul":9735,"Ġpertinent":9736,"chau":9737,"Ġjournalistes":9738,"ĠprÃ©vision":9739,"Ġfoss":9740,"ĠdÃ©signer":9741,"ĠaÃ©riennes":9742,"ĠlÃ©s":9743,"nant":9744,"pire":9745,"ĠpayÃ©s":9746,"ĠnumÃ©riques":9747,"Ġbangladesh":9748,"torat":9749,"Ġposts":9750,"Ġcolumb":9751,"Ġcommises":9752,"ĠbasÃ©":9753,"Ġabu":9754,"Ġdemandent":9755,"Ġcharbon":9756,"ĠcommuniquÃ©es":9757,"ĠproblÃ©":9758,"Ġcommon":9759,"Ġpalestinienne":9760,"ĠdÃ©termine":9761,"Ġoriginal":9762,"Ġonu":9763,"ĠdÃ©duction":9764,"Ġvariable":9765,"Ġbillets":9766,"Ġwork":9767,"nouvelle":9768,"ĠaffectÃ©":9769,"assent":9770,"capit":9771,"Ġpesticides":9772,"ĠlevÃ©e":9773,"ĠfixÃ©e":9774,"faire":9775,"Ġcoeffic":9776,"Ġmalte":9777,"Ġadditionnel":9778,"Ġentrevues":9779,"entra":9780,"ordi":9781,"Ġheur":9782,"Ġajoute":9783,"ommage":9784,"oul":9785,"ĠÂ©":9786,"Ġexigence":9787,"acier":9788,"Ġpul":9789,"Ġinscrite":9790,"Ġyougoslave":9791,"Ġexcellence":9792,"ĠnÃ©gocier":9793,"ĠprÃ©alables":9794,"Ġrespectent":9795,"ĠrequÃ©rante":9796,"ĠÂ»)":9797,"page":9798,"hygiÃ¨ne":9799,"Ġdiscipline":9800,"Ġbienvenue":9801,"Ġpharmaceutiques":9802,"Ġsyner":9803,"Ġsouhaiter":9804,"Ġimmobiliers":9805,"Ġabsol":9806,"Ġiraq":9807,"lÃ¨tes":9808,"ambie":9809,"rop":9810,"Ġremarque":9811,"Ġaccro":9812,"Ġlongues":9813,"Ġetat":9814,"ory":9815,"Ġconnue":9816,"Ġcib":9817,"Ġestiment":9818,"Ġexpressions":9819,"ĠsÃ©paration":9820,"Ġpat":9821,"Ġram":9822,"Ġinfectie":9823,"ulÃ©s":9824,"Ġprescr":9825,"ÂŃ":9826,"ĠÃ©toiles":9827,"Ġrechercher":9828,"ĠsÃ©nÃ©gal":9829,"ĠhÃ´te":9830,"ĠinformÃ©s":9831,"Ġdemeurer":9832,"Ġaffirm":9833,"ĠscolaritÃ©":9834,"onction":9835,"Ġfortes":9836,"Ġoffres":9837,"Ġpare":9838,"employÃ©s":9839,"Ġcommet":9840,"Ġsauvegarde":9841,"ervise":9842,"apport":9843,"ulaire":9844,"ĠspÃ©cialisÃ©e":9845,"culaires":9846,"original":9847,"Ġsatisfa":9848,"ĠcausÃ©s":9849,"annÃ©es":9850,"ĠÃ©videmment":9851,"inclure":9852,"Ã©tendue":9853,"disciplin":9854,"Ġplanifier":9855,"ther":9856,"Ġhonora":9857,"Ġcomporter":9858,"maj":9859,"ĠprÃªte":9860,"comme":9861,"ĠrefusÃ©":9862,"uffis":9863,"ĠseptiÃ¨me":9864,"iso":9865,"aimer":9866,"view":9867,"ĠoccupÃ©s":9868,"ulÃ©e":9869,"ĠdÃ©taillÃ©s":9870,"autriche":9871,"Ġcentaines":9872,"Ġprostitution":9873,"direc":9874,"Ã¥":9875,"Ġlig":9876,"ĠnommÃ©s":9877,"Ġquitter":9878,"Ġracc":9879,"ĠvÃ©tÃ©":9880,"Ġcomposants":9881,"Ġtraduire":9882,"Ġdouce":9883,"hÃ´pital":9884,"isemb":9885,"ĠdensitÃ©":9886,"allocation":9887,"Ġspa":9888,"Ġprofils":9889,"Ã©valu":9890,"Ġavancer":9891,"Ġunila":9892,"rig":9893,"itage":9894,"ĠcohÃ©rente":9895,"ĠvÃ©rificateur":9896,"Ġanticip":9897,"acide":9898,"Ġtanz":9899,"lÃ¨ve":9900,"Ġrespira":9901,"ËĨ":9902,"rouge":9903,"Ã©lo":9904,"Ġproviennent":9905,"cule":9906,"Ġms":9907,"Ġautomobile":9908,"onnÃ©":9909,"Ġproro":9910,"Ġcandidates":9911,"Ġautomatique":9912,"Ġconsacrer":9913,"Ġpromoteur":9914,"erson":9915,"Ġconsultants":9916,"Ġattra":9917,"Ġedmonton":9918,"ĠlibÃ©ria":9919,"Ġoctro":9920,"Ġimposer":9921,"Ġessai":9922,"Ġplomb":9923,"Ġmagaz":9924,"Ġsole":9925,"Ġphosph":9926,"issantes":9927,"atmosphÃ¨re":9928,"isez":9929,"Ġengager":9930,"mines":9931,"Ġloisirs":9932,"tienne":9933,"Ġcontractante":9934,"Ġcompil":9935,"posage":9936,"Ġreprendre":9937,"hib":9938,"ĠcalculÃ©":9939,"Ġpeau":9940,"ĠexposÃ©es":9941,"Ġpisc":9942,"Ġvisibles":9943,"ĠxÃ©nophobie":9944,"Ġmedic":9945,"ulÃ©es":9946,"Ġfixation":9947,"ĠprÃ©liminaires":9948,"Ġminimales":9949,"Ġbc":9950,"Ġcouronne":9951,"Ġsupervise":9952,"Ġsir":9953,"agerie":9954,"ĠrÃ©agir":9955,"ĠcaractÃ©r":9956,"crimination":9957,"Ġrights":9958,"Ġgazette":9959,"Ġretenues":9960,"ĠvoilÃł":9961,"ĠappliquÃ©s":9962,"Ġukraine":9963,"Ġdemain":9964,"azote":9965,"ĠdÃ©tente":9966,"ĠrÃ©cupÃ©ration":9967,"uguay":9968,"ĠtirÃ©es":9969,"commissaire":9970,"ĠdÃ©crits":9971,"Ġencourageant":9972,"Ġsubsistance":9973,"Ġinformel":9974,"Ġtubercul":9975,"ĠprofondÃ©ment":9976,"Ġvenezuela":9977,"Ġcontenir":9978,"Ġmobiles":9979,"Ġwomen":9980,"Ġphotograph":9981,"endance":9982,"laurent":9983,"cieuse":9984,"vu":9985,"time":9986,"aller":9987,"Ġmoldova":9988,"ĠrÃ©tablir":9989,"sible":9990,"ĠprÃ©judici":9991,"bat":9992,"Ġtroupes":9993,"Ġterrestre":9994,"Ġkazakh":9995,"Ġcirconscription":9996,"Ġphases":9997,"Ġunited":9998,"Ġrapatri":9999,"Ġmini":10000,"Ġmusul":10001,"Ġpartiellement":10002,"âĢĿ,":10003,"Ġplant":10004,"Ġexpl":10005,"Ġtables":10006,"Ġopposition":10007,"Ġcouverts":10008,"Ġwood":10009,"Ġsemi":10010,"Ġrecueill":10011,"Ġ1970":10012,"ĠmaternitÃ©":10013,"avantages":10014,"ĠpÃ©nitenti":10015,"ĠcitÃ©":10016,"Ġcamer":10017,"comp":10018,"Ġvolets":10019,"Ġindividuel":10020,"ancienne":10021,"ĠdÃ©finitif":10022,"rif":10023,"Ġvraisemb":10024,"Ġaggra":10025,"anmar":10026,"Ġglace":10027,"sbourg":10028,"Ġsaumon":10029,"ador":10030,"ĠroutiÃ¨re":10031,"Ġfibres":10032,"ĠdÃ©mons":10033,"obi":10034,"Ġdouze":10035,"Ġpermanentes":10036,"tuellement":10037,"Ġessay":10038,"ĠcoopÃ©ratives":10039,"ĠinterprÃ©tÃ©":10040,"aimerais":10041,"Ġcorriger":10042,"ĠqualifiÃ©":10043,"tera":10044,"eration":10045,"trie":10046,"Ġpma":10047,"ser":10048,"econd":10049,"Ġvide":10050,"Ġpun":10051,"prÃ©sent":10052,"ĠrÃ©solu":10053,"ĠavancÃ©es":10054,"ĠassurÃ©e":10055,"Ġbritish":10056,"ĠarmÃ©":10057,"date":10058,"Ġplacements":10059,"Ġinjec":10060,"ĠdirigÃ©":10061,"Ġvastes":10062,"ĠsoulevÃ©es":10063,"Ġcompose":10064,"ĠdiscrÃ©":10065,"Ġboissons":10066,"Ġcycles":10067,"Ġaquatiques":10068,"ĠthÃ©matiques":10069,"Ġmanifeste":10070,"Ġexpositions":10071,"hal":10072,"Ġprogressive":10073,"Ġtransaction":10074,"labrador":10075,"Ġautorise":10076,"Ġcollectives":10077,"effectif":10078,"Ġviable":10079,"ĠinterprÃ©":10080,"ĠassistÃ©":10081,"Ġreb":10082,"ĠusÃ©es":10083,"ĠtirÃ©":10084,"ĠencouragÃ©":10085,"Ġidentiques":10086,"Ġgren":10087,"envisager":10088,"Ġterrains":10089,"Ġpluriann":10090,"Ġmentionner":10091,"Ġrevenir":10092,"Ġobservation":10093,"Ġcourante":10094,"Ġavocat":10095,"Ġaudiovis":10096,"interven":10097,"bol":10098,"Ġproduites":10099,"ĠlÃ©gislations":10100,"def":10101,"ĠfiabilitÃ©":10102,"ĠvÃ©ritablement":10103,"ĠcommÃ©mo":10104,"ĠdÃ©clin":10105,"riers":10106,"Ġordres":10107,"Ġpostsecond":10108,"Ġconnus":10109,"ĠlÃ©gale":10110,"Ġcriminels":10111,"Ġcontribuera":10112,"Ġversions":10113,"Ãªtres":10114,"Ġsouven":10115,"Ġbient":10116,"Ġtunisie":10117,"Ġperd":10118,"iera":10119,"Ġchaleur":10120,"Ġcamps":10121,"ĠprobabilitÃ©":10122,"Ġiran":10123,"Ġgratuit":10124,"Ġurbaine":10125,"Ġdues":10126,"Ġsubir":10127,"ĠintermÃ©diaires":10128,"Ġactionn":10129,"ĠfixÃ©es":10130,"Ã©vÃ©nement":10131,"indice":10132,"Ġvaccins":10133,"81":10134,"Ġï¿½":10135,"ĠminoritÃ©":10136,"ĠsÃ©parÃ©ment":10137,"alg":10138,"Ġpasseport":10139,"ĠdiplÃ´m":10140,"Ġmeur":10141,"Ġconfirmation":10142,"iconque":10143,"sser":10144,"Ġem":10145,"asser":10146,"jing":10147,"ĠidentitÃ©":10148,"Ġtraditionnel":10149,"ĠretombÃ©es":10150,"ĠacquÃ©rir":10151,"ĠtÃ©lÃ©charger":10152,"imb":10153,"Ġsalv":10154,"ĠrÃ©gulier":10155,"Ġattendre":10156,"accum":10157,"ĠdixiÃ¨me":10158,"Ã©noncÃ©":10159,"Ġpieds":10160,"Ġcauser":10161,"Ġabsor":10162,"secrÃ©":10163,"Ġsupervis":10164,"ĠdÃ©pense":10165,"Ġofferte":10166,"ĠnÃ©glig":10167,"ancier":10168,"ĠsymptÃ´mes":10169,"Ġlanka":10170,"ght":10171,"accÃ©der":10172,"exigence":10173,"Ġbateau":10174,"ĠÃ©laborÃ©s":10175,"ĠmarquÃ©":10176,"informatique":10177,"Ġoriginaires":10178,"Ġrurale":10179,"Ġsanitaire":10180,"Ã©pargne":10181,"ĠÃ©largi":10182,"Ġbritann":10183,"tueux":10184,"Ġanc":10185,"Ġconvenus":10186,"aculture":10187,"entraÃ®nement":10188,"Ġillustr":10189,"ĠindÃ©pendamment":10190,"Ġinstitutionnelles":10191,"Ġtraditions":10192,"fort":10193,"ĠcÃ©lÃ©b":10194,"Ġkar":10195,"Ã©dÃ©ration":10196,"Ġclima":10197,"Ġvisa":10198,"Ġ1981":10199,"Ġmonter":10200,"opt":10201,"olon":10202,"agisse":10203,"Ġcrucial":10204,"Ġdevis":10205,"rp":10206,"Ġdirections":10207,"irment":10208,"illage":10209,"ĠÃ©cri":10210,"ĠconsultÃ©":10211,"Ġimprimable":10212,"ĠmÃ¨res":10213,"entiels":10214,"zy":10215,"ipo":10216,"ĠcomposÃ©e":10217,"Ġcambod":10218,"Ġpy":10219,"ĠcÃ©lÃ¨":10220,"ĠprocÃ¨de":10221,"ĠdÃ©posÃ©es":10222,"Ġcic":10223,"ĠmÃ©tro":10224,"Ġprestataires":10225,"Ġinaccep":10226,"ĠrepÃ©":10227,"Ġ105":10228,"ĠapportÃ©e":10229,"Ġliquide":10230,"Ġfiche":10231,"ĠachevÃ©":10232,"Ġtru":10233,"gard":10234,"raisons":10235,"Ġmanip":10236,"Ġhyper":10237,"Ġfirst":10238,"Ġouvertes":10239,"Ġemplacement":10240,"ĠvallÃ©e":10241,"lc":10242,"isser":10243,"uss":10244,"ols":10245,"uil":10246,"ĠidentifiÃ©s":10247,"Ġurl":10248,"onge":10249,"Ġprimordi":10250,"ĠlÃ©gal":10251,"Ġchoisis":10252,"Ġnit":10253,"Ġjuger":10254,"Ġconstitutionnel":10255,"orme":10256,"Ġconcertation":10257,"ĠspÃ©cifications":10258,"Ġsalon":10259,"Ġtravailleur":10260,"Ġnormales":10261,"ĠÃ©lectorales":10262,"ĠrenforcÃ©e":10263,"ĠbientÃ´t":10264,"Ã¨tement":10265,"innocuitÃ©":10266,"Ġbelle":10267,"Ġ________________________________":10268,"ĠassurÃ©s":10269,"Ġinforme":10270,"Ġcombustibles":10271,"Ġproduite":10272,"Ġpin":10273,"ĠdÃ©posÃ©s":10274,"inture":10275,"Ġdois":10276,"efforcer":10277,"Ġpensons":10278,"ĠrÃ©digÃ©":10279,"ĠdÃ©couverte":10280,"ĠÃ©crites":10281,"Ġoccupe":10282,"issage":10283,"ĠnÃ©pal":10284,"Ġconviendrait":10285,"Ġbranche":10286,"Ġquiconque":10287,"ĠapportÃ©s":10288,"excÃ©d":10289,"arisation":10290,"ĠrÃ©uni":10291,"ĠbÃ©n":10292,"Ġmachine":10293,"ĠillÃ©gale":10294,"iennes":10295,"Ġarbres":10296,"Ġaident":10297,"Ġparrain":10298,"pf":10299,"Ġusines":10300,"Ġdec":10301,"Ġcourantes":10302,"Ġqualit":10303,"Ġmyanmar":10304,"Ġassum":10305,"phy":10306,"britÃ©":10307,"Ġaccomplir":10308,"Ġvalidation":10309,"Ġutilisez":10310,"Ġsouth":10311,"Ġaustrali":10312,"Ã©rarch":10313,"ĠmodifiÃ©s":10314,"Ġgravement":10315,"ĠrevÃªt":10316,"Ġprov":10317,"alphabÃ©":10318,"Ġsouhaitable":10319,"Ġenlev":10320,"Ġequ":10321,"ĠtransfÃ©rer":10322,"Ġrejo":10323,"issau":10324,"ĠattribuÃ©":10325,"Ġrup":10326,"Ġcroix":10327,"ĠmultilatÃ©rales":10328,"ĠdÃ©favoris":10329,"Ġincon":10330,"Ġlittoral":10331,"Ġponc":10332,"Ġtyp":10333,"ĠattÃ©nuer":10334,"Ġprendra":10335,"ĠcessÃ©":10336,"Ġquelqu":10337,"annulation":10338,"ĠadaptÃ©":10339,"ĠaccÃ©lÃ©rer":10340,"Ġmerci":10341,"Ġconjoints":10342,"lantation":10343,"Ġjoint":10344,"ĠsÃ©cher":10345,"Ġgolfe":10346,"sg":10347,"ĠcrÃ©dibilitÃ©":10348,"Ġcomportent":10349,"Ġbusiness":10350,"observ":10351,"Ġ**":10352,"Ġsmith":10353,"Ġredevances":10354,"Ġsoleil":10355,"simil":10356,"orial":10357,"Ġcatalogue":10358,"ĠhiÃ©rarch":10359,"Ã©tal":10360,"tination":10361,"Ġcolumbia":10362,"Ġsinc":10363,"ĠforcÃ©":10364,"ĠdiabÃ¨te":10365,"Ġplaces":10366,"Ġacides":10367,"Ġinsta":10368,"Ã©lÃ¨ve":10369,"ĠdistribuÃ©":10370,"ĠrÃ©capit":10371,"ĠindÃ©":10372,"estimation":10373,"Ġprogression":10374,"acia":10375,"ĠrÃ©sidus":10376,"essence":10377,"Ġsucre":10378,"kin":10379,"Ġpermettez":10380,"ĠdÃ©crite":10381,"ĠnÃ©er":10382,"ĠatmosphÃ©rique":10383,"rog":10384,"Ġtenter":10385,"Ġbulletins":10386,"Ġfacilitation":10387,"Ġredress":10388,"Ġolympiques":10389,"Ġheb":10390,"ĠrÃ©affirmant":10391,"ĠcoordonnÃ©e":10392,"Ġguid":10393,"indicateurs":10394,".);":10395,"ĠadÃ©quat":10396,"Ġstip":10397,"inscrit":10398,"uffisance":10399,"Ġpacifiques":10400,"ĠÃ©tendu":10401,"abri":10402,"ĠminiÃ¨re":10403,"ĠdÃ©coulent":10404,"Ġforest":10405,"Ġantiterr":10406,"Ġremet":10407,"asc":10408,"Ġcorrespondants":10409,"Ġkazakhstan":10410,"ĠdÃ©cel":10411,"Ġriches":10412,"alem":10413,"Ġjordanie":10414,"icaine":10415,"Ġabsence":10416,"lat":10417,"ĠintÃ©rieurs":10418,"nez":10419,"Ġhabitat":10420,"Ġarr":10421,"adn":10422,"Ġsortir":10423,"Ġhommage":10424,"Ġgeneral":10425,"ĠrencontrÃ©":10426,"ĠenregistrÃ©es":10427,"Ġfoyer":10428,"wood":10429,"attendre":10430,"Ġinfectieuses":10431,"Ġplacer":10432,"ĠpÃ©nÃ©":10433,"Ġimpliquant":10434,"Ġconfirme":10435,"Ġfier":10436,"ĠprocrÃ©":10437,"Ġconstituant":10438,"estime":10439,"agr":10440,"Ã¯s":10441,"Ġhautes":10442,"architecture":10443,"Ġmarines":10444,"Ġindicateur":10445,"Ġautomobiles":10446,"Ġcouleurs":10447,"Ġuni":10448,"ĠadaptÃ©es":10449,"rÃ©ditation":10450,"rats":10451,"Ġisland":10452,"ĠÃ©quivalent":10453,"Ã©gypte":10454,".\"":10455,"acquÃ©rir":10456,"ĠnÃ©fas":10457,"Ġregion":10458,"Ġargentine":10459,"envoi":10460,"ĠchaÃ®nes":10461,"Ġdevrions":10462,"ĠtÃ©moignage":10463,"partment":10464,"invaliditÃ©":10465,"Ġsoutenue":10466,"Ġtension":10467,"ĠrÃ©cla":10468,"entielles":10469,"Ġestimation":10470,"ayer":10471,"ressent":10472,"Ġultra":10473,"riez":10474,"Ġts":10475,"ĠdÃ©rogation":10476,"Ġanne":10477,"ĠsÃ©lec":10478,"Ġcoupe":10479,"ĠnÃ©gatives":10480,"ĠprÃ©valence":10481,"Ġfao":10482,"ĠrÃ©guliers":10483,"major":10484,"Ġprisonniers":10485,"ĠdÃ©roulement":10486,"Ġfluc":10487,"Ġdemandant":10488,"Ġreconnues":10489,"Ġperdre":10490,"Ġinnovation":10491,"Ġdistinct":10492,"Ġcroit":10493,"Ġmaurice":10494,"Ġcesser":10495,"ĠÃ©lectoral":10496,"ulp":10497,"Ġsaoudite":10498,"Ġtradu":10499,"Ã©curitÃ©":10500,"Ġinscri":10501,"Ġverbale":10502,"Ġrail":10503,"ĠamÃ©nag":10504,"ĠcafÃ©":10505,"ĠformulÃ©":10506,"ĠreflÃ¨tent":10507,"ĠidÃ©al":10508,"ĠavancÃ©e":10509,"Ġbeijing":10510,"Ġinuit":10511,"Ġtort":10512,"Ġconviction":10513,"itude":10514,"ĠprÃ©cieux":10515,"faits":10516,"Ġconfusion":10517,"Ġambassade":10518,"europÃ©":10519,"Ġnot":10520,"ĠsÃ©curitaire":10521,"ĠminÃ©raux":10522,"ĠaccordÃ©s":10523,"201":10524,"Ġtrim":10525,"Ġnoir":10526,"Ġtc":10527,"Ġriche":10528,"Ġpel":10529,"Ġtanzanie":10530,"acteurs":10531,"Ġfaisaient":10532,"tle":10533,"animitÃ©":10534,"Ġoccidental":10535,"ĠÃ©largir":10536,"arrang":10537,"ĠÃ©poque":10538,"domad":10539,"teau":10540,"vois":10541,"arth":10542,"Ġoptimis":10543,"ospÃ©ci":10544,"Ġinvestir":10545,"cop":10546,"Ġmanifestation":10547,"Ġbritanniques":10548,"Ġay":10549,"Ġlance":10550,"Ġtuberculose":10551,"Ġproches":10552,"Ġeffectue":10553,"Ġfoun":10554,"enseign":10555,"Ġvarient":10556,"Ġfigur":10557,"avez":10558,"aÃ¯que":10559,"groupe":10560,"Ġrad":10561,"Ġdistincts":10562,"sor":10563,"ĠsalubritÃ©":10564,"Ġobserve":10565,"ĠarriÃ¨re":10566,"cel":10567,"Ġcollections":10568,"Ġappris":10569,"ĠpÃ©nur":10570,"ieuse":10571,"ĠcrÃ©ant":10572,"iri":10573,"rÃ£":10574,"Ġsouscrit":10575,"Ġratifier":10576,"uad":10577,"Ġcontamination":10578,"Ġ$,":10579,"ĠfacultÃ©":10580,"ĠrÃ©vÃ¨le":10581,"ĠapparaÃ®tre":10582,"'Â«":10583,"ĠtoxicitÃ©":10584,"ĠdÃ©partements":10585,"ash":10586,"ĠexerÃ§ant":10587,"Ġmaximal":10588,"aliments":10589,"ĠparallÃ¨le":10590,"Ġjuridictions":10591,"ologies":10592,"icien":10593,"Ġfurent":10594,"Ġchapitres":10595,"],":10596,"Ġ09":10597,"Ġauxili":10598,"ĠrÃ©gie":10599,"enses":10600,"Ġcriminel":10601,"Ġtarifaires":10602,"ep":10603,"ĠopÃ©rateurs":10604,"dÃ©termination":10605,"aiea":10606,"Ġinspections":10607,"}\\":10608,"Ġchevau":10609,"ĠadhÃ©sion":10610,"icide":10611,"Ġbasse":10612,"Ġmarqu":10613,"mod":10614,"yau":10615,"ĠdÃ©cisionnel":10616,"ĠprÃ©coce":10617,"Ġcouvert":10618,"lissement":10619,"Ġrestreint":10620,"Ġsignification":10621,"ĠinhÃ©r":10622,"Ġdisciplin":10623,"espÃ¨ces":10624,"Ġcomplets":10625,"section":10626,"ĠenregistrÃ©e":10627,"ĠvÃ©tÃ©rin":10628,"Ġmoral":10629,"Ã©tant":10630,"Ġhabil":10631,"Ġacheter":10632,"ĠprotÃ©ines":10633,"Ġue":10634,"Ġexon":10635,"telle":10636,"Å¡":10637,"Ġvoitures":10638,"Ġvalable":10639,"gibles":10640,"Ġouvrages":10641,"bure":10642,"ĠmÃ£":10643,"ĠnÃ©gative":10644,"Ġrs":10645,"Ġmay":10646,"Ġ1983":10647,"ĠamÃ©liorÃ©e":10648,"Ġvillages":10649,"timÃ©":10650,"ĠdÃ©clarÃ©s":10651,"ĠsuggÃ¨re":10652,"ĠdÃ©rivÃ©s":10653,"ĠaÃ©roports":10654,"Ġcerner":10655,"bud":10656,"Ġsignaux":10657,"ĠnÃ©gatif":10658,"Ġsyndicat":10659,"dique":10660,"Ġmonu":10661,"Ġ125":10662,"Ã©chantillonnage":10663,"Ġinitialement":10664,"Ġ$)":10665,"adresser":10666,"Ġallocations":10667,"ĠmÃ©tÃ©orologiques":10668,"guÃ©e":10669,"ĠdÃ©terminant":10670,"ĠpassÃ©e":10671,"Ġeducation":10672,"ight":10673,"Ġsubdi":10674,"Ġhumides":10675,"ĠvÃ©ritÃ©":10676,"ĠparlÃ©":10677,"ĠmarquÃ©e":10678,"Ġtoile":10679,"Ġpand":10680,"Ġtextiles":10681,"Ġaccepte":10682,"Ġsouhaitez":10683,"personn":10684,"Ġrempli":10685,"Ã©levage":10686,"Ð¾":10687,"Ġcomptent":10688,"Ġclaires":10689,"Ġstructurels":10690,"ĠportÃ©es":10691,"ĠdÃ©montre":10692,"Ġev":10693,"ifÃ¨res":10694,"sen":10695,"âĪĴ":10696,"essentiel":10697,"octobre":10698,"ĠconsidÃ¨rent":10699,"Ġanalogues":10700,"Ġnommer":10701,"ĠsignÃ©e":10702,"Ġphysi":10703,"Ġconfort":10704,"Ġobtenue":10705,"ĠcongÃ©s":10706,"ĠÃ©galitÃ©":10707,"ĠnÃ©gli":10708,"Ġminoritaires":10709,"Ġenceintes":10710,"Ġinconn":10711,"ativitÃ©":10712,"Ġmontag":10713,"Ġcollectif":10714,"ĠsexospÃ©ci":10715,"agents":10716,"Ġmel":10717,"ĠformÃ©s":10718,"Ġtrouvant":10719,"Ġcompatible":10720,"tics":10721,"Ġmanufactur":10722,"Ġinscription":10723,"Ġfiable":10724,"Ġtransnationale":10725,"ĠarmÃ©e":10726,"ĠhabilitÃ©":10727,"ĠrÃ©affirmÃ©":10728,"exac":10729,"Ġconviennent":10730,"ĠthÃ©orie":10731,"Ġimpose":10732,"ĠrÃ©cipro":10733,"armac":10734,"Ġfluctu":10735,"Ġgran":10736,"Ġretrouver":10737,"ily":10738,"endum":10739,"Ġsyrienne":10740,"ĠdÃ©ser":10741,"ĠrÃ©volution":10742,"Ġaudiences":10743,"onudi":10744,"Ġtentative":10745,"Ġfassent":10746,"ĠparitÃ©":10747,"ĠreliÃ©s":10748,"Ġverre":10749,"Ġreligieuse":10750,"1994":10751,"ĠinfirmiÃ¨res":10752,"Ġsoumissionn":10753,"ĠÃ©tendue":10754,"Ġtouristique":10755,"Ġretenu":10756,"Ġcomparables":10757,"ceau":10758,"argentine":10759,"Ã©chÃ©":10760,"Ġspectre":10761,"Ġchrist":10762,"Ġorale":10763,"ĠprÃ©cip":10764,"phone":10765,"ĠguÃ¨re":10766,"800":10767,"Ġadditionnelles":10768,"ĠrentabilitÃ©":10769,"Ġinfections":10770,"Ġsouches":10771,"tiser":10772,"Ġcoloni":10773,"Ġcollo":10774,"Ġdiriger":10775,"kina":10776,"Ġretards":10777,"interaction":10778,"Ġferm":10779,"ĠcÃ´tiÃ¨re":10780,"ĠdÃ©tourn":10781,"gel":10782,"ĠmusÃ©es":10783,"Ġvisait":10784,"agrÃ©ment":10785,"Ġvendeur":10786,"Ġartif":10787,"Ġintellig":10788,"Ġsusciter":10789,"omas":10790,"Ġmack":10791,"Ġramen":10792,"Ġtransformer":10793,"ĠlÃ©gumes":10794,"ĠisraÃ©liennes":10795,"ĠcondamnÃ©":10796,"Ġrichard":10797,"Ġcomparer":10798,"vas":10799,"Ġindispensables":10800,"Ġinspir":10801,"ĠfÃ©minine":10802,"Ġredou":10803,"Ġmultination":10804,"ĠrelevÃ©s":10805,"ĠÃ©chel":10806,"ĠrÃ©putation":10807,"Ġchercheur":10808,"ĠdÃ©mographique":10809,"Ġfaill":10810,"Ġfruc":10811,"ati":10812,"np":10813,"Ġappendice":10814,"cnrc":10815,"oty":10816,"Ġdisque":10817,"Ġandre":10818,"ĠcontinuitÃ©":10819,"Ġdus":10820,"idu":10821,"ura":10822,"ĠindÃ©pendantes":10823,"ĠdemandÃ©e":10824,"carbures":10825,"Ġinteractions":10826,"Ġquart":10827,"Ġpark":10828,"Ġexploitants":10829,"ĠspÃ©cialisÃ©":10830,"ĠdÃ©marches":10831,"Ġmcc":10832,"Ġcumula":10833,"effort":10834,"Ġambiti":10835,"Ã©ronef":10836,"ĠvisibilitÃ©":10837,"intim":10838,"Ġfavorisent":10839,"indonÃ©sie":10840,"Ġconvergence":10841,"Ġincluent":10842,"Ġcontrepartie":10843,"liquant":10844,"Ġexpert":10845,"ĠrespectÃ©":10846,"ene":10847,"ĠzÃ©ro":10848,"Ġacquit":10849,"Ġintergouvernementale":10850,"Ġattendant":10851,"Ġcontaminants":10852,"Ġreproduc":10853,"Ġ---":10854,"Ġprofondes":10855,"mentation":10856,"Ġamerican":10857,"Ġcotisation":10858,"Ġout":10859,"mond":10860,"Ġversements":10861,"Ġhebdomad":10862,"Ġstagi":10863,"avril":10864,"Ġhaye":10865,"Ġguides":10866,"ĠconfrontÃ©s":10867,"alb":10868,"laira":10869,"Ġmunicipales":10870,"incertitude":10871,"Ġformations":10872,"ĠindÃ©sirables":10873,"Ġsant":10874,"objectifs":10875,"ĠaffectÃ©es":10876,"ĠdÃ©vers":10877,"unanimitÃ©":10878,"Ġsignale":10879,"omo":10880,"capacitÃ©":10881,"ĠdÃ©mographiques":10882,"ĠfinancÃ©es":10883,"arme":10884,"ĠÅĵuv":10885,"Ġparlements":10886,"Ġdistinctes":10887,"Ġvite":10888,"Ġpm":10889,"Ġengend":10890,"ĠmÃ©tis":10891,"ll":10892,"Ġdoha":10893,"ĠversÃ©e":10894,"Ġconsenti":10895,"Ġpencher":10896,"Ġhigh":10897,"ministÃ©ri":10898,"Ġprud":10899,"Ġhabitant":10900,"issaient":10901,"nom":10902,"Ġvaccination":10903,"Ġreconnaissent":10904,"Ġusagers":10905,"inspec":10906,"Ġparcours":10907,"Ġnaturellement":10908,"Ġoptique":10909,"Ġaffectation":10910,"Ġindirectement":10911,"ĠsignalÃ©s":10912,"usalem":10913,"Ġbir":10914,"Ġghana":10915,"ĠdÃ©livrÃ©":10916,"Ġfaisons":10917,"Ġinfanti":10918,"ĠinÃ©galitÃ©s":10919,"Ġinvent":10920,"financement":10921,"Ġregroupement":10922,"discrimination":10923,"Ġapparent":10924,"ratoire":10925,"Ġroutier":10926,"ogÃ¨nes":10927,"Ġfoyers":10928,"hos":10929,"Ġurbains":10930,"Ġdj":10931,"irait":10932,"Ġcompatibles":10933,"=-":10934,"Ġhor":10935,"ĠintÃ©grale":10936,"Ġdiscriminatoire":10937,"ĠjÃ©r":10938,"tibilitÃ©":10939,"ial":10940,"face":10941,"ĠtempÃ©ratures":10942,"ĠÃ©numÃ©rÃ©s":10943,"iew":10944,"opo":10945,"Ġgras":10946,"Ġdiversif":10947,"Ġfraction":10948,"Ġarmements":10949,"Ġmarie":10950,"rate":10951,"tÃ©lÃ©":10952,"ĠaccÃ©l":10953,"ĠdiplÃ´mÃ©s":10954,"ualitÃ©":10955,"ĠprononcÃ©":10956,"Ġcali":10957,"terdam":10958,"Ġrecon":10959,"Ġsupprim":10960,"Ġwhite":10961,"Ġvoulues":10962,"of":10963,"ĠdemandÃ©s":10964,"imbab":10965,"Ġchrom":10966,"Ġretenir":10967,"Ġwag":10968,"Ã©cou":10969,"Ġcarto":10970,"Ġcf":10971,"lah":10972,"dÃ©veloppement":10973,"ĠrÃ©side":10974,"ĠimpÃ´t":10975,"Ġtissu":10976,"bis":10977,"dou":10978,"dÃ©s":10979,"Ġcommunity":10980,"km":10981,"ĠflexibilitÃ©":10982,"itez":10983,"ĠarrivÃ©e":10984,"Ġmath":10985,"licopt":10986,"efforce":10987,"Ġbras":10988,"auf":10989,"alerte":10990,"Ġsubsidiaires":10991,"ĠposÃ©es":10992,"Ð°":10993,"Ġmorts":10994,"Ġallons":10995,"Ã©tendre":10996,"Ġtensions":10997,"ĠmodÃ©l":10998,"ĠministÃ©rielles":10999,"Ġinterdiction":11000,"Ġaval":11001,"entis":11002,"Ġami":11003,"Ġinfo":11004,"Ġros":11005,"Ġsalvador":11006,"ĠrÃ©colte":11007,"Ġlc":11008,"Ġpermanence":11009,"ĠformulÃ©e":11010,"Ġinstaurer":11011,"Ġmettra":11012,"Ġcession":11013,"Ġapproxim":11014,"Ġconstruit":11015,"ĠbarÃ¨me":11016,"Ġchroniques":11017,"Ġdesquelles":11018,"Ġmanifestement":11019,"ĠÃ©ventuel":11020,"Ġoxy":11021,"ĠreprÃ©sentÃ©s":11022,"ĠsensibilitÃ©":11023,"vr":11024,"Ġavion":11025,"Ġtun":11026,"entreposage":11027,"Ġcombustion":11028,"locution":11029,"Ġking":11030,"Ġnich":11031,"ĠclassÃ©s":11032,"idÃ©mi":11033,"ĠdÃ©bar":11034,"Ñģ":11035,"essais":11036,"Ġrn":11037,"ĠdÃ©fa":11038,"Ġguy":11039,"conn":11040,"Ġfleu":11041,"ilier":11042,"Ġratio":11043,"ĠlancÃ©e":11044,"ĠobservÃ©e":11045,"extension":11046,"Ġcity":11047,"ĠaccordÃ©es":11048,"lairage":11049,"mt":11050,"chim":11051,"Ġpolicy":11052,"Ġfmi":11053,"Ġfonde":11054,"Ġdp":11055,"001":11056,"Ġdre":11057,"Ġattitudes":11058,"ĠÃ©ventuelles":11059,"Ġabond":11060,"Ġcoordonnateurs":11061,"ĠdÃ©coule":11062,"minÃ©e":11063,"Ġformats":11064,"extradition":11065,"Ã©glise":11066,"lÃ¨ne":11067,"aco":11068,"Ġconscient":11069,"annonce":11070,"ĠrÃ©glementations":11071,"abandon":11072,"Ġassurent":11073,"bour":11074,"ward":11075,"ĠrÃ©crÃ©":11076,"ĠrÃ©comp":11077,"Ġoriental":11078,"ĠprÃ©cau":11079,"Ġinciter":11080,"Ġpassif":11081,"Ġsexuel":11082,"Ġprimes":11083,"Ġmaintenance":11084,"Ġliquides":11085,"seph":11086,"Ġelec":11087,"mas":11088,"Ġ1979":11089,"Ġdepartment":11090,"ĠchrÃ©":11091,"ander":11092,"Ġbarba":11093,"Ġconfiguration":11094,"Ġmamm":11095,"icara":11096,"Ġss":11097,")-":11098,"Ġautoriser":11099,"Ġgov":11100,"Ġdistincte":11101,"Ġconstituait":11102,"ĠcontaminÃ©s":11103,"ĠimportÃ©s":11104,"Ġvenant":11105,"invitation":11106,"initÃ©":11107,"ĠdÃ©pendent":11108,"entrepreneur":11109,"Ġdivisions":11110,"Ġindice":11111,"Ġespaces":11112,"atar":11113,"ĠrÃ©form":11114,"aug":11115,"Ġrespectives":11116,"Ġenvironmental":11117,"dt":11118,"Ġunif":11119,"Ġrajus":11120,"ĠsÃ©diments":11121,"Ġexactement":11122,"fil":11123,"Ġtrousse":11124,"reuves":11125,"Ġenc":11126,"france":11127,"Ġclauses":11128,"taine":11129,"medi":11130,"rira":11131,"Ġmontagne":11132,"Ġvaut":11133,"valle":11134,"Ġchauss":11135,"ĠdonnÃ©s":11136,"Ġattent":11137,"ĠindonÃ©sie":11138,"ocÃ©":11139,"Ġenglobe":11140,"ĠrelÃ¨vement":11141,"Ġpharmac":11142,"intimÃ©":11143,"Ġmoz":11144,"Ġjoh":11145,"ĠcrÃ©anciers":11146,"international":11147,"Ġgradu":11148,"Ġflor":11149,"Ġpropice":11150,"ĠlÃ©gitimes":11151,"apprÃ©ciation":11152,"fricaine":11153,"Ġlitiges":11154,"ĠarrÃªtÃ©s":11155,"ĠidentifiÃ©":11156,"ĠadÃ©quates":11157,"Ġhall":11158,"Ġcivilisations":11159,"Ðµ":11160,"Ġsah":11161,"ĠaccompagnÃ©":11162,"Ġmajeurs":11163,"Ġrepris":11164,"Ġ101":11165,"ĠÃ©ducatif":11166,"installations":11167,"armer":11168,"agas":11169,"tone":11170,"itar":11171,"tionnaire":11172,"phÃ©n":11173,"raser":11174,"Ġmotion":11175,"Ġsatisfaisante":11176,"ĠscÃ©nario":11177,"Ġprouver":11178,"ĠrÃ©servÃ©":11179,"autodÃ©termination":11180,"ĠenvisagÃ©es":11181,"Ġcyc":11182,"indiquer":11183,"Ġchronique":11184,"currence":11185,"Ġforment":11186,"Ġzimbab":11187,"Ġexplications":11188,"Ġregret":11189,"Ġimm":11190,"ros":11191,"Ġapprouver":11192,"Ġremarques":11193,"Ġretourner":11194,"Ġuse":11195,"ĠtÃ©lÃ©phonique":11196,"Ġmanuels":11197,"icier":11198,"Ġcorr":11199,"ĠdenrÃ©es":11200,"gre":11201,"ĠantÃ©rieurs":11202,"Ġimportateurs":11203,"crÃ©":11204,"arios":11205,"ĠexercÃ©":11206,"ĠbilatÃ©rales":11207,"Ġaddi":11208,"ĠposÃ©":11209,"Ġfumer":11210,"tenstein":11211,"ĠsÃ©rieusement":11212,"amÃ©ricaine":11213,"ĠrÃ©diger":11214,"Ġdesquels":11215,"plan":11216,"___":11217,"issÃ©":11218,"Ġnetwork":11219,"Ġdc":11220,"Ġfiches":11221,"ĠrespectÃ©es":11222,"Ġstrasbourg":11223,"Ġuniques":11224,"Ġsuspendu":11225,"ĠprÃ©sentement":11226,"ĠdÃ©monstration":11227,"exploiter":11228,"ompe":11229,"Ġprofessions":11230,"ĠexÃ©cutive":11231,"explique":11232,"ĠlÃ©gales":11233,"huile":11234,"iÃ£":11235,"Ġavoirs":11236,"Ġpromen":11237,"ĠinterministÃ©ri":11238,"Ġoriginale":11239,"Ġpav":11240,"Ġwilliam":11241,"eum":11242,"ĠdÃ©couv":11243,"Ġapplique":11244,"Ġaudit":11245,"Ġaccroissement":11246,"Ġ-,":11247,"oon":11248,"Ġconsister":11249,"orgi":11250,"ĠprÃ©cÃ¨de":11251,"Ġorigine":11252,"ĠdÃ©clarÃ©e":11253,"Ġmarchande":11254,"Ġsoy":11255,"Ġ1978":11256,"Ġdirectes":11257,"Ġpsychologique":11258,"ĠgÃ©noci":11259,"Ġvotes":11260,"Ġcameroun":11261,"expÃ©ri":11262,"entreprendre":11263,"ĠbrÃ»":11264,"Ġsinon":11265,"Ġtrade":11266,"ĠescomptÃ©s":11267,"Ġrecord":11268,"ĠenvisagÃ©":11269,"entendre":11270,"default":11271,"fem":11272,"Ġvendus":11273,"Ġglobales":11274,"ĠsoupÃ§":11275,"Ġstimul":11276,"efficience":11277,"Ġinhumains":11278,"Ġxxie":11279,"Ġbank":11280,"embar":11281,"Ġvisitez":11282,"ĠjÃ©rusalem":11283,"Ġarbitral":11284,"ĠtÃ©moigne":11285,"cou":11286,"ĠathlÃ¨tes":11287,"Ġchu":11288,"ĠcrÃ©ances":11289,"Ġimmeubles":11290,"Ġincer":11291,"gn":11292,"key":11293,"Ġstrictement":11294,"lablement":11295,"Ġpaysage":11296,"ĠËĨ":11297,"Ġinond":11298,"Ġcomptable":11299,"ĠÃ©valuÃ©s":11300,"Ġlecteur":11301,"Ġnoire":11302,"inscri":11303,"Ġinnovations":11304,"Ġrenouvelable":11305,"Ġouvre":11306,"matric":11307,"accepter":11308,"Ġappuient":11309,"Ġvape":11310,"Ġquotas":11311,"Ġhorizon":11312,"Ġdor":11313,"ĠquÃ©b":11314,"Ġsulf":11315,"appuie":11316,"rette":11317,"ĠrÃ©sidu":11318,"Ġrapporteurs":11319,"Ġconscients":11320,"enh":11321,"Ġperformances":11322,"Ġbh":11323,"Ġsurvenus":11324,"vais":11325,"Ġmodules":11326,"echtenstein":11327,"Ġadapter":11328,"erence":11329,"Ġcollege":11330,"Ġinsuff":11331,"Ġconserve":11332,"Ġexaminera":11333,"Ġraisonnablement":11334,"Ġcorro":11335,"osoph":11336,"Ġfaux":11337,"Ġformules":11338,"hÃ©bergement":11339,"âĢ²":11340,"yenne":11341,"Ġdisciplines":11342,"Ġpropagation":11343,"liÃ¨re":11344,"Ġperturb":11345,"apparition":11346,"apeca":11347,"ĠÃ¨":11348,"ĠÃ©largie":11349,"Ġgouvernemental":11350,"Ġconsciente":11351,"Ġglu":11352,"Ġbull":11353,"Ġdevenus":11354,"Ġenter":11355,"ĠdÃ©sertification":11356,"olie":11357,"Ġï£":11358,"leste":11359,"ql":11360,"Ġalex":11361,"ĠmentionnÃ©e":11362,"well":11363,"ajustement":11364,"Ġ130":11365,"Ġcalibre":11366,"Ġnicara":11367,"riques":11368,"Ġmascul":11369,"Ġpalais":11370,"landaise":11371,"Ġexplosifs":11372,"Ġfournira":11373,"ĠentrÃ©":11374,"Ġpaye":11375,"Ġmentionne":11376,"ĠemployÃ©es":11377,"ĠreflÃ©ter":11378,"Ġassujettis":11379,"ĠÎ¼g":11380,"orti":11381,"Ġquinze":11382,"ĠrÃ©viser":11383,"Ġstages":11384,"estations":11385,"hypothÃ¨se":11386,"ĠconcrÃ¨te":11387,"Ġsr":11388,"Ġchil":11389,"Ġki":11390,"Ġvraisemblablement":11391,"Ġyougoslavie":11392,"Ġgovern":11393,"ĠphÃ©nomÃ¨nes":11394,"Ġmut":11395,"appendice":11396,"Ġabsolue":11397,"miques":11398,"Ġacier":11399,"Ġremarquable":11400,"amor":11401,"espÃ©":11402,"Ġsar":11403,"ĠpÃ£":11404,"ett":11405,"mann":11406,"Ġchargement":11407,"prÃ©sidents":11408,"ĠdÃ©gradants":11409,"Ġ140":11410,"Ġcare":11411,"Ġfruit":11412,"Ġexclus":11413,"Ġchute":11414,"Ġmt":11415,"Ġuns":11416,"Ġgain":11417,"ĠcÃ´tÃ©s":11418,"ĠdÃ©lim":11419,"formitÃ©":11420,"Ġoug":11421,"Ġexpertise":11422,"irmiers":11423,"ĠdisparitÃ©s":11424,"Ġacceptables":11425,"ĠprotÃ©gÃ©":11426,"Ġleader":11427,"Ġsoufre":11428,"Ġdiscriminatoires":11429,"ĠintÃ©gralement":11430,"Ġfacilite":11431,"=-=-":11432,"ĠprÃ©lÃ¨vement":11433,"ĠfaisabilitÃ©":11434,"Ġdirigeant":11435,"ulaires":11436,"Ġalliance":11437,"Ġtad":11438,"Ġhond":11439,"Ġphilosoph":11440,"ciales":11441,"Ġfemelles":11442,"sembles":11443,"Ġkong":11444,"Ġanth":11445,"indique":11446,"ĠavancÃ©":11447,"onal":11448,"Ġfis":11449,"Ġclarifier":11450,"ĠproblÃ©matique":11451,"Ġvoulez":11452,"Ġcontinueront":11453,"Ġneige":11454,"Ġmagasins":11455,"Ġurgent":11456,"Ġfood":11457,"chlor":11458,"Ġdoses":11459,"Ġmunicipaux":11460,"oubli":11461,"Ġbrun":11462,"Ġrenferme":11463,"budg":11464,"Ġsteph":11465,"Ġri":11466,"anol":11467,"mit":11468,"Ġcolonies":11469,"Ġimag":11470,"cy":11471,"Ġamende":11472,"adrc":11473,"icatives":11474,"Ġsalue":11475,"ĠqualifiÃ©e":11476,"Ġmichel":11477,"*,":11478,"insuffisance":11479,"vation":11480,"Ã©chapp":11481,"Ġperfectionn":11482,"ĠprÃ©cÃ©dant":11483,"habilitation":11484,"ouer":11485,"Ġbruit":11486,"Ġfaso":11487,"Ġconnexion":11488,"Ġcond":11489,"Ġexces":11490,"Ġfrag":11491,"Ġsportives":11492,"Ġrarement":11493,"Ġartifici":11494,"Ġclassique":11495,"ilton":11496,"ĠtraitÃ©e":11497,"Ã©largir":11498,"Ġfonder":11499,"oe":11500,"Ġnovatrices":11501,"ĠcÃ©d":11502,"Ġah":11503,"Ġcondamnation":11504,"Ġargent":11505,"Ġcigarettes":11506,"dÃ©cision":11507,"ailles":11508,"ĠdÃ©tient":11509,"ĠthÃ©matique":11510,"ĠingrÃ©dients":11511,"ĠdÃ©tÃ©rioration":11512,"chauff":11513,"ĠÃ©thique":11514,"Ġfaim":11515,"Ġjardin":11516,"Ġfun":11517,"ĠdÃ©marrage":11518,"Ġbolivie":11519,"Ġappliquant":11520,"Ġgloss":11521,"ĠdiffÃ©rend":11522,"idÃ©mie":11523,"Ġrayonnement":11524,"Ġallocation":11525,"mans":11526,"ĠdÃ©charge":11527,"cev":11528,"Ġmineur":11529,"Ġly":11530,"ormes":11531,"ĠobservÃ©es":11532,"tentions":11533,"Ġcalculs":11534,"Ġcouvrant":11535,"Ġsph":11536,"Ġcellule":11537,"ĠsimultanÃ©ment":11538,"extraction":11539,"Ġafricain":11540,"Ġcambodge":11541,"enquÃª":11542,"Ġagit":11543,"expulsion":11544,"ĠsoixantiÃ¨me":11545,"ated":11546,"cos":11547,"Ġconciliation":11548,"Ġaccueillir":11549,"Ġactives":11550,"Ġrespectant":11551,"ĠÃ©laborÃ©es":11552,"Ġannex":11553,"ylÃ¨ne":11554,"Ġvita":11555,"info":11556,"Ġnews":11557,"up":11558,"ĠrÃ©servation":11559,"bureau":11560,"Ġportail":11561,"ĠimposÃ©e":11562,"Ġconcurrents":11563,"Ġtp":11564,"Ġnair":11565,"Ġrestaurants":11566,"Ġgarantis":11567,"ĠinstallÃ©":11568,"Ġpatrimoni":11569,"Ġ350":11570,"Ġartistique":11571,"hre":11572,"Ġwill":11573,"Ġexprime":11574,"cies":11575,"uminium":11576,"Ġsn":11577,"Ġrichesse":11578,"Ġabro":11579,"Ġnets":11580,"lÃ£":11581,"Ġtouristiques":11582,"Ġpalud":11583,"Ġdies":11584,"Ġressortir":11585,"ipel":11586,"Ġinfantile":11587,"Ġsoutiennent":11588,"Ġjaponais":11589,"rÃ¨g":11590,"ĠmodÃ©lisation":11591,"Ġbet":11592,"Ã©tation":11593,"Ġredressement":11594,"Ġcontraign":11595,"Ġentretien":11596,"Ġmutuellement":11597,"ĠconÃ§ue":11598,"ralement":11599,"nam":11600,"ĠnÃ©fastes":11601,"Ġclo":11602,"onique":11603,"amÃ©ricain":11604,"ĠexigÃ©":11605,"enant":11606,"Ġliechtenstein":11607,"ennement":11608,"Ġlangage":11609,"ray":11610,"ĠadaptÃ©e":11611,"ĠcommenÃ§ant":11612,"Ġsatisfaits":11613,"Ġnourr":11614,"Ã©preuve":11615,"nera":11616,"Ġpartielle":11617,"ball":11618,"bor":11619,"Ġservira":11620,"Ġmagnif":11621,"fm":11622,"ĠdÃ©terminants":11623,"ï¿½ï¿½":11624,"Ã©tend":11625,"ĠrÃ©unit":11626,"ĠboÃ®te":11627,"Ġrendues":11628,"ĠadressÃ©":11629,"ĠdÃ©signÃ©es":11630,"Ġsg":11631,"red":11632,"ĠcollÃ¨gue":11633,"Ġsimplifier":11634,"Ġchers":11635,"Ġgood":11636,"Ġquan":11637,"Ġantiterroriste":11638,"ĠrÃ©partis":11639,"vasion":11640,"Ġsubordonn":11641,"Ġoublier":11642,"ajout":11643,"Ġannonces":11644,"lay":11645,"ĠcinÃ©":11646,"Ġsat":11647,"ĠdÃ©bu":11648,"pin":11649,"impunitÃ©":11650,"Ġvalide":11651,"sn":11652,"ĠinfÃ©rieurs":11653,"Ġpaludisme":11654,"actives":11655,"Ġmaintenu":11656,"midi":11657,"sub":11658,"Ġinstitutionnelle":11659,"intÃ©ressÃ©":11660,"olÃ©":11661,"Ġwell":11662,"Ġrot":11663,"Ġruisse":11664,"ĠÃ©limination":11665,"Ġtire":11666,"Ġattribuables":11667,"Ġapprofondi":11668,"Ġfleuve":11669,"ĠÃ®le":11670,"Ġallait":11671,"Ġaugmentations":11672,"Ġangle":11673,"illÃ©":11674,"ĠobservÃ©s":11675,"Ġsand":11676,"Ġloy":11677,"opport":11678,"ĠespÃ£":11679,"ĠlÃ©gitim":11680,"Ġmultipli":11681,"ĠhuitiÃ¨me":11682,"ĠdÃ©veloppements":11683,"ĠrÃ©gulation":11684,"azerbaÃ¯djan":11685,"dumping":11686,"expÃ©dition":11687,"Ġzimbabwe":11688,"Ġordinateurs":11689,"Ġcandidatures":11690,"Ġcentraux":11691,"ĠcaractÃ©ristique":11692,"tou":11693,"mg":11694,"ĠdÃ©nomination":11695,"Ġagi":11696,"Ġtranche":11697,"orerie":11698,"appropri":11699,"Ġfoundation":11700,"dge":11701,"Ġml":11702,"reprÃ©sent":11703,"ĠconÃ§ues":11704,"ĠreliÃ©es":11705,"Ġmali":11706,"document":11707,"exactitude":11708,"Ġarchitec":11709,"adÃ©qu":11710,"Ġcontribuant":11711,"Äĩ":11712,"ĠentrÃ©es":11713,"Ġterminant":11714,"Ġtelec":11715,"ĠcompÃ©tition":11716,"appartenance":11717,"ĠinsistÃ©":11718,"ĠderriÃ¨re":11719,"ĠappelÃ©s":11720,"Ġbain":11721,"ĠdÃ©fenseurs":11722,"Ġsouris":11723,"ĠprÃ©occupÃ©e":11724,"Ġsignificatif":11725,"Ġreine":11726,"note":11727,"ĠaccompagnÃ©e":11728,"Ġrare":11729,"Ġrapportent":11730,"ĠprÃªter":11731,"Ġforestiers":11732,"Ġexcellente":11733,"Ġtransmises":11734,"Ġmeubles":11735,"Ġpartant":11736,"lim":11737,"donnÃ©es":11738,"imposer":11739,"accrÃ©ditation":11740,"Ġtraitant":11741,"aver":11742,"Ġinfirmiers":11743,"ĠdÃ©tenu":11744,"Ġenregistrements":11745,"Ġgare":11746,"mier":11747,"ĠblessÃ©s":11748,"ĠpassÃ©s":11749,"ĠgÃ©nocide":11750,"Ġrapporteuse":11751,"ĠlicenciÃ©e":11752,"analyser":11753,"Ã¨lent":11754,"autor":11755,"Ġgrain":11756,"Ġexplication":11757,"Ġfroid":11758,"Ġsecur":11759,"ĠtrÃ©sorerie":11760,"Ġvieux":11761,"ĠlimitÃ©s":11762,"diques":11763,"Ġauteur":11764,"Ġvenu":11765,"Ġthomas":11766,"Ġstatuts":11767,"Ġinterculture":11768,"ĠrÃ©ussir":11769,"ĠâĢĺ":11770,"ĠsÃ¨":11771,"Ġsurviv":11772,"ĠnÃ©cessiter":11773,"Ġburkina":11774,"Ġveux":11775,"Ġraccord":11776,"tml":11777,"ĠthÃ©rapeutiques":11778,"ĠvÃ©gÃ©tation":11779,"outs":11780,"Ġct":11781,"Ġkings":11782,"ĠrÃª":11783,"illus":11784,"ridge":11785,"Ġsain":11786,"Ġacide":11787,"Ġchanti":11788,"ĠdÃ©lÃ©guÃ©":11789,"Ġcorrectives":11790,"ĠÃ©ducatifs":11791,"Ġconducteur":11792,"Ġtribu":11793,"sk":11794,"Ġnairobi":11795,"ĠrÃ©pandu":11796,"ĠrÃ©flÃ©chir":11797,"incapacitÃ©":11798,"Ġdudit":11799,"pays":11800,"ĠrenforÃ§ant":11801,"ĠÃ©gypte":11802,"Ġstades":11803,"Ġchaud":11804,"Ġsable":11805,"Ġxvi":11806,"ortÃ©e":11807,"ĠÃ©nergies":11808,"tition":11809,"ĠcomplÃ¨tes":11810,"Ġtele":11811,"Ġexercent":11812,"Ġvoient":11813,"ĠterminÃ©e":11814,"Ġassis":11815,"Ġcherchent":11816,"Ġbalk":11817,"Ġproportionn":11818,"ĠdÃ©bouchÃ©s":11819,"Ġajustements":11820,"ocÃ©an":11821,"ĠmodifiÃ©es":11822,"ĠsusmentionnÃ©es":11823,"Ġvocation":11824,"illants":11825,"ĠcorrÃ©lation":11826,"Ġgrec":11827,"Ġinscrivez":11828,"Ġ1967":11829,"ĠpiÃ©":11830,"aborder":11831,"ĠÃ©nonce":11832,"Ġsignataires":11833,"Ġcirculaire":11834,"Ġexistante":11835,"chen":11836,"ĠatmosphÃ©riques":11837,"Ġmorales":11838,"Ġcalme":11839,"ĠÃ©labore":11840,"Ġparticipantes":11841,"Ġeuropean":11842,"impose":11843,"ĠscÃ©narios":11844,"vol":11845,"ĠâĤ¬":11846,"Ġviii":11847,"bar":11848,"ĠprononcÃ©e":11849,"veloppe":11850,"ĠsÃ©cheresse":11851,"argu":11852,"enquÃªtes":11853,"Ġexclusive":11854,"lass":11855,"Ġconnexe":11856,"imposent":11857,"holm":11858,"estes":11859,"Ġ1977":11860,"Ġinspecteurs":11861,"Ġrendez":11862,"Ġescadre":11863,"Ġnota":11864,"Ġshe":11865,"Ġdomestique":11866,"Ġconces":11867,"Ġillustre":11868,"ĠprÃ©parÃ©s":11869,"Ġmp":11870,"Ġton":11871,"secrÃ©taire":11872,"Ġattitude":11873,"eci":11874,"Ġbov":11875,"Ġrog":11876,"dec":11877,"intens":11878,"ĠimposÃ©":11879,"yougosla":11880,"ĠfÃ©licitÃ©":11881,"Ġexhaustive":11882,"antÃ©cÃ©d":11883,"ĠcÃ´tiÃ¨res":11884,"Ġorganisationnelle":11885,"Ġye":11886,"alise":11887,"ĠdÃ©tecter":11888,"Ġsystem":11889,"hau":11890,"Ð¸":11891,"ĠmonÃ©taires":11892,"ĠÃ©volu":11893,"ductions":11894,"Ġpiscine":11895,"jonction":11896,"idrc":11897,"aquaculture":11898,"Ġhtml":11899,"ĠhypothÃ¨ses":11900,"Ġhouse":11901,"Ġanglo":11902,"ĠdÃ©couvert":11903,"Ġconsultant":11904,"zbÃ©":11905,"Ã¯des":11906,"absor":11907,"ĠazerbaÃ¯djan":11908,"Ġrod":11909,"Ġrats":11910,"zbÃ©kistan":11911,"Ġdal":11912,"yougoslavie":11913,"ĠbriÃ¨vement":11914,"Ġportait":11915,"Ġentrent":11916,"Ġdiverg":11917,"Ġforts":11918,"Ġ104":11919,"ĠjugÃ©e":11920,"ĠpassÃ©es":11921,"ĠrÃ©troaction":11922,"mÃ©d":11923,"hÃ©r":11924,"Ġvies":11925,"Ġplaignante":11926,"Ġgrains":11927,"Ġtransporter":11928,"Ġwestern":11929,"ple":11930,"ĠtroisiÃ¨mement":11931,"ĠrÃ©fÃ©rendum":11932,"Ġforfait":11933,"Ġwindows":11934,"Ġviables":11935,"Ġrequiert":11936,"ĠcÃ¢ble":11937,"Ġhec":11938,"ocarb":11939,"Ġvenus":11940,"Ġcriminelles":11941,"ĠrÃ©unis":11942,"Ġinsuffisant":11943,"Ġgraines":11944,"Ġimmobilisations":11945,"drome":11946,"Ġberlin":11947,"Ġvigoure":11948,"auth":11949,"Ġadresser":11950,"Ġdonnera":11951,"opath":11952,"onum":11953,"Ġglossaire":11954,"atures":11955,"Ġsupports":11956,"atti":11957,"Ġka":11958,"Ã©quipage":11959,"Ġsystems":11960,"Ġantic":11961,"aspect":11962,"1992":11963,"Ġdemandons":11964,"ĠrÃ©guliÃ¨res":11965,"tus":11966,"ĠdiffÃ©renci":11967,"kes":11968,"Ġefficient":11969,"Ġtente":11970,"erreur":11971,"ound":11972,"Ġstreet":11973,"Ġadoptant":11974,"ĠpossÃ©der":11975,"ĠschÃ©":11976,"Ġlourd":11977,"Ġalimentation":11978,"Ġdistricts":11979,"ouissement":11980,"incor":11981,"ĠlaissÃ©":11982,"ĠpÃ©riph":11983,"ĠpartagÃ©e":11984,"Ġtransitoire":11985,"Ġolympique":11986,"ĠÃ©quilibrÃ©e":11987,"Ġlourds":11988,"acteur":11989,"ĠocÃ©an":11990,"ella":11991,"Ġatomique":11992,"Ġprisons":11993,"images":11994,"Ġcoupable":11995,"Ã©ral":11996,"Ġligue":11997,"Ġrecueillis":11998,"Ġmalades":11999,"ĠsÃ©ries":12000,"cton":12001,"Ġsig":12002,"Ġporno":12003,"rus":12004,"intensitÃ©":12005,"ado":12006,"Ġproject":12007,"ĠnÃ©glige":12008,"ĠdirigÃ©e":12009,"accÃ©lÃ©rer":12010,"ĠisraÃ©lien":12011,"Ġretenus":12012,"Ġfixes":12013,"Ġallemande":12014,"nations":12015,"Ġdilig":12016,"Ġsondages":12017,"encad":12018,"Ġhill":12019,"Ġserveur":12020,"Ã©mat":12021,"Ġglobalement":12022,"ĠfÃ©licitons":12023,"Ġminimal":12024,"ĠstÃ©rÃ©":12025,"Ġapprovisi":12026,"Ġassig":12027,"Ġmozamb":12028,"ĠintÃ©gral":12029,"ĠmÃ©nage":12030,"Ġdegr":12031,"estri":12032,"Ġclandes":12033,"Ġnicaragua":12034,"Ġfraser":12035,"Ġcollectifs":12036,"Ġsavent":12037,"ĠacceptÃ©e":12038,"minÃ©s":12039,"occupe":12040,"Ġcontrainte":12041,"ographique":12042,"rasse":12043,"Ġguider":12044,"Ġdistributeurs":12045,"Ġgarantissant":12046,"Ġproductions":12047,"sans":12048,"aliÃ©n":12049,"Ġsouple":12050,"Ġaudience":12051,"Ġtoucher":12052,"Ġimmigration":12053,"Ġ160":12054,"Ġsatellites":12055,"Äį":12056,"Ġcapitaine":12057,"Ġhaine":12058,"****":12059,"Ġcentra":12060,"ĠinquiÃ©tudes":12061,"Ġnuire":12062,"Ġsuffisants":12063,"armerie":12064,"Ġconcentre":12065,"habitation":12066,"ĠvÃ©cu":12067,"ĠdÃ©ployer":12068,"Ġsubstitution":12069,"Ġmcg":12070,"ĠdÃ©tenteurs":12071,"Ġdemanderesse":12072,"ogÃ¨ne":12073,"Ã¨ques":12074,"ressionn":12075,"Ġcharles":12076,"Ġrefu":12077,"individu":12078,"Ġfrontaliers":12079,"Ã¡Ã¡Ã¡Ã¡":12080,"Ġsun":12081,"idÃ©es":12082,"Ġoccupent":12083,"Ġledit":12084,"Ġpt":12085,"hor":12086,"Ġassurances":12087,"ĠquittÃ©":12088,"ĠexÃ©cutÃ©":12089,"ĠtentÃ©":12090,"ough":12091,"ĠaccrÃ©d":12092,"jetÃ©":12093,"ĠdÃ©gager":12094,"Ġparcour":12095,"ĠcÃ©lÃ¨bre":12096,"Ġrss":12097,"ĠconfÃ¨re":12098,"ref":12099,"Ġï£µ":12100,"Ġpaie":12101,"right":12102,"ĠrÃ©duisant":12103,"ĠbÃ©ta":12104,"Ġbalance":12105,"immeu":12106,"Ġcruels":12107,"Ġ103":12108,"Ġniger":12109,"Ġbec":12110,"1991":12111,"ĠjamaÃ¯que":12112,"rh":12113,"ĠpÃ©riodiquement":12114,"rÃ©gional":12115,"ĠexprimÃ©e":12116,"Ġtotaux":12117,"ĠimmÃ©diat":12118,"ĠdÃ©nomm":12119,"ĠrÃ©alitÃ©s":12120,"ĠlÃ©gÃ¨re":12121,"Ġmong":12122,"Ġindien":12123,"gis":12124,"yclo":12125,"ĠcoopÃ©rative":12126,"Ġcenter":12127,"omÃ¨tre":12128,"opÃ©ra":12129,"ĠforestiÃ¨re":12130,"ĠÃ©value":12131,"ĠgÃ¨re":12132,"Ġdeo":12133,"uds":12134,"ĠsusmentionnÃ©s":12135,"Ġferroviaires":12136,"Ġrassembler":12137,"Ġantidumping":12138,"bauche":12139,"Ġpersonnellement":12140,"Ġsouterra":12141,"Ġgreen":12142,"ĠÃ©tal":12143,"Ġanalytique":12144,"Ġinflig":12145,"ĠhÃ´tels":12146,"Ġboard":12147,"vd":12148,"olique":12149,"Ġconnues":12150,"ĠÃ©voquÃ©":12151,"Ġtentatives":12152,"Ġbataille":12153,"cd":12154,"Ġsangu":12155,"illance":12156,"ĠÃ©quiv":12157,"Ġdomestiques":12158,"Ġlargeur":12159,"Ġtransparente":12160,"exige":12161,"ĠallÃ©gation":12162,"sct":12163,"Ġprofesseurs":12164,"Ġsavez":12165,"Ġorganise":12166,"Ġarbitraire":12167,"Ġcomptant":12168,"Ġqualification":12169,"Ġgendarmerie":12170,"tats":12171,"antÃ©cÃ©dents":12172,"Ġsab":12173,"Ġinstituant":12174,"Ġcruciale":12175,"Ġaptitudes":12176,"appuyant":12177,"sch":12178,"ĠlinÃ©":12179,"now":12180,"Ġitin":12181,"Ġ2015":12182,"1993":12183,"Ġ(\"":12184,"Ġintensif":12185,"Ġinsiste":12186,"Ġexplicitement":12187,"ym":12188,"Ġrendant":12189,"Ġgib":12190,"Ġpoursuivent":12191,"ĠmaÃ¯s":12192,"extrÃªme":12193,"vements":12194,"Ġexcessive":12195,"Ġkirgh":12196,"Ġpatrou":12197,"ĠcrÃ©Ã©es":12198,"Ġlivrer":12199,"Ġdivid":12200,"Ġmidi":12201,"ona":12202,"Ġcardia":12203,"Ġconvaincue":12204,"Ġappartiennent":12205,"Ġsegment":12206,"acheteur":12207,"europa":12208,"Ġfri":12209,"ĠenvoyÃ©s":12210,"ernes":12211,"ĠbÃ©nin":12212,"Ġup":12213,"Ġinacceptable":12214,"Ġindices":12215,"Ġparas":12216,"ĠyÃ©m":12217,"Ġsymbole":12218,"Ġresources":12219,"Ġconcurrentiel":12220,"ĠrÃ©installation":12221,"Ġtechnology":12222,"Ã§ait":12223,"Ġour":12224,"Ġnaissances":12225,"Ġrat":12226,"Ġportug":12227,"Ġlos":12228,"Ġvoisinage":12229,"Ġrectifications":12230,"Ġstrate":12231,"Ġ108":12232,"ĠtÃ©lÃ©phoniques":12233,"Ġfact":12234,"assure":12235,"pop":12236,"uras":12237,"diteur":12238,"autoriser":12239,"Ġimmobilier":12240,"Ġstage":12241,"expliquer":12242,"Ġ1971":12243,"dren":12244,"exemption":12245,"Ġtraum":12246,"Ġ1975":12247,"Ġjouissent":12248,"Ġvoc":12249,"Ġcontribuables":12250,"Ġlamp":12251,"Ġventilation":12252,"enza":12253,"Ġvais":12254,"orateur":12255,"Ġindividuellement":12256,"Ġstockholm":12257,"Ġdevises":12258,"Ġexceptionnel":12259,"Ġble":12260,"Ġfonciers":12261,"incorpo":12262,"Ġneutra":12263,"lerie":12264,"Ġpilotage":12265,"invention":12266,"Ġcoton":12267,"Ġvolumes":12268,"Ġhoraires":12269,"Ġcessez":12270,"Ġsuspec":12271,"ĠfrÃ©quences":12272,"ĠimpliquÃ©s":12273,"Ġaccent":12274,"Ġcorrespondantes":12275,"Ġ(-":12276,"Ġ115":12277,"Ġtraitent":12278,"Ġprolongation":12279,"Ġprochains":12280,"Ġbiomasse":12281,"Ġprocur":12282,"Ġtransmissi":12283,"Ġbail":12284,"ums":12285,"ĠrequÃ©rants":12286,"Ġvisible":12287,"oo":12288,"Ġrues":12289,"patite":12290,"ĠdiamÃ¨tre":12291,"Ġrio":12292,"ĠdotÃ©e":12293,"Ġcomprise":12294,"Ġzambie":12295,"Ġremor":12296,"ĠcÃ©rÃ©ales":12297,"Ġmenant":12298,"Ġfragment":12299,"usine":12300,"ĠprÃ©pare":12301,"Ġgrippe":12302,"vants":12303,"Ġestonie":12304,"heures":12305,"Ġiraqui":12306,"Ġjoseph":12307,"esa":12308,"ĠÃ¡":12309,"ĠrÃ©sidant":12310,"Ġincont":12311,"ĠadministrÃ©":12312,"amendements":12313,"envergure":12314,"ĠschÃ©ma":12315,"respect":12316,"animaux":12317,"Ġincendies":12318,"ĠprÃ©cur":12319,"tox":12320,"otiques":12321,"Ġsouffrant":12322,"Ġeffor":12323,"Ġ107":12324,"Ġconcord":12325,"emprun":12326,"ĠmobiliÃ¨res":12327,"ĠnÃ©cessitent":12328,"ĠaffichÃ©":12329,"esty":12330,"ĠgrÃ©":12331,"arrangement":12332,"Ġdiamants":12333,"Ġ1373":12334,"ĠsÃ©ro":12335,"ĠdÃ©placer":12336,"Ġhc":12337,"loient":12338,"levait":12339,"Ġfacture":12340,"819":12341,"ĠÃ©numÃ©rÃ©es":12342,"ĠÃ©lectr":12343,"ĠillÃ©gales":12344,"ĠrecrutÃ©s":12345,"Ġprenne":12346,"Ġpraticiens":12347,"Ġstandards":12348,"Ġdiplomatiques":12349,"ĠlÃ©gitimitÃ©":12350,"ĠamÃ©liorant":12351,"ĠfumÃ©e":12352,"isitions":12353,"ĠmÃ¢les":12354,"Ġanimale":12355,"Ġsucces":12356,"Ġcass":12357,"Ġdescriptions":12358,"ryth":12359,"Ġfora":12360,"Ġqatar":12361,"avÃ¨re":12362,"Ã¡n":12363,"Ġidentique":12364,"ĠrÃ©putÃ©":12365,"Ġ________________":12366,"Ġappeler":12367,"chr":12368,"ĠvariÃ©tÃ©s":12369,"Ġchaleure":12370,"effets":12371,"gestion":12372,"Ġprojections":12373,"Ġfolk":12374,"ning":12375,"Ġpublie":12376,"ĠprogressÃ©":12377,"Ġquestionnaires":12378,"Ġhydra":12379,"avion":12380,"ĠdÃ©tenues":12381,"Ġtermine":12382,"Ġcoff":12383,"fig":12384,"van":12385,"ĠexÃ©cutÃ©s":12386,"Ġrenforce":12387,"Ġday":12388,"Ġbalkans":12389,"ĠÃ©noncÃ©e":12390,"oxygÃ¨ne":12391,"Ġdiesel":12392,"ĠprÃ©sentera":12393,"Ġsentir":12394,"Ġcontent":12395,"Ġlondon":12396,"bac":12397,"ĠdegrÃ©s":12398,"Ġestimons":12399,"Ġincombent":12400,"Ġtoxicomanie":12401,"gile":12402,"ĠprÃ©cisÃ©s":12403,"dÃ©p":12404,"ĠciblÃ©es":12405,"Ġattendus":12406,"yan":12407,"Ġplastique":12408,"ĠrÃ©vÃ¨lent":12409,"outi":12410,"Ãº":12411,"dont":12412,"Ġvapeur":12413,"Ġminus":12414,"rances":12415,"romp":12416,"type":12417,"ordinateur":12418,"ĠÃ©cart":12419,"ĠÃ©tudie":12420,"tÃ©l":12421,"Ġsto":12422,"Ġsouffrent":12423,"ĠÃ©quitables":12424,"Ġstar":12425,"105":12426,"2011":12427,"personnel":12428,"ĠarrivÃ©":12429,"tisÃ©":12430,"Ġmary":12431,"enregistre":12432,"sm":12433,"Ġconvaincus":12434,"Ġbrig":12435,"Ġhier":12436,"Ġsubsidiaire":12437,"Ġplaque":12438,"actualitÃ©":12439,"ĠenvisagÃ©e":12440,"ĠdÃ©vou":12441,"Ġimmeuble":12442,"sier":12443,"ĠprotÃ©gÃ©e":12444,"poli":12445,"Ġconsacre":12446,"Ġcomptabil":12447,"Ġdoctr":12448,"Ġuniformes":12449,"Ġblack":12450,"Ġdata":12451,"soft":12452,"Ġattributions":12453,"Ã©cran":12454,"Ġski":12455,"ĠrejetÃ©e":12456,"accomplissement":12457,"Ġdominicaine":12458,"tch":12459,"Ã©ron":12460,"ularitÃ©":12461,"ĠprivilÃ¨ges":12462,"Ġrapprochement":12463,"Ġallocution":12464,"ĠexpÃ©di":12465,"Ġreddition":12466,"ĠirrÃ©gu":12467,"Ġforums":12468,"ĠsupprimÃ©":12469,"Ġ1960":12470,"ĠÃ©ryth":12471,"eri":12472,"Ġpower":12473,"ĠmÃ©diterranÃ©":12474,"ĠdÃ©cÃ©d":12475,"investissements":12476,"Ġwar":12477,"Ġvag":12478,"ĠprÃ©voyait":12479,"inson":12480,"Ġinstruction":12481,"Ġvisas":12482,"alphabÃ©tisation":12483,"Ġclairs":12484,"Ġcuivre":12485,"occupent":12486,"Ġpaquet":12487,"traire":12488,"Ġdiminu":12489,"Ġprudence":12490,"tableau":12491,"Ġassume":12492,"ĠrÃ©visÃ©es":12493,"Ġtremb":12494,"Ġprorogation":12495,"Ġidentification":12496,"cieuses":12497,"ĠindÃ©pendance":12498,"Ġaffecter":12499,"Ġpermettraient":12500,"ame":12501,"Ġensembles":12502,"Ġdiman":12503,"Ġferait":12504,"Ġinitiales":12505,"Ġjug":12506,"ĠÃ©preuves":12507,"Ġquinqu":12508,"Ġadulte":12509,"Ġparticul":12510,"ĠsocioÃ©conomique":12511,"Ġprovoquer":12512,"grammes":12513,"Ġcollabore":12514,"ĠcrÃ©ativitÃ©":12515,"Ġcarburants":12516,"Ġautonum":12517,"Ġexceptionnelle":12518,"Ġtier":12519,"250":12520,"tp":12521,"Ġbilingue":12522,"Ġbassins":12523,"Ġcontingent":12524,"Ġdistinguer":12525,"rol":12526,"ÃŃa":12527,"peau":12528,"ĠÂ»;":12529,"tia":12530,"Ġgardi":12531,"Ġwil":12532,"ece":12533,"ccc":12534,"iro":12535,"Ġformelle":12536,"Ġmozambique":12537,"ĠreprÃ©sentaient":12538,"Ġ180":12539,"Ġpermette":12540,"Ġclefs":12541,"ĠadÃ©quats":12542,"Ġencad":12543,"Ġconcession":12544,"ĠbÃ©tail":12545,"Ġterroriste":12546,"ĠpÃ©nurie":12547,"ramme":12548,"Ġpanama":12549,">.":12550,"Ġbenz":12551,"instaurer":12552,"Ġfus":12553,"Ġrondes":12554,"ĠobligÃ©":12555,"sepac":12556,"Ġcorrectionnel":12557,"ĠcomtÃ©":12558,"Ġcommencent":12559,"Ġgouverneure":12560,"Ġexigeant":12561,"ĠflÃ©":12562,"Ġpromoteurs":12563,"arbitre":12564,"radi":12565,"Ġfermes":12566,"Ġfrancophone":12567,"Ġlatitude":12568,"docs":12569,"ĠrÃ©itÃ©":12570,"ĠaccusÃ©s":12571,"win":12572,"ĠpayÃ©e":12573,"enrich":12574,"Ġendomm":12575,"ĠneuviÃ¨me":12576,"ĠlittÃ©rature":12577,"occurrence":12578,"ĠarchÃ©":12579,"Ġpiste":12580,"Ġrecruter":12581,"Ġbill":12582,"Ġcyber":12583,"Ġrenvoy":12584,"Ġeg":12585,"Ġconsorti":12586,"iziÃ¨me":12587,"!!":12588,"Ġsaf":12589,"Ġrotation":12590,"Ġits":12591,"Ġfaculta":12592,"Ġexplorer":12593,"Ġaire":12594,"Ġmanqu":12595,"donald":12596,"Ġchildren":12597,"ĠantÃ©cÃ©dents":12598,"Ġentourant":12599,"Ġeli":12600,"Ġasc":12601,"ĠfÃªte":12602,"ĠdÃ®":12603,"Ġstagiaires":12604,"ĠprÃ©avis":12605,"Ġaspi":12606,"Ġnoci":12607,"Ġinspection":12608,"ĠÃ©valuÃ©es":12609,"Ġjuridiquement":12610,"Ġrevit":12611,"Ġmicrobi":12612,"Ġ).":12613,"rq":12614,"Ġece":12615,"Ġ1976":12616,"tilles":12617,"Ġroutiers":12618,"Ġintroduire":12619,"Ġutilisateur":12620,"Ġpeop":12621,"Ġinex":12622,"ĠtransfrontiÃ¨res":12623,"Ġexpression":12624,"Ã©chec":12625,"ming":12626,")).":12627,"Ġvec":12628,"appareils":12629,"Ġfund":12630,"Ġlever":12631,"ĠsuscitÃ©":12632,"itz":12633,"ĠpartagÃ©s":12634,"aille":12635,"Ġplaid":12636,"Ġsimplification":12637,"Ġadministrateur":12638,"Ġprocureurs":12639,"sol":12640,"ĠpandÃ©mie":12641,"ĠattribuÃ©s":12642,"Ġimplications":12643,"ittee":12644,"ĠbarriÃ¨res":12645,"Ġapportent":12646,"Ġsyl":12647,"ĠclassÃ©":12648,"Ġadjointe":12649,"ĠsoulevÃ©":12650,"endes":12651,"Ġcompromettre":12652,"Ġpotentiellement":12653,"ren":12654,"ĠÃ©tudiant":12655,"atisation":12656,"infrastructures":12657,"</":12658,"immobil":12659,"ĠdÃ©lits":12660,"ĠmÃ©diterranÃ©e":12661,"Ġincluses":12662,"Ġgreffier":12663,"ĠgÃ©rÃ©":12664,"Ġmorte":12665,"ressource":12666,"ĠrecrutÃ©":12667,"ĠdiscutÃ©":12668,"ĠprÃ©fÃ©rable":12669,"assin":12670,"Ġremplies":12671,"pas":12672,"Ġconventionnels":12673,"Ġbuff":12674,"sous":12675,"ull":12676,"obe":12677,"ĠtÃ©lÃ©s":12678,"Ġlende":12679,"opol":12680,"domin":12681,"Ġtap":12682,"Ġcari":12683,"Ã©clairage":12684,"Ġ106":12685,"ĠisraÃ©liens":12686,"ĠmontÃ©nÃ©gro":12687,"Ġautor":12688,"Ġportion":12689,"quiÃ©":12690,"Ġlibra":12691,"ambule":12692,"vus":12693,"ĠpostÃ©ri":12694,"Ġmigrateurs":12695,"chements":12696,"Ġtutelle":12697,"ĠalgÃ©rie":12698,"adr":12699,"exÃ©cuter":12700,"Ġsuivies":12701,"algÃ©rie":12702,"rup":12703,")/":12704,"nesty":12705,"ĠinÃ©v":12706,"ĠforestiÃ¨res":12707,"Ġmedia":12708,"ĠdemandÃ©es":12709,"\")":12710,"Ġnas":12711,"Ġpneu":12712,"ĠgÃ©nÃ©":12713,"attaque":12714,"Ġtadji":12715,"ĠmÃ©canique":12716,"ĠclassÃ©es":12717,"Ġrav":12718,"Ġ123":12719,"Ġregrette":12720,"ĠingÃ©nie":12721,"Ġpayable":12722,"Ġpartagent":12723,"Ġlieutenant":12724,"ĠÃ©chelons":12725,"lers":12726,"Ġexpul":12727,"Ġscrs":12728,"parc":12729,"sias":12730,"Ġusine":12731,"quin":12732,"ĠguÃ©r":12733,"ĠpossÃ©dant":12734,"ergy":12735,"sectori":12736,"ners":12737,"Ġregina":12738,"Ġcellulaire":12739,"Ġlind":12740,"Ġpromet":12741,"ĠprÃ©ju":12742,"Ġcriminelle":12743,"ĠjugÃ©s":12744,"Ġhabitudes":12745,"Ġanciennes":12746,"Ġauthor":12747,"Ġsuspens":12748,"Ġnamib":12749,"ĠrÃ©putÃ©e":12750,"bou":12751,"luents":12752,"ĠÃ©laborÃ©e":12753,"fra":12754,"entraide":12755,"ĠcompatibilitÃ©":12756,"ĠprotÃ¨ge":12757,"Ġcouches":12758,"ĠsÃ©journ":12759,"Ġcarol":12760,"Ġminoritaire":12761,"iat":12762,"ĠsÃ£":12763,"ĠbÃ¢tir":12764,"vingt":12765,"tilitÃ©":12766,"Ġproposent":12767,"Ġimpressionn":12768,"Ġattentats":12769,"aria":12770,"quien":12771,"Ġadresses":12772,"Ġpoursuivra":12773,"Ġep":12774,"Ġinventaire":12775,"Ġexploitations":12776,"Ġmontagnes":12777,"Ġterrasse":12778,"ĠÃ©puis":12779,"Ġordonnances":12780,"abond":12781,"ĠÃ©lectro":12782,"water":12783,"ĠexprimÃ©s":12784,"ĠprÃ©cisant":12785,"ĠconfÃ©dÃ©ration":12786,"Ġpanneaux":12787,"optique":12788,"ĠbÃ©nÃ©ficiant":12789,"Ġrevendication":12790,"Ġcomprenait":12791,"Ġwagons":12792,"ïĿ":12793,"Ġmotivation":12794,"ĠdÃ©mobilisation":12795,"Ġix":12796,"ĠagrÃ©able":12797,"trage":12798,"Ġtransparent":12799,"Ġembau":12800,"tueuse":12801,"Ġdeb":12802,"Ġdoctorat":12803,"Ġforestier":12804,"chang":12805,"ĠsouhaitÃ©":12806,"ĠprÃ©p":12807,"ĠparaÃ®t":12808,"Ġqc":12809,"ĠtouchÃ©":12810,"Ã´ne":12811,"illa":12812,"Ġobtient":12813,"ally":12814,"unitÃ©s":12815,"Ġcomptait":12816,"ken":12817,"Ġ2020":12818,"Ġhonduras":12819,"ĠonziÃ¨me":12820,"Ġannuellement":12821,"Ġsectorielles":12822,"Ġfaillite":12823,"Ġmandataire":12824,"gare":12825,"jonc":12826,"Ġlendemain":12827,"ĠdÃ©fende":12828,"Ġcanaux":12829,"Ġcomposant":12830,"Ġiraquien":12831,"Ġartistiques":12832,"Ġflotte":12833,"ĠfÃ©licitant":12834,"ĠintÃ¨g":12835,"Ġscc":12836,"ĠaccompagnÃ©s":12837,"Ġremerciements":12838,"dive":12839,"Ġsurfaces":12840,"âĢĿ.":12841,"ĠcollÃ¨ges":12842,"Ġvarier":12843,"roid":12844,"euse":12845,"ĠabrÃ©":12846,"ĠpersonnalitÃ©s":12847,"Ġchy":12848,"Ġaidant":12849,"nÃ£":12850,"Ġracines":12851,"ĠmultimÃ©di":12852,"Ġrevues":12853,"unie":12854,"pad":12855,"bb":12856,"Ġstates":12857,"Ġsauvegard":12858,"eries":12859,"Ġcorp":12860,"ĠimportÃ©es":12861,"igner":12862,"Ġblanche":12863,"enzie":12864,"Ġpasseports":12865,"ĠclartÃ©":12866,"rine":12867,"ĠsupplÃ©":12868,"Ġgis":12869,"ĠdÃ©passÃ©":12870,"Ġvisu":12871,"Ġdun":12872,"notamment":12873,"ĠdisposÃ©":12874,"ĠbÃ©nÃ©vole":12875,"Ġassimil":12876,"Ġlaiti":12877,"aptitude":12878,"sal":12879,"ĠrÃ©chauff":12880,"Ġbarc":12881,"Ġmoments":12882,"Ġexpansion":12883,"Ġ2011":12884,"accessible":12885,"Ġsuccurs":12886,"Ġhen":12887,"ĠmÃ©tabol":12888,"Ġpermission":12889,"introduire":12890,"Ġpeur":12891,"Ġestimatif":12892,"Ġrejoindre":12893,"vic":12894,"Ġmajeures":12895,"Ġerron":12896,"ĠrespectÃ©s":12897,"accident":12898,"ĠlÃ©galement":12899,"Ġparts":12900,"Ġambi":12901,"ĠadhÃ©rer":12902,"Ġpolon":12903,"lotte":12904,"Ġjustifie":12905,"Ġdynamiques":12906,"ĠdÃ©biteur":12907,"estÃ©":12908,"ĠprÃ©n":12909,"ĠÃ©chapp":12910,"pd":12911,"Ġsemestre":12912,"oiseaux":12913,"ĠmÃ©tiers":12914,"incen":12915,"texte":12916,"Ã©gide":12917,"Ġpassent":12918,"ĠrÃ©cepteur":12919,"ĠportÃ©s":12920,"Ġdiminue":12921,"ressources":12922,"Ġimposable":12923,"ĠÃ©tendre":12924,"Ġbrochure":12925,"iliers":12926,"Ġroulant":12927,"Ġlits":12928,"west":12929,"Ġlimitations":12930,"bissau":12931,"lon":12932,"ĠrencontrÃ©s":12933,"Ġku":12934,"Ġltc":12935,"Ġmobilier":12936,"wh":12937,"Ġescad":12938,"adie":12939,"ommun":12940,"Ġcomparable":12941,"ĠcalculÃ©e":12942,"Å¾":12943,"Ġaideront":12944,"ĠpersonnalitÃ©":12945,"ciÃ³n":12946,"Ġlife":12947,"aska":12948,"avÃ©rer":12949,"ĠtransfÃ©rÃ©":12950,"Ġsouhaitons":12951,"Ġhomologues":12952,"ĠrÃ©glementer":12953,"Ġfret":12954,"siers":12955,"ĠrÃ©novation":12956,"vah":12957,"ĠrÃ©duits":12958,"Ġinvitation":12959,"ĠprÃ©ambule":12960,"sauf":12961,"Ġoh":12962,"Ġsuspendre":12963,"ĠhÃ´tes":12964,"Ġindemnisation":12965,"Ġintensifier":12966,"Ġconjointes":12967,"wealth":12968,"Ġexistait":12969,"ĠdÃ©battre":12970,"los":12971,"Ġsv":12972,"ĠbrÃ¨ve":12973,"ĠdÃ©lit":12974,"Ġaugmentent":12975,"Ġsouffrances":12976,"Ġprovient":12977,"Ġreposent":12978,"Ġsolliciter":12979,"Ġinhib":12980,"Ġinterdisant":12981,"Ġquotidiennes":12982,"Ġrationnelle":12983,"Ġdite":12984,"ĠjournÃ©es":12985,"Ġdie":12986,"employer":12987,"Ã©mique":12988,"Ġrentable":12989,"ĠÃ©ri":12990,"Ġfoc":12991,"assur":12992,"tical":12993,"ĠcontrÃ´lÃ©e":12994,"Ġattribuer":12995,"Ġmic":12996,"Ġtchad":12997,"ÑĤ":12998,"Ġhamilton":12999,"Ġoptimale":13000,"Ġstructurelles":13001,"entrevue":13002,"ĠprÃ©paratoires":13003,"Ġpiles":13004,"Ġincomp":13005,"Ġreview":13006,"Ġrenvoie":13007,"Ġissue":13008,"Ġattente":13009,"ĠgÃ¨nes":13010,"Ġmarc":13011,"Ġone":13012,"ervent":13013,"Ġrem":13014,"ĠÃ©chec":13015,"prÃ©sidente":13016,"Ġsamedi":13017,"Ġwp":13018,"Ġconstructif":13019,"Ġcandidate":13020,"ĠrÃ©servoir":13021,"Ġrapatriement":13022,"insÃ©curitÃ©":13023,"Ġacquises":13024,"Ġmille":13025,"Ġsuccession":13026,"ordinateurs":13027,"ĠantÃ©rieurement":13028,"Ġgenres":13029,"ĠprÃ©fÃ©rences":13030,"Ġcontradic":13031,"ĠsoulÃ¨ve":13032,"Ġpommes":13033,"Ġliaisons":13034,"ĠperpÃ©tr":13035,"Ã©tiquette":13036,"Ġroche":13037,"ĠmÃ©talliques":13038,"ousses":13039,"housias":13040,"Ġther":13041,"Ġcopenh":13042,"ĠconcertÃ©e":13043,"Ġangola":13044,"agression":13045,"Ġstephen":13046,"Ġprescription":13047,"Ġplateau":13048,"Ġcardio":13049,"Ġvieilles":13050,"dites":13051,"Ġquartiers":13052,"ĠdotÃ©es":13053,"Ġmh":13054,"Ġterminologie":13055,"Ġradiation":13056,"Ġsauvage":13057,"ĠdÃ©montrent":13058,"Ġharbour":13059,"ĠyÃ©men":13060,"Ġnice":13061,"Ġremplace":13062,"ĠencouragÃ©s":13063,"Ġcarc":13064,"Ġsachant":13065,"Ġcoefficient":13066,"ĠcondamnÃ©s":13067,"Ġsaisonn":13068,"arde":13069,"Ġnettes":13070,"Ġtransmissibles":13071,"mus":13072,"Ġmed":13073,"1990":13074,"Ġfonctionnels":13075,"Ġjouir":13076,"Ġpostale":13077,"Ġ102":13078,"Ġpavillon":13079,"ĠâĪ":13080,"Ġhiver":13081,"Ġccs":13082,"ĠdÃ©clarÃ©es":13083,"Ġsovi":13084,"Ġreposant":13085,"tina":13086,"Ġbilingues":13087,"Ġambitieux":13088,"ĠemployÃ©e":13089,"sou":13090,"Ġpac":13091,"Ġinterdire":13092,"Ġstationnement":13093,"fran":13094,"Ġinformelle":13095,"rn":13096,"Ġbleu":13097,"Ġsuites":13098,"ĠprÃ©sidÃ©":13099,"pent":13100,"Ġ118":13101,"Ġancienne":13102,"Ġcircuits":13103,"Ġbit":13104,"phel":13105,"ĠindigÃ¨nes":13106,"160":13107,"ĠmÃ¨nent":13108,"Ġoctroy":13109,"Ġterritorial":13110,"illons":13111,"ĠlÃ©":13112,"Ġmoderniser":13113,"ĠretirÃ©":13114,"onciation":13115,"ĠacceptÃ©es":13116,"accumulation":13117,"irma":13118,"ĠconfiÃ©":13119,"Ġdure":13120,"inspire":13121,"Ġfille":13122,"____________":13123,"ĠexÃ©cutions":13124,"autique":13125,"ennant":13126,"Ġcommuniquez":13127,"envoyer":13128,"Ġroulement":13129,"approuver":13130,"Ġruisseau":13131,"ĠinterprÃ¨tes":13132,"ota":13133,"ĠbactÃ©ries":13134,"bn":13135,"Ġsatisfaisant":13136,"ÑĢ":13137,"enlÃ¨vement":13138,"ĠarrÃªter":13139,"incitation":13140,"Ġquator":13141,"ĠaffÃ©rentes":13142,"Ġsuppos":13143,"ĠcombinÃ©":13144,"ĠassemblÃ©es":13145,"Ġgouverneurs":13146,"exposÃ©":13147,"Ġsignalisation":13148,"ĠenvoyÃ©e":13149,"hÃ©patite":13150,"Ġincompati":13151,"Ġstables":13152,"ultur":13153,"Ġouganda":13154,"Ġoralement":13155,"Ġchypri":13156,"sitÃ©":13157,"Ġenregistrer":13158,"ĠrÃ©munÃ©rÃ©":13159,"trui":13160,"Ġinvers":13161,"ĠdÃ©taillants":13162,"ĠidentifiÃ©es":13163,"Ġcircul":13164,"Ġjet":13165,"\">":13166,"ĠÃ©thiopie":13167,"apprendre":13168,"Ġorganique":13169,"graphe":13170,"Ġcommonwealth":13171,"ĠbasÃ©es":13172,"ĠÃ©norme":13173,"Ġfluor":13174,"Ġpluriannuel":13175,"Ġcommittee":13176,"Ġboulev":13177,"ĠrÃ©fugiÃ©":13178,"ĠvidÃ©os":13179,"ĠprÃ©visible":13180,"soit":13181,"Ġgriefs":13182,"acuation":13183,"disciplinaire":13184,"Ġrenoncer":13185,"Ġbook":13186,"Ġsortes":13187,"Ġdimanche":13188,"pier":13189,"tiendra":13190,"xi":13191,"Ġtva":13192,"Ġinviter":13193,"Ġmarquage":13194,"Ġcomparative":13195,"Ġtadjikistan":13196,"ĠtÃ©lÃ©vis":13197,"Ġinte":13198,"Ġtravailleuses":13199,"ĠpÃ©nitentiaire":13200,"town":13201,"ĠhÃ©r":13202,"Ġjohannes":13203,"Ġlibyenne":13204,"Ġusages":13205,"pres":13206,"ĠÃĹ":13207,"Ġharmonisation":13208,"Ġorganiz":13209,"ĠdistribuÃ©s":13210,"chi":13211,"onse":13212,"affichage":13213,"Ġdoug":13214,"lÃ¨vements":13215,"Ġrehau":13216,"ĠrÃ©servoirs":13217,"Ġpourvu":13218,"ierie":13219,"Ġcerve":13220,"Ġthermique":13221,"Ġ111":13222,"Ġrejeter":13223,"ĠbilatÃ©ral":13224,
[...]
