#version: 0.2 - Trained by `huggingface/tokenizers`
Ġ t
Ġ a
h e
i n
Ġt he
e r
Ġ s
o n
Ġ ,
r e
Ġ w
Ġ c
Ġ o
e d
Ġ b
n d
Ġ f
a t
Ġ .
o r
i t
e n
Ġ p
Ġ in
Ġ m
i s
e s
a r
Ġo f
a n
a l
in g
Ġ d
a s
Ġa nd
Ġ h
Ġt o
r o
i c
Ġ l
i on
Ġ Ċ
o u
Ġ n
Ġ re
i l
Ġ e
Ġ g
Ġt h
Ġ =
l e
en t
Ġ "
Ġ 1
s t
Ġ @
e l
a m
o m
Ġ on
a c
a d
Ġw as
Ġs t
Ġb e
Ġ he
u r
l y
Ġ '
Ġf or
Ġ u
i d
i m
o l
t er
Ġa s
i r
- @
Ġ@ -@
i v
i g
c t
o t
u t
Ġ r
e t
it h
a y
o w
Ġ 2
Ġa l
v er
Ġw ith
c e
at ion
Ġth at
Ġw h
Ġ it
c h
Ġc on
Ġa t
Ġ j
Ġa n
Ġb y
Ġd e
Ġs e
Ġ is
u s
Ġ k
Ġ v
t h
Ġ )
Ġ (
u l
er s
Ġc h
a nd
a in
e m
Ġ1 9
ro m
Ġh is
o s
he r
a g
a v
u m
es t
Ġc om
0 0
Ġs u
r i
Ġf rom
Ġp ro
o d
p e
Ġn e
is t
i f
u n
il l
o re
l d
a p
Ġs h
s e
Ġ y
er e
ig h
re s
o p
i es
Ġ ro
q u
ar t
b er
ar d
Ġo r
Ġe x
ic h
Ġp l
Ġw ere
a k
at e
or t
al l
Ġu n
a b
Ġl e
an t
u d
o c
g h
on g
at ed
i p
it y
es s
Ġa r
am e
iv e
Ġt r
i e
Ġh ad
Ġ â
ac k
Ġâ Ģ
as t
re d
ro u
Ġwh ich
ou r
g e
Ġa re
m ent
Ġn ot
i an
o v
Ġa f
i al
p t
o st
el l
i a
igh t
Ġc l
u st
ar y
Ġw or
in e
Ġw he
p p
c l
r it
t her
Ġ 3
ou n
Ġa d
ic al
av e
Ġs c
c c
Ġcom p
Ġb ut
Ġ en
ct ion
or d
Ġth is
Ġf ir
Ġhe r
Ġ2 00
t e
ou ld
Ġt w
Ġa b
is h
Ġaf ter
Ġcon t
Ġfir st
ou s
s o
Ġt e
id e
Ġ2 0
Ġs p
u re
Ġit s
Ġne w
ig n
Ġthe ir
Ġa m
Ġal l
Ġ ;
Ġm an
p er
Ġon e
r a
it ion
Ġin t
Ġp er
as s
ĠâĢ ĵ
Ġal so
u b
Ġu s
Ġm ar
i re
o g
o k
Ġs he
r u
e ar
Ġ :
at er
om e
Ġt im
Ġre s
ou t
or m
ag e
Ġre c
on d
Ġthe y
r y
Ġs er
Ġ i
he d
Ġtw o
Ġf e
Ġp art
Ġ 4
Ġa g
u e
Ġwh o
Ġcom m
d u
Ġd es
an s
Ġh ave
Ġ 5
re e
Ġbe c
al ly
f f
Ġd is
an ce
il e
Ġg o
Ġ1 8
Ġw e
. @
Ġ@ .@
p l
Ġo ver
Ġy ear
ow n
t ed
ic e
Ġof f
i z
Ġpl ay
Ġh as
ur ing
Ġbe en
en ce
Ġc o
Ġo ther
e ct
Ġ20 1
, @
Ġ@ ,@
Ġ im
ou gh
k e
a re
or y
Ġc ol
el y
t s
Ġo ut
Ġm e
ation s
cl ud
Ġu p
ac h
ac e
Ġin ter
Ġp re
ou nd
l and
Ġe v
Ġp r
Ġf in
w n
Ġwhe n
Ġb o
ad e
i b
ac t
ion s
Ġs pe
Ġtim e
Ġd uring
Ġc an
a il
ur n
Ġin clud
res s
c ed
Ġa p
Ġf l
r ic
en s
Ġw ould
k s
Ġse c
m an
Ġf il
on e
Ġin d
w e
w ard
Ġb r
an g
nd er
Ġint o
Ġh im
Ġat t
Ġb l
it e
ul t
Ġe ar
ol l
at es
Ġ 6
Ġm ore
Ġ qu
ab le
Ġj o
Ġw ar
c es
as ed
Ġp e
Ġch ar
it ed
re n
Ġc ent
am p
i ed
Ġre p
as e
Ġbe t
Ġfil m
rou gh
w ay
Ġg r
oun t
Ġfor m
l es
f orm
Ġ 7
or s
as on
a w
Ġp o
em ber
ing s
Ġwh ile
os e
Ġa cc
v el
Ġm us
Ġg ame
n e
il d
Ġm ost
v e
er ed
Ġthe re
Ġre m
Ġc ar
Ġf r
in d
Ġn or
c k
Ġp ar
Ġs o
Ġg en
Ġs ou
Ġas s
ak e
i ous
at t
ol d
Ġcon s
Ġh ow
ent s
a us
Ġ 8
f er
is s
re at
Ġe m
Ġn o
Ġl ater
Ġb u
Ġs ong
ic k
rou nd
Ġre g
Ġpro du
Ġag ain
f t
Ġon ly
g an
Ġa ct
ri b
v ed
Ġu nder
Ġwor k
o od
Ġs y
Ġm ay
Ġthe m
Ġk n
Ġ 9
Ġs ome
Ġth an
Ġre t
ter s
Ġth ree
al s
Ġab out
ub l
i x
Ġ19 9
at h
we en
Ġ ver
Ġbet ween
oll ow
p h
on s
h ip
Ġd ay
Ġh igh
Ġb ro
Ġre le
Ġen g
Ġth rough
Ġm on
ot h
Ġrec ord
Ġf ollow
Ġm in
er ic
Ġm a
f ore
ation al
Ġa pp
Ġsec ond
Ġre l
Ġe nd
Ġl i
Ġp h
Ġn um
ic t
Ġsu b
Ġa c
Ġe le
t on
u g
Ġim p
Ġp res
ie w
Ġ 00
Ġs a
Ġ ed
Ġa ir
Ġal b
Ġse ason
Ġf our
Ġe p
Ġde f
Ġp os
Ġd o
Ġwor ld
Ġam eric
Ġnor th
Ġin c
Ġ ent
Ġwhe re
ct ed
r al
Ġbe fore
Ġte am
n ing
Ġm ov
ul ar
at ing
am es
Ġspe c
Ġw rit
Ġar m
Ġm ade
Ġs m
Ġl ar
Ġs ch
is ion
Ġl oc
Ġg u
Ġw ill
iv ed
Ġsu ch
he s
Ġs ur
Ġc ap
Ġp ol
Ġd r
Ġs ing
s on
Ġalb um
Ġp ubl
Ġ00 0
is hed
Ġse ver
i o
Ġyear s
ain ed
ic s
Ġsu pp
i el
Ġc all
od e
e ver
Ġ1 0
l l
Ġsou th
Ġsh ow
Ġb ack
id ent
ro s
Ġad d
Ġre v
Ġ /
Ġgen er
Ġb oth
u al
ter n
il y
Ġin v
Ġthe n
Ġhow ever
Ġap pe
Ġep is
Ġc ount
Ġus ed
Ġde c
Ġre ce
ut e
Ġm ill
al e
if ic
Ġbe ing
Ġthe se
Ġw ell
ur y
Ġm et
Ġs et
Ġst ud
Ġser ies
Ġagain st
Ġb att
Ġ z
t en
an k
Ġchar ac
Ġin st
if e
Ġf ound
Ġnum ber
Ġst e
vel op
Ġb el
Ġle ad
Ġman y
Ġ1 7
Ġmus ic
Ġs im
Ġm at
or n
Ġper form
Ġ 0
Ġm ain
an e
Ġl ong
ot her
Ġo p
Ġc ity
Ġt er
in t
Ġc re
o ol
o y
Ġb rit
aus e
in ce
e nd
Ġde velop
Ġbec ame
er t
Ġun ited
Ġs l
Ġd ire
ig in
Ġsever al
Ġhis t
Ġar t
Ġinclud ing
Ġsh ip
ĠâĢ Ķ
h n
Ġde p
a u
at her
a ir
Ġst ate
Ġm il
Ġex p
is e
Ġin f
Ġear ly
Ġd iv
i er
Ġor igin
is ed
ow er
Ġo b
ver n
Ġ19 8
Ġ1 5
Ġ1 2
Ġp op
Ġtr ans
Ġd id
it s
ar s
Ġd ist
i red
em ent
j ect
or k
le y
u res
in es
Ġn ov
Ġ19 4
ro p
u nd
i et
Ġcont in
Ġgo vern
ol og
Ġw in
it ies
Ġp ers
d er
rou p
Ġpro v
l ed
a z
Ġepis ode
t il
Ġst ates
el f
ros s
a red
Ġc rit
an c
Ġsa id
Ġjo hn
Ġfollow ing
f ul
ir d
Ġk e
Ġ est
Ġcon st
Ġdes ign
Ġg roup
Ġc ould
Ġd if
Ġst r
y s
at ive
iv er
Ġret urn
Ġm ed
Ġ1 6
Ġr un
Ġo per
Ġameric an
oc k
Ġdes c
ou se
n a
Ġal th
Ġkn own
te nd
Ġalth ough
Ġcomp le
iel d
Ġa ust
Ġan y
iv ers
Ġw est
Ġg er
Ġs ign
Ġ19 7
Ġm od
Ġk ing
Ġj un
r on
Ġser v
Ġp ass
Ġl o
em b
Ġd own
u ally
Ġ19 6
Ġ1 1
Ġl and
u ch
t y
Ġf am
Ġne ar
u ed
Ġbe gan
t ing
Ġli ke
g r
Ġfe at
Ġoff ic
in ed
Ġe ff
Ġun til
ro w
op le
is m
Ġdis c
an ge
Ġb ar
ak ing
Ġh ar
Ġal ong
Ġsch ool
Ġbec ause
Ġo wn
er n
id ed
Ġrele ased
Ġop en
Ġp ort
cc ess
in s
iz ed
Ġcall ed
Ġn ational
Ġpre v
Ġe l
g er
Ġc r
Ġth ough
u c
Ġma j
ist s
Ġwe e
i am
Ġpe ople
u red
st em
Ġy ou
ial ly
u p
Ġin s
Ġg re
ut ion
Ġan n
Ġcl ass
Ġcol le
ment s
Ġmill ion
os ed
Ġj ust
i um
Ġc our
Ġe ver
Ġsy stem
ce pt
Ġbrit ish
ul l
Ġg e
Ã ©
Ġs ince
Ġhe ad
Ġl a
Ġ1 3
Ġs ix
n er
Ġad v
Ġb est
Ġa ut
Ġa round
Ġa ug
ar k
Ġa ward
Ġmaj or
Ġl ife
Ġc or
Ġ $
Ġ if
Ġj u
Ġe ach
Ġsu ccess
ain s
Ġb re
Ġatt ack
Ġse pt
an y
x t
g est
a h
Ġv ar
Ġcharac ter
o ot
Ġu se
Ġa v
Ġsept ember
Ġdesc rib
Ġaug ust
Ġst art
am ed
Ġcon f
r ap
g et
ib le
Ġs ame
Ġro ad
Ġt ri
Ġhe l
on t
i k
Ġe ast
ac ed
Ġfin al
Ġl ine
Ġsupp ort
Ġo cc
Ġo ct
Ġan other
r is
Ġde m
Ġf ive
Ġc are
Ġpubl ic
ain ing
Ġ1 4
Ġp rom
Ġs w
Ġk m
Ġt y
Ġg reat
Ġbu ild
Ġl it
Ġr a
Ġo ld
Ġcon c
el s
Ġaust ral
av ing
Ġ19 5
Ġex t
Ġm y
Ġg l
Ġto ok
Ġc amp
Ġb and
Ġger man
u es
en n
Ġbo ok
Ġare a
Ġm id
Ġh ouse
Ġsm all
o b
ov e
an n
Ġrep ort
Ġ19 3
e p
Ġcons id
Ġcent ury
o ber
Ġt urn
p ed
Ġrece ived
us s
Ġoct ober
Ġcont ro
et s
ant s
iv es
b le
Ġst re
Ġun ivers
ical ly
Ġs k
h ing
Ġ19 1
Ġwh at
Ġd ue
Ġg ames
Ġpart ic
Ġsh ort
Ġl ast
Ġgovern ment
Ġdire ct
il ity
Ġre f
Ġh al
Ġre st
Ġmar ch
at ely
in a
en e
c ess
Ġcomm and
Ġle g
Ġ es
Ġpers on
Ġh ome
g in
Ġ ]
Ġ [
ian s
ore d
Ġj an
in k
Ġw ay
Ġjun e
t le
Ġm ag
r il
Ġsing le
Ġth ird
Ġmar k
Ġgener al
o ver
Ġm en
im e
Ġs qu
Ġt it
iss ion
Ġju ly
Ġch ild
Ġ %
Ġcap t
iv ing
pe ct
Ġnov ember
ur ch
Ġtr ack
Ġde ath
Ġd el
Ġrev iew
as h
Ġm uch
Ġev ent
Ġis land
ra ft
Ġar r
Ġy ork
Ġap ril
u ro
Ġf ur
Ġd am
Ġto p
Ġlar ge
u ary
Ġbatt le
c he
Ġacc ord
Ġp ower
l ish
Ġver s
Ġev en
Ġle ft
Ġde ce
Ġto wn
Ġs oc
ur al
ction s
Ġc ast
ion al
. .
Ġc he
Ġv ide
i ent
Ġall ow
iv ely
Ġinter n
Ġg un
Ġdif fer
Ġmon th
Ġ3 0
id ge
Ġst ar
il t
Ġk ill
Ġp at
Ġst ory
b o
Ġapp ro
Ġv is
a im
m s
Ġfam ily
Ġb ased
Ġpl ace
ag ue
Ġc ur
Ġadd ition
Ġn ow
m ber
Ġv ict
m in
v en
Ġinc re
Ġc al
al es
Ġpar k
Ġex pl
Ġbl ack
if ied
Ġan t
Ġr ight
Ġ. ..
Ġl aw
Ġcomp any
Ġarm y
av y
em pt
ro te
Ġdece mber
Ġhist ory
en g
Ġcl ub
Ġplay ed
Ġ2 5
Ġm or
Ġst orm
b y
Ġaccord ing
Ġp ost
l ing
Ġinclud ed
Ġr iver
p s
Ġn ame
at s
Ġl os
Ġjan uary
Ġw ater
Ġl ed
Ġre d
Ġ19 2
Ġ ir
r ist
og rap
om et
ber t
Ġh and
ag ed
Ġw ind
b all
on y
ap an
Ġw om
Ġw rote
in c
Ġi i
Ġw on
Ġan g
Ġh um
ent ly
er g
Ġres p
Ġj apan
Ġtim es
ag es
Ġst ru
Ġor gan
Ġo pp
Ġv al
i ence
Ġre qu
Ġprev ious
it al
Ġpos ition
Ġwith in
p ort
Ġappe ar
od y
Ġm ake
m ed
Ġdescrib ed
Ġin it
Ġr ad
Ġth ose
Ġe uro
Ġde b
Ġst ill
Ġf ore
Ġch amp
Ġvide o
Ġb ill
Ġf ar
id es
Ġne xt
ot t
Ġl ate
Ġm emb
Ġst and
Ġn amed
om in
ne y
Ġbel ie
Ġb us
Ġam ong
Ġorigin al
Ġrele ase
Ġatt empt
Ġeff ect
p or
Ġfur ther
iv en
Ġre pl
Ġl ist
st er
il ar
Ġle ague
Ġfor ce
Ġver y
Ġd est
Ġte le
Ġpos s
c y
Ġf oot
Ġ x
Ġv iew
Ġis s
is ter
Ġb as
m er
Ġro ute
i od
Ġ rom
Ġre al
a ff
b ru
ent ion
Ġc y
re t
Ġ1 00
Ġcomm un
Ġprodu ction
Ġex per
Ġspec ies
er v
ren ch
n ess
i or
pt ion
Ġmemb ers
ac hed
iv al
Ġconst ru
Ġs ound
Ġpol it
pe nd
Ġwh ite
Ġmil it
Ġform er
Ġch rist
Ġto ur
Ġc oun
Ġf le
Ġfe bru
Ġfebru ary
Ġsim ilar
Ġinf l
ar ch
Ġt ak
Ġ er
an ces
Ġn ort
Ġs old
Ġper iod
ri end
Ġp a
b r
Ġdiv ision
Ġday s
Ġbu ilt
Ġmat ch
Ġpl an
Ġt em
en ces
Ġs ide
Ġn at
c hed
Ġro y
ver s
Ġsu per
Ġpro p
Ġhe ld
Ġeuro pe
p le
Ġy oun
Ġunivers ity
Ġro ck
Ġl ight
Ġf rench
Ġgo od
Ġpo int
Ġc le
ri ed
he n
Ġ201 0
Ġserv ice
Ġs ay
h or
Ġpres ident
Ġloc al
Ġro le
Ġest ab
Ġdes p
Ġm o
au gh
ut ed
ward s
Ġpres ent
Ġe qu
tend ed
Ġor der
Ġ2 1
Ġf re
e c
Ġd et
Ġc ame
rop ical
Ġever y
Ġto t
h y
Ġne ver
Ġc aus
Ġs ol
Ġbe h
h am
Ġh aving
Ġwill iam
Ġwee k
s elf
Ġc ross
oc i
Ġe as
Ġres ult
en se
Ġfe w
Ġs um
f ord
Ġ Â
Ġsu g
ul ation
Ġj e
Ġt ro
Ġt est
Ġass oci
Ġpro f
Ġplay er
Ġch art
s h
Ġse e
a x
Ġt ake
ap p
Ġ200 8
Ġof ten
Ġcomm on
ic es
Ġst at
ard s
Ġhal f
Ġh ur
Ġcare er
Ġ200 9
Ġ2 4
l er
m e
Ġcontin ued
Ġge or
Ġw at
Ġte ch
Ġl ow
ot s
Ġf ire
Ġp ri
Ġcl aim
Ġst y
Ġhist or
c raft
r ing
Ġ201 1
Ġle vel
Ġs ent
Ġm ich
at or
Ġdiffer ent
Ġwith out
Ġp ress
Ġf un
b s
Ġele ct
es tern
es e
Ġdesp ite
at ic
Ġco ver
Ġeng land
Ġ &
olog y
gr am
Ġl ess
Ġm er
Ġcour t
Ġt en
Ġpart y
re ad
a f
Ġconsid ered
Ġcont r
Ġ2 2
op s
Ġe c
g ress
Ġd av
Ġdevelop ment
as ter
le t
Ġch urch
Ġ200 7
Ġar ch
Ġrep res
p ar
Ġl y
Ġt re
Ġn ight
Ġcount ry
v es
Ġcount y
Ġcom b
Ġinfl u
Ġchamp ions
Ġf ield
Ġroy al
Ġsong s
Ġf riend
Ġh y
Ġvers ion
Ġeng lish
Ġmilit ary
Ġmov ed
Ġhigh way
Ġh ig
Ġd on
Ġwrit ten
Ġtr ad
Ġw ant
Ġstr ong
on es
Ġdef e
ro du
c o
v ision
Ġcon v
Ġpro gram
Ġv ol
Ġ201 2
Ġpro te
Ġbec ome
Ġfor ces
Ġl im
Ġm i
Ġan im
Ġlit tle
Ġch ang
al k
s ide
Ġf act
Ġl ost
Ġpro ject
ert ain
c hes
iz e
Ġl ond
Ġintern ational
l ine
Ġbuild ing
Ġ2 3
Ġs on
Ġg iven
Ġm iss
ur s
Ġt ropical
Ġcontro l
Ġlond on
Ġtot al
Ġinv ol
Ġaf f
Ġaut hor
Ġsug gest
el t
Ġor d
Ġre fer
Ġh it
Ġb ur
is on
ut es
Ġph il
Ġ19 0
Ġann oun
Ġv ir
he l
b e
g ed
at ter
Ġl et
Ġl ab
Ġh our
Ġre ad
Ġstre et
al d
Ġimp ort
Ġf ree
im ent
en ed
Ġde cl
iet y
er y
Ġg et
Ġcan ad
Ġh o
Ġe ight
ro y
a i
se qu
Ġv e
Ġv i
Ġr ail
Ġperform ance
qu e
Ġg old
il le
Ġs al
Ġs it
Ġst ation
Ġg ave
Ġear l
Ġw ent
er ing
Ġfin d
Ġrepres ent
ren t
Ġc ir
a e
Ġreturn ed
Ġs omet
ail ed
Ġus ing
Ġbro ad
Ġj ack
Ġne ed
Ġf ather
Ġpubl ished
Ġco ast
Ġprodu ced
Ġhe n
Ġw estern
Ġcomp et
Ġar g
Ġnew s
Ġreport ed
Ġob s
e ad
x im
Ġm ass
Ġh un
Ġpop ular
ab ly
Ġpartic ular
Ġrecord ed
Ġchild ren
a pe
Ġtele vision
Ġind e
Ġ200 6
Ġd u
or ies
Ġst ated
Ġair craft
a ign
Ġspec ial
Ġc ult
am a
Ġship s
Ġinter est
ition s
Ġg round
Ġcamp aign
Ġsh ould
Ġinclud e
Ġl ive
Ġl ove
Ġm aking
Ġ ide
Ġde v
us ed
Ġd ou
d ay
Ġcrit ic
om b
y l
Ġa ge
m it
Ġv o
ie f
Ġfr ont
Ġwom en
um ent
Ġhur ric
Ġcent ral
Ġ2 7
Ġcol l
are n
Ġc op
Ġthrough out
Ġpr im
in ts
Ġup on
Ġ5 0
Ġ2 8
Ġyoun g
Ġon ce
os p
in ess
pl oy
ra w
Ġh om
Ġsu ff
on om
Ġhim self
Ġoffic ial
Ġaustral ia
Ġ201 3
Ġchampions hip
Ġdest roy
Ġtech n
Ġa ud
y ing
Ġdep art
Ġm ot
Ġf ac
Ġr ich
Ġw all
Ġs en
Ġcharac ters
n ed
Ġn on
Ġsou ther
c er
Ġv ill
Ġb all
ens ive
Ġtr av
re st
Ġ4 0
re w
Ġc as
pl ay
al th
Ġh or
Ġf av
Ġse a
Ġplay ers
Ġsqu ad
Ġrel ations
it ive
Ġf t
Ġ2 6
Ġp ra
Ġc am
Ġcir c
Ġinst ead
ed er
Ġt ur
Ġf all
Ġcomm it
Ġsouther n
it her
Ġb ase
Ġtit le
Ġse ven
ak es
Ġj ames
Ġwrit ing
l o
Ġa way
Ġ18 9
Ġc ost
g es
Ġm ad
ac y
Ġbe gin
Ġac ross
Ġf em
Ġint rodu
Ġd ied
Ġrem ained
c om
Ġmonth s
Ġcent er
Ġfor t
Ġsign ific
Ġdevelop ed
Ġc e
Ġgr and
Ġprom ot
d om
Ġf ull
Ġh all
Ġpolit ical
Ġlo ok
Ġm ount
Ġvar ious
ri es
Ġman ag
Ġf if
Ġmod ern
Ġhurric ane
Ġw ood
u ck
Ġr ace
Ġto o
r ation
Ġm c
Ġp ut
Ġa ver
en cy
Ġh ill
f ic
Ġh ol
Ġn et
Ġh am
Ġ ill
Ġc at
Ġf ight
Ġcon d
Ġh on
Ġoff ice
her n
ist ed
Ġb ig
Ġp al
in ted
Ġh ard
Ġb ow
m ost
a el
Ġwor ks
Ġf elt
e f
Ġare as
Ġs il
Ġnot ed
k ed
Ġind ust
ort s
Ġameric a
Ġp it
Ġevent ually
Ġr uss
Ġsty le
er c
Ġannoun ced
Ġcre ated
Ġmil es
Ġre ached
Ġbro ther
Ġcolle ge
Ġdisc over
Ġh ot
Ġd i
Ġc ro
Ġconstru ction
Ġjapan ese
Ġst ri
Ġeng ine
m ing
Ġs an
Ġsu n
Ġsuccess ful
Ġnort hern
Ġh old
Ġ200 5
Ġm al
Ġb ody
Ġse en
Ġp ain
Ġse le
Ġhe avy
Ġstru ct
is ing
c ast
Ġc ut
ĠâĢ Ļ
Ġag re
Ġfollow ed
Ġ2 9
Ġr ange
get her
Ġto gether
Ġsy m
f ield
Ġme et
Ġpro t
Ġpro cess
Ġm em
Ġperform ed
Ġc iv
iz ation
it ing
Ġbro wn
Ġser ved
Ġhel p
Ġm ember
Ġact iv
w ork
Ġ201 4
Ġbr idge
Ġkn ow
al ity
Ġgeor ge
Ġm ix
Ġfoot ball
Ġt or
Ġes c
Ġkill ed
Ġm ur
Ġsignific ant
Ġg od
an a
id ence
Ġprof ess
id s
Ġab le
Ġtak en
Ġs aw
c ent
ol ution
Ġestab l
Ġm m
at ure
Ġ ident
Ġimp ro
ric t
ell ing
Ġs at
z e
Ġbec om
Ġa ction
Ġro und
Ġqu e
Ġpo ints
Ġhum an
Ġb orn
Ġdo es
Ġthough t
os s
Ġestabl ished
Ġme an
Ġorigin ally
Ġinv est
i us
b or
Ġth om
d s
Ġaustral ian
Ġg ar
Ġsub sequ
Ġg row
av al
Ġen c
ent h
Ġother s
Ġst age
am ent
en ced
Ġb ri
ir l
Ġent ire
Ġappe ared
ress ion
ar a
Ġ !
Ġs n
Ġdav id
Ġloc ated
Ġdirect or
c il
Ġsur v
Ġre du
Ġfeat ures
ct or
Ġd en
r ay
et t
Ġv oc
o x
Ġcre w
o on
i ers
Ġcomm ission
g round
Ġbus iness
Ġstart ed
ric k
Ġplay ing
Ġaf ric
Ġp ot
b ur
av es
Ġm other
od es
l ess
Ġcaus ed
ough t
Ġdec ided
Ġciv il
Ġcrit ics
y n
ress ed
ri pt
Ġking dom
Ġfe et
Ġ ur
Ġr ather
Ġr ank
at ors
s hip
Ġfour th
Ġm ater
Ġf ell
Ġp en
Ġre b
Ġre se
Ġin form
Ġec onom
d en
Ġbeh ind
Ġinde pend
Ġform ed
Ġs ite
og n
Ġmag az
Ġadd ed
Ã ¡
Ġfle et
Ġimport ant
Ġc ase
Ġb i
m a
Ġ18 8
Ġso on
g g
Ġp red
amp le
ree k
Ġcom ment
iv id
ate g
Ġj ud
Ġm art
w ood
rough t
Ġ3 1
Ġeas tern
c ing
Ġdam age
Ġit al
Ġed uc
Ġpop ulation
Ġcomple ted
Ġgre en
ad es
Ġgun s
Ġm ult
Ġal most
Ġs am
Ġne g
Ġse x
he ad
d le
Ġpe ak
Ġr u
ac es
Ġex ec
Ġcl ose
Ġc up
in ation
Ġto m
Ġinter v
Ġl ang
em y
Ġind ian
Ġj our
at a
Ġinit ially
Ġaward s
Ġreg ion
Ġlos s
Ġin j
Ġt reat
l in
one y
way s
Ġocc ur
Ġ200 4
it ar
Ġopen ed
Ġl ack
Ġc reat
Ġsoc ial
Ġh ost
g o
ap s
Ġpr act
Ġmich ael
Ġpro ble
Ġsc re
Ġg irl
Ġrelations hip
Ġ18 6
Ġind ivid
Ġp ur
ce ed
Ġf a
Ġre n
Ġf und
t o
Ġu l
Ġl ou
em ents
Ġs us
Ġlead ing
Ġty p
c her
Ġwee ks
Ġtrad ition
h ic
Ġ201 5
Ġwork ing
Ġrad io
Ġb ay
Ġse par
in o
Ġcl os
Ġwork ed
Ġfr ance
Ġdif fic
Ġcur rent
Ġdiffic ult
Ġs our
Ġn ar
Ġpre m
Ġrecord ing
Ġsec ret
ul a
Ġto wards
Ġacc om
Ġa le
Ġro om
Ġcon n
med i
Ġapp o
Ġb omb
Ġm el
k i
Ġb al
Ġm ac
Ġcoun cil
Ġla un
Ġun ion
Ġsc ene
Ġr ain
um b
ris on
ist ic
im es
Ġr ap
Ġgo al
Ġw id
ic a
as ing
Ġres pect
Ġrep ubl
Ġres ul
Ġhen ry
ign ed
Ġqu ick
an ch
Ġn orm
Ġre ve
Ġro bert
Ġbre ak
k y
Ġmater ial
Ġn avy
Ġrecord s
Ġac cept
et h
Ġv ot
Ġtr aining
Ġwas hing
Ġle ast
Ġsc ored
Ġ200 0
pe c
Ġprov ided
Ġre ach
Ġwant ed
Ġm ust
Ġe y
Ġf ig
Ġtro ops
Ġb rought
Ġaver age
he st
Ġbr ig
Ġd ut
Ġsp ace
Ġrec ogn
bo ard
Ġfeat ured
Ġear th
id ing
olog ical
ow s
Ġc ru
Ġ5 00
os ition
Ġcol on
Ġe ither
Ġn omin
Ġqu ar
Ġ18 7
Ġpro per
Ġf oc
Ġallow ed
Ġang el
Ġro b
ect ed
Ġp ast
Ġest im
Ġf ut
Ġt ar
Ġf eder
Ġw ife
am s
Ġvict ory
Ġstud io
Ġpl aced
Ġgener ally
Ġav ail
Ġwashing ton
Ġin n
Ġr ul
if f
a ut
Ġch o
Ġpr iv
Ġcy cl
he re
ic o
Ġa ch
Ġrun s
Ġph ys
Ġex ample
Ġd ark
a ur
Ġev ents
Ġmagaz ine
Ġch ief
Ġbatt al
m p
Ġd er
Ġrepubl ic
Ġl eng
Ġbo ard
Ġsum mer
ant ic
v ille
Ġins p
Ġpa ul
Ġst aff
Ġc red
Ġ200 3
Ġpartic ip
ent ial
Ġw il
Ġd ro
Ġjo ined
Ġdesign ed
Ġsquad ron
Ġun c
Ġgr ad
u el
Ġsur f
Ġhour s
Ġreg ular
Ġsp an
Ġp ie
i ke
Ġmid dle
Ġem ploy
Ġd an
Ġqu est
Ġspe ed
Ġn ine
Ġsh ot
Ġoper ation
Ġcon du
v ing
Ġth reat
Ġopen ing
ell s
Ġmed ia
k a
Ġbelie ved
Ġrel ig
ud e
m en
Ġ3 5
Ġsc ore
Ġreg ard
Ġcom e
Ġc ou
an ks
Ġwind s
Ġo x
Ġb ir
t im
Ġm ary
Ġfl ight
Ġtrans port
ap er
Ġrepl aced
u gh
Ġm ph
h an
Ġpri or
Ġst one
Ġsc en
ict ion
Ġinf ant
Ġp ay
Ġb en
Ġb er
im in
Ġde ter
or ing
Ġem p
Ġse qu
Ġcapt ain
Ġpol ice
Ġinvol ved
Ġst op
Ġeurope an
ific ation
Ġlang u
Ġmin utes
er ous
Ġearl ier
f all
w est
Ġfin ished
Ġrese arch
Ġsoc iety
as ion
al ed
Ġh op
h a
Ġcont rib
ut ive
Ġleng th
Ġposs ible
Ġsay ing
Ġind ic
o ff
Ġrom an
ag o
l ic
Ġim medi
Ġcomm erc
Ġch ange
Ġn y
re g
Ġp il
Ġt rib
Ġassoci ation
Ġke ep
Ġad min
Ġrem ov
Ġlar gest
Ġat l
Ġhig hest
Ġparticular ly
Ġl ower
Ġbo y
Ġfilm s
Ġbegin ning
Ġb ad
Ġf ly
Ġsc ott
Ġex ist
Ġke y
Ġad m
Ġavail able
ish ing
Ġresp ons
Ġper cent
Ġpl at
Ġvir gin
Ġfor ced
pe cted
Ġse ction
Ġass ist
Ġ200 1
Ġbet ter
w er
Ġwe ak
Ġach ie
Ġdis p
Ġu k
h ib
Ġout side
Ġde al
ann ed
Ġt aking
Ġant i
Ġle ar
m ar
Ġme as
Ġchar les
Ġcommit te
ar ing
Ġhe art
ograp hy
Ġgr ant
Ġnov el
Ġthom as
ĠÂ °
Ġmain t
Ġturn ed
Ġincre ased
Ġend ed
ip p
Ġre ason
Ġun its
o f
em s
id a
Ġfe el
ok e
Ġcommun ity
Ġreview s
Ġcal if
s el
as es
Ġac ad
Ġn in
Ġfut ure
Ġpass ed
Ġpra ised
op h
Ġcalif orn
he ast
Ġmov e
Ġh ous
Ġgo ing
Ġbe at
Ġp an
Ġ200 2
Ġab ove
Ġm cc
Ġaddition al
Ġte x
Ġappear ance
i ation
ke y
Ġph ot
Ġth us
Ġgu itar
f or
s u
Ġb ird
act ion
i os
Ġty pe
ad ed
Ġcanad a
it or
Ġp s
st r
Ġli k
Ġen ough
Ġlit er
Ġcast le
Ġinfant ry
ers hip
Ġord ered
Ġl ake
Ġsm ith
Ġpl ot
Ġd augh
Ġprevious ly
Ġp un
Ġl at
t r
Ġperson al
oc r
Ġsign ed
Ġmus ical
e y
Ġmin or
n al
Ġd oc
Ġter rit
Ġrich ard
t t
st on
Ġale x
Ġele ments
Ġinst it
Ġright s
Ġmark et
ar ily
Ġd ig
Ġp ac
Ġthe at
Ġvi ol
Ġcaliforn ia
Ġab s
us h
pp ed
Ġpos itive
ag on
m y
Ġpro b
Ġcrit ical
Ġde ad
fer ence
Ġpart s
Ġh a
Ġacc ess
Ġf ood
Ġl ord
Ġback ground
Ġg ive
ers on
Ġl ines
pp er
g en
Ġb at
Ġtrav el
Ġp ow
Ġm oney
Ġfem ale
s en
Ġsp ent
Ġbe g
Ġover all
Ġto ld
it z
Ġpr inc
ct s
Ġsub ject
i que
il ities
cl us
Ġsc ient
Ġt ax
Ġm ic
Ġdire cted
Ġfl ood
u ation
Ġbl ue
b ack
Ġcommitte e
u ter
Ġvict or
ell ed
Ġinterv iew
Ġf ailed
Ġde ep
Ġ199 0
Ġp et
Ġ6 0
n el
Ġd omin
Ġch ap
Ġc orn
Ġsqu are
Ġrequ ired
Ġpo or
Ġdeb ut
Ġgroup s
ren g
m on
Ġ4 5
Ġm ach
Ġgerman y
g a
Ġcle ar
Ġh app
Ġk il
Ġbroad cast
Ġob ject
b ers
s c
n es
Ġter m
Ġ Ã
Ġdist rict
Ġconst it
Ġpe ter
Ġro ll
en ing
Ġex c
Ġen v
Ġan al
Ġits elf
Ġhe alth
um e
Ġind ia
Ġchrist ian
Ġbattal ion
Ġev idence
Ġsomet imes
Ġw al
Ġste p
is l
Ġfr ank
ib ility
Ġpr ison
Ġb ank
ber g
Ġocc up
Ġrece ption
Ġcontr act
Ġ18 5
Ġele ction
Ġinvest ig
Ġcommerc ial
Ġas ked
Ġst ars
Ġtrans fer
Ġex cept
ĠÂ £
Ġ ?
read y
Ġl u
Ġdef end
st and
er ved
Ġpar l
i i
Ġz e
Ġst reng
ab ility
Ġl iving
Ġadmin ist
Ġo ur
ay s
Ġs ov
Ġwh ose
Ġme x
ed y
ak er
ap t
g ar
on se
Ġnat ural
Ġstud y
air s
Ġcomple te
Ġal ready
Ġclaim ed
on na
Ġgovern or
Ġappro xim
Ġcl im
re am
Ġch ic
Ġbe y
Ġsov iet
Ġfl or
Ġintrodu ced
Ġfre qu
ig an
Ġwh om
Ġfore st
Ġmin ister
Ġth ink
Ġus ually
Ġam b
Ġb urn
Ġwom an
Ġmus e
Ġstud ents
en ue
w or
Ġeduc ation
Ġquick ly
ac ted
Ġide a
b c
Ġlim ited
Ġb ud
Ġw ild
Ġb ul
Ġr h
Ġfr anc
Ġan c
Ġm ight
Ġgu ard
Ġeffect s
Ġmov ement
Ġconc ern
Ġ3 2
Ġresp onse
Ġprev ent
Ġl ib
Ġsy n
Ġiss ue
Ġc ertain
Ġcommand er
Ġcent re
Ġsl ow
Ġg ro
Ġque en
at ory
Ġ197 0
Ġpl ant
Ġsurf ace
Ġpol ic
Ġy our
Ġs elf
Ġl ay
Ġt un
Ġdepart ment
ain t
Ġfif th
Ġarr ived
Ġes pec
b our
Ġ198 0
Ġs and
Ġh osp
Ġbrit ain
Ġf ace
Ġespec ially
Ġdec ision
Ġserv ices
p r
se c
erg y
Ġf er
Ġoper ations
Ġvill age
Ġteam s
Ġvo ice
Ġl ie
Ġparl iam
t ies
Ġstruct ure
Ġbo x
Ġshow s
Ġr ac
Ġr an
um p
Ġg ard
and ed
Ġcon gress
Ġmuse um
Ġindust ry
Ġw alk
Ġlar ger
b a
Ġf est
Ġwrit er
Ġsc ience
Ġly ric
Ġbecom ing
Ġrem aining
Ġestim ated
Ġl atter
Ġepis odes
Ġrem ain
Ġdefe ated
Ġ -
Ġcar ried
f l
Ġhe av
Ġparliam ent
Ġg ot
is es
Ġmult ip
w h
Ġul tim
Ġd raw
Ġnet work
Ġdisc uss
ar ies
o or
p re
Ġo l
Ġpress ure
Ġbl ood
Ġ199 9
Ġpro gress
Ġsur round
Ġfl ag
ul ly
ir on
Ġscen es
Ġc m
Ġconsid er
Ġbri ef
it es
d e
Ġle aving
Ġrun ning
Ġchang es
ul f
Ġac qu
Ġvirgin ia
Ġc and
Ġje w
Ġcomple t
Ġm as
ess ion
Ġ3 6
Ġn aval
por ary
Ġd om
r or
Ġsuggest ed
ou th
Ġent ered
Ġnear ly
v al
Ġ8 0
Ġdep ression
or ial
in ing
Ġquar ter
Ġappo inted
Ġwin ning
Ġinflu ence
Ġd ate
Ġapproxim ately
if t
Ġf ail
Ġch all
Ġtw ent
Ġs ize
Ġro s
Ġem b
Ġcap ital
Ġlead er
Ġlangu age
Ġf ant
er ve
Ġshort ly
Ġisland s
Ġreg iment
Ġestab lish
Ġemp ire
Ġsc ript
Ġfeder al
Ġfav or
Ġmet h
Ġequ ip
Ġcour se
Ġscre en
Ġto day
Ġth r
t a
Ġjack son
Ġfin ally
an ia
Ġb ra
ch ange
Ġu pper
Ġw ide
and er
Ġtrack s
Ġun l
Ġm ission
Ġcan n
Ġo ly
Ġlou is
Ġdestroy ed
Ġprop osed
Ġdaugh ter
Ġp urch
ul ated
Ġhig her
Ġoly mp
Ġw ing
Ġprodu cer
Ġmanag er
bur g
Ġarr ang
Ġspan ish
k ing
Ġcor ps
ab or
Ġl ad
Ġexper ience
Ġnat ure
Ġv an
Ġdist rib
Ġ7 5
Ġc er
Ġenv iron
Ġprinc ip
Ġhor se
Ġprov ide
Ġsubsequ ently
Ġbrig ade
Ġbatt les
id ents
Ġrail way
Ġprofess ional
i res
Ġal tern
mit ted
Ġdis s
ens ion
Ġcomp ared
Ġbre ed
is er
o id
Ġp aren
Ġcomple x
Ġcon cept
Ġhe ro
Ġin tended
Ġem erg
Ġimmedi ately
Ġmar ried
Ġdem ocr
ines e
Ġa w
Ġ196 0
Ġpriv ate
Ġ18 4
Ġf ans
Ġsa f
Ġce le
Ġtem per
Ġjour nal
Ġ3 00
Ġp ict
Ġsupport ed
Ã Ń
n s
Ġagre ed
Ġst ay
Ġsp ir
Ġent ertain
Ġsh oot
Ġint ens
all ed
Ġcomp an
Ġb ord
Ġd one
Ġm r
Ġed ward
Ġarch it
Ġmod el
Ġfeat ure
Ġincre asing
Ġinit ial
g y
Ġaward ed
Ġli ber
Ġg i
ri a
Ġwe ap
Ġdis play
Ġchic ago
Ġb or
Ġarchit ect
Ġch inese
Ġwhe ther
Ġhel ped
Ġrel ated
Ġleg isl
Ġpl anned
Ġc ard
d own
Ġbook s
Ġoffic er
Ġim m
ch ing
Ġ199 8
ap h
Ġsold iers
Ġm om
Ġcre ate
Ġbr ing
Ġlong er
Ġtr ade
Ã ¶
Ġart ic
u k
he m
Ġf air
Ġmon t
Ġhe re
Ġw it
at ively
Ġatt r
Ġp le
ore s
Ġc ause
Ġk ore
th ing
Ġg al
Ġcapt ured
te en
Ġval ley
Ġpl ans
Ġy et
Ġir on
Ġbuild ings
Ġcons erv
Ġcol or
om m
b an
n y
Ġun it
Ġfor ward
Ġbl ock
in ct
Ġchang ed
Ġcon clud
Ġ q
Ġwin ter
Ġwith d
Ġp enn
Ġco ach
as y
Ġassoci ated
Ġsub st
Ġfriend s
Ġd ance
che ster
Ġsomet hing
Ġoffic ers
Ġinst r
Ġsp ring
i en
Ġrem ains
Ġmost ly
sel ves
Ġpac ific
Ġsing les
Ġ3 3
Ġbill board
Ġse v
ab it
Ġjohn son
Ġthem selves
Ġstand ard
Ġr at
Ġ7 0
ron ic
Ġtar get
Ġcount ries
Ġlyric s
om s
Ġex am
Ġmix ed
Ġprob ably
k en
ri age
Ġre ally
Ġmeth od
h l
Ġex tended
w ell
Ġr ay
Ġmov ing
Ġp u
Ġnum erous
Ġfin anc
Ġf it
Ġat tend
Ã ¼
en a
Ġinform ation
Ġport ray
Ġcont em
le g
Ġcop ies
Ġal ways
Ġrequ est
Ġn ation
Ġvis it
Ġsc ot
Ġloc ation
Ġgo als
Ġc a
Ġo ce
is ions
Ġr id
Ġindivid ual
Ġbir th
Ġs ales
Ġc it
Ġfoc us
Ġ199 7
r ated
r d
Ġiss ued
Ġcoun ter
Ġstat us
Ġm ess
Ġle ave
Ġen ergy
Ġatl antic
Ġinclud es
Ġart ist
and on
ol ic
il i
Ġt as
Ġcon ference
Ġ3 7
Ġsuff ered
Ġj im
Ġm ale
c an
Ġsing er
Ġv ia
Ġadm ir
Ġtr aff
Ġhosp ital
Ġt al
Ġimp act
and s
Ġflor ida
Ġmart in
Ġed ition
Ġproble ms
Ġalbum s
Ġb ene
Ġma xim
Ġmeet ing
Ġter min
h ood
Ġdou ble
Ġg all
Ġlik ely
Ġch ina
Ġincre ase
Ġcar ry
Ġass emb
Ġremov ed
Ġappro ach
Ġindepend ent
b ury
Ġcele br
Ġmov ie
Ġb ond
b ed
Ġd og
Ġtex as
Ġrev olution
p an
Ġinsp ired
Ġfore ign
at ives
ch an
Ġr ang
Ġref le
o le
Ġm aster
Ġter ms
Ġprim ary
Ġc reek
Ġd v
Ġmajor ity
land s
Ġs ir
Ġcomp os
Ġk ind
Ġa st
Ġoff ered
Ġw a
Ġ ice
Ġinter se
Ġcons ist
Ġtak es
Ġqu al
Ġmin ute
v in
Ġve hic
ograp h
Ġt ons
is c
ve y
Ġst ad
ail y
Ġen s
Ġdr um
ous ly
Ġad op
it er
Ġattack s
oun ted
Ġs ar
Ġu t
Ġf ox
Ġentertain ment
Ġm akes
Ġconf ir
Ġ ign
Ġwor d
Ġcomp osed
Ġdam aged
Ġo il
Ġcomb at
Ġra ised
Ġ18 3
Ġcanad ian
Ġrank ed
Ġenviron ment
ound s
Ġafric a
et ic
Ġpre c
Ġconc ert
Ġl og
ic ted
Ġcar ol
Ã ³
ac hes
Ġcycl one
Ġsh ar
Ġw rest
he t
Ġd aily
Ġlet ter
Ġu nd
Ġappe ars
Ġfight ing
Ġsele cted
Ġmount ain
l ight
Ġreve aled
Ġdiscover ed
Ġc ateg
o o
Ġsim p
Ġtr ain
Ġmet al
Ġact ive
Ġdeter m
Ġruss ian
Ġer a
Ġde g
if y
Ġ9 0
uc le
Ġmor ning
ail s
Ġins ide
Ġsp orts
Ġcond itions
un g
Ġtwent y
Ġk ent
al and
Ġdem on
Ġun able
Ġsch ol
Ġlaun ched
ar i
ur ies
Ġgre ater
er a
um ed
Ġrespect ively
st e
Ġw r
Ġv en
Ġt v
Ġsc hed
Ġwho le
Ġ199 5
Ġnum bers
Ġiss ues
Ġneed ed
Ġs ister
Ġsmall er
Ġbel ow
Ġangel es
Ġo s
Ġinc or
e e
Ġth ir
Ġl ived
Ġconn ect
ad o
Ġadv ance
Ġto uch
Ġcont ains
Ġ3 4
ut h
Ġy ard
Ġattempt ed
Ġsl ight
Ġattack ed
Ġtradition al
l or
Ġy ards
Ġsh own
ri ption
z z
Ġb ed
Ġst ra
Ġcult ure
Ġoccur red
Ġnews p
Ġrelig ious
um ents
a j
Ġp ick
Ġc art
u als
us e
Ġn ick
Ġii i
Ġ3 8
Ġsil ver
ag ing
Ġre in
i est
Ġdefe at
Ġr ing
Ġc ab
Ġto urn
ort un
j oy
Ġrec over
Ġact or
Ġann ual
Ġlar g
an ced
e ch
Ġr are
Ġele cted
Ġfest ival
Ġ iv
Ġ201 6
Ġpe ace
Ġrefer red
Ġ199 6
augh t
Ġ195 0
Ġconst ant
ne w
Ġre form
Ġb on
iz ing
u ing
ct ing
Ġfranc is
Ġm ind
Ġne igh
Ġd ra
ri al
ur ity
am b
Ġb ab
ol k
ver t
Ġj ose
Ġaud ience
Ġschool s
Ġthem e
Ġs av
Ġresul ted
Ġlarg ely
Ġps y
ri an
Ġass igned
Ġmag n
Ġcover ed
Ġpr ince
as c
Ġr is
Ġoce an
en ant
Ġat h
Ġd ar
Ġf ast
Ġd un
Ġexp ress
Ġl ink
Ġital ian
Ġvar iety
Ġlist ed
Ġcolle ction
Ġpur p
u ated
Ġb an
Ġ199 4
Ġgu est
Ġgl ob
Ġcompet ition
h old
y a
Ġc ath
Ġn ames
Ġas h
m i
Ġear ned
Ġstad ium
Ġcontro vers
Ġex pected
l s
Ġcomment ed
Ġh aw
ter ed
Ġs out
it ude
Ġstart ing
Ġrap id
Ġcl osed
ã ĥ
qu ar
Ġperform ances
Ġatt ention
Ġn ucle
Ġdoc ument
Ġquest ion
Ġim per
Ġent er
Ġair port
Ġg iving
Ġmich igan
ent al
Ġleg al
Ġacc ount
Ġref used
Ġv iet
Ġext re
Ġm ir
Ġeconom ic
Ġf igh
Ġk ar
Ġre pe
Ġc row
Ġch am
i j
Ġc ust
oun ts
Ġcomp l
Ġgreat est
Ġwat ers
Ġset t
ap ed
Ġen joy
pl es
Ġelect ric
Ġto wer
Ġw ales
ut ions
Ġab ility
Ġser ious
Ġdire ction
nd ing
Ġst ories
Ġnot es
Ġn ative
Ġd ie
Ġh und
Ġprom in
Ġ194 0
Ġdecl ared
Ġr ate
Ġm un
Ġme ant
Ġmat ches
Ġst an
Ġvoc als
br idge
Ġth ings
Ġo d
Ġp oll
pt ed
Ġsp l
Ġ4 9
Ġ18 0
b re
Ġhund red
is her
Ġm ention
Ġh us
Ġab andon
Ġlevel s
u f
Ġwor ds
Ġs we
u ff
Ġk h
Ġnear by
g l
im s
Ġch ann
on a
Ġmar riage
Ġprodu ce
Ġte xt
Ġdo ctor
Ġne cess
Ġconstit ution
k er
Ġc ry
Ġpract ice
Ġdef ense
Ġpre p
Ġconstru cted
Ġf ill
Ġem per
w in
Ġsour ce
od ies
ol s
Ġl ot
Ġfant asy
i ences
Ġ4 1
ic ient
Ġ199 2
Ġcand id
w ide
Ġm att
p ass
ro ad
g s
Ġdv d
Ġvoc al
Ġsepar ate
Ġhigh ly
r am
Ġlab or
Ġ ess
ic ated
Ġme ans
Ġe th
Ġfar m
Ġwrit ers
et te
Ġro w
um n
Ġmed ical
it ation
Ġsp ot
Ġze aland
Ġcontro ll
Ġexec utive
g ing
Ġl es
Ġex hib
Ġdirect ly
ish op
Ġposition s
Ġultim ately
Ġp urs
ell ow
Ġobs erv
Ġd a
Ġnorth west
Ġwe ather
p ing
Ġs le
Ġcontin ue
Ġpresent ed
Ġredu ced
Ġeff ort
k in
Ġafric an
m as
Ġmex ico
Ġc ub
Ġmultip le
Ġadmir al
Ġj er
Ġb ound
Ġ4 00
Ġche m
w rit
Å į
Ġfl ow
Ġeff orts
Ġbr ad
Ġdis m
ib ly
Ġanim als
Ġme chan
Ġform ation
Ġd yn
Ġ193 0
Ġhous es
Ġlie ut
Ġch ris
d ing
Ġstr ateg
og ue
Ġset tle
b and
Ġtri ed
r ical
Ġl in
Ġg as
Ġmem orial
Ġat tended
Ġ5 5
k n
Ġb atter
Ġstud ies
Ġaccept ed
Ġst ating
Ġfinanc ial
Ġw ear
Ġpar al
Ġt alk
Ġru le
Ġlib r
Ġmad onna
v ement
ac her
d on
Ġp air
Ġse em
Ġspec ific
Ġsym b
l a
Ġde pend
ri e
Ġ199 3
Ġbo b
Ġ199 1
Ġo h
Ġhon or
Ġadv ent
Ġincor por
tr ack
ri er
is ation
Ġend ing
Ġbeg ins
Ġth ick
Ġs aint
Ġcer em
Ġrec omm
Ġin ch
Ġorgan ization
Ġ17 9
Ġr am
Ġpil ot
Ä ĩ
an es
Ġl if
Ġtr ue
Ġtheat re
Ġtraff ic
ru ction
Ġs ides
Ġen emy
Ġcas es
Ġscot land
Ġj ones
Ġro ugh
ill ery
Ġdr ive
Ġar rest
n ers
h ouse
Ġ ire
re y
Ġb ell
Ġp ack
op er
Ġfly ing
Ġl uc
Ġm ob
Ġrespons ible
Ġconf l
Ġey e
Ġman aged
Ġp ath
Ġform s
Ġw ound
Ġmean ing
Ġ +
Ġus es
Ġar ab
Ġresult ing
Ġg reek
Ġk enn
Ġ3 9
Ġtourn ament
Ġke pt
Ġsound track
Ġlieut enant
Ġacad emy
Ġdro pped
Ġprot est
Ġshow ed
Ġro se
Ġauthor ity
Ġpolic y
Ġed ge
Ġb ost
Ġm os
Ġpr ime
Ġ18 2
Ġqu ality
un e
Ġstru gg
Ġ4 8
Ġemper or
Ġexp ed
Ġ4 2
Ġf at
Ġw ick
Ġart illery
Ġap art
Ġcomb ined
Ġh ors
cl aim
Ġd ru
Ġbo at
ceed ed
Ġact ing
u it
Ġd ed
Ġfound ed
Ġsecret ary
Ġe ll
Ġspir it
Ġcontin ues
Ġtri al
Ġmark ed
Ġadminist ration
ad a
Ġinc hes
Ġproper ty
ip s
Ġwilliam s
Ġb it
Ġsystem s
Ġenc oun
Ġsubsequ ent
Ġprop os
n am
Ġart ists
er o
Ġcontem porary
Ġ18 1
Ġattempt s
Ġse arch
e x
Ġext r
Ġterrit ory
Ġpar is
gy pt
i ated
Ġd raft
Ġnort heast
u ge
Ġste am
Ġre ar
Ġcompan ies
t hel
Ġpot ential
Ġmar sh
Ġper f
Ġpres ence
Ġmet res
Ġview ers
Ġplan et
ic ip
Ġallow ing
an i
Ġth ous
Ġstud ios
Ġsix th
ul ations
Ġpre par
Ġrec ent
Ġsupp l
Ġsc ale
Ġ194 2
Ġco al
Ġofficial s
Ġcondu cted
k et
Ġbeh av
j e
Ġe gypt
Ġm u
th ur
Ġob t
Ġse g
Ġjo b
Ġresp ond
Ġpie ce
Ġdig ital
Ġfilm ing
Ġhy d
Ġdef ence
Ġmach ine
Ġle e
Ġhead quar
Ġcontr ast
o e
Ġam ount
Ġtem ple
ol f
Ġtransfer red
Ġcoll abor
stand ing
Ġlat in
Ġparen ts
Ġy ellow
ing u
Ġsc oring
Ġopp ortun
Ġ ic
Ġmaxim um
Ġsen ior
r ain
Ġcor por
Ġfig ure
Ġcom ing
Ġstep hen
Ġdis e
Ġ6 5
Ġs ac
Ġall ied
en ge
Ġbe aut
Ġfeat uring
in em
Ġtor ped
Ġthere fore
Ġprim arily
c le
Ġ4 7
Ġrel atively
Ġox ford
Ġgeor g
Ġele v
Ġown ed
Ġpeak ed
Ġthe ory
Ġbecom es
Ġstud ent
Ġcol d
Ġtit led
Ġjose ph
Ġtorped o
Ġm ort
Ġact ually
ag a
Ġrecomm end
ian ce
Ġport ion
Ġdist ance
Ġbattles hip
Ġc ert
Ġcit iz
Ġconclud ed
ers ey
Ġst ock
Ġbost on
Ġcon ver
Ġprem i
Ġman chester
Ġm ut
Ġt on
Ġinv asion
Ġsit uation
Ġstreng th
Ġwrit e
Ġb ass
Ġch air
Ġhar rison
or ter
Ġpsy ch
Ġtrans l
Ġje ff
os h
Ġbro ke
Ġfun ction
Ġsh are
Ġobs erved
Ġs elling
Ġphys ical
Ġsec urity
Ġalong side
Ġcommun ic
aren t
Ġdist inct
c a
Ġt ree
Ġsw ed
ent ed
Ġplay s
Ġperson nel
Ġresul ts
Ġconc ent
Ġ4 6
Ġl iver
Ġ5 2
Ġdiv ided
Ġsour ces
ste in
Ġd oll
ist ics
Ġpa id
Ġsecond s
Ġres ist
Ġcall ing
it a
Ġc ities
Ġr ating
Ġ194 4
Ġslight ly
in i
Ġbord er
Ġshe ll
Ġin h
Ġreturn ing
Ġpower ful
Ġcol umb
Ġf red
Ġmanag ement
Ġcont est
Ġar ts
Ġre ject
Ġhistor ian
Ġo tt
Ġhistor ical
Ġ6 4
Ġh an
Ġimper ial
Ġmin im
Ġon to
Ġsu st
Ġa ctions
Ġ4 3
Ġel se
Ġm ile
Ġv ess
Ġplat form
Ġad j
am ing
Ġf ear
Ġnot hing
Ġbird s
id er
Ġbe ach
Ġk g
Ġfre ed
Ġinflu enced
Ġo w
Ġactiv ity
Ġcan c
Ġinn ings
ct ive
ast ic
Ġf an
Ġtr ust
il s
un t
Ġ4 4
Ġsu c
Ġres idents
Ġath let
Ġcom edy
ell ig
for ce
Ġb bc
Ġpo et
Ġdesign ated
Ġpromot ed
os aur
Ġnomin ated
Ġpass ing
Ġres c
Ġcult ural
Ġro d
Ġcro wn
m ond
Ġcomplet ely
st one
Ġcro at
Ġconfl ict
p o
Ġl ane
Ġm is
Ġproble m
Ġav enue
Ġl ov
Ġor che
Ġwe ight
Ġhe ight
Ġmain ly
Ġsub s
ph y
Ġsex ual
Ġtr ail
a ult
Ġstru ck
Ġchart s
ist ry
Ġarm s
ic ed
Ġs ought
Ġrepl ac
Ġp aper
Ġro t
Ġ192 0
Ġhand s
Ġenc our
Ġanc ient
Ġs ense
Ġ194 5
Ġseason s
nd s
Ġwe bs
Ġcont ent
le ment
Ġ194 1
Ġvar i
Ġ15 0
Ġdou b
Ġp ul
Ġcon sec
Ġfe ed
Ġwar s
z a
Ġf ish
Ġchar ge
Ġim age
Ġreach ing
wh ile
Ġspe ct
ill s
Ġfell ow
Ġweap ons
y er
z y
Ġital y
Ġc ell
Ġinstr ument
ian o
ol ved
Ġd ang
Ġameric ans
Ġchann el
Ġwid ely
Ġm it
Ġfav our
ac ts
Ġmed al
Ġg il
Ġs r
Ġr y
Ġbase ball
Ġappear ances
Ġh abit
Ġal one
Ġint ellig
Ġem ot
ur a
Ġj ersey
qu es
Ġconfir med
i ber
Ġf res
Ġk r
Ġg ained
Ġshe l
yl v
Ġg ra
Ġbey ond
Ġf iction
Ġire land
Ġcho ice
ad el
Ġbrother s
Ġjo in
Ġmur der
ro ll
Ġre ign
ot a
Ġold er
r ative
Ġb ru
Ġele ment
Ġpro ved
Ġste el
Ġvers ions
Ġanal ys
Ġc rick
Ġlibr ary
Ġcar l
ul ed
Ġheadquar ters
Ġfl oor
or ation
Ġexpl ained
Ġsay s
m ans
c ers
Ġoff er
Ġa head
Ġs ens
om an
Ġal t
al ing
Ġexp ans
kn own
Ġneg ot
u le
Ġd w
Ġser ve
Ġrain fall
Ġ198 9
b on
Ġcaus ing
t own
Ġcom es
Ġspe ech
Ġs ant
Ġ194 3
Ġhot el
Ġvictor ia
Ġo pt
ic an
Ġchar l
Ġsu it
Ġrec on
d y
Ġrequ ire
Ġf al
Ġ5 1
Ġexp ressed
Ġcath olic
Ġequip ment
Ġwork ers
Ġspl it
Ġhors es
Ġartic le
Ġapp arent
et y
a res
Ġroad s
Ġreport s
e es
Ġgrow th
Ġp ap
Ġpromin ent
Ġoff ensive
Ġocc asion
Ġbr anch
Ġg ross
Ġdr ama
Ġadv anced
Ġbow l
Ġexper iment
anc y
Ġcapt ure
Ġident ified
Ġoffic ially
ou red
Ġset ting
Ġhus band
Ġworld wide
Ġarm ed
uf act
g u
us ion
Ġpat tern
Ġso ft
Ġcateg ory
Ġsn ow
igh th
Ġsur re
Ġman ufact
Ġt ells
Ġheav ily
Ġres erve
Ġsen ate
Ġb ott
Ġjust ice
Ġsp ort
Ġmat ter
Ġcomp uter
Ġrepresent ed
Ġext ra
i Äĩ
Ġtre es
Ġactiv ities
Ġesc ape
ir ing
Ġsp read
m ark
Ġcrick et
Ġun f
Ġpl aces
Ġmean while
Ġtreat ment
Ġad apt
Ġpie ces
b it
Ġle aves
Ġ Î
Ġt ay
b i
Ġact ress
Ġlead ers
Ġfig ures
Ġj ul
Ġav oid
Ġf ired
Ġwh y
Ġinj ury
Ġbelie ve
Ġto ward
ub e
Ġdu ke
Ġagre ement
Ġsupp ly
Ġexped ition
Ġdut ch
Ġl ives
ylv ania
w here
ab eth
Ġun known
Ġill ust
Ġdo ing
Ġan th
Ġcas ual
Ġal bert
Ġd ata
Ġcou ple
Ġkil omet
Ġunl ike
Ġpr in
Ġim ag
Ġel iz
Ġla id
Ġed itor
Ġstri ke
Ġcons isted
Ġp in
Ġdeb uted
h ire
ess ions
Ġd in
ac ity
Ġwall s
our s
ad s
p ool
Ġr i
Ġm ig
Ġd ream
Ġa ired
Ġ id
Ġb art
Ġarg ued
us hed
Ġop in
Ġst ations
Ġwat ch
Ġtyp ically
Ġopp osition
m ore
Ġsever e
Ġsp in
Ġmom ent
Ġst ore
Ġrefer ence
Ġm ounted
os en
Ġhom er
il es
Ġtw ice
Ġclaim s
Ġn ations
Ġaff ected
Ġpol ish
Ġdesc ription
b n
Ġact ors
Ġc ra
ot y
Ġanim al
Ġas pect
Ġf aced
in son
Ġindust rial
Ġpow ers
Ġ6 00
l ines
Ġem ph
Ġnot able
Ġsu pre
Ġs her
Ġj on
Ġsk y
Ġmaint ained
Ġacc ident
Ġtechn ology
Ġtr ying
Ġprote ction
Ġval ue
el le
g ers
Ġkn ight
Ġvis ited
Ġt able
if ying
Ġord ers
Ġdan iel
Ġcon vers
Ġcritic ized
Ġland ing
Ġcon ne
Ġdel ay
Ġf uel
Ġmot or
u x
Ġcarol ina
Ġbro ken
Ġhol ly
Ġs om
Ġs ail
Ġf ully
em ic
Ġres ident
Ġb a
wor th
Ġgrow ing
Ġch osen
Ġmot ion
oc key
Ġtw el
Ġe t
h ar
ru it
Ġ5 3
Ġ198 7
Ġinstit ute
Ġco oper
oc ks
Ġm ul
Ġscott ish
en ger
Ġlab el
Ġtwel ve
Ġd ur
Ġdemon str
g ian
Ġ198 8
Ġcritic ism
Ġh at
Ġprodu cers
Ġyou th
Ġfrequ ently
Ġcomp ar
ol a
Ġsol o
Ġent r
Ġsev enth
Ġur ban
Ġphil os
Ġt a
Ġjo int
clus ion
Ġcond ition
Ġwound ed
Ġ8 5
Ġland s
ay er
Ġaccom pan
Ġpenn s
Ġm d
Ġv ice
Ġn est
Ġbene f
Ġlook ing
Ġin te
Ġtr a
Ġgold en
Ġnewsp aper
Ġopp os
Ġsurround ing
al a
ag n
Ġbill ion
Ġch or
Ġb ol
Ġindepend ence
Ġdeg ree
Ġle w
Ġcomp osition
ra el
Ġmo on
Ġreg ister
Ġoper ated
Ġbar b
Ġrepublic an
Ġassemb ly
Ġnucle ar
Ġbud get
Ġchamp ion
iz es
ord in
Ġcom ic
Ġperf ect
Ġserv ing
Ġgre w
Ġd ry
Ġcre ation
Ġsout heast
u ous
Ġsimp ly
Ġh ip
Ġfollow s
Ġr ival
Ġinc ident
Ġvot e
Ġlos ing
Ġexpans ion
Ġco ol
Ġfam ous
an o
Ġkill ing
Ġcont ained
Ġris k
u nder
Ġnew ly
Ġag ric
w ise
i as
Ġcont act
Ġb c
m ission
Ġher self
Ġpass es
Ġopp on
Ġand rew
Ġweek ly
Ġend s
Ġindivid uals
Ġc aval
Ġb ac
y le
Ġpro s
Ġchrist mas
ur b
Ġc inem
iv ity
he w
w all
Ġnorm al
Ġapp lic
Ġj ac
Ġ5 4
Ġs in
y r
Ġhe ard
Ġg h
Ġey es
Ġhom es
Ġatt rib
Ġconsec utive
Ã ¨
ot e
Ġwil son
Ġt am
c ul
is ters
Ġemph as
Ġn av
Ġch ronic
Ġtay lor
Ġcross ing
uck y
Ġa er
Ġcann ot
Ġth ing
Ġorche st
Ġwebs ite
Ġmeas ure
Ġnar row
Ġev ac
Ġsupport ing
Ġ198 6
Ġcon sequ
Ġper man
Ġch ose
pt on
ful ly
Ġeliz abeth
ul ts
Ġjo e
Ġopp osed
Ġ9 5
Ġ9 7
il ly
ograp her
Ġsequ ence
Ġalex ander
Ġnot e
Ġ5 6
Ġvol ume
Ġparticip ated
Ġagric ult
Ġpo ly
Ġhistor ic
Ġthem es
Ġv on
Ġw ave
Ġr ise
ce nd
Ġd ub
Ġlead ership
Ġsk in
l am
w ater
r id
Ġadop ted
j o
Ġcolon el
Ġe ld
Ġfres h
Ġcap acity
Ġtr y
pr ise
Ġabandon ed
Ġdise ase
Ġadv ant
Ġh air
anc ing
Ġstand ing
ã Ĥ
est ic
Ġex tend
Ġfilm ed
Ġfam il
Ġdef in
Ġpl ants
Ã ¤
Ġdemocr atic
Ġma x
Ġvis ual
im ens
Ġbas is
Ġstra ight
ut ing
Ġneg ative
Ġpenns ylvania
Ġe gg
Ġde ploy
g reg
Ġp ier
Ġt all
Ġr and
il ed
Ġl ic
Ġfail ure
ter y
Ġcreat ing
Ġchall eng
Ġd rop
Ġgame play
Ġmi ke
Ġapp l
Ġ17 7
Ġregard ed
Ġposs ibly
Ġsu nd
Ġcl in
us es
Ġt ank
k ins
Ġhar ry
Ġar c
Ġtreat y
k o
Ġir ish
Ġl ap
is ers
Ġb odies
Ġpal ace
Ġc ore
Ġse at
Ġdist ingu
Ġtri p
Ġcan al
Ġgirl s
e v
Ġfl u
Ġfound ation
Ġlad y
r ane
Ġle ge
Ġinter change
Ġte nd
Ġk id
Ġsp ain
Ġad ult
Ġmer ch
am m
Ġk ick
Ġparal le
Ġre act
Ġide as
Ġz one
Ġe ag
Ġr idge
Ġret ired
Ġad vert
Ġdism iss
Ġs el
Ġsurre nder
Ġl ind
Ġt ell
Ġw el
Ġp ed
Ġm ist
t v
Ġext ensive
Ġdel iver
Ġde ck
Ġ7 6
ro l
g al
on c
Ġ17 8
az z
ru ct
Ġa id
Ġyoun ger
Ġh ockey
Ġschol ars
Ġro les
Ġexpl os
Ġno b
Ġgard en
Ġd ial
Ġat m
Ġrail road
led ge
Ġbas ket
Ġho pe
Ġanalys is
at o
Ġb ishop
Ġclass ic
Ġa im
Ġfr anch
Ġ193 9
Ġoper a
Ġwor th
Ġg ate
and a
Ġd rew
Ġrepe ated
Ġimpro ved
ul s
Ġachie ved
Ġeconom y
Ġg a
Ġeffect ive
ic ks
Ġb om
Ġsou l
Ġl em
Ġbrief ly
Ġgl ass
Ġb anks
m es
Ġis rael
Ġh ay
Ġp iano
i enced
Ġd ip
Ġsc he
Ġth or
Ġun su
Ġcham ber
ian a
Ġw ed
Ġcurrent ly
or ters
Ġsouth west
Ġt rou
Ġhouse hold
Ġnecess ary
r ich
Ġvehic les
Ġsu d
Ġgrant ed
Ġdef ensive
Ġro of
Ġ6 1
Ġpurp ose
Ġreg ional
Ġf ame
Ġ198 5
Ġturn s
h ol
Ġcitiz ens
Ġreject ed
Ġc aught
Ġar thur
ark ed
Ġorgan ized
Ġ196 8
Ġ6 6
Ġrec ently
Ġtyp es
Ġgen us
Ġkilomet res
Ġf ro
Ġspe ak
Ġk ir
Ġmar ine
Ġprov ince
j a
Ġrece ive
Ġexp anded
Ġcor re
Ġsecond ary
res p
Ġatm osp
Ġauthor ities
Ġflood ing
Ġs ell
Ġcommission ed
Ġon line
Ġr hy
Ġdid n
Ġb le
l ers
Ġbra z
Ġcaval ry
im ents
Ġoh io
st ation
Ġj es
Ġtrans form
Ġfamil ies
on ic
Ġsuccessful ly
Ġperform ing
Ġdiv ers
Ġlet ters
Ġo ri
Ġdeterm ined
Ġfreed om
Ġliter ature
Ġal le
Ġwe b
Ġdescrib es
Ġf ought
Ġag ent
Ġassist ant
Ġwh it
ut ation
Ġhyd ro
Ġtown s
u ate
Å ¡
Ġdr am
Ġsaf ety
Ġpict ure
Ġun us
id ay
adel ph
Ġt ail
Ġ198 4
Ġup gr
Ġgo es
Ġcust om
Ġsing ing
Ġpre fer
i ate
Ġfree way
Ġh orn
um ber
Ġ8 00
Ġacqu ired
ill a
Ġphil adelph
Ġtit les
s et
Ġsuggest s
st ream
Ġcommon ly
Ġplan ning
Ġg ives
ri f
ad ing
ol n
Ġcent uries
al ty
Ġsupre me
Ġv ac
Ġcl ou
ot ed
Ġmic ro
ific ations
Ġmention ed
Ġrev ol
Ġdistrib ution
Ġgeorg ia
Ġ5 7
Ġcam bridge
in n
Ġr on
Ġsched uled
av en
Ġcont ain
Ġtr ains
Ġcontroll ed
o pe
Ġwithd raw
Ġconv ention
Ġaltern ative
Ġ12 0
Ġmy th
Ġprote ct
Ġphiladelph ia
Ġset s
Ġshoot ing
is f
Ġsim ple
Ġco ok
att le
Ġk el
Ġcl ar
h aps
Ġch ance
Ġprincip al
Ġun ique
Ġre action
Ġgr aph
Ġvir t
Ġper haps
Ġregard ing
Ġk a
Ġs ie
Ġf ix
Ġdec re
Ġs s
Ġwrest ling
Ġfind s
Ġ196 7
h i
ou l
Ġwit ness
Ġs ave
Ġmod er
Ġruss ia
Ġsub mar
Ġest ate
e en
Ġcr ime
Ġrul es
Ġfac ilities
um es
Ġk it
Ġ6 2
Ġread ing
Ġarr ival
Ġt ag
am in
Ġscient ific
Ġkore an
Ġdem and
Ġg ain
t ic
Ġsc out
Ġmed ic
Ġs ession
Ġcont aining
Ġex change
Ġa z
Ġpublic ation
Ġaccompan ied
Ġun s
Ġte ach
Ġl is
Ġr ated
Ġt act
Ġnin tend
p a
Ġm outh
Ġpr ice
Ġloc ations
Ġbel ong
Ġfigh ter
Ġr ub
Ġfin ish
Ġtouch down
Ġcerem ony
Ġliver pool
m outh
Ġan ne
Ġbr id
Ġbo ats
Ġm ap
Ġqu ite
Ġsele ction
Ġh its
Ġbro ok
Ġeven ing
Ġnintend o
Ġentire ly
Ġl inc
Ġas ia
Ġc d
Ġm and
un k
Ġconc er
Ġcolumb ia
Ġp y
Ġexist ing
ing ton
Ġfir m
Ġr um
Ġded icated
Ġg ri
Ġcrow d
Ġintens ity
ag an
o ch
Ġsing ap
sh ire
Ġcontrib uted
ru pt
Ġf ash
d a
Ġleg acy
Ġje an
Ġjew ish
Ġbr and
Ġrem ix
Ġgre y
Ġprov ides
Ġpurch ased
et ts
Ġ5 8
Ġcasual ties
Ġk ings
Ġad ap
Ġk en
om a
Ġwind ows
Ġ198 3
Ġbraz il
Ġres emb
Ġp age
ris ing
Ġo k
Ġ7 4
Ġcamp us
ing er
Ġth row
Ġbatter y
Ġa x
k es
ro om
Ġadvant age
ab les
Ġresist ance
Ġprodu ct
in ity
Ġsit es
Ġoccup ied
Ġcare y
Ġbo ys
Ġsingap ore
se y
Ġfrancis co
Ġ196 9
Ġe ighth
resp ond
Ġcor respond
Ġhead s
Ġhold ing
Ġ196 4
Ġbasket ball
Ġg ib
Ġlinc oln
os es
Ġc ode
Ġ7 2
Ġg ulf
Ġb es
Ġpromot ion
Ġstruct ures
Ġbr ight
Ġg ay
Ġel imin
Ġmill er
Ġprote cted
Ġdra wn
Ġreg ions
Ġmer c
Ġres our
Ġn ap
Ġmar c
Ġcoast al
Ġ191 4
Ġcon qu
Ġh ms
Ġg ill
Ġrece iving
Ġsp r
Ġclos ely
f ort
r ons
e ction
Ġplay station
Ġâ Ī
Ġcar s
Ġ191 8
Ġlaw s
Ġdis ney
c ript
Ġjud ge
it led
Ġopportun ity
Ġturn ing
Ġ197 1
Ġ198 2
Ġlew is
Ġgener ation
g n
Ġcall s
Ġcons ists
Ġrough ly
ig er
Ġ197 2
Ġste ve
Ġ196 6
Ġgr ade
Ġ197 9
Ġ5 9
in y
Ġcorn er
Ġdef ined
Ġres erv
Ġact s
Ġand erson
Ġby z
w are
bur gh
w ick
Ġstreng t
Ġsymb ol
Ġj r
Ġbri an
Ġexper ienced
Ġextre m
Ġany thing
Ġneigh bor
Ġt enn
Ġolymp ic
Ġloss es
Ġroll ing
Ġfash ion
Ġtas k
Ġhe at
gar ian
Ġass ault
Ġhy p
ver se
ot ic
oc ated
bo x
Ġbyz ant
Ġsur vey
Ġ196 5
Ġband s
e k
Ġret ire
Ġfoc used
Ġview ed
Ġeng aged
Ġh ind
aw a
u a
Ġpolit ics
Ġrelig ion
Ġintellig ence
Ġ #
Ġprov iding
Ġfl at
man n
r ate
Ġrel ief
Ġdevelop ing
eng ers
Ġ197 5
Ġn hl
Ġ9 9
Ġappe al
Ġse mi
Ġdom estic
Ġunc le
Ġrapid ly
Ġinvestig ation
Ġsh ared
Ġbott om
r ant
Ġw ond
Ġo ak
Ġsh all
Ġm ales
Ġh ired
Ġen l
Ġdis app
Ġwal ter
Ġto w
Ã ¸
Ġholly wood
Ġph ase
Ġmy ster
Ġtemper ature
Ġhigh light
Ġgu y
Ġcred its
Ġan s
Ġger mans
Ġgr am
Ġsol id
Ġmount ains
Ġevery thing
Ġintrodu ction
Ã¡ n
Ġfa ith
Ġlaun ch
Ġmiss ing
Ġrecogn ized
cl es
Ġ197 4
Ġpain ting
if ically
Ġdav is
Ġv ent
Ġjun ior
Ġbelie f
op her
Ġjour ney
Ġh art
Ġ197 3
b ound
Ġappo int
Ġ6 3
Ġhe ll
Ġget ting
Ġis ol
Ġ7 7
he im
Ġg ord
Ġfall s
i at
Ġsubst ant
Ġty ph
Ġprep ared
Ġ7 3
Ġsh ape
act ive
Ġcon ve
ess ed
Ġf olk
Ġrom e
Ġt ick
Ġfranch ise
il ton
en c
Ġk new
Ġser b
Ġth in
Ġopin ion
Ġc ens
Ġn az
Ġglob al
Ġam end
Ġ197 6
Ġsignificant ly
Ġproject s
Ġinterse ction
Ġex act
Ġaut h
Ġappro ved
Ġs ort
Ġl b
t ar
Ġliter ary
Ġadd ing
Ġarch ae
Ġpen ins
Ġhun g
Ġl as
f riend
e per
Ġknow ledge
Ġconf eder
Ġreason s
Ġw ings
w art
Ġwhe el
ograp hic
Ġunsu ccess
Ġra id
Ġs ab
is hes
olog ist
Ġchall enge
Ġplay off
onc Ã©
Ġw ard
if ul
ren ce
Ġmus l
Ġv ic
Ġsy d
em e
er ted
Ġview s
Ġst ages
Ġsettle ment
Ġcab in
ul ate
ach us
Ġpo em
Ġ25 0
Ġesc ort
Ġev olution
em an
Ġcr is
Ġoper ating
Ġstory line
ast y
Ġex erc
ock ed
Ġ6 7
Ġequ al
v a
un te
Ġsh ut
bre ak
Ġintern al
Ġren amed
ed s
l av
Ġex pect
Ġsc ul
Ġrep utation
Ġreb u
Ġbey oncÃ©
Ġsh aped
ir a
ad or
Ġwat ched
Ġnever thel
Ġemploy ed
Ġneverthel ess
Ġs ed
Ġpro ceed
Ġvol unte
Ġbab y
Ġall ies
i ents
Ġpopular ity
Ġaut om
Ġlim it
Ġf ine
Ġinj ured
Ġthir ty
Ġc ape
Ġsh ore
it an
Ġprofess or
Ġhum ans
Ġgu ide
Ġtri ple
Ġfem ales
Ġpain t
Ġb ull
Ġne ut
Ġbl ues
Ġincreasing ly
Ġc ited
Ġkent ucky
Ġhead ed
Ġne ither
hen s
a ver
Ġ194 6
Ġb ern
Ġmod els
Ġwe alth
Ġdecl ined
Ġ198 1
z en
Ġhill s
ap pe
Ġra f
Ġfind ing
Ġconn ected
ant ly
Ġcolle cted
Ġviol ence
Ġ8 2
Ġgr av
Ġdet ails
Ġj am
se e
ar m
ist an
Ġ9 6
Ġ6 8
Ġexist ence
Ġconver ted
Ġd iam
Ġlab our
Ġdep th
Ġsust ained
Ġenjoy ed
ĠâĪ Ĵ
in um
Ġcontrovers y
m od
Ġlear ned
Ġnor way
Ġent ry
ony m
Ġt orn
Ġcons um
Ġ191 7
ak a
Ġim pl
Ġvol can
Ġbr on
n ic
Ġmass achus
Ġolymp ics
re c
Ġo uter
Ġchampionship s
ce ived
Ġappl ied
b l
Ġmassachus etts
Ġsyn t
h r
Ġs ad
Ġv el
Ġa ri
if orm
Ġcr imin
ell a
Ġallow s
Ġcam era
ist ol
Ġinter p
Ġte acher
Ġ8 7
Ġp ear
Ġsw im
Ġway s
Ġocc as
Ġc ells
av a
Ġcl ark
Ġentr ance
Ġappro ached
Ġprem ier
Ġaw are
ap es
Ġar sen
Ġdec ade
Ġcarry ing
Ġeas ily
os is
rop ri
Ġdesign s
Ġtest s
Ġg ree
Ġ16 0
Ġrespond ed
Ġl oy
Ġconf ron
Ġm ine
Ġf oss
Ġdown lo
at ures
Ġg ang
Ġt s
Ġdiscover y
Ġn ic
Ġtechn ical
Ġ194 8
re l
Ġin du
Ġgr ay
Ġpit ch
Ġchair man
Ġbur ied
Ġdut y
Ġh ang
Ġext ension
ps ons
Ġ7 00
om y
Ġconv oy
Ġgrad ually
Ġsa x
Ġsuc ceeded
er al
Ġse ctions
im a
Ä ģ
Ġmay or
Ġspec ifically
Ġbreed ing
Ġh ull
Ġac res
Ġshow ing
Ġprogram s
Ġn as
Ġr aw
un a
Ġj ay
ign ment
Ġh ug
Ġbus h
Ġmun icip
Ġast ron
Ġs ons
Ġdo or
Ġm ode
Ġpri ze
Ġinst all
ain e
Ġstre t
Ġsim psons
Ġle v
t ical
at i
Ġ6 9
Ġit ems
Ġprison ers
Ġex clus
Ġ197 8
Å Ĥ
Ġarrang ed
Ġsh op
Ġn one
Ġcred ited
Ġg one
Ġgen re
Ġlege nd
w a
Ġadd ress
i ro
Ġsimilar ly
Ġviet nam
it ors
Ġu til
Ġ7 8
Ġstat ement
Ġte en
Ġweak ened
Ġse ems
Ġprodu cing
Ġwin ner
Ġaddition ally
Ġc ad
Ġimpro ve
Ġearl iest
Ġpart ies
Ġcry st
Ġland fall
Ġ9 1
Ġros s
c ome
Ġr ural
Ġwar ning
s s
Ġro utes
Ġpresident ial
p ut
Ġthreat ened
Ġpl ac
Ġdiv isions
Ġ191 5
Ġcandid ate
og en
Ġfield s
Ġengine er
Ġret ained
Ġsound s
Ġott oman
Ġin ner
ent ions
Ġcomb ination
Ġbe ar
Ġsyd ney
Ġad am
Ġlast ed
Ġmo ore
Ġprodu cts
Ġsp ok
Ġ197 7
Ġpol and
Ġbr ain
Ġinst ru
n ow
Ġm tv
Ġk im
Ġ9 4
i pe
Ġhe ar
Ġmary land
iss ance
ink ing
Ġsh a
Ġrepl ace
Ġsuppl ies
Ġon es
iv ered
on ia
Ġd ress
Ġchem ical
Ġadap ted
ct ors
m et
Ġinter ior
Ġev il
Ġo t
Ġanim ated
Ġdown town
Ġbas ic
Ġinte gr
el ess
Ġ8 1
Ġpenins ula
Ġafter wards
Ġfr ag
Ġk ur
ath an
Ġground s
Ġeng ines
Ġdel ivered
Ġinsp ir
Ġ9 8
Ġ196 3
Ġag ency
Ġc ul
m ath
Ġspe aking
Ġmag ic
Ġfill ed
Ġmaint ain
Ġmess age
Ġsurv iv
Ġrh odes
Ġcr ash
re ts
Ġcal c
Ġequ ival
Ġstop ped
ol i
Ġent itled
Ġperman ent
Ġaff airs
al y
Ġc ow
Ġ191 6
Ġsupp orters
Ġindic ated
Ġcle an
Ġsus p
Ġclim ate
Ġextrem ely
Ġw ides
Ġarchitect ure
iz ations
Ġengine ering
al i
m un
Ġdeath s
Ġso le
Ġcaus es
Ġaff ect
Ġdiam ond
Ġphil ipp
Ġb ath
us hing
Ġal ien
Ġbu ff
Ġgre g
Ġf ruit
Ġ7 1
Ġsec ure
Ġdru g
ap ped
Ġpropos al
Ġimport ance
Ġrest aur
Ġmar s
Ġreturn s
Ġgord on
Ġmul der
t ime
s p
Ġde leg
le e
Ġsp ons
Ġrat ings
ot hes
Ġtyph oon
os a
Ġkn ots
c ks
Ġt el
Ġstre ets
Ġphil ip
it t
Ġimp lement
Ġac id
Ġhar v
Ġ191 9
Ġcompos er
le ton
Ġ196 2
Ġc hes
em ies
Ġ8 9
Ġp ig
Ġk o
bo ok
Ġman s
Ġt anks
rop ol
ivers ary
Ġsurv ived
Ġcons c
Ġj ur
Ġclass ical
pect ive
Ġb ure
Ġsw it
Ġafter math
Ġir a
Ġdescrib ing
Ġcomp on
Ġrefer ences
Ġcol our
Ġwrit es
bour ne
Ġk at
Ġconv in
Ġgi ant
Ġl l
Ġpr int
cher s
Ġb os
Ġf ict
Ġma h
Ġclass ification
Ġb ought
Ġconcern s
Ġm es
Ġsong writ
Ġho ly
Ġal f
Ġim ages
ol es
ino is
Ġ eric
Ġv ul
Ġfl o
Ġ193 8
Ġrul ed
Ġa ck
Ġr ab
Ġsome one
Ġmed ie
Ġtyp ical
Ġent ering
Ġr ivers
Ġarm or
Ġenvironment al
el a
Ġ8 8
Ġj ane
Ġrem ember
Ġg y
ant e
Ġn a
Ġstud ied
Ġarrest ed
Ġdecl ine
Ġportray ed
ent ially
Ġcru iser
Ġvot ed
Ġpre ced
Ġret reat
m us
Ġunivers e
Ġredu ce
Ġs ale
Ġrec alled
Ġsh r
Ġsc ar
Ġele ven
Ġag o
Ġsie ge
Ġpurch ase
Ġcorpor ation
Ġscul pt
ans as
Ġqu ant
Ġact ual
Ġcap able
Ġmedie val
Ġfeel ing
c op
Ġb ang
Ġacad emic
z er
ak i
ad ow
Ġall iance
Ġown er
Ġobject s
Ġnomin ation
ly ing
Ġal an
Ġcolon ial
Ġliber al
Ġp av
Ġrecogn ition
Ġs essions
Ġdr iving
Ġob l
Ġsuff icient
Ġchap ter
Ġt ony
Ġequip ped
Ġn el
Ġk ong
Ġ13 0
Ġthous ands
Ġoff ers
Ġident ity
Ġhun ting
Ġfund s
Ġhistor ians
Ġpass age
Ġnot ing
Ġmar g
Ġ17 5
Ġcam er
Ġconcern ed
Ġconne ction
Ġann iversary
Ġfin als
Ġ195 6
Ġme ters
Ġb ry
Ġdec ades
Ġdeb ate
Ġcross ed
Ġconsist ing
Ġunder t
Ġad mitted
h us
Ġrecommend ed
Ġprin cess
Ġ7 9
Ġprogram me
Ġpl ate
Ġdet ect
Ġinterest ed
r ight
Ġth under
u ct
Ġinv ited
Ġdip l
Ġg am
in al
ell er
Ġinst alled
Ġdou gl
Ġs ight
Ġk er
Ġad ams
Ġbre aking
Ġconsider able
Ġarsen al
Ġp ound
Ġstart s
Ġunivers al
Ġh ou
Ġj ord
Ġa k
u an
Ġmon ument
Ġestablish ment
Ġcour ts
Ġd ates
Ġcol ony
Ġwar m
Ġdec or
Ġ193 6
Ġmar ia
Ġe at
ak ed
Ġsequ el
o ir
w ich
Ġham ilton
Ġb ou
Ġen emies
Ġsty les
i ques
ack s
Ġchar ged
Ġsim on
Ġdut ies
Ġimpro v
Ġremain der
rane an
Ġve ter
Ġparalle l
he as
p read
ok ed
Ġut c
Ġman ner
Ġtr uth
or a
Ġwides pread
Ġj ump
Ġal leg
Ġread y
Ġsh ield
Ġp ure
Ġ9 2
Ġshar p
Ġnegot i
Ġcommun ist
Ġ9 3
e b
Ġpromot e
Ġpict ures
el and
Ġsal t
Ġconserv ative
il ation
Ġnet her
Ġp ad
Ġ196 1
osaur us
Ġind ones
Ġth ro
Ġcontin uing
Ġb id
Ġ8 4
Ġslow ly
Ġde an
Ġmo le
Ġhe rit
ing ly
ig ation
Ġdepart ure
Ġbehav ior
Ġaspect s
Ġoccasion ally
Ġd iet
Ġclass es
Ġtrans ition
Ġn ba
Ġw we
Ġc os
Ġelect ronic
Ġanim ation
Ġl am
Ġ195 3
Ġarg ent
Ġbeaut iful
Ġresour ces
Ġrom antic
Ġhit ler
il ing
Ġdest ruction
Ġorchest ra
Ġhapp y
Ġrhy th
Ġr ug
Ġkenn edy
Ġwear ing
Ġpost ed
Ġemerg ency
Ġac claim
Ġsund ay
Ġtransport ation
Ġhow ard
Ġassist ance
Ġdisapp o
ak ers
Ġtre as
Ġswe et
Ġsen ator
Ġsuper ior
Ġindian a
Ġr ide
at ch
Ġcar bon
out s
Ġform al
Ġvess els
ion e
Ġle on
Ġocc urs
ak en
as hed
Ġacc ur
het ic
Ġnor we
Ġcert ified
Ġd ated
Ġinc ome
Ġb ot
Ġcred it
Ġmem ory
Ġpop ulations
Ġsc ully
Ġatt ached
Ġ194 7
Ġproper ties
Ġdem ol
Ġanc est
Ġchor us
Ġpass engers
be y
Ġ195 8
Ġconserv ation
Ġsh ots
Ġequival ent
aw are
Ġport ug
Ġmat hem
Ġchap el
Ġold est
Ġinvol ving
Ġtur k
reg on
ic ide
op hy
Ġ191 0
af ter
Ġcirc um
Ġtermin us
Ġ11 0
Ġ8 6
o ard
Ġtun nel
Ġack now
Ġherit age
Ġc ant
n o
Ġo regon
Ġadvent ure
Ġ195 7
Ġpri est
Ġexp and
Ġsett led
Ġcat ch
Ġr ig
Ġwin s
Ġry an
p ir
vel and
Ġobt ained
Ġp ink
Ġpo pe
Ġbomb ard
Ġsle ep
Ġ193 7
Ġjun ction
Ġf isher
Ġresc ue
Ġdyn asty
Ġcol umn
ic it
Ġacc used
Ġauth ors
Ġfin ishing
Ġwor st
Ġder ived
Ġchar ges
Ġnin th
ag ues
Ġincorpor ated
iv als
Ġreview ers
Ġfavor ite
Ġdougl as
Ġcirc uit
r us
Ġreplac ement
Ġe u
Ġpred e
Ġcris is
Ġcle veland
heas tern
Ġill inois
Ġcommit ted
Ġmiss ions
Ġhost ed
he red
Ġpre y
Ġsw ord
Ġmov es
Ġ <
Ġbel t
Ġseg ment
w an
et ime
Ġreb ell
Ġbring ing
Ġvehic le
b ar
Ġshe ar
Ġgr ass
Ġsupp osed
Ġaud io
Ġand y
Ġl enn
are t
Ġass umed
Ġmed iter
Ġden ied
Ġ195 9
Ġwee ke
Ġstan ley
in ary
ĠâĢ Ŀ
Ġinterp ret
w estern
Ġcirc ulation
Ġroom s
Ġclub s
Ġrec re
Ġrepresent atives
Ġjord an
o es
Ġunus ual
Ġun p
Ġd ens
Ġthe ater
Ġfict ional
Ġmediter ranean
Ġmusic ians
Ġcommand ed
j i
Ġstrong ly
Ġro ger
Ġke vin
Ġsee ing
Ġbeat les
el ine
agon ist
Ġout standing
Ġbeg un
Ġinter cept
Ġdep ut
Ġmex ican
Ġcomplet ion
Ġcon te
Ġsurv iving
Ġbru ce
Ġcharacter istics
r an
Ġde em
Ġ195 5
Ġbr istol
Ġmaterial s
Ġr if
Ġ195 4
Ġreal ity
Ġsol ar
ĠâĢ ľ
Ġcat hed
Ġg ust
Ġis bn
Ġnorwe gian
Ġalle ged
ic ian
Ġpers u
Ġatt or
Ġmon arch
Ġcost s
o oth
Ġm ol
Ġwick ets
Ġexcept ion
Ġdes cend
Ġl anc
Ġt ied
Ġposs ibility
Ġmethod s
Ġs ailed
Ġw et
Ġrespons ibility
bor ne
wor ks
Ġh az
Ġrecon st
Ġb ah
Ġv ision
Ġpra ise
Ġpass enger
Ġevery one
Ġcan cer
Ġdr iven
Ġfor d
Ġag gress
le ts
st ate
Ġoppos ite
am i
Ġdiffer ences
ag er
Ġer u
Ġcar rier
Ġrepresent ative
Ġmiss ed
Ġint ention
Ġatmosp here
Ġsche me
Ġhabit at
Ġlis a
Ġkore a
Ġbu y
u v
we ight
Ġthere after
Ġdes ire
Ġv oy
Ġv ary
c on
ĠÃ Ĺ
Ġrecover ed
Ġother wise
Ġmass ive
ch ar
Ġor ange
or gan
ar ian
Ġthr one
ont o
Ġfund ing
Ġwr ong
Ġplat inum
Ġn ich
b urn
Ġdr agon
Ġstrateg y
Ġattrib uted
Ġrein force
it able
Ġwar ri
Ġph ill
Ġserv es
uc ks
erg ed
Ġs ke
Ġstay ed
Ġsh if
Ġtw in
Ġdis appe
Ġ8 3
Ġemerg ed
Ġretire ment
Ġeffect ively
Ġcommun ities
Ġclass ified
Ġ195 2
Ġmor ris
Ġl un
Ġpun k
Ġout break
Ġtown ship
Ġ ille
Ġmin istry
Ġc eme
Ġad ults
Ġweap on
al f
Ġab oard
Ġrob inson
Ġin se
Ġaccom mod
Ġmor gan
els h
Ġmob ile
Ġregular ly
e z
Ġcross es
Ġnorm an
Ġdiss ip
b ell
re ll
az a
Ġdocument ary
Ġele ctions
Ġnel son
Ġto ll
Ġacc ounts
Ġpart n
Ġpremi ere
Ġl ies
Ġhaw ai
ri ers
Ġunder ground
Ġfall ing
Ġstrengt hen
Ġ193 3
Ġcirc le
Ġwond er
Ġple as
Ġste ad
Ġattr acted
Ġc rop
Ġne ck
Ġch a
Ġinspir ation
Ġst ood
ism s
Ġsubmar ine
Ġp ir
Ġform ing
Ġtri als
Ġsat isf
Ġ17 6
ens es
os lav
Ġang le
Ġfact or
Ġr aces
Ġrac ing
Ġcrimin al
Ġpre t
Ġcl a
Ġpar ks
Ġmov ements
Ġl ith
Ġcomm em
Ġre new
Ġj enn
so le
Ġadv is
ret t
Ġly n
Ġinj uries
Ġvot es
Ġbattleship s
pp ing
Ġbatt ing
Ġimm ig
Ġs id
Ġan ton
Ġp ull
Ġd or
Ġneed s
an th
Ġra ise
Ġm ck
ab led
ok ing
Ġ193 5
Ġcondu ct
Ġsepar ated
Ġswed en
2 0
Ġpat rick
Ġrel ative
Ġall en
Ġgar rison
Ġprede cess
Ġch ain
Ġphot ograph
Ġsud den
Ġw y
Ġ194 9
Ġrec ru
Ġsh ark
Ġpubl isher
Ġ195 1
Ġw elsh
Ġear n
Ġp ale
Ġb ag
id den
Ġtem porary
Ġn om
Ġque ens
ut s
Ġrem n
Ġpl ane
Ġdes ert
Ġsym ph
Ġfl ank
Ġdifficult y
a ug
Ġor b
Ġdistingu ished
Ġe ch
Ġpart ner
b ing
Ġseem ed
Ġport s
Ġrequest ed
Ġdelay ed
Ġhe m
te enth
Ġus s
Ġbar r
Ġtor onto
Ġfac ility
Ġs oph
Ġdep ict
Ġrest ored
Ġsurround ed
Ġeld er
Ġg ets
Ġstand ards
Ġmatt hew
Ġegg s
Ã³ n
Ġat om
Ġsc r
og y
Ġcur t
Ġbyzant ine
com ing
Ġhop ed
im ate
Ġo m
Ġhar m
Ġclaim ing
Ġelse where
Ġbrid ges
Ġnether lands
Ġse nd
Ġsh ir
Ġchild hood
Ġh in
Ġmet ropol
Ġt u
Ġpen alty
Ġconve ction
Ġam az
Ġreview er
ab il
Ġmur d
r ad
oy d
Ġtemper atures
or al
Ġfr ame
Ġintern et
Ġme ets
Ġal i
Ġstand s
Ġr ud
Ġconvin ced
Ġk iss
Ġag es
Ġexam ples
Ġ ere
Ġira q
Ġgreat ly
Ġmoder ate
Ġjew s
Ġcathed ral
Ġloc k
Ġpubl ishing
Ġjac ob
Ġw olf
r ations
Ġj azz
Ġdang erous
Ġinvol vement
Ġcy cle
Ġpain ted
Ġapp ropri
Ġeas y
Ġt ub
Ġy e
Ġr ick
y ard
Ġwood en
Ġaccom pl
Ġdr ag
Ġr it
Ġal co
Ġ19 00
o z
Ġadapt ation
Ġsat ell
Ġwr ight
Ġhundred s
Ġsp oke
Ġtri es
Ġattr act
Ġlear n
ile y
Ġimmedi ate
Ġfl ed
Ġrecord ings
Ġa h
Ġar n
Ġany one
Ġsum m
Ġexc ell
p son
Ġle af
Ġpar ish
ert o
Ġtechn iques
Ġche ck
Ġstri p
Ġd od
Ġbure au
Ġco in
Ġsal v
w ar
im et
Ġappear ing
Ġlear ning
wh at
Ġsynt hes
ut her
b ro
Ġass ass
Ġencour aged
re ck
om ot
Ġsome what
ber ts
Ġsuff ering
Ġch ur
Ġarm en
Ġsaf e
Ġdis pl
Ġmeas ures
Ġpro hib
Ġ ip
Ġcroat ian
Ġpoet ry
Ġgraph ics
Ġins ur
Ġve get
ag ement
Ġpat ri
Ġruss ell
b ra
Ġp el
Ġlegisl ation
Ġbe ars
Ġdeterm ine
Ġjournal ist
Ġdismiss ed
Ġhor ror
Ġthom pson
Ġus a
Ġt an
se x
Ġd ating
Ġh ub
go ing
Ġis lam
Ġfl ash
Ġinterest s
Ġens ure
Ġfac ing
Ġh ud
Ġhe nd
Ġp ak
form ula
Ġwhere as
Ġattempt ing
Ġmar gin
Ġnick n
Ġf u
Ġg or
Ġabs or
Ġup d
Ġkel ly
Ġfigh ters
iv a
Ġ0 6
Ġbu ck
Ġn fl
Ġfit ted
Ġcar ter
Ġk l
Ġhold s
ag re
Ġcommon we
Ġthous and
Ġt ip
ig g
Ġtro phy
Ġstar red
Ġpu erto
b ody
Ġby pass
Ġattack ing
Ġdep os
Ġformer ly
Ġg ent
Ġsc rap
Ġvis ible
Ġcommonwe alth
el d
Ġquest ions
Ġclos er
Ġextre me
Ġcon clusion
Ġbig gest
enc ies
Ġspe ars
i ant
Ġb ats
Ġmet e
app ing
Ġabs ence
itz er
Ġw es
igh ter
Ã ±
Ġprodu ctions
Ġhun garian
Ġinflu ences
Ġmod ified
Ġn iel
f e
Ġpro sec
Ġrep rodu
Ġdeem ed
Ġhon our
re al
Ġbat man
Ġcl oth
Ġinstr uments
Ġl ion
Ġover se
Ġdipl om
Ġ191 3
Ġpremi ered
Ġapparent ly
n ight
Ġpark er
Ġcontrovers ial
Ġbron ze
it o
Ġland ed
Ġland sc
Ġlabor atory
al o
Ġsc and
Ġnov els
Ġhar ris
Ġhar bor
Ġnar rative
á »
Ġmur ray
Ġlong est
Ġdistrib uted
Ġd re
Ġg ather
Ġ192 7
Ġterrit ories
re te
Ġlead s
Ġloc omot
Ġoper ate
Ġ192 6
Ġgall ery
il a
Ġrest oration
Ġfil es
Ġunder stand
ame ter
Ġvict ims
Ġal ph
Ġattor ney
Ġarrang ement
Ġtr ained
Ġjo y
Ġdisc ip
Ġla ure
Ġcreat ive
Ġacknow led
ch ang
Ġrhyth m
iv an
Ġ193 4
Ġ192 1
Ġclou d
Ġvisit ors
Ġst or
Ġun iform
Ġmain stream
Ġunsuccess ful
Ġm amm
Ġweeke nd
Ġsubst it
v is
Ġrele ases
Ġconc ur
Ġref uge
Ġs or
Ġse es
Ġrepresent ing
ow a
Ġbelie ves
Ġdyn am
Ġd na
Ġk w
Ġex cess
Ġdep icted
Ġinflu ential
Ġber lin
Ġres olution
Ġown ers
Ġco ins
Ġli qu
Ġbas in
ent ional
ag u
ic i
Ġex it
Ġlook ed
Ġdomin ated
Ġ0 8
ap ers
Ġ9 00
han na
Ġhou ston
Ġra af
d d
aw s
Ġy an
Ġsec ured
Ġchur ches
ix on
Ġvide os
Ä į
Ġsant a
Ġw ol
el er
t z
che n
Ġw ag
Ġfin n
Ġnot ably
ro it
Ġy ug
Ġinform ed
Ġcom ics
Ġ191 2
Ġexp os
Ġcast ing
Ġwat ching
Ġleg s
ill ing
p any
Ġre un
Ġdr iver
Ġgi ants
Ġl od
Ġind ians
Ġoffic es
us ing
ay a
Ġceme tery
t ure
Ġro berts
Ġswed ish
Ġdeploy ed
Ġh ut
Ġlangu ages
at ically
Ġimp oss
Ġguard ian
Ġsimp son
Ġter ror
Ġrelationship s
Ġbehav i
ost er
ult ane
Ġ193 2
Ġt one
Ġd ick
Ġsim ultane
Ġrese ar
Ġneigh bour
Ġhous ing
ill ed
e enth
v ens
Ġd ies
as ka
Ġh u
Ġâ Ĥ
Ġhe aring
Ġdev ice
Ġtest ing
ac ent
Ġt ie
Ġoppon ents
Ġsk ills
Ġcabin et
Ġmete or
Ġdi agn
Ġc ov
ic ation
Ġk ne
Ġachie ve
Ġpre gn
Ġb h
ap se
Ġwar ner
Ġoper ational
Ġab d
Ġc ock
Ġinc om
Ġdet ail
Ġs ang
Ġdrum s
Ġfred er
Ġimp ressed
Ġgener ated
ruct ure
Ġint ense
Ġemot ional
Ġj ason
Ġ0 9
Ġl iz
Ġfact ors
Ġreported ly
Ġmain ten
r ig
Ġdial ogue
l i
Ġag ents
Ġhapp ened
Ġa u
Ġb apt
Ġmainten ance
tern al
Ġwind ow
Ġdownlo ad
Ġcommem or
f are
Ġa y
Ġre nder
ious ly
Ġn bc
Ġyug oslav
Ġform at
Ġsuccess or
Ġagricult ural
Ġanth ony
Ġfir ing
Ġfoot age
Ġemploy ees
Ġexper iences
Ġm ud
Ġsat ur
Ġsom ers
Ġab bey
art s
Ġtre k
ol ph
Ġcl ay
Ġr ising
oty pe
Ġg aga
Ġdet roit
t w
Ġf ishing
ud es
c i
Ġcroat ia
Ġl ose
m ate
Ġsu re
Ġte eth
Ġdefend ed
Ġnegoti ations
Ġc u
Ġlow est
Ġscient ists
Ġb un
ac he
f ire
Ġz ero
Ġra j
Ġrevolution ary
Ġ192 9
Ġst em
i h
ic ial
Ġexec uted
Ġbel g
Ġar k
Ġk u
Ġ191 1
Ġc od
Ġf ried
Ġmed ium
Ġdiscuss ed
Ġcolle ct
Ġgil bert
ct ic
Ġperson ality
Ġfe ud
Ġ14 0
Ġnorm ally
Ġrec ur
Ġtre ated
Ġse as
ig en
n oon
ain ts
Ġs ic
Ġent ers
Ġport ra
ann y
Ġtrib ute
Ġas ian
Ġafter noon
Ġinter state
Ġt enth
Ġsym pt
Ġste wart
Ġlo b
Ġrad ar
Ġd j
Ġres ign
Ġ193 1
Ġdraw ing
Ġ192 2
Ġclin ton
Ġresident ial
ach ment
Ġcar ib
Ġmel bourne
ont in
Ġstorm s
3 0
Ġfle w
Ġjes us
Ġres igned
Ġaccom pany
Ġgood s
Ġc her
Ġdiffer ence
Ġvess el
Ġadv oc
Ġdet ailed
ili ar
Ġeth nic
Ġinh abit
Ġtorn ado
Ġb reat
Ġbo il
o is
Ġorigin s
Ġag ed
Ġev ans
Ġform ally
Ġpo inted
Ġbud d
Ġniel sen
Ġpartn ership
Ġtechn ique
Ġmilit ia
Ġreve als
Ġprevent ed
Ġsy nd
Ġinn ov
Ġprefer red
Ġlo op
Ġgl ac
Ġx box
p et
Ġp ushed
Ġst able
Ġdirect ors
Ġtem por
Ġh uge
o en
Ġkeep ing
Ġfor b
Ġarr iving
Ġannoun ce
Ġapp rec
Ġexp osed
Ġ0 5
ar f
Ġorgan izations
Ġisol ated
Ġinstit ution
Ġneighbor hood
Ġs isters
or ous
Ġatl ant
n i
Ġsubstant ial
Ġdist urb
s k
Ġpart ly
Ġhand ed
Ġsev ent
Ġmet ro
Ġmom ents
Ġfor ty
Ġmusl im
Ġmarsh all
Ġlink ed
Ġfound er
Ġsam uel
ot es
Ġturk ish
in er
Ġox y
Ġp hen
l ie
Ġimp rison
Ġent hus
Ġsar ah
Ġdepart ed
Ġanal y
Ġm ack
Ġh ans
re es
Ġher ald
Ġcontin ental
Ġdesign er
Ġfact ory
ver e
Ġaust ria
Ġcomp lic
m ad
Ġcorre ct
ro se
Ġcolor ado
Ġsus pend
Ġlenn on
Ġex isted
Ġass ess
Ġfrequ ent
Ġp ione
Ġman h
Ġme g
Ġfif teen
Ġdram atic
Ġgree ce
Ġimposs ible
olog ists
Ġperiod s
be an
Ġrank ing
Ġinstrument al
Ġb enn
Ġpro ced
Ġav o
Ġext ent
Ġwed ding
Ġmor al
Ġoccup ation
Ġbal tim
Ġparticip ate
Ġconcer ts
Ġcat al
s a
ģ Ħ
Ġsym p
Ġinst ance
Ġ17 0
Ġpat rol
Ġin her
Ġlo ad
Ġbaltim ore
Ġsh ock
rom e
im b
ol is
Ġsee king
Ġinit i
m at
le v
ust ed
Ġarm ament
Ġcru isers
Ġschol ar
ind er
Ġapp le
Ġant icip
st ic
Ġal ter
Ġmal ays
Ġdeput y
Ġspec imens
Ġgr ace
Ġm ail
Ġtr u
Ġt aught
Ġtur b
ull ivan
Ġa qu
Ġhel ic
Ġver se
Ġfin ale
Ġgh ost
ly n
Ġsee k
mus ic
Ġimp ress
Ġf ab
d ie
Ġ ern
Ġman us
Ġhun t
Ġrare ly
Ġg ates
Ġse m
Ġrep air
Ġsm ooth
Ġamend ment
Ġnewsp apers
Ġcreat or
Ġfriend ly
Ġspe nding
Ġd ave
f r
ar n
Ġupgr aded
Ġal ab
Ġmetropol itan
Ġgen e
Ġobs er
Ġdi ameter
Ġdoes n
Ġwithd rew
Ġd ir
Ġrel ie
g ate
Ġare na
Ġabs ol
Ġprec ip
Ġch ase
co pe
m al
Ġp ip
Ġdiv or
Ġ192 8
Ġst ro
Ġpo ison
id ae
Ġtim ber
Ġlist en
Ġn ag
Ġunc ertain
Ġexhib ition
Ġco vers
Ġpick ed
Ġencoun tered
iam i
Ġmathem at
Ġfreder ick
Ġper mission
r as
Ġp ounds
ill er
Ġjo ining
Ġle ct
ob i
Ġch anc
Ġb oss
um in
Ġref ere
b oy
ic ians
Ġcoll aps
Ġdifficult ies
Ġpolic ies
Ġr ates
Ġchang ing
Ġsched ule
Ġmar io
Ġsk ull
Ġsomers et
Ġpl us
Ġlegisl ature
Ġg ab
Ġcons ult
Ġ192 5
Ġin aug
Ġmiss iss
Ġmult i
Ġan na
Ġsu icide
Ġc ous
Ġpart ially
se a
Ġ189 0
Ġin qu
bor ough
Ġan ch
Ġrest rict
Ġtur rets
Ġmerch ant
s ki
Ġadv ice
ĠÃ ¦
Ġs ank
an ium
Ġang lo
Ġfeder ation
Ġover s
Ġbomb ers
Ġathlet ic
Ġm iami
ar ia
che ll
Ġse ed
Ġr ic
Ġpil ots
Ġlo an
Ġdis aster
Ġfr an
Ġrest ric
Ġadj acent
Ġtravel ed
Ġse ctor
Ġref ers
Ġg ap
Ġse attle
Ġcom ments
c ol
Ġmin es
Ġ192 4
Ġrebell ion
Ġbenef it
ol as
Ġag ree
Ġaff air
Ġw aves
Ġd al
Ġpre f
Ġexpl o
Ġsold ier
Ġphilos ophy
Ġse ats
Ġgard ens
Ġpl ain
Ġsign s
Ã© e
Ġpro port
Ġk al
Ġmar ry
Ġwor ship
ames e
Ġpit ched
Ġminim um
Ġ ian
Ġ0 7
Ġsh akes
Ġcritic ised
Ġeag le
Ġi owa
Ġme at
Ġmunicip al
Ġph r
Ġco ordin
t i
Ġs i
Ġbas es
Ġalab ama
Ġso il
Ġnap ole
es is
st ers
Ġaustral ians
Ġdestroy ers
i ot
Ġprom pted
Ġcompet e
Ġstrugg le
Ġmin t
Ġrem ove
ger y
Ġmiss ou
Ġrep r
Ġp c
Ġsur prise
Ġsw ift
Ġd anc
Ġover l
us al
Ġindic ate
Ġwh il
att an
Ġhelic op
Ġcoll apse
Ġ ion
Ġr av
p ower
in ction
Ġcommunic ation
Ġneut ral
Ġcarib bean
ust er
Ġmedic ine
Ġcharl ie
Ġspirit ual
Ġmanus cript
Ġfor cing
Ġlaw rence
Ġcap it
Ġdesign ation
Ġstr ing
Ġhal o
Ġinde ed
Ġgro wn
Ġmin nes
Ġsatell ite
Ġbro s
Ġarm ored
Ġ192 3
Ġparen t
Ġbl ow
Ġenter prise
en h
Ġpow ered
p ie
Ġwalk er
atter ed
Ġg at
Ġcop y
Ġteach ing
Ġpaint ings
Ġwhil st
g i
Ġstre am
Ġcollabor ation
is d
Ġu m
n ings
Ġc iting
Ġsurviv ors
Ġrestaur ant
Ġyan ke
Ġval ues
Ġelect ron
Ġprot agonist
g as
Ġw reck
Ġfif ty
Ġk han
Ġmarket ing
Ġy or
Ġbr anc
Ġposs ession
Ġcover ing
Ġappoint ment
Ġhar bour
m ont
Ġdescrib e
Ġround s
Ġappro val
es h
Ġprov inc
Ġencoun ter
Ġnaz i
ore n
Ġcandid ates
Ġtrav elled
asc ar
Ġdepend ing
Ġj en
Ġman e
Ġform ula
ik a
Ġpret ty
m ates
r um
Ġchar ter
Ġunder standing
Ġab b
Ġpo ems
Ġbal ance
Ġfort ress
Ġrec onna
Ġdisp ute
Ġbr ill
Ġhung ary
Ġp ine
Ġor bit
Ġoxy gen
Ġvict ories
Ġben j
ime ter
Ġcy l
Ġdoll ars
m o
Ġm all
Ġprom pt
Ġlist ing
Ġsit uated
Ġbow ling
Ġdisplay ed
Ġp ic
Ġbattal ions
Ġvill ages
Ġartic les
Ġminim al
Ġd im
cept ion
Ġpo le
Ġchrist opher
ic ate
l an
Ġsurv ive
Ġviol ent
Ġw ake
Ġf el
Ġbelg ium
Ġh amp
Ġrug by
Ġlegisl ative
Ġreconna issance
Ġearth qu
Ġc ot
Ġal ive
Ġser ial
Ġo ption
Ġd ock
Ġfem in
Ġass isted
Ġclos ing
Ġt elling
Ġdeg rees
Ġplayoff s
Ġ0 1
Ġpublic ations
Ġn am
Ġcar go
Ġforest s
Ġdie go
Ġpro l
Ġdif f
Ġsoft ware
Ġd ancing
Ġinter pre
Ġamong st
Ġfun eral
Ġhelp ing
Ġgu il
Ġsympt oms
Ġmar ks
Ġcolon ies
Ġshakes pe
Ġelimin ated
Ġtom b
Ġact ed
Ġj ar
Ġas ks
od ore
Ġbr un
Ġmon ster
Ġsug ar
Ġrid ers
Ġsk i
Ġadminist rative
n ie
Ġ *
Ġn ad
Ġpurp oses
ph one
Ġdr ivers
Ġalf red
Ġdis l
an na
Ġm ys
Ġ190 8
vel t
Ġmic hel
Ġcircum st
Ġpr on
Ġrep airs
Ġ190 5
Ġcomp ilation
Ġsim pl
Ġtrou ble
Ġoccas ions
Ġfat al
Ġmississ ipp
Ġ190 9
Ġbenj amin
Ġm ason
Ġro ose
Ġbl ind
Ġconc rete
ort ed
Ġj ok
Ġstat ue
Ã §
Ġh ong
Ġro ut
Ġalco hol
Ġin land
Ġminnes ota
Ġviet n
Ġcr us
Ġvietn amese
Ġl ists
Ġinter act
Ġattend ance
Ġcann on
at us
Ġpres erved
Ġprepar ation
Ġan ime
Ġpublic ly
Ġhor iz
Ġgram my
Ġcon sole
Ġbusiness es
ru pted
in als
Ġm ental
Ġste vens
Ġmanh attan
Ġpo ol
le man
Ġab ilities
Ġvo iced
Ġt ang
Ġs ick
Ġorgan isation
Ġcommunic ations
Ġ10 5
Ġwid er
n g
Ġp ant
Ġdefe ating
Ġill ness
Ġ12 5
Ġhighway s
f ted
Ġr amp
Ġarg ument
for ced
ograph ical
Ġfrank lin
um an
e ing
Ġto uring
Ġ0 4
Ġel abor
j an
Ġsign al
Ġam mun
Ġj et
Ġres umed
Ġroose velt
Ġk ansas
Ġv s
ud a
Ġres idence
Ġ190 7
Ġpre l
Ġcompet ed
Ġbelie ving
Ġintens ified
iv ated
ag en
Ġs as
Ġsur ge
ather ine
Ġammun ition
Ġal ignment
op es
Ġcrew s
Ġco ff
Ġarch b
Ġexc av
Ġthink ing
Ġ16 4
Ġflight s
Ġdoll ar
Ġcount ies
Ġair borne
Ġback ing
Ġport land
Ġfall en
Ġoppon ent
Ġstrateg ic
oun ced
Ġunder st
Ġdoc uments
ac le
ish ment
Ġsign ing
Ġsubject s
Ġr ib
Ġn it
Ġn ash
Ġdel iber
Ġam ate
i able
Ġin g
Ġus d
Ġass ists
Ġwalk ing
Ġfriend ship
Ġwill ing
Ġaud iences
d in
Ġaltern ate
Ġus ual
Ġcerem on
Ġbi ographer
Ġphilipp ines
Ġsuit able
Ġs ib
Ġgen etic
Ġinterest ing
Ġst u
or ph
Ġdoub t
Ġengine ers
Ġr ush
Ġno ble
Ġatom ic
Ġmississipp i
Ġ188 0
ens ions
Ġfeel ings
Ġab ol
Ġsp ar
Ġrad ical
Ġsatur day
Ġ16 5
Ġch and
Ġwar ren
Ġloy al
Ġprovinc ial
Ġpe ters
Ġgu ards
Ġtrib es
Ġd c
Ġunder w
Ġsub mitted
Ġpercent age
Ġcomple ting
Ġwa iting
Ġwood s
à ¤
Ġown ership
Ġexplos ion
Ġco b
Ġfun ctions
Ġadop t
Ġbeh alf
Ġt ab
it ated
Ġchar ity
Ġalex and
don ald
Ġas king
Ġaut obi
iven ess
Ġho ok
ut or
Ġp or
Ġdis ord
Ġt ast
Ġs ullivan
Ġr ip
Ġv inc
Ġgu er
Ġpol ar
Ġtenn es
Ġret ail
Ġart istic
Ġcamp bell
Ġshakespe are
Ġev olved
Ġst ick
od s
Ġhin du
d ale
Ġcinem a
Ġchronic le
Ġle x
Ġfr ust
Ġtarget s
Ġfal se
Ġrev enue
Ġw ire
if er
Ġste ven
Ġob v
Ġqu ad
Ġt ed
Ġfr ig
Ġche st
Ġrem ark
Ġregister ed
Ġbirth day
Ġastron om
c ular
Ġl akes
onym ous
Ġsuspend ed
Ġc ass
Ġr ice
Ġcart oon
ad er
Ġho le
s es
Ġg oth
Ġne p
Ġfavor able
Ġd imens
Ġmov ies
ig e
Ġrel uct
Ġj osh
Ġk in
Ġcivil ian
Ġluc as
ã ģ
Ġbeaut y
Ġpoor ly
Ġbor ough
ic ts
Ġprov ision
Ġhead ing
Ġguil ty
1 0
Ġp ok
f ather
pec ies
Ġegypt ian
Ä ĥ
Ġreplac ing
Ġh ob
Ġfor th
est on
Ġcom fort
Ġli ked
Ġp ace
Ġp up
Ġmus h
ot o
Ġrec ip
Ġcl iff
Ġarm ies
Ġarm our
Ġide al
Ġ187 0
Ġshell s
Ġaim ed
Ġqu iet
Ġoff ering
Ġsol ution
Ġmeas ured
ine a
Ġmissou ri
Ġtennes see
Ġbound ary
Ġj os
Ġeng agement
Ġclear ly
Ġpros pect
Ġacc eler
Ġret rie
Ġlouis iana
Ġmarg aret
Ġro cks
Ġ190 6
in ations
Ġexp ensive
s ky
Ġtempor arily
p es
Ë Ī
Ġpal est
l ah
Ġrecogn ised
Ġ36 0
Ġmont real
Ġsimultane ously
Ġship ping
Ġ190 4
Ġg ear
Ġfil ed
Ġes p
ze ch
Ġvul ner
Ġsequ ences
u able
Ġbehavi our
Ġb rick
Ġav iation
Ġsub t
Ġremn ants
Ġbut ter
Ġgr an
Ġb illy
Ġrepres ents
Ġgal ax
Ġstor age
Ġbl ocks
Ġagricult ure
Ġc raw
Ġmon aster
c rib
Ġw ore
c el
Ġcons pir
Ġread ers
Ġess ential
Ġconte xt
Ġf ra
wn ed
Ġw ants
Ġsav ed
Ġto x
Ġcover age
Ġst ores
o h
Ġmit chell
Ġer r
Ġtal ent
Ġam ph
Ġsk et
Ġcompar ison
Ġco inc
Ġmin ing
Ġpattern s
i ac
Ġc zech
Ġcanc elled
Ġpar s
Ġph one
Ġph oen
Ġkir k
Ġprop ag
Ġas ide
Ġsur gery
Ġt ight
Ġ0 3
Ġpers pective
Ġsuggest ing
Ġinstit utions
Ġoverse as
Ġc oc
ri x
Ġcontin u
Ġf aster
Ġspot ted
Ġ il
Ġthir teen
Ġfam iliar
Ġgra ham
Ġmat ters
Ġrefle cted
Ġmane u
Ġwas n
Ġpract ices
Ġcontrib utions
Ġrebu ilt
Ġnot ice
Ġb are
Ġf urn
Ġprote in
iss ions
Ġdog s
Ġless er
yl an
Ġfast est
m n
l ife
Ġthe r
or i
Ġcar n
Ġhun ter
Ġglob e
Ġfurther more
Ġpred omin
Ġsh adow
Ġdestroy er
Ġpul led
Ġver tical
Ġapplic ation
n et
Ġarchb ishop
r ator
Ġr anks
Ġcryst al
Ġesc aped
r im
Ġro ots
Ġflag ship
Ġbad ly
Ġari z
Ġol iv
Ġdru gs
Ġst rict
Ġsum mit
Ġsubs pecies
y on
st orm
Ġfor g
un es
Ġam ounts
Ġjo bs
Ġs ult
c ar
Ġlack ed
Ġcub a
r ants
Ġs q
Ġdro ve
Ġc ave
Ġex clud
Ġall music
Ġdec ides
Ġint elle
Ġsl aves
Ġpan el
Ġbom bs
Ġem pt
Ġconfeder ate
Ġo sc
Ġarg ues
Ġwick et
Ġintelle ct
th a
Ġbul k
Ġto ky
Ġun ex
Ġsub ur
Ġport ions
Ġtri ang
vere ign
ks hire
Ġind ies
Ġso vereign
Ġaut umn
Ġcontrol s
os ing
art ney
Ġexp ression
Ġsquad rons
Ġquarter back
Ġm l
Ġsp ider
Ġsever ely
Ġinhabit ants
Ġear ning
Ġstri king
Ġbi ography
ur ally
Ġpr inted
Ġstar ring
Ġt ort
Ġdistinct ive
Ġtam il
Ġwar ship
Ġcre st
Ġto y
Ġcond em
Ġamb ass
Ġt ack
Ġmain land
Ġpers ian
Ġguitar ist
Ġs ony
Ġfer ry
Ġobserv ations
Ġst ern
Ġariz ona
Ġf o
Ġch ick
Ġcor on
Ġgod d
Ġbon us
Ġrestric ted
Ġt ale
Ġw ish
Ġmar ie
Ġcharacter ized
Ã º
Ġor th
Ġv ast
Ġconstitution al
Ġst ere
Ġplan ets
l ings
ur er
Ġexcell ent
Ġ11 5
Ġrang ing
Ġcl ock
Ġliber ty
Ġb ald
Ġd ylan
Ġvis iting
i y
Ġspe nd
iet ies
Ġcommand ing
Ġsit ting
Ġfl ower
c ru
Ġj ury
Ġrev ival
Ġphen om
Ġdefin ition
Ġpear l
ro g
Ġn ik
Ġfix ed
Ġcur ren
Ġm ik
Ġr ings
Ġwil hel
Ġwa it
Ġv ib
Ġpl ut
ath y
id ency
Ġmeet ings
Ġl t
Ġnomin ations
Ġt iss
Ġw ine
Ġhol iday
Ġth rew
Ġexpl ain
Ġexpl ains
Ġbomb ing
Ġathlet es
Ġultim ate
Ġs ig
Ġdomin ant
ol id
Ġcar riers
Ġstat istics
Ġdemonstr ated
Ġamate ur
Ġac ou
f ish
Ġok lah
Ġille gal
Ġt ig
Ġb one
Ġarr ive
Ġbroad way
e qu
Ġd y
og a
Ġdang er
Ġmultip l
Ġeduc ational
Ġparliament ary
un ction
Ġart ific
r act
Ġp ill
Ġaust rian
Ġmar vel
Ġfound ing
Ġmet all
v o
Ġh idden
Ġy ield
Ġmr s
Ġma ur
Ġsw itzer
Ġtick et
ow ed
Ġd ust
Ġfore cast
Ġro ok
Ġart work
Ġl en
Ġco at
Ġgr ave
Ġnorth ward
Ġprep are
Ġhar vey
h u
th y
est one
Ġor n
Ġar ist
Ġ190 1
Ġaer ial
Ġ17 4
Ġcens us
Ġab und
Ġswitzer land
an ian
Ġmur phy
Ġpred icted
Ġtalk ing
Ġbe am
Ġam y
Ġp ush
Ġre ver
est ed
Ġexperiment al
Ġdecl ar
Ġp m
Ġre aches
Ġpe aking
Ġconvers ion
Ġsl ave
a way
Ġd read
Ġbar ry
Ġdel aware
Ġan at
em en
Ġover t
ul ating
Ġfeed ing
Ġconsc ious
or er
Ġl anes
ast s
Ġste ps
Ġvi i
Ġab c
Ġb erg
Ġhousehold s
Ġdis agre
Ġche l
d i
Ġover w
gr ad
Ġapart ment
Ġn ut
Ġoklah oma
u ations
Ġacc um
Ġn i
Ġinn oc
Ġwest ward
Ġcru c
Ġfe els
Ġliqu id
Ġinter f
Ġb aker
ors hip
Ġserious ly
Ġjo h
Ġobt ain
Ġrepeated ly
Ġv a
Ġuse ful
Ġmembers hip
Ġaud ition
Ġpredecess or
Ġb ach
Ġswim ming
Ġsymph ony
Ġm ate
Ġconsid ering
Ġcho ose
Ġcop per
Ġlay er
b ec
Ġl augh
Ġl on
Ġ0 2
Ġcon greg
Ġpat ron
Ġ190 3
Ġb ones
Ġwell s
Ġnin et
Ġ15 5
Ġconsequ ently
Ġcircumst ances
Ġatt ained
Ġthan ks
Ġmin i
Ġ190 2
Ġpres erv
Ġkur t
ell i
Ġper ry
Ġback ed
Ġb od
Ġf asc
Ġg w
Ġdeliver y
Ġmel ody
Ġphys ics
Å «
Ġto dd
Ġfe ather
Ġrevol t
im en
Ġr ico
um ps
Ġper ceived
Ġmem or
et on
Ġlook s
Ġm ong
Ġmill enn
um a
Ġmad ag
Ġles lie
ic ut
id ers
Ġsh aw
c s
Ġre vers
Ġst ones
Ġv ig
r ast
Ġp ages
Ġh av
Ġflow ers
is p
Ġev e
Ġval uable
Ġbern ard
Ġb our
Ġsun k
Ġsubs id
r idge
Ġball ad
ĠÎ ¼
Ġimprov ements
Ġtoky o
Ġas k
Ġcom ed
on ed
ang el
Ġrem arked
Ġposs ess
Ġdu o
Ġtact ics
Ġret ain
Ġcomp ens
Ġeng age
Ġden mark
y m
Ġtur ret
Ġjon athan
Ġtow ers
Ä ĳ
Ġprom ised
Ġperson ally
Ġren ov
Ġair lines
Ġbattle cru
Ġlandsc ape
Ġgu ar
Ġjohn ny
Ġatlant a
r ating
Ġmusic ian
Ġtheat rical
Ġed wards
Ġm ent
Ġexec ution
Ġda wn
Ġenl isted
Ġair field
Ġob st
Ġri hanna
Ġp att
Ġh og
Ġk am
Ġk ids
Ġsp art
Ġcomp ound
Ġman ga
ap olis
Ġdem ands
Ġsix teen
as a
Ġstrengthen ed
f a
Ġn ixon
Ġ10 1
Ġtrav els
Ġcampaign s
onom y
Ġju an
Ġprof ile
Ġsun g
it ter
Ġis a
ud ed
ming ham
Ġqual ified
Ġexpl an
Ġred e
Ġelev ation
Ġra ising
Ġfun ny
Ġmechan ical
v i
ab s
Ġdem anded
in ian
Ġr al
Ġsp a
Ġpap ers
l ow
ru ption
Ġillust rated
Ġ16 8
Ġarn old
e le
Ġsuccess ion
b ard
est yle
Ġburn s
Ġag greg
Ġpit ts
Ġwas te
Ġinterpret ation
ar r
Ġm s
ov a
Ġins isted
Ġcloth ing
m ith
Ġke ith
Ġst ress
Ġen roll
row s
Ġcomp ounds
Ġrul ing
Ġelectric ity
b ird
n ik
y t
Ġbe ats
Ġsett lers
Ġcan ter
Ġjim my
Ġmir ror
Ġb ak
Ġd ressed
Ġly ing
Ġjud g
Ġs ak
gh an
Ġphoen ix
Ġbar on
Ġfew er
Ġme ter
Ġstrugg led
Ġh ood
Ġg lee
Ġcar p
Ġr uth
Ġt ales
Ġv ik
Ġpro st
u ki
Ġhy br
Ġrac hel
Ġ Ï
Ġdemol ished
Ġen cl
Ġsuc ceed
Ġere cted
Ġpers ons
Ġtrad ing
Ġstrong er
est y
Ġfour teen
Ġpass ion
ult y
Ġdec isions
Ġconqu est
Ġincre ases
Ġr iding
Ġsh ift
ens is
Ġpar as
Ġinse cts
ack ed
Ġcut ting
Ġcou p
Ġyanke es
od ox
Ġtr acy
Ġ16 6
Ġremov al
Ġf is
Ġh ugh
ut t
Ġex ternal
Ġobject ive
Ġwaters hed
Ġsur pass
Ġmill s
Ġbir mingham
Ġdaugh ters
Ġcompl iment
Ġpurs ue
Ġbl u
je ction
Ġadvert ising
Ġcul min
n at
Ġb og
ac re
Ġdef ences
Ġsuper st
Ġlight s
x ual
Ġwar fare
Ġbur ial
Ġdeter ior
Ġbob by
g ie
Ġdevelop ers
aver y
Ġexact ly
f olk
ar o
Ġ10 9
Ġob ama
Ġkill er
Ġoverw hel
Ġconcent ration
Ġd enn
el ed
Ġcomp rom
Ġres ol
Ġdiscover s
Ġgri ff
Ġmerc ury
om p
Ġorgan ised
Ġmagaz ines
l ock
Ġf ate
Ġl ip
Ġbac ter
Ġfoss il
f ts
Ġal tered
Ġsp ur
Ġdefend ing
Ġrang es
Ġbudd h
Ġm ant
Ġv enue
k h
Ġwealth y
Ġemploy ment
Ġhydro gen
Ġhud son
er b
Ġelect rical
Ġg osp
Ġlov ed
Ġf old
Ġapproach ing
Ġd all
Ġev al
Ġdeb t
Ġexerc ise
Ġarm oured
Ġc ed
se ason
ct r
Ġkar l
Ġadvent ures
Ġra ids
zz le
ch a
Ġestablish ing
Ġsele ct
Ġexpos ure
Ġway ne
Ġinvest ment
Ġcomment ary
Ġlim its
Ġheart s
Ġmcc artney
Ġmadag ascar
Ġt ong
Ġprof it
Ġm ood
Ġsh ak
Ġconnect icut
Ġjur isd
ris es
Ġj up
Ġconnect ing
Ġaggress ive
m und
Ġv anc
Ġhen ce
Ġcent ers
Ġep ic
Ġmat ure
Ġgod s
Ġpart ial
Ġarchitect ural
Ġqual ifying
Ġon tar
r ams
Ġpar ach
Ġl iv
id en
Ġout d
Ġcanter bury
Ġontar io
Ġpro ve
Ġfr iday
Ġmor rison
Ġsl ip
Ġl or
Ġtr ick
ens ively
Ġindic ating
Ġdw arf
Ġg ren
Ġon going
Ġex ter
Ġed ited
Ġmark ets
Ġdeter min
Ġtravel ing
Ġnapole on
Ġarrang ements
Ġextr at
Ġis ot
Ġsh orter
Ġrad iation
Ġimpro vement
Ġwithdraw al
Ġannounce ment
ard o
ou ver
Ġsult an
Ġun less
au x
Ġvol umes
Ġcelebr ated
Ġappropri ate
p y
Ġthe ore
Ġstation ed
Ġevac uated
Ġpr uss
Ġdissip ated
Ġacknowled ged
Ġextrat ropical
Ġh oney
Ġput ting
Ġpred ict
Ġbom ber
Ġprecip itation
Ġacou stic
ro us
Ġsc iences
Ġper mitted
Ġsl avery
Ġsurv ival
Ġt ube
Ġd ict
Ġcl er
Ġprepar ations
if ies
Ġdiscuss ion
Ġreal ized
Ġsil ent
Ġn urs
Ġre nd
Ġyoun gest
Ġt na
Ġinit iated
Ġdub bed
Ġplac ing
ip h
Ġgrad uated
ca a
l ain
o ons
Ġkill s
b ow
ang er
Ġhost s
ef a
Ġpot ter
Ġrecover y
Ġphotograph s
Ġvo ices
Ġdisappo int
Ġc ort
Ġhard y
Ġindust ries
ad i
Ġmc m
Ġw is
Ġfle ming
Ġtransl ation
Ġpar am
Ġter r
Ġgrad uate
Ġk on
it is
Ġtr uck
Ġhyp othes
Ġu efa
Ġg ary
sh ore
ul ous
Ġatt itude
Ġ15 2
ues e
Ġre he
Ġvanc ouver
Ġrequ ires
Ġstrong est
Ġconv entional
Ġaff ili
Ġburn ing
Ġconfron t
Ġorigin ated
Ġvoy age
Ġestim ates
it udes
Ġv amp
Ġjup iter
as er
Ġrep orter
pl ed
Ġhar mon
Ġtrans it
ament al
h ard
Ġst ol
hip s
Ġrefer ring
Ġtub es
Ġt rough
Ġkn ock
Ã© t
Ġdon ated
Ġson ic
Ġex ha
Ġme nd
Ġexclus ive
Ġech o
Ġn erv
Ġed in
Ġdev ast
Ġr us
Ġend ors
Ġtour s
Ġsupp lement
Ġexper t
Ġspec imen
Ġsign ature
Ġr p
Ġ10 4
Ã ¦
Ġe ug
Ġcolle agues
Ġclos est
h ous
it ively
Ġpar ody
Ġgu inea
aut ical
Ġminor ity
Ġsout heastern
Ġpak istan
ing ham
Ġpromot ional
Ġax is
Ġindic ates
Ġbe aring
Ġdec ide
Ġc ord
Ġhe y
ov en
Ġk ap
Ġmon te
Ġdr inking
Ġearthqu ake
Ġrec all
Ġ17 3
ĠÃ¦ thel
re p
Ġl ac
Ġsc attered
Ġportug uese
Ġw ool
Ġman or
Ġvis its
Ġ186 0
Ġbrad man
Ġout f
Ġleg it
Ġchalleng ed
Ġlu ke
Ġattend ing
Ġdens ity
Ġc raft
iv ation
Ġheav en
in ces
Ġal ice
Ġlaw yer
Ġconcent rated
Ġgat hered
c r
Ġmer ely
Ġus ers
Ġprogram ming
Ġemphas is
Ġcollaps ed
Ġident ify
Ġcru ise
Ġdw ight
Ġmor ph
Ġtradition ally
Ġcoal ition
p ers
Ġover lo
Ġp am
Ġterrit orial
Ġsuppl ied
à ¸
Ġn caa
Ġgovern ments
Ġhan na
c ase
Ġd ale
Ġann ually
Ġscreen play
Ġdemocr ats
Ġcot ton
Ġo v
ul ted
ur ation
Ġind igen
Ġ189 3
Ġprincip les
Ġartific ial
m ers
ad ier
Ġachie vement
Ġb eng
Ġbar n
Ġdev il
Ġcous in
Ġelect ro
Ġphot ography
Ġsac rif
Ġt ai
Ġc ash
gr aph
claim ed
Ġc elt
ell o
Ġportra it
b al
Ġprov inces
Ġlaw su
Ġ189 6
Ġalph a
Ġst al
so ft
Ġprison er
n ia
Ġun com
Ġpr ices
Ġpred ators
Ġopt im
Ġdo ctr
Ġf ed
Ġoff ense
Ġchem istry
Ġhamp shire
ot te
Ġaf ghan
Ġol iver
Ġdeclar ation
Ġse ized
Ġter rain
Ġbo om
Ġaccompany ing
Ġedin burgh
Ġtal ks
Ġapplic ations
Ġto pped
Ġcompet ing
Ġp ond
Ġfail ing
Ġ ig
and y
Ġreinforce ments
Ġindigen ous
ag ger
Ġturn er
Ġinvestig ate
Ġvel oc
Ġre verse
Ġmos c
f eld
Ġur anium
Ġ12 7
Ġunivers ities
Ġst uff
Ġse nding
Ġmay a
Ġportray al
Ġ189 8
Ġsm art
Ġgl en
Ġten ure
Ã¼ r
Ġrang ers
Ġpen et
Ġvictor ian
Ġhe ir
Ġch ord
ir m
Ġbroadcast ing
Ġg az
Ġout put
Ġrev enge
p in
Ġn u
Ġreg ime
Ġ35 0
Ġreconst ruction
Ġ17 2
Ġexper iments
Ġc ros
Ġcons olid
Ġvolunte ers
b u
Ġbene ath
imet res
Ġt ap
Ġk an
Ġflood ed
Ġcertain ly
Ġtermin al
Ġrecur ring
Ġgu id
Ġhit ting
Ġtrou b
it i
Ġju ven
Ġprofess ion
Ġgodd ess
Ġd ual
Ġy am
Ġshar ks
Ġbranc hes
ak s
Ġargent ina
Ġ11 1
Ġcontrib ution
Ġl av
iet h
Ġred es
Ġobs c
Ġsus pect
Ġvot ing
Ġyor kshire
Ġhe s
Ġce ased
Ġlord s
Ġral ph
id al
Ġap oll
Ġassemb led
Ġimag ery
Ġcra ig
Ġsp aces
Ġi bn
Ġtrib e
it ch
Ġsp y
Ġtex ts
Ġquestion ed
Ġsongwrit er
Ġj ama
ell ation
Ġr io
Ġstr ange
Ġhy per
Ã °
Ġdec ay
Ġge nder
Ġhistor ically
g le
Ġsm oke
Ġmas ters
Ġdrum mer
Ġrev ised
Ġcomment ing
Ġimp ression
Ġinf rast
Ġunderw ent
crib ed
Ġc able
Ġh ast
Ġcon ce
Ġen force
Ã© s
ows ki
Ġrefle ct
Ġd ors
Ġvir us
Ġjer ry
Ġel ig
Ġst ops
Ġchristian ity
Ġcompon ents
im p
Ġdestroy ing
Ġmillenn ium
i ary
Ġre ward
Ġre organ
ay an
Ġser ge
Ġredu ction
Ġredu cing
Ġcho ir
Ġcompon ent
ov iÄĩ
Ġrepl ied
Ġdev ices
Ġuncle ar
Ġst amp
Ġ189 9
Ġdur ation
Ġsur ve
r h
Ġn ice
Ġrul er
Ġf ulf
on ian
un c
ham mad
Ġqueens land
Ġtri um
Ġappro aches
Ġcoll ins
Ġconsist ent
olog ies
at ra
Ġmar ge
Ġident ical
Ġreve al
Ġmar ines
Ġmultipl ayer
Ġand re
Ġturn p
Ġbuff alo
pl er
Ġambass ador
ra wn
Ġsam ples
Ġco le
Ġcor rid
Ġpat ients
Ġgar n
Ġhow e
Ġll oyd
Ġg aming
Ġfin land
Ġhum or
Ġfrequ ency
Ġpropos als
Ġre na
Ġpart is
Ġrequire ments
Ġarr ives
Ġtrad ed
Ġsurrender ed
Ġs ings
Ġd ak
Ġ10 8
Ġinterv ention
ot ing
Ġspok en
Ġlif etime
Ġches s
Ġre ed
Ġf ier
Ġconf lic
Ġb ub
ens ed
Ġm ond
ate ver
Ġnor folk
Ġclim b
Ġplatform s
Ġcon ceived
Ġun w
Ġtur key
Ġhawai i
it ary
Ġpl aza
Ġwin ners
Ġwh atever
Ġresear chers
Ġw ii
Ġspr ings
Ġre jo
Ġdist ant
Ġ16 9
Ġrom ance
Ġdon ald
Ġbur ton
Ġb anned
ric ts
Ġas c
pl ace
Ġrepresent ation
Ġexclus ively
r ates
Ġpract ical
Ġrob in
Ġnich olas
Ġsudden ly
c ott
Ġben ch
Ġconne ctions
Ġt ape
Ġch ore
Ġbel gian
Ġcelebr ation
Ġcr imes
Ġwarri ors
Ġcommand ers
ur as
Ġsty l
Ġ185 0
Ġsub m
Ġfac es
Ġburn ed
g om
r un
Ġwe igh
Ġfin ance
Ġcolle ctions
Ġcontin uous
Ġreb els
Ġbenn ett
ill es
Ġres ur
ib ilities
Ġvar ied
Ġc atherine
Ġdav ies
itar ian
Ġvinc ent
Ġdist ricts
Ġlight ing
Ġcompet itive
Ġpra ising
d les
ph al
Ġmans ion
Ġfl ames
nd a
Ġinv ent
Ġp od
Ġconf idence
Ġshould er
Ġdar win
Ġreact ions
Ġthor ough
g am
Ġb ast
Ġspe aker
Ġgu ild
Ġdisp ers
Ġprogress ive
Ġp on
ist a
Ġman if
Ġlu x
Ġs ample
Ġab use
Ġcamp s
Ġreview ed
Ġsignific ance
Ġlaure n
ic y
Ġadv ised
Ġpri x
Ġtax es
ici ency
n ell
Ġpre st
Ġconsid ers
Ġscient ology
Ġp as
Ġu b
h s
et hel
Ġcomp r
Ġsail ing
Ġboil ers
Ġwor n
Ġinterse cts
Ġtransl ated
Ġhug hes
Ġsh ares
Ġ16 3
Ġvulner able
Ġf ern
Ġpro ceeded
ug u
h aw
d ed
Ġdis char
Ġgirl friend
b orn
o ly
w ing
ac les
Ġshe p
Ġpres idency
Ġharv ard
Ġele ph
Ġjud ges
ter ly
Ġtr ig
ff ield
Ġfilm m
Ġscore s
Ġwit ch
Ġunderst ood
z h
Ġhand led
Ġ189 7
Ġopportun ities
po int
Ġmin isters
Ġmed als
Ġpresent ation
ell or
Ġp all
Ġp airs
Ġcompan ion
Ġge off
Ġmarsh al
Ġmanufact uring
Ġnumber ed
Ġbombard ment
Ġcrop s
Ġinfrast ructure
Ġrival ry
Ġenthus i
Ġphr ase
Ġd s
Ġrac ial
Ġfair ly
Ġos lo
Ġb ind
Ġsw iss
Ġobserv ation
Ġsax on
Ġfl ows
Ġn autical
Ġ10 6
Ġpet ition
Ġg if
Ġrock y
Ġindones ia
Ġf oster
it ely
Ġrespect ive
Ġk ate
Ġv ital
u ating
Ġex ceed
Ġdesc ent
Ġexpl icit
Ġmosc ow
Ġcle ared
Ġcycl ones
Ġgross ing
Ġp eng
Ġtransport ed
Ġj tw
Ġse al
Ġpro of
Ġinter medi
Ġgr ap
Ġcommission er
Ġjtw c
ig s
Ġass um
Ġtrad itions
Ã¶ n
Ġknight s
Ġextend ing
Ġcamer on
Ġrehe ars
Ġc ards
en cing
Ġex ile
Ġsp ong
Ġout l
Ġv l
Ġunl ik
Ġprotest s
st s
str ong
Ġtel es
Ġrein forced
Ġh ide
ro ph
Ġ16 7
Ġm im
Ġmyster y
Ġpitts burgh
Ġ15 4
v ant
Ġdr ain
Ġstruct ural
Ġto ured
Ġel ite
Ġnon ethel
Ġcut s
Ġton nes
Ġnonethel ess
Ġfe e
Ġcomm enced
Ġdr ink
Ġcharacter istic
Ġrand om
Ġto ler
Ġex ists
Ġtro op
Ġtre nd
Ġdecor ated
Ġparticip ation
er ce
Ġr ivals
Ġter ry
Ã «
Ġt iger
Ġrel atives
Ġmaint aining
Ġk ane
Ġste ep
Ġrest ore
Ġg ift
Ġal aska
Ġtest ed
Ġnav igation
Ġf ert
Ġn ur
Ġd ri
Ġd aw
ber ry
Ġcol um
Ġwithd rawn
Ġcan yon
Ġvict im
Ġwall ace
Ġans wer
Ġanton io
h um
Ġthe ories
Ġd il
Ġrel ocated
Ġb in
ing e
o a
Ġcl an
Ġabs ent
Ġb ert
Ġsk ill
Ġreform s
Ġprepar ing
Ġturnp ike
Ġm p
Ġg est
Ġwar nings
Ġsen ators
cul es
Ġguer r
Ġe ating
Ġair line
Ġc el
Ġe is
Ġhon ours
Ġb ib
Ġp se
Ġcos m
Ġinqu ir
Ġtox ic
Ġh ollow
Ġmicro soft
Ġd um
as hes
Ġste f
Ġmonth ly
Ġsy ria
Ġwrit ings
min ster
Ġn ord
ces ter
Ġrich mond
or ia
her s
Ġdispl aced
it ious
Ġup set
Ġrepublic ans
wor ld
Ġsculpt ure
Ġempt y
Ġunex pected
ill o
Ġco aches
anc he
Ġarchae ological
Ġcl othes
Ġcar ries
Ġman ip
Ġinterview s
Ġmagn itude
Ġamaz ing
ar io
Ġinter action
Ġheavy weight
Ġmix ing
Ġf itz
Ġbl o
Ġconcer ning
Ġshe ffield
Ġsus an
Ġans w
Ġlar ry
Ġd ying
ah a
Ġtele graph
Ġvari ations
y an
ro oms
Ġse ga
Ġlight ning
Ġmyth ology
Ġmalays ia
Ġw w
Ġv it
Ġcour ses
ash i
Ġinterpre ted
Ġdread n
f c
is ive
av ia
Ġne v
Ġbec k
Ġdisplay s
Ġhurric anes
Ġvill a
Ġlear ns
Ġcham bers
Ġisrael i
Ġmeteor ological
Ġdall as
a ired
h al
Ġ189 5
Ġcommerc ially
Ġjeff erson
Ġid ol
Ġmil k
Ġjohn ston
Ġconf usion
Ġarg uing
Ġadvert is
am an
Ġaf t
Ġdes per
Ġpse ud
Ġg olf
old s
Ġdem o
Ġpark way
Ġess entially
Ġdo ors
Ġblock ed
Ġfle x
Ġp ock
Ġto oth
Ġem my
Ġsal ary
Ġseg ments
Ġow en
Ġdin ner
Ġvolcan ic
Ġj ess
Ġvar iation
Ġlou d
Ġcorpor ate
Ġclar ke
Ġair ing
Ġconstit u
Ġf bi
ades h
Ġunc on
Ġaust in
Ġhero es
Ġreg iments
Ġ17 1
Ġfac ulty
Ġbry an
Ġlo ver
Ġshif ted
Ġcol ors
Ġmy c
Ġgrand father
Ġcy rus
be at
Ġcost ume
Ġaccur ate
Ġrele g
Ġintern ation
p ot
Ġcirc ular
Ġunlik ely
Ġac re
Ġed itions
Ġsw ing
Ġoppos ing
Ġshall ow
Ġre h
Ġd uch
od a
Ġcol ours
Ġst all
et ed
Ġne il
Ġsusp ic
Ġemot ion
Ġpars ons
Ġp ent
Ġspons ored
pr ised
Ġbreak s
Ġcor p
Ġval id
Ġbou lev
Ã ¥
Ġang ry
n an
Ġc attle
ab e
Ġ10 2
Ã ¢
Ġarm strong
le ans
Ġ12 1
Ġlast ing
Ġdanc ers
Ġcomm erce
ke eper
Ġreb el
Ġw ished
Ġdan ish
Ġchel sea
Ġt ies
Ġg on
Ġworld s
Ġx x
Ġa ber
ic ing
Ġsur prised
Ġbrazil ian
le te
Ġb ible
ag i
Ġem br
Ġque bec
at ched
Ġg ru
Ġmck in
ro t
on ium
Ġmac ar
Ġprincip le
Ġdivers e
Ġtick ets
Ġdiplom atic
en ess
uss ion
Ġsn ake
Ġdeep ly
Ġsust ain
Ġrecre ation
he ll
Ġnew ton
Ġka iser
Ġw art
Ġexam ination
Ġt ension
Ġc av
is ons
as ters
Ġg amb
Ġham mer
Ġeff icient
Ġc ott
Ġadv ancing
Ġpit cher
Ġfer r
Ġh d
Ġnorth western
Ġpros per
Ġin clusion
Ġst im
Ġcivil ians
Ġca es
Ġn ose
Ġn aming
Ġop ens
Ġdra fted
Ġcra zy
Ġdisturb ance
Ġlin er
Ġre vel
Ġbi ological
Ġparach ute
Ġpurs uit
Ġkil ome
Ġconstant in
Ġt ir
Ġbe ating
Ġblack s
Ġtrav elling
Ġin e
ort ion
Ġshe ep
Ġem er
Ġrebu ild
Ġpl um
Ġf i
Ġre ich
Ġham let
w right
ars h
Ġhop ing
Ġdre ams
Ġwilhel m
Ġstol en
Ġdi oc
Ġconcur rent
Ġdivor ce
Ġl ag
Ġor leans
ose xual
Ġhapp en
Ġin fer
Ġm g
Ġwh ale
ul es
ĠâĢ ²
Ġrat io
Ġsport ing
en on
Ġm ild
Ġal g
Ġori ent
Ġdire ctions
Ġprom ise
Ġstre ak
Ġprocess es
Ġnav ig
Ġinsur ance
ab ilities
Ġut ah
Ġsettle ments
Ġsubstit ute
Ġver te
cast le
Ġpar ad
Ġ15 8
Ġ186 1
n or
Ġpot entially
ur i
land ers
Ġloc ally
Ġhar old
Ġvill ain
Ġquar ters
Ġchalleng es
Ġmonaster y
l ane
Ġd ense
Ġch ile
ash a
Ġfif a
in is
it ted
Ġ188 9
Ġserb ian
Ġtast e
it ate
Ġre ct
ik o
Ġbeat en
Ġequ ally
Ġfund ed
r ac
Ġy out
Ġchart ed
Ġsent ence
Ġcolum ns
i qu
Ġp ump
Ġrock et
Ġproport ion
Ġconspir acy
Ġl ift
Ġev ident
Ġfollow ers
Ġbenef its
Ġrook ie
Ġr ains
Ġaf ford
Ġman age
Ġco x
Ġdel ta
Ġknow s
Ġalt itude
Ġt et
Ġb ore
Ġen zy
Ġcan on
Ġke ys
Ġexpl aining
Ġscand al
r in
Ġoff shore
Ġ16 1
Ġparticip ants
Ġmu hammad
Ġm erged
ch i
Ġ189 4
re hens
Ġper c
Ġdis b
Ġrece pt
Ġadmin ister
Ġrun ner
Ġext inct
Ġer ror
Ġt ill
Ġc bs
Ġse min
Ġab u
Ġrequ iring
Ġ100 0
Ġopt ions
Ġstu art
b ri
Ġcap s
Ġboulev ard
re ated
Ġjurisd iction
v ised
Ġnov a
Ġ16 2
Ġkid n
Ġpersu aded
Ġcon ven
Ġmem oir
Ġconstant ine
Ġ11 3
Ġveter an
Ġl ud
Ġty ler
Ġoper ates
Ġa a
Ġsimilar ities
Ġrif le
Ġx ii
Ġbor row
Ġwitness es
Ġyout ube
Ġ189 1
Ġjud icial
Ġimplement ed
Ġpregn ant
Ġdev oted
Ġcounter p
Ġfarm ers
Ġreserv oir
Ġw isc
Ġg aining
ons in
Ġeduc ated
Ġsocial ist
Ġveter ans
ro v
am pton
Ġdiv ine
Ġparal y
Ġkne e
Ġapoll o
Ġh i
Ġv in
Ġbl ast
Ġadd ressed
Ġprot otype
Ġiniti ative
c ription
Ġt uck
on ica
Ġstat ements
Ġm cl
m aster
Ġre ef
aff e
Ġmass acre
Ġlin ks
Ġvirt ually
Ġbrook s
Ġindones ian
Ġaccommod ate
Ġo z
Ġstri kes
Ġwild life
Ġb ent
Ġfore ver
Ġori ented
Ġcard iff
Ġdisord er
Ġto ols
Ġperson a
Ġprote ins
Ġobl ig
Ġt ent
at ers
Ġfe ared
Ġweak ening
Ġcateg ories
Ġcompl ained
Ġod d
v et
her ic
Ġfl av
Ġbound aries
Ġfavour ite
Ġ15 6
cl iff
Ġjo an
Ġ189 2
pie ce
oc ation
ia h
Ġnick el
Ġam id
Ġn an
ment ed
Ġke en
Ġ13 5
h ill
Ġan arch
Ġkn ocked
bo ards
Ġch rom
Ġ18 00
Ġpe as
Ġstud ying
Ġtem po
Ġthreat s
Ġtact ical
Ġh ipp
Ġhost ile
Ġpan zer
Ġt ide
Ġso x
Ġtr apped
per t
Ġwisc onsin
Ġa ar
Ġk y
Ġ24 0
en os
Ġdeal ing
p ine
Ġk yle
Ġext ensively
os ph
ri fic
Ġmar it
Ġhonor ary
Ġm aps
Ġz h
Ġthro wn
Ġmont gom
usal em
n els
Ġboy friend
Ġd anny
Ġstret ch
osa urs
iz er
Ġso ap
Ġhen ri
g ow
g us
Ġpres erve
Ġmid night
Ġemb arked
Ġiv an
Ġmys elf
Ġgoth ic
Ġf ires
Ġrid er
Ġislam ic
Ġjoh ann
omet ric
Ġs ized
Ġâ ģĦ
Ġgalax y
Ġgosp el
Ġconflic ts
Ġsent enced
Ġtun e
Ġhighlight ed
Ġre y
Ġ15 3
Ġhon ors
Ġjer usalem
Ġo st
Ġty r
as hing
Ġsch um
Ġjust in
Ġcitiz en
Ġtrib une
Ġus age
Ġtas ked
Ġteam mate
Ġnight s
back s
Ġwarship s
Ġtig ers
Ġtour ism
Ġmacar thur
Ġobv ious
r ically
Ġres olved
Ġdocument ed
Ġveloc ity
Ġbo eing
oth y
ĠâĤ ¹
Ġrem ote
Ġtri o
Ġevac uation
et o
Ġpolit icians
Ġlack ing
Ġmach in
Ġhybr id
Ġpart ners
au c
Ġprov isions
Ġf us
Ġab road
Ġ188 8
h op
Ġch ad
Ġsat urn
Ġre ass
Ġint ent
Ġste in
Ġord inary
Ġrenew ed
Ġr ushing
Ġsur p
Ġdisc ontin
Ġregard less
ÃŃ n
Ġrecru ited
Ġl amb
Ġresc ued
Ġscholars hip
Ġass ert
Ġbar nes
Ġdefend ers
f ly
Ġcol ored
Ġexpl ore
Ġdark ness
en burg
ist ent
Ġus er
Ġorth odox
z ing
Ġd imin
Ġencoun ters
Ġbe er
ack down
Ġtele phone
Ġguest s
Ġhous ed
Ġescort ed
Ġamph ib
ling ton
Ġbelief s
j u
Ġro gers
Ġbattle field
Ġauthor ized
Ġp p
am ents
Ġen abled
Ġcompet itions
Ġconsider ably
ro id
Ġrece ives
Ġhel ps
Ġis n
Ġno ise
Ġ188 5
Ġsepar ation
Ġc ats
Ġg au
Ġsc ots
Ġpres ents
Ġbrig adier
uls ion
ur st
uc hes
Ġpurs ued
Ġelabor ate
Ġmontgom ery
Ġin hib
Ġse an
Ġcr ashed
Ġsusp ension
Ġimprison ed
Ġsp o
Ġash ore
Ġpy ram
Ġcon j
Ġtr unk
Ġpr ayer
Ġobser ver
av ed
Ġconf ident
Ġhur t
Ġfront ier
Ġhuman ity
Ġgarn ered
Ġs inking
Ġw are
Ġspec ulation
Ġhand le
Ġinvol ves
Ġthe rap
ol ly
Ġj aw
Ġmon itor
Ġchrist ians
Ġpromot ing
Ġpier re
Ġbill s
Ġpal m
Ġtrail er
e g
Ġin ning
Ġun ve
oc ene
Ġdep icts
Ġd at
Ġch op
od ed
Ġhand ling
am as
Ġbal tic
ĠÎ¼ m
Ġup rising
Ġ97 8
f ar
an im
Ġk rist
ÃŃ a
Ġpu pp
u ters
Ġbatter ies
er ts
ak h
Ġz oo
Ġbrill iant
u z
Ġf ru
Ġback st
Ġbat ted
Ġconfir m
Ġoccas ional
Ġtrium ph
Ġdevelop ments
Ġhop es
Ġfl our
Ġreg ulations
Ġsan ct
Ġarc ade
É Ļ
Ġl aps
oc a
Ġlo ose
Ġcapt uring
Ġremember ed
Ġpir ates
Ġmagn etic
Ġic eland
ov ak
Ġ11 2
Ġur ged
Ġa ce
Ġbe th
Ġle op
Ġsus pected
Ġbreed s
Ġth ames
Ġevent ual
Ġorgan isms
Ġmix ture
Ġthunder storm
Ġgl as
Ġleon ard
Ġinternation ally
Ġmar l
Ġbarb ara
Ġed iting
Ġt int
Ġ14 5
Ġcompos itions
Ġimpress ive
Ġmet ric
Ġlic ense
s ch
Ġdo zen
Ġens emb
Ġow ing
Ġa est
Ġbo oth
Ġtiss ue
Ġc s
en berg
ke e
Ġ186 5
Ġat hens
Ġtru ly
Ġd ug
Ġrail ways
Ġcast les
Ġassoci ate
Ġcard inals
Ġsher man
Ġhoriz ont
Ġs ap
Ġl ions
Ġphot o
Ġch ron
Ġrel ation
Ġre agan
Ġrom ney
Ġly rical
Ġmechan ism
Ġvolunte er
Ġrender ed
Ġdecre ased
Ġthere by
Ġ15 9
Ġ11 7
Ġnat o
Ġdisappo inted
Î ±
Ġpolit ician
Ġchanc ellor
Ġn ancy
z ed
Ġbur g
Ġintellect ual
Ġw iz
Ġcl ip
Ġbu nd
Ġtrack ed
Ġmcc ar
Ġchamber lain
Ġrestrict ions
r ang
Å ¾
ac ing
Ġun n
Ġwar ned
Ġmark ing
Ġorgan ic
Ġconsum ption
Ġinher ited
Ġsh ah
Ġpos itively
Ġcoun sel
Ġupd ated
Ġbe e
Ġen h
Ġmut ual
Ġcustom ers
are st
ubl in
Ġanticip ated
ac o
ag h
Ġball s
Ġern est
Ġhelicop ter
Ġup coming
Ġspok es
Ġswit ch
is ition
Ġdirect ing
Ġinh ab
Ġapp ly
oy s
Ġaccident ally
and o
rib le
Ġcontr acts
Ġmamm als
r age
Ġc um
ch t
Ġk os
Ġgen u
Ġinv aded
m el
Ġmach ines
ud i
Ġsouth western
Ġpat ient
Ġ11 4
Ġ11 8
Ġvol t
Ġclos ure
Ġ45 0
Ġdepend ent
Ġconvers ation
Ġdetect ive
Ġportug al
Ġhe b
un ning
Ġant ib
Ġdeleg ates
Ġconstantin ople
Î ¿
Ġh aven
Ġnew castle
Ġbre ast
Ġassess ment
Ġ Äĳ
ent er
Ġaut o
Ġinaug ural
Ġl ighter
end ed
Ġlod ge
id ia
Ġro ot
Ã© n
Ġread er
Ġfoss ils
Ġmc g
Ġpet e
Ġbrad ley
Ġcharl otte
Ġm ak
Ġgr id
Ġtit an
Ġdeb ris
Ġcorrid or
Ġvo ters
Ġlawsu it
g ue
Ġd ud
Ġr ally
Ġed die
Ġjos Ã©
ner y
Ġconstru ct
rest rial
Ġfund amental
Ġbord ers
Ġc inc
Ġnickn ame
Ġpl ates
ann on
Ġgib ral
Ġbes ides
col m
Ġnep hew
ad ers
Ġun re
Ġtr am
Ġ186 4
Ġaccess ible
Ġgibral tar
Ġeas ier
Ġmer ced
Ġswe ep
ph an
Ġant ar
Ġcorn wall
Ġpsych iat
Ġcomplic ated
Ġinf ection
Ġbo ost
Ġmem ories
Ġoccur ring
a ire
Ġv ick
Ġsp it
Ġpe op
z o
á º
Ġt ib
Ġsher iff
Ġsha ft
Ġsh aring
ant on
ov ic
Ġprel imin
Ġmet re
Ġvers us
Ġche ster
Ġp and
Ġag u
to ok
Ġmole cular
v iew
ild a
Ġheight s
p at
Ġrem ar
Ġles b
Ġsupport s
Ġpartic les
ugh t
Ġfeather s
Ġk az
Ġsl av
Ġx i
ne ys
Ġmal colm
Ġavo ided
w ald
Ġflag s
Ġst er
Ġa j
Ġcur ve
Ġprogress ed
Ġkenn eth
Ġprotest ant
Ġmurd ered
Ġthrow ing
Ġarmen ian
Ġc ena
Ġu pl
Ġrec ruit
Ġeast ward
ed ia
Ġle ices
Ġsy l
Ġdoctr ine
Ġwart ime
Ġp om
Ġi b
Ġnort heastern
Ġshel ter
Ġconsequ ence
Ġic on
Ġautobi ography
Ġosc ar
l u
Ġimp osed
Ġins pect
Ġintermedi ate
v ar
Ġw rap
Ġun t
Ġpun ishment
Ġl ung
Ġintegr ated
Ġt ier
Ġm v
ic on
Ġwal t
Ġun h
Ġprodu ces
Ġreport ing
Ġconv icted
Ġisa ac
Ġ ãĥ
Ġbr is
Ġtour ist
Ġkil og
Ġexhib it
Ġbot an
Ġdepict ing
in ated
Ġnot iced
Ġmich a
Ġped ro
chang ed
Ġm ounts
ro e
et her
ass y
Ġcr ane
Ġexpl oration
Ġdu ck
Ġthreat ening
Ġthr iller
h t
Ġmon it
Ġclou ds
en na
Ġres id
Ġtouchdown s
Ġd ublin
iel der
get t
heim er
Ġ13 1
Ġview ing
Ġ186 2
Ġphilos opher
Ġpeop les
Ġvers es
Ġpost s
Ġvic inity
Ġy es
ell ar
ob a
Ġanne x
Ġse b
Ġhol es
Ġmathemat ics
Ġh ier
ach t
Ġattr action
Ġs aints
Ġf ib
Ġba iley
Ġs ri
Ġline ar
fl ow
h all
t ra
Ġc age
Ġcam b
Ġmel od
Ġundert aken
Ġ Ã©
Ġd ent
Ġshe et
Ġbr ut
Ġrele asing
Ġcour age
Ġremov ing
Ġsh in
Ġtenn is
Ġs ulf
Ġhe ath
Ġhe d
Ġ10 7
Ġdivers ity
Ġjournal ists
Ġign ored
Ġwarri or
z es
Ġm k
Ġbl ame
Ġcre am
Ġconstant ly
Ġdecre ase
Ġ å
or f
Ġcoach ing
Ġgab ri
Ġse ar
Ġexec ut
b ie
h o
en cer
Ġcl ergy
Ġap olog
Ġent ert
Ġmart ial
Ġl an
Ġtom my
Ġpredomin antly
f ast
Ġfr act
Ġreal istic
Ġfac il
Ġexpand ing
g Ã©
Ġcinc inn
cc a
Ġsub d
ane ous
Ġf are
Ġsp ell
ire ct
Ġrem ind
Ġant hem
Ġeight een
Ġa ux
ul k
Ġsacrif ice
he ld
pe z
Ġlu ft
Ġn s
Ġtw itter
Ġspring field
Ġ15 7
Ġfort une
Ġcongress ional
Ġserb ia
Ġmarit ime
g ent
ap ing
Ġup s
Ġalbert a
Ġ22 0
Ġk ru
Ġcont acted
Ġfocus es
Ġd olph
Ġpark ing
Ġdisappe ared
Ġen orm
Ġgener als
Ġtwent ieth
Ġrelie ved
Ġa rose
Ġinc red
Ġbar rier
Ġgrow s
Ġindepend ently
Ġbul gar
Ġn es
Ġis le
Ġple ased
Ġpropag anda
Ġdo ctors
Ġ184 0
Ġteacher s
f ound
Ġa ur
um ped
Ġmeas uring
Ġtai wan
Ġb il
Ġcent ered
Ġchurch ill
Ġcreat ure
Ġexplan ation
ol ia
Ġcould n
Ġsent iment
Ġst ability
Ġen com
Ġsac red
Ġass erted
Ġmas k
Ġmusl ims
Ġprelimin ary
Ġh ack
Ġmet ac
Ġest ates
Ġne pt
Ġcanc eled
Ġfried rich
ad al
Ġcomp iled
Ġmal ta
Ġox id
Ġt ren
Ġj ake
Ġro ster
Ġyugoslav ia
Ġpar ade
Ġspeed s
han ced
Ġindu cted
a is
en er
Ġmon sters
Ġsit uations
Ġcelebr ate
Ġcollabor ated
Ġsubt ropical
Ġsh iva
Ġbut t
Ġen hanced
Ġroad way
Ġpay ing
Ġabsor bed
Ġlocomot ives
it ure
Ġinc idents
Ġbra h
Ġwag ner
w s
Ġto l
Ġcontin ent
Ġscient ist
Ġlay ers
Ġs aving
Ġmain e
Ġgrav ity
Ġexter ior
Ġre iss
ul um
Ġwor se
Ġachie v
Ġc ale
am ine
Ġch uck
Ġpl ains
ect ive
Ġfocus ing
Ġvary ing
Ġa ided
g ans
Ġbul let
av an
ah l
Ġsubmar ines
os ion
Ġbet ray
Ġgen res
Ġappe als
Ġpublic ity
Ġcincinn ati
Ġt um
Ġs ut
Ġto b
ic us
oc ol
Ġnet works
Ġm aced
Ġbur ke
Ġnorm andy
Ġtarget ed
Ġle o
Ġreg ist
Ġ12 6
Ġfort ifications
Ġdiscuss ing
Ġrit ual
Ġoliv ia
Ġ13 2
Ġbrown s
Ġangel ou
re ls
Ġir reg
Ġafghan istan
ig a
Ġbet a
Ġscout ing
Ġirreg ular
Ġt ensions
el in
Ġcreat ures
Ġdisl ik
Ġat op
Ġinter c
Ġb ars
as m
Ġle eds
Ġve gas
ett a
Ġdro pping
Ġd ive
Ġte a
Ġmar ched
Ġrem inis
Ġposition ed
Ġfun gus
let t
Ġmad ison
Ġpreced ing
Ġh ir
Ġto ugh
Ġ11 9
Ġ188 7
rit ic
Ġcrit ically
Ġconf used
augh ter
Ġsum mon
Ġswe pt
Ġkit chen
Ġacclaim ed
Ġtreas ury
Ġelev ated
Ġresign ation
Ġabsol ute
h in
z ac
Ġed mund
Ġtrans mission
Ġcomprom ise
Ġa ub
Ġte nder
Ġmechan ics
£ o
ed a
Ġp i
Ġle agues
Ġbut ler
Ġpok Ã©
id d
Ġhel en
Ġgl ad
Ġconcept s
Ġcinem at
Ã ´
Ġm entions
ros cop
Ġ186 3
Ġp ly
Ġme ga
Ġeag les
Ġanch or
Ġcapit ol
Ġb old
Ġsp ots
Ġres ort
Ġbrig ades
or ious
Ġpo ver
Ġcar r
Ġcor ruption
Ġvi ii
Ġ188 6
Ġspace craft
Ġbond s
Ġgreg ory
Ġsm oking
ron t
Ġarg uments
Ġpro xim
Ġfl ot
Ġvent ure
Ġmush room
Ġm am
Ġj na
ip her
n n
Ġwork er
Ġsuggest ion
Ġathlet ics
Ġsail ors
Ġpover ty
h art
Ġst ored
Ġgro ve
umber land
im ony
Ġmanag ing
Ġwal ks
Ġml b
Ġmanif est
Ġschum acher
Ġst air
Ġcon ced
Ġdev ot
Ġatmosp heric
Ġassass ination
Ġse am
Ġgr aves
Ġfar mer
Ġbrook lyn
Ġcorrespond ing
Ġcondem ned
ab a
Ġfl own
Ġph yl
Ġdenn is
Ġor ton
Ġtr ap
Ġir an
Ġmiss ile
in stein
st an
Ġfl oren
Ã¶ r
Ġjul ian
Ġe man
le ted
ac ular
Ġhis pan
Ġlo aded
Ġr ar
Ġmar ath
ission ed
al t
Ġwid ow
Ġorchest ral
Ġ ËĪ
Ġh ass
Ġis ab
Ġep it
Ġsl am
Ġmo ist
in ter
Ġint r
Ġtre m
Ġphys ically
Ġprinc eton
ed ing
Ġin ver
ro gen
Ġtorpedo es
Ġmig ration
Ġinstru ctions
Ġa ria
Ġdel ight
Ġpur ple
Ġinh g
Ġrot ation
Ġret reated
Ġdet ected
Ġceremon ies
Ġmckin ley
Ġf ing
Ġh ok
Ġbl amed
ug g
Ġchalleng ing
Ġpreserv ation
Ġc af
Ġbut ton
Ġpr ide
Ġparticip ating
Ġgust s
Ġm ouse
Ġn athan
Ġbe au
Ġf inger
Ġknow ing
Ġhub bard
Ġdisb anded
Ġm ull
Ġsu e
Ġflu or
Ġnas a
Ġconscious ness
Ġachiev ements
Ġn ass
Ġbar cel
Ġ188 4
Ġstead ily
Ġcompos ers
Ġm ock
Ġag encies
Ġdis abled
Ġfl esh
Ġmess ages
Ġcalc ulated
Ġcomp rehens
Ġemerg ing
Ġvari able
Ġveget ation
Ġdist inction
Ġpost er
Ġcommit ment
Ġhol land
Ġmont ana
m ill
Ġan ts
Ġsum mar
Ġdark er
Ġglas gow
e ter
om on
Ġad ri
iz z
Ġgen esis
Ġsoc i
Ġmap le
Ġprint ing
ro d
ag ers
Ġsm ackdown
Ġ10 3
Ġpost p
Ġcon vey
Ġse eds
Ġfin est
Ġqu it
aj a
ust ers
Ġcan ucks
Ġaust ro
Ġconv ince
ett es
Ġreserv es
Ġsing ers
Ġconf ig
Ġelect oral
Ġven ues
Ġm our
Ġbr ings
Ġreb ounds
Ġv est
Ġqu oted
Ġopin ions
Ġsole ly
Ġin tend
Ġbel le
Ġmot if
Ġend ang
Ġmyster ious
ar us
Ġcondu cting
Ġpil gr
Ġsongwrit ing
Ġne uro
Ġfav ored
Ġcooper ation
Ġgent le
Ë Ĳ
Ġg ig
Ġwh ales
Ġher bert
i ens
ag g
Ġmod est
Ġphill ies
o i
s is
Ġthe odore
Ġco pe
Ġrad ius
Ġexam ined
Ġcelt ic
Ġgrap hic
Ġpock et
le m
Ġtr il
Ġnat urally
Ġwalk ed
Ġis les
Ġs od
Ġhe in
Ġprior ity
Ġess ay
Ġind irect
Ġwest minster
Ġevery body
Ġtheat ers
it als
ak u
Ġden ver
Ġelig ible
Ġrena issance
on so
Ġb ce
Ġro uting
Ġtem ples
Ġround ed
Ġtint in
Ġa ids
Ġdep ot
Ġtrack ing
Ġpat ro
d am
Ġh arsh
Ġrem ake
ll a
Ġbar k
Ġhom osexual
ish ops
Ġdec isive
Ġcur ved
Ġscre ens
Ġ187 7
Ġvolcan o
Ġaware ness
Ġshop ping
Ġfrag ments
Ġg ast
Ġj in
Ġli bert
Ġ12 9
Ġdem ographic
Ġextra ordin
ul u
Ġpo e
Ġaut hen
Ġtax onomy
Ġpr ay
Ġnational ist
Ġ13 8
Ġ23 0
Ġprompt ing
is ations
Ġph on
Ġ187 6
Ġconsider ation
Ġlog o
ard ed
ab ad
Ġmar qu
Ġ12 2
Ġleg ion
Ġpost hum
Ġfar ms
Ġmerced es
Ġver n
Ġfa ult
Ġ Ð
Ġcomp aring
Ġ11 6
Ġang les
Ġpen al
Ġspect rum
Ġl az
Ġn em
Ġy d
Ġman uel
Ġthem ed
Ġgl ou
Ġheav ier
Ġcontr ad
Ġbul garian
Ġnev ada
Ġnew found
Ġcons ens
Ġperform ers
Ġelement ary
Ġl ut
Ġpro claimed
Ġun off
Ġafter ward
Ġman ning
Ġlike wise
Ġposs essed
Ġpriv ile
ie v
Ġplay able
Ġem ig
Ġtour ists
Ġagre es
Ġconnect s
Ġaccompl ished
Ġdynam ic
i ors
Ġde er
Ġalb any
Ġ13 4
Ġron ald
Ġvirt ual
Ġexpect ations
ad d
Ġper cy
Ġref uses
Ġsearch ing
Ġfrig ate
g ary
at isf
Ġcomment ators
Ġpsych ological
umber ed
Ġand r
Ġsign als
Ġcarl os
Ġcon fer
Ġro sen
Ġrefuge es
Ġensemb le
as ia
Ġins uff
Ġcub ic
Ġsens itive
Ġconsequ ences
Ġmunicip ality
Ġkilome ters
Ġsurp rising
Ä «
ro c
Ġcomp rising
Ġott awa
Ġserge ant
Ġm ast
Ġn ok
om ing
Ġlist ening
Ġuk rain
Ġs ans
ist ical
Ġcomm ons
Ġout come
iz ers
Ġn ig
ac c
Ġcon g
Ġdr ake
Ġdisc our
á» ĩ
Ġdiscip line
Ġst om
ol an
Ġj oke
Ġdep iction
Ġdesc ript
enn ial
Ġ183 0
Ġtransform ed
Ġencom pass
Ġop ined
Ġintellig ent
Ġharv est
Ġr ational
Ġgu it
Ġmil an
Ġbanks ia
Ġexerc ises
Ġdepos its
Ġm isc
Ġab ra
Ġpione er
Ġproced ure
Ġn ak
Ġpl a
Ġcelebr ity
Ġemot ions
Ġwid th
Ġproper ly
Ġdeliber ately
Ġmicha els
Ġexecut ives
ĠpokÃ© mon
Ġbarcel ona
Ġ187 5
Ġpay ment
Ġweak ness
Ġcol in
Ġland mark
Ġlad ies
Ġbarr acks
Ġs aga
Ġgr im
Ġph osph
Ġchief s
Ġkey board
Ġreluct ant
Ġadj ust
Ġg ale
ch y
Ġunder water
Ġprocess ing
Ġstead y
Ġfab ric
Ġtw e
ass ic
Ġform ations
ank a
Ġstr ings
at ar
Ġacc us
att y
Ġ12 8
Ġrout ine
Ġch al
ri ans
Ġen ix
Ġper mit
Ġce o
Ġcontrib ute
Ġlat est
Ġdial ect
Ġcompliment ed
Ġin ex
ul ates
Ġsil ence
st ar
ig hed
Ġmid dles
Ġray mond
Ġextend s
Ġloy alty
Ġgau ge
Ġto ol
Ġun anim
Ġmet als
Ġvar ies
re en
Ġe cl
Ġj ets
Ġch ip
Ġestim ate
Ġtrib ut
Ġenl ar
Ġhend erson
Ġgather ing
am ation
Ġan ger
Ġher b
Ġbow led
Ġfear s
Ġphilos oph
Ġguit ars
Ġon wards
Ġem ma
Ġfar ming
Ġexpress way
ick ing
Ġcolle cting
Ġ188 3
Ġvocal ist
Ġparaly mp
Ġd ome
Ġst ing
et ary
Ġpro ud
amp a
Ġcar ved
Ġroman ian
Ġphot os
Ġg em
Ġal am
Ġch ains
Ġsp ite
Ġpol es
Ġcomple ment
Ġcontrib uting
Ġcontem por
he rent
Ġf ile
Ġst aged
et a
Ġmill ions
Ġ188 1
c ot
or ic
ch w
Ġâ Ļ
Ġroll er
Ġal umn
um i
Ġren t
Ġber m
Ġcompl aints
Ġinstrument ation
Ġreve aling
Ġsand y
Ġin put
Ġst abil
Ġbl air
Ġfun k
Ġdise ases
a un
Ġass ets
Ġdam aging
Ġconsist ently
app a
Ġlem urs
Ġcoff ee
Ġcame o
Ġsymb ols
l ake
y ers
Ġd op
Ġun aware
ik i
Ġrichard son
Ġr ag
Ġcl ause
Ġbl og
Ġven ice
Ġp ont
Ġfer din
Ġenviron ments
Ġlanc ash
Ġlocomot ive
Ġnerv ous
Ġjama ica
Ġp ix
Ġus her
Ġmon k
Ġche n
Ġperman ently
Ġphenom enon
Ġpolit ically
Ġ186 9
Ġbed s
Ġbelong ing
Ġpow ell
Ġjump ing
k ar
Ġpow der
Ġprevent ing
Ġstay ing
Ġdun can
Ġadvis ory
em a
ant ed
act ic
Ġ15 1
Ġsix ty
Ġcal gary
Ġimpro ving
Ġdisp uted
Ġlancash ire
Ġbe ver
Ġr ays
ip er
Ġmid way
Ġrad i
d an
Ġl amp
Ġdet achment
Ġperc ussion
Ġgener a
Ġaccept ance
Ġrefere e
Ġdisp atched
Ġch lor
Ġ186 6
Ġeru ption
Ġteles cope
Ġn g
ater n
Ġver onica
Ġless ons
Ġwant ing
Ġce iling
Ġchap ters
Ġeru pt
Ġretrie ved
st own
Ġal ly
Ġcolle ges
Ġhabit ats
Ġhypothes is
Ġpatro ls
y ll
ad ows
Ġbe nd
ri ages
Ġfl oyd
Ġfact ion
Ġobject ives
Ġrod rig
Ġrequire ment
Ġswit ched
Ġrede velop
i ar
he ning
Ġfant astic
Ġblock ade
Ġwitness ed
Ġfra ud
Ġconsens us
Ġst ir
Ġfr ances
Ġ75 0
Ġunsuccess fully
Ġinteract ions
Ġarg ue
Ġiron cl
Ġf art
om ed
Ġbe ij
Ġan x
Ġgr ants
Ġcost umes
Ġpleas ure
b us
al ia
Ġres on
Ġang els
Ġcir cles
Ġlength s
Ġell en
Ġadapt ations
Ġdimens ional
Ġs ag
Ġtr inity
ian g
in th
Ġwhe at
Ġencour age
Ġfresh man
Ġpublisher s
Ġsynd rome
Ġbacter ia
Ġun rel
Ġact ively
Ġec cles
Ġtrad em
Ġhom eless
Ġder by
Ġalleg ations
Ġcraw ford
Ġan a
Ġexplos ive
Ġimmig rants
Ġdig it
c u
Ġin cl
Ġm bar
Ġl ing
Ġper pet
Ġ12 4
Ġbelong ed
Ġjudg ment
Ġw er
Ġf landers
Ġacc ol
Ġcon vert
ri um
Ġren own
Ġdistingu ish
Ġpalest ine
Ġleices ter
z ig
Ġd ot
Ġe b
Ġchann els
Ġhem isp
Ġabund ant
bri en
Ġgu adal
Ġland ings
Ġgl ory
Ġdest iny
Ġplan es
Ġsuff er
en ues
Ġre op
Ġdi ary
Ġbur ger
Ġ187 3
Ġnickn amed
Ġcongreg ation
Ġfis cher
Ġparam ount
ass ed
bo at
Ġtas ks
Ġunus ually
Ġinnoc ent
Ġtuck er
om ys
Ġover d
Ġintrodu ce
Ġ188 2
Ġsubm erged
Ġdud ley
Ġl ava
Ġdes ired
Ġcontr ary
Ġlov es
Ġforg ot
Ġbe ast
ist le
ab l
Ġship ped
Ġthough ts
Ġteen age
Ġoutd oor
Ġeld est
Ġmachin ery
Ġwat son
Ġ187 1
Ġproceed ings
Ġadvoc ate
Ġcyl inder
Ġbeij ing
e on
Ġe g
Ġfr inge
Ġdist r
f in
Ġn aked
Ġnew man
Ġ186 7
Ġcruc ial
Ġninet eenth
Ġoverwhel ming
Ġad equ
Ġsub ordin
Ġinst ruction
Ġsurpass ed
Ġal d
av ian
Ġdemocr acy
Ġ20 2
Ġi w
Ġfe ver
Ġrep et
ring ton
Ġwel come
Ġdef enses
Ġke pler
Ġadv ocated
Ġbac hel
Ġmccar thy
Ã ł
Ġk em
Ġpro c
Ġexp ort
Ġhorse power
Ġreview ing
Ġplat oon
Ġfest ivals
Ġhorn s
Ġarist ocr
Ġt rench
Ġc ric
Ġv iv
Ġun ity
Ġtr uman
Ġcl if
ult ure
Ġmon uments
Ġz ones
Ġmal ay
Ġm ott
Ġche t
Ġpound er
Ġsp ores
Ġint im
Ġver d
Ġstory lines
Ġhun ters
Ġcompr ised
Ġad ela
Ġdiv ing
m other
Ġit unes
Ġet c
Ġnest s
Ã¨ re
Ġb iz
na e
Ġ187 8
Ġmanufact ured
Ġt il
Ġsa u
Ġmos que
w affe
Ġr ushed
Ġstr at
Ġ13 7
Ġexpl ored
Ġcust oms
Ġvari ant
Ġnob el
Ġwol ver
in qu
Ġh il
Ġge ography
Ġbor ne
Ġelev enth
Ġtriang le
Ġvamp ire
Ġvl ad
f s
Ġf ount
Ġun e
Ġmac donald
Ġgib son
Ġendang ered
Ġauthen tic
er m
Ġb out
Ġh oll
Ġturb ines
Ġunve iled
Ġhorizont al
b ach
y stem
z i
ol ith
Ġbo ot
Ġcrit er
Ġr ams
Ġsh an
Ġspec ulated
Ġaver aged
Ġeconom ics
head s
Ġresemb le
Ġd ere
ut ely
che l
Ġinde x
ipp ing
Ġspect ators
Ġcurren cy
Ġf erg
Ġd orm
Ġn h
Ġth orn
Ġunder took
Ġrel ating
Ġbig ger
Ġcha os
Ġl p
Ġliter ally
Ġdiss olved
Ġm ing
Ġch i
Ġen su
Ġqu int
Ġgr ain
Ġdam ages
Ġlength y
Ġshir t
Ġine ff
Ġw ander
op ol
ke ep
Ġtri ps
Ġfight s
Ġath lete
Ġr aven
Ġa ston
Ġl one
Ġtr ump
Ġout s
Ġcoast line
Ġstri pped
Ġfair y
yr ight
Ġprost it
Ġenorm ous
Ġensu ing
Ġl il
um s
Ġsw amp
Ġcop yright
Ġadmiral ty
Ġmaneu ver
Ġs ara
Ġm ick
st ad
Ġme yer
Ġbapt ist
Ġtrig ger
Ġmetac ritic
Ġr ah
Ġan k
Ġman ages
Ġover come
Ġemb assy
Ġeditor ial
oty pes
Ġinstall ation
Ġaar on
Ġl uther
Ġwell ington
Ġinterview ed
Ġdiscuss ions
al id
Ġor al
oc c
Ġadd s
Ġguar ant
e ur
p it
Ġan onymous
Ġrel ied
Ġcor al
Ġstro ke
on ing
Ġint act
Ġhon est
Ġj ail
em ploy
Ġaw a
Ġqual ities
Ġmerch and
Ġlem ur
Ġw ishes
Ġext inction
Ġf usion
Ġla f
Ġdest ination
je ctions
Ġluft waffe
Ġsoc cer
ograp hed
Ġshel ley
Ġberm uda
Ġeng aging
Ġsil k
Ġinsuff icient
ich i
Ġbank rupt
Ġlif ted
Ġal ert
Ġde als
Ġmon roe
Ġrel ay
Ġadv ances
or igin
en z
th rough
Ġbre w
over ed
Ġmist ake
Ġlyn ch
Ã ª
as aki
Ġmar x
Ġnom ine
Ġagu il
Ġtril ogy
Ġrev ived
Ġbattlecru isers
im er
ig o
Ġle ather
Ġad rian
Ġwe ighed
Ġfle e
Ġg ains
Ġcult ures
Ġ186 8
Ġ187 2
Ġgross ed
Ġproceed s
c ock
Ġ12 3
Ġneg le
Ġflu id
Ġot to
h and
Ġt in
Ġinstru cted
app y
Ġsel ena
Ġreminis cent
Ġaguil era
mon ton
Ġfemin ist
Ġa us
ov es
Ġsuccess ive
Ġrul ers
Ġphot ographer
Ġsumm ary
Ġc ere
ov sky
mit t
Ġincom ple
Ġchand ler
Ġenroll ed
Ġc res
Ġas p
Ġinterse ctions
Ġfunction al
Ġcurt is
Ġcoron ation
Ġch in
Ġun employ
Ġnew port
Ġgl am
Ġsoviet s
Ġell is
l ia
Ġdak ota
n ar
Ġb ishops
Ġsu ited
Ġdis gu
Ġappe aled
Ġscre ening
gen er
Ġr anch
Ġde eper
Ġsl ower
Ġmass es
Ġrap per
Ġdeal t
Ġmerch ants
Ġrum ors
Ġw ise
Ġr iley
Ġar ctic
ub s
Ġgram mar
Ġali ens
Ġbats man
Ġam p
Ġinter ference
ne ath
Ġph ant
Ġter med
Ġdeploy ment
Ġle igh
Ġtr ace
Ġcont ing
Ġw ald
Ġr az
Ġr iff
Ġbre ad
Ġflo ating
Ġquant ities
Ġpeng u
Ġd art
Ġh ond
Ġk ay
Ġar bit
Ġdis rupt
Ġunder grad
Ġgames pot
Ġsym met
Ġdisp utes
Ġinvestig ations
Ġmax well
Ġphill ips
Ġbare ly
k as
he nd
Ġg le
oc y
Ġpriv ately
Ġpan els
Ġadela ide
ke ley
Ġass ign
aur us
Ġr as
ber y
Ġret ros
Ġpers ec
Ġgor ge
Ġferdin and
Ġh anc
Ġbl ank
Ġexhib ited
Ġmob il
in us
Ġd ad
Ġjo ins
ob ile
Ġbus y
Ġgeoff rey
Ġs ier
Ġb ik
Ġcon form
Ġins ist
Ġsepar ately
Ġanal og
Ġthick ness
Ġww f
Ġsur rey
Ġpack age
Ġcur ves
Ġrob ot
Ġinquir y
Ġit em
od on
Ġun rest
olog ically
Ġec ology
all ing
Ġimport ed
g on
pt ic
Ġnob ody
Ġmarc us
ol o
Ġsupp orter
Ġbar rett
Ġes sex
Ġdel ays
Ġinvol ve
Ġdislik ed
Ġflot illa
re ct
Ġp agan
Ġsh oo
Ġbl ake
Ġsub sc
Ġdec omp
Ġpat ch
Ġcas ino
Ġcust ody
Ġabra ham
Ġexp ense
Ġreal m
Ġcyl ind
Ġredes ign
Ġsp encer
Ġco aster
Ġrom ans
Ġce ase
Ġesc al
Ġpu zz
Ġtas man
Ġanth rop
Ġply mouth
v ent
er ies
Ġrep aired
Ġdevelop er
Ġmag ical
Ġcal m
Ġexper ts
Ġdet on
Ġdun ge
Ġcontest ed
Ġlic ensed
Ġtherap y
Ġproxim ity
Ġmad rid
Ġwar rant
iss a
Ġunder neath
Ġmay be
Ġref it
Ġtrib al
Ġble nd
Ġdescend ants
r s
Ġf og
Ġch an
Ġpres um
ec hes
Ġprote cting
writ er
p ic
Ġf m
Ġn l
ut ors
Ġpl astic
Ġmole cules
Ġplut onium
l ist
Ġal k
Ġinter rupted
Ġgen ius
Ġcal iber
Ġlim estone
Ġbal let
Ġautom atic
Ġmathemat ical
b t
f ront
Ġru ins
Ġpav il
Ġlun ar
Ġmv p
Ġwas hed
ur d
Ġu mp
Ġk ub
Ġoper ator
Ġcapt ivity
Ġvi enna
Ġmot ors
Ġcard inal
Ġped est
Ġexcess ive
Ġn ico
Ġst ark
Ġr ia
Ġpl ed
Ġsec ular
Ġproject ed
u its
Ġs ul
Ġk es
Ġcol oured
Ġdeleg ation
Ġlt d
Ġc ec
ir i
Ġcom et
Ġnor se
kin son
Ġferg us
Ġrock ets
Ġassoci ates
Ġcoll ision
Ġflood s
Ġarchitect s
Ġdaniel s
Ġbos nia
Ġflo ors
Ġhanc ock
Ġo val
ur g
Ġne o
Ġmon ks
Ġinv ented
Ġmy st
ops is
Ġacqu isition
Ġfloren ce
Ġkeep s
Ġsurviv or
Ġpron ounced
Ġc rom
Ġf ul
ach ing
Ġtun nels
Ġtot ally
Ġthr ust
Ġseem ingly
Ġbeng al
Ġ á
Ġp orter
Ġall ocated
d ot
Î ½
Ġma iden
Ġed monton
Ġstr ang
Ġrestaur ants
ac on
Ġhe ct
Ġcompar able
Ġimm un
n ut
in te
Ġsub tle
Ġacqu ire
Ġjer emy
at hetic
Ġfor ts
Ġunder go
Ġclim bing
Ġdemand ing
Ġjenn ifer
Ġimmig ration
Ġbald win
b el
Ġmo or
Ġrefle cting
Ġark ansas
Ġle ban
Ġfatal ities
x ide
ic ity
id o
Ġtw elf
ace ous
Ġpubl ish
Ġpop ulated
gr ade
Ġtro ut
Ġlif estyle
Ġchick en
Ġpyram id
Ġtwelf th
Ï Ĥ
Ġsh ops
Ġun st
Ġher gÃ©
Ġroman ia
Ġdom ain
Ġevolution ary
Ġextraordin ary
Ġpre ston
gu ard
Ġdisappe ar
Ġlob by
our t
Ġjun gle
Ġcr ust
Ġstar r
Ġgar c
Ġ187 9
Ġqu art
Ġtrans p
Ġmod ifications
Ġenforce ment
im ir
os ity
Ġpe nd
Ġbit ter
Ġsevent een
w ig
Ġc ree
im mer
Ġy ok
Ġmus cle
Ġgen es
Ġsub urb
Ġmc donald
Ġstrugg ling
Ġaccompl ish
Ġau ction
Ġdiscontin ued
Ġs ne
as i
ur bed
Ġby r
Ġgener ations
Ġgar age
Ġscrap ped
Ġn un
Ġunf ortun
st ration
Ġsav age
Ġpier ce
Ġneighbour ing
Ġlesb ian
e an
Ġa i
Ġper imeter
Ġcrown ed
Ġdemonstr ate
Ġfier ce
Ġv ander
ish n
Ġdemon stration
Ġsh ack
Ġper th
Ġinter active
Ġstre ams
Ġpav ed
Ġadminister ed
Ġh ate
Ġn ost
Ġsh ank
Ġmin er
Ġmin ogue
Ġ14 1
Ġhal ted
Ġlith uan
Ġy u
Ġopen ly
Ġmer it
Ġmcc ain
Ġdescend ed
Ġsubur ban
Ġeleph ant
ir ts
Ġfil ter
Ġskin ner
Ġbes ie
Ġsket ch
Ġd io
Ġre yn
ab et
Ġar cher
Ġreg ained
Ġbow ie
Ġre writ
Ġspeak ers
Ġdir ty
Ġwor ried
Ġjan et
Ġsubst ance
Ġhaw k
Ġcre ates
Ġhawai ian
Ġcler k
Ġcomp act
Ġatt achment
Ġoper as
Ġer osion
Ġcontr acted
Ġdecl aring
Ġscen ario
Ġupgr ade
Ġlanc aster
Ġelder ly
Ġart if
Ġmod es
ator ial
Ġ27 0
Ġtur ks
Ġkore ans
Ġlog an
Ġban ner
Ġt ables
Ġback up
Ġanti qu
Ġpregn ancy
at em
el ing
Ġmonarch y
Ġnewfound land
ant o
Ġtr aged
Ġconf ess
Ġtor ch
Ġwonder ful
Ġjok es
Ġb alk
el i
Ġass a
Ġwood land
Ġca ution
Ġrid ic
Ġdies el
Ġo pted
Ġerr ors
g ins
Ð °
ent ric
Ġamb itious
Ġscout s
Ġgon z
Ġp ist
Ġk om
Ġam pl
Ġident ification
Ġbi ology
Ġdr unk
Ġprohib ited
Ġdiv ide
Ġfind ings
Ġspecial ized
Ġnorthwest ward
Ġb j
Ġm ath
Ġl uck
Ġper m
ens on
Ġho ff
Ġnecess arily
Ġbuddh ist
Ġcale nd
Ġdec omm
Ġ14 6
Ġval ent
Ġo g
Ġj g
ri pp
Ġmotor way
Ġstrengt hening
Ġthro at
Ġgriff in
Ġcric ke
Ġinv itation
Ġaggreg ate
Ġf ool
Ġp us
um ar
Ġle ase
Ġdet ached
Ġlack s
nat ural
Ġspong eb
Ġsier ra
Ġc ig
Ġch ances
p ro
le w
Ġret ro
Ġk le
Ġcont ents
Ġche er
less ly
Ġlou ise
Ġcarol ine
Ġremark able
Ġcomprehens ive
Ġro th
Ġro de
Ġteam mates
Ġsoc ieties
Ġmer ger
Ġmemor able
Ġar row
Ġsp here
Ġrun way
Ġfre ight
Ġdraw s
Ġliber ation
Ġdec iding
Ġrecogn ize
Ġcorn ers
5 0
b ank
g el
an us
Ġg ut
Ġst uck
Ġcent res
Ġlo ading
Ġpal mer
Ġfrag ment
Ġanat omy
Ġm old
Ġrun ners
Ġcolle ctor
Ġsw an
Ġnash ville
Ġr ut
Ġhar per
Ġalleged ly
Ġjuven ile
a o
h ow
Ġk ens
Ġ14 9
Ġstra it
Ġmeasure ments
Ġobser vers
Ġbachel or
c ore
Ġs es
Ġk ra
Ġmet ab
ina e
Ġtop ic
Ġlay out
Ġmo z
Ġbass ist
s l
Ġw elf
Ġh ann
Ġk as
Ġar d
Ġhealth y
Ġprogress ion
Ġri ot
Ġcompens ation
Ġtr an
Ġintrodu cing
Ġdro wned
Ġdiagn osis
hous es
Ġincomple te
Ġm ere
ov ich
ub a
Ġcal vin
Ġspecial ist
Ġmu zzle
Ġconsum er
Ġj ag
Ġsurf aces
Ġlege nds
Ã £o
Ġh iding
Ġpl ug
Ġsp are
Ġsp ark
Ġres erved
Ġsubur bs
Ġh ab
Ġfor get
Ġem ily
Ġed ges
Ġdefe nder
Ġmaur ice
Ġf en
Ġf ond
Ġv ow
Ġmar ble
Ġspe eches
Ġmore over
Ġgener ate
Ġdev on
Ġsyn th
he ro
Ġd ys
Ġe ase
Ġun pre
Ġprov en
Ġbus ch
Ġreal izes
Ġattr active
Ġdoub les
Ġdiamond s
Ġo re
Ġd h
Ġk ot
Ġover th
Ġcons ent
Ġbas ement
Ġelimin ate
Ġdrain age
Ġp ushing
Ġk ath
Ġgu atem
fic ial
Ġperfect ly
Ġrevers ed
t an
orm al
Ġ21 0
Ġgar field
Ġc ater
Ġr na
Ġbr ass
Ġgr ab
Ġber ry
Ġconj unction
at ri
Ġsec uring
Ġcolle ctive
Ġrand y
Ġb red
Ġcomp uters
Ġsl ot
Ġsuper vis
Ġsol utions
Ġsufficient ly
Ġb io
Ġreg ulation
Ġ184 8
Ġunp op
Ġcla ire
Ġd ian
Ġrhodes ia
Ġrif les
Ġsubd iv
Ġn ed
Ġman n
Ġloc ked
Ġsuper man
Ġhosp itals
Ġemb arr
Ġton ight
Ġwelf are
p ow
Ġc ure
Ġf uck
Ġ187 4
Ġfranc o
Ġcamer as
Ġcatal og
h d
Ġg ir
ur ers
Ġwh ites
Ġhard ware
Ġpan ama
hol m
Ġdesper ate
Ġp ian
Ġsc ales
Ġair play
Ġhel m
o op
Ġl ingu
ay ette
Ġhemisp here
Ġspongeb ob
Ġhang ing
Ġcon tend
Ġbus es
Ġvol unt
Ġhol mes
Ġcho osing
Ġtreas ure
Ġs op
Ġel im
Ġir ving
Ġsol omon
Ġdefin itely
Ġplate au
bird s
Ġaux ili
Ġemphas ized
Ġarmen ia
Ġev ol
Ġany where
Ġbreak through
Ġcounter att
Ġfinn ish
Ġde gener
Ġsp iel
Ġed win
Ġra pe
Ġeas ter
Ġarab ic
Ġillust rations
Ġass essed
Ġvari ants
bro ok
m ons
Ġa ster
Ġi x
Ġinf ected
ern ess
Ġ14 4
Ġmichel le
Ġh od
Ġtr act
Ġnot ion
Ġab origin
Ġcr ack
Ġche ap
Ġcompet itors
Ġgrad uating
Ġwinds or
Ġdimens ions
Ġlegit imate
y e
Ġk et
ul us
Ġman ual
Ġser bs
ach i
Ġincorpor ates
Ġjac ques
Ġmurd ers
Ġfrust rated
p ost
Ġd ow
el ines
Ġv ect
qu er
Ġprom ising
Ġdou g
Ġput s
Ġlind wall
Ġw ounds
Ġk ang
Ġinc ons
osp here
Ġcou pled
Ġcitizens hip
Ġw o
ov o
Ġcal cul
Ġmiss iles
Ġbur st
Ġblood y
Ġdiagn osed
Ġglac ier
Ġh ale
qu al
Ġter restrial
Ġaugust us
Ġcontroll ing
Ġstal in
ist ically
Ġor gans
Ġpan ic
Ġdin osaurs
p erson
al ous
Ġber keley
Ġinvestig ated
Ġund ers
Ġpup ils
Ġmond ay
Ġst unt
Ġv es
Ġnorth bound
Ġship yard
Ġger ald
Ġmer cy
Ġbreak down
Ġlu is
Ġt iny
ol ine
Ġprev al
Ġphys ician
Ġrang ed
Ġtend ed
Ġapprec iated
Ġ Å¡
Ġm oss
Ġr Ã©
ck er
Ġline up
Ġstan ford
Ġdri ft
Ġelim ination
on i
ag ic
Ġdr ives
Ġread s
Ġfro zen
Ġaccol ades
1 2
Ġch im
Ġad mit
Ġass ignment
Ġpres ley
Ġseason al
Ġconf ined
Ġtest imony
Ġsex ually
Ġst ance
Ġwould n
Ġpat ent
Ġgrand son
Ġqual ify
Ġske leton
Ġseb ast
Ġo ber
Ġne arest
Ġmar tha
Ġfle t
Ġpress ed
Ġlay ing
Ġsumm ers
Ġhelicop ters
re z
Ġcirc us
Ġsat ir
Ġcub an
Ġcomfort able
Ġinhab ited
Ġs z
Ġal c
Ġsu nder
ail ing
Ġprev iew
Ġcare fully
Ġred d
Ġmaint ains
Ġexc iting
Ġoccup y
Ġtra vers
Ġski ing
oca ust
el ia
Ġv ed
Ġgo ver
Ġmon key
Ġbulgar ia
Ġdel hi
Ġpain ter
Ġharm ony
Ġt at
Ġen able
Ġev angel
Ġcar riage
Ġz el
Ġemploy ee
Ġb ree
Ġd ish
Ġsu ite
Ġbl own
Ġdesign ers
Ġvac c
Ġexha ust
Ġgenu ine
Ġunoff icial
Ġhe ter
Ġse iz
Ġmanag ers
Ġreform ed
Ġfro st
d o
ce nding
qu et
Ġbl ond
Ġstat ute
Ġec os
Ġjenn ings
Ġc auc
Ġprof its
Ġdu et
Ġfac ts
Ġmaneu vers
Ġcarp enter
Ġsuccess es
Ġgl enn
Ġdefe ats
Ġ28 0
Ġmist aken
m atic
is le
ros se
Ġtop ics
ats u
Ġhon ored
Ġbox ing
Ġfit ting
Ġenthusi astic
Ġentert aining
t es
y d
om es
Ġtechn ologies
Ġchap man
Ġ185 1
Ġhaz ard
Ġabsol utely
Ġenh ance
Ġgabri el
Ġgover ning
Ġsc ope
ish i
Ġwater line
Ġbas il
can al
Ġsleep ing
Ġg av
Ġprosec ution
ra id
Ã¡ r
Ġb ism
ac ement
Ġpro se
Ġwe ird
Ġrepe at
Ġproced ures
Ġisot opes
Ġd uches
Ġwas h
Ġbl ade
Ġdep r
Ġesc apes
Ġhay es
Ġdisappoint ment
Ġas hes
Ġdisc o
Ġhol ocaust
Ġcivil ization
Ġhop kins
Ġaccur acy
Ġsoph istic
Ġphyl ogen
Ġm umb
Ġste pped
um ble
Ġgo eb
ne um
Ġmin eral
Ġins cription
Ġang lic
Ġprote ctive
Ġrecon cil
ato es
Ġneighbor ing
Ġrefere nd
Ġguadal canal
Ġd ign
Ġnur se
Ġc ement
Ġins pe
Ġ14 8
Ġdin osaur
Ġreg ret
Ġed gar
Ġgu ided
uch i
Ġciv ic
Ġmoment um
Ġeu rop
Ġinnov ative
Ġspiel berg
Ġf et
Ġd up
Ġbu zz
Ġdemocr at
Ġtra its
Ġspa wned
Ġtr ails
ok es
Ġsub mit
Ġrequest s
Ġbol ton
Ġsynthes is
Ġunn amed
o ok
Ġr ises
Ġex ceeded
Ġgrad uation
Ġacad em
Ġslow ed
Ġnation ally
Ġincorpor ate
Ġkenn y
Ġraid ers
Ġimprison ment
Ġflet cher
l ies
Ġb icy
Ġf ake
Ġre ly
st ock
op p
Ġperform er
Ġeis enh
Ġle an
Ġear s
Ġimp ed
ru p
Ġbr andon
ons c
Ġsouth ampton
Ġread ily
Ġstrugg les
Ġp ard
Ġsh ale
Ġla ura
Ġav al
Ġred s
Ġir re
Ġconv inc
oph one
Ġbang l
Ġreh abil
Ġphilosoph ical
Ġtradem ark
Ġ13 6
Ġconclud es
Ġl ig
Ġat oms
Ġv as
Ġshep her
ic ations
ou d
Ġas yl
od ia
Ġkey boards
Ġven us
Ġaffect ing
Ġass ume
cy cl
Ġrefle cts
rif ied
Ġtong ue
Ġdreadn ought
Ġunpop ular
Ġsh out
pl ing
Ġthird s
Ġder iv
Ġnob ility
Ġpatt on
Ġto ss
Ġv and
Ġcons umed
Ġthe ft
Ġst up
ap a
ib al
Ġ13 3
Ġcho ices
Ġnegot iated
Ġpreced ed
Ġloc ate
Ġr ust
Ġpos ed
Ġarr ay
Ġdemol ition
b age
Ġcomb ine
Ġille g
Ġpredecess ors
g ro
k el
Ġt us
Ġe cc
Ġpit ching
Ġanth ology
Ġhend rix
Ġalumn i
Ġeisenh ower
Ġb av
Ġem ble
Ġdist ances
Ġreal ize
rew s
Ġ37 0
Ġstom ach
Ġl ia
Ġat hen
Ġrele vant
Ġcap abilities
Ġlimit ations
cliff e
Ġbar ber
Ġul tr
Ġw als
Ġres pected
Ġcert ific
Ġalt ar
Ġgrav el
Ġplac ement
a ul
Ġne br
Ġcl uster
Ġlo os
Ġham mond
Ġargent ine
Ġancest ors
Ġecos ystem
cl amation
Ġconv iction
Ġcrow ds
k at
Ġl ined
so on
Ġinf in
Ġrh ode
Ġcub s
Ġsexual ity
Ġstef ani
Ġfergus on
e it
Ġdig est
Ġclim ax
Ġwars aw
Ġhut ch
Ġg ore
og ical
Ġcorrespond ence
Ġp ose
Ġeff iciency
Ġvar ieties
Ġruss ians
Ġbad ge
Ġincor rect
Ġobserv atory
Ġalt og
Ġy osh
Ġext ant
Ġvictor ious
Ġtrust ees
Ġhat ch
Ġaltog ether
ters hire
Ġac ids
Ġluc y
Ġu g
ol ics
Ġprec ise
Ġeth an
Ġdoub led
Ġspr int
Ġnam ely
Ġb ust
Ġsp ike
Ġmat urity
Ġsus sex
Ġjeff rey
Ġcolumb us
Ġadopt ion
h urst
Ġde x
Ġret aining
Ġwill is
Ġbrit ney
Ġsett ings
Ġinse ct
Ġforgot ten
Ġord in
Ġ26 0
Ġkick ed
rim ination
Ġw u
Ġin ade
Ġk re
ber ger
Ġunder lying
Ġcast ro
Ġsomet ime
Ġha un
Ġconqu ered
i ott
Ġh ort
Ġhighlight s
chang es
Ġfran z
Ġgif ts
Ġinade qu
k ers
Ġc p
Ġn ie
Ġr iv
Ġte ars
Ġam ino
Ġfe es
Ġsouth bound
Ġmort on
Ġsem if
Ġendors ed
Ġreyn olds
u ates
v an
Ġb am
Ġter rible
Ġconclud ing
Ġn c
Ġk or
Ġcr an
Ġ14 2
Ġrank ings
leman ia
Ġrect ang
n as
u ania
Ġwill ie
Ġste ering
Ġgoal keeper
Ġachie ving
Ġexc ited
a ic
is bury
Ġhigh lands
Ġserv ants
Ġsecret ly
Ġviol in
Ġtheore tical
Ġunh appy
Ġfount ain
b en
j ud
Ġst ap
id ian
Ġtr in
ks on
Ġdepart ments
Ġmun ich
Ġsatisf ied
Ġeug ene
ess a
Ġper ception
Ġapp rent
Ġann ie
Ġfort ified
Ġwrest lers
Ġcountry side
Ġiv y
Ġconfron ted
Ġlith uania
Ġabol ished
Ġnebr aska
Ġw an
Ġor ch
Ġcl ash
Ġprim itive
Ġhom age
Ġlands l
Ġtransform ation
Ġgree ks
Ġy ar
Ġsc hem
Ġcomp rises
Ġmus ically
Ġfail s
Ġrecre ational
Ġsubsid iary
j ar
p ur
v ae
Ġpe pper
Ġdece ased
Ġpa wn
Ġpoint ing
Ġsol ve
Ġresemb les
Ġacc idents
i ast
Ġactiv ated
Å Ħ
Ġse ize
Ġform ats
Ġboy d
Ġeat en
Ġpleas ant
Ġbind ing
l ined
Ġdraw ings
Ġcher ry
o ft
Ġph ases
Ġsub c
Ġaccord ance
Ġdere k
Ġreferend um
it ating
Ġrel ax
Ġann oy
Ġdisp os
Ġ185 9
Ġdioc ese
Ġlithuan ian
ic ia
Ġball ot
Ġorb ital
Ġf ol
Ġro c
Ġsubstant ially
Ġdors al
Ġw oll
Ġgen et
Ġrh ys
Ġsaf ely
Ġprec urs
Ġcath olics
Ġnegot iate
ĠâĤ ¬
Ġy ang
Ġpar an
Ġmed ley
Ġstop ping
Ġchronic les
Ġfran Ã§
Ġen acted
Ġtw ins
Ġconc ord
Ġbusiness man
Ã¡ l
Ġcalend ar
Ġl au
Ġalb eit
Ġlo is
ãĥ ¼
Ġshr ine
Ġinher it
Ġblo om
b one
Ġl ighth
Ġco ch
Ġfact ions
Ġtotal ed
cript ions
Å Ľ
Ġst am
Ġat he
Ġste w
sh i
Ġmemoir s
id el
io let
Ġsal am
j ord
Ġre pt
Ġal pine
ip el
Ġmill imetres
Ġsal isbury
Ġavail ability
Ġboard ing
Ġsand stone
Ġdecomm issioned
y th
Ġ nd
Ġcan ber
Ġge ographical
Ġroberts on
Ġsc orer
Ġ12 00
Ġge ological
Ġ13 9
Ġcare ers
Ġcou l
Ġresol ve
Ġsp ont
Ġwe nd
Ġfr aser
ict ions
Ġarch ives
Ġconcept ion
Ġpap al
Ġr uther
Ġsw all
Ġwel com
Ġancest ry
Ġjoy ce
Ġspar row
d rop
Ġthe or
Ġsu z
Ġcol omb
Ġeffect iveness
Ġmot ivated
Ġcontroll er
Ġimag ination
Ġs g
Ġl g
Ġn im
Ġst ur
ab ling
ru cted
Ġbl aine
Ġmed ian
Ġthin ks
Ġg ly
Ġed itors
Ġrece iver
Ġcle aring
in ely
Ġh iv
Ġcapt ive
Ġinfl icted
Ġprop ulsion
Ġtor res
Ġlind a
Ġphilipp ine
Ġp ipe
Ġtr ucks
Ġcomm odore
Ġjo el
Ġcondu ctor
Ġex pend
Ġlaw yers
Ġmor ale
Ġpoll ution
Ġcompar isons
Ġintercept ed
v ik
Ġo ath
Ġp neum
Ġcal iph
agon ists
Ġ184 5
Ġmagn ific
Ġabol ition
Ġdescript ions
Ġsunder land
ri et
ime ters
Ġham burg
Ġcro c
Ġfart her
Ġk aren
Ġtr igg
Ġangel a
Ġsle e
Ġreprodu ction
Ġasyl um
Ġd iction
ace ae
Ġbl az
Ġadm ired
Ġmort al
Ġisol ation
Ġacceler ated
Ġtyr ann
b ul
â ģĦ
Ġc ogn
Ġg ott
ad ic
Ġste al
Ġcommand s
Ġintrodu ces
Ġexhib its
Ġtend ency
Ġjen na
g un
or p
Ġst rick
Ġk un
Ġbright on
Ġf ow
Ġoper ators
Ġvis uals
Ġorgan isations
Ġrub ber
it ic
Ġm Ã¼
Ġand ers
Ġqu inn
Ġac ute
Ġfound ations
Ġadm ission
ij i
Ġpoll s
Ġria a
Ġb ened
ĠâĢ ĺ
agon al
Ġdomin ican
Ġwhit ney
Ġ æ
Ġt ul
Ġreal ised
Ġcle m
Ġinte g
Ġmanuscript s
1 1
il ia
Ġshe d
Ġaust en
Ġconqu er
Ġtimber lake
Ġp ike
ro ke
Ġv eto
Ġab str
Ġmat ched
Ġins ight
Ġwat ches
Ġden omin
Ġorche str
Ġcow boy
Ġw ang
Ġg ills
Ġlar vae
Ġnort on
Ġbow ler
Ġconserv atives
Ġarab ian
Ġell iott
Ġbutter fly
Ġundergrad uate
c at
ar u
Ġspe ar
Ġbu enos
Ġrel iable
Ġz inc
Ġincorpor ating
Ġsha wn
Ġports mouth
is ch
om orph
Ġk ann
Ġday ton
Ġ14 7
Ġdomin ance
Ġavo iding
Ġesp n
Ġmcm ah
Ġremar ks
Ġ ãĤ
Ġdrop s
Ġcaes ar
b ane
u i
Ġd ull
Ġaver aging
Ġh ik
Ġg and
Ġsh apes
Ġtw ist
Ġsuper hero
Ġpresent ing
Ġscot ia
Ġaccount ing
Ġclin ical
iat us
Ġpeters burg
Ġborrow ed
Ġcomm ended
Ġdep ress
Ġforb es
Ġde ar
Ġret iring
Ġleg ally
Ġdur ham
Ġker r
Ġecc entric
v as
Ġpl ent
Ġcur ric
Ġ... .
Ġly rically
Ġfav oured
Ġhug o
Ġs aves
Ġst ake
Ġdown ed
Ġsal mon
Ġaccept ing
Ġamb ig
Ġdepend s
Ġin ev
Ġpat roll
Ġfull er
Ġkr ish
Ġpartis an
Ġpuzz les
Ġduches s
ar med
Ġv ene
Ġend e
Ġbreat h
Ġdetermin ation
ch ild
Ġfin s
Ã© r
Ġnation wide
Ġ182 0
Ġcla ud
Ġscand in
Ġbib l
Ġattrib utes
Ġsic ily
Ġauxili ary
it ory
ith m
Ġwhen ever
Ġsm s
Ġsing h
Ġge ographic
yl on
Ġactiv ist
Ġmagn et
Ġastronom ical
Ġferr ari
Ġmonit oring
Ġw ong
Ġe ject
Ġsl opes
Ġcolle ague
Ġhall ow
Ġcommission ers
Ġgard ner
Ġgal ile
Ġpeace ful
Ġworth y
Ġpoison ing
Ġsovereign ty
e ctions
ot on
Ġgovern ors
Ġhum ph
Ġweb ber
Ï ģ
Ġt ired
Ġst ab
est ock
Ġam ber
Ġind ie
ik h
Ġimm ort
Ġremix es
Ġs ink
Ġr ats
Ġro vers
Ġstr ain
Ġcolle g
Ġtest ament
Ġrespons es
Ġimplement ation
Ġom aha
Ġdod gers
g ence
ro ft
Ġph arm
Ġhard er
bor o
Ġphys ic
Ġscript s
Ġpriest s
Ġl ance
Ġnum er
Ġpers isted
ÅĤ aw
Ġconfig uration
Ġt rop
Ġw igg
Ġb f
ov an
Ġdis k
Ġspec ified
Ġhapp ens
Ġdiss ent
Ġshel ters
Ġther m
f old
o an
Ġc ly
Ġg ur
Ġex agger
Ġmill imeter
Ġbrit t
Ġgovern ed
Ġfur ious
Ġta un
Ġbac on
Ġbah amas
Ġther mal
Ġcel est
Ġthunderstorm s
or o
Ġm erg
ro ck
Ġz omb
ret ion
Ġchart ing
Ġexplicit ly
Ġr er
ke ys
Ġgu ys
Ġval ued
Ġrespons ibilities
Ġimm une
Ġt i
Ġle aked
Ġenthus ias
Ġas pir
ir med
Ġj a
Ġinstall ment
Ġquant um
Ġlun ch
Ġjosh ua
Ġcanber ra
or us
Ġk end
art e
Ġover time
Ġacc ent
Ġstri ker
Ġsib lings
Ġmumb ai
Ġcomp art
Ġvis itor
Ġ185 4
Ġspir its
Ġwrest lemania
Ġtalk ed
Ġaccommod ation
Ġint entions
Ġcons ort
Ġmag ist
Ġtourn aments
Ġcontempor aries
x ton
Ġb m
om er
Ġperform s
Ġexp elled
Ġdev ils
Ġactiv ists
Ġcommitte es
Ġfro g
Ġreun ited
Ġneighborhood s
Ġlect ure
Ġnit rogen
u ana
Î ¹
Ġsp or
Ġmon ica
Ġdisc rimination
Ġpruss ia
Ġp oul
Ġn me
Ġy ank
Ġfre estyle
r ina
ig ious
so ver
Ġout lets
Ġep id
Ġshort ened
Ġ185 7
Ġpear son
unc iation
Ġ ia
Ġd ol
ac co
ell ers
Ġpo etic
Ġresour ce
Ġfrig ates
Ġruther ford
Ġeng r
Ġprim etime
Ġradio active
mar ks
Ġflor a
Ġrh ine
Ġens ured
Ġorb its
Ġaccum ulated
he y
Ġreg ener
Ġsa ff
Ġlo pez
Ġamb ul
Ġfinanc ially
Ġcert ifications
Ġrebuild ing
Ġregist ration
Ġcriter ia
l on
Ġt ailed
Ġsh ocked
Ġpo ets
Ġhel ium
Ġunw illing
Ġsu ed
Ġover ha
Ġinter im
Ġsy rian
Ġdist urbed
Ġcr ater
Ġinvestig ating
Ġic onic
m ir
Ġa ires
il is
Ġnew ark
Ġover see
Ġsome body
hy d
Ġconvoy s
Ġtornado es
Ġtraged y
Ġ à
Ġt ampa
Ġf alk
Ġd iana
oun ce
Ġlaun ching
Ġreun ion
Ġguid ance
Ġl ent
ad y
Ġsound ed
Ġben z
Ġnortheast ward
Ġroof s
c are
ou fl
Ġint rig
Ġbo ards
Ġmin ers
Ġrev enues
Ġopp en
Ġcas c
Ġpit t
Ġdisagre ed
Ġliv estock
Ġenthusias m
a id
Ġd ining
Ġg ag
Ġhold en
Ġexpress ing
Ġlink ing
Ġpromin ence
Ġsymb olic
Ġcontinu ously
Ġrejo ined
d al
Ġn Ã©e
Ġdevelop s
Ġsuper v
Ġt ense
Ġh r
em pl
qu in
Ġval ve
Ġconfront ation
b in
Ġdo z
Ġol ive
ovak ia
Ġenlar ged
en ary
Ġp ony
Ġin ability
Ġl ich
Ġher s
Ġnew er
Ġfr atern
Ġport al
Ġpat ric
Ġscre ened
Ġnarrow ly
Ġbibl ical
Ġb ury
Ġam al
Ġsuper natural
Ġlow ered
Ġdi á»ĩ
Ġportray s
Ġjes se
Ġlas er
Ġw ages
Ġm aker
an or
Ġl ucky
Ġwh ip
Ġwhe els
Ġreg ain
Ġorgan ize
Ġtele vised
Ġjud ged
Ġdan ube
Ġpersu ade
Ġa unt
Ġle is
Ã© l
Ġill umin
Ġhot els
Ġcru z
Ġded ication
Ġdiá»ĩ m
in os
ic les
Ġper ipher
Ġseg reg
Ġreleg ated
onsc ious
t or
Ġwh is
Ġcom pton
Ġgrand mother
Ġpurs uing
Ġbes ide
Ġprol ong
Ġantar ctic
Ġp orn
Ġwor s
Ġcap com
Ġinv ention
Ġsmall est
Ġview er
Ġnar rator
Ġb rom
op l
Ġpl as
Ġfre ely
Ġrain bow
Ġcollect ively
Ġdex ter
Ġmcmah on
te nder
Ġbro ck
Ġstaff ord
Ġ32 0
Ġpsy ched
Ġod ds
Ġrow s
Ġimag ine
Ġlect ures
Ġsanct uary
Ġhe ating
Ġtr im
Ġent ries
Ġship ments
Ġeight eenth
Ġcost a
Ġknow les
Ġcompan ions
Ġsymp athetic
ail and
Ġced ar
Ġhanna h
Ġen cycl
Ġap oc
au er
Ġcas em
Ġadri atic
it ational
if ax
Ġfr ames
Ġshort age
Ġexclud ed
Ġbub ble
Ġeccles iast
Ġbangl adesh
s wick
Ġm its
Ġth ailand
Ġst un
Ġab rupt
Ġc unning
id ity
Ġj aws
air d
rop ods
Ġmake up
Ġsit com
Ġash ley
Ġcook ing
Ġinterf ace
Ġbattlecru iser
Ġw ade
Ġm ating
Ġg aza
Ġcl ad
Ġdecl ining
Ġbed room
Ġ55 0
Ġrecommend ation
Ġconsolid ated
Ġresur re
Ġrenown ed
Ġt ides
Ġf c
Ġdo ver
Ġcam oufl
Ġweak en
Ġceremon ial
Ġaest hetic
m m
he res
Ġm iz
il ian
el ic
Ġcon clus
Ġke yn
Ġking ston
Ġcoun ted
Ġhall s
Ġh omet
ic ular
im an
Ġall an
Ġpred ator
Ġencour aging
Ġquant ity
Ġm und
us a
Ġper t
Ġdivision al
Ġfield ing
Ġ185 8
Ġdispl acement
Ġrp g
Ġl ots
el age
Ġhe x
Ġfl ame
Ġcru el
Ġmort ar
Ġmort ality
Ġalexand ria
Ġprovision al
Ġpostp oned
Ġl ans
Ġbe et
Ġcont acts
og an
Ġsupp ress
Ġport able
Ġprop eller
Ġpun ch
Ġroll s
Ġw and
Ġw ives
Ġp ub
Ġjohn s
Ġdon na
Ġindian apolis
Ġqual ification
Ã¤ n
Ġwheel er
Ġsupposed ly
Ġbah rain
Ġdeterior ated
Ġb ail
en es
av el
Ġdis cl
Ġcent imetres
Ġmother s
Ġ Ì
Ġj agu
Ġwrest ler
Ġthir teenth
Ġinfer ior
Ġxii i
Ġmerchand ise
he art
Ġb ard
at in
Ġd ame
Ġd ana
Ġaf raid
Ġrem aster
Ġsk ip
Ġcal ib
sp ring
Ġtort ure
Ġaffili ated
Ġwelcom ed
Ġbe a
ov ina
Ġmin ne
Ġrest r
Ġaccording ly
Ġreason able
Ġsubject ed
Ġ181 2
Ġcomed ian
per ed
Ġpe ers
Ġprom ises
Ġcle ver
Ġpavil ion
Ġhomet own
Ġbu ying
Ġz ool
Ġnucle us
Ġnest ing
Ġevac uate
Ġexha usted
Ġk ol
Ġrec apt
Ġhal t
Ġsuper n
Ġvir al
Ġlegend ary
Ġneighbour s
Ġovers aw
Ġlighth ouse
w oman
Ð ¾
ut o
Ġk ab
oe uv
Ġjul ia
Ġreact or
l ance
z el
Ġsc roll
Ġmc cl
Ġtroub les
Ġtib et
Ġtob acco
c aster
Ġf ry
Ġn iger
st ead
Ġun ne
Ġver t
Ġ33 0
Ġsuperst ructure
w alk
Ġre id
Ġtim ing
ang a
Ġnat ives
Ġmanufact urer
Ġbet ty
Ġcap ability
Ġ184 9
Ġcanc ellation
Ġhut ton
an u
Ġg ould
Ġav on
Ġrepl ay
Ġcat ches
Ġ185 6
Ġfavour able
Ġrum ours
Ġnept une
Ġl omb
Ġpre ference
Ġla uded
Ġsk irm
Ġfood s
Ġmeant ime
Ġrecommend ations
Ġstrict ly
Ġc ia
Ġp amp
ac a
Ġbe ings
Ġpres by
Ġshow c
Ġhal ifax
br ates
com mun
st op
Ġj ak
Ġfl ies
Ġwin chester
Ġgy mn
Ġforb idden
u ka
Ġref usal
Ġorder ing
Ġri ots
worth y
Ġpruss ian
Ġmiddles ex
Ġpatri arch
Ġdischar ge
Ġheb rew
olith ic
w ord
it ative
ac ious
ur ance
ast on
Ġpop ul
Ġconf isc
ai ro
Ġmanufact ure
Ġpartis ans
Ġk amp
Ġinf ect
Ġemp ress
Ġbreat hing
Ġamphib ious
k an
Ġc c
Ġassoci ations
Ġkingdom s
Ġm are
Ġch ant
Ġbr ide
Ġadvertis ement
ir t
ag ara
Ġfr ight
Ġrest art
Ġcommun ists
Ġplant ed
Ġdiss atisf
Ġcelebr ations
Ġconcent rate
Ġdram atically
Ġpupp et
Ġpilgr im
Ġdoz ens
Ġbe aches
id ium
Ġex empl
Ġobs erve
Ġadm its
Ġportra its
ow ing
Ġman ned
Ġgen eric
Ġexp enses
ys s
Ġpass ages
Ġaver ages
Ġtraff ord
Ġbrad ford
o ids
v or
Ġt ut
ting ham
Ġarch ipel
is a
Ġg Ã¶
wn ing
Ġlos es
Ġhe p
op us
Ġcomp ass
Ġer ie
Ġlim bs
Ġinvest ors
Ġportray ing
Ġmoder ately
Ġjok er
b les
id ad
Ġfl aw
Ġgre ene
Ġkind s
Ġinspect or
Ġsebast ian
Ġv augh
Ġher m
Ġmon soon
Ġconv entions
Ġaw ak
Ġrhodes ian
Ġlaf ayette
Ġc aves
Ġm oth
ic z
Ġsc i
Ġoff spring
Ġnor wich
Ġbro od
Ġ14 3
Ġh p
Ġg oss
Ġinter ven
gr aded
Ġprem ise
Ġpure ly
Ġse nds
Ġv ince
Ġcl ient
Ġrep orters
Ġrel at
Ġlo ch
gest ion
Ġaff ection
Ġplant ation
Ġautom atically
Ġte nds
Ġmat rix
Ġwear s
Ġrot ten
Ġjess ica
Ġtrigg ered
Ġende av
Ġh ank
Ġor phan
Ġhalf way
Ġcra fts
Ġt ina
Ġth read
Ġcomp at
Ġover night
Ġmed i
Ġobserv ing
Ġgam er
Ġaccus ations
r ators
Ġr ama
Ġal arm
se nd
Ġro chester
Ġwe ber
Ġfear ing
Ġindu ced
Ġfilmm akers
Ġrectang ular
Ġsl ope
Ġstat istical
Ġdon ations
Ġ65 0
Ġpref ect
bu ild
Ġstew ie
1 9
re et
Ġto uc
Ġper u
Ġkn ife
Ġair pl
Ġmo h
Ġpresum ably
h im
Ġth urs
Ġst ip
Ġj ava
Ġbo ots
Ġinst ances
Ġclass ics
Ġcle ment
Ġparalle ls
Ġshield s
k ov
r ance
ar re
Ġal der
end ers
Ġsk illed
Ġunne cess
t he
ed e
Ġch ak
Ġtest ified
Ġrefle ction
Ġfeed back
Ġspect acular
Ġoutf it
d ers
Ġre per
op ter
red ited
Ġdam asc
Ġball ads
Ġbox es
Ġcinem atic
Ġadequ ate
Ġshoo ter
Ġencycl op
m ass
Ġa in
Ġepis cop
Ġverd ict
land o
Ġnat al
ze g
Ġcome back
Ġdat ab
Ġglou cester
o qu
Ġs ack
Ġh iatus
Ġre x
om i
Ġbe es
Ġro pe
Ġdis qual
Ġshar on
Ġbrun swick
am ous
art a
Ġbas al
Ġevery day
Ġspeak s
Ġinstru ctor
Ġbats men
Ġf als
es ters
Ġcanad iens
Ġcomplex ity
Ġcateg or
Ġeag er
Ġwy att
Ġshir ts
Ġencl osed
Ġsh oes
Ġint imate
Ġremn ant
Ġcolleg iate
Ġs ided
ov ny
iz able
ik k
Ġshak ira
Ġsophistic ated
h ist
Ġt ens
cl air
Ġdef ining
Ġrich ards
Ġcorn ell
Ġlouis ville
Ġduch ovny
av o
Ġcl usters
Ġam ounted
Ġserv ant
Ġtro y
Ġcat aly
Ġox ide
Ġviol ation
Ġ185 2
Ġlabel ed
Ġintegr ation
Ġdownload able
Ġoppen heimer
c ence
f ires
Ġc aut
ar ms
Ġmarch ing
omet ry
Ġreal ism
Ġfit ness
Ġthor pe
Ġiraq i
b es
Ġc ay
Ġn erve
Ġhe ming
Ġco hen
Ġje alous
Ġinvest ed
Ġsex y
Ġobject ed
Ġinnov ation
Ġrecip ient
Ġhier arch
Ġthurs day
á ¹
Ġhigh land
Ġinv as
Ġcolon ists
Ġcommunic ate
Ġfaith ful
Ġing red
Ġtack le
l en
Ġas cend
Ġfr on
Ġru ined
Ġhyd ra
Ġf ou
Ġfor k
if ier
Ġfun gi
Ġquar ry
Ġsac r
at as
Ġreg ards
Ġinf ilt
Ġstar ter
Ġexcept ional
Ġmanufact urers
Ġmet ap
Ġins criptions
Ġbre ach
Ġmi y
Ġfund ra
Ġ184 7
Ġhind i
Ġmetro id
Ġsurve ys
Ġyank ovic
w ind
th ood
ov ed
Ġinst ant
Ġcr ist
che v
Ġyour self
Ġfarm land
Ġdissip ating
Ġcoin age
he a
Ġw ax
Ġl umin
Ġfour teenth
ik es
Ġcoun ts
Ġcoll ier
Ġmig uel
f o
r imin
Ġs its
ass ing
Ġmil ton
Ġstr and
Ġpartic le
Ġref using
Ġcomb ining
Ġdead line
Ġ185 5
Ġancest or
Ġdivor ced
Ġexclud ing
Ġculmin ated
Ġleban on
Ġg m
Ġst raw
Ġse ated
Ġman a
Ġpeak s
Ġpsych ology
u y
Ġpres umed
Ġpet ro
Ġvene z
il us
Ġk i
ard y
Ġma id
Ġcal der
Ġannoun cing
Ġwild e
Ġmuseum s
Ġprin ces
Ġcool er
Ġsed u
Ġconvinc ing
u ke
z on
Ġshe n
Ġco ached
Ġass ured
Ġelectron ics
Ġrevel ation
Ġwiz ard
Ġarchipel ago
c in
Ġs ene
ed ed
al ine
Ġle y
Ġbo hem
Ġwin n
Ġdar ren
Ġconced ed
Ġpenal ties
Ġun ified
ord ination
Ġposs essions
Ġgrand e
Ġshut tle
Ġsket ches
Ġredd ish
im m
Ġstat ues
Ġjack et
Ġpay ments
Ġ184 6
Ġrend ition
Ġhast ings
f ax
Ġh ij
Ġg onna
ig on
aw ak
Ġair ways
Ġsm ash
Ġappe nd
Ġdecl are
Ġuncertain ty
Ġadvertis ements
Ġa ims
Ġrec k
Ġem ir
Ġsa udi
Ġexpl orer
Ġtre ason
umber ing
Ġterror ist
Ġterr ace
Ġorient ation
Ġdimin ished
Ġdamasc us
Ġg el
el ong
Ġhe ated
Ġdis rupted
Ġemb ry
Ġschem es
th ouse
Ġconst ellation
Ġopen er
Ã³ w
Ġgeorg ian
Ġjam ie
Ġdanc er
Ġposthum ously
Ġsans k
Ġb Ã©
Ġab du
Ġsp iders
Ġman oeuv
Ġser p
Ġchar m
Ġz o
Ġcart e
Ġjul iet
Ġapprec iation
Ġhispan ic
Ġzel da
Ġinadequ ate
d ock
Ġp t
os ure
Ġem i
Ġdev ised
Ġru pert
ĠÃ ¥
Ġlegit im
Ġdio xide
r ush
u ity
Ġe uras
Ġg ael
Ġal onso
Ġse j
Ġinter rog
Ġcur se
Ġaddition s
Ġsuper in
Ġaccept able
Ġ183 2
Ġsed iment
Ð ¸
at z
Ġk Ã¶n
ra h
Ġav atar
Ġcrus ade
Ġplum age
Ġinspe ction
d p
g irl
n t
Ġn olan
ell es
Ġte ar
Ġru f
Ġsyn opsis
Ġlex ington
Ġgw en
Ġleis ure
Ġtw il
Ġge ology
Ġaz erb
Ġkilog rams
Ġazerb ai
Ġt idal
Ġd ances
Ġaut onom
Ġdog gett
hold ers
Ġjul ie
v y
Ġ ich
im on
Ġr ash
Ġv ine
Ġro k
Ġtr aces
ound ed
Ġsub f
Ġdef ine
Ġgener ating
Ġfill ing
Ġopt ical
Ġcov enant
Ġ Ø
en stein
Ġp ag
Ġm ered
Ġgr as
Ġret al
ator ies
ki en
Ġrelie ve
ap or
Ġbar o
Ġcour ty
Ġla ur
h aven
Ġb ess
or an
Ġtem pl
Ġmechan isms
Ġmong ol
Ġtwil ight
f ight
Ġf ont
Ġad olf
Ġev a
Ġmel odies
Ġsequ els
Ġmans field
Ġcommemor ate
b rit
Ġf ug
Ġl ament
Ġar b
Ġinter l
Ġthan k
Ġcharacter ised
Ġelect or
Ġdiss olution
Ġstock holm
Ġastron aut
Ġconstitu ency
Ġbris bane
Ġg ul
Ġde ity
Ġen abling
Ġback drop
Ġvir uses
fl ies
Ġmemorial s
Ġexped itions
Ġip h
Ġbuck ingham
Ġlisten ers
Ġminne apolis
Ġsuperin tend
b red
h aus
ain ted
Ġprof ound
rain ts
Ġrecru iting
ontin ental
Ġmered ith
Ġse aled
Ġsp arked
ely n
Ġsl ate
Ġbar rel
Ġspir al
Ġpull ing
Ġshack leton
Ġcurric ulum
Ġs acked
ib i
Ġpurch asing
Ġassass in
Ġdevast ated
Ġguarant ee
Ġk iel
Ġwor cester
Ġap ost
Ġsome where
Ġland own
ah o
ik er
Ġprom o
Ġmor oc
Ġmethod ist
Ġrein st
Ġstore y
Ġprohib ition
Ġpatri ot
Ġdynam ics
Ġrenov ation
Ġtroub led
i op
Ġst iff
ud er
Ġbl anc
Ġbroad ly
Ġthrow s
Ġt ac
al us
Ġpr ints
Ġgen ev
Ġsouth ward
Ġhum our
Ġfront al
Ġrid ges
Ġframe work
Ġuniform s
Ġpant hers
Ġshepher d
Ġhallow een
or rh
Ġl anka
Ġagre ements
Ġ185 3
Ġflow ing
Ġgaz ette
Ġnomine e
p op
er os
st ri
Ġse ating
Ġloc als
Ġdead ly
Ġsansk rit
Ġto ys
Ġr b
Ġstat ic
Ġbroad er
Ġske let
l ay
Ġde leted
Ġle ip
Ġad ul
Ġind oor
Ġexp osition
Ġtur tle
Ġpack ed
Ġboil er
1 5
c ies
Ġo de
Ġex empt
Ġcol bert
Ġpre jud
ens ing
Ġwat ts
Ġassum ing
b ot
Ġf oul
ar ck
Ġbe atty
Ġar che
ry s
Ġent ity
Ġemb ed
Ġcryst als
Ġbot tle
Ġleop old
f ia
Ġv il
Ġwar wick
Ġsl ant
Ġphys i
Ġcontem pl
Ġscr atch
Ġpatron age
h ail
É ª
Ġfor um
ces tershire
Ġnorth umb
Ġgu am
Ġsuggest ions
Ġcryst all
Ġenzy me
Ġvin yl
l ot
Ġu pt
Ġj al
ge e
Ġsp ans
led on
Ġke eper
Ġelect rons
Ġham pton
Ġrecover ing
Ġconcent rations
Ġteen ager
Ġaqu atic
Ġs v
Ġh are
Ġsh ane
Ġsuper vision
Ġboy cott
Ġfurn iture
Ġunpre ced
Ġor lando
Ġrem emb
Ġrev ision
Ġdeb ated
Ġund ef
Ġgas oline
Ġmush rooms
Ġandr Ã©
Ġunpreced ented
Ġthe od
Ġr age
Ġcon ning
Ġy ale
Ġkilomet re
Ġcurren ts
Ġabstr act
Ġg an
le an
Ġse ym
Ġv end
Ġcl are
ru ctive
Ġgr at
sh adow
Ġclim bed
Ġmotor cy
Ġwed nes
Ġresemb lance
Ġstret ched
Ġsharp ly
Ġlac rosse
Ġinteg ral
at ches
os l
if a
Ġab n
Ġman ila
Ġant agonist
Ġcalc ium
Ġsulf ur
Ġo c
Ġsu cc
og ne
Ġmus cles
Ġple ase
Ġnob les
Ġkap oor
Ġemer ge
Ġf rit
Ġd ash
Ġj ab
Ġor k
Ġcl ut
Ġpe gg
Ġinc on
Ġdism ant
Ġdisapp ro
book s
Ġvik ing
b ors
h ot
im o
Ġinc umb
Ġlo vers
Ġeast bound
Ġmic roscop
Ġshoot s
Ġpresby ter
Ġsp ore
ten ham
Ġpers ians
Ġwest bound
Ġworks hop
Ġpalest inian
Ġseym our
ad os
Ġbe friend
Ġsou ls
Ġkn ox
Ġele g
Ġgrad ual
Ġtransport s
Ġ184 1
Ġgal v
Ġlov ing
Ġdiff ers
Ġhoff man
Ġe instein
Ġor y
Ġtr aced
Ġver de
Ġexpl oring
Ġcy n
Ġgeor get
Ġwes ley
Ġment or
Ġthe ology
id i
Ġro uted
Ġsp ray
Ġcar roll
Ġwhere by
Ġbar ons
Ġsimilar ity
Ġdet ection
Ġmission ary
ante ed
Ġlyn n
Ġtren ches
f ace
om o
Ġon set
Ġse als
Ġinc arn
Ġste als
Ġwin ston
Ġunc onscious
Ġvalley s
Ġcompos ing
Ġpromin ently
Ġspread ing
Ġberg en
in as
Ġp ile
Ġm t
Ġpe er
Ġsub way
Ġx en
Ġhard ly
Ġmater nal
Ġrow ing
Ġguar anteed
Ġhect ares
Ġkrish na
Ġa e
Ġalb ion
Ã± a
Ġdolph ins
Ġsupervis or
Ġtouc hed
3 8
p i
Ġse ab
Ġrep ly
Ġwell es
Ġmatch ing
Ġfac ial
Ġcreat ors
Ġmob ility
Ġlem on
Ġcres cent
Ġde uts
ul ent
Ġjack ie
lin ing
Ġscen ic
Ġcele brit
Ġcec il
Ġd as
ion ed
Ġe ternal
am us
ir us
ch air
Ġk yl
Ġbel arus
Ġgro ves
Ġsin atra
Ġd und
le x
act ory
Ġgu ilt
Ã© d
Ġche ese
Ġ184 4
Ġpath s
Ġoak land
Ġts ar
Ġadvis or
Ġexcav ations
Ġabund ance
Ġhok ies
Ġd ixon
ou x
le nd
Ġbel grade
Ġess ays
Ġanch ored
Ġcros sover
Ġsummon ed
n ian
am y
Ġch at
Ġmen u
Ġhand ful
Ġhy mn
Ġhost ing
Ġlad der
Ġcompl aint
Ġkr ust
Ġbarb ar
Ġsculpt ures
Ġsword s
l ord
m id
Ġb ells
Ġh ire
op oly
Ġbill ed
Ġvac ant
Ġneut ron
Ġdaw son
Ġheming way
Ġvenez uel
Ġcelebrit ies
Ġh ail
st en
Ġex changed
Ġdef icit
Ġlo ans
Ġvill ains
Ġpun ct
Ġbroadcast s
Ġexcept ions
Ġsoph om
Ġconsult ant
Ġchore ography
Ġb raw
Ġb oul
Ġb inary
Ġday light
Ġli u
Ġdesign ing
Ġbar row
Ġant io
Ġfact ories
Ġhard ing
Ġdiscover ing
mar ine
Ġoccup ying
Ġros a
Ġhero ic
Ġphant om
Ġecclesiast ical
it us
ill on
Ġcomp uls
Ġsl ide
Ġsl ayer
ann i
Ġhit ch
Ġpract iced
Ġlad en
Ġjoint ly
Ġutil ized
Ġdepict ions
Ġdrag ons
Ġconcur ren
Ġovert urn
Ġmg m
Ġcounterp art
Ġvalent ine
y ch
Ġb ip
at um
Ġ. .
an as
Ġj ma
Ġqu ot
Ġcontin uation
Ġdown s
Ġven om
Ġeth ics
Ġplanet ary
Ġgri p
Ġcens orship
Ġgamb ling
ĠâĻ Ń
Ġal ley
ag ne
Ġdef ect
Ġequ ality
Ġamb ition
Ġsymp ath
Ġorn ith
r ag
od ied
cl ass
Ġjo ey
Ġdec oration
Ġaw k
Ġconvers ely
Ġninet een
Ġmetap hor
k ill
Ġpl ots
Ġver b
ys is
Ġaccept s
Ġ179 0
Ġses ame
Ġpamp h
m are
Ġe ly
Ġsh y
Ġen er
Ġreg ent
Ġjust ified
Ġperiod ic
Ġeight y
Ġden y
Ġintens ification
Ġell ip
Ġ177 6
Ġutil ity
Ġcu is
Ġreop ened
Ġunemploy ment
Ġanglic an
h ara
n c
Ġsu pers
Ġele anor
Ġold s
Ġpost ing
Ġpun t
Ġ183 6
Ġauth ored
Ġconting ent
Ġc ites
Ġf isc
us ive
Ġcl o
og s
Ġreg ul
Ġend emic
Ġpers istent
Ġel ong
Ġmy r
Ġblock ing
Ġpu zzle
Ġdeliver ing
z an
Ġb ren
Ġpr adesh
Ġprop he
hy l
Ġbackground s
Ġbart on
Ġwis den
Ġresid ences
Ġmoist ure
Ġunfortun ately
Ġwednes day
Ġw imb
ul ing
ab i
Ġunder m
Ġgovern ance
Ġstr anded
Ġstory t
Ġresp ir
Ġpri ory
Ġburn t
Ġmountain ous
Ġautom obile
Ġcla ude
Ġcatal ogue
Ġcounterp arts
Ġmcl aren
Ġpeas ants
Ġunst able
Ġawk ward
Ð µ
Ñ Ģ
Ġher zeg
Ġatt ain
Ġimp acted
Ġlong time
Ġir r
Ġur ging
Ġmel ting
Ġ183 7
Ġre e
Ġj ed
Ġun ions
Ġbr ack
Ġste aling
Ġtheat res
Ġwild erness
Ġven ge
Ġarab ia
Ġfal con
Ġbyzant ines
Ġcott age
Ġcroc od
st a
Ġst oke
Ġsound ing
mans hip
Ġoverl ap
Ġaborigin al
Ġener get
Ġt ud
ur ai
Ġy o
aw i
Ġref r
Ġneg ro
Ġha iti
Ġsle nder
Ġextr act
Ġastron omy
Ġnut ri
r ill
is en
Ġfe ast
Ġspec ially
Ġmod ule
Ġblack burn
Ġant illes
Ġdeb ates
Ġweb ster
Ġguatem ala
ir th
Ġv ishn
Ġital ians
Ġgro ove
Ġobt aining
Ġrab bit
Ġgran ite
Ġbened ict
k ind
Ġd ong
Ġg n
Ġem issions
Ġsub mission
Ġkr ak
Ġcant ata
Ġmaur it
Ġconcurrent ly
Ï Ħ
er oy
Ġst o
Ġun beat
Ġz imb
Ġtrans mit
Ġbre t
Ġgun nery
Ġlab els
Ġfeder er
Ġdom es
Ġarab s
Ġl Ã¼
Ġoccur rence
Ġlik es
Ġgi ro
Ġwrap ped
Ġcertific ate
ur t
Ġk ins
Ġpr one
Ġpe ac
Ġinf ra
bo ats
Ġhard core
Ġinform s
Ġresemb ling
Ġintim id
Ġl ore
om ans
Ġch ocol
Ġz agre
Ġmc n
Ġamaz on
Ġcov ent
Ġquad ru
Ġemble m
Ġwimb ledon
Ġp ere
Ġst ellar
Ġal igned
Ġprov idence
Ġexpl or
Ġsol itary
Ġaccess ion
Ġtel ugu
Ġmelod ic
Ġaub urn
in ks
our se
Ġhy ph
ogen ic
Ġlon ely
far lane
Ġfru its
Ġs izes
it he
Ġan ten
ty m
Ġec ological
Ġball oon
Ġcad ets
Ġrit uals
Ġprest igious
Ġpla que
g ard
or um
Ġbe ef
Ġat p
Ġun in
Ġacc ounted
Ġdec ree
Ġiss uing
Ġunf av
Ġzagre b
Ġd rif
Ġg um
Ġv ag
Ġgr un
Ġmon etary
Ġep s
op y
ters on
Ġcre t
Ġvis ibility
Ġextr as
Ġdetermin ing
Ġguerr ero
Ġbankrupt cy
f ork
v ous
Ġg ases
el ius
Ġis m
Ġstar board
by e
Ġvirt ue
Ġecl ip
Ġh ailed
Ġcon go
Ġk its
ul ative
ok a
Ġty ing
Ġshort s
Ġmor ality
Ġham m
Ġcann ons
Ġtermin ated
Ġcry pt
Ġconfron ts
Ġrecall s
Ġr all
Ġle ver
Ġres ume
Ġi uc
ane y
Ġcr ush
Ġdu ff
Ġcampaign ed
Ġgoal tender
Ġtext ure
Ġkid ney
Ġdevast ating
Ġerupt ions
Ġm ell
Ġset h
Ġvers a
Ġdeb ts
Ġsee ks
Ġdismiss al
Ġundert aker
Ġuncom mon
Ġgael ic
Ġs ire
am oto
Ġcomp ose
Ġsy rac
Ġreal izing
Ġhy de
Ġincred ible
Ġbl ess
Ġcons oles
Ġorgan izing
Ġide ology
Ġbank ing
Ġsyn ag
Ġtal ented
Ġdress ing
Ġsevent y
Ġoutl aw
Ġsubordin ate
Ġartif acts
Ġprolong ed
Ġsuperintend ent
Ġiuc n
e a
r ano
Ġp ater
Ġst akes
Ġbur den
Ġshould ers
Ġprot esters
Ġident ifying
Ġ183 9
Ġfel ix
Ġhein rich
Ġwander ers
Ġd Ã©
Ġl s
Ġr he
Ġv ass
Ġcl own
Ġunder c
Ġsub pl
Ġroyal ist
Ġenc ir
Ġdor othy
Ġupd ate
Ġreprodu ctive
Ġcarn iv
Ġprosper ity
Ġtol kien
Ġtrem end
Ġpersec ution
n ant
Ġint ensive
ass ium
Ġsy ll
Ġloc ks
Ġcapt ains
Ġcy ber
Ġmo ff
Ġcycl ing
Ġcongress man
Ġgam ma
Ġbombard ed
Ġcros by
v ara
È Ļ
Ġj ain
Ġk au
Ġob jections
Ġdem ons
Ġmemb rane
ape ake
Ġhaw ks
Ġkh rush
Ġunnecess ary
Ġcon rad
Ġne u
Ġwe y
Ġown s
Ġprop on
Ġcand y
Ġbed e
Ġ46 0
Ġcad et
Ġeru pted
Ġprompt ly
Ġfert il
Ġenzy mes
Ġtrin idad
l ore
l ike
u pp
st ep
Ġcare ful
Ġbook er
Ġprogram mes
Ġfirm ly
Ġcorrect ly
Ġdispers ed
Ġlux ury
Ġfus elage
Ġdian e
Ġloos ely
m ph
Ġw emb
Ġe k
ab we
Ġmar ina
Ġdec ent
Ġprof itable
Ġpress ures
ãĥ ³
Ġvoy ager
Ġabb ot
Ġsurge on
p arts
Ġ ~
Ġh ag
Ġe tym
ter ing
Ġr im
ib les
Ġsec rets
Ġind o
Ġhapp ening
Ġank le
Ê »
Ġc us
ou k
Ġn ave
Ġro x
Ġen vision
Ġfl att
Ġem inem
Ġsurv ives
Ġliber als
Ġintegr ity
Ġabb as
Ġsyrac use
Ġ à¤
on gh
Ġk art
Ġne b
Ġsc rew
Ġab ortion
Ġsat ire
Ġcer am
Ġsin clair
Ġcurt ain
Ġkhrush chev
Ġs urn
Ġd l
Ġd itch
Ġex otic
Ġle ased
gh ai
ath a
Ġinfl ation
Ġsun set
Ġwy oming
Ġverte bra
Ġp its
ent e
Ġcomp elling
Ġmat ilda
Ġhum orous
Ġwa ited
Ġapoc aly
oc ar
Ġout flow
Ġout post
Ġtrans mitted
Ġpot assium
Ġbal anced
don nell
Ġgrav itational
Ġshif ts
Ġdir t
Ġemotion ally
Ġbrut al
Ġmarath on
b ands
Ġl umber
Ġj ut
Ġfun nel
Ġcult ivated
Ġham pered
Ġhost ilities
Ġlog ic
Ġlibr aries
Ġretreat ing
ĠÏ Ģ
Ġweigh ing
Ġstup id
Ġkann ada
Ġcamoufl age
r aged
is y
ir k
Ġv id
Ġarm ist
Ġcor rupt
Ġsol ic
be ck
Ġpra ir
Ġsett ling
Ġpin ned
Ġconsc ience
Ġnurs ing
Ġbesie ged
Ġincumb ent
Ġkrust y
Ġzimb abwe
Ġhyph ae
Ġt apes
ol ar
Ġexp ired
Ġrefer enced
atter ing
lo o
Ġcert ification
Ġandre a
Ġork ney
Ġherzeg ovina
Ġwemb ley
v ia
Ġt ant
Ġm w
Ġar ches
Ġdown stream
Ġgun fire
Ġrepl ica
Ġprote ctor
Ġpick ing
Ġabd ul
Ġt rent
Ġb ates
Ġg ong
Ġad vers
Ġcr im
Ġcr ushed
Ġnin ja
Ġdomin ion
Ġcompos ite
Ġexpedition ary
Ġches apeake
Ġrecru its
Ġvern on
Ġconcurren cy
Ġg rie
Ġj ill
Ġpl ag
Ġtr agic
ue z
Ġdes k
Ġinc ur
Ġdiffer ently
Ġ30 5
Ġbreak away
Ġspan ning
Ġcart oons
Ġstrateg ies
Ġtu ber
Ġmamm al
Ġwol ves
Ġinnoc ence
Ġb ung
ag her
Ġshe er
Ġinc ap
Ġpa ired
Ġlat itude
Ġ183 5
Ġdepos ited
Ġsas kat
Ġobst acles
Ġprecurs or
Ġt uls
Ġs f
Ġs cl
ic ol
Ġsh adows
Ġmar ion
ric ks
Ġchar itable
Ġmaj esty
Ġru in
Ġaccur ately
Ġom n
Ġattract ions
Ġecho ed
Ġduch y
Ġbritt any
Ġpsyched elic
Ġfisc al
as is
Ġre acted
Ġwood y
Ġven et
Ġris ks
Ġobv iously
Ġmini ature
Ġc ripp
Ġp d
Ġm oll
Ġm ates
iv o
un ct
Ġno ir
Ġchrist ina
Ġentire ty
Ġtom atoes
Ġconstit uted
Ġmagn us
Ġble eding
Ġdiction ary
est e
Ġsh annon
Ġcl ips
Ġwar b
Ġcirc ulated
Ġmart y
Ġ179 9
Ġconfeder ation
Ġpitch fork
Ġinsur g
Ġsuspect s
Ġparad ise
occ up
Ġc odes
im i
Ġcomm ence
Ġsub str
Ġimp acts
Ġang ered
Ġmo ons
Ġwall ed
Ġdim ension
Ġdiff ered
Ġisot ope
Ġstrick en
Ġleip zig
00 0
Ġno on
Ġpost season
Ġhun ger
Ġmad ras
Ġhip per
Ġrand olph
Ġcoinc ided
Ġhutch inson
s ay
Ġp iers
Ġn k
Ġn p
Ġch au
Ġdist ress
Ġbroad side
Ġott omans
Ġvac ation
Ġhoriz on
Ġreleg ation
Ġaber de
Ġcounteratt ack
in ished
Ġh orm
Ġl ak
Ġan zac
Ġsl aughter
Ġins erted
Ġmag gie
onom ic
Ġscre am
Ġspl its
Ġpip eline
Ġtasman ia
al an
Ġy oga
Ġab yss
Ġins ane
Ġant o
Ġpract ition
Ġshan ghai
Ġgalv eston
6 0
at os
Ġsc an
Ġir rit
Ġsent ences
Ġ183 8
Ġbon o
Ġmand atory
Ġrender ing
Ġcomplic ations
Å Ł
ins ki
Ġtechn ically
Ġrob ust
Ġnovel ist
Ġjew el
Ġdownlo ads
Ġamal gam
Ñ ģ
Ġf ri
Ġp Ã©
Ġst ack
ck in
Ġinform al
Ġdiscuss es
Ġteach ings
Ġbelong s
Ġexcav ated
Ġeval uation
Ġironcl ad
Ġp uck
ic le
Ġre appe
Ġpat ches
Ġexper ien
Ġhun gar
Ġdoc ks
Ġmind s
Ġspecific ations
Ġprotest ed
Ġfolk lore
Ã° r
Ġware house
Ġbaro que
Ġcourty ard
Ġunbeat en
t les
Ġ ã
ud ing
Ġbr ave
ah u
Ġvis c
Ġgood man
Ġbul ld
Ġmission aries
Ġmut iny
och ond
Ġastronom ers
Ġmetall ic
1 3
c ill
ou b
Ġn wa
Ġst ained
Ġsub du
Ġins cribed
Ġlab elled
Ġtechn ological
Ġcoff in
Ġansw ers
Ġsuspic ion
Ġdatab ase
f le
en za
Ġhe aling
Ġde e
op ot
Ġex eter
Ġun av
Ġ182 9
Ġclar kson
Ġbarr age
Ġgent leman
Ġdigit ally
4 0
Ġt z
Ġse w
Ġsh o
Ġar th
Ġmar in
Ġmore no
Ġwest on
let te
Ġstri ps
ux e
hr er
Ġexcell ence
Ġcob b
Ġredevelop ment
Ġkem p
pow der
Ġrehabil itation
Ġd it
Ġh pa
Ġbe aver
Ġr bi
Ġk ant
Ġmar ian
Ġcour thouse
Ġsix teenth
Ġtre nds
Ġbay ern
ograph ies
Ġweb b
enh agen
Ġexperien cing
Ġc is
Ġh airs
Ġg anes
Ġal ike
Ġup stream
Ġfl int
Ġsl ug
Ġaugust ine
Ġgun powder
Ġtre vor
Ġfa una
Ġexpect ing
Ġintention ally
Ġadvis ories
Ġthorough ly
Ġcar son
Ġcontin ually
Ġwebs ites
Ġlam bert
Ġattract ing
Ġexceed ing
Ġiph one
Ġin ception
ic he
Ġr ican
Ġpre hist
Ġameric as
Ġbre tt
Ġdavid son
Ġsurf aced
Ġmarket ed
Ġjul ius
Ġcontinu ity
Ġhed ge
chw ader
Ġretros pective
Ġb ie
Ġre jection
Ġhe w
Ġk ry
Ġy uc
ast rous
Ġdis astrous
ens en
Ġatt itudes
Ġno ct
Ġra iding
Ġtot als
Ġvi j
Ġfail ures
Ġreign ing
Ġunf inished
Ġcock pit
Ġansw ered
Ġst alk
Ġbe ech
cl ed
Ġdis par
ph is
Ġfound ers
Ġadminist rator
Ġairport s
Ġnaz is
gam er
Ġm ould
Ġl oun
Ġam ids
Ġpre tend
Ġbas ically
Ġinvest ments
Ġ184 2
Ġens ued
Ġconve x
Ġvig il
Ġparas ites
Ġukrain e
Ġunrel ated
1 8
Î µ
Ġde ities
ul d
Ġ20 5
ater al
Ġfe y
Ġout rage
Ġcouncil s
Ġ41 0
stone craft
Ġbowl ers
Ġdefin itive
Ġczech osl
Ġmant le
Ġfing ers
Ġvect or
Ġwoll stonecraft
p us
r ice
us ions
Ġle ak
Ġheav iest
Ġprest ige
Ġsh Åį
Ġrev is
gr at
Ġhel met
Ġdel uxe
Ġvis ually
Ġsal ford
Ġemerg ence
Ġrang er
ding ton
Ġ48 0
Ġreconst ructed
Ġsurve ill
Ġlg bt
ad ian
Ġle h
Ġad oles
Ġpres idents
Ġcoun cill
Ġmist akes
Ġdispos al
Ġplas ma
Ġvishn u
Ġamids hips
b ons
er ie
at ics
Ġin herent
Ġst ressed
Ġhe ss
Ġbl ur
Ġrem atch
Ġche ek
Ġgrant ing
Ġtax i
agn etic
Ġpian ist
Ġepiscop al
Ġsacr ament
n ance
Ġh abs
Ġis h
Ġbl ades
Ġinst antly
Ġsl ed
Ġ183 1
Ġandrew s
Ġtall est
Ġmargin al
Ġeug en
Ġmetab ol
Ġcret aceous
Ġnot tingham
Ġdis hes
Ġbr as
Ġlim iting
Ġcult iv
Ġexam ine
Ġreform ation
Ġmist ress
Ġsab b
Ġsymp athy
Ġoverlo oking
Ġth ief
ok en
Ġim min
Ġdiv erg
Ġstr ongh
lo ok
Ġbomb ay
Ġmaster piece
Ġwire less
on ne
Ġc i
Ġh v
Ġto k
iv ia
Ġnot orious
Ġpre season
Ġwill ow
Ġcliff s
Ġnik ol
Ġmetall ica
Ġdisappoint ing
Ġtrunk line
Ġbicy cle
or th
id an
Ġgr ades
Ġnorth umberland
Ġconstru cting
Ġcop enhagen
ett i
Ġren umbering
Ġprob able
Ġdom est
Ġ180 1
Ġsac rific
Ġsurveill ance
a a
Ġb oring
Ġed it
Ġinfl amm
Ġwil f
Ġtemper ate
Ġbapt ism
Ġsevent eenth
f inger
Ġbu chan
Ġopp ose
Ġpriv y
Ġindic ation
Ġcit adel
Ġens uring
osh i
Ġã Ģ
Ġc ull
ar in
Ġre be
il iation
Ġy a
ough ts
Ġout n
field s
Ġ184 3
Ġinterse cting
Ġchor al
Ġarchae ology
Ġth y
ib ald
Ġgr ind
Ġsuper b
Ġdepart ing
Ġescort ing
Ġjuven iles
Ġunexpected ly
Ġa if
Ġm um
ast ically
Ġage nda
lo ad
Ġweak er
Ġmodel ed
Ġcorre l
Ġcustom er
am orph
ag ements
cc i
Ġbl unt
Ġexpl oded
Ġcult ivation
Ġder ives
Ġ181 5
Ġid aho
Ġprofession als
Ġspokes man
Ġd os
st idia
ul i
Ġsm ugg
oy a
Ġriver a
Ġcritic izing
Ġcat ching
Ġwinn ipe
Ġp hel
Ġn os
Ġfir ms
Ġfin anced
Ġquestion ing
Ġta ft
Ġremix ed
Ġautonom ous
k ie
Ġt empt
Ġo mitted
Ġd m
le ased
Ġse ap
Ġcl aren
orm an
Ġco ined
Ġcent s
Ġinv inc
Ġren ted
Ġamb ush
Ġprin z
Ġpir ate
p m
u ard
w au
Ġout sk
Ġident ifies
Ġinterpret ations
Ġdeliber ate
Ġcorp se
Ġgentle men
Ġsod ium
Ġinex per
Ġminer als
Ġw age
Ġg ad
Ġtr unc
Ġen light
ne ill
Ġno el
ps y
Ġdu pl
Ġfut ur
Ġpu ff
Ġnom en
Ġisab ella
Ġsophom ore
Ġd ucks
el ly
id ays
Ġcar m
Ġep onymous
Ġmark ings
Ġhand ic
Ġsat an
bor g
Ã¡ s
Ġindivid ually
Ġroll ed
Ġstra its
Ġmit ochond
Ġconsult ing
Ġoverth row
Ġinfin ite
u en
Ġb ly
Ġd us
Ġn er
Ġeng agements
Ġdisc arded
Ġref urb
Ġsuff rage
Ġt ips
Ġsl oven
Ġ23 5
Ġunc overed
Ġenjoy able
Ġexplos ives
Ġrepet itive
Ġvlad imir
Ġpresbyter ian
Ġgeorget own
r ors
Ã Ł
Ġj or
Ġj umped
ign e
Ġrep uls
Ġpar agu
ues day
Ġord nance
Ġmiddle ton
Ġmic key
Ġbene ficial
Ġ38 0
Ġcool ing
Ġtow ed
Ġmatthew s
Ġoutsk irts
c ule
Ġc airo
Ġv ault
Ġro gue
Ġcl over
Ġrel ate
Ġgovernment al
Ġer in
Ġfre eman
Ġdu el
Ġ85 0
Ġcoordin ated
Ġrepr ise
Ġkill ings
Ġfle eing
Ġgood bye
Ġpig eon
Ġsuperior ity
Ġaggress ion
Ġretrie ve
Ġnico le
Ġcunning ham
Ġb ols
ach y
ann ers
Ġprot r
Ġhapp iness
Ġcolumn ist
Ġdart mouth
h oe
Ġt uesday
Ġb aja
Ġp iv
Ġd rought
Ġsu ck
Ġtim eline
urn al
Ġbu g
Ġback l
Ġnumber ing
Ġdefend ant
ĠÎ ±
Ġmathem atic
Ġglac iers
at l
Ġbel ly
Ġbar ometric
Ġeurope ans
Ġlik ened
Ġ180 9
Ġrand all
Ġlev ine
Ġshif ting
Ġwinnipe g
d r
av ier
Ġhim m
Ġloc ke
Ġche v
Ġsex es
Ġru ff
Ġ179 4
Ġ179 8
Ġdreadn oughts
p ace
Î »
ro b
Ġex iled
rit ion
Ġsp erm
Ġi o
Ġoff s
Ġappe aling
Ġbar ric
Ġdam s
Ġexc it
Ġdoub ts
Ġfrust ration
Ġfitz ger
Ġcorp us
Ġalg or
Ġoxid ation
Ġw ig
ch am
Ġres isted
Ġapp lying
Ġaut onomy
Ġcoll ided
Ġpersonal ities
ĠÃ ¶
Ġupgr ades
Ġleaf s
Ġpsychiat ric
Ġcylind rical
i ago
Ġb ite
Ġst ain
qu est
pp en
ish a
Ġform id
Ġfif teenth
Ġmem phis
Ġtom bs
Ġcou ples
Ġdemonstr ations
Ġenl ist
Ġintercept ion
Ġst anton
ill as
Ġalexand ra
Ġimmin ent
g ame
Ġus af
Ġteam ed
Ġdep ressed
Ġgerman ic
Ġdest ructive
Ġsun sh
Ġresemb led
Ġscr ut
Ġp es
Ġn ull
if fer
Ġmon ten
Ġob sole
Ġinfl ict
Ġlet hal
Ġaud itor
Ġmal aria
Ġpenn y
Ġtarget ing
Ġaffili ate
Ġchrom os
Ġfitzger ald
Ġst ems
Ġ20 3
Ġinter fer
Ġem in
Ġbar ker
Ġcoll ar
Ġcat ast
Ġhuman itarian
Ġrap ids
Ġalleg iance
Ġobsc ure
Ġkidn apped
f unction
or row
Ġp emb
Ġd umb
Ġbar ack
Ġgre eted
Ġchrist ine
Ġsar awak
Ġflu ct
Ġvac u
Ġmaria h
Ġaudition ed
Ġembed ded
Ġt ah
Ġw ad
Ġl oren
Ġre work
Ġj ol
ĠâĢ Ĳ
Ġdist ract
omb at
Ġtun es
Ġlen in
Ġineff ective
ĠfranÃ§ ois
Ġhabs burg
Ġsuper vised
clus ive
mark et
Ġgib bs
Ġuncom fort
Ġcornwall is
Ġfacil itate
Ġremaster ed
Ġobsole te
w y
Ġst ole
Ġk any
Ġi os
Ġunder going
Ġback s
Ġacqu iring
Ġflex ible
Ġbism arck
Ġmagnific ent
i em
Ġb ould
Ġm b
Ġl akers
Ġn ude
Ġpart ition
Ġcan ning
ind a
Ġdomin ate
Ġlif es
Ġhass ett
Ġpreval ent
s m
w yn
Ġs ard
st age
Ġst alled
Ġdis organ
Ġhar ald
Ġjust ices
Ġequ ity
Ġrelig ions
bour g
Ġdisplay ing
Ġum bre
Ġdisord ers
Ġchocol ate
1 4
Ġt ails
Ġc ake
Ġm ash
es co
Ġl ips
Ġhe ather
ap y
Ġrec y
Ġdo om
Ġinv is
Ġposs ibilities
Ġlight ly
Ġmad ness
Ġbi ke
Ġcinemat ography
c ip
Ġs ally
Ġm orm
Ġsh ake
Ġover c
ne g
Ġinc ent
sh aw
Ġsn akes
Ġtouch ing
Ġlot us
Ġbol t
Ġalter ations
Ġyield ed
Ġcly de
Ġclaren ce
ak ov
Ġam ster
ond heim
Ġstr ained
Ġdem ise
Ġess ence
Ġ181 9
Ġproblem atic
Ġspart an
Ġmim ic
Ġv ett
ant i
Ġfil ip
Ġver mont
Ġapp ar
Ġalb ania
Ġgu ides
Ġprov oked
Ġgroup ed
Ġ22 5
Ġnight mare
Ġviol ated
Ġface book
Ġfinanc ing
Ġexpress es
Ġcorrespond ent
Ġcant on
Ġstrip es
Ġsalv ador
w i
Ġ ç
Ġst aging
Ġk ron
Ġcl ients
Ġass erts
Ġsub gen
ĠÂ ±
Ġbat ista
Ġrac ism
Ġ181 4
imet re
angel o
Ġenerget ic
wau kee
f u
Ġt res
Ġd ried
Ġon o
Ġj ub
Ġman it
Ġme al
Ġinter changes
Ġunder way
Ġpop mat
Ġthom son
Ġcontrib utor
Ġadj o
Ġrum ble
Ġaffect s
Ġbry ant
Ġenvision ed
Ġpopmat ters
is ely
ar th
ad vant
Ġch asing
Ġback wards
Ġz ach
Ġel vis
Ġhold ings
Ġtar iff
Ġtrib un
Ġintens ify
Ġanticip ation
Ġwals h
Ġplent y
Ġhep burn
Ġbols he
and ra
Ġdis advant
Ġcol t
Ġcre m
ism atic
Ġold ham
Ġsan ction
Ġgreen land
Ġmcc le
Ġdefend ants
Ġsyn ch
Ġbun ker
Ġeurop a
Ġcuis ine
Ġcrim son
Ġne ville
Ġout line
Ġview ership
Ġill usion
Ġfootball er
Ġble w
Ġjenn y
Ġtru ce
Ġpengu ins
Ġrer out
al g
Ġcent red
Ġcons ulted
Ġshow case
Ġmod ification
Ġever gl
ming ton
Ġmac l
Ġles ter
hard t
Ġchord s
haw k
Ġaberde en
Ġo kin
Ġb ax
Ġar j
Ġpol o
Ġmill imeters
Ġra o
ob e
Ġground ed
Ġden ounced
Ġmart yr
Ġsurround ings
Ġmunicipal ities
x es
Ġcl aus
Ġins ert
Ġvol ley
Ġgold man
Ġspin ning
Ġshir ley
Ġculmin ating
Ġyuc at
c ourt
Ġc w
Ġd ing
ers ed
Ġfe as
Ġme gal
Ġgl orious
Ġelect rom
Ġvi able
Ġ179 3
Ġdischar ged
Ġdevot ion
Ġhomosexual ity
Ġhab its
Ġinherit ance
Ġmoff at
Ġevergl ades
Ġt att
Ġc oke
Ġb rent
Ġy ah
que z
Ġpun ish
Ġhero ine
Ġrod gers
Ġrot ating
Ġcriticism s
Ġamster dam
Ġne ur
Ġâ Ĩ
Ġrel oc
Ġmet s
Ġconst raints
Ġcommand o
Ġtem p
app ers
Ġanim ators
Ġcost ly
Ġstrike outs
Ġdecor ations
Ġnh c
Ġtaun ton
i ya
Ġf oli
Ġh uff
Ġv hs
Ġcl ap
Ġen act
ok i
Ġwe in
Ġbr uss
Ġgu ess
Ġcr ab
Ġmid st
Ġfather s
Ġtun is
Ġcart man
Ġ181 0
Ġelimin ating
Ġconfirm ation
Ġjagu ar
Ġl um
ins ky
ij uana
Ġta vern
Ġrehears als
Ġreper to
Ġto sh
Ġe bert
Ġsu its
Ġcont amin
Ġambul ance
Ġa pe
nd on
Ġy uk
Ġun se
Ġad s
Ġbr aves
Ġref use
Ġtop s
Ġcommun ism
Ġve in
Ġcampaign ing
Ġhom icide
Ġlic ence
Ġgalax ies
Ġrebe cca
b ral
Ġh ul
Ġsh ores
Ġpl ank
Ġco ordination
Ġtrans f
Ġwal ton
Ġbra un
Ġenter p
Ġkick off
Ġanx iety
p ole
st ones
Ġr ita
Ġcon grat
ers e
ond er
Ġup held
Ġwar ming
Ġsk ating
Ġstation ary
Ġprot agonists
Ġsus cept
Ġspan iel
Ġillust ration
Ġ177 5
Ġspons or
Ġborne o
Ġpegg y
Ġd well
Ġl Ã©
le igh
id as
et e
Ġam us
Ġins ign
Ġul tra
Ġimpl ied
Ġbos nian
Ġwis dom
Ġguid elines
Ġnig el
Ġp ension
Ġm Ã©
Ġnot re
Ġz u
its u
ii i
Ġmas cot
Ġlind say
Ġnap les
Ġgill ian
Ġvel vet
Ġgust av
Ġern st
Ġcomed ic
l ass
it ian
Ġp iz
Ġm ound
Ġn ir
Ġsh am
ost ic
Ġi oc
Ġev an
Ġprev ention
Ġstand ings
Ġdet ention
Ġjud ici
Ġtom orrow
Ġtreat ies
Ġchic ks
Ġgate way
Ġwheel chair
Ġcrimin als
Ġbuff y
Ġfulf ill
Ġvolunt ary
Ġb land
at ile
Ġre int
il ib
ut a
Ġv ie
Ġmon opoly
Ġcooper ative
Ġaim ing
Ġdick inson
Ġcrus aders
Ġreward ed
Ġgenev a
Ġtremend ous
Ġhimm ler
Ġformid able
Ġp icks
Ġn ero
ch us
qu el
Ġsp elling
Ġ15 00
Ġbre st
Ġx v
Ġgod win
Ġmind ed
Ġow l
anth a
Ġch rys
Ġcan e
app ropri
Ġvo id
Ġbreak fast
Ġcelebr ating
Ġbureau cr
Ġrehears al
Ġmarl borough
Ġtribut ary
Ġkeyn es
ch amp
Ġpro clamation
ke f
Ġz en
Ġter ra
Ġsl im
Ġemploy ing
Ġprogress es
Ġbrun o
Ġredes igned
Ġhumph rey
Ġtud or
v ana
Ġt ik
Ġthe sis
Ġl act
Ġn ails
Ġe go
Ġit v
ok u
Ġtreat ments
Ġmand ate
Ġvib e
Ġfern ando
Ġtitan ic
Ġcelest ial
Ġarmist ice
Ġt ae
ar ius
Ġst aun
ir able
ri o
Ġcl ade
Ġwor ry
ass ment
Ġnight cl
Ġhun ted
Ġfort unes
Ġbreed ers
Ġsight ed
Ġetym ology
m ium
Ġo urs
qu it
Ġcor v
Ġcommission ing
Ġplant ations
Ġspect ral
Ġwel ding
Ġoliv ier
Ġbruss els
Ġh ots
Ġcon gestion
ag asy
od er
Ġmar se
Ġend uring
Ġsing ular
Ġmil waukee
Ġstr anger
Ġshort ages
Ġrest oring
Ġdest inations
Ġwil kinson
Ġ179 2
Ġmos es
Ġsculpt or
Ġrever end
Ġassum ption
Ġjohann es
Ġfare well
Ġthe ological
Ġp act
Ġso ils
Ġlater al
Ġhold er
Ġori ental
Ġappoint ments
Ġmalays ian
2 5
p he
Ġin acc
Ġh ulk
Ġn r
Ġj ug
ag ua
Ġmar co
Ġma z
Ġcy t
Ġequ ation
Ġinde fin
Ġclim bs
Ġscript ed
Ġfeed s
Ġsant iago
Ġspons orship
Ġrab bi
Ġprel ude
Ġdisagre ement
Ġinacc ur
Ġw agon
Ġw anna
Ġc f
Ġth res
Ġne c
Ġsp ells
Ġmil ky
Ġever ett
Ġarg u
Ġinterv ene
Ġocean ic
Ġresist ant
Ġvolcan oes
Ġprol ific
Ġwolver ines
Ġcricke ter
Ġsunsh ine
Ġs is
Ġc umberland
or able
le af
Ġdiv erted
Ġpers ist
Ġrest ing
Ġcomment ator
Ġsam ar
Ã¸ r
Ġrome o
Ġsalv ation
Ġairpl ane
Ġinfra red
Ġn j
ans en
Ġwe aver
Ġadd iction
Ġsal on
Ġmal agasy
Ġwid ened
Ġpay ne
Ġow ed
Ġphenom ena
Ġrend ez
Ġredesign ated
Ġdisappear ance
f an
Ġb ian
Ġp anc
Ġre el
Ġr het
Ġun changed
Ġche f
Ġfresh water
Ġron nie
Ġpeas ant
inte gr
Ġb enson
Ġfor aging
og le
ody nam
Ġtrad ers
Ġfact o
ĠÃ ³
Ġsand wich
Ġsav oy
Ġfro gs
Ġsupplement ed
Ġmorph ology
Ġhi ros
Ġbotan ical
Ġparalymp ics
Ġw enger
Ġl und
st aff
ab ul
Ġtim othy
Ġmon itors
Ġrel ates
Ġany way
Ġje op
Ġesc aping
Ġchap lin
Ġtraff icking
Ġfix ture
Ġshank ar
Ġl ana
il ated
Ġwh ig
Ġse ct
Ġk aw
Ġland marks
Ġcal d
Ġtal ents
Ġclay ton
Ġscholar ly
Ġoverl ord
w en
w al
Ġ é
it ution
Ġm og
Ġse af
Ġk ash
Ġcol ts
Ġfin ed
Ġem ission
Ġbro oke
Ġalb anian
Ġmat s
Ġ21 5
Ġhit ter
Ġmot iv
Ġ178 9
anth rop
Ġcamb odia
Ġclif ton
Ġreperto ire
et us
Ġne on
ber ht
Ġex its
Ġall ison
Ġmin aj
Ġinc ub
Ġconf ession
Ġlast s
Ġgeor ges
Ġ180 4
Ġreserv ation
Ġchop ra
nae us
Ġump ire
Ġcrom well
ar c
Ġth ie
ist ani
Ġgame c
Ġprov ing
Ġir anian
Ġfre ak
Ġdav en
Ġgrad uates
Ġip ad
g il
at ro
Ġh iring
Ġl ump
Ġnew com
Ġall ot
Ġchar ming
Ġevery where
Ġneg atively
Ġ182 4
Ġ182 5
Ġchemical s
Ġpig s
Ġaval anche
Ġazerbai jan
w es
Ġm uk
ar ity
Ġn od
igh ters
ass es
Ġrel i
any a
Ġemploy er
Ġcharl eston
Ġske pt
Ġexplo it
enz ie
Ġfow ler
Ġcasem ates
Ġsynag ogue
Ġumbre lla
s son
Ġ ions
Ġin und
Ġn ons
Ġn mi
th or
Ġtown send
Ġ179 5
Ġire ne
Ġnass er
Ġbiz arre
Ġquart et
g iving
Ġn oun
Ġal ma
Ġde ception
Ġpr ague
ath am
az e
Ġdev i
Ġredu ces
Ġnar c
Ġmcc oy
ba um
Ġdeleg ate
Ġbid en
Ġprospect s
Ġoblig ed
Ġexagger ated
Ġsej m
b ins
ber n
uss y
Ġhom eland
Ġconsum ers
Ġpak istani
Ġlion el
g roup
Ġe ul
Ġle p
pl us
Ġgar bage
Ġcase y
Ġaltern ating
Ġphill ip
Ġcommemor ative
Ġvick ers
Ġory z
Ġ urs
Ġc in
Ġto il
Ġr ift
Ġen ric
Ġover head
Ġdiffer ing
Ġheadquar tered
Ġsatisf ying
Ġturb ine
Ġpip es
Ġdors et
Ġuncomfort able
Ġrendez vous
y ards
ut nant
Ġk ah
od ing
Ġmar riages
pl ant
Ġcar ne
Ġrel inqu
Ġz ack
Ġdisc s
ob ic
Ġdiss ol
Ġcolor ation
Ġperf ection
Ġdaven port
it ivity
es i
Ġg ol
Ġu tt
Ġcomm issions
na i
Ġsand ers
Ġros es
Ġ179 7
Ġ182 1
Ġmeasure ment
Ġsell ers
Ġfold ed
Ġkilog ram
Ġjudici ary
f oot
r at
Ġwh olly
Ġcar b
Ġtreat ing
Ġprem ium
Ġconcert o
ij a
Ġ180 5
Ġconte nder
Ġah mad
Ġmonaster ies
haw ks
Ġp est
Ġp istol
Ġal um
ist on
Ġhel ena
Ġconc ession
Ġ34 0
Ġcolomb ia
Ġingred ients
ar ians
Ġen forced
Ġcommercial s
het amine
Ġtrain er
Ġ178 0
Ġundert ake
f ielder
is k
es ome
ad en
ly wood
Ġk ombat
if iers
Ġ20 6
Ġ183 3
ev iÄĩ
Ġsear ched
Ġaccomplish ments
Ġacadem ics
Ġsaff ir
Ġprem ises
Ġale c
Ġrh in
Ġconclud e
Ġprec ision
Ġeth n
Ġcompens ate
Ġundef e
n ected
Ġc ory
Ġand ri
Ġmon keys
Ġexpl ores
eng th
Ġten or
Ġnomin al
Ġinvestig ators
Ġnatural ist
Ġsand s
Ġ180 6
Ġveget ables
Ġdock yard
Ġexcav ation
Ġunre leased
Ġmoz amb
Ġethan ol
Ġundefe ated
u j
Ġt ate
Ġf ence
om ac
od ont
ong s
ia e
Ġfr amed
Ġret ains
Ġlet ting
Ġwil mington
Ġphot ographed
Ġgro ening
Ġven er
Ġgriff ith
Ġoverlo oked
Ġsurprising ly
Ġtribut aries
Ġhungar ians
ĠâĨ Ĵ
m ec
v ol
Ġc ors
Ġb rib
Ġd ove
Ġr ans
Ġher d
Ġgl aston
Ġbrad y
Ġded u
Ġpale ont
Ġplut o
Ġeleph ants
Ġeuras ian
i Ã³n
Ġch it
ail able
Ġty res
Ġang ular
Ġneigh bors
Ġvolunte ered
Ġunanim ously
r ÃŃ
Ġw avel
Ġz an
Ġcharacter ization
Ġmid fielder
Ġprop elled
ple as
Ġdiscover ies
Ġsteam er
Ġdecre asing
Ġbik ini
Ġoverha ul
Ġfratern ity
Ġvertebra e
en b
Ġcon an
Ġv ale
Ġsp ine
Ġpr att
Ġreg ency
Ġapp la
Ġgu in
Ġpress ing
Ġcompet itor
Ġboard ed
Ġign or
Ġprec isely
Ġhan over
Ġimprov ised
Ġhaz el
Ġglac ial
Ġinver te
Ġunanim ous
Ġam mon
ob il
Ġmal vern
ox ide
Ġrub y
Ġelong ated
er un
ut z
Ġadv iser
Ġfore ns
Ġvarious ly
ett o
Ġvic ar
Ġflo at
Ġfisher men
Ġalph abet
Ġtack les
Ġhydra ul
Ġmaurit ius
b ase
it ting
Ġin ject
Ġh ib
Ġst ub
oc ative
ang o
Ġger m
Ġpass ive
af i
Ġtra uma
Ġnad u
Ġstevens on
Ġramp s
Ġcarn ival
Ġargu ably
Ġf ay
oc o
Ġad en
Ġdec ks
yn t
Ġdoll s
Ġmit ch
Ġhog an
Ġoverwhel med
Ġtoler ance
Ġleop ard
c ell
Ġj as
Ġsc rib
Ġres ent
gr ass
Ġpat terson
Ġer lew
Ġpri zes
Ġsuff olk
har mon
Ġax e
Ġdecor ative
Ġinnov ations
Ġreluct antly
Ġpok er
Ġconven ed
Ġrodrig uez
Ġglaston bury
Ġerlew ine
ur ated
Ġout right
Ġfin ances
Ġsm ell
Ġmy a
Ġref ined
Ġequ ilib
less ness
Ġflash back
Ġrhythm ic
1 7
y ah
Ġl ys
il on
ol and
Ġal ger
Ġmus s
Ġprodu ctive
Ġsm ile
Ġra ided
Ġarch ie
Ġ300 0
Ġalam os
Ġwavel ength
Ġ ^
Ġt rom
Ġh bo
Ġto ul
Ġn ab
Ġco y
Ġma o
Ġexp orts
Ġgl ider
Ġpost ers
Ġsepar ating
Ġscreen writer
Ġcatholic ism
Ġ61 0
Ġpip er
Ġhond uras
Ġblond e
build ing
Ġenterp rises
al ach
Ġv ain
em ann
ab y
Ġtw isted
Ġam ir
Ġbo one
Ġinf ections
Ġjun ta
Ġcolle ctors
Ġpot omac
Ġprem ature
Ġbon nie
Ġclin ic
Ġsoph ia
Ġautobi ographical
ch urch
th on
Ġchar ging
Ġinv ade
Ġ27 5
Ġvill agers
Ġsn ap
Ġreason ing
Ġsubst ances
Ġbol lywood
Ġhear ings
Ġprair ie
w aters
re illy
Ġw augh
Ġn ell
Ġhe red
Ġi z
Ġfl air
Ġbl uff
Ġmas cul
Ġregiment al
Ġcomplex es
Ġsoundtrack s
Ġprosec utor
Ġparalymp ic
Ġstoryt elling
1 6
Ġp aus
Ġd ix
Ġar ter
Ġar ise
Ġbl itz
Ġwar n
Ġbre ckin
port s
Ġ29 0
Ġbay s
Ġaltern atively
Ġpin n
Ġcow ard
Ġvul can
Ġphr ases
Ġcoordin ator
Ġni agara
Ġnass au
Ġkany e
l ov
Ġst int
Ġk ell
Ġk atherine
all i
pp ers
Ġqu ater
ll an
Ġest e
Ġmac farlane
greg or
Ġlic ensing
Ġconfeder acy
Ġclean ing
Ġw ip
is se
Ġk ok
ard i
ich o
ind y
Ġed dy
Ġair stri
Ġinf ring
Ġbomb ed
Ġsche er
Ġpron unciation
Ġderiv ative
Ġfrit z
ial s
Ġad verse
Ġshe ets
Ġhal ft
Ġsty led
Ġhy der
Ġnin ety
Ġclear ance
Ġpenn ant
Ġtal bot
Ġpack aging
Ġsplit ting
Ġrig id
Ġairfield s
Ġfilmm aker
eli hood
g io
k u
Ġg lands
Ġj umps
ast ed
Ġfin ishes
ib an
Ġbr anded
Ġsome how
Ġla wn
Ġfur t
pend ing
Ġcomb ines
Ġjournal ism
Ġgi ov
Ġadvant ages
Ġtreas urer
Ġcatch y
Ġsynd icate
Ġrepr inted
Ġchlor ide
Ġkyl ie
Ġm ps
Ġg in
Ġbe an
Ġco oke
Ġent rep
Ġlo ft
ves ter
Ġteen agers
Ġconvin ces
Ã± o
Ġexplo itation
Ġt iles
ot he
Ġinter mitt
Ġbu cc
over s
Ġassist ing
for ward
Ġos wald
Ġlif elong
Ġsurre al
Ġstret ching
Ġwes sex
Ġtriang ular
2 4
b ling
Ġal ign
Ġan te
Ġk ip
ian ces
Ġdis integr
Ġfl anks
Ġcr ude
Ġber ger
Ġdeal er
Ġpreced ent
Ġjar rett
Ġastronom er
Ġsuspic ious
Ġmour ning
Ġphel ps
Ġokin awa
g age
t el
Ġst ipe
Ġr amb
Ġend ured
ident ified
Ġlim b
ae a
Ġide als
Ġjour n
Ġcorpor ations
Ġpul p
Ġfisher ies
Ġexcit ement
Ġvett el
t ures
av i
Ġep stein
Ġany body
Ġcal ais
Ġtun ed
Ġtransl ations
Ġvolt age
Ġcompat ible
Ġvacu um
Ġw igan
Ġb b
Ġp ud
ct ric
ow itz
Ġpro be
Ġsystem atic
Ġ183 4
Ġrespond ing
Ġcogn itive
Ġmotorcy cle
g ren
n otes
he ed
Ġdis g
Ġver bal
Ġhost age
Ġabs urd
Ġamb rose
Ġunl ock
Ġbed ford
Ġnecess ity
Ġster ling
Ġdecomp ression
Ġmanit oba
t land
Ġin k
st ed
am ily
ne v
Ġbar rels
Ġcast ell
Ġarch ive
Ġcrow ley
Ġanalys es
Ġstair case
Ġmotif s
Ġseiz ure
Ġvaugh an
b eth
Ġt ug
Ġh m
id y
Ġas cent
ok s
Ġover run
Ġcan als
Ġap ology
amp ed
Ġcons ul
Ġcons pic
Ġdep osed
Ġgar ner
Ġpred iction
Ġris en
Ġpier cing
Ġcapit als
Ġinterf ere
Ġinvent ory
Ġreint rodu
r ar
w it
Ġt ally
ar ios
Ġk ad
Ġk ara
Ġpl ural
ll er
Ġke el
Ġel iot
Ġjust ify
Ġpot tery
Ġsynt hetic
Ġeclip se
c z
c ut
Ġl ust
Ġse ctors
oc hem
Ġag round
rop od
Ġline age
Ġer ik
Ġinterv als
Ġmic he
Ġkar nat
Ġadj usted
Ġtiss ues
roph ic
Ġquater mass
Ġs inc
Ġfor c
ap arte
Ġgar rett
Ġeconom ically
Ġamb itions
Ġmir anda
Ġeth ical
Ġexhib itions
Ġow ls
Ġcrowd ed
Ġinvis ible
Ġch ased
Ġover ly
Ġz ap
Ġrest ed
Ġdet ained
Ġcat cher
oph on
Ġconver ting
Ġfellow ship
Ġancest ral
Ġadvoc ates
Ġconfisc ated
Ġjourn als
o ise
Ġw rought
Ġl ur
and ro
und a
Ġever ton
Ġsk ys
Ġconnect or
Ġmott o
Ġsop rano
Ġroc kef
Ġhalft ime
Ġ ida
Ġin appropri
Ġn ina
le z
Ġse ism
Ġco leman
Ġge ometry
Ġaug mented
Ġauthor ised
Ġbi as
Ġphys icians
Ġze pp
Ġdepth s
Ġsurn ame
Ġoutn umbered
el ope
ly ss
Ġby e
her ical
Ġpl ague
Ġar te
Ġher man
Ġcont empt
Ġag ing
Ġdes cending
Ġpar a
Ġcanad ians
ãĥ «
Ġ182 8
Ġextr av
Ġker ry
Ġpatri ots
Ġrey es
Ġmoroc co
Ġyucat Ã¡n
Ġt ire
Ġm akers
Ġhe t
Ġu c
Ġcomp ares
Ġbr ush
Ġgr is
Ġel k
enn es
Ġtotal ing
Ġtur bo
Ġgar land
ma id
Ġ31 0
Ġexec ute
Ġmcc ay
Ġimpl ies
Ġcod en
Ġrav ens
Ġeman cip
stad t
Ġnegle cted
Ġnost alg
Ġinev itable
abul ary
Ġto by
Ġe z
ad in
Ġtr it
Ġam en
Ġplay wright
Ġme gan
Ġbr am
Ġsch ne
Ġwin ters
Ġmot ivation
Ġhere ford
Ġrequest ing
Ġ179 6
Ġkit ty
Ġexerc ised
Ġbuddh ism
Ġpix ar
p ical
p ox
Ð ½
Ġl ens
ol le
em i
Ġsh ame
Ġcons ume
Ġbel fast
ern er
ik ovsky
Ġlist ened
Ġobs essed
Ġprob ability
Ġoce ans
Ġrow land
Ġtoll s
Ġtheore m
Ġcosm ic
Ġsatir ical
Ġand roid
Ġst ays
Ġk ou
un ion
oc he
ie u
Ġnot ices
Ġaf l
Ġbut cher
Ġcomm od
Ġtot tenham
Ġey ed
Ġamb ient
Ġhang ar
Ġbun ch
Ġmozamb ique
Ġentrep ren
Ġkarnat aka
w ith
Ġp ens
il er
Ġfle ets
Ġapart ments
Ġ181 6
Ġcarl isle
Ġ74 7
Ġpassion ate
Ġlibert ies
Ġr ko
Ġse mit
Ġv ind
Ġam n
Ġexp orted
Ġaccess ed
Ġadvance ment
Ġsupre m
Ġearn ings
Ġpup il
Ġquiet ly
Ġsucceed ing
Ġnord ic
Ġkub rick
Ġamus ement
j on
m ere
ver y
oc yt
Ġwhe don
cl ing
Ġad orn
Ġmid ship
Ġarr ange
Ġred empt
Ġhistor ies
Ġrail s
Ġfly nn
Ġmess enger
Ġadop ting
con nor
Ġwreck ed
Ġrenov ated
Ġpedest rian
Ġspont aneous
f i
Ġb ount
Ġp ry
Ġh os
el o
ir s
Ġby ron
Ġex ac
Ġpl aster
Ġsou p
Ġste phan
Ġbrit ten
Ġbar riers
Ġdem os
Ġmy stic
Ġref res
Ġwick ed
Ġnich ol
Ġdrag ged
Ġterror ism
Ġguerr illa
Ġpneum onia
Ġbuchan an
Ġm ons
al is
Ġd res
Ġr ory
Ġsh rews
Ġam in
ph ones
Ġcur s
ott a
Ġlist ings
Ġly on
Ġbri ar
Ġemploy s
Ġq f
Ġexpress ions
Ġles nar
Ġgri ef
Ġdepos it
Ġrecruit ment
Ġn ike
Ġv iolet
Ġmy ers
Ġaddress ing
Ġzh ang
Ġcontrad ict
Ġrerout ed
2 8
g one
Ġf ission
Ġst ig
Ġv atic
os o
Ġor ion
Ġpe ck
Ġsl op
Ġinf ants
Ġmount ing
Ġtrail ing
Ġlith ium
Ġagree ing
Ġdunge ons
Ġpiv ot
Ġbreckin ridge
Ġexac erb
d t
h ore
ur ities
Ġar rows
are z
Ġmer ge
Ġphil harmon
Ġpal er
Ã¼ hrer
Ġpeters on
Ġspart a
Ġprivile ges
b anks
l ian
r and
Ġm ab
Ġk od
Ġk umar
Ġap h
Ġsa igon
Ġger ry
Ġlow e
Ġfort un
Ġpain ters
Ġbon aparte
Ġadvert ised
Ġcode x
Ġlev y
Ġdeput ies
Ġfulf illed
Ġdunge on
Ġimmort al
c asters
e i
Ġa kin
Ġsp un
Ġmin h
Ġma har
Ġsupp ressed
Ġins ult
Ġext ensions
Ġcy p
Ġsil ly
aj i
Ġrow ed
po ints
Ġaddress es
Ġjur assic
Ġabsor ption
Ġcinemat ographer
Ġd ental
Ġinst ability
int osh
Ġline back
Ġphil anthrop
Ġinstit uted
Ġsud an
Ġken ya
Ġswit ching
Ġnapole onic
keep ing
Ġrockef eller
f ried
Ġa cl
Ġc ic
Ġp ter
Ġmar ijuana
Ġmon astic
Ġsch war
Ġsal em
Ġsil icon
Ġprocess ion
Ġnation als
Ġcandid acy
Ġincl ined
Ġgarc ia
Ġ É
Ġb ash
Ġm ug
Ġex h
Ġab bre
Ġdis gr
Ġdis reg
Ġim pending
Ġfl aws
Ġqu ote
att a
Ġham mers
Ġsil va
Ġengine ered
Ġcab les
Ġamend ments
Ġnic ar
Ġpatri otic
Ġvenge ance
at on
Ġas ym
ong o
ub le
Ġem erson
Ġed en
Ġsever ity
ars ity
Ġhol idays
Ġdra ught
Ġamend ed
Ġye ah
Ġsalv age
Ġsubpl ot
in ald
Ġw att
en ne
Ġwar mer
Ġreg istry
Ġattack ers
Ġsw ear
Ġgl oria
Ġstan za
Ġcontest ants
Ġsid ney
Ġeject ed
Ġbraw l
Ġpater nal
d es
Ġs age
Ġd red
Ġd amp
Ġd ose
Ġr w
Ġdes erted
Ġpar odies
Ġreg ina
Ġdown graded
Ġappro ve
lo e
Ġpaul ine
Ġemb ark
Ġsav anna
Ġod in
Ġ39 0
Ġbenef ited
Ġencyclop edia
Ġscl er
Ġ201 7
Ġme als
Ġpe nding
Ġins ists
Ġstruct ured
Ġprot ocol
Ġgall ip
Ġdism ay
Ġdecre ases
Ġsurvey ed
Ġghost s
Ġexplo ited
Ġuncon v
Ġepit het
c ats
Ġs iber
ing o
Ġd ahl
Ġl j
Ġcon e
Ġpl under
Ġab e
Ġinf amous
Ġdisc ography
Ġvis ions
Ġol ga
Ġprec ious
Ġcharl ton
Ġdub ai
Ġhung ry
Ġimpl ications
Ġalco h
Ġlud wig
Ġridic ulous
Ġretal iation
Ġo me
al m
Ġsur g
Ġsupport ive
port ed
Ġcomb inations
zz i
Ġ44 0
Ġrhyth ms
Ġgest ure
Ġincons istent
Ġphysic ist
fle et
g au
Ġt ara
or se
Ġre lying
ak on
Ġsc utt
Ġout ages
Ġout look
Ġmark er
hor st
Ġdon key
Ġwood ed
Ġelev ator
Ġconvers ations
Ġexplos ions
Ġsab ot
Ġmarg ins
Ġment ally
Ġlandsl ides
shadow ed
Ġto pping
Ġk appa
Ġv int
Ġcons on
Ġcre te
Ġest uary
Ġbar red
Ġroy als
Ġjud y
Ġacqu aint
Ġga ud
Ġgallip oli
at hed
Ġn w
im ited
Ġspe nds
ten stein
Ġprov es
Ġden is
Ġur ugu
Ġminor ities
Ġtax ation
Ġexam ining
Ġuns ure
Ġearthqu akes
hous er
run ner
l itz
m ire
Ġw s
as ian
ur us
Ġcont ention
Ġman gal
Ġint ric
Ġass im
Ġsur plus
Ġsing led
Ġgl oss
Ġcapt ained
Ġget t
Ġsele ctive
Ġrailroad s
Ġproport ions
Ġconce aled
Ġsear ches
Ġlan tern
Ġplag ued
Ġo ch
Ġg rit
Ġal ge
ag ram
Ġship ment
Ġav engers
Ġpossess es
Ġembr ace
Ġcompuls ory
Ġs ina
le od
ad h
Ġup wards
ck i
Ġorgan ism
Ġpit ches
Ġguard ed
Ġ181 8
Ġprefer ring
Ġanaly zed
Ġneutral ity
Ġmaced onia
Ġabn ormal
Ġb res
em po
Ġall oy
Ġfl ip
Ġbl oc
Ġmay er
Ġrel iance
hes is
Ġpers ia
ĠÂ ·
tr ak
Ġconstit ute
Ġod i
Ġextr action
Ġsolid arity
Ġari el
Ġjane iro
Ġscar let
Ġcommemor ated
Ġnurs ery
gro ve
Ġbie ber
in ating
Ġd ic
Ġl ass
Ġg ond
Ġv or
Ġsc are
Ġpe el
Ġdec im
Ġz a
velop ed
Ġpred ation
Ġmaster ing
Ġobserv es
Ġneighbour hood
Ġmarry ing
Ġantib odies
Ġassa ulted
Ġathen ian
Ġsemif inals
Ġpatric ia
Ġmccle llan
Ġin ert
Ġst airs
Ġwh ist
Ġch ili
Ġun sc
Ġca ud
Ġcry ing
Ġcontrast ing
Ġdivers ion
Ġsymbol ism
Ġcompr ise
at ops
Ġd ul
Ġd ag
Ġv ivid
Ġy ak
Ġsp lend
Ġatt ach
Ġdr inks
Ġprev ailing
Ġche aper
Ġec w
Ġsun ny
Ġ29 5
Ġsam antha
Ġod ys
Ġkh mer
Ġjer icho
Ã¨ res
Ġpel oton
h m
Ġh s
ac s
os c
op ath
Ġtr icks
Ġaf c
Ġear p
Ġday time
Ġpres cribed
Ġtrav is
rict ion
Ġkle in
Ġnomen cl
Ġgamec ube
Ġequilib rium
e w
Ã ¯
Ġd ion
Ġr n
Ġk ul
Ġtr ondheim
Ġwor m
Ġequ ator
sh a
Ġhold ers
pr int
Ġtransition ed
Ġreorgan ized
Ġshep ard
Ġgalile o
Ġfundra ising
Ġelectrom agnetic
Ġan ter
Ġpro claim
Ġpro jection
Ġper ce
Ġbr ands
Ġass umes
Ġgl iders
Ġfle m
Ġprop het
Ġmass a
Ġhon oured
Ġinform er
go vern
Ġthreat en
Ġlib ya
Ġtun g
Ġdw elling
oz o
Ġpic ard
Ġupl o
Ġrb is
Ġjut land
Ġloun ge
Ġf ury
es y
Ġth umb
Ġal umin
Ġlow ell
Ġgold s
Ġcam el
Ġcru ising
Ġple aded
Ġcause way
Ġtra it
Ġsimultane ous
Ġgand hi
Ġunav ailable
Ġc et
Ġp our
ing ing
Ġat ari
Ġj ard
Ġcomm uter
Ġover he
Ġout ward
Ġfl ats
Ġnomin ate
Ġsel en
Ġexception ally
Ġsimpl icity
Ġosc ill
Ġvik ings
Ġsustain able
Ġhierarch y
Ġh ilar
Ġl ub
Ġg ull
Ġher n
Ġus c
Ġdis ability
Ġph yll
Ġac et
Ġsupp ression
Ġz ur
Ġty re
Ġfre ighter
Ġinflu enza
Ġhig gins
Ġrevol ver
Ġhart ford
Ġpenet rate
Ġembr aced
Ġreson ance
Ġclif ford
Ġtrump et
Ġt art
Ġh ick
Ġn iss
ac ies
ol ation
Ġr ca
Ġde af
cl c
Ġcomp elled
Ġsp at
Ġcar riages
Ġend urance
Ġinv alid
Ġconf essions
che wan
Ġprim ates
Ġgall eries
Ġpul se
Ġgra pe
Ġactress es
Ġreserv ations
Ġnic ol
Ġrivers ide
Ġnich ols
Ġspokes person
Ġpatroll ing
Ġjed i
Ġdrif ted
Ġp aced
Ġp ants
Ġin ad
Ġn ac
Ġst ump
Ġch u
Ġch ast
Ġall ig
form ed
Ġmet aph
Ġbest s
Ġdam on
pend icular
Ġdet r
Ġur ine
Ġbir ch
Ġbor is
Ġcollabor ator
Ġcoordin ate
ãģ ®
Ġwitch craft
Ġevol ve
Ġambig uous
Ġt ard
Ġb oun
Ġh oy
Ġch un
Ġen am
Ġper pendicular
Ġcommit ments
Ġbegin nings
Ġconfl u
Ġunf air
Ġvenezuel a
c ard
Ġw ik
Ġb isc
Ġv arsity
ome ter
Ġrev ive
Ġdep leted
Ġnow here
af ts
road s
Ġ64 0
Ġcell ular
Ġjac qu
Ġkick ing
Ġbackst age
Ġassa ults
Ġtuber cul
c rap
v re
st reet
ill and
Ġsh ap
Ġad he
Ġfil ters
Ġopen ings
che z
Ġwater loo
Ġpet ty
bre aking
Ġbru ins
Ġproceed ing
Ġspart ans
Ġinsist ence
w orm
Ġw oo
ro be
Ġhe br
Ġis tan
int o
Ġbrit ann
Ġel m
sh ot
Ġcycl es
Ġtransfer ring
Ġrac ist
Ġrick y
Ġsteven age
Ġjudg ement
Ġaest het
Ġsaskat chewan
Ġb ery
Ġg aps
Ġr t
ce phal
ame ters
Ġher mann
ign y
Ġind ul
Ġpar th
Ġunder world
Ġwill s
Ġunivers ally
Ġhat red
Ġmes a
Ġinterc ontinental
ĠrÃ© union
x y
Ï ħ
em ia
Ġtim b
Ġfl am
Ġstar gate
Ġfeud al
Ġpled ged
Ġimped ance
Ġrepuls ed
Ġistan bul
l f
Ġn ay
ce nds
ov ar
Ġen ig
Ġdef le
Ġgener ous
Ġexp o
Ġdiv ert
Ġmid land
Ġber th
Ġadmir ation
Ġlog ical
Ġcontrast ed
Ġcanc el
Ġfal c
Ġexperiment ed
Å¡ iÄĩ
Ġwer en
Ġpilgrim age
Ġskys crap
ay ana
Ġcl ashed
Ġsch mid
Ġdisc retion
Ġpost al
Ġsele ctions
Ġber k
Ġfly ers
Ġwit ches
Ġgal actic
kin en
Ġsynthes izer
Ġinaug uration
Ġtoxic ity
Ġindirect ly
Ġantiqu ity
Ġprejud ice
Ġsabb ath
Ġredempt ion
t ter
er ton
Ġl w
Ġro uge
Ġsp herical
Ġcop ied
Ġpract ically
Ġha ul
Ġconcept ual
Ġbull s
Ġatlant is
Ġtram way
Ġsoci ology
Ġgiov anni
3 2
n em
Ġm fr
Ġk ov
Ġsmall pox
Ġsun light
Ġpain ful
Ġpenn ed
Ġenjoy ing
Ġfashion ed
Ġhav illand
Ġflatt ened
Ġc erv
Ġin gen
ut ory
Ġme adow
Ġpar ap
Ġgener ators
Ġsent iments
Ġdun n
Ġcontest ant
Ġere ct
Ġdetail ing
Ġblow ing
Ġmong ols
Ġhaun ted
Ġvenet ian
Ġpractition ers
i ard
Ġo ught
nd e
Ġf iji
or g
le en
ot le
um o
Ġcom bs
Ġy og
Ġare n
Ġcomp are
Ġdis ruption
Ġthan houser
Ġpres ided
Ġdo yle
Ġbar ney
Ġrob bery
Ġlin naeus
Ġextr ater
Ġearn est
Ġsubstit uted
Ġwag ons
Ġbudd ha
Ġsuz uki
Ġzomb ie
Ġnorthumb ria
Ġzepp elin
f rey
g ang
t hen
Ġa uck
Ġs if
Ġb ored
Ġp ity
ac ter
ri k
Ġinter red
Ġbu oy
Ġhar riet
Ġsuccess ors
Ġhel ms
Ġbuild s
br and
Ġequ est
Ġka hn
Ġarchae ologists
Ġconsum ing
Ġsad dle
Ġcheck ed
Ġpseud onym
h ound
t ford
Ġh ak
Ġbr an
ick ed
Ġz ion
ting u
Ġtro ph
Ġtur tles
Ġmcc orm
Ġrow ling
Ġ182 7
ogen esis
Ġcort ex
Ġsymmet ry
Ġsubstr ate
Ġcarne gie
Ġalcoh olic
Ġre iter
if iable
Ġreg ulated
Ġmo e
Ġaver y
Ġpaul o
Ġtransport ing
h orn
Ġw ield
Ġse aw
ill ion
our g
ell us
Ġwe hr
iz a
ace ans
Ġpre quel
Ġsub l
Ġshow er
Ġmed itation
Ġpat rons
Ġpast or
Ġet ty
Ġemphas ize
Ġ177 7
Ġhay nes
Ġthanks giving
Ġreconcil iation
Ġsacrament o
Ġa ide
Ġf aint
it ations
st ick
Ġch alk
Ġi k
Ġatt aining
Ġgen oc
Ġste alth
Ġconst able
Ġbar g
ah an
Ġdest ro
Ġfavor ably
Ġash ton
Ġ182 6
Ġimmig rant
Ġlav ish
Ġcoch rane
i q
Ġt iber
in et
Ġp ied
Ġd ump
Ġk ess
if erous
op a
Ġrel ocation
Ġsch iz
Ġnational ists
Ġsw orn
Ġref in
Ġtele gram
Ġwilliam son
Ġfire arms
Ġcoast s
Ġpromot ions
Ġmc d
Ġmc gu
Ġjer ome
Ġpropos es
Ġoutl ined
Ġincred ibly
Ġreiss ue
Ġconclus ions
Ġshrews bury
l iest
p el
w old
Ġ ips
Ġw ulf
is an
Ġh id
og ene
ond o
Ġyear ly
Ġchar ters
Ġair bus
Ġsch arn
Ġisland ers
Ġmal t
Ġforest ry
Ġmechan ic
Ġmicro phone
Ġvent ures
Ġintend ing
Ġadjo ining
9 0
Ġw rist
Ġth ur
Ġr ides
Ġab dom
Ġcomm end
Ġout c
Ġpe at
Ġact in
Ġz ah
Ġnational ism
Ġfort ification
Ġbi ographical
Ġillust rate
Ġ66 0
Ġsatisf y
Ġmys ore
Ġremind ed
Ġy as
Ġam or
Ġdis emb
Ġover view
Ġoff ence
Ġpo ole
Ġhun ts
Ġbrown lee
Ġmac beth
Ġunl imited
Ġ49 0
Ġmerc ia
cha ikovsky
Ġoblig ations
Ġironcl ads
Ġkend rick
Ġabrupt ly
Ġhitch cock
m aker
Ġw en
Ġex clusion
Ġint ro
Ġann als
Ġten ants
Ġbow s
Ġimm ense
Ġeth iop
Ġaz ores
Ġot ter
Ġsymph onic
Ġchron o
rang ed
Ġschne ider
f il
h ops
Ġo ste
Ġl ily
Ġg ert
Ġwe iss
Ġgr ate
Ġrem od
Ġed ible
Ġeast enders
Ġho oper
Ġcup s
Ġsocial ism
Ġbad en
ĠÃ ł
Ġ181 7
Ġhang ed
Ġincom ing
Ġhans en
Ġalumin ium
Ġd air
Ġv om
Ġv ogue
Ġbr ace
Ġcap ped
Ġmil ne
Ġorigin ating
Ġatl as
Ġemper ors
Ġdepend ed
Ġ42 0
Ġsell er
Ġorn ament
Ġsurpass ing
Ġcav ity
Ġslee ve
Ġa q
an ity
Ġn ets
le um
ad le
Ġhe al
Ġse ward
Ġsh i
Ġro g
oll en
na h
Ġsuff ers
Ġcrew men
Ġtreat ise
Ġ180 3
Ġmamm oth
Ġsimpl ified
Ġfert ile
Ġuncon st
Ġbyr ne
Ġdres den
Ġs ake
Ġc nn
Ġv apor
Ġman ners
Ġma fia
Ġhar b
Ġsoc ially
Ġer otic
Ġeu ph
Ġrenew al
Ġconven ient
Ġrelax ed
Ù Ħ
Ġwh istle
Ġex tingu
Ġun ic
Ġle vin
Ġtr ams
Ġqu otes
Ġem m
ft a
Ġtrans ylvania
Ġless on
Ġhall uc
Ġhol t
Ġmel anch
Ġbreak up
Ġbud dy
Ġ180 8
Ġpack s
Ġdescend ant
Ġuss r
Ġoutf its
Ġlauren ce
Ġparad ox
Ġimmun ity
Ġrespir atory
Ġtribun al
il ocy
om al
Ġst unning
Ġcon way
Ġch ol
Ġcom r
Ġcl air
Ġspe ctor
Ġcan opy
Ġsm ok
ual a
Ġinv aders
Ġmet amorph
Ġaust rians
Ġeuro gamer
ĠÃ ¸
Ġgall ons
Ġsort ies
Ġwilhel ms
Ġprehist oric
b uck
Ġo y
Ġb s
Ġm ou
Ġth i
Ġbo o
Ġheart ed
Ġcit ation
Ã¨ s
Ã¨ ne
Ġstraight forward
Ġhighlight ing
Ġemer ald
Ġreass igned
Ġconfer ences
Ġlingu istic
Ġirr igation
Ġauck land
r atory
t ail
Ġt ad
Ġc ac
Ġc ove
Ġb is
es a
ult ural
Ġdown ward
Ġx l
Ġwhite head
Ġprem iers
Ġrob son
Ġfunction ing
Ġgarc ÃŃa
Ġnumer ical
Ġskept ical
Ġphilharmon ic
Ġscharn horst
v s
z ko
ad ium
Ġbe gg
ct ica
Ġim aging
Ġme h
Ġgr ac
Ġfr action
Ġem il
Ġob jection
Ġreal igned
Ġsol ved
Ġwid ening
Ġwil co
Ġsyn onym
Ġast rol
Ġenroll ment
Ġdestro ys
Ġp ug
Ġp asha
an ne
Ġd ante
le ep
Ġr Ã¤
Ġgo ogle
Ġoff set
iss on
Ġbre nd
Ġgl ut
ret to
Ġhur on
Ġbur rows
head ed
Ġscen arios
Ġtext ile
Ġ181 1
Ġfranch ises
Ġshore line
Ġinstall ations
Ġcha ired
Ġyok o
Ġilleg it
Ġsynch ron
m ind
Ġc n
Ġv iz
Ġcl ich
Ġher r
og ly
Ġsqu ir
Ġcy pr
Ġdet ach
Ġly d
Ġ182 3
Ġkr atos
Ġcra fted
Ġbag hd
Ġsimpl er
child ren
Ġinappropri ate
f est
Ġs Ã£o
Ġo clc
Ġwas p
Ġj oc
Ġnot ified
Ġcl ashes
Ġplay boy
Ġcent ennial
Ġexp on
Ġdel icate
Ġden ial
Ġemp ower
Ġjackson ville
Ġoptim istic
Ġwors ened
l ig
Ġw i
Ġun le
Ġco hes
Ġob it
Ġger ard
Ġprev ents
Ġav ant
Ġhy m
Ġcounter ed
Ġgall ant
Ġ43 0
Ġdod d
Ġcelt ics
Ġdisgu ised
Ġphylogen etic
Ġt ones
it ud
al am
ab out
Ġup right
Ġtrans cend
Ġhur ley
Ġemploy ers
iser ies
Ġ179 1
Ġlandsc apes
Ġresear cher
Ġinaug urated
Ġjen kins
Ġaster oid
Ġsegreg ation
haus en
Ġantio ch
z t
ä ¸
Ġk ak
Ġk rie
Ġv h
ine as
Ġen for
Ġmon o
Ġinf inity
Ġfun n
Ġhen son
Ġprot otypes
Ġmis under
Ġmig ratory
Ġspin al
Ġwithdraw ing
Ġches hire
Ġsor ry
Ġwilling ness
Ġarte f
Ġconflu ence
Ġa hl
or ian
ig i
Ġr ack
ra e
Ġgre ens
lo id
Ġfa Ã§
Ġforest ed
Ġfred eric
Ġsher idan
Ġrevol ves
ropol is
Ġpill ars
zh ou
Ġpom pe
Ġquadru ple
Ġhered itary
v ine
Ġg ian
th ard
ab h
Ġar id
Ġsc ary
are th
Ġnor ris
Ġsever ed
Ġscre aming
Ġmac mill
Ġgall agher
Ġmd ot
Ġuns igned
Ġtact ic
Ġanarch ist
Ġannex ed
Ġdialect s
Ġscandin avian
Ġserp ent
Ġnichol son
Ġabbre v
r ide
Ġv ang
Ġen erg
Ġres um
Ġi ro
Ġsec re
Ġgun ners
Ġconv ective
Ġwing ed
Ġdra fts
Ġsens itivity
Ġforth coming
Ġamid st
Ġoverturn ed
c ia
n ets
Ġc es
Ġm aus
Ġst ocks
Ġne al
Ġdis band
Ġcan vas
other apy
Ġaut ism
che m
Ġdu nder
Ġprocess ed
Ġrecogn izes
Ġdomin ation
Ġiniti atives
Ġsupern ova
Ġdisorgan ized
Ġmacmill an
m b
s i
Ä ±
Ġf idel
iv ided
Ġpl aint
Ġle nd
vers ion
Ġtake over
Ġactiv ism
Ġbal zac
umb led
Ġtravel ers
Ġbox er
Ġ178 3
Ġhyder abad
m acht
an ish
Ġh int
Ġh Ã¤
Ġg es
Ġk ai
Ġv uk
Ġinter sp
Ġso f
Ġsl ated
Ġdist orted
Ġcam den
Ġtur f
Ġhost ility
Ġund ivided
Ġkh alid
Ġmonarch s
Ġrecip ients
Ġtoy ota
Ġstyl istic
Ġslav ic
Ġns b
Ġbyr ds
Ġsuperv ising
Ġsuscept ible
Ñ Ĥ
Ġm ice
Ġm asts
if ully
Ġcar lo
Ġpol ished
Ġsl ogan
Ġdel ivers
Ġ181 3
Ġgra ff
Ġgoss ip
Ġdismant led
Ġschwar z
Ġ è
Ġs uther
Ġun ac
Ġen ch
act ions
Ġmill imetre
Ġtrans verse
Ġdisc ont
ling er
Ġ40 4
Ġrecogn ise
Ġthreat ens
Ġguard ians
Ġq ing
Ġell iot
Ġdemonstr ating
Ġspok ane
Ġpengu in
Ġlaur ie
ĠrÃ¤ ikk
c us
l ene
Ä Ļ
Ġb w
Ġl al
Ġhe is
qu is
und ers
Ġhar p
Ġgun men
Ġer oded
Ġlow land
Ġread ings
Ġviol ations
Ġprincip ally
Ġsel dom
Ġdram at
Ġabsor b
Ġelabor ated
Ã¶n en
Ġlung s
Ġincarn ation
Ġwehr macht
v ie
Ġm iff
Ġto e
Ġhe ars
ol t
ill ard
ace y
az ar
Ġdel ic
Ġstar craft
Ġrad ial
Ġoccup ies
Ġnucle i
Ġslip ped
Ġbutt ons
Ġreinst ated
Ġnicar agua
r ine
Ġf used
Ġm aw
Ġu lyss
Ġsh it
Ġev id
Ġbas eman
Ġmot ives
Ġhard est
Ġcontrovers ies
Ġalt itudes
Ġrab b
Ġpref ers
Ġstef an
Ġukrain ian
Ġneb ula
Ġnir vana
ĠrÃ¤ikk Ã¶nen
Ġulyss es
Ġb ricks
Ġr att
Ġsh u
Ġpe cul
Ġmill wall
ets u
for th
Ġdemonstr ates
Ġvic eroy
Ġcalc ulations
Ġacknow ledge
Ġdict ator
Ġbark ley
Ġkes ha
Ġunders ide
3 7
4 5
b ys
Ġt ink
Ġg os
Ġg Ã©
am ination
Ġsp urs
Ġma ver
Ġwhere in
Ġdep ort
Ġcal ed
Ġdon ation
Ġrap t
Ġhaw kins
Ġshel by
Ġcasual ty
Ġgate house
Ġnegoti ating
Ġencl osure
Ġelig ibility
Ġbount y
Ġtubercul osis
3 5
g em
Ä ĵ
Ġf ian
Ġg ue
Ġfor erun
Ġv ulture
Ġsh ade
Ġsh oe
Ġgen ome
Ġinv ites
Ġste amed
Ġsol ving
oss a
Ġmir acle
Ġfat ig
Ġgra zing
Ġflash backs
Ġhollow ay
Ġaristocr acy
Ġlandown ers
Ġstrongh old
t te
Ģ ²
Ġu em
Ġcl ues
Ġpar atro
Ġmed all
Ġinflu x
Ġworks hops
wer ff
Ġundert aking
hell o
Ġdign ity
opot am
Ġnightcl ub
Ġforens ic
Ġinad vert
Ġpecul iar
g art
n ick
Ġt chaikovsky
Ġin mates
Ġm Äģ
Ġl ille
Ġal to
Ġcl ara
Ġsp lin
Ġqu ir
Ġret r
Ġcount ing
Ġbook ed
Ġaff irmed
Ġcorn ish
Ġtorpedo ed
Ġscar ce
Ġech oes
Ġmangal ore
2 7
h is
Ġm elt
Ġto uches
Ġg dp
Ġbe ts
Ġk uala
Ġsh afts
att on
Ġcr ashes
Ġ30 1
Ġlocal ized
ither s
Ġcho oses
Ġgard e
Ã¶ l
gu y
Ġcompar atively
Ġappl ies
Ġdod ge
Ġdal ton
Ġrus so
Ġmonit ored
Ġannex ation
Ġvander werff
Ġfron ts
Ġwilhelms haven
Ġuem atsu
h ou
on al
Ġn ile
Ġbe ams
Ġcomp uting
Ġi ke
Ġmin iseries
Ġz am
Ġmil estone
Ġel i
Ġmer ry
Ġdevelopment al
Ġhom est
Ġradio head
Ġdig ging
Ġfrank f
Ġextr acted
Ġtrust ed
Ġconflict ing
Ġpenet rated
Ġreiss ued
Ġnem esis
Ġczechosl ovakia
Ġtrunc ated
Ġvint age
Ġcypr us
Ġb aj
Ġis is
ul se
ell ery
Ġher cules
Ġind ict
Ġconf using
com be
Ġpur ana
Ġabandon ing
Ġlov ely
Ġliqu or
Ġadvoc acy
Ġrepr ised
Ġendors ement
Ġtorch wood
Ġdissatisf ied
p ath
u ky
Ġs amp
Ġp asc
Ġh ated
Ġcl one
og ram
Ġdiv a
Ġroyal ty
Ġrob bie
Ġdro wning
Ġsav ings
Ġkh al
Ġyellow stone
Ġflank ed
Ġsynthes izers
Ġabdom en
an ar
Ġl ug
Ġbe ak
Ġun esco
Ġsc apa
Ġmar vin
Ġdes erved
Ġme lee
ib a
Ġprev ailed
Ġbre wer
Ġwater fall
ital ia
Ġfore most
Ġspeed way
Ġcann ibal
Ġdistrib ute
Ġrat ified
Ġnic olas
Ġstret ches
Ġsongwrit ers
Ġdens ely
Ġreprodu ce
Ġlob b
Ġstick y
Ġvit amin
Ġauthentic ity
Ġrewrit e
Ġapprent ice
Ġpetro leum
Ġeleg ant
Ġsuther land
c ely
er i
Ġc t
Ġc gi
Ġne ct
Ġam ar
Ġam anda
Ġinter st
Ġcar pet
Ġcrit ique
Ġcor inth
Ġconc essions
Ġyork er
Ġche w
Ġpit chers
Ġlev i
Ġwet lands
Ġjacob s
Ġsemin ary
Ġbaghd ad
j j
as se
Ġe ust
ment ioned
ary a
ass is
Ġfl ick
Ġacc using
Ġno ah
Ġdef ic
Ġinv ading
Ġinst inct
Ġcy an
Ġwall ach
Ġcand le
Ġmountain e
Ġenjoy s
Ġah med
Ġdal mat
yt he
Ġantar ctica
Ġprivile ge
Ġdisgu ise
Ġauditor ium
in ia
Ġfor ge
Ġse p
Ġk ro
Ġle ap
ess es
Ġtim or
oy ne
Ġul ster
aut hor
Ġ180 2
Ġincorpor ation
Ġ56 0
Ġshut out
Ġbath room
Ġgates head
Ġnad al
Ġforecast s
Ġaa a
Ġsyl vester
Ġmerg ing
Ġresurre ction
Ġinexper ienced
o it
Ġs cept
Ġf riction
Ġp ab
Ġp ect
le utnant
ag uchi
ap o
Ġcl aws
Ġcount down
anc ies
Ġocc ult
Ġhand held
Ġprot o
Ġchanc el
Ġrept iles
Ġcoul thard
Ġcalib re
Ġconspic uous
Ġmiche le
Ġf oll
or os
Ġl c
Ġg op
Ġy uan
Ġup ward
Ġup anish
Ġ00 7
Ġdiv iding
Ġ25 4
Ġfac ade
Ġalbert o
Ġtra um
Ġrenew able
Ġfu j
Ġretail ers
Ġgenet ically
Ġbucc ane
y o
Ġwith stand
un s
Ġbr ake
Ġbel oved
Ġbar th
bo o
Ġdecl ares
Ġinsp iring
Ġmight y
Ġlog istics
Ġlabor atories
Ġintercept ions
Ġanaly sts
Ġfemin ine
Ġrever ted
zh nev
Ġrams ay
Ġsubsc rib
Ġnie ce
Ġtuls a
Ġmarse ille
p ants
Ġf aw
ar is
Ġd rom
Ġj ov
Ġship building
Ġburn ham
Ġens ign
Ġsav a
Ġyellow ish
Ġ177 8
Ġsatell ites
Ġhav ana
Ġstamp s
Ġpump ing
Ġvatic an
Ġthe ss
on te
Ġc un
Ġm oul
Ġg land
ach lan
Ġrel ies
Ġrel ics
Ġtor rent
Ġinterv al
Ġfig ur
Ġquarter f
Ġopt ional
Ġhell en
Ġsatisf action
Ġyanke e
Ġrede em
Ġspit fire
Ġisab el
Ġcompart ments
Ġillumin ated
Ġbung ie
b rough
Ġs d
Ġw ards
op ers
Ġtr aps
ond s
Ġdis ag
Ġchar tered
Ġimp r
Ġlar a
Ġsim s
Ġany more
Ġtimes lot
Ġjack ets
Ġsn out
Ġcaptain cy
ste en
Ġmurder er
Ġsail or
mal ley
Ġherb iv
Ġepid emic
Ġjak arta
Ġb ale
ul in
Ġcom ets
Ġsp ice
Ġdes erv
ren s
Ġboy le
Ġbul lets
Ġros berg
Ġforeign ers
Ġ180 7
je vo
Ġreject s
Ġfavour ites
Ġsteel ers
Ġsens ation
Ġkat rina
Ġsoph ie
Ġmorph ological
Ġbetray al
Ġnutri ents
â Ģ²
Ġw ah
Ġe ck
Ġk ram
Ġv ort
Ġor ang
og ist
Ġcur ving
Ġprop ose
Ġfun er
Ġpal ae
Ġtax onomic
Ġcondem n
Ġchore ographed
ĠâĢ² âĢ²
Ġanto ine
Ġinvinc ible
Ġenlight en
Ġu bs
Ġk eller
Ġent ities
Ġeast wood
Ġ21 3
Ġacqu itted
Ġcapital ism
Ġexperiment ation
Ġta o
Ġspar se
Ġbacter ial
Ġsummar ized
Ġarbit r
Ġa ro
Ġm uc
Ġk icks
th rop
Ġsp ines
Ġsp ock
ound ing
Ġsl ash
Ġfav re
Ġcut sc
Ġmel issa
Ġrespect s
Ġpriv acy
Ġregular s
Ġ182 2
Ġcha otic
gue z
Ġcowboy s
Ġinfect ious
Ġbackl ash
h ima
p itz
Ġs ora
Ġb its
al u
Ġd yer
el ves
Ġst icks
Ġen qu
act ivity
ress ive
Ġfinal ist
Ġgrad ed
Ġdistrib utor
uff le
Ġrod rÃŃ
Ġbak shi
Ġced ed
Ġbever ly
Ġours elves
Ġillegit imate
Ġdisag ree
Ġf ooth
Ġst rom
Ġfor rest
Ġal erted
te ch
Ġman son
Ġwar ns
int y
Ġstates man
Ġra ja
Ġir res
Ġdest ined
Ġbur t
Ġvir gil
ges chwader
Ġaer on
Ġmyth s
Ġupd ates
Ġerr one
Ġcasc ade
occup ied
Ġscrut iny
ĠrodrÃŃ guez
f ol
Ġ ×
el ton
Ġdr ained
Ġdam n
Ġpa ula
Ġtrad es
Ġneed ing
Ġhealth care
Ġbul b
Ġlis bon
Ġfrag ile
Ġbypass ed
Ġabb ott
Ġpor ch
ĠmÃ¼ ller
g ae
u ve
Ġfor wards
ie g
Ġman power
Ġpo ols
ys ical
ink a
Ġmal aya
Ġbrown ish
Ġrepe ating
Ġsynthes ized
Ġpione ers
Ġhook s
Ġstere oty
Ġniger ia
Ġw aff
Ġb ic
Ġk af
Ġsp ars
Ġim pe
Ġchar ities
Ġsever n
Ġaugust a
Ġsk ate
Ġbur ma
Ġrepresent ations
Ġsele cting
Ġdar ius
Ġcustom ary
Ġcourts hip
Ġsacrif ices
Ġtir pitz
Ġrodrig ues
Ġemancip ation
Ġome ga
Ð ²
Ġs way
Ġe in
Ġst ela
Ġle a
ical s
Ġcomp ly
Ġrec ounted
Ġapp alach
Ġimp air
Ġdiv er
Ġhar lem
Ġhead line
Ġtur mo
Ġham lin
Ġmel an
Ġps i
Ġdefence man
Ġlincoln shire
Ġdiff usion
Ġchest nut
Ġrecip es
Ġrecept ions
Ġluther an
Ġinverte brates
4 8
n is
Ġt ing
Ġc ody
Ġm h
ol ini
ul ator
Ġar s
Ġbo is
Ġwill am
Ġir is
Ġstat utory
Ġsaw yer
Ġfa ults
Ġple a
Ġspot light
Ġell ie
ĠÎ ²
Ġimag ined
Ġward robe
Ġpredict ions
Ġasc ension
Ġposthum ous
Ġemig rated
Ġbalk ans
Ġpamph let
Ġtimb aland
h og
Ġ Ê
Ġt ic
Ġc ain
Ġc ary
Ġh au
Ġwh oles
Ġk are
Ġun ite
Ġfin es
Ġpar rot
Ġep ile
Ġke ats
ron es
Ġstory board
Ġ22 2
Ġcommit ting
Ġcost ing
Ġol af
Ġencour agement
Ġoffer ings
Ġtra verse
Ġkir by
Ġraf ael
Ġlaure l
Ġtight ly
Ġteles cop
Ġbackst ory
Ġdolph in
m ot
he aster
Ġn guy
et ing
Ġv r
ag us
osp ace
Ġhor ace
Ġbat ch
Ġwhit ish
Ġcoinc ide
Ġpredict able
Ġsubdiv ision
Ġdepr ived
Ġturmo il
ar se
Ġh uss
Ġr ak
um per
Ġsh im
Ġen o
Ġdem ograph
Ġbus iest
lin ary
Ġdebut ing
Ġarrest s
Ġaccident al
Ġcinem as
Ġdiplom at
Ġtort ured
Ġsurg ical
heaster ly
Ġm ugh
Ġh ord
Ġh ards
Ġbe ers
Ġk um
Ġch is
if ting
Ġro land
Ġsc her
Ġimp ose
Ġfinal ists
Ġmid lands
Ġide ological
Ġsuff ix
Ġbrown e
Ġprogress ively
Ġlif ting
Å¡ e
Ġliz ard
Ġbreat he
Ġwigg ins
k r
u ber
Ġw ies
Ġw ishing
Ġc ag
Ġin active
Ġto ad
Ġpro d
ra il
Ġbo let
Ġsch wart
az i
Ġpun ished
Ġha as
Ġtransform ers
Ġmerc en
Ġnom ura
Ġhob bs
Ġeval uated
Ġunconst itution
Ġ Åį
Ġl ure
Ġk v
op ods
Ġun identified
Ġle one
Ġnorth wards
ode on
ley s
Ġdisc rimin
Ġchrist ie
Ġvi ad
Ġcontest s
Ġmars hes
Ġobl iv
Ġassass inated
Ġsig ism
Ġknock out
Ġdistr acted
v ic
al le
Ġh af
Ġspe er
Ġgu bern
Ġrest ruct
Ġequ ations
Ġphot ographic
Ġcart ridge
Ġgraph ical
Ġmedic ation
Ġarchae ologist
Ġspons ors
Ġlock heed
Ġted dy
Ġvig orous
Ġphilosopher s
Ġcontamin ated
d ar
j ack
o j
is co
Ġd uc
Ġon stage
Ġsec ession
Ġbar low
Ġrequ iem
Ġ28 7
Ġcat ap
Ġjour neys
Ġlog s
Ġpair ing
Ġclar ified
Ġexter min
Ġiceland ic
Î¿ ÏĤ
Ġmiff lin
Ġschwart z
nd ez
Ġg ros
Ġi j
Ġhim al
Ġred isc
Ġbill ie
Ġbroad caster
Ġrob ots
Ġrh od
Ġelev ations
Ġsant os
Ġbag s
Ġdisturb ing
Ġstere o
Ġdwarf s
Ġlux emb
Ġchile an
Ġaur ora
Ġdiscour aged
Ġvacc ine
Ġincorrect ly
Ġparagu ay
Ġalum inum
Ġintersp ersed
Ġgubern atorial
Ġs anche
Ġp ius
Ġe h
Ġbe ard
Ġal ison
Ġsu ez
Ġsc rant
Ġbel ize
Ġpal at
Ġmas ks
Ġoil ers
Ġbiographer s
Ġpill ar
Ġhybr ids
Ġnickel odeon
Ġlia ison
Ġs iv
Ġh mas
Ġn ud
Ġcon dom
orn s
Ġoper ative
Ġmid west
Ġmor ales
Ġdisp atch
ien ne
Ġsax ophone
Ġweapon ry
Ġrefuge e
Ġsor row
Ġrecip roc
Ġbetray ed
Ġsanche z
h oun
z ier
Ġo str
Ġcl ans
ress es
Ġmus cular
Ġass ent
Ġunder gone
Ġgreen wich
Ġtax a
Ġconfir ming
Ġdang ers
Ġharm ful
Ġapprec iate
Ġpref ix
Ġparent al
Ġexplan ations
Ġjag d
Ġmistaken ly
Ġlineback er
b ut
w ill
Ġm ard
Ġh ust
Ġg c
Ġas leep
Ġr ites
Ġar rog
Ġdef ines
Ġz y
Ġinit iate
Ġconsider ations
Ġbor on
Ġvic ious
Ġimpress ions
Ġtren ton
Ġbav aria
h as
w ic
Ġl Ã³
Ġn m
Ġn ascar
Ġk ling
ap est
Ġy el
ans on
Ġco bra
Ġgr amm
Ġpass er
Ġx iv
Ġcro ft
Ġgrad ient
Ġliter acy
Ġsmith son
Ġwit t
Ġconsec rated
Ġgil es
Ġmig rated
Ġchor ale
Ġaer ospace
Ġalle v
Ġwes ter
Ġpray ers
Ġmagist rate
Ġpopul ace
j ina
p pe
w ulf
Ġ ers
Ġthe olog
Ġc air
Ġch ir
Ġout let
Ġ00 00
Ġgu ang
Ġrece ip
Ġbre zhnev
Ġwind ing
Ġtake off
Ġconn or
isl av
Ġcontract or
Ġmut ations
Ġcanc ell
Ġimag in
Ġ178 8
Ġgam ers
Ġrebell ious
Ġfasc ist
Ġalgor ithm
Ġlifes pan
Ġscrant on
d ings
n h
Ġs acks
il o
cc o
iew icz
Ġhead lining
Ġir win
Ġbud apest
Ġeye wall
Ġrespond s
Ġkiss ing
Ġdisl ike
Ġfold ing
Ġcricke ters
Ġrelat ivity
Ġbrend an
b ear
Ġo mar
Ġun real
Ġsc al
og ens
Ġass et
Ġhor rible
Ġmix es
Ġimpro per
Ġcycl onic
Ġemp ires
Ġmaster ed
Ġemphas ised
Ġ177 0
Ġga ul
Ġmood y
Ġstir ling
Ġgett ys
Ġequest rian
a ud
p en
t ry
Ġint ake
Ġper kins
Ġatt ested
Ġjo a
Ġconf essed
Ġsqu id
Ġfall out
Ġpit ted
Ġchief ly
Ġrac co
Ġstere otypes
Ġfluor ide
Ġanx ious
Ġmoll us
Ġinsurg ents
Ġextrav ag
e ger
r ab
w r
Ġc indy
Ġh ue
ou ch
Ġan j
Ġk ag
Ġaf ore
Ġall oys
Ġbl izz
Ġreg gae
Ġdep osition
Ġke ating
Ġ16 00
Ġche ro
Ġpost war
Ġmer cer
Ġham asaki
Ġgreen wood
Ġsam us
Ġbreak out
Ġut terly
Ġts un
Ġnas al
Ġinstitution al
Ġcoc on
Ġflower ing
Ġsweep ing
Ġgenet ics
Ġappar atus
Ġbriar cliff
Ġartef acts
v ich
Ġr ink
Ġper l
Ġi ber
Ġph ones
Ġjud ith
Ġamb ushed
Ġaw esome
Ġtrail ers
Ġ53 0
Ġrib bon
Ġhiros hima
Ġgettys burg
2 6
c ad
Ġb har
Ġand es
Ġh ap
ut ta
Ġne olithic
te xt
Ġall ah
Ġthem atic
Ġdr ac
Ġsign atures
Ġant is
Ġreal ms
Ġassist ants
Ġprepar atory
Ġfashion able
Ġhyp oc
Ġeat on
Ġpione ered
Ġkos ovo
Ġguin ness
Ġhydraul ic
Ġnomencl ature
ar am
Ġl ets
un ken
Ġsh attered
Ġam assed
Ġman kind
Ġbo er
Ġmon aco
Ġmaj ors
Ġref uel
Ġhum ili
Ġroy ale
Ġfre el
Ġmer idian
Ġscen ery
tt a
tt es
Ġfox es
Ġbarb ados
Ġswim mer
Ġnegle ct
Ġecosystem s
Ġjeop ardy
Ġodys sey
c ile
Ï ĥ
Ġa pt
Ġc ron
it ism
Ġe f
Ġv ita
her ty
Ġun ch
Ġag nes
Ġlit ter
Ġstre aming
Ġneg lig
Ġpract icing
Ġps p
Ġdom ains
Ġegypt ians
eg ro
Ġmonten egro
Ġutt ar
Ġacl u
É Ľ
Î ·
it as
Ġg b
Ġu d
Ġu sta
Ġor r
Ġtr ash
Ġnew born
ult imate
Ġsur m
ily n
Ġgames py
Ġfree zing
Ġden ying
Ġlik elihood
Ġhonor able
Ġpilgr ims
Ġcere bral
urg ical
Ġgav in
Ġfutur istic
Ġhebr ides
Ġwillam ette
w at
Ġb ae
Ġf ishes
Ġun used
Ġwor ms
rit e
Ġres ided
Ġrec ession
Ġinter rupt
Ġrev isions
Ġmil o
Ġbar ge
Ġju vent
Ġpat erson
aren ts
Ġur anus
Ġroll ins
Ġaltern atives
Ġglob ally
Ġdeliver ies
Ġmyster ies
Ġdisagre ements
Ġanalog ous
Ġvand al
Ġkrak Ã³w
Ġmercen aries
h ole
re cht
Ġat roc
Ġan ast
Ġend ow
Ġimp erson
Ġgener ator
Ġsim ulation
Ġlo ops
Ġren umbered
Ġnar r
of sky
Ġmir rors
Ġker ala
Ġpartn ered
Ġsi oux
Ġlaugh s
Ġsting ray
Ġawa iting
Ġkens ington
Ġappla uded
Ġevid enced
f man
r ack
r ise
u o
Ġw yn
Ġd ard
am iliar
Ġr s
Ġab rams
Ġcan nes
Ġtrans actions
Ġland lord
Ġgre co
Ġra ises
Ġparticip ant
tr ans
Ġq ur
hold er
Ġpropos ing
Ġrod ney
Ġba fta
Ġpione ering
Ġcous ins
Ġcass ette
Ġbod ied
Ġpod ium
Ġost ens
Ġarbit ration
Ġpist ols
Ġamn esty
Ġchero kee
d aughter
Ġ >
en as
Ġl ime
Ġn abl
Ġpro ps
Ġsh un
Ġres upp
Ġport o
Ġeuro vision
Ġactiv ision
Ġpur ported
Ġ37 5
Ġdefin itions
rif ying
Ġleon ardo
Ġsem ic
Ġrenov ations
Ġips wich
Ġnabl us
c roft
t aker
z one
Ġw ires
Ġst el
Ġk och
Ġor ator
Ġsp elled
Ġser mon
Ġwe ir
Ġreg ulate
Ġmon mouth
Ġdo b
Ġbel ts
Ġju ice
Ġcut ter
Ġlot tery
Ġparan ormal
Ġgrun ge
Ġclover leaf
Ġscutt led
Ġschiz oph
ar ium
Ġto ug
Ġbec ky
Ġpre acher
Ġcare ll
Ġcur ious
Ġmor an
Ġroy ce
Ġbor g
Ġconfeder ates
Ġsax ons
Ġmik hail
Ġglou cestershire
Ġeste em
nem outh
Ġafore mentioned
n itz
Ġk iev
Ġpro w
Ġjo hor
Ġair men
Ġalb at
com es
Ġden oting
Ġlib retto
Ġfair banks
Ġdrum mond
Ġsar at
Ġmun itions
enc ia
Ġrestrict ion
Ġbrew ery
Ġordin ance
Ġstap le
Ġruf us
Ġexplor ers
Ġdemograph ics
i ards
r c
Ġf and
Ġto pp
le ading
Ġj ing
Ġv c
Ġv ague
ill ary
Ġun for
Ġun inter
Ġtr aw
Ġperiod ically
Ġpen ultimate
aret te
Ġresol utions
Ġhes it
Ġincur red
Ġgrate ful
r av
s by
is o
Ġh ath
ig ated
ign ant
Ġbec ket
pl ess
Ġinto x
Ġimp aired
Ġcap ac
Ġcr aters
Ġprop osition
Ġcross roads
Ġec st
Ġactiv ation
Ġconn ie
Ġscore less
Ġexam inations
Ġglass es
Ġanat om
Ġgren ades
Ġswall ow
Ġinterven ed
ĠbÃ© la
Ġgenoc ide
Ġhym ns
Ġvang uard
Ġhomest ead
Ġschizoph ren
f ighters
m ic
m oor
Ġth ai
Ġr anc
Ġj ade
Ġex cer
Ġher tford
Ġ20 8
Ġlar kin
Ġsch w
Ġinst ruct
Ġtit us
Ġcommun al
Ġstat utes
Ġaff inity
Ġfell ows
Ġsam pled
Ġreason ably
Ġguard ing
Ġdocument ation
Ġbeaut ifully
Ġ47 0
Ġcarl ton
Ġinstall ments
Ġark ham
Ġlauren t
Ġflav or
Ġinund ated
Ġdair y
ĠlÃ³ pez
h ra
er l
Ġw ain
Ġp aw
Ġp umps
Ġal s
Ġde cept
Ġv u
pe ople
if olia
ile e
Ġass y
Ġbook let
Ġcomb ust
Ġbrown ing
Ġpay s
Ġmcc ool
Ġliving stone
Ġplant ing
Ġbirth place
Ġcontrast s
Ġunf amiliar
Ġdial og
Ġresear ched
Ġcommemor ating
Ġskull s
Ġknock ing
Ġflem ish
Ġw ic
Ġb ony
Ġf its
Ġan ec
Ġde fer
ag s
Ġdes irable
we ek
Ġmin us
Ġrel ent
Ġtrans m
Ġtit anium
Ġche cks
Ġhum id
Ġbur d
Ġur gent
Ġbra very
Ġpaper back
Ġkr as
Ġshel f
Ġtable ts
Ġpoly gon
Ġwond ers
Ġgrass es
Ġboss es
Ġremark ably
Ġpreserv ing
Ġadmit ting
Ġnatal ie
Ġgue vara
r anes
Å ¼
Ġre class
Ġat oll
Ġk c
Ġro oted
Ġen ables
ru z
Ġgo b
oll ah
Ġcar ac
Ġmat su
ob ia
Ġign oring
Ġhub ble
Ġoverl apping
Ġharmon ies
Ġgif ted
Ġmicroscop ic
Ġinadvert ently
b els
Ġb unk
Ġf anny
Ġl anth
Ġg ne
Ġar lington
Ġman ch
Ġover shadowed
led o
Ġbuild er
Ġgl o
Ġrepl en
Ġluc rative
Ġsant ana
Ġtable t
Ġtell er
Ġthor ium
Ġgren ade
Ġexpert ise
pin wall
Ġecl ips
Ġiro qu
h ir
u w
Ġm n
Ġse mes
Ġop us
Ġang lia
ĠÃ ®
Ġadminist rators
Ġfair fax
Ġstra uss
Ġcob ain
Ġperm its
Ġseiz ures
c reen
Ġs ins
Ġimp lying
Ġlong itud
erv ille
ham mer
Ġarch ibald
Ġdecl ines
Ġdi aries
Ġdun stan
Ġcorpor al
Ġjon as
Ġ59 0
Ġhell o
Ġexplo its
Ġlon gh
Ġdale y
chw itz
Ġriff s
Ġsanction ed
Ġbax ter
Ġjard ine
Ġunconstitution al
b et
r ama
z as
Î ¼
Ġ Å¾
Ġth wart
Ġr ij
Ġch loe
Ġcom a
ist o
ud ge
Ġsp heres
Ġout sp
Ġup ro
Ġz x
Ġchrist gau
Ġimport s
Ġho over
Ġunc redited
Ġign ore
Ġ77 7
Ġsuperst ar
Ġdelight ed
Ġretros pect
ĠgÃ¶ ring
Ġsubf amily
ĠpÃ© rez
Ġc umb
ot hed
Ġthat cher
os em
se in
ip es
Ġver ge
Ġdef ault
Ġdr ill
rop s
Ġland is
Ġhar ness
Ġport ed
Ġel aine
Ġcamp ing
Ġred sh
Ġdi abet
Ġmart ÃŃn
Ġpun j
Ġrh ino
Ġbarb ettes
Ġaz te
Ġobl igation
fr ame
Ġmason ry
Ġpredomin ant
Ġsut ton
Ġplaint iff
Ġfian c
Ġlobb ied
s ley
z b
Ġb oll
Ġl m
Ġl us
Ġre used
ol it
Ġwh arf
Ġun m
Ġcl ive
so hn
Ġmon a
Ġwhere ver
Ġrock well
Ġanim ations
be e
Ġ40 1
Ġparis hes
Ġ95 0
Ġlisten er
grad ation
Ġdict ators
Ġcaut ious
Ġemin ent
Ġstephan ie
Ġfalc ons
ol in
Ġr aced
Ġtr uss
Ġte aser
Ġ20 9
Ġint est
ib us
Ġreg inald
Ġmid field
Ġant it
Ġsuper f
Ġgold berg
Ġfer mi
Ġrecon cile
Ġsupply ing
Ġmedi oc
Ġelector ate
b uster
n en
r ard
w he
at ore
en ko
Ġto ledo
em ate
ial e
Ġser en
Ġrep atri
ons on
Ġlo ads
Ġel bow
Ġclass ifications
Ġgl az
Ġtit ular
Ġobs ession
Ġfa ire
Ġunc ont
Ġlegisl ators
Ġpad res
Ġvulner ability
Ã¦ d
Ġconce al
Ġfacil itated
Ġcylind ers
Ġlegitim acy
Ġmitochond rial
Ġsigism und
h ler
m ie
Ġo ro
at ical
ur u
Ġat e
Ġar v
Ġgo ose
Ġme adows
Ġexp ose
Ġmed ina
Ġref rain
Ġsoc io
Ġneut rons
Ġmole cule
Ġencounter ing
Ġspur red
Ġmock ing
Ġsarat oga
i ks
Ġf ren
Ġh ides
Ġal v
Ġcar c
Ġel ias
Ġrain fore
Ġmodel ing
Ġsar c
ari at
Ġow ens
Ġpul s
Ġchronic ler
Ġunsu itable
Ġweeke nds
Ġamphib ians
Ġconfer red
Ġregener ation
c w
Ġn ate
Ġr agn
et ics
Ġch Ã¢
Ġi bra
Ġinter d
ren ched
ath i
Ġnov ak
Ġstr as
Ġann ih
Ġge ometric
Ġconf uc
Ġmo ly
Ġmc govern
Ġple ist
Ġring o
Ġ178 1
Ġexpect ation
Ġpriest ley
Ġhu bert
Ġparas ite
Ġperipher al
Ġs ik
Ġo asis
Ġm ls
ore sc
Ġun author
Ġover land
Ġed ith
Ġant ig
Ġcoun ters
Ġ23 9
mit te
Ġmart ine
Ġpet it
Ġsand ra
Ġca o
Ġmyth ological
Ġko hl
Ġarmen ians
Ġhob art
Ġpon ies
Ġprostit ution
Ġdegener ated
Ġcompart ment
Ġdetr iment
Ġt b
Ġa quar
Ġf aded
is i
Ġe ct
Ġfor fe
Ġv rs
ri p
ri ous
Ġy us
pt s
Ġrec ons
Ġbr ink
Ġend less
Ġtele commun
co e
Ġcro ats
Ġfa ust
Ġrecogn izing
Ġcollabor ations
Ġnarrow s
Ġsort ie
Ġkat y
Ġweigh s
Ġmcg ill
Ġwend y
Ġlich tenstein
Ġunconv entional
2 9
k amp
Ġa ve
Ġw ired
um en
um ont
ton es
Ġra ider
Ġsmall ville
Ġcapt ures
Ġgun n
Ġsam oa
Ġrain y
Ġanal ogy
Ġquarter ly
Ġshoot out
Ġbit ch
Ġmut ation
Ġencour ages
Ġfuel ed
Ġdefin ite
Ġindu ction
Ġmonument al
Ġpseud o
Ġsubsc ription
Ġsucc umb
Ġversa illes
Ġbless ing
Ġmarin ers
Ġtard is
x i
Ġb ain
Ġd har
Ġre claim
Ġg imm
am eric
Ġk uch
Ġar bor
Ġnot ch
Ġshe tland
Ġimp osing
Ġintern ally
Ġfore head
af a
Ġlab yr
Ġmodern ization
rain e
Ġ178 7
Ġdram as
Ġll an
Ġsap ph
Ġgenu inely
Ġhik ing
Ġsene ca
Ġtransf ers
Ġasym met
Ġhilar ious
Ġpremiers hip
ĠfaÃ§ ade
Ġc en
Ġre z
Ġu cl
et he
Ġch ino
Ġdes mond
Ġgo at
Ġz immer
Ġfam ine
Ġmag ma
Ġfer al
Ġwr ath
Ġstrength s
Ġid i
Ġuns atisf
ni ks
Ġrout inely
Ġrip ley
Ġcompass ion
Ġal ps
Ġde w
em ason
Ġam an
Ġbu gs
Ġsk ies
Ġhum ble
Ġnort her
Ġsal aries
oon er
Ġfoc al
Ġinsp ire
isl aus
Ġchall enger
Ġgoals c
Ġbab ies
bre aker
Ġgil m
Ġexpos ing
Ġsick ness
Ġinvent or
Ġsemif inal
Ġkerr igan
Ġsuprem acy
Ġdiabet es
j ust
Ġs ells
on o
Ġd ess
Ġl ied
Ġfor ks
Ġro us
Ġag ar
Ġdes ires
Ġbl essed
Ġqu ag
Ġph ara
gr ave
Ġyork town
Ġx er
Ġbay on
Ġattend ees
Ġdepend ence
Ġmedic ations
Ġmes opotam
Ġwolf gang
Ġyor ke
Ġbutter flies
Ġbour nemouth
Ġvamp ires
Ġdund ee
Ð º
Ġst ow
ill usion
Ġsh ades
Ġpl un
all a
cl osed
Ġdis illusion
Ġind ec
ug a
Ġz erg
Ġcr acks
ris ons
Ġfar rell
ald i
Ġpot ent
Ġnar uto
Ġbord ered
Ġcolor ful
Ġlog ging
asc ular
Ġcollabor ators
Ġfal un
Ġsid el
Ġlaugh ing
Ġug ly
Ġinvas ive
Ġenlighten ment
Ġusta Å¡e
Ġlabyr inth
Ã ²
Ġl att
Ġg aut
ur ia
Ġse pinwall
Ġk ud
Ġne um
Ġun iqu
Ġsp ared
ra f
Ġus ur
Ġmar ilyn
ry l
Ġcar men
Ġunder wood
Ġcap su
Ġpat ience
Ġbur sts
Ġaud rey
Ġmad ame
Ġdirector ial
Ġvoc abulary
Ġcorps es
Ġconver gence
Ġmig rate
Ġfix tures
Ġkim ber
Ġgy m
Ġrud der
Ġmaced onian
Ġcaf e
Ġconvey ed
Ġcauc us
Ġmedioc re
Ġcapsu le
8 0
Ø §
Ġc z
Ġc act
Ġre wards
Ġse in
Ġch ie
og l
Ġsqu all
Ġmer maid
Ġaff irm
Ġvo ter
Ġprofess ors
Ġlu zon
Ġca ul
Ġnecess itated
Ġram sey
Ġdaniel le
Ġorb iting
Ġmack enzie
Ġaus chwitz
Ġlans ing
Ġpleist ocene
k al
Ġs ach
Ġin let
Ġm ural
id us
ut ant
Ġ17 00
Ġhouse w
Ġer as
Ġdesp air
Ġcompet ent
Ġarg on
Ġsus que
Ġbell a
Ġ72 0
Ġscar borough
Ġloyal ist
Ġbj Ã¶r
Ġcouncill ors
Ġcald well
Ġtroph ies
n om
w ave
Ġs ass
an j
Ġwork force
olog ic
Ġav i
Ġpublic ized
Ġhum idity
Ġstat ure
Ġbur row
Ġmot te
Ġident ities
Ġimportant ly
Ġpur ity
light s
Ġentr ances
Ġreact ors
Ġvow el
Ġhij ack
erse ys
Ġresent ment
Ġlanth an
k owski
Ġp yr
Ġn ou
ag han
Ġun imp
ab is
ab outs
ib or
Ġpe e
Ġdo o
Ġlar s
Ġsl ick
Ġtrans itions
ah i
Ġshort est
Ġreplac ements
Ġsnow fall
ĠÎ ´
Ã¤ r
Ġcontain er
Ġcook ed
Ġreef s
Ġthorn ton
opter a
Ġwilf rid
Ġdiscont ent
Ġbw v
Ġluxemb ourg
Ġibra him
c rew
Ġh ints
Ġre ele
Ġth igh
Ġfir th
Ġus eless
Ġbu ch
ops y
Ġ23 8
Ġtechn o
Ġassemb le
Ġaer os
Ġmah ler
Ġbah Ã¡
Ġfried man
Ġchen nai
Ġadul thood
Ġclut ch
Ġpropon ents
Ġfatig ue
Ġbuccane ers
e ck
t u
Ġd oses
Ġl up
Ġl ively
le ments
Ġst ree
Ġj od
Ġde eds
Ġy ong
Ġsp ru
Ġdis asters
Ġadv isers
rap h
Ġmor row
be g
Ġsal ts
Ġdomin ic
Ġca en
Ġdoctor ate
Ġgene al
Ġcoc aine
Ġsmithson ian
Î º
Ġs Ã©
re a
Ġp ills
Ġg t
Ġg age
im ar
Ġde gradation
Ġcom o
Ġpro k
Ġher mit
Ġcont amination
ons hire
Ġma ud
Ġrepl ic
Ġvo or
Ġrobert o
Ġfrequ encies
Ġlay ered
Ġfavor ites
Ġdistingu ishing
Ġhind ered
Ġveget able
Ġpossess ing
Ġjub ilee
3 3
r one
u er
y ar
Ġd are
as ium
Ġon ward
Ġse oul
Ġsh ine
Ġsh ik
ĠâĢ ł
Ġshe en
Ġcol ogne
ang s
Ġdifferent ial
Ġ23 2
Ġneed le
Ġtank er
Ġrhy me
Ġhyp n
Ġpig e
Ġmol ars
Ġcartoon ist
Ġvalid ity
Ġune ven
Ġsara jevo
Ġsg t
Ð »
Ġc ds
ed ience
Ġj ockey
Ġun pa
Ġsch l
Ġir vine
Ġlocal ization
Ġec u
Ġpen is
Ġcou rier
Ġhands ome
Ġ54 0
Ġbrand enburg
Ġ73 7
Ġ68 0
Ġinterf ered
Ġrevel ations
Ġvern acular
Ġpiz za
Ġnarc iss
Ġtrit on
p ack
Ġt ann
Ġp ett
Ġp to
Ġl id
Ġg ome
Ġg add
Ġu h
ay ne
Ġsh at
ok o
Ġres ide
Ġbl ink
Ġmil ford
Ġgre ed
Ġaward ing
Ġsqu ares
Ġsound sc
Ġpopular ized
Ġinj ection
Ġintens ifying
Ġcompl aining
Ġmort ars
Ġ177 9
Ġwhit man
Ġbyzant ium
Ġthunder birds
Ġtransition al
Ġjen ner
Ġnotice able
Ġyes ter
Ġweakness es
Ġdeton ated
Ġtransp arent
Ġpard on
Ġathen ians
Ġnoct urnal
Ġiroqu ois
o os
Ġt f
Ġhe els
ill us
Ġnot or
Ġte c
Ġfl ux
Ġz oe
Ġob ey
Ġel is
Ġtro ll
Ġrich ie
Ġcirc uits
Ġnar ration
Ġmac ro
Ġgot ten
Ġpurch ases
Ġresc ues
Ġdelay ing
Ġ76 7
Ġmarc eline
Ġcul ver
Ġobst acle
v il
Ġt j
Ġch r
ag ar
art y
ant ine
Ġpr er
ath ing
Ġph i
Ġadd ict
che t
Ġmot ions
tt i
Ġaw ful
Ġrid den
Ġrefle ctions
Ġvent ilation
Ġ166 0
Ġprofession ally
Ġbalk an
Ġcig arette
Ġrework ed
Ġgilm our
Ġpige ons
b led
Ġt aped
ad ors
Ġr Ã¶
Ġab el
Ġcol oss
Ġgr ams
Ġmus ket
Ġso y
Ġbro ws
Ġjun o
Ġbar ris
Ġhel s
Ġsk ins
Ġsk iers
Ġprop riet
Ġve ins
Ġcoll oqu
Ġcreat ivity
umb ling
ios ity
Ġweight s
itt i
Ġrud olf
Ġreluct ance
Ġnurs es
Ġlawsu its
Ġgem ini
Ġaristocr atic
Ġeps ilon
e ous
m ast
Ã ¬
Ġf use
ac ruz
Ġhe ctor
Ġro ch
ant a
pp o
Ġmat ric
Ġdesign ations
Ġcast e
Ġhost ages
Ġbeat rice
Ġyard ley
Ġmud dy
Ġanaly st
Ġsubsid ies
Ġrejo in
Ġspit fires
Ġreli ability
Ġkrie gs
Ġfrankf urt
d orf
u per
he id
Ġk ern
Ġch airs
ire z
Ġfilm ography
Ġport fol
aim an
sc reen
Ġze us
Ġcompar ative
Ġchet nik
Ġprophe cy
Ġa ure
Ġc ork
Ġd aring
Ġj i
ak an
Ġpr at
Ġdr unken
ank ing
Ġsim mons
Ġbar ges
up s
Ġla e
Ġbow man
Ġsam pling
Ġburn ley
Ġthr ill
Ġban quet
Ġabandon ment
nam ara
Ġspect acle
Ġtall er
Ġrab aul
Ġbast ion
Ġantib ody
Ġblame y
Ġintend s
Ġescal ated
Ġw erner
if ix
Ġbr akes
Ġbl iss
Ġpar ameters
Ġimp art
Ġsl ovakia
Ġcal ig
Ġ21 7
Ġball ard
Ġinform ing
Ġwa ist
Ġrow an
Ġmand ela
Ġscul pted
Ġprol ogue
Ġremark ing
Ġstall ion
Ġbotan ist
Ġdiscour se
Ġhort on
Ġfilip ino
Ġnarr atives
Ġprer og
g re
r ish
Ġw int
Ġo le
Ġb k
Ġb aird
Ġn ug
Ġe ad
Ġal p
Ġsc ent
Ġam man
Ġver acruz
Ġrev ital
Ġsl ovak
iam en
Ġroyal ties
Ġball room
Ġesc orts
Ġram irez
Ġbc s
Ġdisappe ars
Ġflank ing
Ġflex ibility
Ġassign s
Ġpus an
Ġconsort ium
Ġporn ography
Ġ Äį
Ġh ats
ent in
am o
Ġis t
Ġall iances
Ġser ver
Ġcent enary
Ġfilm fare
Ġrecord er
Ġmain line
Ġmo ose
Ġ22 9
Ġshot gun
Ġjose f
Ġban ana
ãĤ ¹
Ġtrou pe
Ġjes uit
Ġcorrespond s
Ġhyp ot
Ġcalc utta
Ġshear er
Ġdeterior ating
Ġpetition ed
Ġflour ished
Ġvert ically
Ġarj ona
Ġextrater restrial
Ġobit uary
Ġwain wright
Ġh inted
Ġst ard
Ġv t
Ġam trak
Ġco en
Ġcor ros
Ġche e
Ġrom a
Ġmer lin
Ġfant as
Ġpath way
Ġapplic able
Ġattrib ute
Ġshr ub
Ġshock ing
Ġaqu ed
Ġsig ma
Ġzh ou
Ġmanifest o
Ġshowc ased
Ġprefect ure
Ġpect oral
Ġtorrent ial
s ka
Ġe ats
ad der
Ġk ink
Ġch assis
Ġher ring
Ġcol er
Ġcar ic
Ġpar v
Ġmon ter
Ġinc urs
Ġinv ite
Ġfam ously
Ġbest owed
Ġsum s
Ġannoun ces
Ġ28 5
Ġgreen house
Ġliter al
uk u
Ġod or
Ġtree house
Ġrod den
Ġmack ay
Ġwreck age
Ġfemin ism
Ġprostit ute
Ġconfess es
Ġcatast rophic
Ġinaccur ate
Ġurugu ay
Ġt ile
ay ing
est own
Ġro ost
Ġun int
Ġun ification
Ġbo on
Ġpe ppers
Ġstr ains
Ġang us
Ġfree ze
Ġbrother hood
Ġren Ã©
Ġsquare pants
Ġcontract ors
Ġapproxim ate
Ġdw ind
Ġ177 4
Ġsi han
Ġmarqu is
Ġlandsl ide
Ġniss an
Ġrapt ors
Ġphara oh
Ġgome z
m akers
in ate
Ġw akes
Ġb n
Ġb iod
Ġm ersey
Ġhe el
Ġit er
op on
ough ton
Ġup beat
Ġed ged
Ġsch ul
Ġdiv as
Ġbar ns
Ġfinal ized
Ġcal houn
Ġroyal ists
Ġpal my
Ġru pt
Ġbat avia
Ġolymp us
Ġos s
Ġkel ley
Ġgill igan
Ġpig ment
Ġconspir ators
Ġconstitu ent
Ġascend ed
ĠkÃ¶n ig
Ġanter ior
Ġf ade
Ġf ielder
ar an
al om
Ġu ter
od ic
Ġy acht
Ġun lo
Ġsp anned
Ġpar ry
Ġcre ed
ator ium
Ġpopular ly
Ġhill ary
Ġcontroll ers
Ġcorre cted
Ġrub ble
Ġnic he
Ġkat ie
Ġcruc ifix
Ġeval uate
Ġreich s
Ġneuro l
Ġboot leg
Ġchim ney
Ġnd h
Ġmetabol ism
Ġthres hold
Ġostens ibly
Ġf ancy
Ġg j
Ġg us
ad t
Ġch ong
Ġch ips
Ġor icon
Ġsa fer
Ġship w
Ġsw arm
Ġra e
Ġstand out
Ġ22 8
Ġwood stock
Ġmel ted
Ġemerg es
Ġund oub
Ġbab e
Ġdun es
Ġnames ake
Ġic ons
Ġmis ch
Ġpin fall
Ġcool ed
Ġpros pective
Ġmeg ad
Ġnavig ate
Ġeman uel
Ġbeau champ
Ġchet niks
Ġultr av
Ġindefin itely
Ġnorther ly
h off
p se
Ġp ang
Ġst en
Ġbe acon
Ġan ark
oc l
Ġdef ens
Ġpop ulous
Ġspecial ised
Ġbi ographies
Ġpoll en
Ġbott les
Ġcaps ized
Ġcease fire
Ġrhet oric
Ġexacerb ated
Ġsihan ouk
j av
t ings
w ara
Ġs b
es que
Ġh ain
Ġad ren
Ġpr ud
Ġfin ite
Ġmat hew
Ġcr ushing
Ġgun ner
Ġant agon
Ġposition ing
Ġgang ster
Ġconsc ription
Ġunrel iable
Ġevangel ical
Ġilleg ally
Ġorchestr ated
Ġhots pur
Ġundoub ted
c ote
Ġm ish
Ġd ab
Ġl ull
Ġex che
Ġsp aced
ning ton
ik en
Ġir ons
Ġorgan ising
Ġconv ent
Ġstri pe
Ġmal one
Ġemp ir
wer p
Ġol ig
Ġcm ll
Ġbra at
Ġhero in
Ġimm ature
Ġrid d
Ġdv ds
Ġdun k
Ġoak ley
Ġdetect ives
Ġadvoc ating
Ġloan ed
Ġcaf Ã©
Ġbam boo
Ġunfav orable
Ġunse en
z ep
Ġf ries
Ġp estic
as im
Ġg ing
un i
art en
Ġtr iv
Ġ20 20
Ġgu nd
Ġsuper c
Ġpra ises
Ġmust aine
Ġrecogn izable
Ġpast oral
Ġund is
Ġminim ize
Ġincom pet
Ġnag asaki
Ġcoordin ates
Ġprosper ous
Ġassert ing
Ġrememb ers
Ġunac cept
Ġkaf ka
Ġyester day
Ġexche quer
f our
g m
l ius
el man
Ġcl ones
Ġsc av
Ġte j
Ġper ished
Ġup hold
Ġmin ed
Ġend ings
Ġlit igation
Ġpost ure
Ġpress ured
Ġinj uring
lin er
Ġmeaning ful
Ġutil ize
Ġunp red
Ġhast ily
Ġrecept or
Ġcripp led
Ġape x
Ġrodden berry
Ġ urn
el iness
Ġch app
Ġex ited
ast e
Ġph all
Ġju xt
ony ms
ÃŃ s
Ġconsist ency
Ġrepe al
Ġ52 0
mark ed
Ġaccompan iment
Ġtransform ing
Ġsor or
Ġnerv es
Ġrepet ition
Ġcontend ers
Ġspor adic
Ġskelet al
Ġhedge hog
Ġcomr ades
Ġg own
Ġher ds
Ġres idency
Ġi od
Ġel ton
Ġmillion aire
Ġrepl ies
ham pton
Ġhistor ia
Ã¡ ndez
Ġclos es
Ġnar rated
Ġlat itudes
pr ints
Ġ- -
Ġoak s
Ġfisher y
Ġmurd och
Ġstem med
Ġinteract ing
Ã« l
Ġmathematic ian
Ġgraff iti
Ġblizz ard
j in
j et
m ars
Ġs ot
Ġs orts
st y
Ġfor age
ge an
Ġsp ill
Ġsp ikes
vel ope
Ġloc ker
Ġexp ulsion
Ġfar n
Ġmo ors
Ġearl s
Ġdar ryl
Ġsteam ship
osaur ids
Ġpp v
Ġwiz ards
Ġfract ured
Ġhond a
Ġfoli age
Ġoutsp oken
Ġd ared
Ġu fc
Ġat kinson
Ġne ared
cl assic
ace ut
Ġspe e
Ġmon olog
Ġdef unct
Ġest onia
Ġdisc ern
Ġtop ography
Ġnat asha
Ġtor o
Ġexec utions
Ġbal c
Ġcred ibility
Ġoccup ants
Ġmention ing
Ġcub e
Ġtrust ee
Ġspect ator
Ġdiscip lines
Ġfurn ace
Ġaggreg ator
Ġspo of
Ġlumin osity
Ġtatt oo
ĠmÄģ ori
Ġt Åį
Ġs Ã¡n
Ġc g
Ġc ues
Ġb ors
or ously
Ġp anned
as ki
Ġto re
Ġl h
Ġl ining
Ġl illy
Ġse k
Ġar ising
Ġen velope
ond a
Ġco ats
Ġbl ows
Ġeng ra
Ġter rific
Ġel sa
get s
Ġche et
Ġant werp
Ġwater ways
augh ty
Ġconv ict
Ġalex ios
Ġbol ster
Ġwel ch
Ġbrid g
Ġsentiment al
Ġrosen berg
Ġunemploy ed
Ġpawn ee
Ġdisqual ification
Ġinterl ude
Ġincap able
Ġsavanna h
Ġintric ate
ĠsÃ¡n chez
Ġp are
Ġhe zb
Ġan sel
qu ito
Ġcl itor
ra pe
Ġmar ches
Ġi q
ah aw
Ġmag na
ĠÂ ¥
Ġ24 9
Ġaud itions
Ġgrand daughter
Ġwood lands
Ġnorthern most
Ġbridge head
Ġgard iner
Ġsust aining
Ġcool idge
Ġacknowled ging
Ġsor cer
Ġcrus ader
Ġheir s
Ġdioc let
Ġgrab bed
3 6
Ġt uc
Ġand rom
ic ultural
Ġn ail
iv ities
od ian
Ġun equ
Ġhad n
Ġsc aled
Ġte ens
Ġimp ly
Ġback ward
Ġjust inian
Ġconc ussion
Ġtit ans
Ġled ger
Ġer ad
Ġcle ments
Ġsent in
Ġmot ive
Ġenc ore
Ġcollabor ate
Ġvac ated
Ġdeterior ation
Ġlut on
Ġdepress ions
Ġperipher y
Ġbefriend ed
Ġree ves
Ġsloven ia
Ġoryz omys
Ġunpred ict
Ġdioclet ian
Ġp au
Ġin sec
ic able
Ġre ctor
st airs
ad ar
Ġpar c
Ġstate wide
Ġgl adi
Ġhand el
Ġread iness
Ġbody guard
Ġgar risons
Ġliber ated
Ġtal iban
Ġlind en
Ġtransform s
Ġ91 0
Ġcul p
Ġconsult ation
Ġthorough bred
Ġhammer stein
Ġtum or
Ġmiddles brough
Ġdop amine
Ġpled ge
Ġpatroll ed
Ġskelet ons
Ġdeuts ch
Ġregul atory
Ġchev ro
Ġcutsc enes
Ġultrav iolet
2 2
v ir
en i
Ġl ill
Ġl oth
il and
st ant
oc les
pp ard
anc a
Ġ21 6
Ġnight ing
Ġlim a
Ġce phal
ĠÃ ¾
Ġexc use
Ġspl ash
Ġchem ist
Ġattor neys
Ġkl aus
Ġrib s
Ġgoeb el
Ġgoeb bels
Ġapprent ices
ÅĦ ski
Ġastronaut s
Ġneum ann
Ġmegad eth
Ã ½
Ġin gl
Ġin equ
is al
ow ay
Ġwh aling
od rome
ast ing
ell ular
Ġrem edy
aus ible
Ġver a
Ġter rier
Ġprov ocative
Ġorgan izers
hen y
Ġpal aces
Ġbusiness men
Ġbrig gs
Ġrod ents
Ġjul es
Ġtam ar
Ġaggress ively
Ġinver ted
Ġmagist rates
Ġjuxt ap
Ġhezb ollah
a en
am ore
Ġne at
Ġy emen
Ġun he
Ġres et
Ġbo og
Ġwin throp
Ġel gar
Ġla x
Ġoct opus
omin al
Ġbelie v
Ġsched uling
Ġiv ory
Ġdub rov
Ġphilip pe
Ġtu ition
Ġye oman
Ġrecapt ured
Ġflaw ed
k omm
Ġh ott
et own
Ġcan oe
Ġbr ighter
Ġqu asi
Ġcount ess
Ġrock star
Ġbeh ave
Ġlu igi
Ġestablish ments
Ġassemb lies
Ġdar ling
Ġbound ed
Ġstephen son
Ġsight s
Ġdiet ary
Ġgent ry
Ġbehavi ors
Ġbulk heads
Ġhog g
Ġsustain ability
Ġtill man
Ġnept un
Ġlobby ing
Ġinvas ions
Ġbarric hello
Ġhammers mith
e aux
k ick
o ter
v ald
Ã ®
Ġc b
Ġp f
Ġd ocked
ag le
Ġro pes
Ġmar oon
Ġsm ythe
Ġste pping
Ġmod elled
ull ah
Ġcommand ant
Ġaff iliation
Ġenc ro
Ġwound ing
Ġstock port
Ġmis f
Ġsens es
Ġsant o
ãĤ ¤
Ġbishop ric
Ġmyster io
Ġ98 0
Ġshr ubs
Ã¼r st
Ġmarqu ess
Ġalk ali
Ġvolunt arily
Ġceram ic
Ġreloc ate
Ġdisg ust
j ans
Ġb auer
at io
Ġn ant
Ġg p
ct on
Ġr c
ag os
Ġex ert
Ġag n
Ġdis se
Ġco herent
Ġpar odied
Ġgroup ing
Ġfund ament
Ġgall and
Ġluc ia
Ġstephen s
Ġfear less
Ġsens ational
Ġhenri k
Ġspont ane
Ġrecapt ure
Ġkriegs marine
Ġs val
Ġr ica
ch ool
Ġj ared
Ġan gr
um er
Ġun opp
Ġar ched
Ġen raged
Ġnorth ampton
Ġge ared
Ġbuild ers
Ġmass ac
Ġtar ant
Ġbat ters
Ġjew ellery
Ġpick ett
Ġcompl iance
Ġtowns hend
Ġmand ated
Ġindu ce
Ġbypass ing
Ġkal am
Ġfasc inating
Ġhann ibal
Ġarche ty
Ġtoul on
Ġsabot age
Ġwaff en
4 7
p ill
p ark
Ġb ump
or ax
Ġm ama
Ġn ih
Ġg ed
Ġk ali
Ġmar i
ren ts
Ġpos es
Ġinc is
Ġinc ar
Ġintern ed
Ġdet ain
Ġcross ings
Ġsouthern most
Ġcomment aries
Ġlib el
Ġrein v
Ġkar ma
Ġmut ant
Ġpsych ic
Ġori oles
Ġot is
Ġvul gar
Ġ176 0
Ġyield s
Ġrena ult
Ġsummers lam
Ġgymn asium
Ġadorn ed
Ġunopp osed
a ise
j ak
or b
Ġd ief
Ġn ib
ge nder
Ġste ered
Ġvol atile
Ġsan ctions
Ġiron ic
Ġdun ham
Ġram on
Ġmos ley
Ġreinforce ment
Ġfasc inated
Ġpond s
Ġstam ford
omorph ic
Ġawak ening
Ġpivot al
Ġalge bra
Ġchevro let
i ov
Ġt ipp
Ġt ires
Ġm ce
Ġe uk
Ġst av
im us
ut able
et es
Ġj elly
Ġk ers
Ġk ob
Ġv ista
Ġsc orp
Ġper cept
pl ain
Ġoff ences
Ġim b
Ġfl ocks
Ġind ist
Ġcar v
Ġmin ig
Ġz hu
ier i
Ġeconom ist
Ġrob es
Ġdyn ast
Ġpsych o
Ġliver y
Ġdoub ling
rad ar
Ġpref ace
Ġfo ley
Ġreorgan ization
Ġdesper ately
Ġproc ure
Ġhod g
Ġcovent ry
Ġforc ibly
ocyt es
Ġkram er
Ġbraat hens
Ġdief enb
g um
t op
v ation
Ġt utor
Ġa il
Ġp oc
ir y
Ġk olk
Ġtr ich
Ġcl aw
Ġab ort
Ġbr onc
Ġbatt ling
iet al
ful ness
Ġeas terly
Ġsn iper
Ġwrest led
Ġpul mon
Ġsin ister
Ġsund ays
Ġrub in
Ġ74 0
Ġreun ite
Ġpic nic
Ġnik ki
Ġinsist ing
Ġoversee ing
Ġcoden amed
Ġappalach ian
Ġdubrov nik
Ġdiefenb aker
er man
Ġp anch
Ġg ator
ac er
ch o
Ġis th
Ġcl amp
Ġrec ipe
Ġout comes
Ġem pl
Ġcontin ents
Ġschool ing
Ġ25 5
Ġlow lands
Ġdu ly
Ã¡ d
Ġqual ifications
Ġdar lington
writ ers
Ġpatt y
Ġburial s
Ġshak ur
Ġlag una
Ġtet r
Ġdenomin ations
Ġvisc ount
Ġlongitud inal
t ong
Ġt ama
Ġt su
Ġb ok
Ġf eld
Ġre claimed
Ġk ors
ld on
Ġro che
Ġtr un
Ġab st
Ġall oc
pl an
Ġbr ant
Ġgr ains
Ġdef iciency
Ġset list
Ġdiv es
Ġdown fall
Ġmor i
Ġmilit ants
enth al
Ġemb ank
Ġhaw ker
Ġbatter ed
Ġ178 2
Ġcorre ction
Ġrud d
Ġhindu ism
Ġfert ility
ĠâĻ ¯
Ġhil ary
Ġrah man
Ġnons ense
ogly ph
3 9
f Ã¼hrer
re hend
Ġw ur
Ġd azz
and um
ie gel
cl ock
Ġwe aving
ll i
Ġbar re
Ġtest ify
Ġund es
Ġquestion able
Ġshare holders
Ġcrown s
Ġunp ro
chang ing
Ġdil em
Ġana heim
Ġrestr aint
Ġtibet an
Ġyah oo
Ġlump ur
Ġalbat ross
Ġreclass ified
k kinen
Ġs asha
Ġf ost
or io
Ġh ilton
et z
Ġman zan
Ġob verse
Ġserv ic
ob o
Ġref itted
Ġ25 2
Ġer ich
Ġsum ner
Ġsum med
Ġcover t
Ġpain e
Ġpan hand
Ġwal ters
Ġlog istical
Ġwhit lam
Ġshr ines
Ġpull s
Ġscr ub
Ġfortress es
Ġdenn y
Ġconsolid ation
Ġbeth le
Ġgast ro
Ġphosph ate
Ġmyst ical
Ġganes ha
Ġrevis ited
Ġinsign ia
Ġarbitr ary
Ġcancell ara
Ġpto le
r t
Ġc ared
Ġp ets
ad as
Ġal ias
se au
Ġex iting
Ġcomp ressed
Ġunder parts
Ġver di
Ġcap ita
Ġgre tz
Ġdem obil
Ġsuper ficial
Ġfield ed
ae an
itar ies
Ġrap h
Ġlog ar
Ġtext ures
Ġheight ened
Ġvari ables
Ġbright est
Ġdress es
Ġspar ks
Ġrp m
Ġconsolid ate
Ġaub rey
Ġfing leton
Ġencompass es
Ġhazard ous
Ġcement ed
Ġpharm aceut
ĠhÃ¤ kkinen
Ġundis closed
Ġt ess
Ġc ute
an elles
Ġg Ã¼
Ġth rom
ter ies
Ġk orn
Ġrec olle
Ġdis abilities
Ġfl ute
Ġcent aur
Ġx avier
Ġmal m
Ġsir ius
Ġmol ar
Ġcrest ed
Ġparam il
Ġbeng ali
Ġkidn apping
Ġcrust aceans
Ġmetab olic
Ġhaun ting
Ġscandin avia
Ġtoil et
Ġangr ily
Ġw ÅĤ
es ter
Ġg ail
Ġg ild
Ġr ims
Ġan onym
oll s
Ġreg roup
Ġsa unders
Ġsch u
Ġrece ivers
Ġrad cliffe
Ġfront man
Ġmad h
Ġsepar ates
Ġunl ocked
Ġreign s
Ġtall on
Ġshout ing
Ġae gean
Ġjor ge
Ġpab lo
Ġsval bard
Ġincar cer
r iver
z ef
Ġb ites
Ġr ite
Ġsh ab
Ġam using
Ġqu inc
Ġcar o
Ġsqu ee
Ġhum ber
Ġmilit ant
ple x
Ġ21 2
Ġsol os
Ġround about
Ġinj ust
Ġrefle ctive
Ġdeterm ines
Ġrecomm issioned
Ġbron x
Ġay y
Ġproport ional
Ġrecept ors
Ġdefect s
Ġcommence ment
Ġlyd ia
Ġsemes ter
Ġsidel ined
Ġnighting ale
Ġbethle hem
f ig
r b
Ï Į
Ġm apping
Ġg ently
Ġhe pat
ay as
Ġse izing
Ġout set
Ġpe ach
Ġdr astically
ys ÅĤaw
gr av
Ġmag nes
aff ected
Ġje ter
Ġprogram med
Ġpeter borough
Ġcertain ty
Ġmas ked
Ġdirection al
Ġmos quito
Ġcell o
Ġcondition ing
Ġstro kes
Ġdict ated
Ġstyl ized
Ġmorm on
Ġforerun ner
n ity
w ski
Ġ |
on er
Ġn ah
ad ia
Ġst acy
Ġfor ged
ut ic
Ġse ph
est ones
Ġor t
Ġab used
Ġoff season
Ġbl oss
Ġrep uted
Ġsch n
Ġz appa
Ġgre gg
Ġra ff
che ns
Ġbur gh
Ġredu nd
Ġjud a
Ġvan ity
Ġca vern
Ġhus sein
Ġfat im
Ġmile y
Ġry der
Ġspin ner
Ġutil izing
Ġkne es
Ġbun ny
Ġpoison ed
Ġrus hes
Ġdaw la
Ġbib li
Ġhier oglyph
keep ers
Ġunderm ined
Ġclap ton
Ġstaun ch
Ġchie ft
Ġbronc os
k ap
y der
Ġc ess
Ġto d
Ġl una
Ġwh igs
Ġk ut
th ia
ant ically
Ġint entional
Ġme e
Ġli am
ful l
Ġche ers
Ġhand ing
inc hed
Ġcy ril
Ġcolon ization
Ġ32 5
Ġros em
Ġsle pt
Ġmort imer
Ġeliz a
Ġlic enses
Ġlis zt
Ġwag ga
Ġfrust rating
Ġcomprom ised
Ġãĥ »
Ġdad dy
Ġincons ist
Ġpreval ence
Ġtyrann osaurus
Ġrestr ained
ĠkÃ¶n igs
Ġuplo aded
l und
Ġn il
Ġn uts
Ġn ansen
Ġre inc
Ġsim ulated
Ġhar lan
Ġcor ro
Ġshort stop
Ġrest s
Ġmark ham
Ġfle es
Ġthr ash
Ġq a
Ġbab a
Ġgra f
Ġsens ibility
Ġsatisf actory
Ġdangerous ly
Ġdiplom acy
Ġpant her
Ġsib elius
Ġgoth am
ele ctric
Ġruth less
Ġhoney e
Ġandre as
Ġchore ographer
Ġdispers e
Ġfrances co
Ġgonz Ã¡
Ġmascul ine
Ġc oss
Ġf ia
ar as
Ġr f
ag in
Ġy un
Ġpl agi
Ġsc ared
Ġman gan
Ġco el
Ġfl ock
Ġform ulated
Ġmod ify
Ġmark ers
by n
Ġ26 2
Ġsele ctors
Ġale ppo
Ġwil kes
Ġlower ing
Ġalex is
Ġdig its
Ġiron ically
Ġentr usted
Ġpoly mer
Ġsusp ense
Ġbot any
Ġmetropol is
Ġovers ight
Ġorch ard
Ġviad uct
Ġundoubted ly
ĠgonzÃ¡ lez
Ġs ain
Ġb ov
Ġb ids
Ġm ald
Ġe wing
ap ul
Ġlo xton
ene uve
ott o
Ġprop ri
Ġord ained
Ġrevolution aries
Ġpin ch
Ġsurvey or
bro ken
Ġtast es
Ġarist otle
Ġnomine es
Ġcauc as
Ġanders en
i ating
o in
Ġb p
Ġf iber
at ism
Ġp elle
ot ech
Ġcon tended
Ġj avan
os cop
ond ition
Ġli ability
Ġconst r
Ġav id
Ġblack m
ĠÂ §
Ġchap lain
Ġsyn onymous
ograph ically
Ã¸ y
Ġsad d
omy c
Ġpel opon
Ġrecall ing
Ġencompass ing
Ġmarx ist
Ġmoz art
Ġcataly st
Ġellip tical
Ġcaud al
Ġdrac ula
Ġgretz ky
k ets
r ador
Ġt and
ion age
Ġcon ject
te au
ath us
Ġpres iding
Ġshow runner
Ġfam ed
Ġdet ract
Ġsun rise
Ġpur d
writ ing
Ġconcent rating
Ġclar inet
Ġgrey hound
Ġgib bons
Ġmanip ulation
Ġbeck ham
Ġannoy ed
Ġvass al
Ġrefurb ished
c omb
h uman
l io
Ġa ol
Ġk athy
av is
ak o
Ġint u
Ġrec uper
Ġgame pro
Ġpos ing
Ġfam itsu
Ġhum e
Ġorgan ise
Ġ21 1
Ġarch du
Ġwild er
Ġ32 2
Ġdrum ming
Ġpurs u
Ġstrateg ically
Ġpath ways
Ġadj utant
Ġot ters
Ġhob by
Ġdl c
Ġjewel ry
Ġimpr int
Ġsusque hanna
l ace
p arents
u aries
Ġw ary
Ġm ord
Ġg ou
id uous
ch rist
ide a
Ġtim ed
Ġres h
Ġsch ooner
Ġgovern orship
Ġcr ashing
Ġmodern ist
Ġwood ward
Ġos borne
Ġintegr ate
Ġ175 8
Ġdiagn ostic
Ġlen o
Ġdispers al
Ġanchor age
Ġengr aved
Ġrans om
Ġschmid t
Ġanark y
Ġa ali
Ġthe res
ar um
Ġth ru
Ġv all
Ġsl ap
Ġeast wards
Ġdem ean
Ġant an
Ġ23 4
Ġstri fe
Ġsun s
Ġsn yder
Ġgro oves
Ġcann abis
Ġspring steen
zz o
Ġunf old
Ġbol ivia
Ġrug ged
Ġforb ade
Ġdisturb ances
Ġmim i
Ġdissatisf action
Ġnect ar
inty re
g reen
Ġm iser
Ġwe instein
ib u
ivers ity
Ġroad ways
Ġche ating
Ġvol ks
Ġhelp ful
ett led
Ġpy thon
Ġsid d
Ġcob alt
Ġerr atic
Ġstere otype
Ġlor is
Ġxx x
Ġchal uky
Ġrememb rance
Ġsolic itor
Ġdard anelles
Ġbalc ony
Ġdynast ies
5 6
g ement
h ang
Ġt au
ou in
Ġch atham
ff er
Ġap ache
Ġgr apes
Ġnational ity
Ġav ro
Ġleg ions
Ġpark inson
Ġlab rador
Ġbow en
Ġpac ing
Ġburn ett
Ġtun ing
uff ed
Ġsle a
Ġcold play
Ġhear st
Ġabd ominal
Ġseed ed
Ġacceler ation
Ġsne ak
Ġrall ied
Ġtik al
vol ent
Ġnell ie
Ġp ork
Ġp oured
Ġfor s
ok ovic
Ġplay ground
Ġme ck
Ġfl an
ale a
Ġpers pect
Ġclass room
ik os
Ġdirect ive
Ġmemb ranes
Ġchrist church
Ġsuper iors
Ġgrand children
Ġhol m
Ġscreen ings
ien cies
Ġ76 0
Ġsight ing
Ġdiscip les
Ġdj okovic
Ġpic cad
Ġfuck ing
Ġphylogen y
Ġeuk ary
Ġaali yah
Ġw ich
Ġc ough
Ġf y
or ical
Ġr ÃŃ
Ġpro jections
Ġsh p
Ġro ther
Ġsp ies
Ġco e
Ġchar iot
ne il
Ġbur ge
Ġvill eneuve
Ġball ots
ara ja
Ġreb irth
Ġbi ochem
Ġexec uting
ago ons
Ġnovel ty
Ġexc urs
Ġlie ber
Ġfan ning
Ġ51 0
Ġbuy ers
Ġay les
Ġesp ionage
Ġidol ator
Ġassert ion
Ġposter ior
Ġgorge ous
s sel
Ê Ĭ
Ġb ounce
or ah
Ġm oy
Ġg is
Ġg om
Ġbe eth
Ġr ave
ber gh
Ġrec omb
Ġim itation
Ġma res
Ġexp ands
Ġbar bed
Ġhar rier
Ġhead lines
Ġgl ove
Ġexpl ode
Ġmor se
Ġpa ige
Ġfire power
Ġtre y
Ġder ive
Ġsens ory
Ġadap ting
Ġreservoir s
Ġsut cliffe
Ġinterrog ation
Ġapocaly pse
Ġsubdu ed
Ġsew age
Ġhandic ap
Ġpiccad illy
t re
Ġt eng
Ġm Ã©t
st ood
ol ta
Ġwh al
Ġy p
Ġaf i
ign on
Ġmar red
Ġwe is
Ġpr iced
Ġqu o
Ġfr ing
ism a
Ġel ena
Ġdifferent iate
Ġve il
Ġsit a
Ġplot ting
Ġtermin ator
Ġ178 4
Ġproduct ivity
Ġacid ic
Ġswit ches
Ġmol t
Ġloyal ists
[...]
