#version: 0.2 - Trained by `huggingface/tokenizers`
Ġ d
e s
Ã ©
Ġ l
o n
e n
Ġ p
t i
Ġ c
Ġ <
Ġd e
a n
Ġ s
Ġ a
r e
e r
en t
u r
ti on
i n
q u
i s
Ġ e
Ġl a
i t
Ġ< /
Ġ m
r a
Ġe t
l e
Ġd es
o u
o r
a r
u n
Ġl e
Ġl es
Ġ t
m ent
Ġp r
Ġ Ã
a tion
Ġ n
Ġ qu
Ġ f
o m
ĠÃ ł
Ġ r
t e
i l
â Ģ
Ġ en
Ġc on
Ġa u
o ur
Ã© s
an t
a l
Ġd u
e l
âĢ Ļ
Ã ¨
i c
Ġ Ã©
Ġ un
s i
Ġ v
Ġp ar
a u
t a
c e
Ġpr o
an s
Ġ in
i r
Ġc om
m e
Ġd Ã©
Ġ g
Ġ b
e ment
t Ã©
Ġp our
Ġ re
r i
u s
on t
c i
l i
p p
e c
a s
qu e
Ġd ans
i re
Ġqu e
t re
c h
Ġs ur
Ġr Ã©
Ġ (
it Ã©
Ġ 1
0 0
e t
es t
Ġ 2
d i
s e
r es
l es
r o
l a
t u
f f
o l
Ġ j
m p
on n
t er
Ġ o
Ġun e
e u
d e
ou v
t s
Ã© e
Ġqu i
a c
a g
i v
Ġa v
ou s
ation s
er s
on s
Ġp l
o s
c es
Ġc h
a le
Ã© es
ur s
Ġau x
i e
Ġ ou
Ġ est
Ġf a
u l
a d
tion s
i g
Ġ h
ti v
Ġe x
qu es
m es
p Ã©
Ġs u
p r
Ġcom m
d u
Ġa c
n e
a b
m b
Ġp a
au x
or t
Ġm a
Ã¨ re
Ġ2 00
Ġ ra
Ġm o
en d
Ġ il
el le
ir es
si on
Ġc e
an d
Ġc an
or m
t r
Ġt ra
Ã© n
c u
ti f
Ġs e
in s
Ġp o
Ġp as
Ġpar ti
Ã ª
an ce
Ġs er
t en
r Ã©
t es
Ġcon s
c tion
g ra
m in
i d
Ġpl us
a t
Ġs o
ĠÃ© ta
y s
Ã© ra
Ġs ont
en ce
g i
i ent
e x
is s
Ġpr Ã©
Ġ i
Ġt r
ent re
Ġin ter
t ra
ant s
en s
it Ã©s
Ã© r
un e
Ã¨ s
Ġt ou
a ire
Ġa pp
Ġ :
u e
Ġ ont
Ġcom p
Ġ Â
or d
v en
l o
it s
a ires
er n
l Ã©
Ġ an
Ġpr Ã©s
Ġd is
it e
Ġn e
Ġg r
Ġav ec
Ġd o
Ġs a
is e
Ġn o
Ġl i
ĠÃ© tÃ©
Ġr Ã©s
le ment
Ġc o
Ġc et
Ġ âĢ
Ġr es
or g
b l
u re
v a
in e
p e
Ġcon c
f orm
t res
ad a
ĠdÃ© c
i que
an is
Ġ 3
Ġp u
o ir
a m
al es
on d
o c
g e
j et
ra tion
Ġd ro
ig n
Ġ1 9
ic ation
Ġser v
Ġp eu
el les
ag e
u x
Ġc es
Ġp er
ement s
Ġra pp
Ã ´
i on
Ġcan ada
Ġs i
Ġa d
Ġ entre
ur es
Ġp ers
te ur
ch e
a it
ti que
Ġm ar
Ġs Ã©
p o
gra m
Ã¨ me
ĠÃ ª
u m
Ġs ec
Ġd i
v e
t ri
s s
Ġ -
b li
tu re
Ã© d
org anis
Ġf in
p h
ĠÃª tre
Ġcet te
il le
Ġserv ic
Ġpro gram
Ġg Ã©n
e mp
Ġn ous
ti tu
Ġc a
. .
Ġpers onn
Ġinter n
ti l
ci p
te urs
Ġm e
Ġm in
ti n
e au
i er
a pp
an g
Ġs ou
our s
Ġe ff
Ġr en
Ġpa ys
Ġre c
Ġs es
Ġt er
ti ques
Ã© ri
Ġn om
o pp
Ġa r
v el
Ġcomm un
ĠgÃ©n Ã©ra
is sion
Ġi mp
Ġin s
el s
is t
ĠdÃ© p
b re
Ġintern ation
Ġle ur
vel opp
o pÃ©
ĠprÃ©s ent
ab le
Ġm es
Ġpro du
es tion
_ _
se il
an de
Ġtra va
ĠdÃ© velopp
Ġcon seil
Ġ 4
Ġb i
Ã© g
Ġs on
Ġl o
Ã¨ res
Ã© ta
ĠâĢ ¢
Ġo b
i es
Ġtr ans
Ġd onn
ĠÂ «
ouv ern
f in
Ġn ouv
ti c
b le
Ġ 5
Ġcom me
Ġd ire
ar i
a di
Ġv o
Ġde m
ment s
re r
Ġso ci
en ne
tiv e
is ation
u i
t o
Ġm on
ic i
Ã §
u til
Ġp os
Ġcon f
ces s
Ġg ouvern
ĠÃ© c
) .
ĠrÃ© p
or s
i ques
Ġn ation
Ġ y
ĠrÃ© gi
u t
ĠdÃ©velopp ement
om m
) ,
Ġtrava il
e ur
Ġf or
o p
in es
Ġservic es
Ġpro jet
Ġ es
Ġrapp ort
Ġfa it
ic a
Ġac c
Ġpo li
ent s
Ġa l
ale ment
ĠÃ© g
Ġde v
a v
Ġ w
Ġme mb
is es
ic e
t h
po si
i x
Ġc ol
u tion
tr u
tiv es
i m
tif s
Ġe l
as s
Ġ19 9
Ġgr ou
Ġ ti
Ġp re
our n
ar d
Ġc er
eu x
b il
Ġ organis
Ġe ur
Ġcomm ission
on om
Ġcan adi
in t
Ġm Ã©
me t
Ġj e
Ġres p
i Ã¨re
le c
Ġ on
Ġde ux
Ġdro its
Ġa t
r it
ch er
Ã¨ g
Ġn on
Ġa in
d es
Ġain si
Ġa ss
Ġan n
ĠÃ©ta ts
Ġpro p
Ġf ond
Ġprogram me
ant Ã©
Ġm il
l u
2 00
an te
Ġv ous
u ation
Ġa m
Ġ 6
au t
Ġf orm
v al
Ġch a
o is
Ġv is
Ġdi ff
ol o
Ġgouvern ement
en n
Ġs antÃ©
Ã ł
Ġex p
h n
Ġs ys
Ġt ous
ĠÂ »
c ur
b les
Ġnom bre
Ãª me
Ġpeu t
Ġdire c
Ġma is
ti s
tÃ© ri
tri b
Ġpr in
tiv itÃ©s
Ġ k
Ġcom itÃ©
tÃ© g
ac c
al itÃ©
Ġmemb res
Ġj u
Ġle urs
ent e
Ġp la
Ġsu iv
pr Ã¨s
tic le
Ġf on
ven tion
Ġt h
Ġre pr
v ir
Ġre la
Ġc rÃ©
a is
c o
or ts
Ġr Ã¨g
Ġcer ta
pÃ© ci
Ġs ous
o b
gra ph
Ġsys t
Ġpre m
si ons
ĠsÃ© cur
end re
se mb
u es
ĠÃ©g alement
Ġc as
Ġs pÃ©ci
Ġfa ire
Ġn Ã©
en ces
mb re
Ġm an
v is
Ġeur opÃ©
v ent
il l
Ġn ations
ĠsÃ©cur itÃ©
Ġl ors
t ant
Ã ®
tion n
Ġcom pr
Ġau tres
e m
al is
i f
Ġtou t
ti Ã¨re
Ġo ff
Ġlo i
Ġ 7
Ġ util
ra it
Ã £
Ġt ec
Ġv i
Ã »
Ġs it
m a
Ġtec hn
Ġpa ra
Ġc ad
au tres
Ġg estion
v re
Ġau s
Ġ 9
an ces
en ti
Ġ %
Ġconc ern
Ġrepr Ã©s
form ation
er v
ce p
m is
Ġf ourn
se ign
Ġm Ãªme
Ġpu bl
onn ement
Ġcon tre
our ces
Ġre cher
Ã ¢
v o
in g
iv ers
Ġ 8
Ġj us
Ġdro it
Ġin d
m ment
Ġdo cu
la b
Ġparti cu
te ment
Ġmes ures
Ġimp ort
Ã© li
min is
p ar
Ġbi en
Ġpl an
ul ta
ĠÃ©c onom
a ient
u d
ĠrÃ©gi on
Ġel le
Ġres s
Ġac tivitÃ©s
u er
Ġparti cip
j ec
f or
Ġgrou pe
Ġper met
Ġprin cip
Ġparticu li
Ġaus si
c er
il s
Ġt o
om a
Ġa ff
p a
Ġparti e
i ti
i de
Ġa g
ol ution
l ar
Ġd ont
o ci
Ġtou te
Ġun ies
c Ã©
Ġcad re
Ġm ise
ouv er
Â ©
Ġpersonn es
Ã© qu
Ġfon ction
Ġf r
ĠdÃ©c is
Ġca p
Ġa fin
Ġdo it
t Ã©s
Ġt en
Ġfin an
ĠnÃ© cess
Ġs ta
Ġmar ch
Ġau t
Ġn iv
Ġdem ande
ĠreprÃ©s ent
i mp
Ġin di
ant es
Ġc or
ar ticle
c a
Ġf em
Ġ 0
Ã´ le
c ri
ex p
ĠgÃ©nÃ©ra l
Ġc ours
Ã© tÃ©
__ __
Ġpu bli
Ġpubl ic
Ġutil is
si d
ab les
e urs
Ġp h
Ġmo y
ĠprÃ©s id
end ant
Ġb as
a te
Ã©r ence
vir onnement
Ġe mp
Ġma tiÃ¨re
Ġc ar
Ġcomp te
Ġc el
i Ã¨me
un ion
Ġc our
c t
Ġdonn Ã©es
in d
Ġv er
Ġcomm er
Ġt ro
i ons
es tions
minis tra
Ġpro f
Ġdis posi
Ġrecher che
Ġc l
Ġm en
Ġs tra
is te
v oir
m o
Ġt Ã©
Ġin c
Ġd ur
v es
Ġsyst Ã¨me
Ġch ar
it er
e z
Ġso it
Ġress ources
Ġm ont
te ction
Ã¨ mes
in formation
Ġpoli tique
Ġprogram mes
Ġqu estions
ĠrÃ© g
t al
p es
ta ire
on g
ent es
Ġs ans
iv ent
Ġpara graph
Ġpos si
Ġqu estion
Ġ1 0
lab o
ab il
Ġconcern ant
Ġp ouv
ĠrÃ¨g lement
Ġav ant
m Ã©
Ġsu b
Ġcon trib
Ġsec rÃ©
c Ã©d
ta mment
p u
Ġprodu its
.. ..
el on
a ts
l ication
Ġresp ons
Ġt emp
Ġtou tes
Ġen f
om me
Ã ¹
Å ĵ
Ġd oma
Ġfinan ci
g ie
Ġpro tection
or is
Ġs eu
x e
Ġm et
Ġrec omm
di f
Ġfem mes
Ġdem and
Ġpo int
Ġcon sid
Ġmin ist
Ġpl u
Ġcons titu
ic ations
Ġf ac
Ġentre pr
elle ment
ĠrÃ©s ulta
t ro
Ġinternation al
lo y
Ġo Ã¹
l Ã©e
le v
Ġma in
bil itÃ©
e aux
t on
Ġ ent
ac tion
ag es
ic h
Ġ [
or te
l Ã¨
val uation
an n
Ġpoli tiques
Ġpeu vent
p ec
Ġh um
Ġpr om
Ġs elon
ĠâĢ ĵ
ĠdÃ© f
o de
ul ture
r Ãª
on c
Ġcon tin
Ġniv eau
is tre
Ġcon vention
Ġren seign
Ã© ment
Ġp Ã©ri
Ġde r
l er
qu er
Ġp e
Ġs ign
ĠgÃ©nÃ©ra le
ra tions
Ġparagraph e
Ã©ta t
o ire
Ġno tamment
ul ation
Ġin f
t ation
Ġpro cess
Ġb ure
Ġn a
Ġp ra
Ġb es
Ġmo ins
Ġcon tra
Ġtro is
Ġd Ã©s
Ġdo ivent
Ġj our
res s
Ġprocess us
ĠdÃ© b
Ġbes o
olo gi
Ġcommun au
Ġl Ã©g
Ġin form
Åĵ u
Ġcon di
Ġob jec
am en
an ti
Ġservic e
1 9
la ire
ci d
Ġm al
Ġenf ants
iss ement
Ġinternation ale
Ġmo dif
Ã©li o
Ġcon n
Ġdis p
Ġder n
Ġ .
Ġcon form
Ġdiff Ã©r
Ġo c
Ġc ro
Ġgr and
ĠÃ©ta it
ĠÃ© tu
Ġa b
Ġmil li
Ġrecomm and
Ġparti es
Ġins titu
Ġtrans p
Ġmon di
Ġrenseign ements
Ġco opÃ©
tÃ© e
min er
Ġad op
ĠdÃ©c la
in ter
Ġv ue
ĠprÃ©sid ent
on e
Ġ z
Ã©d Ã©ra
Ġ ans
Ġapp ro
Ġex emp
ti en
Ġc ent
ten ir
ĠrÃ© du
h omme
Ġcon tr
b er
00 0
r ic
ĠrÃ©sulta ts
us tri
Ġren for
Ġa prÃ¨s
organis ation
Ġac tu
Ã© c
ĠeuropÃ© enne
l ic
g ag
Ġr is
Ġo f
Ġresp ec
Ġ1 5
s u
g ation
Ġt ri
et s
ure r
Ġpro bl
Ġ $
lo i
pÃ© ri
Ġl oc
Ġ200 6
Ġmo d
Ġf Ã©dÃ©ra
iss ance
Ġ2 0
ĠrÃ©s olution
ĠrÃ© f
Ġ200 5
ĠdÃ© m
Ġacc ord
Ġau tre
Ġdocu ment
Ġ "
Ġth e
Ġform ation
Ġ1 2
Ġtra it
ĠdÃ© fin
enn es
er c
Ġil s
Ġsu pp
Ġbas e
Åĵu vre
il i
Ġno tre
Ġpo p
Ġra is
ĠdÃ©cis ion
Ġa s
m an
ĠÃ©conom ique
Ġg ar
1 0
ĠdÃ© ter
ra ient
ĠÃ© lec
ch es
tiv itÃ©
Ġ200 4
w w
Ġeff ec
Ġses sion
Ġsec teur
Ã© cu
Ġminist Ã¨re
o y
om p
Ġc li
ra is
lÃ© ment
v i
Ġcha que
Ġcom pÃ©
Ġcons ul
Ġc i
ari at
Ġtra v
it es
Ġbure au
Ġli m
Ġs al
Ġsit uation
ĠtÃ© lÃ©
ac itÃ©
Ġpr i
te l
e ff
Ġo pÃ©
r u
Ġfond s
ten tion
Ġtr Ã¨s
Ġin tÃ©
a p
semb lÃ©e
Ġpr es
eu re
Ġli eu
Ġtemp s
Ġpla ce
Ġser a
Ġg ra
g r
Ġv ie
or itÃ©s
v in
g Ã©
Ġnation al
Ġj ur
ĠcoopÃ© ration
Ġv ale
m er
Ġv ers
Ġfa Ã§
Ġm Ã©d
ĠÃ©ta bl
ĠprÃ© c
Ġvo tre
Ġob s
Ġb ud
Ġp or
Ġti tre
o le
Ġpar ten
pu is
Ġcerta ins
du c
si eurs
Ġp ol
Ġpar t
ĠÃ© qu
Ġl ong
Ġmes ure
ag n
g ment
ance ment
abil itÃ©
Ġsoci Ã©tÃ©
Ġl ui
an c
Ġprojet s
Ġpas s
Ġ200 7
is se
iti a
Ġd ate
Ġch ang
us es
Ġ and
Â »
Ġes s
Ġprop os
Ġ Åĵuvre
labo ration
y ant
ĠpÃ©ri ode
min ation
qu Ã©
Ãª tre
Ġqu el
Ġav ait
Ġd ol
Ġbud g
Ġfa m
Ġpr iv
a teurs
t ent
Ġconc er
Ġd ivers
Ġ200 3
Ġi m
Ġn or
i Ã¨res
Ġ or
si onn
Ġv ol
a i
l ation
Ġdol lar
Ġpersonn el
Ġcol lec
Ġav oir
ou p
semb le
Ġco Ã»
Ġde puis
Ġm is
Ġplu sieurs
Ġconform Ã©ment
Ġ 000
Ġ1 1
Ġ â
ĠfaÃ§ on
Ġna ture
Ã´ t
ille urs
app lication
as semblÃ©e
Ã© valuation
Ġdisposi tions
Ġt y
on i
en tif
Ġau c
Ġ1 3
Ġ200 2
a ff
Ġd iv
si tion
Ġmet tre
Ġparticuli er
ord in
Ġconn a
Ġpro vin
Ġpersonn e
un is
Ġ1 8
Ġcondi tions
Ã© v
Ġnouv eau
cu e
un es
Ġdollar s
ven ir
ĠprÃ© v
Ġex ig
Ġconf Ã©rence
Ã©n Ã©
Ġc ulture
ne xe
Ġprem iÃ¨re
er a
Ġfonction n
tÃ© es
Ġvi ol
Ġdoma ine
tru c
o pe
en vironnement
Ġcompr is
u tions
Ġobjec tifs
Ġprof es
o ff
ĠÃ© v
Ġter rit
Ġqu alitÃ©
Ġpro posi
co re
ord re
Ġtri b
o ra
Ġc entre
Ġcommer ci
Ġs ol
Ġdev rait
Ġpar lement
Ġt aux
Ġhum a
Ã© ro
Ġd ou
or itÃ©
qu Ãª
Ġpro cÃ©d
Ġn os
ĠÃ© ch
al isation
Ġen core
Ġc in
tiv ement
in tÃ©
e ures
ce ment
cri p
Ġsu jet
it aire
Ġrec onn
Ġs ci
Ã© ch
t oc
Ġad ministra
Ġmarch Ã©
ĠdÃ©p ens
Ġ1 4
Ġcontr Ã´le
tÃ© gi
Ġp endant
m i
Ġpubli que
Ġ200 0
Ġstra tÃ©gi
v er
Ġ Ì
p ro
Ġentrepr ises
Ġ200 1
Ġann Ã©es
ti ss
ĠsecrÃ© taire
cu p
r Ã©e
Ġpr endre
l ations
Ġtrav aux
Ġnouv elle
li g
Ġr Ã´le
i p
tr ang
an ge
Ġnation ale
Ġf ois
Ġch e
Ġc eux
ĠlÃ©g is
Ġemp loy
Ġc au
Ġex a
Ġass oci
Ġse p
it ation
Ã© p
f ois
ĠrÃ© alis
Ġre ven
ĠmÃ© th
Ġ3 0
Ġgrou pes
Ġrapp orts
Ġb Ã©nÃ©
Ġs ite
Ġorganis mes
il les
Ġexemp le
ex amen
Ġn u
Ġcel a
Ġgr ande
om b
Ġa ur
Ġ is
enn ent
tr ic
a ide
Ġc al
Ġc iv
Ġn Ã©g
ĠdÃ©cla ration
Ġpa ix
Ġc ri
Ġdocu ments
a z
end ement
om mes
Ġca ra
Ġorganis ations
Ġfin ancement
Ġmin istre
ĠdÃ©pens es
Ġt ant
Ġnouv elles
Ġver tu
i le
Ġ >
ĠÃ© n
r ent
i ers
Ġprem ier
Ġd onc
Ġtrib un
Ġpop ulation
bli que
Ġvis ant
qu ement
Ġman iÃ¨re
en se
util isation
Ġen gag
n o
Ġau to
it aires
Ã©ri f
Ġa yant
Ġconcer ne
ĠrÃ©p u
ig ne
Ġb r
g es
Ġ1 6
u Ã©
____ ____
Ġs y
Ġf er
o g
duc ation
is er
f r
Ġen vironnement
Ġo bli
or i
Ġv Ã©rif
Ġrela tives
Ġl ang
Ã ¯
re g
Ġr ou
Ġre mp
Ġpouv oir
Ġt a
iss ant
ce mbre
Ġt able
si f
Ġjus qu
Ġs us
olo gie
2 0
Ġmilli ons
Ã® tre
ĠprÃ©sent e
ad ministra
Ġbeso ins
Ġlors que
i di
Ġpe ti
Ġel les
al y
Ġser ont
Ġes ti
ĠdÃ© cembre
iss ent
Ġmoy en
j o
ĠrÃ© union
Ġcanadi ens
ĠdÃ© lÃ©
Ġa li
Ġsa voir
Ġi i
Ġre Ã§
Ġl ut
Ġaff aires
Ġmon de
Ġso ient
Ġparticip ation
ten ant
Ġcons Ã©qu
Ġprodu ction
Ġou tre
c c
Ã©lio rer
ĠrÃ©p ond
Ã©ta bl
emp loi
qu elle
Ġoff ici
g ations
ch ton
Ġcommunau tÃ©
acc ord
ĠÃ©ta ient
Ġla quelle
tÃ©ri eur
ou t
ĠbÃ©nÃ© f
Ġcanadi en
Ġn um
Ġconc lu
Ġn ord
Ġ200 8
Ġ1 7
rÃª t
Ġ id
Ġsu ite
Ġje unes
Ġcanadi enne
p it
in te
Ġcom ment
Ġinform ations
Ġgar anti
1 1
er t
x es
ĠrÃ© c
Ġauto chton
Ġeff orts
Ã© tu
Ġpossi ble
Ġcommer ce
Ġpour su
Ġeffec tu
Ġprobl Ã¨mes
Ġcerta ines
c our
Ġmo is
us e
Ġm ul
in ts
e b
a teur
Ġju in
Ġprofes sionn
Ġau gment
s t
Ġdire ction
ord onn
ĠdÃ© j
Ã©ra tion
ĠrÃ©pu blique
er ts
Ġpr is
Ġvale ur
Ġp ort
Ġnouv eaux
erc ice
Ġseu lement
o les
Ġ u
Ġ19 8
Ġpr ix
1 2
Ġc r
Ġes p
.... ....
ab it
Ġt ex
org an
Ġa id
Ġjur idi
Ġtr ouv
Ġ2 5
Ġm i
ĠnÃ©cess aire
Ġf aut
Ġess enti
tru ction
administra tion
Ġdisp oni
Ã¨re ment
y er
imp ort
Ġf ig
ten u
lÃ© ments
Ġmar s
ĠmÃ© c
ĠrÃ©g lement
Ġo p
c tions
ustri e
ĠÃ©ta t
Ġter me
ri que
Ġto tal
1 3
Ġin itia
Ġprom o
aly se
Ġtrait ement
acc Ã¨s
Ġdes tin
. ,
Ġapp r
Ġimport ant
ri er
ist ance
u el
ĠdÃ© ta
Ġtoute fois
Ġat te
Ġli b
Ġav ons
Ġj ou
li qu
Ġcom b
Ġun ivers
ĠÃ© lev
t ariat
ari o
in f
Ġv ou
Ġmont ant
Ġtransp ort
ĠdÃ©fin i
Ġsyst Ã¨mes
Ġobs erv
Ġfr an
Ġcons omm
Ġsur ve
ar t
Ġm and
truc ture
Ġno te
Ġch ez
Ġpour rait
Ġnor mes
ille t
p s
Ġprop ri
onn e
en semble
ĠeuropÃ© en
j our
o d
ĠsecrÃ© tariat
Ġtribun al
oc cup
ra l
tÃ©g ie
Ġma tÃ©ri
Ġeff et
Ġl iste
is ant
Ġsou tien
as se
Ġann Ã©e
ĠÃ© tant
la ires
Ġbudg et
en f
ĠdÃ©j Ãł
Ġstra tÃ©gie
) ;
- -
Ġinstitu tions
Ġc ir
p ri
Ã© ducation
le ction
Ġrais on
d it
av ant
Ã© h
p er
Ġrecommand ations
ĠÃ© trang
b a
Ġcel ui
el l
r il
ti ce
g u
Ġautochton es
mÃ© di
ĠcompÃ© ten
ri e
Ġc elle
ĠÃ©ta bli
f s
r Ã©s
du re
w a
Ġra p
Ġpra tiques
gr Ã¨s
ra s
te mbre
Ġinternation ales
Ġar ticle
r is
Ġsou lig
Ġs c
Ġty pe
ĠÃ© val
Ġse in
ves tiss
ta ge
qu el
os Ã©
Ġtra itÃ©
al i
ag ne
Ġh au
ĠrÃ© un
Ġqu a
Ġsep tembre
la is
Ġn i
cep tion
Ġc it
Ġcon ta
in Ã©
Ġh aut
Ġr est
Ġsurve ill
Ġe u
Ġm me
Ġprodu it
o t
o ires
Ġj an
ĠprÃ© pa
a prÃ¨s
ra le
Ġb an
ĠdÃ©cis ions
ti e
Ġf ins
Ġdev raient
Ġv al
Ġ x
ĠnÃ©cess aires
Ġp au
Ġcommun ication
Ġso ins
lo b
19 9
Ġg Ã©
Ġapp el
Ġmondi ale
Ġfac il
h ui
ĠmÃ©c anis
ĠcrÃ© ation
po se
ĠÃ© lÃ©ments
ĠspÃ©ci f
Ġrenfor cer
Ġsec tion
cue il
crip tion
a ra
Ġre qu
Ġper man
Ġsoci al
c le
Ġsupp lÃ©ment
i Ã©
Ġtrans f
Ġfourn ir
Ġ2 4
Ġdeux iÃ¨me
Ġal ors
Ġin tÃ©g
al itÃ©s
Ġv en
cÃ© dure
Ġ ;
ĠreprÃ©sent ant
Ġs t
ue ur
tis f
ar ti
Ġp Ã©n
Ġmoy ens
quÃª te
Ġm ission
en si
ĠÌ ģ
Ġp le
eur ope
v ier
Ġav is
Ġau prÃ¨s
.. .
Ġin v
Ġpro cÃ©dure
ĠopÃ© rations
Ġb eau
m on
o i
Ġre v
di d
Ġlo g
j ou
Ġtechn ologi
Ġre f
Ġris que
Ġdonn Ã©
Ġbeso in
ti Ã¨res
Ġf rais
Ã©ri que
Ġjus tice
Ġc elles
Ġsu d
t t
oc ra
Ġexa min
Ġlut te
Ġ199 9
res sion
tr on
si e
Ġv oir
exp lo
Ġconf l
Ã¨ ne
Ġproposi tion
Ġsou h
os si
Ġdoma ines
Ġten u
Ġdirec teur
Ġsa tisf
Ġcan did
to bre
li que
ag er
on es
Ġma i
c ont
Ġreconn a
l s
Ġj o
ĠnÃ©g oci
Ã© rÃ©
Ġcap acitÃ©
du ction
Ġc ou
Ġser ait
Ġju illet
Ġs au
Ġlors qu
Ġb a
Ġpromo tion
Ġf ix
Ġmin is
c ul
ex ercice
Ġw eb
Ġma j
ann Ã©e
ve mbre
Ġre ce
Ġp Ãª
Ġter r
ind ustrie
Ġ2 1
Ġeff ica
Ġex c
Ġan g
vir on
Ġeff ets
te x
Ġdur able
Ġre t
Ġv ig
entre pr
Ġpu is
Ġmod Ã¨
Ġs p
Ġmo ment
Ġnum Ã©ro
Ġre g
Ġp i
Ġno vembre
Ġen cour
b r
Ġsoci ale
ĠmÃ© di
Ġag ric
Ġpr est
Ġ organ
Ġre p
ĠrÃ©gi ons
Ġ1 00
ĠdÃ©m ocra
Ġmul ti
o des
r ir
ĠÃ £
Ġla r
Ġg u
Ġcommun i
ĠÃ©conom iques
Ġme ille
Ġsta tis
if ication
ĠcoÃ» ts
ven tions
c s
ob jet
ur g
0 1
tÃ©g or
r ont
ta ires
l ant
j ours
ind re
vis ion
Ġ2 2
Ġav ril
Ġv ic
Ġjan vier
b ec
m ar
Ġh eures
Ġ3 1
a f
Ġdis cri
di o
ĠrÃ©p on
i pe
Ġreven u
Ġce p
di tionn
Ġse mb
Ġmemb re
Ġtechn ique
Ġ2 3
Ġs ouv
a re
is me
Ġprincip es
l an
Ġoc tobre
Ġqua tre
Ġaut oritÃ©s
ĠreprÃ©sent ants
Ġmi eux
Ġdis c
app ro
er ve
Ġch er
Ġcro issance
Ã¢ ce
Ġper mis
Ġfor me
Ã© laboration
g c
i en
ĠrÃ¨g les
Ġca tÃ©gor
Ġsuiv i
Ġgr Ã¢ce
Ġpro grÃ¨s
n er
au tre
Ġtou jours
Ġdemand es
Ġle t
Ġsu pÃ©ri
es s
Ġris ques
Ġind ustri
Ġpo ints
Ġre lations
Ġnation ales
Ġmal adi
Ġtechn iques
Ġs ensi
Ġass urer
Ġb ut
ĠspÃ©ci al
in c
5 0
Ġmand at
li quer
Ġper tin
Ġg en
Ġles qu
d ic
or ter
Ġpro toc
c oup
Ġnation aux
Ġex Ã©cu
t ations
ĠÃ©tu di
g er
Ġrela tive
ĠÂ» ,
Ã©c onom
ĠrÃ©gi me
Ã¨ ces
o se
ch a
Ġsu ff
ĠdÃ©ter miner
x im
ci pe
Ġg lob
Ġcep endant
Ġrespons abilitÃ©
iv re
jour d
Ġbeau coup
res p
Ã©g ard
Ġgouvern ements
Ġprom ouv
en sion
Ġpr ises
Ġauc une
Ġpro tÃ©g
Ġj ours
off ice
Ġins tru
Ġdis trib
par t
ĠprocÃ©d ures
Ġdonn er
Ġco de
Ġcit oy
Ġcap it
n es
Ġsta tu
Ġmil i
on u
Ġl igne
ĠrÃ©s eau
Ġsi mp
a ment
ti ent
is ion
Ġpromouv oir
Ġvig ueur
ad op
Ġco ordin
Ġ us
Ġp age
o li
ĠÃ©lec tron
Ġcomp le
Ġcanadi ennes
ĠprÃ© vention
Ġ ir
Ġvo y
Ġb ar
ĠdÃ©ter min
ĠâĢ Ķ
ĠprÃ© vo
Ġcin q
ic acitÃ©
Ġav aient
Ġapp u
Ã© tÃ©s
ic u
c r
ass urer
Ġv ari
Ġpos te
Ġcor resp
Ġpa i
Ġpeu p
u sion
app el
Ġparticip ants
Ġj ourn
Ġd it
tic les
Ġsurveill ance
tif ication
Ġsit u
Ġpermet tre
Ġo eu
Ġemploy Ã©s
ĠdiffÃ©r ents
Ġnombre ux
1 5
Ġauc un
Ġcir c
i ra
Ġprobl Ã¨me
des s
Ġappro pri
Ġan nexe
Ġcorresp ond
Ġcomp os
ĠrÃ©f Ã©rence
ĠÂ» .
Ġt el
ĠdÃ©f ense
d ro
Ġpre u
Ġaut oris
res se
Ġconsid Ã©r
Ġfond ament
er gie
Ġcon tex
Ġv e
Ġfa i
Ġfa v
Ġam Ã©liorer
Ġexig ences
Ġcap ac
Ġac cep
Ġf ont
Ġsa is
Ġc Ã´
Ġv eu
Ġter mes
Ġpr Ãª
l les
erv ation
Ġc rit
Ġf Ã©
Ġsouv ent
Ġchang ements
Ġcons ta
al og
Ġli ber
Ġh abit
Ġcoordin ation
Ġre li
ĠrÃ©s id
Ġexp lo
Ġt els
app ui
/ /
Ġsci entif
t m
Ġen reg
Ġfam ille
ĠdÃ© cid
Ġcerta in
Ġn av
ĠÃ©tu des
Ġparten aires
l us
ĠsÃ© ance
Ġl ic
Ġpar mi
Ġinitia tives
Ġb re
Ġsec teurs
ĠprÃ© cÃ©d
Ã©tabl issement
Ġ2 8
ex Ã©cu
ĠÃ©g ard
Ġcapac itÃ©s
Ġterr oris
Ġfor ces
tt p
Ġcontin uer
avant age
Ġca mp
Ġ |
ĠspÃ©ci alis
Ġparti r
Ġ2 6
c lÃ©
Ã© m
Ġtable au
Ġmarch Ã©s
ĠrÃ©du ire
Ġinternation aux
ag it
Ġcau se
Ġacc omp
Ġex amen
3 0
: //
n Ã©
ĠdÃ©c lar
Ġapp lication
our ce
va it
Ġcol laboration
u elle
ĠlÃ©gis lation
Ġ199 8
Ġali ment
Ġg az
m un
Ġdev ant
Ġappr ouv
an nexe
a y
ac es
Ġ2 7
Ġv Ã©h
ĠprÃ© occup
g h
Ã©p end
Ġtex te
v ement
Ġsuiv ants
l in
Ġau jourd
Ġpr ise
k e
Ġins tal
Ġcha pit
ĠdÃ©lÃ© gation
ac t
Ġparticuli Ã¨rement
Ġsub st
in tes
Ġd ossi
Ġt or
Ġdiscri mination
pÃ©ri ence
as e
Ġc y
ti m
Ġquel ques
or ig
Ġactu ellement
Ġdur Ã©e
Ġple in
Ġbi ens
Ġcon v
Ġcontex te
ĠrÃ©du ction
ic es
t te
iss ances
Ġrespec t
ĠvÃ©h icu
Ġch ac
Ġprodu c
import ance
Ġpro cha
c omm
Ġform u
Ġdisposi tion
Ã©v rier
Ġniv eaux
ve ur
ur ance
Ġlo is
Ġpl ans
Ġ5 0
Ġr oy
1 4
l ent
Ġmondi al
ur ant
Ġdirec tive
l ande
Ġas pec
Ã» t
ĠdÃ©b at
Ġorganis ation
Ġterrit oire
Ġ ouver
mis sions
ĠdÃ©s ign
Ġdern ier
Ġqu Ã©
g rÃ©
ĠfÃ©dÃ©ra l
Ġplan ification
Â °
ĠrÃ©pon se
Ġacc Ã¨s
Ġplu part
Ġpropri Ã©tÃ©
Ġprotoc ole
ĠprÃ©c is
Ġf Ã©vrier
iss ements
Ġfinanci Ã¨re
ĠopÃ© ration
Ġmarch and
for me
Ġa f
Ġnu clÃ©
Ġvic ti
Ġconc ur
Ġex ist
Ġeffica ce
ra Ã®
a ce
Ġprin cipe
ww w
Ġob tenir
ĠintÃ© ress
tru ct
Ġh y
Ġn orm
Ġre lev
Ġ /
labo rer
Ġrec ours
Ġsi x
Ġadop tÃ©
ĠcrÃ© er
Ġm er
Ġs tructure
ta ble
ins titu
Ġviol ence
Ġb on
o sition
Ġremp la
Ġpublic s
Ġpra tique
Ġaid er
1 6
Ġoeu vre
Ġhum an
Ġrenfor cement
Ġf i
Ġco ordonn
Ġd a
b e
Ġar ticles
Ã© rer
Ġf au
Ã©n ergie
Ġan ti
Ġconcur r
Ã©g alitÃ©
Ġtechnologi es
un i
Ã©r ica
Ġd ir
Ġprincip aux
rÃª ts
ĠÃ© valuation
seign ement
c om
Ġdur ant
t tes
Ġcomm iss
exÃ©cu tion
Ã¨ ge
ĠnÃ©cess itÃ©
c ent
Ġen viron
Ġa ide
c tÃ©
Ġd avantage
Ġ2 9
ĠvÃ©rif ication
g ement
es p
Ġpo si
Ã¨ ce
Ġfourn it
Ġfav oris
Ġfa veur
0 2
Ġprovin ci
Ġpol ice
s es
Ġcons ac
Ġa jou
ĠmÃ©th odes
ac tivitÃ©
g Ã©s
Ã©lio ration
o Ã»t
Ġchapit re
Ġb o
ten us
Ġpour raient
i i
Ġf ut
explo itation
Ġtr ouver
Ġs ens
inÃ© a
Ġv os
ĠrÃ©un ions
Ġt our
s c
is c
Ġmain tien
Ġs ommes
ĠcompÃ©ten ces
Ġm us
Ġhuma ines
Ġpos tes
eff icacitÃ©
bil isation
Ġmili eu
ĠrÃ©s erve
Ġsoci aux
Ġpar ce
Ġh ttp
Ã©tu de
ĠprÃ©sent er
Ġrespons abil
Ġpri oritÃ©s
Ġa illeurs
Ġr endement
gra tion
tric es
intÃ© rÃªt
Ġdir ig
Ġn et
il es
ag ence
Ġz one
Ġfa ce
Ġvol on
Ġfran Ã§
Ġmain tenant
e d
1 8
a ch
r ant
Ġfon ctions
Ġchang ement
Ġindi qu
ĠrÃ©pond re
ĠÃ ¢
Ġt elles
ĠmatÃ©ri el
la ge
Ġtechn ologie
Ġten ir
av is
Ġsuiv ant
c on
ĠquÃ© bec
Ġciv ile
it y
ĠdiffÃ©r entes
ont ario
Ġtransp orts
Ġh ommes
Ġjuridi que
ulta tif
Ġh ist
Ġat t
Ġcon du
Ġse ma
Ġparticip er
Ġcontrib ution
Ġdiff ic
tu elle
rit ann
2 5
Ġmarchand ises
Ġimport ante
ĠlÃ©gis la
ĠprÃ©sent Ã©
ĠdÃ©b ut
no v
Ġpossi bilitÃ©
Ġcommun ications
Ġcara ctÃ©
si que
ĠsÃ© lection
ĠmÃ©d ic
Ġph y
os er
Ġsy n
ur ent
Ġpro ven
le m
Ġqu ant
la m
Ġs om
Ġche f
Ġra dio
Ġdemand Ã©
Ġse x
or teur
Ġfac teurs
Ġr endre
Ġf ra
Ġpreu ve
Ġcrit Ã¨res
ĠrÃ©s erv
to ire
0 3
Ġconsid Ã©ra
di tion
Ġobli gations
Ġfinanci Ã¨res
Ġz ones
Ġmen tionn
Ġsoci Ã©tÃ©s
Ġli ens
Ġl ign
alog ue
Ġdis tin
Ġrela tifs
ard s
Ġpau vre
Ġconna issances
Ġr us
Ġstatu t
ca sion
Ġfor ce
Ġb onne
Ġvale urs
Ġdivers es
Ġsuiv antes
Ġsign if
orig ine
ob jec
Ġpr Ã¨s
Ġchar ge
Ġt end
Ġconsul tations
Ġtou ch
ĠcoÃ» t
Ġfinanci ers
Ãª mes
g o
Ġindi quÃ©
Ġs h
Ġp orte
ĠsÃ© rie
u li
Ġcal cul
Ġcommunau taire
Ġt elle
l and
re z
Ġd om
t ta
in tention
Ġvo ie
Ġle quel
Ġtrava illeurs
Ġ199 7
Ġcommun aut
Ġs ources
ĠtÃ©lÃ© ph
Ġprem iÃ¨res
Ġcontrib utions
Ġaff ec
Ġm ig
r Ã©es
o graph
Ġproposi tions
Ġf il
m ise
Ġch ois
ou est
ra in
Ġh ar
Ġapp lic
1 7
Ġcon jo
an alyse
Ġma xim
ologi ques
Ġju d
u me
Ġdern iÃ¨re
Ġpauvre tÃ©
Ġconstitu e
200 5
Ġcontra t
mis si
en seignement
Ġaspec ts
ĠdÃ© li
p l
ass urance
Ġen g
Ġac qu
in itia
Ġor ient
Ġlang ues
Ġban que
Ġcomm en
Ġcli ents
Ġar mes
Ġsal le
Ġcommunaut Ã©s
ul ations
is tes
ten ti
Ġmin im
ob s
al ys
at t
h y
emp loy
0 4
si eur
Ġprincip al
ĠmodÃ¨ le
adop tion
i quement
Ġde me
Ã´ tel
Ġsu cc
Ġpo sition
Ġam endement
bil itÃ©s
Ġmon sieur
Ġli Ã©s
ĠfÃ© lic
Ġlang ue
Ġter res
Ġs Ã»
Ġpro vis
ab s
Ġpro b
v ers
Ġâ Ĺ
Ġdiv ision
Ġe ux
Ġver sion
Ġa oÃ»t
Ġpriv Ã©
Ġex tra
ri m
Ġrela tif
Ġdisponi bles
Ġcompr end
i a
re t
Ġcin qu
Ġqu al
2 4
ologi que
Ġcitoy ens
Ã©ta ire
Ġli Ã©es
Ġch o
Ġcons truction
Ġc u
Ġconf or
ces si
Ã©conom ie
Ġm u
Ġfacil iter
ĠpÃª che
Ġvicti mes
ĠrÃ©glement ation
Ġport ant
ac qu
Ġc laire
Ġcontrib uer
ĠmÃ©canis mes
Ġsuff is
Ġ *
Ġconc ent
0 5
Ã¨ de
Ġtrois iÃ¨me
ici le
Ġlign es
Ġg uer
id es
Ġl iv
Ġjud ici
Ġpubli ques
Ġdern iÃ¨res
Ġminist Ã¨res
Ġtr an
met tre
de m
olo g
Ã® t
Ġnombre uses
Ġrapp el
Ġb il
omb ie
us sions
Ġa Ã©ri
Ġren cont
al l
ĠopÃ©ration n
2 3
ritann ique
ĠsupplÃ©ment aires
ĠrÃ© alisation
on de
vestiss ement
Ġt ari
truct ures
Ġdirec tement
ĠrÃ©gion al
ĠstratÃ©gi es
Ġpermet tant
entrepr ise
u els
ĠÃ©lectron ique
Ġou til
Ġprop re
Ġ19 7
Ġs orte
ĠstratÃ©gi que
d ire
Ġar ri
Ġtrouv e
m ission
ĠreÃ§ u
lab or
Ġter re
y n
ĠdÃ©p ar
i Ã©e
in form
k s
ĠcaractÃ© ris
Ġex iste
Ġdes cription
th Ã¨
Ġs ource
ĠâĹ ¦
ab lement
v ie
at ri
Ġlet tre
ĠÃ©tu de
Ġu ti
Ġ ur
ill er
la i
Ġsi m
Ġpr end
Ġcontr Ã´
Ġang lais
Ġ ,
Ġtra ditionn
Ġen ti
Ġin tel
Ġcara ct
fr ica
ĠÃ© vent
vi du
Ġdi min
Ġpo tenti
Ġar m
Ġpro g
Ġ ant
200 6
Ġeur ope
Ġsu it
ĠdÃ©p la
Ġrespons able
Ġf eu
Ġt u
Ġcher che
Ġv iv
Ġres te
Ġintern et
enf ant
ci f
ir m
en gag
________ ________
Ġin cid
Ġtransf ert
Ġavant ages
Ġinstru ments
ĠrÃ©g uli
Ġfonctionn ement
m ig
Ġpro c
tr ice
Ġdemand er
Ġterroris me
l ure
ĠprotÃ©g er
Ġat trib
Ġcollec tivitÃ©s
titu de
Ġb ou
Ġpossi bilitÃ©s
su ite
ĠtÃ© mo
r on
Ġin titu
Ġmodif ications
ĠdÃ©fini tion
Ġp ales
Ġchar gÃ©
ĠconsÃ©qu ent
ass oci
g ent
Ġlar ge
Ġv ille
Ġpa y
Ġfa isant
pr Ã©
au teur
Ġâ ĸ
an a
ĠrÃ©s ol
Ġsouh ait
urg ence
j e
Ã©r ences
Ġen semble
Ġ199 6
d a
m en
l is
av oir
Ġ4 0
Ġfinanci er
Ġsec ond
Ġten ue
h Ã©s
Ġappro che
Ġliber tÃ©
Ġcho ix
i b
Ġcontin u
c les
v Ã©
mp s
Ġren du
Ġt Ã¢
ĠdÃ© lai
ci er
Ġv a
2 9
Ġab s
is tr
an e
Ġimport ants
ĠprÃ©sent ation
ĠmÃ©d ica
6 0
Ġre tra
o te
Ġd Ã¨s
Ġr iv
or ient
ma tique
Ġm un
Ã©ta it
Ġin tÃ©ri
ci de
Ġaccord s
Ġobjec tif
Ġma tiÃ¨res
Ġrecommand ation
c rit
Ġr end
ĠÃ©lev Ã©
Ġvis ite
ĠmÃ©di as
istre ment
b es
intÃ© gration
ci e
Ġcent res
Ġrespons ables
Ġen vis
Ġconseil s
tÃ© ra
ĠÃ©tabl issements
Ġdiffic ul
Ġoff re
ĠprÃ©vo it
Ġv ente
af rique
Ġfai ble
Ġguer re
ĠprÃ©s ence
Ġin iti
u gi
ĠÃ© missions
Ġj am
Ġconclu sions
Ġdro g
Ġfourn isse
Ġprovin ce
Ġam Ã©rica
Ġgrand s
u k
o w
ta it
me ment
l le
ch Ã©
ac te
Ġstatis tiques
Ġqu anti
d Ã©
Ġconsul tation
Ġsou mis
ie d
Ġpermet tra
ass istance
Ã «
Ġr ur
Ġcl ass
t out
Ġparten ariat
Ġinter ven
200 7
2 6
Ġvi h
Ġa x
Ġman if
Ġsit es
Ġcomm and
Ġf rÃ©
Ġs toc
r ou
ĠintÃ© rÃªts
ĠbÃ©nÃ©f ici
ĠdÃ©cid Ã©
Ġin formation
g Ã©e
Ã©ch elle
Ġne w
ti bles
Ġconfl its
Ġcirc ons
t ance
Ġgrand es
au me
Ġpop ulations
Ġform ul
Ġutilis er
initia tive
Ġlim itÃ©
Ġresponsabil itÃ©s
ĠcatÃ©gor ie
Ġac tions
Ġad ress
Ġcomp lÃ¨
200 4
........ ........
vis i
ter n
Ġobserv ations
Ġw ww
Ġpl ut
Ġenreg istr
Ġdi alogue
Ġcontin ue
j us
Ġch i
al inÃ©a
Ġcri min
Ġfonctionn aires
Ġpropos Ã©
Ġrela tivement
c ad
Ġcomp tes
Ġpa tri
ica teurs
Ã©qu ipe
Ġorgan es
an ie
Ġconv ient
i Ã©s
Ġlim ite
Ġan im
o x
Ġso li
ĠrÃ©f ugi
or k
ul t
Ġ ?
Ġapp ar
ĠmÃ©th ode
c n
ĠprÃ©v ues
ĠÃ©val u
Ġindi vidu
Ġsign al
Ġpri oritÃ©
on cÃ©
Ġh and
ro Ã®tre
gi on
Ġch im
Ġan alyse
ex c
pa ce
Ġind Ã©pend
ma tiques
Ġter min
Ġvoy age
Ġr u
Ġb ul
Ġb e
Ġprop res
Ġqu and
ĠcrÃ© dit
til l
t ances
app r
Ġâĸ ª
Ġac cueil
Ġc n
Ġdonn e
Ġl it
Ã©ta ires
objec tif
Ġcondi tion
Ġl an
Ġgaranti r
Ġterrit oires
Ġesp Ã¨ces
a ir
u it
f ic
Ġren ouv
Ġt ur
Ġplut Ã´t
Ġcon ven
Ġmodif ication
Ġmont rÃ©
Ġcons ultatif
Ġg ro
Ġid entif
Ġcon tenu
a mb
Ġjuridi ques
Ġa ra
ĠdÃ© ch
Ġla b
Ġsucc Ã¨s
200 3
Ġmoy enne
Ġfam ili
or isation
am Ã©liorer
Ġet c
o di
Ġgouvernement ales
posi tion
Ġre mb
li f
Ġfor mes
ĠrÃ© forme
Ġfa its
dess us
Ġcol ombie
Ġcent rale
ĠnÃ©goci ations
g Ã©es
Ġaux qu
ur ation
Ġentrepr ise
Ġen vo
Ġen fin
2 2
ti ne
Ġ6 0
en quÃªte
Ġp n
6 3
Ġf isc
ui de
. )
Ġag ents
am Ã©lioration
Ġexa miner
qu oi
ĠÃ©tabl ir
ne xes
Ġqu o
Ġrap id
ouver ture
a de
dem n
Ġrapp orteur
ĠfÃ©dÃ©ra le
ĠmÃ©d ec
Ġsur tout
Ġmaladi es
Ġcomp a
tta wa
Ġminis tres
Ġseu l
Ġaur ait
Ġcor re
exp erts
Ġapp liqu
Ġo ttawa
Ġli bre
ĠdÃ©clar Ã©
Ġent raÃ®
Ġan alys
Ġpr im
ĠbÃ©nÃ©f ic
ĠÌ Ī
ta le
Ġconsomm ation
Ġv ise
e mb
Ġty pes
Ġutilis Ã©s
g ar
Ġengag ements
in ation
o v
Ġ it
Ġutilis Ã©
Ġad ap
ic ro
ra ge
Ġintel lec
it able
ti r
Ġpr en
Ġpour quoi
Ġconcurr ence
Ġti ers
Ġloc aux
Ġcomm une
d its
Ġfa b
200 1
Ġ200 9
ĠÃ© labor
Ġdirec tives
Ġa it
Ġprest ations
Ġhand ica
c an
ici p
an till
ĠdÃ©par tement
Ġrecher ches
Ġtro p
ĠrÃ© mun
Ġactu elle
is i
Ġchac un
4 0
Ġcandid ats
ĠrÃ© us
un ivers
as k
ĠprÃ©v u
Ġf ich
am Ã©rique
Ġvou d
at oire
Ġo pp
Ġhist or
Ġ199 5
b lement
Ġii i
Ġconfl it
Ġcaract Ã¨re
Ġcommiss aire
Ġ er
Ġis ra
ĠÃ© p
id enti
-- --
Ġmun icip
Ġbre v
d f
ĠrÃ¨glement s
Ã¨ rent
Ġcomp agn
Ġim mÃ©di
Ġpar c
Ġcomm is
nov ation
Ġroy aume
Ġsub s
Ġprovis oire
Ġla c
Ġpa cif
Ġsu per
en reg
en du
Ġa frica
Ġl u
ri mer
Ġremb ours
Ġcompr endre
hÃ©s ion
o to
Ãª te
ĠdÃ©p os
Ġth Ã©
ĠspÃ©ci ale
Ġeff ic
Ġve iller
ex pÃ©rience
Ġmil itaires
ĠrÃ©gion aux
Ġmil itaire
Ġtrans par
Ġinter ne
Ġali ments
Ã© tique
tin g
ĠrÃ©gion ales
Ġprest ation
2 7
ten du
Ġc oup
ĠvÃ©hicu les
2 8
Ġtra itÃ©s
Ġin tro
Ġreven us
Ġcl as
Ġdistrib ution
onn es
Ġv ra
Ġcomment aires
Ġp Ã©
Ġ ordin
ĠrÃ© vis
ĠrÃ©p arti
vestiss ements
Ġl Ãł
Ġs olution
Ġperman ent
Ġdev ons
ta s
Ġcha mbre
Ġav ez
Ġm ac
ex a
Ġaur a
au gment
enti ss
os ph
Ġcol l
pa ti
Ġm ort
Ġsoci ales
Ġconstitu tion
Ġpubl ication
Ġat ta
r c
Ġdi x
Ġet ats
ille z
Ġsol utions
Ġh e
Ġquel que
Ġfr ance
0 6
Ġac tivitÃ©
ac tions
Ġpers pec
Ġn eu
Ġclaire ment
Ġsubst ances
Ġp il
Ġrais ons
in vestissement
oc casion
at h
Ġesti m
Ġvo te
Ġsom met
Ġmar que
Ġcer tif
Ġ ici
a k
Ġpales tin
v res
y l
ent rÃ©e
a in
Ġs co
Ġun ique
la ir
Ġconsomm ateurs
Ġg uide
Ġch ine
Ġlesqu elles
Ã¢ ge
b ritannique
ĠrÃ©fugi Ã©s
ĠcompÃ© t
Ġor ig
Ġ3 5
ĠdÃ©cla rations
o re
Ġloc ales
Ġhandica p
ĠgÃ©nÃ©ra lement
Ġprovin ces
Ġac tes
Ġproven ant
ĠcrÃ© Ã©
Ġmes s
Ġsus cep
Ġlesqu els
iss ons
b ation
Ġre mer
Ġseu le
ar b
ic k
ĠdÃ©mocra tique
Ġann uel
Ġb Ã¢
ĠmÃ©canis me
pr Ã©s
Ã¨ ve
d is
Ġlic ence
ĠÃ©c rit
h eure
Ġre pro
. -
cid ent
Ġrapid ement
Ġco p
Ġprincip ales
Ġtravail ler
ur Ã©
Ġfor um
et te
Ġsouh a
a tive
d ite
d ation
a venir
ada p
Ġpai ement
Ġfr on
li er
Ġph ase
Ġfa br
ve z
Ġpouvoir s
ĠÃ© tro
v ous
Ġfavoris er
Ġchi ff
gi que
Ġmis sions
Ġpos s
Ġd on
Ġac tion
d am
id er
lo is
Ġ =
ĠÃ© li
Ġen suite
Ġ ouv
am ment
Ġcontrib u
Ġinstal lations
Ġsu is
Ġsu g
Ġprofessionn els
associ ation
Ã© gi
Ġfabr ication
Ġintellec tuelle
Ġchar te
ĠspÃ©cif iques
Ġcar b
ĠfranÃ§ ais
ar m
a ture
ber ta
Ġm icro
y p
d o
ĠÃ©n onc
Ġgestion n
in tÃ©rieur
lo c
Ġdes s
2 1
Ġpouv ez
op ie
Ġjus tif
Ġsemb le
Ġe aux
ari ats
abs ence
ali ment
i ance
ĠtÃ©lÃ©ph one
Ġpersonn els
quÃª tes
200 2
Ġpoursu ivre
li e
Ġbure aux
Ġminis tÃ©ri
Ġmeille ure
Ã¨ te
Ġp ied
Ġdiv ul
va ient
ĠdÃ©ta ill
l y
i z
Ġd Ã»
Ī Ĵ
ĠdÃ©p end
Ġf ort
le x
sif ication
Ã§ u
Ġqu elle
id Ã©
Ġexc lu
ab ord
Ġpeup les
ĠreprÃ©s ente
cue ill
Ġsci ences
Ġre lÃ¨
Ġob jet
ĠprÃ©pa ration
Ġimport antes
mo ine
le ur
Ġan ci
Ġsuiv ante
aut oritÃ©
u ellement
Ã ¡
Ġtari f
Ġex er
Ġesti me
Ã¨ tres
us ement
Ġb el
Ġs an
ĠrÃ©s um
Ġrus sie
Ġm ouv
Ġveu illez
Ġ3 3
Ã©r Ã©s
r y
Ġ- -
Ġinf Ã©ri
Ġfau d
te z
Ġqual if
Ġ4 5
ĠmÃ©dica ments
ap on
Ġar ch
ĠcompÃ©ten ce
al ie
Ġrais onn
Ġal l
h abit
ĠnuclÃ© aires
Ġb u
ri el
Ġg ens
Ġmodif ier
ĠdÃ©c ou
Ġfam illes
h tm
Ġdossi er
ag ric
Ġdiff usion
Ġaugment ation
Ġcau s
Ġplein ement
a ine
Ġfig ure
ĠdÃ©m ont
Ġsuiv re
Ġin tÃ©rieur
imp Ã´t
Ġter rain
Ġr o
Ġ titu
Ġt ard
Ã©li mination
Ġmaj oritÃ©
ĠfrÃ© qu
ĠdÃ©m ar
Ġcommunau taires
Ġobs ta
Ġv as
Ġ199 4
Ġdi pl
Ġpatri moine
ĠconsÃ©qu ences
qu Ã©s
Ġmaladi e
Ġdis pose
ĠÃ©trang Ã¨res
Ġg re
cu pÃ©
Ġnature lles
enreg istrement
Ġscientif iques
Ġin vestissements
qu i
entiss age
Ġfa is
0 7
tionn elle
m s
Ġfem me
om e
Ġserv ir
Ġcons ervation
ag ement
Ġemp loi
ĠrÃ©s eaux
ĠÃ©val uer
Ġ ul
an ci
Ġrespec ter
Ã©tabl ir
Ĥ ¬
d er
Ġcapit al
u elles
ï ¿
ï¿ ½
ĠÃ© lÃ©ment
Ġpas se
Ġexamin Ã©
re ur
Ġad missi
Ġrec ru
Ġ &
c Ã©s
Ġdisponi ble
Ġhuman itaire
Ġcha mp
Ġref us
ĠprÃ© f
Ġv u
ĠrÃ©sulta t
Ġa ir
Ġp s
Ġdiff icile
ĠsupÃ©ri eur
Ġtr Ã©s
la it
Ġre mar
ĠÃ©n er
ang es
Ġcommuni quer
Ġremp l
0 9
Ġrap ide
Ġapp ui
l or
6 7
Ġp en
ĠrÃ¨g le
ras tructure
Ġv Ã©r
j ud
it h
Ġdifficul tÃ©s
Ġeffic aces
Ġjam ais
Ġprop or
ti Ã¨me
âĢ ĵ
lem agne
atri Ã¨me
Ġconna issance
ĠcaractÃ©ris tiques
Ġoffici elles
Ġoutil s
si g
ang er
Ã© trang
Ġpro pose
ar itÃ©
t an
Ġsi Ã¨ge
ĠdÃ©f is
Ġconta ct
a ise
w an
ĠÃ©v Ã©n
ou n
agric ulture
Ġdirec trices
Ã© co
ar mement
Ġparticuli ers
5 7
Ġoc cup
Ġassoci ation
Ġapp or
Ġant Ã©ri
Ġtra ite
Ġcommerci ales
erv er
Ġpublic ations
5 9
re ment
Ġju ge
Ġpai ements
d re
Ġmar iti
Ġc ouv
Ġj apon
Ġconstitu ent
Ġinitia tive
Ġinterven ants
ar ch
end ra
ad resse
te mps
Ġpass Ã©
m Ãªme
Ġret our
id ent
ont o
ĠÃ©qu ip
ti quement
Ġcon cep
sid a
exa miner
Ġdivers itÃ©
Ġcl asse
Ġhuma ins
Ġconform itÃ©
c Ã©es
ons es
un itÃ©
Ġjudici aire
Ġm ises
Ã©tu des
Ġv ul
ĠstratÃ©gi ques
Ġparten ariats
Ġpor tÃ©e
Ġont ario
Ġm ine
ĠÃ©lec tions
p c
er va
Ġch au
Ġp al
Ġser aient
o bli
ins tal
ĠrÃ©sol utions
is ter
Ġatte indre
ist an
Ġa ch
ais se
0 8
ce mment
Ġcherche urs
Ġcons oli
ten ue
Ġpu isse
Ġcomp lÃ©ment
Ġcli ent
Ġpor ter
a Ã¯
Ġinf ra
Ã« l
au s
or ta
aff aires
ĠrÃ©alis er
Ġessenti el
univers itÃ©
ob tenir
Ġto x
le t
ten ce
Ġtrav ers
Ġpriv Ã©e
Ġpass er
200 0
Ġsou tenir
Ġpeti tes
it ant
Ġconta c
Ġdirig e
es ti
ĠrÃ©p onses
ĠrÃ©gion ale
ĠrÃ© cemment
prÃ© tation
ĠprÃ© al
Ġrest ric
Ġcomp ter
Ġco h
Ġprincip alement
Ġpour cent
ais on
5 8
Ġmulti p
app lique
Ġcons ci
ĠcatÃ©gor ies
ĠdÃ©ta il
Ġun iquement
Ġutil isation
ĠdÃ©velopp er
âĢ Ŀ
Ġaf rique
Â» .
Ġindi que
inform ations
Ġen seign
ĠdÃ©p Ã´t
Ġpubli Ã©
Ġp ens
ĠÃ©ch Ã©
f c
Ġdisp os
Ġin ves
Ġsa int
Ġcomp ara
Ġcr ise
Ġfait es
ĠrÃ© aff
Ġterrit ori
y Ã©
Ġfa ci
Ġr ich
Ġcon nexes
Ġconf iance
Ġencour age
ĠgÃ©nÃ©ra les
Ġm Ãªmes
m at
k a
o ph
Ġinf lu
Ġpro cu
p tion
ĠÃ©trang ers
Ġse xes
ta bles
Ġsema ine
l ications
t ori
institu t
4 9
Ġb al
ĠâĢ ľ
Ġpar ents
Ġre d
Ġman que
ĠdÃ©p osÃ©
Ã©ch ange
Ġparagraph es
Ġscientif ique
Ġ q
mb res
in a
Ġcon ception
Ġmain tenir
s se
si ve
Ã© t
Ġtran sition
Ã©trang er
Ã©v olution
ac tivitÃ©s
Ġexp os
n Ã©s
Ġmo bil
Ġmilli ards
ĠpÃ©n ale
ouvern ement
Ġfin ances
Ġenvironnement ale
Ġimp os
ĠcrÃ© dits
Ġpar ta
Ġ199 0
Ã© lec
Ġt est
Ġpermet tent
lar g
Ġp an
Ġaliment aire
ĠdÃ©s armement
ĠdÃ©p loy
Ġdou an
Ġlim ites
ĠdÃ©lÃ© gations
Ġcontra c
ĠrÃ©s ul
3 3
tÃ© n
Ġex tr
ĠeuropÃ© ens
ten ues
appr entissage
pr it
Ġind icateurs
Ġfond Ã©e
Ġm as
Ġloc al
tro ph
Ġde ven
is tence
Ġcon tient
lÃ© g
Ġconna Ã®tre
Ġpeti t
Ġdrog ues
Ġt ab
r an
it ement
id s
at tention
rais on
Ġa mb
5 5
Ġfin al
Ġobli g
n ation
Ġcl Ã©s
Ġrece ttes
ĠtÃ©lÃ© c
Ġ3 7
Ã§ ant
Ġen quÃªte
Ġtor onto
Ġsensi bilisation
tionn el
Ã©qu ip
Ġab ord
omp i
Ġpro s
qu ie
ir me
m or
Ġm ag
r ants
Ġapprouv Ã©
Ġ5 00
Ġa che
engag ement
Ġfa ite
i Ã©es
tis ation
Ġs ch
Ġjus te
Ġad Ã©qu
Ã¨ nes
min aire
Ġli en
Ġcor po
Ġcontra ire
ort ation
ĠdÃ© cide
Ġdirec t
lan tique
ĠprÃ©v ue
Ġsitu ations
Ġâ ĪĴ
Ġsatisf action
Ġvoud rais
ci pÃ©
v Ã©e
ĠmodÃ¨ les
Ġm ent
Ġt ent
ĠdÃ©c rit
Ġadministra tives
is tique
Ġstatis tique
ar c
Ġhau te
Ġto t
in di
t d
Ġta ille
Ġsta bilitÃ©
m ont
Ã© val
Ġdossi ers
Ġv it
Ġconclu sion
n et
id entif
ĠÃ©tudi ants
in novation
â Ĥ¬
Ġe mb
Ġin ten
Ġ iv
Ġj eu
ĠrÃ©mun Ã©ration
Ġagric oles
Ġp acte
b i
Ġvul n
es pace
ĠgÃ©nÃ©ra ux
Ġpacif ique
Ġ3 4
Ġcy cle
r itÃ©
ange re
ĠdÃ©ch ets
es se
Ġcour riel
g ouvernement
Ġphy sique
Ġrecomm ande
Ġorig in
Ġrequ Ã©r
Ġsouha ite
and is
Ġur ba
ta g
Ġcel lu
Ġadop tÃ©e
Ġfor Ãª
Ġb ois
v ant
Ġformu laire
f i
9 9
Ġcons iste
Ġcon dam
Ã© th
Ġvuln Ã©ra
Ġemp Ãª
Ġimport ance
Â Ĵ
ĠfÃ©dÃ©ra tion
Ġcircons tances
Ġsoulig nÃ©
Ġapplic ables
200 8
Ġsau f
Ġpar tage
Ġpourcent age
n eu
p ort
Ġexig e
ask at
ti ble
ĠgÃ© ograph
app u
r ons
y ch
ĠconsÃ©qu ence
ĠrÃ© vision
di e
Ġd omm
ĠmontrÃ© al
Ġmod alitÃ©s
Ġd angere
Ġpe ine
Ġmin u
ad d
app liquer
jo int
Ġgouvern ance
lu sion
Ġexp erts
Ġar b
Ġex tÃ©ri
ĠrÃ©parti tion
Ġmen er
ĠdÃ© n
Ġcommerci aux
ĠdÃ©li v
3 1
vo ra
l Ã©s
ri Ã¨re
Ġmod ern
t ur
Ġren vo
ch ement
ĠÃ© laborer
a tique
ĠcompÃ© ti
Ġtemp ora
Ġmal grÃ©
Ġapp are
Ġfourn i
Ġtra iter
Ġpeti ts
Ġfournisse urs
Ġsujet s
un s
Ġdiv er
Ġfa vora
ĠprÃ© venir
Ġconc ours
acc ent
Ġbi bli
Ġa mp
Ġpres se
Ġglob ale
Ġau teurs
in de
in tÃ©g
Ġsub ventions
iv al
a tives
Ġorganis me
Ġchim iques
Ġav anc
it ent
Ġen tiÃ¨re
Ġparti cipÃ©
Ġcl in
Ġuti le
h a
Ġa te
Ġrou te
Ġcomp orte
augment ation
Ġv ir
at ta
imp act
Ġcha mbres
ob a
Ġutilis Ã©es
Ġprofessionn elle
Ġr Ã£
to ires
Ġ !
Ġcar te
Ġintitu lÃ©
Ġjou er
Ġsus p
ĠcomplÃ¨ te
y c
Ġattrib u
Ġf u
Ġac cessi
Ġsur f
on ce
crip tions
in ion
Ġparticuli Ã¨re
5 6
Ġra c
Ã© lÃ©
ĠprÃ©occup ations
Ġpertin entes
ir mÃ©
Ġgar de
Ġmulti la
Ġpr on
s ec
Ã©li or
Ġass istance
i ment
Ġtra fic
Ġcinqu ante
Ġfig urant
ag ent
ra les
Ġpu issent
Ġt andis
Ġins u
Ġmil l
f a
p i
ĠsÃ» re
Ġfondament aux
inter vention
Ġet hn
ĠÃ©lec to
Ġ iss
Ġex pÃ©ri
z e
os es
Ġ3 8
Ġdern iers
Ġpeup le
Ġjo hn
h um
Ġconf Ã©rences
du it
Ġdivul gation
Ġen quÃªtes
it oba
yn am
Ġagric ole
Ġcamp agne
Ġexp ort
h ist
ĠrÃ©sum Ã©
Ġb ro
a vait
o k
Ġprincip ale
h er
ex istence
Ġlog ici
Ġcomp or
Ġat tention
Ġd r
Ġrece voir
Ġdis cu
Ġam Ã©lior
organis me
Ġli eux
Ġsoulig ne
Â» ,
Ġar rÃª
Ġpa p
Ġfor te
Ã´ m
Ġsou ff
o it
liqu ent
is ent
Ġv ice
Ġre lation
mÃ©di aire
ĠprÃ©sid ence
c Ã©e
Ġciv ils
Ġ ordre
ĠpÃª ches
Ġacc r
ĠtrÃ©s or
dic tion
Ġprodu ire
Ġr ig
Ġnav ig
Ġproduc teurs
Ġdiff us
" .
dess ous
4 4
b as
Ġsim il
Ġm au
pec tion
m ises
Ġpa ti
g a
Ġpuis que
Ġv ing
Ġconsul ter
d s
Ġreconna issance
Ġdonn Ã©e
ĠrÃ©alis Ã©s
Ġmanif est
ĠprÃ©sent Ã©e
id itÃ©
a tement
Ġy ork
exp ortation
Ġ3 6
Ġsys tÃ©
Ġvol ume
Ġd an
Ġglob al
se z
Ġcri me
Ġtrait ements
Ġ9 0
Ġcon tenant
Ġlab ora
Ġstoc k
ĠprÃª ts
Ġ ordonn
Ġ199 3
et er
ĠdÃ©p art
Ġhuma ine
Ġar tis
Ġ3 9
mig ration
Ġlog ement
Ġm ex
ĠÃ©c oles
os s
ĠprocÃ©d er
Ġapp orter
enf ants
Ġinter gouvernement
k i
Ġactu el
Ġche fs
Ġpri or
Ġm c
obli gation
Ġdestin Ã©s
is Ã©
Ġ4 8
ĠfÃ©dÃ©ra ux
ĠpÃ©ri odi
ing u
Ġre jet
ar mes
o od
ĠsupplÃ©ment aire
Ġcontra ts
ĠtÃ¢ ches
mo bil
li ers
Ġp ense
Ã©n ie
Ġapp liquer
Ġto tale
ĠrÃ©serv es
ĠdÃ©p ass
ĠbÃ¢ ti
Ġcent ral
ri mÃ©
Ġciv il
at te
h e
Ġex cep
h Ã´tel
ta bl
enn al
Ġvolon tÃ©
ĠdÃ©fin ir
Ġpoursu iv
util iser
Ġper f
f on
Ġaff ich
Ġgen re
Ġgra ves
Ġsug g
tas troph
Ġutilis ateurs
ĠpÃ© tro
Ġs lo
iv es
Ġcoll Ã¨g
eff ec
ir s
Ġmen Ã©es
Ġcompagn ie
Ġde vait
Ġl um
Ġsignif ica
ac cueil
Ġca tastroph
Ġgen Ã¨ve
Ġorganis Ã©
ĠintÃ© rÃªt
6 1
Ġse xe
Ġr ien
o la
ĠspÃ©ci ales
4 7
Ġau tant
au c
pro gram
Ġtranspar ence
Ġcommerci ale
du ire
mo ins
3 7
Ġb l
Ġcollec te
Ġsuscep tibles
Ġta xe
Ã©co le
d el
Ġfourn is
Ġoff rir
Ġrecommand Ã©
m osph
Ġs askat
Ġcommun es
om s
Ġper te
Ġ +
Ġres ta
3 9
exp ression
Ġacc roÃ®tre
4 8
Ġle c
Ġtribun aux
Ġmo ts
Ġ5 5
Ġf l
Ġpar venir
Ġmo de
Ġengag ement
Ġnor me
Ġpi Ã¨ces
Ġcomb at
Ġad ditionn
Ġcollec tivitÃ©
ti di
i ant
3 5
Ġcondu ite
Ġal lÃ©
Ġ199 2
ess ai
Ġt e
Ġdocument ation
Ġmill Ã©n
ti ennent
Ġperman ente
is p
us sion
Ġh Ã´tel
Ġam end
Ġti ent
Ġprem iers
Ġpouv ant
ĠdÃ©mocra tie
Ġrenouv el
Ġle ad
Ġf al
Ġen dro
Ġces s
al th
ch ar
Ġtr ou
Ġimp orte
Ġre tr
Ġmais on
Ġso ix
Ġmar i
Ġcommerci al
Ġassoci Ã©s
6 6
Ġr ob
comm un
h ar
Ġc ru
Ġdeme ure
Ġex pÃ©rience
che wan
Ġph oto
qu Ã©e
it ter
er ie
Ġsema ines
ĠÃ©vÃ©n ements
Ġcon va
Ġconfor me
Ġmau va
Ġb ord
Ġg a
ĠrÃ©p erc
ĠmillÃ©n aire
ĠÃ©ner gÃ©
Ġd ynam
ĠprÃ©sent Ã©s
lÃ¨ ves
Ġtrava ille
Ġpla inte
t c
Ġdisc ussions
ru ption
Ġc ra
ac cep
ys t
v id
on ora
ress er
Ġcompr ennent
Ġquanti tÃ©
Ġs tructures
Ġatte int
les s
ĠreprÃ©sent ent
Ġ ...
Ġsi Ã¨
Ġb ri
for mes
Ġche min
Ġpour ra
4 5
Ġmont re
cad re
Ġmeille ur
Ġnom ination
Ġviol ations
Ġsep t
Ġ8 0
Ġnature l
Ġlong ue
8 8
Ġv il
Ġaugment Ã©
Ġencour ager
ĠnuclÃ© aire
Ġcour t
Ġa p
Ġaccomp agn
Ġinc lu
Ġr ue
di ff
Ġob tenu
Ã¨ le
Ġtex tes
Ġcomb in
er ait
pa ra
Ġven ir
Ġquo tidi
si ques
ĠvÃ©hicu le
Ġproc Ã¨s
Ġc ab
ĠeuropÃ© ennes
' s
Ġsit uÃ©
Ġcirc ulation
Ġminim um
Ġper form
Ġin demn
Ġs or
Ġpar cs
h ip
d c
Ġp Ã©r
Ġs omme
Ġad ul
Ġsimp le
en g
Ġlum iÃ¨re
Ġappu yer
i ens
Ġf illes
" ,
ĠrÃ©perc ussions
Ġg e
Ġmin oritÃ©s
ras tructures
y a
Ġauxqu els
Ġs omm
ra teurs
Ġqu atriÃ¨me
Ġobsta cles
Ġdisc ussion
visi onnement
ĠrÃ© v
our g
Ġ4 9
Ġex ter
Ġf re
Ġh eure
ut Ã©s
se urs
Ġbi ais
Ġass ur
Ġcor ps
Ġre ti
ou g
f ond
ac tive
Ġpor tu
Ġconsid Ã©ration
j u
inf rastructure
Ġ20 10
a ider
eff et
Ã© l
Ġbibli o
Ġsuffis amment
ĠdÃ© rou
l Ã©es
âĢ Ĳ
Ã©d er
Ġanim aux
Ġretra ite
Ġps ych
Ġo cÃ©
adap tation
Ġcompor tement
aff aire
and a
an moins
cri re
Ġv ar
d r
Ġgouvernement aux
aff ec
Ġjourn al
ĠdÃ© lais
Ġmo tifs
Ġutilis Ã©e
ta t
r ite
Ġsu c
Ġil lic
ĠÃ©ch anges
en z
Ġs pati
Ã¨ tes
Ġconsid Ã©rÃ©
Ġg am
tionn els
li quÃ©
ĠÃ©chÃ© ant
Ġviol ation
ĠnÃ© anmoins
orient ation
Ġ4 7
isi tion
Ġ199 1
Ġg ard
Ġeffectu Ã©
tionn ement
Ġpati ents
Ġtemp Ã©ra
ĠsÃ© ances
Ġculture ls
ĠprÃ© par
Ġh ors
Ġman itoba
ĠÃ©tabl issement
k istan
Ġintern es
Ġinstru ment
ci ale
Ġjourn Ã©e
ĠÃ©valu ations
vi ennent
Ġadop tÃ©es
ĠprÃ©v us
Ġpla intes
Ġcon ver
ĠcÃ´ tÃ©
Ġadop ter
Ġperf ec
Ġs tu
Ġprocha ine
ĠdÃ© tention
a sie
Ġde grÃ©
Ġcon ventions
Ġcons ens
ul er
Ġre gr
199 9
Ġvas te
Ġb ur
iti Ã©
Ġs pec
Ã©ri ques
id a
Ġth Ã¨me
r s
aut orisation
Ġh Ã´
Ġess ais
ox y
Ġconsid Ã¨re
Â «
ort h
Ġpo ids
Ġdou te
ĠÃ ®
Ġpol l
Ã©c os
Ġbrev ets
Ġhistor ique
Ġvo is
ag issant
n ement
Ġp ension
ili bre
Ġpar fois
Ġutilis ant
Ġc ult
Ġcandid at
a il
ĠexÃ©cu tif
inter prÃ©tation
a tes
ex tÃ©rieur
Ġnu tri
ou dre
alis er
Ġchac une
ĠconsidÃ©r Ã©e
Ġinf ec
Ġtor ture
Ġcom itÃ©s
Ġmaxim um
3 8
le tin
Ġdev ra
Ġrembours ement
Ġexport ations
min e
ĠgÃ© rer
Ġapplic able
Ġcons tru
Ġpl Ã©n
l ong
qu Ã©es
Ġsub vention
Ġcomple t
Ġaut oma
Ġb er
Ġac te
Ġapp rÃ©
u la
Ġtend ances
Ġm Ã©r
Ġchar gÃ©e
ĠfÃ©lic ite
Ġt ps
Ġbudg Ã©taires
Ġcomp osition
ar gent
Ġmen ace
Ġb is
Ġreconn u
ĠÃ©ch antill
Ġs te
en ci
anis tan
Ġh om
Ġ3 2
al a
gh anistan
Ġm ol
Ġpotenti el
habit at
Ġconc r
ĠÃ©lectron iques
Ġtend ance
ĠprÃ©sid ente
Ġs enti
Ġlut ter
ĠimmÃ©di atement
Ġa ient
Ġex erc
ĠintÃ©g rÃ©e
w e
Ġsou p
ĠprÃ© li
en viron
3 6
Ġcompr Ã©h
Ġnouv el
Ġbil a
l ut
Ġprovinci aux
ĠÃ© lÃ¨ves
Ġclas sification
ĠbÃ©nÃ©fic ier
Ġindi quer
program me
Ġpres sion
ĠprÃ© jud
Ġsign ature
hist oire
Ġmouv ement
Ġprofessionn el
Ġent endu
Ġph Ã©n
ic at
Ġqu oi
r ang
Ġpo pu
ĠÃ©v iter
Ġsci ence
Ġassoci ations
Ġins cr
ar ma
Ġvis Ã©es
Ġpeti te
Ġconcern Ã©s
Ġde tte
Ġving t
Ġouver t
ĠrÃ©gi mes
u de
ĠdiffÃ©r ences
ex position
appro bation
Ġs anc
ĠdÃ©ter mination
Ġt ch
Ġc am
Ġcad res
Ġrec ens
Ġbiblio thÃ¨
ĠdÃ©ta ils
Ġinv itÃ©
Ġrecru tement
Ġcha Ã®
Ġdistin c
ag ers
Ġ 00
and es
Ġgra tu
Ġfournit ure
Ġde venir
si vement
ic tion
Ġgaranti e
htm l
Ġex ercice
Ġau quel
Ġac tive
3 4
a tifs
Ġbul letin
Ġpr ie
qu ent
ĠtÃ©lÃ©c opie
iss on
Ġessenti ellement
Ġm or
Ġconsens us
ĠprÃ©pa ra
Ġpres que
Ġ7 0
Ġm Ã©n
if or
ĠprÃ©sent Ã©es
Ġb ru
Ġla iss
Ġpertin ents
es prit
tionn elles
Ġsurf ace
Ġb less
le y
Ġti rer
Ġten ant
k o
ĠÃ©lev Ã©s
ad hÃ©sion
w ick
Ã©r Ã©e
Ġv acc
Ġcorre c
Ġl ingu
Ġou i
Ġpropor tion
Ġsaskat chewan
u its
Ġfaud rait
Ã©r Ã©es
Ġc ouver
us age
ĠprÃ©al able
a ur
Ġ% )
Ġpossi bles
6 2
t or
Ġann uelle
ĠintÃ©ri m
Ġfai bles
s on
Ġexc ell
Ġjur id
ĠrÃ© ception
Ġpouv ait
ĠsiÃ¨ cle
Ġmodif iÃ©
Ġli qu
Ġvis Ã©s
n ous
Ã§ ons
appro che
a tif
ĠspÃ©ci aux
c k
ĠlimitÃ© e
Ġcli matiques
Ġhau sse
Ġinv ite
ĠprÃ©c ise
Ġinter ventions
Ġutil ise
Ġconseil ler
Ġloc ale
Ġmont ants
Ġma ch
Ġgestionn aires
Ã©r ance
ĠprÃ©pa rer
Ġ4 4
ĠsÃ»re tÃ©
im migration
Ġsemb la
Ġ5 7
Ġaut onom
Ġvo it
Ġoblig atoire
isp ens
Ġl Ã©gi
Ġaliment aires
Ġcal end
ou re
Ġpara l
i enne
sif s
Ġ9 9
Ġon g
Ġfac teur
ach at
Ġl td
Ġc lair
Ġe au
Ġhy dro
Ġfer me
Ġtitu laire
aliment ation
Ã©val uer
Ã´ ts
Ã©quip ement
Ġass ure
Ġadministra tion
a mp
Ġs Ã©n
ĠrÃ© vÃ©
Ġvis ion
Ġpro long
ont al
on cer
* *
tr ich
Ġad minis
n u
ĠforÃª ts
Ġ ol
Ġam Ã©lio
Ġind ispens
f p
ĠÃ©tabli e
cueill ir
un di
ĠÃ©ta pe
Ġhar mon
Ġexemp les
Ġsanc tions
Ġcon Ã§
Ġsimp lement
Ġcro is
Ġpn ud
Ġcomp lÃ©
Ġi ra
Ġcompr en
Ġad joint
ti es
Ġcomp ens
Ġv endre
Ġfab ric
Ġfron tiÃ¨res
Ġarch ives
Ġs ond
Ġoffici elle
Ġw h
instal lation
Ġperspec tives
Ġv idÃ©
Ġv illes
Ġmar ques
ĠÃ©tabl is
Ġcon gÃ©
appro visionnement
Ġtempora ire
g al
it ations
Ġsu isse
Ġrec ons
Ġcon go
Ġemp lois
Ġcommen cÃ©
ff is
Ã© laborer
Ġculture lles
Ġc at
Ġad resse
vid us
Ġreg istre
Ġqu elles
Ġpoll ution
Ġim mobil
Ġlo in
Ġdirige ants
ĠtÃ©lÃ© vision
Ġeffica cement
Ġprof it
ent ement
Ġsignif ie
6 8
ĠrÃ©guli Ã¨rement
Ġd Ã£
Ġgam me
Ã Ń
int ro
ex emp
y le
Ġqu ar
Ġm m
Ġun itÃ©s
Ġti ss
ĠdÃ©c enn
te ments
Ġob tenus
Ġrec ouv
Ġmin es
d oc
ĠrÃ© tabl
um er
Ġ5 8
Ġrespec tivement
ĠprÃ©cÃ©d ent
ri d
Ġrempl ir
Ġch ange
Ã® le
ĠÃ©labor Ã©
Ġil lÃ©g
Ġvo ix
ra ine
ĠvÃ©rif ier
3 2
ĠmÃ©dic aux
c l
Ġlar gement
in cid
Ġrequ is
Ġradio diff
f e
Ġminu tes
ĠÃ©qu i
Ġmariti me
Ġbudg Ã©taire
ica teur
ol u
Ġveu t
anc ouver
Ġapp ara
Ġdis tric
or de
del Ãł
Ġes c
Ġsou mettre
ous s
ice f
Ġconcent ration
a tiques
ĠÃ© du
uns wick
Ġr ang
Ġappropri Ã©es
Ã´m age
6 4
Ġsau ve
ĠcomprÃ©h ension
ta bilitÃ©
Ġraisonn able
ĠÃ©qu ipe
cont re
b an
Ġcinqu iÃ¨me
Ġ7 5
Ġvis i
Ġpour ront
Ġpass age
b s
n ie
Ġins crit
Ġtrans mission
Ġtrans formation
Ġadop tion
Ġb ande
ra d
Ġconseil l
Ġlan cÃ©
Ġ5 9
Ġaccr ue
off re
Ġdisposi tifs
Ġper tes
Ġappro fon
ti er
Ġj eux
thÃ¨ se
Ġb ass
d an
Ġpouv ons
Ġsou lev
ĠcÃ´ te
Ġas sez
Ġb aisse
ca p
Ġac teurs
n ouv
Ġno tÃ©
ĠrÃ©us s
om c
Ġce ci
Ġcult ures
ign ant
Ġprogram m
Ġret ard
truc tions
ĠrÃ© d
Ġin de
Ġpa yer
Ġpar ole
ĠÃ©qu itable
Ġreg ard
Ġcertif icat
ins pection
Ġenf ant
Ġmo itiÃ©
Ġfig urent
Ġparal lÃ¨
Ġh ong
Ġno ter
Ġra tif
Ġmex ique
Ġaur ont
Ġcomb us
tra lie
Ġir sc
Ġtour isme
Ġdon ateurs
se ur
Ġcontrib uÃ©
Ġk os
Ġextr Ãªme
c ol
Ġexp rim
Ġinf rastructures
ĠdÃ© mo
l d
Ġch ose
Ġculture l
en de
ĠpÃ©n al
Ġsp ort
b ie
Ġtrouv ent
Ġprocha in
ĠÃ©ta pes
Ġimport ations
Ġconf identi
orm ais
Ġadmissi bles
Ġrelev ant
at oires
ĠspÃ©cif ique
Ġop tions
Ġara be
obs ervation
Ġcompr om
Ġtra in
ĠdÃ©b ats
Ġn our
app liquent
Ã¨ que
Ġtur quie
Ġfran co
on ie
ĠreprÃ©sent ation
Ġgaranti es
ins tru
19 8
Ġ3 00
au che
Ġbi ennal
in n
Ġbas es
ĠtÃ¢ che
Ġsign Ã©
Ġv ancouver
Ġav en
Ġextra ordin
Ġmeille ures
Ġcour ant
Ġh uit
Ġban ques
al berta
Ġrur ales
ĠtÃ©lÃ© commun
Ġg agn
Ġessenti els
Ġoffici el
Ġh os
ent ente
ĠrelÃ¨ ve
Ġsoix ante
vis ions
ch Ã©s
Ġcommis sions
Ġ9 5
ĠrÃ©g ler
Ġno tes
Ġs tim
Ġpar is
Ġpriv il
Ġ `
Ġoff ic
ĠdÃ©c ret
ĠdÃ©s ormais
Ġk m
Ġchiff res
Ã©ta ient
6 13
Ġag rÃ©
Ġnav ires
Ġent end
Ã ³
se p
Ġ )
Ġcrimin alitÃ©
Ġbr Ã©s
Ġrestric tions
Ġneu f
Ġst and
a h
Ã©r one
ĠrÃ©p a
Ġadul tes
i um
Ġb os
ĠrÃ© di
a ie
ili ation
Ġh o
Ġindustri es
Ġre mise
Ġb onnes
Ġcor ruption
Ġma tern
Ġliber tÃ©s
enti el
ĠdÃ©ploy Ã©s
Ġorganis Ã©e
p or
Ġm ich
Ġenti tÃ©s
ĠtÃ©mo ign
Ġcor Ã©e
ĠrÃ©s oudre
tÃ©ra ux
Ġamend ements
Ġ7 7
Ġpoursu ite
ĠintÃ© gra
ĠrÃ© formes
Ã©p endant
ass ade
Ġarb it
Ġress or
Ġrelev er
Ġre cueil
ch ent
Ġtrans form
er ont
ĠdÃ©c Ã¨s
Ġdis cip
rÃ© gion
acqu isition
d ent
Ġus age
Ġcri mes
Ġisra Ã«l
4 1
Ġlead ers
Ġdev ront
inter mÃ©diaire
Ġc Ã©rÃ©
Ġmo t
Ġoc cident
Ġv entes
Ġoff erts
Ġen j
Ġvis Ã©e
ĠÃ©v id
p os
Ġconcent rations
entre tien
Ġprog res
Ġadress Ã©e
Ġdes truction
end s
Ġs m
ĠsÃ© par
Ġcli mat
Ġcalend rier
Ġisra Ã©li
Ġul tÃ©ri
Ġcan cer
Ã© tiques
Ġtouch ant
Ġs ti
min aires
Ġenvironnement ales
Ġsoli d
Ġaccomp lis
Ġc os
Ġhandicap Ã©es
Ġhe alth
Ġhuma in
pit al
Ġcommun s
Ġl ou
Ġch oses
Ġdestin Ã©es
Ġdimin ution
Ġesti mÃ©
par le
Ġfinan cer
Ġtab ac
Ġb Ã©
Ġregr oup
Ġdirec teurs
ĠÃ©tabli es
identi tÃ©
Ġtrans it
Ġdouan es
Ġen vers
Ġform at
ĠdÃ©termin Ã©
Ġinc omb
Ġmen tion
Ġculture lle
Ġinform Ã©
ch n
Ġincid ences
Ġprob ablement
Ġoc ca
ĠsupÃ©ri eure
Ġde l
ĠocÃ© ans
Ã©pend ance
ĠÃ©qu ival
Ġactu elles
Ġqu els
Ġloc ation
Ġterroris tes
is tiques
Ġpau vres
Ã©ra p
Ġdou ble
ĠprÃ©sent es
titu tion
ĠentiÃ¨re ment
Ġac tivement
c ra
Ġcar tes
Ġpro active
m Ãªmes
ĠprÃª t
6 9
Ġmess age
tri que
ĠÃ©du ca
bl er
e e
ĠprocÃ©d Ã©
au to
Ġsal ari
ist ant
Ġind ustrie
6 5
Ġparti s
iss ait
Ġsex uelle
ĠrÃ© alitÃ©
ĠlÃ©gisla tives
Ġh a
Ġeffectu er
employ eur
Ġadministra tif
Ġsoulig ner
ĠphÃ©n om
Ġconjo int
Ġp ages
Ġra di
Ġs tation
w n
os la
Ġjur y
ĠrÃ©sid ence
ĠspÃ©cialis tes
Ġra y
Ġconn u
ĠrÃ©c lam
Ġ om
t y
ĠprÃ©cÃ©d ente
ĠdÃ©cou lant
Ġconven u
Ġdiff Ã©rence
Ġparticip ant
Ġc ul
lif Ã©ration
ĠdÃ© gra
) :
identif ication
Ġt re
as p
Ġlib Ã©ra
Ġind Ã©pendant
Ġb anc
is Ã©e
eur os
Ã©n agement
ag ir
Ġtox ic
Ġopp ort
Ġcommen cer
ex ig
Ġentrepr is
Ġb lan
o vo
Ġ4 1
4 3
Ġquestion n
Ġent ente
Ġas semblÃ©e
Ã¨ tre
ĠnÃ©goci ation
Ġfond ation
Ġpra ti
Ġinc or
Ġacc us
s a
Ġaut om
ĠrÃ©us si
Ġf lo
oles c
Ġenvis ag
esp Ã¨ce
entrepr ises
Ġdi m
ĠprÃ© voir
Ã©cos se
Ġexist ants
ins cription
ĠÃ©conom ies
er m
Ġal ler
Ġatt end
7 3
Ġag ent
ĠprÃ©sent ent
at lantique
Ã© lÃ¨
Ġal lant
har mon
t ures
---- ----
Ġapp ort
Ġda tÃ©e
Ġrempla cement
Ġcerta ine
ir mer
Ġann oncÃ©
un icef
ĠprÃ©occup ation
Ġdisposi tif
Ġg l
Ġmanif es
Ġauxqu elles
Ġl ivre
Ġstoc ks
Ġpopu laire
Ġfamili ale
in et
Ġpart out
Ġrappel ant
Ġconsoli dation
br unswick
Ġuti les
co ol
Ġpres ta
me u
f eu
Ġparticuli Ã¨res
Ġaccord Ã©e
Ġra s
Ġma Ã®
Ġenti er
Ġa Ã©ro
Ġa per
cu m
Ġli aison
Ġdom in
ĠbÃ©nÃ©fici aires
Ġass u
acc roÃ®tre
a si
Ġfondament ales
Ġformu le
uk on
ori z
Ġparlement aire
Ġperspec tive
d n
al lemagne
Ġpol y
Ġreconna Ã®t
Ã´ les
affec tation
ĠdÃ©f i
Ġconc lure
Ġemploy Ã©
Ġprogramm ation
Ġcou n
Ġintitu lÃ©e
l t
Ġ4 2
imp osition
Ġc re
Ġj a
Ġsus c
ti ers
Ġ% .
Ġenvironnement aux
Ġex h
ĠdÃ©c ri
ar y
Ġa qu
an im
Ġw as
l ine
an che
te c
Ġtrans fr
Ġfond Ã©
Ġjus tification
Ġpo issons
Ġdestin ation
Ġmo des
ĠÃ©lev Ã©e
Ġg al
tel l
in demn
Ġappropri Ã©e
ĠtempÃ©ra ture
oug osla
Ġeffectu Ã©es
r ance
Ġe c
acc omp
Ġmo i
prÃ©s ident
ĠÃ©nergÃ© tique
Ġme illeurs
200 9
ica ts
ex ception
Ġjeunes se
Ġdistrib u
Ġat ti
Ġgra ve
Ġpren ant
Ġti tres
Ġmet tant
Ġprof ond
Ġenregistr Ã©
Ã©ch antill
Ġal li
Ġph arma
Ġincid ence
ĠvulnÃ©ra bles
Ġsomm aire
incid ence
import ation
en contre
ĠprÃ© visions
Ġafrica ine
Ġcau ses
p df
9 0
Ġarm Ã©s
Ġmig rants
Ġlong temps
Ġr ent
Ġag ence
Ġouver te
Ġl is
Ġkos ovo
Ġgro s
v ille
Ġmine urs
Ġcontinu ent
Ġactu els
Ġv ites
ĠcontrÃ´ les
ic al
Ġt ourn
Ã© larg
Ġcop ie
Ġg ol
inter diction
Ġcorrespond ant
Ġindi vidus
Ġvo ici
Ġe d
Ġd ra
Ġmultip les
Ġchois ir
Ġcl au
Ġlim iter
id Ã©e
Ġ6 5
Ġres tre
Ġac tifs
w p
ĠÃ© th
Ġcomple xe
Ġb ate
Ġtraditionn els
8 0
Ġil lus
Ġanci ens
adop ter
Ġsol d
Ġv Ã©g
7 7
Ġsecond aire
Ã©ta ts
Ġconcep t
Ġju ges
Ġvo ies
Ġli Ã©e
Ġexp osÃ©
Ġappare ils
Ġconcern Ã©es
Ġs ang
Ġdis tance
Ġcir cu
Ġcellu les
Ġpara m
ci des
onora ble
or ise
Ġdomm ages
te d
Ġradiodiff usion
employ Ã©
Ġmen Ã©e
ĠprÃ©c iser
Ġ5 4
Ġ Î
Ġunivers ity
y th
is Ã©s
Ġreconna Ã®tre
intÃ©g ritÃ©
Ġsp or
Ġl ux
ĠÃ©nonc Ã©s
ar s
h Ã©
Ġy ukon
Ġmentionn Ã©
Ġal berta
Ġch Ã´mage
Ġmen aces
opÃ© ration
Ġp me
ĠÃ¢ gÃ©es
ĠaÃ©ri en
Ġdestin Ã©
Ã©tu di
Ġconfor mes
it ec
Ġrempla cer
u tÃ©
Ġam Ã©lioration
Ġpropos Ã©e
Ġfranco ph
Ġaur aient
effec tu
Ġ ]
Ġperfec tionnement
Ġm ada
ĠsÃ© jour
Ġcu ba
y mp
graph ie
Ġhuman itaires
Ġinter pr
neu ve
il li
i k
f ait
Ġsco laire
ĠÃ©qui pes
Ġconstitu er
Ġpro vo
Ġsoulig n
t ons
Ġf c
Ġce e
ĠÃ©conom ie
ĠdÃ©mar che
Ġunivers itÃ©s
Ġ Åĵu
Ġ4 3
7 5
Ġeffectu Ã©e
Ġnom s
Ġv ues
Ġcommerci alisation
Ġautoris Ã©
exc ell
c in
tric itÃ©
Ġcommuni quÃ©
Ġdipl oma
ouver ne
9 8
Ġinc lure
inter net
Ġlabora toire
Ġchar gÃ©s
ĠconsidÃ©r ant
ĠcollÃ¨g ues
Ġsec onde
ĠintÃ©ress Ã©s
ĠÃ® les
Ġunivers itÃ©
Ġencour ag
Ġappropri Ã©
Ġd iss
Ġth Ã¨mes
Ġcons truc
Ġcons entement
en c
Ġval oir
qu ant
ĠdÃ© tenus
Ġ5 6
Ġsatisf aire
ĠÃ©li miner
g ue
re urs
la cement
ol Ã©rance
tendu e
Ġd en
iss ante
di ence
Ġextraordin aire
op inion
tu el
Ġpropos Ã©es
Ġbrev et
Ġpil o
Ġinstitu tion
ĠmatÃ©ri aux
ĠrÃ©pond ants
ig h
Ġv ac
Ġb y
Ġordin aire
tag ne
Ġviv ant
Ġcomp ort
Ġeffec tivement
f t
Ġoff ice
Ġmada me
ĠtÃ©lÃ©commun ications
Ġlet tres
Ġm asse
Ġpriv Ã©s
Ġaff aire
en cour
di a
ĠconsidÃ©ra blement
Ġra ciale
comm iss
ĠpÃ©ri odes
Ġfi du
Ġsa tell
Ġl our
ĠintÃ©g rÃ©
Ġinfra ctions
Ġriv iÃ¨re
Ġdirec te
Ġmu sique
Ġno va
ar ri
Ġ urg
w s
Ġexpos Ã©s
agn os
Ġeffectu Ã©s
Ġsu Ã¨de
Ġman u
Ġadministra tive
ĠgÃ©ograph ique
as t
Ġexist antes
Ġpublic itÃ©
Ġf lu
Ġses sions
s o
Ġaugment er
Ġind ire
ĠrÃ©alis Ã©
Ġsur v
Ġsoci o
Ã©qu itÃ©
ĠsÃ» r
titu des
man ie
ise aux
b o
ĠrÃ©du it
alis me
Ġmilli ers
Ġimp act
Ġd anger
Ġno tification
Ġs tric
ĠtÃ©lÃ©copie ur
Ġpo isson
Ġrapp elle
Ġsubst ance
Ġje an
ta ient
u le
Ġco tis
s p
Ġ8 5
m m
Ġvis ent
eff or
Ġav oc
Ġpro jec
Ġtravail lent
po que
4 2
h am
Ġg la
tr ont
Ġdim ension
oc tro
Ġch ances
Ġrencont re
Ġaper Ã§u
ĠbÃ©nÃ© vo
tri ques
Ġh er
er te
ĠÃ©tro ite
ĠextrÃªme ment
i onn
Ġmort alitÃ©
est ation
Ġla cs
Ġsou tenu
n a
9 7
x x
ĠrÃ© action
ĠbrÃ©s il
organis ations
ar k
Ġman uel
Ġconsta tÃ©
Ġid Ã©
Ġc c
Ġcomp osÃ©
Ġw ith
ĠdÃ©li b
ĠvÃ©r itable
Ġimp rim
ĠrequÃ©r ant
Ġaccord Ã©
men tionn
Ġch r
Ġins pec
t Ã£
Ġapp els
Ġm g
Ġv ient
Ġenj eux
Ġal lem
Ġvoy ages
Ġoc casion
ĠamÃ©rica ins
Ġcanadi an
ĠreÃ§ ues
Ġcontinuer a
Ġple ine
Ġpl ur
Ġprocha ines
Ġoffici els
ĠcompÃ©t entes
Ġru b
Ġajou ter
Ġun itÃ©
Ġappar tenant
................ ................
ĠmÃ© l
Ġobli gation
Ġdisp ens
Ġenvo y
ĠrÃ©c ente
Ġh u
alis Ã©s
Ġf era
Ġpar ent
Ġmo teur
Ġp ou
ce d
ch ange
Ġdisponi bilitÃ©
Ġfut ures
ici ence
Ġsimp lif
Ġ4 00
Ġsy mp
4 6
Ġpu issance
Ġaut our
Ġins tructions
erva teurs
or tÃ©
Ã ¶
Ġrur al
Ġprof onde
Ġfaci lement
Ġapp lications
ĠdÃ©c ouver
Ġanalys es
Ġde vaient
ĠtÃ© l
Ġdirec trice
Ġconta min
Ġpap ier
Ġparticip ent
itÃ© e
ĠfÃ©dÃ©ra les
Ġhabit uellement
Ġgrou p
tra tion
ĠÃ©c os
Ġrev Ãª
Ġdo c
ĠpÃ©tro le
Ġsus mentionn
Ġch in
9 5
Ġat mosph
Ġpar ler
Ġh al
l ons
Ġal lemagne
g en
Ġ% ,
tÃ© ral
Ġsou dan
Ġconsac rÃ©
Ġacqu is
Ġc ouverture
is h
Ġfix e
Ġindustri elle
Ġs ort
bil iser
is ations
in v
Ġadministra tions
ĠprÃ©li minaire
Ġref lÃ¨
h o
Ã¨g es
g uer
Ġdi agnos
Ġqu arti
Ġconf irm
iss ue
ce e
Ġdom icile
Ġrep os
Ġassu jet
Ġmondi alisation
ĠaÃ©ri enne
t aux
Ġcatastroph es
di tions
Ġsta de
i o
Ġdistric t
ĠÃ©trang Ã¨re
Ġins tamment
Ġax Ã©e
Ġretr ouv
li es
Ġconseill ers
Ġexp rimÃ©
l as
Ġexp ress
er ti
Ġcomm ande
ag o
Ġperform ance
Ġh Ã©
Ġimp liqu
Ġb ac
Ġfab ri
is tÃ©
Ġadminis tr
Ġm r
it Ã£
ĠplÃ©n iÃ¨re
Ġrequ ises
ĠdÃ© t
Ġindiqu ent
ĠdÃ© lin
Ġlic ences
Ġpr ennent
Ġseu ls
am ens
iv er
Ġnum Ã©rique
Ġis lam
u c
Ã©m ie
Ġfich ier
Ġprocu reur
ch ant
ĠfranÃ§ aise
Ġen d
Ġ8 8
Ġcontin ent
ex iste
Ġim mig
Ġprofessionn elles
ex tra
o z
Ġprof il
inf lu
Ġes pÃ©
Ġproduc tivitÃ©
Ġch ron
Ġlib an
Ġdev oir
Ġvra iment
Ġbi ologique
Ġobserv er
Ġport ent
arm Ã©e
Ġsyn dic
Ġcarb one
ind Ã©pendance
mes tre
ces sion
enf ance
Ġinscr its
Ġcon grÃ¨s
olog ne
Ġcontrib ue
Ġmon Ã©taire
ĠmÃ©dec ins
Ã©s ie
pp e
acqu itter
Ġestim ations
Ġad olesc
Ġdemande ur
Ġamp les
Ġvolon taires
Ġdynam ique
Ġcar riÃ¨re
Ġs il
ci al
Ġg ouverne
Ġcons erver
Ã©ri a
is Ã©es
Ġcompa raison
Ġp ier
Ġinv itÃ©s
Ġprovinci al
Ġpen sions
Ġindispens able
a Ã©ro
v Ã©s
Ġar ts
________________ ________________
ĠrÃ© el
g Ã¨ne
Ã©v iter
Ġcab inet
Ġmus Ã©e
Ġcara Ã¯
p our
j an
Ġb ra
ĠrÃ©alis ations
g in
Ġleaders hip
ĠdÃ©p utÃ©s
Ġoff rent
Ġp df
Ġsu pr
Ġmo du
tÃ©ra les
Ġcommuni quÃ©s
Ġintro duction
ro issement
ari tion
ĠamÃ©lio rations
can ada
Ġate liers
Ġorient ations
av ec
onn eur
Ġvites se
Ġrac isme
Ġre je
Ġent entes
Ġcollec tive
Ġprior itaires
Ġmaxim ale
ĠrÃ©d action
Ġta xes
ĠempÃª cher
ouv rir
ar rÃªt
v Ã¨ge
ra ux
ĠrÃ©glement aires
Ġsimil aires
Ġmili eux
a ci
Ġtr ente
Ġfl ux
t ants
g Ã©n
Ġde vez
c ar
Ġcli matique
intro duction
Ġ4 6
Ġb our
Ġqu in
Ġment ale
ĠcompÃ©ti tivitÃ©
Ġgestionn aire
pu blique
Ġmodif iÃ©e
Ġfaci le
Ġcomple xes
exc lusion
trich e
Ġprim aire
ĠapprÃ© ci
appu yer
Ġw est
Ġli ti
Ġdisp oser
ĠspÃ©cialis Ã©es
n el
Ġmen ac
ac ts
ĠmÃ© mo
Ġm y
Ġf ile
o ivent
Ġpalestin ien
Ġgro ss
Ġremer cier
octro i
Ġc m
Ġvis Ã©
Ġpuis qu
Ġdrog ue
Ġappu ie
Ġc lÃ©
Ġv ont
in Ã©e
ĠÃ©c ou
Ġconsid Ã©rer
ĠmaÃ® tr
le z
Ġpol lu
Ġar t
Ġbel gique
Ġ5 3
ĠchaÃ® ne
Ġar rang
Ġm erc
Ġformul Ã©es
Ġautochton e
Ġcontribu ent
Ġk o
Ġs ouver
di es
Ġco des
Ġfin ale
Ã©r ir
al d
Ġpro tÃ©
ĠfÃ© min
Ã© lection
hy dro
Ġcontac ts
Ġpi Ã¨ce
ĠbibliothÃ¨ que
Ġb us
ĠconsidÃ©r Ã©s
Ġfavora ble
Ġiniti ale
ĠinfÃ©ri eur
Ġpriv Ã©es
ĠsupÃ©ri eurs
Ġli Ã©
ĠcaraÃ¯ bes
an sion
Ġpro xim
Ġpres criptions
Ġcorpo ration
Ġenseign ants
Ġn orth
h onorable
Ġindire c
Ġmen Ã©
Ġfer ro
Ġis ol
ce u
Ġvolon taire
ĠsÃ© ri
Ġra tification
Ġw e
onom ie
Ġid Ã©es
Ġlec ture
ĠÃ©ch ange
Ġliv res
Ġn ig
Ġexer cer
Ġappel Ã©
Ã ¼
ĠintÃ©ress Ã©es
Ġ198 9
b res
Ġna issance
Ġvou lu
Ġvisite urs
ĠÃ©n um
Ġconsta te
ing ton
Ġjudici aires
r ich
Ġk il
ĠÃ© ducation
ie uses
Ġ5 1
ĠvidÃ© o
qu ants
Ġappro ches
Ġnavig ation
es c
ĠdÃ© l
an du
p ol
Ġadministra tifs
Ġsc ru
Ġbos nie
al s
app are
Ġvis ites
ĠdÃ©cla re
re u
enne tÃ©
Ã¨ vement
d om
Ġmes urer
Ġessenti elles
tr ans
Ġ5 2
la ges
ing s
gu Ã©s
Ġillic ite
Ġmar ine
Ġins tance
Ġcorre ction
j a
Ġser t
Ġho tel
ĠlÃ©gi ti
appel ant
Ġemploy eurs
inde x
Ġpreu ves
Ġfron tiÃ¨re
a jou
Ġm ad
Ġfor tement
Ġten eur
Ġdis par
Ġinc lus
Ġavant age
Ġun ion
Ġdiscu ter
rad or
Ġm ix
ĠexpÃ©ri ences
Ġposs Ã¨de
Ġavanc Ã©s
al cool
Ġpla te
m oni
Ġph ot
Ġ198 7
er ne
Ġs ac
ĠantÃ©ri eure
l ue
Ġ0 4
Ġcons erv
Ġmo tiv
or teurs
gi es
Ġal inÃ©a
Ġconva in
Ġab ou
ce ments
ĠopÃ©rationn elles
am Ã©rica
Ġla tine
Ġfourn ies
Ġsatisf ais
ĠrÃ©c entes
Ġ0 2
orta teurs
Ġdiscri min
a a
Ġbl anc
Ġserv i
Ġ0 1
Ġessenti elle
util is
Ġcon Ã§u
im er
ĠÃ© vo
vel op
off rir
Ã©lec tricitÃ©
Ġproven ance
h om
Ġrev ue
Ġpil ote
p t
Ġengag Ã©
Ġ6 7
ĠlÃ©gisla tif
Ġatte inte
e arch
Ġir rÃ©
Ġaccord er
Ġplan if
r un
Ġf ar
Ġprof iter
ĠÃª tes
Ġeffec tive
ud ence
minis tre
ĠtÃ©mo ins
Ġt Ã´t
Ã´ me
ĠÃ© t
Ġsol lic
Ġci bl
Ġsond age
re ts
Ġreli gie
Ġrou manie
ig u
auc une
Ġmilli on
Ġmo tif
ĠdÃ©termin Ã©e
Ġferro vi
] .
Ġesp agn
ĠrÃ©g issant
arb it
a x
ĠdÃ©f aut
Ġautre ment
Ġrepro duction
z a
Ġparlement aires
ĠdÃ©sign Ã©
entre r
Ġnom in
Ġ6 1
Ġrev end
Ġphy siques
Ġentrepr en
Ġm agn
Ġcapit aux
ĠÃ©nonc Ã©es
Ġfourn issent
Ġfond Ã©es
Ġin h
Ġu k
ĠprÃ©s erver
Åĵ ur
an o
aut om
m c
id ation
ĠtÃ©lÃ© char
Ġaut orisation
Ġdisc ours
Ġdev ient
Ġpro che
Ġdonn ent
Ġpor tÃ©
Ġcoordonn er
Ġimp ossi
atte indre
ote chn
re ra
Ġoff ert
f er
Ġsupr Ãªme
Ġjou e
Ġcon ten
Ġappor tÃ©es
Ġbi ologiques
Ġnor vÃ¨ge
tiss ement
Ġd av
ĠcoopÃ© ra
in tement
Ġv ivent
e tat
Ġsal aire
Ġph ili
Ġrepr ise
ne x
Ġl istes
Ġmont rent
Ġcontrac tant
Ġnation alitÃ©
il a
b c
Ġ198 8
Ġl ancement
Ġtechnologi que
Ġhy po
v iÃ¨me
Ġappropri Ã©s
ĠdÃ©cid er
am endement
loi ement
Ġfournisse ur
Ġposi tive
Ġc d
ec tion
Ġliv raison
Ġti endra
Ġfix Ã©
ĠconsidÃ©ra ble
Ġtch Ã¨que
Ġsub si
Ġtraditionn elles
ĠprÃ©jud ice
Ġsou tient
res sions
in er
Ġinstitu tionnels
Ġrec our
Ġenvis ager
ĠcontrÃ´ ler
ur Ã©e
ĠindÃ©pend ants
Ġ9 8
mp ing
Ġhabit ants
pr in
Ġrapport ant
ĠdÃ© ri
ĠrÃ©sul tant
Ġtest s
ĠcomplÃ©ment aires
Ġre quÃªte
Ġl anc
v age
ĠmÃ©dec ine
Ġindustri els
h ors
er ra
ins truction
Ġten us
Ġfeu ille
Ġcombat tre
ent raÃ®
Ġde velop
Ġinsu ffis
Ġfaud ra
Ġiniti al
Ġa sie
Ġconjo intement
ic o
Ġtra duction
Ġara bes
erti se
Ġvo let
t ante
ira q
ĠrÃ©pon du
Ã ¤
Ġcoh Ã©r
Ġp ologne
ĠprÃ©sent ant
am Ã©nagement
Ġinfra ction
ar tis
Ġcor ri
Ġpalestin iens
Ġdangere uses
Ġeffec tifs
ĠrÃ©s istance
itÃ© es
Ġgra ph
Ġaf ghanistan
Ġfr om
Ġt Ãªte
Ġapp elle
Ġconcr Ã¨tes
rÃ© publique
Ġlac unes
7 8
Ġaccep tÃ©
Ġrenouv ellement
Ġconsci ence
v abilitÃ©
Ġent rÃ©e
ĠthÃ© or
Ġl ire
Ġconstitu Ã©
ĠprÃ©cis Ã©ment
Ġindiqu ant
Ġfac ultatif
Ġproxim itÃ©
ĠrÃ©sid ents
Ġgr c
Ġquestionn aire
Ġretra it
5 1
cu pe
quÃ© bec
Ġn un
p m
ĠÃ©v olution
Ġsec tions
a che
Ġ8 00
Ġpl antes
org e
alis Ã©
Ġall ou
Ã©m ission
ĠdÃ©fini tions
Ġchau ff
Ġres earch
Ġbr ut
Ġapp arti
Ġn ul
alis tes
Ġsurveill er
Ġm ou
ĠfrÃ©qu ence
Ġmess ages
ĠrÃ©uss ite
Ġnom mÃ©
Ġchar ges
Ġh oriz
Ġcotis ations
Ġcapit ale
and onn
5 4
end rait
Ġann uels
ours es
Ġent ra
Ġreli gion
h c
trib ution
ĠdÃ©velopp Ã©s
un d
Ġpropos er
Ã¨ dent
ir lande
Ġp ont
asi le
Ġress ort
Ġrep ort
cid ents
ex er
Ġfut urs
Ġpa kistan
organis mes
Ġb lo
Ġendro it
Ġsa v
Ġac tif
ĠÃ© larg
Ġad h
Ġr h
Ġpos t
Ã©rone fs
ĠdÃ©taill Ã©e
Ġbu ts
Ġlogici el
Ġrecons truction
Ġgouvernement ale
Ġlogici els
Ġdev i
ac tes
ĠreÃ§ us
Ġpl as
Ġs in
Ġtitu laires
Ġex cÃ©d
Ġ6 8
Ġsy mb
Ġinter vention
onn age
Ã©r ant
loc ation
9 6
Ġeur o
ĠultÃ©ri eure
a vaient
er tion
âĢ Ķ
Ġfin lande
Ġcri tique
Ġvi enne
gi ques
Ġsupp ort
Ġr Ã´les
Ġclient Ã¨le
Ġun ifor
Ġcontin uÃ©
Ġg ri
ĠrÃ©f lex
Ġsold ats
Ġformul er
z Ã©
Ġsolid aritÃ©
ov ine
ow e
l en
ul Ã©
Ġfr anc
Ġam Ã©rique
Ġb ourses
z Ã©g
Ġfourn ie
Ġindustri el
Ġav an
Ġpo se
Ġinform er
ĠexpÃ©ri ment
Ġopport un
ĠmÃ© tÃ©
g ents
Ġl Ã¢
ĠmÃ©r ite
Ġt onnes
organ e
zÃ©g ovine
ti les
ĠrÃ© cip
Ġm ens
i ration
Ġsubsi di
Ġm Ã¨re
em ark
Ġf ro
Ġex amens
Ġdu quel
Ġdi am
Ġexamin e
ux elles
ĠprÃ©sent s
Ġappliqu Ã©es
Ġform er
Ġdur ables
ĠdÃ©pla cement
Ġfonctionn aire
n ent
Ġg h
Ġpi b
Ġche v
ĠrÃ© pÃ©
ĠdÃ©cenn ie
ur ants
ou til
z iÃ¨me
Ġaccessi ble
Ġmoy ennes
Ã©th ique
Ġch ale
Ġtransf erts
Ġhistor iques
Ġar gu
Ġinves tis
Ġfau te
th e
Ġaccessi bles
ĠÃ© lar
Ġinter dit
ĠprÃ© oc
ĠbÃ©nÃ©fici aire
Ġd ign
oc de
ĠrÃ©glement aire
7 0
t ar
Ġate lier
Ġcol labo
ĠallÃ© gations
Ġcomp ar
Ġi b
Ġtrans actions
ĠdÃ©f ic
Ġrapp ro
Ġimpossi ble
Ġju gement
Ġsec ours
Ġautoris Ã©e
Ġvil lage
Ġarm Ã©es
ĠrÃ©pa ration
Ġpouv aient
Ġsu p
ĠprÃ© val
Ġth Ã©rap
Ġt an
j i
her zÃ©govine
Ġislam ique
Ġpass agers
amb assade
Ġdispos ent
Ġcon t
end ent
Ġso i
ce voir
ĠÃ©vid ence
Ġras semb
ĠrÃ© cupÃ©
ĠrÃ©vis Ã©
ou se
Ġadmissi ble
et tes
a e
Ġp ouss
ĠÃ©tudi er
Ġfich iers
b al
Ġlib Ã©ration
Ġre cueillir
Ġexemp laires
ĠdÃ©fin is
ĠdiffÃ©r ends
ĠÃ©tabl it
Ġnom m
Ġs k
le urs
Ġparam Ã¨tres
Ġd ar
n i
s h
ĠopÃ©rationn el
i ation
p orts
Ġnature ls
ĠdÃ©s ir
ĠÃ©v ol
ad missi
Ġeff icacitÃ©
Ġcomm ence
t v
a illeurs
ra ges
Ġaut oritÃ©
ad es
Ġnu it
ac tif
Ġpr Ã£
Ġmod erne
Ġpoursu ites
enti tÃ©
Ġjou Ã©
ĠphÃ©nom Ã¨ne
Ġmanifest ations
iss es
Ġadolesc ents
Ġdistin ction
ten s
Ġmauva is
ten ance
o eu
Ġex tÃ©rieur
Ġassoci Ã©
Ġenregistr Ã©s
Ġclin iques
Ġpersonn elles
Ġchois i
Ġsouhait ent
Ġtable aux
Ġpla is
en a
pec t
Ġcompos ante
Ġsoli de
on y
Ġy ougosla
enti ne
ĠrÃ©tabl issement
Ġag ro
Ġpropos Ã©s
Ġatt entes
ii i
ĠministÃ©ri elle
Ġrenseign ement
ĠindÃ©pend ante
Ã©ra tions
Ġnun av
Ġmouv ements
Ġa jus
ĠmÃ©th od
au rer
Ġengag Ã©s
Ġprotoc oles
ĠprÃ© ven
Ġv an
k er
ĠÃ¢ ge
Ġp es
ĠintÃ©g rer
app orter
ĠÃ©tro itement
Ġper Ã§
Ġfr uits
Ġcitoy ennetÃ©
Ġrest er
Ġc Åĵur
ĠmÃ©dec in
Ġit alie
Ġc ur
Ġexter nes
Ġeur os
rÃ© d
Ġinstitu t
Ġl undi
ĠÃ©quip ements
a tie
om Ã©
d eux
Ġrappel er
Ġvendre di
Ġs ida
Ã©ri e
b Ã©
Ġch em
Ġcamp agn
Ġpo inte
ĠrÃ© tro
ac cessi
harmon isation
Ġbr uxelles
s b
oc ation
Ġpermet tront
Ġno tion
Ġmal heure
Ġsur ven
Ġcour rier
g ence
Ġvir us
Ġs tÃ©
en vo
ĠÃ¢ gÃ©s
ĠdÃ©p loiement
Ġquar ante
ĠtÃ©lÃ©ph on
Ġ6 00
Ġmariti mes
Ġconcern ent
Ġvoyage urs
Ġportu gal
Ġcons ulta
ĠbÃ¢ti ment
d ra
Ġsc ol
ĠrÃ©f Ã©rences
u ced
h i
Ã©qu ilibre
o th
ĠÃ©lecto rale
Ġsa ur
Ġcompagn ies
Ġmo bilitÃ©
ĠspÃ©cialis Ã©s
Ġqu alitÃ©s
Ġo ct
yp te
Ġafrica ins
Ġphot os
Ġdo tation
Ġcrit Ã¨re
Ġc le
Ġexp lique
erva teur
u te
Ġpermettra it
ĠÃ©chantill ons
Ġhandicap Ã©s
Ġ0 8
Ġnorm alement
Ġsix iÃ¨me
or es
Ġs ing
ress Ã©
Ġinter ro
Ġla dite
Ġajou tÃ©
Ġol ymp
ĠreÃ§ oivent
Ġcompos antes
Ġcompren ant
Ġsemb lent
yst Ã¨mes
Ġm onn
Ġjurid iction
graph ique
Ġtari fs
Ġsco laires
lis h
9 4
Ġrelev Ã©
Ġpe ines
Ġreg is
Ġenreg istre
Ġaff irme
Ġgr Ã¨ce
Ġrecouv rement
Ġconsta ter
et y
Ġra l
Ġla ke
Ġm Ã©ta
Ġde hors
an i
Ġutilis ent
Ġsal aires
g entine
Ġga ins
ou te
Ġf oy
199 8
ĠmÃ©dic al
Ġdan emark
Ġpotenti els
ĠbÃ¢ti ments
Ġstock age
Ġmar oc
Ġrest ru
Ġl ond
de v
yp re
tra it
ĠlibÃ©ra l
Ġressor tiss
ĠsÃ© minaire
Ġsitu Ã©s
ĠdÃ©b ou
Ġcro y
Ġ6 2
Ġpropri Ã©taire
Ġplace ment
Ġf our
Ġw a
Ġchang er
ut ation
Ġbudg ets
1 00
Ġat tendu
Ġa z
ri ons
Ġsi erra
Ġpubli Ã©s
Ġslo va
Ġsitu Ã©e
emp lois
Ġorgan e
Ġ '
Ġm ur
Ġindi ens
Ġdangere ux
in age
gar ie
ot an
Ġobjet s
ĠdÃ» ment
tro is
com itÃ©
Ġten ues
p ir
Ġcampagn es
Ġcoh Ã©rence
Ġv ivre
Ġpol ici
Ġiss us
Ġsignal Ã©
Ġ7 8
ĠreÃ§ oit
ĠdÃ© ro
am a
Ġappor tÃ©
ĠÃ©c lair
Ġat lantique
ul teurs
Ġlimite d
ĠconsidÃ©r Ã©es
ti ens
occup ation
Ġtechnologi ques
rit ure
du its
entre mise
ro y
Ġaccep ter
av ons
ĠrÃ© elles
5 3
Ġsou mises
Ġsal u
Ġdes crip
gu ay
Ġmodern isation
Ġtiss us
n els
Ġblan ch
Ġmodif iant
5 2
Ġfal lait
ĠintÃ©rim aire
Ġendro its
x y
ĠdÃ©sign ation
inf ra
Ġw or
Ġsais ie
2 12
tÃ© rale
Ġin u
ĠprÃ©c ises
Ġrest ent
Ġstand ard
Ġreli gi
Ġ #
r in
Ġquanti tÃ©s
Ġsol de
Ġsec tori
Ã¯ d
Ġre pose
ĠpÃ©riodi que
Ġf o
Ġtrans mettre
Ġr w
Ġre mÃ©di
mb er
Ġcol on
Ġspec ta
Ġp ct
j ourn
Ġmin Ã©ra
Ġrecens ement
at tÃ©n
Ġno tif
Ġdevelop ment
Ġassoci Ã©e
oir s
Ġco te
h onneur
Ġco hÃ©sion
Ġac cess
Ġop tim
ec h
Ġcompos Ã©s
Ġexpress Ã©ment
Ġfran ch
Ġlan cer
para vant
Ġcer tification
ins ertion
ĠrÃ©p er
au dience
Ġresponsabil isation
Ġdomm age
Ġin qui
ĠÃ©trang er
Ġret ourn
ĠdÃ© gag
ĠmÃ© tal
ĠdÃ©s ire
au lt
Ġeff ort
ĠdÃ© tru
Ġsupp rimer
Ġlux emb
el d
or Ã©
Ġf lex
Ġ6 4
a taire
Ġpharma ceu
Ġbil an
effectu er
Ġch ili
Ġo iseaux
Ġ8 7
Ġfisc ale
ĠrÃ© elle
Ġ15 0
Ġvois ins
Ġch ypre
Ġvol s
ĠinfÃ©ri eure
Ġou est
ĠamÃ©rica in
Ġappliqu Ã©e
Ġethn iques
graph iques
Ġcn uced
Ġtot alitÃ©
Ġla w
Ġr om
Ġordonn ance
Ġoff rant
Ġag ences
ipe g
Ġach ats
Ġethn ique
Ġmondi aux
Ġnet to
nouv eau
ist ent
Ġsoli des
Ġidentif ier
Ġla isse
Ġj ac
inn ipeg
Ġincomb e
Ġpass ant
Ġb ons
ten sion
Ġpour tant
Ġsuiv ent
Ġbass in
Ġvie ill
institu tion
Ġexist ant
un er
it te
vent aire
Ġma ur
Ġex pÃ©
Ġb ritannique
Ġfut ur
Ġch asse
Ġapprofon die
Ã©larg issement
Ġconcer t
Ġporte feu
Ġsensi biliser
Ġdu e
app ar
ĠintÃ©g rÃ©s
comm ission
Ġcon sig
Ġsuscep tible
Ġsc Ã¨ne
Ġenvis age
un g
Ġsatisf ait
Ġremer cie
Ġag ir
Ġ6 3
Ġnav ire
Ġmalheure usement
ta lement
Ã© re
os ce
Ġd g
tu e
Ġscru tin
Ġremer ci
Ġform ulation
Ġsecond aires
aus tralie
la ise
Ġagric ulture
Ġam or
Ġcou leur
ĠdÃ©sign Ã©s
ĠopÃ©rationn elle
Ġclin ique
imp orte
ĠcompÃ©t ents
an y
Ġadministra teurs
on Ã©sie
a taires
si m
Ġvi a
Ġmet tent
b onne
Ġdifficul tÃ©
Ġdonn ant
ĠcoopÃ© rer
Ġmin or
Ġcro atie
Ġbi o
Ġcoordonn ateur
de z
Ġpersonn elle
ĠrÃ©alis Ã©es
Ġparta ger
Ġmari age
Ġprin temps
Ġta x
Ġ ï
Ġ198 5
Ġpay Ã©
ĠÃ©lev Ã©es
le u
Ġdemande urs
ĠmÃ© taux
Ġcouv rir
Ġsa it
ari f
ĠÂ ·
Ġsais i
Ġajou tÃ©e
Ġc Ã©lÃ©
Ġba y
Ġfu ture
ĠÃ©c rite
Ġdav id
Ġfondament al
orta teur
opp osition
ar ts
ĠdÃ©pla cÃ©es
Ġb at
Ãªte ments
Ġslo v
v ues
olo gation
lÃ¨ vement
Ġcol lection
Ġdimin uÃ©
ĠmÃ©mo ire
ĠsystÃ© matique
im age
Ġfidu cie
Ġrapp orte
ous se
ĠrÃ©c ol
Ġcol laborer
Ġre change
Ġin vo
Ġparten aire
Ġf es
ĠbÃ©nÃ©fic ient
Ġaid es
Ġci ble
ĠÃ©vent ail
Ġperman ents
Ġd il
in ions
Ġbi otechn
encour ager
Ġ9 7
Ġid en
ĠsÃ© v
) )
Ġ tic
Ġal tern
ci ation
ĠÃ© lo
Ġparti cipe
Ġpens er
Ġunivers itaires
Ġprovinci ales
r its
Ġsc Ã©n
it ables
ivers aire
tra duction
Ġb out
Ġquarti er
att ants
9 3
Ġpier re
le ts
Ġdes qu
Ġserv ent
ĠdÃ©fin ies
Ã©lÃ© rer
Ġassoci Ã©es
Ġf as
) (
Ġoffic ieuses
end ice
Ġmach ines
owe Ã¯
Ġpri Ã©
Ã¨ lement
Ġf oi
Ġf ils
Ġh am
Ġrend us
te mp
Ġexclu sivement
Ġconf irmÃ©
Ġpos er
Ġk en
Ġcher cher
Ġsembla bles
ĠÃ© mis
Ġb ag
po int
intÃ© rÃªts
it ablement
ĠconsidÃ©ra tions
Ġw innipeg
Ġrou tes
d p
it alie
Ġbul garie
Ġobserv Ã©
ĠnÃ©cessaire ment
Ã©conom ique
ul sion
Ġtrouv Ã©
excell ence
Ġesp agne
Ġk g
Ã©d o
Ġrenvo i
Ġtouch Ã©s
Ġc lu
w er
Ġt ar
h Ã´
ĠdÃ© tection
ta wa
est res
Ġcon vi
ite ur
ses sion
ĠcrÃ© di
Ġim ages
u mes
v itÃ©
Ġsta ble
Ġmaj eure
Ġfil m
Ġvicti me
Ġs truct
Ġocca sions
Ġrequ ise
de mment
ĠsÃ© pa
que z
Ġju gÃ©
Ġeffec tif
Ã© lÃ©ment
Ġdeven u
p ers
Ġenreg istrement
Ġinter d
ĠmÃ©di ateur
exemp le
Ġposi tif
emp Ãª
Ġparti el
ĠmÃ©dica ment
ĠentraÃ® ner
Ġquel con
org ie
ti le
is tage
Ġar rÃªt
Ġrepr ises
Ġann once
iter ran
ac di
Ġexter ne
Ġconsac rÃ©e
ĠopÃ©rationn els
Ġsys te
Ġnunav ut
Ġcri tiques
Ġsais on
Ġarrang ements
tis me
Ġposi tifs
ci eux
Ġti ens
Ġrendu e
Ġcondu it
Ġchiff re
ĠconsidÃ©ra bles
Ġorganis Ã©es
Ġp Ã©d
Ġ25 0
Ġk oweÃ¯
amp leur
iv e
Ġsol s
Ġclass ement
n Ã©es
Ġappu y
Ġexp liquer
Ġrou ge
Ġpar ven
Ġposi tions
d h
in al
Ġoc cupÃ©
ĠÃ©ch elle
Ġti ennent
Ġautoris Ã©s
Ġser re
Ġr onde
Ġit ali
Ġprivil Ã©gi
Ġapp liquÃ©
Ġb ang
Ġrestru ct
Ã³ n
er ba
Ġlaiss er
Ġtou che
Ġa re
s ur
Ġam en
Ġpren antes
Ġin vestissement
ou pe
Ġlog ements
ĠremÃ©di er
Ġg o
Ġtarif aire
Ġobs ervateurs
Ġcons tante
Ġpropri Ã©taires
Ġvra i
ĠrÃ© cep
Ġformu laires
ang lais
Ġobsta cle
Ġser bie
Ġvo il
Ġeng age
Ġsur vie
ĠdÃ©p it
Ġprim aires
ĠdÃ©fin it
Ġhau teur
Ġinves ti
Ġhong rie
ĠÃ©n oncÃ©
Ġ198 0
Ġmar ge
Ġeng lish
Ġim mun
Ġnet te
ĠspÃ©ci alement
Ġper tur
ill on
land ais
v ient
par g
institu tions
Ġsoup les
zÃ© lande
Ġti mor
aut onomie
Ġau dio
s ta
j ac
posi tions
end ro
Ġroy ale
Â ®
Ġp Ã¢
exer cer
Ġlingu istique
er al
admissi bilitÃ©
9 1
âĢ °
de au
ph ab
Ġsusp ension
Ġpresta taire
ĠprÃ©oc cupÃ©
alis te
Ġda tes
ĠcompÃ©t ente
Ġacc ru
or tÃ©es
Ġh ol
Ġsouver aine
Ġsub i
Ġmunicip alitÃ©s
Ġtri mestre
Ġesc omp
hum an
ĠextÃ©ri eure
k y
Ġprog resser
Ġgard er
ĠdÃ©f av
c ons
Ġrig oure
Ġref lÃ©
Ġfa une
erba Ã¯d
Ã©ch elon
ĠmÃ©tÃ© or
Ġg i
ĠdÃ© tec
Ġlong ueur
Ġc um
Ġcol onne
ir an
Ġconva inc
Ġdeme urent
gar y
pro lifÃ©ration
Ã´ ture
cÃ© demment
Ġmig rations
Ġadop tÃ©s
Ã©v Ã©n
Ġlu cra
ĠrÃ©flex ion
av ancement
esp agne
olog y
Ġinclu ant
ĠextÃ©ri eures
Ã©ta pe
Ġvers er
Ġfix Ã©s
Ġquelcon que
Ġaven ir
Ġrappel Ã©
sif ier
ili b
Ġper du
ch Ã©e
ĠdÃ©fini tive
Ġartis tes
ins crire
engag er
f act
Ã¡ Ã¡
Ġdiffic iles
Ġlis bonne
Ġcl Ã´ture
Ġ198 6
Ġreconn us
Ġveu lent
ĠcomplÃ© ter
Ġc s
d Ã©c
ter r
Ġunivers elle
Ġacc orde
Ġexist ent
l ir
Ġsignifica tive
Ġjur is
Ġf la
Ġfabric ant
Ġrec tif
onn ements
Ġcontra ct
Ġpo table
Ġtransp orteur
ĠÃ©cos ystÃ¨mes
Ġm Ã¨tres
Ġpr or
Ġlic enci
r ante
Ġappro bation
Ġfix er
Ã©tudi er
Ġje une
Ġto talement
Ġbe i
Ġdiffus er
lÃ© ch
ĠrÃ©alis Ã©e
9 2
Ġtrans nation
ĠprÃ© cÃ©demment
instru ment
er ic
Ġfinan cÃ©s
Ġjou ent
ĠlÃ©g Ã¨res
f re
prÃ©s id
Ġo s
ĠdÃ©mont rÃ©
Ġ0 6
Ġcr di
Ġcu is
au dit
Ġconform er
Ġt al
ain issement
ĠÃ©qu ilibre
ĠdÃ©taill Ã©es
Ġpla ignant
inÃ© as
Ġseu il
Ġg er
Ġann iversaire
Ġlog istique
ĠbÃ©nÃ©f ices
Ġau paravant
ie z
exp ansion
Ġmand ats
Ġins tances
Ġdom es
199 7
Ġind ications
k h
Ġpollu ants
ĠdÃ©liv rance
ra m
ĠintÃ© gration
Ġaff irmÃ©
ĠdÃ©b it
Ġmar che
aÃ©ro port
Ġf um
con f
ĠsÃ© minaires
ĠrÃ©p ression
Ã©conom iques
Ġtermin Ã©
ĠamÃ©rica ine
Ġfin alement
ĠmaÃ®tr ise
ĠdÃ©p istage
Ġf e
is tait
Ġclass es
ĠÃª tres
ĠmatÃ©ri els
Ġsyn thÃ¨se
Ġvers ement
ĠvÃ©rif ications
Ġaspec t
ke ting
ĠintÃ©ress ant
Ġdiagnos tic
ob ile
Ġpra ir
Ġp c
ĠprÃ©par Ã©
ate lier
Ġop tion
Ġexp lic
Ġflex i
Ġsan ction
Ġac cidents
Ġunivers itaire
Ġlingu istiques
Ġabs olu
Ġrep as
ĠintÃ©ri eure
Ġx x
Ġbate aux
ĠdÃ©pos Ã©e
Ġhist oire
ob tention
Ġdestin Ã©e
il d
end us
ĠmÃ©n ages
Ġcomporte ments
Ġportefeu ille
Ġs en
Ġsatell ite
ess es
Ġci bles
Ġsuff isant
al lÃ©
in ves
Ġam is
Ġgouverne ur
ic y
ĠprÃ©para toire
Ġtrans mis
tu elles
ĠfaÃ§ ons
k ing
Ġphili pp
Ġpro t
Ġluxemb ourg
Ġsuffis ante
lo re
ĠÃ©g al
intÃ©g rer
lo cu
Ġp pe
Ġ9 63
Ġfabric ants
Ġcomp tabilitÃ©
Ġl in
Ġmo indre
Ġcontra intes
ĠprÃ©cÃ©d entes
Ġsug gÃ©
Ġtrou bles
Ġma tin
ber t
ĠprocÃ©d Ã©s
Ġang laise
Ġserv ant
Ġespagn ol
Ġcarb urant
ĠmÃ©dic ale
Ġop inion
ient s
Ġal g
accord er
ar ticles
Ġexamin Ã©es
Ġconjo inte
Ġjeu di
ĠdÃ© g
Ġpar fait
Ġre mis
ĠdÃ©lin quants
Ġfais ait
Ġpilo tes
p n
Ġrec yc
ĠrÃ©vÃ© lÃ©
Ġpertin ence
Ġgre ff
anci en
Ġf ou
Ġvari ables
Ġcomb attants
Ġconcern Ã©
Ġagric ulteurs
ĠrÃ©sid ent
Ġcro ire
cue ille
av ance
. ).
t aurer
Ġre dev
h ol
Ġle one
ĠaÃ©ri ens
Ġtravail lÃ©
b ri
Ġst ations
Ġs w
Ġba ie
Ġm po
Ġop inions
Ġbless ures
Ġesp Ã¨ce
Ġprovinci ale
ĠdÃ© v
ĠÃ© man
Ġcomple x
du ite
Ġdi men
Ġp ur
Ġ ord
ĠcrÃ© Ã©s
Ġtps gc
ĠÃ© lu
Ġdign itÃ©
Ġsavoir s
re di
Ġc Ã¢
Ġpron onc
Ġer reur
ĠcrÃ© Ã©e
ĠministÃ©ri el
d y
is ra
at tribution
ĠÃ© to
Ġac tiv
trois iÃ¨me
Ġcl arif
Ġt omb
yst Ã¨me
an es
Ġra tion
Ã´ mes
Ġinstitu ts
Ġsuper fic
Ġre mettre
Ġinflu ence
ĠgÃ©nÃ©ra tion
ordonn ance
Ġeng lob
Ġlit u
es tim
y e
ci ens
Ġrub rique
Ġfournit ures
Ġcro issant
o ration
ĠÃ© lection
Ġcomport ant
hom ologation
Ġaccep table
Ġmo bilisation
appare il
m r
al li
Ġb en
Ġacc Ã©der
erbaÃ¯d jan
Ġk e
ord anie
Ġcli quez
Ġh cr
at mosph
av oc
ur Ã©s
ĠexÃ©cu tion
Ġt endant
Ġvo ire
ge ant
Ġm dn
Ġaus tra
ot tawa
p ic
ĠparallÃ¨ lement
Ġan nexes
Ġfes tiv
Ġim meu
Ġmais ons
tr y
Ã¨s es
rÃ©s olution
itec ture
Ġh aÃ¯
Ġjuris pr
Ġal b
ĠarrÃª tÃ©
Ġh ab
Ġent endre
or iste
Ġenvo yÃ©
Ġmentionn Ã©s
if ax
Ġseu les
Ġpres crit
Ã© vent
Ġinf rastructure
aliment aire
ri me
p la
ĠpÃ©riodi ques
Ġn am
Ġprior itaire
Ġat tÃ©n
= "
Ġvou lons
Ġ0 5
Ġcon vo
ĠdÃ©j e
Ġinvestis seurs
Ġcon duc
Ġ \
g uÃ©
Ġcal gary
f ais
Ġcorpo re
Ġf id
ĠnumÃ©ro s
al lage
lo ir
ĠgÃ© orgie
ĠsÃ© qu
human itÃ©
Ġtrouve rez
Ġa Ã©ronefs
Ġcha p
te in
Ġinform atique
Ġenvo yer
Ġcommiss ariat
Ġcomprom is
Ġesti ma
d d
ĠlÃ©gisla tive
Ġsor tie
Ġindividu els
Ġvi abilitÃ©
Ġprofes sion
Ġengag Ã©es
Ġb ce
Ġ( Â«
Ġgu inÃ©e
Ġin cap
Ġdirec ts
Ġpres sions
g l
Ġrob ert
Ġn at
Ġinstal lation
it ants
Ġrus se
Ġciv iles
Ġc ath
Ġmix te
Ã© lÃ©ments
bre tagne
Ġsubst anti
Ġ0 3
Ġso ir
Ġax Ã©
Ġfavora bles
Ġfond ement
Ġre tenue
par tie
Ġin nov
Ġsy ri
Ġinde x
Ġph o
ĠthÃ© Ã¢
auc un
Ġallem and
Ġatte ints
b on
Ġterritori aux
Ã© dition
Ġorganis er
a ines
Ġvo ter
u des
organis er
Ã©g al
ĠdÃ©pla cements
ĠtraitÃ© es
ĠdÃ©cide urs
Ġ6 6
Ġpropri Ã©tÃ©s
exp iration
a yant
Ġtravail lant
Ġcr ises
ĠantÃ©ri eures
ĠdÃ©ch ar
f our
Ġchim ique
n elle
inf ection
199 6
ĠprÃ©c on
wa y
Ġrenouvel ables
Ġcro issante
os ent
as es
Ġca mb
Ġmont rer
h u
Ã© poque
Ġsou mise
Ġtrouver a
Ġk y
Ã© lev
Ġfondament ale
Ġjustif ier
Ġconstru ire
ex tr
Ġapprouv Ã©s
Ġcoordonn Ã©es
Ġchin ois
' '
Ġr yth
Ġdimen sions
ma in
ĠdeuxiÃ¨me ment
ĠgÃ©n ie
Ġintergouvernement ales
v ue
Ġt unis
Ġsugg estions
ĠgÃ©n Ã©tique
Ãª tes
Ġcomp any
Ã©c art
Ġmerc redi
ĠdÃ©c ent
Ġtransfr ontal
l ines
que mment
Ġm uni
Ġexh aus
uk raine
Ġorient ale
Ġc ig
Ġsignal er
Ġentrepren eurs
ĠrÃ©vis Ã©e
Ġcent rales
Ġviol ences
acc roissement
Ġcorrec tement
ĠdÃ©cis ionn
y age
Ġau th
ĠrÃ©pond ant
augment er
a ins
ou ard
b ile
Ġlucra tif
Ġman agement
Ġb andes
Ġes pace
Ġar me
Ġ0 7
Ġrece v
Ġmonn aie
Ġat ten
Ġpubli Ã©e
8 5
ĠrÃ© ellement
om es
c p
Ġy eux
pu le
om Ã¨tres
ĠdÃ©s igne
administra teur
ĠdÃ©mont rer
Ġrecour ir
ĠcoÃ» te
ĠprÃ©c ision
pit aux
er tes
ĠadÃ©qu ate
Ġmar di
au jourd
Ġbr an
Ġad d
Ġfor esti
par ti
Ġjurispr udence
autom ne
ici ens
ĠprÃ©sent ations
Ġinf irm
ĠÃ©c ologique
Ġmar keting
Ġprob able
Ġaugment e
Ġin no
Ġven ez
Ġexplo itation
Ġimpos Ã©es
ĠrÃ©guli Ã¨re
ac tu
ĠgÃ©n Ã©tiques
ume urs
Ġa si
ĠrelÃ¨ vent
qu atriÃ¨me
w g
adap ter
ĠÃ©g ale
Ġfisc ales
Ġs pe
est er
Ġcha mps
ĠdÃ©p oser
Ġg auche
Ġlit tÃ©ra
Ġenviron ment
am i
ra c
Ġcom bler
Ġoffici ellement
Ġheure ux
app rÃ©
Ġconvain cu
Ġt ac
identif ier
gar de
Ġcouv re
ĠcÃ©rÃ© mon
Ġcon tiennent
Ġper pÃ©
n on
ĠfrÃ©qu ent
Ġdo se
ĠprÃ©s um
isra Ã«l
Ġbien fais
sep tiÃ¨me
Ġinc om
tori a
Ã§ on
Ð ³
Ġw ind
Ġreconna issant
Ġinc l
ĠmÃ©c an
Ġconsomm ateur
l Ãł
ass ainissement
ult an
b y
Ġcandid ature
Ġpos session
ĠprÃ© visi
utilis ateur
Ġmig ration
Ġrempla cÃ©
mont er
appel ante
Ġbien ven
Ġcommand ement
Ġferrovi aire
ĠÂ °
Ġmag as
Ġtrans met
alis Ã©e
ĠrÃ©c onc
Ġter ra
p re
onn er
ond es
commiss ariat
l ang
si x
Ġ7 3
in o
Ġcomb ien
Ġsais ir
mont on
ra t
onn iers
ĠdÃ©mocra tiques
neu viÃ¨me
Ġd ens
Ġparticu les
Ġsi Ã¨ges
Ġag issant
ic tions
Ġslov Ã©nie
Ġsouveraine tÃ©
Ġresta urant
ne y
Ġbienfais ance
Ġth aÃ¯
ĠÃ §
Ġremar quer
Ġvieill issement
Ġfin ance
Ġpoursu it
Ġexamin Ã©s
d on
Ġm ass
Ġvo tÃ©
Ġrevend ications
enti elle
ĠcomplÃ¨ tement
ograph ie
Ġinter venir
Ġprofes seur
Ġwa ter
Ġ7 00
Ġvers Ã©es
Ġform Ã©
Ġac t
a w
ang le
Ġm os
Ġso c
Ġsan itaires
Ġpres s
ĠentraÃ® ne
Ġhau ts
ĠpÃ©r il
Ġs igne
an alys
Ġfor es
ĠdÃ©f endre
Ġass or
deux iÃ¨me
Ã¨ se
ĠÃ©vent uellement
Ġurba in
ica tif
ĠconÃ§ us
ra teur
Ġpor ta
g ure
ĠreflÃ¨ te
cu re
Ġmilli ard
ĠsÃ©ri eux
ĠintÃ©g rante
Ġfourn issant
emp lacement
Ġcon tro
Ġ7 2
oz one
hui tiÃ¨me
Ġch lor
Ġs ct
Ġsau v
tu els
Ġaccomp li
ĠdÃ©p Ã´ts
ĠbÃ©nÃ©vo les
Ġf ili
ĠdiffÃ©r ente
ul f
Ġnorm ale
esp Ã¨re
Ġaff ili
ĠÃ©v ident
si ves
Ġmondi ales
Ġal inÃ©as
Ġf ed
im mun
ag rÃ©
Ġaff Ã©r
ĠdÃ©tail lÃ©
ĠrÃ©c ents
re v
ĠÃ©qu ilib
om ique
arri vÃ©e
Ġpa tient
Ġ8 4
Ġpertin ente
ĠrÃ©pond ent
h iver
Ġcn rc
imp ression
Ġcompara tivement
Ġfeu illes
Ġex ac
m d
opÃ© rations
8 7
eff ic
Ġinstitu te
ra pp
Ġaffec tÃ©s
tre r
Ġac cum
ĠdÃ©crit es
explo ration
Ġfin ales
c f
s ud
ber gement
Ġadop te
af ghanistan
Ġterritori ales
Ġfra pp
dif ication
Ġconf irmer
ter re
Ġr ome
d ans
cur r
ĠrÃ©aff irme
Ġsenti ment
Ġcon cevoir
Ġexp liquÃ©
Ġmac ro
p al
lo ie
ab us
Ġ9 4
Ġcr tc
Ġmaj or
alis Ã©es
que t
Ġth erm
Ġsuper vision
Ġriv er
h ttp
ĠÃ©tabl issant
ĠlimitÃ© es
mor andu
Ġc p
Ġrw anda
Ġven til
prin ce
ĠrÃ©aff irm
oeu vre
Ġressortiss ants
Ġpla fond
ĠgÃ©ograph iques
Ġplais ir
ow s
Ġenti tÃ©
ĠreprÃ©sent er
Ġbo Ã®
Ġraisonn ables
Ġmich a
li ques
ĠdÃ©je uner
Ġsal les
) ]
Ġoff ices
Ġa th
Ġth at
Ġex position
ti mis
Ġqu it
re c
Ġau di
Ġcombin aison
ĠprÃ©cis ions
Ġinter prÃ©tation
Ġconfidenti alitÃ©
ou x
ajou ter
Ġindi ennes
Ġpros pÃ©
ĠdÃ©n om
nu ap
Ġnour riture
Ġmar k
Ġorient ation
Ġspati ales
Ġann uelles
g s
Ġx Ã©n
Ġincor por
Ġroy al
Ġcommand ant
Ġcommiss aires
ĠÃ©lo ign
Ġsuiv ie
lar us
Ġemp run
Ġvari ation
Ġfinan cÃ©
Ġan aly
Ġter miner
Ġautonom e
Ġv Ãªtements
Ġp ic
f ord
Ġmar gin
hy po
Ġd Ã¢
Ġanci en
Ġbi odi
ĠÃ©lec trique
Ġcondu ire
ĠdÃ©cri re
h r
ĠpremiÃ¨re ment
Ġfr ontal
Ã©ra ble
Ġid Ã©e
Ġrespec tifs
Ġtot ales
tres s
ĠintÃ©g rÃ©es
Ġim age
Ġnature lle
ĠmÃ©d iterran
Ġcap able
pu bl
Ġindustri elles
Ġa Ã®
Ġav ions
de ur
Ġ12 0
ĠentraÃ® nÃ©
Ġy ou
Ġmentionn Ã©es
Ġin g
Ġcontac tez
Ġb loc
mÃ© th
Ġavoc ats
Ġinflu en
Ġass urÃ©
Ġra tta
Ġmar ins
Ġlet ton
Ġp Ã¨re
Ġordin aires
et h
end ront
Ġcatastroph e
ri Ã¨res
Ġent our
oph ob
jus tement
Ġcomp tables
Ġco op
Ġin tr
Ġentre r
Ġbila tÃ©raux
aff ich
Ġh on
Ġt olÃ©rance
ar n
Ġdro ite
Ġmo bile
Ġs our
Ġremar qu
Ġreti rer
Ġti rÃ©s
Ġrev anche
Ġf ir
alog ues
Ġc lar
Ġconc lut
Ġst yle
ern er
ign ent
Ġve ill
Ġillic ites
Ġcour te
Ġvi ennent
Ġconsta tations
Ġcomplex itÃ©
Ġen vir
endro it
Ġhypo th
Ġin uits
Ġcon tenus
Ġso in
arc tique
Ġpau l
Ġbar re
ĠprÃ© t
Ġk ir
{ \
Ġmodern es
h ington
Ġvari ations
c il
ĠmÃ©l ange
Ġappu yÃ©
Ġrestruct uration
ĠprÃ©vo ient
Ġes prit
Ġpales tine
Ġmultila tÃ©ral
ĠkoweÃ¯ t
r om
Ġregis tres
Ġcon temp
Ġdou ane
Ġsubs titu
Ġsuperfic ie
Ġve ille
Ġc rÃ©e
Ġh as
Ġen ce
ĠdÃ©pend ance
Ġimp u
Ġdi ab
Ġdem i
Ġblanch iment
e k
ĠrÃ©conc iliation
c al
Ġimmig rants
attÃ©n uation
ĠdÃ©p asse
Ġdimin uer
Ġryth me
Ġca isse
it a
ĠsupÃ©ri eures
oc k
an ne
b u
Ġv ent
c arb
Ġpubli Ã©es
m al
Ġcontin gents
ĠrÃ© actions
Ġnutri tion
Ġunifor me
Ġh i
influ ence
Ġch Ã¢
Ġcertain ement
Ġpr ouv
Ġd ang
op a
Ġexplo iter
p ard
Ġcomment aire
Ġchar gÃ©es
Ġdescrip tif
Ġba ta
Ġp orts
Ġcontraire ment
7 9
ĠmÃ© morandu
Ġj ard
ĠÃ© mer
Ġexerc ices
Ġs tress
ĠsÃ©n at
ĠrÃ© jou
Ġcos ta
Ġterr estres
Ġsembla ble
import antes
ĠrÃ©du ite
Ġsoci ety
Ġval iditÃ©
Ġcommand es
Ġwor ld
Ġphilipp ines
ĠdÃ©c ouvrir
ĠÃ©val uÃ©
Ġver b
ra se
Ġmo teurs
ta uration
ĠhÃ´ pitaux
Ġch ris
Ġt v
acc ise
Ġlitu anie
Ġp eter
Ġsim ultan
entrepr en
Ġindiqu Ã©es
o ol
Ġsuffis antes
Ġsom alie
Ġbil ing
Ġtox iques
m ique
l itÃ©
ambassade ur
Ġou bli
dite urs
Ġqualif iÃ©s
Ġopp os
Ġ7 6
el lÃ©
Ġconna Ã®t
Ġcorrespond ance
Ġh ora
Ġautoris ations
Ġfisc al
Ġb oli
ĠrÃ© examen
Ġhal ifax
Ġgaranti ss
lÃ¨ ge
Ġ ign
at or
Ġorganis Ã©s
7 1
Ġmatern elle
ag issait
Ġfon ci
au d
onn Ã©s
Ġbac tÃ©ri
Ġbre f
Ġvi i
instru ments
Ġsimp les
Ġp ond
ber g
ĠÃ© tique
ais ie
Ġdess ins
arbit rage
Ġconf ig
velopp ement
Ġac cident
Ġer reurs
on f
Ġindemn itÃ©s
Ã ±
ĠlibÃ©ral isation
Ġfrancoph ones
us t
ĠdÃ©cla rer
Ġ6 9
Ġdu mping
Ġsyn d
Ġvis iter
ĠdÃ©fic it
ĠrÃ©du ctions
Ġass umer
Ġconsac rÃ©s
Ġh ui
d en
ĠprÃ©vo y
Ġutilis ations
Ġinc lut
la ient
Ġti r
Ġin t
w ork
Ġimp Ã©ra
fi ants
Ġmaj eur
it ons
a qu
Ġhar c
Ã©n ag
ĠrÃ©clam ations
Ġmauva ise
Ġordin ateur
Ġno tant
Ġaf gh
du ites
ĠprÃ©cis Ã©
Ġdang ers
Ġv in
ĠspÃ©cif iquement
n Ã©e
ĠÎ ¼
Ġse m
atta quer
go v
ĠÃ©n ergie
Ġf ol
Ġmar in
Ġfamili ales
Ġa im
ĠÃ©c ole
ĠÃ©vÃ©n ement
ar rÃª
ĠdÃ©gra dation
tÃ©n Ã©g
Ã©do ine
des h
indemn isation
Ġ ic
is tra
Ġposs Ã©d
ĠÃ©li min
ĠprotÃ©g Ã©s
ĠespÃ© rons
Ġaus tralie
unes co
Ġsign es
Ġvers Ã©
Ġpris on
Ġautonom es
ĠgÃ©nÃ©ra tions
ĠprÃ©sid ents
ĠbÃ© larus
lo w
Ġc is
Ġ6 13
Ġprodu isent
Ġcertif icats
Ġconsul tez
Ġunivers el
tv h
cip lin
g Ã¨nes
ĠreprÃ©sent ante
ag ue
Ġar c
Ġ$ .
a tis
ac tifs
Ġapp orte
c ro
Ġa ires
Ġsensi blement
Ġcul tiv
Ġmac Ã©doine
ĠdÃ©fin ie
Ġprofonde ur
7 6
ĠÃ© laboration
Ġtoxic om
pr ouv
Ġarri ver
ar r
Ġlabora toires
exp ertise
onn Ã©es
Ġqua si
anci ers
Ġnomin ations
Ġs ent
ris onnement
Ġsoulign ant
c or
Ġcou che
Ġab andonn
Ġh ay
Ġne ur
ins tance
ta in
8 3
Ġmodu le
Ġun iÃ¨me
n s
ĠrÃ© insertion
ĠbÃ©nÃ©f ice
Ġ9 00
u min
o Ã¹
Ġpa tr
Ġass urant
ĠÃ©tudi Ã©
Ġcol lÃ¨ge
Ġsauve tage
ma il
Ġsupp ression
Ġimp acts
ĠdÃ©pos ant
Ġfav orise
Ġchang Ã©
Ġcorrespond ent
Ġp p
7 2
Ġch ance
Ġlo gique
Ġmobil iser
Ġ9 6
Ġco ali
Ġo rateurs
ĠlÃ©g Ã¨rement
ĠtÃ©mo in
Ġatte intes
Ġindemn itÃ©
g y
Ġmas sive
Ġterritori ale
ver gure
Ã©li miner
ĠrÃ© els
Ġh omme
Ġautoma tiquement
Ġimp arti
ĠdÃ©lib Ã©rations
Ġenseign ements
Ġsou ci
Ġces se
att end
ĠxÃ©n ophob
8 9
o bil
Ġsur monter
Ġcon tes
ĠthÃ©rap eu
Ġsensi ble
Ġph rase
Ġis o
Ġbas Ã©e
7 4
Ġdisp arition
Ġsitu Ã©es
and on
Ġexp ortateurs
ite urs
ĠvÃ©g Ã©t
Ġvacc in
Ġimp lique
ĠcomplÃ©ment aire
Ġvari Ã©tÃ©
ĠÅĵu vres
Ġnorm al
Ġrig h
am s
Ġstu pÃ©
Ġver t
Ġken ya
Ġk h
Ġg el
Ġsynd icats
Ġindiqu Ã©s
Ġc la
Ġcuis ine
ĠdÃ© tÃ©ri
av iation
Ġad mis
Ġec onom
o ise
j out
Ġtab ag
ĠprÃ©s ervation
Ġf ur
a o
Ġvou loir
Ġslova quie
Ġarri ve
Ġoblig atoires
Ġcer tes
ite d
b ur
Ġmanu fact
Ġsimil aire
accep tation
Ġargu ments
Ġreligie uses
iti es
ais ons
anti Ã¨me
Ġmultila tÃ©raux
Ġfil ms
Ġinscrit es
u a
Ġa lig
ĠforÃª t
s erv
Ã© mo
Ġcontractant es
Ġindividu elles
Ġfac ul
Ġmer cure
Ġfavoris ant
Ġdes ign
Ã©d ouard
ac k
Ġann onc
Ġf asse
Ġsou met
Ġ8 9
Ġsensi bles
Ġfond Ã©s
Ġd ig
Ġfonction ne
om en
Ġminim ale
ĠprÃ©cÃ©d ents
Ġsp orts
eng age
s r
att ente
e v
tÃ©nÃ©g ro
Ġconcep ts
Ġclau se
gi Ã¨ne
Ġorgan iques
Ã© missions
Ġfr ont
Ġd ons
Ġbiotechn ologie
Ġenvironnement al
Ġinter mÃ©diaire
Ġb ell
ĠÃ© met
exp ert
Ġwas hington
ĠÃ©c ologiques
Ġsuff it
e f
eur o
Ġcontemp ora
Ġapprouv Ã©e
Ġvic toria
Ġb or
Ġcontribu able
Ġresta uration
Ġsign er
Ġra ff
Ġconf ront
ĠmÃ©di ation
i tion
Ġjourn aux
Ġbro ch
Ġ% ).
Ġdo tÃ©s
Ġadress Ã©es
ĠsystÃ© ma
Ġexp rimer
Ġstim uler
ĠbÃ©nÃ©fici Ã©
Ġcl os
Ġconc entrer
Ġmar tin
Ġpri me
Ġmes sieurs
ĠÃ© dition
as fc
ig e
cu laire
Ġm eu
inc lusion
Ġdeven ue
Ġin tention
s ci
ch Ã©es
ĠprÃ© co
h ou
val iditÃ©
Ġven du
m ala
Ġ7 1
iv oire
Ġ9 3
Ġ7 4
Ġth is
Ġrep orter
Ġc ens
Ġw al
Ã©chantill on
eric an
reu ve
Ġ[ ...
Ġplur i
Ġsouples se
Ġadap tÃ©s
Ġtransp orteurs
Ġir lande
ĠdÃ©lÃ© guÃ©s
. ),
Ġren fer
Ġvi ande
Ġun is
Ġax Ã©s
Ġtransfr on
ĠÃ§ a
Ġmo rale
Ġanalys er
Ġcons istant
Ġemploy eur
ad mission
Ġbiodi vers
Ġprop ag
Ġvac ances
Ġtu ber
Ġferme ture
Ġfonctionn er
ĠrÃ©f Ã©r
Ġapparti ent
Ġbur undi
Ġreje tÃ©
Ġrestric tion
Ġac cueill
Ġtabag isme
ic s
ul ar
Ġca f
Ġabsolu ment
Ġcour ants
Ġin Ã©g
do cu
ĠrÃ©f lÃ©ch
n d
Ġ8 1
end a
olog ues
Ġau triche
Ġsymp t
Ġf en
Ġra ce
Ġins crire
Ġa igu
ĠrÃ©sul te
Ġ1 10
b us
Ġletton ie
ĠdÃ©gra d
Ġexemp laire
Ġt es
ĠthaÃ¯ lande
infra ction
ĠrÃ©un ir
Ġatta ques
Ġ8 3
ĠfÃ©lic iter
Ġin tra
Ġprogres sivement
Ġw illi
Ġress ource
gu a
Ġpla ign
Ġsec ret
to ral
Ġrefus er
Ġtouch Ã©es
Ġoccident ale
Ġexamin Ã©e
Ã¯ n
a tre
Ġco eur
ra bles
ĠpÃ©n ales
Ġposs Ã¨dent
ĠexcÃ©d ent
Ġk az
Ġcor rÃ©
o h
pro vin
ĠpÃ©r ou
ur al
Ġass urance
ĠvulnÃ©ra bilitÃ©
Ġr oms
Ġfisc aux
atte inte
Ġ8 6
Ġconc lus
Ġmicha el
ins tauration
Ġinform atiques
en vis
Ġper ception
Ġpos ent
ĠimmÃ©di ate
Ġpan ne
ter rit
Ġpra tiquement
ic itÃ©
Ġfamili al
ĠhaÃ¯ ti
cin qu
Ġpa irs
Ġintergouvernement al
Ġcaus Ã©
u mb
Ġle Ã§ons
Ġc iter
ĠrÃ© adaptation
Ġp esti
ĠprospÃ© ritÃ©
Ġoff ertes
ĠlÃ©gisla tifs
Ġpron oncer
Ġengag Ã©e
h ab
ĠfrÃ© quemment
Ġfra ude
obs ervateur
Ġob tenues
Ġsp ir
con seil
ent end
Ġinstitu tionnel
Ġrecommand er
Ġmen u
Ġautoris Ã©es
inform er
ĠthÃ©Ã¢ tre
ĠÃ© lus
i opie
Ġ9 2
Ġlibre ment
ĠmÃ©dic ales
Ã©tique tage
ver se
ĠprÃ© lev
ĠprotÃ©g Ã©es
Ġsou ter
Ġmol Ã©cu
00 7
initia tives
Ġcou tu
Ġd os
Ġmag istra
ap our
Ġph il
Ġdiver sification
ĠintÃ©ri eures
Ġpro lifÃ©ration
Ġmen Ã©s
Ġfacil itÃ©
Ġf nuap
Ġlim itation
% )
ĠnÃ©g atifs
Ġpeu x
f as
ĠministÃ©ri els
Ġkil omÃ¨tres
ĠdÃ©p utÃ©
Ġcommun ique
dÃ© ter
Ġadditionn els
. Â»
ĠpÃ©n it
outil s
Ġsav ons
cur itÃ©
Ġinno va
ter s
inter nation
Ġimp rÃ©
six iÃ¨me
Ġdo ter
ĠnÃ©cess ite
Ġcess ation
l it
Ġconsulta tifs
Ġsou mission
Ġcomprom et
ac tiv
ĠrÃ©per toire
d g
import ants
Ġpubli er
Ġindiqu Ã©e
Ġm Ã¨ne
ic on
Ġcalcul er
Ġh el
Ġsta bilisation
ak h
ĠmÃ©thod ologie
Ġjo indre
h abil
Ġpla cÃ©
Ġrend ent
Ġgar Ã§ons
Ġlib res
Ġapprouv e
Ġrenfor cÃ©
Ġlo t
ĠamÃ©lior Ã©
Ġax Ã©es
Ġa i
Ġatti rer
la desh
Ġquanti ta
Ġpour rez
en ch
b urg
ate mala
ĠsuggÃ© rÃ©
Ġhos pital
Ġarbit ra
Ġpa th
ĠdÃ©sign Ã©e
Ġtra duit
Ġ198 2
Ġdipl Ã´me
ĠstupÃ© fiants
Ġsti pule
Ġiss ues
Ġchauff age
Ġnet tement
Ġprocu rer
Ġouver ts
op s
Ġnetto yage
ĠdÃ©f icience
Ã©s ira
di um
Ġfestiv al
acc us
eff orts
l ise
Ġm iss
Ġexprim Ã©es
Ġentrepr endre
Ġcombus tible
Ġhau tement
off res
Ġvi et
Ġouv rir
199 5
Ġreligi eux
Ġurba ines
Ġm Ã¢
Ġconn ec
Ġrecueil lies
ĠreÃ§ ue
Ġind Ã©sira
Ġchem ins
Ġas semb
Ġpoursuiv i
Ġbi om
Ġconsac rÃ©es
ĠÃ©ta ge
Ġla it
ex pÃ©
Ġfer ont
Ġfig urer
Ġbour se
Ġpolici ers
Ġd ent
8 6
Ġreconn ue
Ġgraph ique
accessi bilitÃ©
Ġg ab
Ġac cueille
Ġvar ie
Ġdes c
v Ã©n
Ġoffici ers
Ġlib ellÃ©
Ġcon tenues
enc y
8 4
Ġprin ce
Ġappr endre
Ġsyn th
b el
Ġocca sionn
st an
ĠpÃ©d ago
o si
Ġb lÃ©
Ġja mes
Ġconc rÃ©
Ġex ception
Ġrec r
Ġexig ent
ines s
Ġcons tant
Ġm it
Ġvo la
Ġsaur ait
Ġhabit ats
Ġsauv ages
Ġre voir
Ġharc Ã¨lement
Ġcol labor
Ã© parg
-------- --------
Ġind ication
au tÃ©
Ġgross esse
Ġ Ð
iz e
Ġab us
Ġgagn er
Ġesp Ã¨re
lement s
Ġconna issent
Ġtra dition
ĠsÃ© di
Ġconstitu tionnelle
Ġgrand ement
Ġprair ies
Ġinter c
Ġd ic
a pec
cinqu iÃ¨me
esp oir
Ġlab rador
Ġmad rid
in no
Ġincid ents
Ġintro duit
Ġquotidi enne
ĠprÃ©vo yant
Ġimp Ã´ts
Ġratif iÃ©
Ġcompens ation
Ġexcell ent
ĠdÃ©cent ral
Ġbanc aire
Ġmunicip alitÃ©
ier t
Ġav er
Ġcoun cil
Ġfar deau
ĠcontrÃ´le ur
ille ts
Ġdar four
is on
Ġgaz a
empÃª cher
ĠdÃ©c len
tis h
Ġrap ides
Ġcons Ã©cu
Ġviv ement
v Ã©es
ur Ã©es
Ġib id
Ġcons tamment
cer titude
isse z
Ġmunicip al
ĠextÃ©ri eurs
Ġclu b
Ġimp rimer
obil es
Ġsa ou
ĠÃ©vent uels
ĠÃ©lec teurs
Ġdistrib uer
Ġra dic
ĠbibliothÃ¨ ques
n elles
util itÃ©
da mes
ĠdÃ©pass er
Ġma t
ĠÃ©vent uelle
Ġgaranti t
Ġprovis oires
Ġmu tuelle
Ġ[... ]
ĠÃ©man ant
accomp agn
Ġra res
al phab
Ġexig er
Ġdevi ennent
Ġcap ables
ĠprÃ©para tifs
col ombie
sig nÃ©
Ġcop ies
ĠsystÃ©ma tiquement
Ġqualif ications
k g
Ġsupp ose
ĠÃ©lec triques
ĠdiffÃ©r ent
Ġabord er
Ġmuni tions
ist ants
Ġaccess oires
ti o
an tis
Ġsubs Ã©qu
ĠlÃ©giti me
Ġcol le
Ġpass ation
Ġcomp ta
Ġ198 4
mo i
accord s
Ġcig are
Ġcaract Ã¨res
Ġs ri
inf lation
Ġrencont rer
o rer
ĠaÃ® nÃ©s
Ġconc rets
is ions
m l
Ġmes dames
uel a
Ġport es
Ġcas e
Ġb la
Ġnorm alisation
Ġpr iÃ¨re
Ġris quent
Ġg as
Ġpu its
re y
Ġsit ue
Ġ9 1
Ġfi ables
Â §
int olÃ©rance
avoc at
ol vabilitÃ©
oxy de
ĠmÃ©morandu m
Ġma ins
ĠcompÃ© tent
in ten
ĠÃ©quip ement
Ġ7 9
Ġg rie
Ġappara Ã®t
in qui
p lus
b ro
Ġgra vitÃ©
Ġt ol
Ġindividu elle
Ġattribu able
ĠcÃ©rÃ©mon ie
Ġcitoy en
Ġvoit ure
Ġconsoli der
op tion
Ġrejet s
Ġnig Ã©ria
Ġexcep tions
l ing
Ġsing apour
a ises
indemn itÃ©
Ġs tre
Ġcon ju
20 10
Ġdi eu
Ġch ir
loc ations
Ġbiodivers itÃ©
Ġfa x
Ġconf ron
Ġtouch ent
Ġretrouv e
Ġrencont res
ĠÃ©nergÃ© tiques
Ġcan al
Ġmul tic
Ġann on
ĠspÃ©cialis te
ĠultÃ©rieure ment
Ġad jo
Ġaven ue
Ġmal aisie
Ġrespec te
i el
Ġmus ic
ver bal
Ġaid Ã©
pro jet
me d
Ġcoali tion
alli ance
Ġdiploma tique
b ul
ss es
Ġproduc teur
Ġg end
Ġaid era
Ġliti ge
ter ie
emb allage
Ġsa ine
Ã ¸
ĠexÃ©cu ter
z z
Ġconver sion
Ġb ern
Ġagro alimentaire
Ġr ica
Ġp et
Ġconcern Ã©e
ĠdÃ©cenn ies
Ġsa inte
Ġlond res
Ġp ure
Ġaccueil li
aur ait
Ġquotidi en
8 2
Ġparfait ement
ver sion
Ġpla cÃ©s
Ġ8 2
Ġfer mement
Ġin hum
Ġdess in
ĠdÃ©velopp Ã©
Ġass ister
ĠpÃªche urs
ĠrÃ©c ent
in ventaire
Ġgratu itement
Ġf eux
Ġcon nex
Ġcontac ter
Ġh oc
Ġin grÃ©
Ġd ors
mi ers
ide mment
Ġbanc aires
ĠingrÃ© di
emp risonnement
Ġver tic
Ġret omb
Ġplan Ã¨te
Ġen rich
ĠamÃ©rica ines
in i
Ġappare il
Ġtraditionn elle
Ġpn ue
Ġincor po
ĠdÃ©termin Ã©es
Ġin n
Ġge orge
Ġf usion
Ġtempora ires
Ġsalari Ã©s
Ġen seignement
Ġapprouv Ã©es
Ġsch ool
ĠbÃ©nÃ©fic ie
Ġvers Ã©s
ĠÃ© prouv
Ã©ra r
am end
Ġspir it
Ġch oc
Ġappel Ã©e
Ġconstitu Ã©e
ĠdÃ©termin Ã©s
Ġgu atemala
Ġacqu ise
Ġrev ient
Ġre l
Ġexer ce
mÃ©di aires
ĠrÃ©clam ation
ĠÃ©chantill on
Ġmol do
oris er
ĠÃ©c arts
ĠÃ© dif
Ġsex uelles
occup er
Ġen quÃª
ĠÃ© labo
Ġent am
Ġsex uels
Ġfond ant
Ġb omb
Ġky oto
Ã©qu ival
aut ant
Ġt om
Ġpla ge
Ġabou ti
ĠÂ ±
Ġm Ã¨
Ġl and
cu itÃ©
ĠprÃ©f Ã©rence
Ġs el
Ġla ur
Ġinsu laires
a trice
Ġc ant
ach Ã¨vement
v ing
al o
Ġdo tÃ©
Ġposi tives
ari enne
Ġin jus
c as
Ġouver ture
Ġc fp
Ġdur abilitÃ©
Ġg es
Ġspati ale
Ġex cessi
Ġsur pr
Ġrecyc lage
Ġclas siques
ĠreprÃ©sent Ã©
Ġ% ),
ins olvabilitÃ©
exp rimer
Ġpar le
Ġinc en
iss ants
Ġcour se
ann es
Ġprom ul
Ġpertin ent
ch au
Ġjourn alistes
ĠprÃ© vision
Ġf oss
ĠdÃ©sign er
ĠaÃ©ri ennes
Ġl Ã©s
n ant
p ire
Ġpay Ã©s
Ġnum Ã©riques
Ġbang ladesh
to rat
Ġpos ts
Ġcol umb
Ġcomm ises
Ġbas Ã©
Ġab u
Ġdemand ent
Ġchar bon
Ġcommuni quÃ©es
Ġprob lÃ©
Ġcomm on
Ġpalestin ienne
ĠdÃ©termin e
Ġorigin al
Ġon u
ĠdÃ© duction
Ġvari able
Ġb illets
Ġw ork
nouv elle
Ġaffec tÃ©
ass ent
ca pit
Ġpesti cides
Ġle vÃ©e
Ġfix Ã©e
f aire
Ġco effic
Ġmal te
Ġadditionn el
Ġentre vues
ent ra
or di
Ġh eur
Ġajou te
omm age
ou l
ĠÂ ©
Ġexig ence
a cier
Ġp ul
Ġinscr ite
Ġyougosla ve
Ġexcell ence
ĠnÃ©goci er
ĠprÃ©al ables
Ġrespec tent
ĠrequÃ©r ante
ĠÂ» )
p age
hy giÃ¨ne
Ġdiscip line
Ġbienven ue
Ġpharmaceu tiques
Ġsy ner
Ġsouhait er
Ġimmobil iers
Ġabs ol
Ġira q
lÃ¨ tes
amb ie
ro p
Ġremar que
Ġacc ro
Ġlong ues
Ġet at
or y
Ġconn ue
Ġci b
Ġesti ment
Ġexp ressions
ĠsÃ©pa ration
Ġpa t
Ġra m
Ġinfec tie
ul Ã©s
Ġpres cr
Â Ń
ĠÃ©to iles
Ġrecher cher
ĠsÃ©n Ã©gal
ĠhÃ´ te
Ġinform Ã©s
Ġdeme urer
Ġaff irm
Ġscol aritÃ©
on ction
Ġfort es
Ġoff res
Ġpa re
employ Ã©s
Ġcomme t
Ġsauve garde
erv ise
app ort
u laire
ĠspÃ©cialis Ã©e
cu laires
orig inal
Ġsatisf a
Ġcaus Ã©s
ann Ã©es
ĠÃ©v idemment
inc lure
Ã© tendue
dis ciplin
Ġplanif ier
th er
Ġh onora
Ġcomp orter
ma j
ĠprÃª te
c omme
Ġrefus Ã©
u ffis
Ġsep tiÃ¨me
is o
a imer
vie w
Ġoccup Ã©s
ul Ã©e
ĠdÃ©taill Ã©s
au triche
Ġcent aines
Ġpros titution
dire c
Ã ¥
Ġl ig
Ġnomm Ã©s
Ġqu itter
Ġra cc
Ġv Ã©tÃ©
Ġcompos ants
Ġtra duire
Ġdou ce
hÃ´ pital
ise mb
Ġdens itÃ©
al location
Ġs pa
Ġprof ils
Ã©val u
Ġavan cer
Ġun ila
ri g
it age
ĠcohÃ©r ente
ĠvÃ©rif icateur
Ġanti cip
a cide
Ġtan z
lÃ¨ ve
Ġresp ira
Ë Ĩ
rou ge
Ã© lo
Ġpro viennent
cu le
Ġm s
Ġautom obile
onn Ã©
Ġpror o
Ġcandid ates
Ġautoma tique
Ġconsac rer
Ġpromo teur
ers on
Ġconsul tants
Ġat tra
Ġed monton
Ġlib Ã©ria
Ġoct ro
Ġimp oser
Ġess ai
Ġpl omb
Ġmag az
Ġso le
Ġph osph
iss antes
atmosph Ã¨re
ise z
Ġengag er
min es
Ġlois irs
ti enne
Ġcontract ante
Ġcomp il
pos age
Ġrepr endre
h ib
Ġcalcul Ã©
Ġp eau
Ġexpos Ã©es
Ġp isc
Ġvisi bles
ĠxÃ©nophob ie
Ġme dic
ul Ã©es
Ġfix ation
ĠprÃ©li minaires
Ġminim ales
Ġb c
Ġcour onne
Ġsup ervise
Ġs ir
ager ie
ĠrÃ© agir
ĠcaractÃ© r
cri mination
Ġrigh ts
Ġgaz ette
Ġre tenues
Ġvoil Ãł
Ġappliqu Ã©s
Ġuk raine
Ġdem ain
az ote
ĠdÃ©t ente
ĠrÃ©cupÃ© ration
u guay
Ġti rÃ©es
commiss aire
ĠdÃ©c rits
Ġencourage ant
Ġsubs istance
Ġinform el
Ġtuber cul
Ġprofond Ã©ment
Ġvenez uela
Ġcon tenir
Ġmobil es
Ġw omen
Ġphoto graph
end ance
la urent
cie use
v u
ti me
al ler
Ġmoldo va
ĠrÃ©tabl ir
si ble
ĠprÃ©jud ici
b at
Ġtrou pes
Ġterres tre
Ġkaz akh
Ġcircons cription
Ġph ases
Ġun ited
Ġrap atri
Ġmin i
Ġmus ul
Ġparti ellement
âĢĿ ,
Ġpl ant
Ġexp l
Ġt ables
Ġopp osition
Ġcouver ts
Ġw ood
Ġse mi
Ġre cueill
Ġ197 0
Ġmatern itÃ©
avant ages
ĠpÃ©nit enti
Ġc itÃ©
Ġcam er
c omp
Ġvo lets
Ġindividu el
anci enne
ĠdÃ©fini tif
ri f
Ġvra isemb
Ġag gra
an mar
Ġgla ce
sb ourg
Ġsau mon
ad or
Ġrou tiÃ¨re
Ġfi bres
ĠdÃ©m ons
ob i
Ġdou ze
Ġperman entes
tu ellement
Ġess ay
ĠcoopÃ©ra tives
Ġinterpr Ã©tÃ©
aimer ais
Ġcorri ger
Ġqualif iÃ©
ter a
er ation
tri e
Ġp ma
s er
ec ond
Ġvi de
Ġp un
prÃ©s ent
ĠrÃ©sol u
Ġavanc Ã©es
Ġassur Ã©e
Ġbri tish
Ġar mÃ©
d ate
Ġplace ments
Ġin jec
Ġdirig Ã©
Ġvas tes
Ġsoulev Ã©es
Ġcomp ose
Ġdisc rÃ©
Ġbo issons
Ġcy cles
Ġaqu atiques
ĠthÃ© matiques
Ġmanifes te
Ġex positions
h al
Ġprogres sive
Ġtrans action
lab rador
Ġaut orise
Ġcollec tives
effec tif
Ġvi able
Ġinter prÃ©
Ġass istÃ©
Ġre b
Ġus Ã©es
Ġti rÃ©
Ġencourag Ã©
Ġiden tiques
Ġgr en
envis ager
Ġterra ins
Ġpluri ann
Ġmentionn er
Ġre venir
Ġobserv ation
Ġcour ante
Ġavoc at
Ġaudio vis
inter ven
b ol
Ġprodu ites
ĠlÃ©gis lations
de f
Ġfi abilitÃ©
ĠvÃ©r itablement
Ġcomm Ã©mo
ĠdÃ©c lin
ri ers
Ġord res
Ġposts econd
Ġconn us
ĠlÃ©g ale
Ġcrimin els
Ġcontribuer a
Ġver sions
Ãª tres
Ġsouv en
Ġb ient
Ġtunis ie
Ġper d
ier a
Ġchale ur
Ġcamp s
Ġprob abilitÃ©
Ġir an
Ġgratu it
Ġurba ine
Ġdu es
Ġsub ir
Ġinter mÃ©diaires
Ġac tionn
Ġfix Ã©es
Ã©vÃ©n ement
ind ice
Ġvacc ins
8 1
Ġ ï¿½
Ġmin oritÃ©
ĠsÃ©par Ã©ment
al g
Ġpasse port
Ġdipl Ã´m
Ġme ur
Ġconfirm ation
icon que
ss er
Ġe m
ass er
j ing
Ġid entitÃ©
Ġtraditionn el
Ġretomb Ã©es
Ġacqu Ã©rir
ĠtÃ©lÃ©char ger
i mb
Ġsal v
ĠrÃ©guli er
Ġatt endre
ac cum
Ġdix iÃ¨me
Ã©n oncÃ©
Ġpied s
Ġcaus er
Ġabs or
sec rÃ©
Ġsuper vis
ĠdÃ©p ense
Ġoff erte
ĠnÃ©g lig
an cier
Ġsympt Ã´mes
Ġlan ka
gh t
acc Ã©der
exig ence
Ġbate au
ĠÃ©labor Ã©s
Ġmar quÃ©
inform atique
Ġorigin aires
Ġrur ale
Ġsan itaire
Ã©parg ne
ĠÃ©lar gi
Ġb ritann
tu eux
Ġan c
Ġconven us
ac ulture
entraÃ® nement
Ġillus tr
ĠindÃ©pend amment
Ġinstitu tionnelles
Ġtra ditions
f ort
ĠcÃ©lÃ© b
Ġk ar
Ã©dÃ©ra tion
Ġcli ma
Ġvis a
Ġ198 1
Ġmont er
op t
ol on
ag isse
Ġcru cial
Ġdev is
r p
Ġdirec tions
ir ment
il lage
ĠÃ©c ri
Ġconsul tÃ©
Ġimprim able
Ġm Ã¨res
enti els
z y
i po
Ġcompos Ã©e
Ġcamb od
Ġp y
Ġc Ã©lÃ¨
Ġproc Ã¨de
ĠdÃ©pos Ã©es
Ġc ic
ĠmÃ© tro
Ġpresta taires
Ġin accep
Ġre pÃ©
Ġ10 5
Ġappor tÃ©e
Ġliqu ide
Ġfich e
Ġache vÃ©
Ġtr u
g ard
rais ons
Ġman ip
Ġhy per
Ġfir st
Ġouver tes
Ġemp lacement
Ġval lÃ©e
l c
iss er
us s
ol s
u il
Ġidentif iÃ©s
Ġur l
on ge
Ġprim ordi
ĠlÃ©g al
Ġchois is
Ġn it
Ġju ger
Ġconstitu tionnel
or me
Ġconcer tation
ĠspÃ©cif ications
Ġsal on
Ġtravaille ur
Ġnorm ales
ĠÃ©lecto rales
Ġrenfor cÃ©e
Ġbient Ã´t
Ã¨ tement
inno cuitÃ©
Ġb elle
Ġ ________________________________
Ġassur Ã©s
Ġin forme
Ġcombus tibles
Ġprodu ite
Ġp in
ĠdÃ©pos Ã©s
in ture
Ġdo is
effor cer
Ġpens ons
ĠrÃ©di gÃ©
ĠdÃ©couver te
ĠÃ©crit es
Ġoc cupe
iss age
ĠnÃ© pal
Ġconvi endrait
Ġbr anche
Ġqu iconque
Ġapport Ã©s
ex cÃ©d
ar isation
ĠrÃ©un i
Ġb Ã©n
Ġmach ine
ĠillÃ©g ale
i ennes
Ġarb res
Ġaid ent
Ġpar rain
p f
Ġus ines
Ġde c
Ġcour antes
Ġqual it
Ġmy anmar
Ġass um
ph y
br itÃ©
Ġaccomp lir
Ġval idation
Ġutilise z
Ġsou th
Ġaustra li
Ã©rar ch
Ġmodif iÃ©s
Ġgra vement
ĠrevÃª t
Ġpro v
alphab Ã©
Ġsouhait able
Ġen lev
Ġe qu
Ġtransf Ã©rer
Ġre jo
iss au
Ġattrib uÃ©
Ġru p
Ġcro ix
Ġmultila tÃ©rales
ĠdÃ©fav oris
Ġinc on
Ġlit toral
Ġp onc
Ġty p
ĠattÃ©n uer
Ġprend ra
Ġcess Ã©
Ġquel qu
ann ulation
Ġadap tÃ©
Ġacc Ã©lÃ©rer
Ġmer ci
Ġconjo ints
lant ation
Ġjo int
ĠsÃ© cher
Ġgol fe
s g
ĠcrÃ©di bilitÃ©
Ġcomport ent
Ġbus iness
obs erv
Ġ* *
Ġsm ith
Ġredev ances
Ġsole il
sim il
ori al
Ġcat alogue
Ġhi Ã©rarch
Ã© tal
tin ation
Ġcolumb ia
Ġs inc
Ġfor cÃ©
Ġdiab Ã¨te
Ġpla ces
Ġa cides
Ġins ta
Ã©lÃ¨ ve
Ġdistrib uÃ©
ĠrÃ© capit
Ġind Ã©
estim ation
Ġprog ression
aci a
ĠrÃ©sid us
ess ence
Ġsuc re
k in
Ġpermet tez
ĠdÃ©c rite
ĠnÃ© er
Ġatmosph Ã©rique
ro g
Ġtent er
Ġbulletin s
Ġfacil itation
Ġred ress
Ġolymp iques
Ġh eb
ĠrÃ©affirm ant
Ġcoordonn Ã©e
Ġgu id
ind icateurs
. );
ĠadÃ©qu at
Ġsti p
ins crit
uffis ance
Ġpacif iques
ĠÃ© tendu
ab ri
Ġmin iÃ¨re
ĠdÃ©cou lent
Ġfor est
Ġanti terr
Ġre met
as c
Ġcorrespond ants
Ġkazakh stan
ĠdÃ©c el
Ġrich es
ale m
Ġj ordanie
ica ine
Ġabs ence
la t
ĠintÃ©ri eurs
ne z
Ġhabit at
Ġar r
ad n
Ġsor tir
Ġh ommage
Ġgen eral
Ġrencont rÃ©
Ġenregistr Ã©es
Ġfoy er
w ood
att endre
Ġinfectie uses
Ġpla cer
Ġp Ã©nÃ©
Ġimpliqu ant
Ġconf irme
Ġf ier
Ġproc rÃ©
Ġconstitu ant
esti me
ag r
Ã¯ s
Ġhau tes
arch itecture
Ġmar ines
Ġind icateur
Ġautom obiles
Ġcou leurs
Ġun i
Ġadap tÃ©es
rÃ©d itation
ra ts
Ġis land
ĠÃ©quival ent
Ã©g ypte
. "
acqu Ã©rir
ĠnÃ© fas
Ġre gion
Ġar gentine
envo i
ĠchaÃ® nes
Ġdev rions
ĠtÃ©moign age
part ment
in validitÃ©
Ġsou tenue
Ġten sion
ĠrÃ©c la
enti elles
Ġestim ation
a yer
ress ent
Ġul tra
ri ez
Ġt s
ĠdÃ©ro gation
Ġan ne
ĠsÃ© lec
Ġcou pe
ĠnÃ©g atives
ĠprÃ©val ence
Ġfa o
ĠrÃ©guli ers
maj or
Ġpris onniers
ĠdÃ©rou lement
Ġflu c
Ġdemand ant
Ġreconn ues
Ġper dre
Ġin novation
Ġdistin ct
Ġcro it
Ġmaur ice
Ġcess er
ĠÃ©lecto ral
ul p
Ġsaou dite
Ġtra du
Ã© curitÃ©
Ġins cri
Ġverb ale
Ġra il
Ġam Ã©nag
Ġcaf Ã©
Ġformul Ã©
ĠreflÃ¨ tent
ĠidÃ© al
Ġavanc Ã©e
Ġbei jing
Ġin uit
Ġt ort
Ġconv iction
it ude
ĠprÃ© cieux
fa its
Ġconf usion
Ġamb assade
eur opÃ©
Ġno t
ĠsÃ©cur itaire
ĠminÃ©ra ux
Ġaccord Ã©s
20 1
Ġtri m
Ġno ir
Ġt c
Ġrich e
Ġp el
Ġtanz anie
ac teurs
Ġfais aient
t le
anim itÃ©
Ġoccident al
ĠÃ©larg ir
ar rang
ĠÃ© poque
dom ad
te au
v ois
ar th
Ġop timis
os pÃ©ci
Ġinves tir
c op
Ġmanifest ation
Ġbritann iques
Ġa y
Ġl ance
Ġtubercul ose
Ġpro ches
Ġeffectu e
Ġf oun
en seign
Ġvar ient
Ġfig ur
a vez
aÃ¯ que
gr oupe
Ġra d
Ġdistinc ts
s or
Ġsalu britÃ©
Ġobs erve
Ġarri Ã¨re
c el
Ġcollec tions
Ġappr is
ĠpÃ©n ur
ie use
ĠcrÃ© ant
ir i
r Ã£
Ġsous crit
Ġratif ier
u ad
Ġconta mination
Ġ$ ,
Ġfacul tÃ©
ĠrÃ©v Ã¨le
Ġappara Ã®tre
' Â«
Ġtoxic itÃ©
ĠdÃ©par tements
as h
Ġexer Ã§ant
Ġmaxim al
ali ments
ĠparallÃ¨ le
Ġjurid ictions
ologi es
ici en
Ġf urent
Ġchapit res
] ,
Ġ0 9
Ġaux ili
ĠrÃ©g ie
ens es
Ġcrimin el
Ġtarif aires
e p
ĠopÃ© rateurs
dÃ©ter mination
aie a
Ġinspec tions
} \
Ġchev au
Ġad hÃ©sion
ici de
Ġbas se
Ġmar qu
mo d
y au
ĠdÃ©cisionn el
ĠprÃ©co ce
Ġcouver t
l issement
Ġrestre int
Ġsign ification
Ġinh Ã©r
Ġdiscip lin
esp Ã¨ces
Ġcomple ts
sec tion
Ġenregistr Ã©e
ĠvÃ©tÃ© rin
Ġmo ral
Ã© tant
Ġh abil
Ġach eter
ĠprotÃ© ines
Ġ ue
Ġex on
tel le
Å ¡
Ġvoit ures
Ġval able
gi bles
Ġouv rages
b ure
Ġm Ã£
ĠnÃ©g ative
Ġr s
Ġma y
Ġ198 3
ĠamÃ©lior Ã©e
Ġvil lages
ti mÃ©
ĠdÃ©clar Ã©s
Ġsugg Ã¨re
ĠdÃ©ri vÃ©s
ĠaÃ©ro ports
Ġc erner
b ud
Ġsign aux
ĠnÃ©g atif
Ġsyndic at
di que
Ġmon u
Ġ12 5
Ã©chantill onnage
Ġiniti alement
Ġ$ )
ad resser
Ġal locations
ĠmÃ©tÃ©or ologiques
gu Ã©e
ĠdÃ©termin ant
Ġpass Ã©e
Ġe ducation
igh t
Ġsub di
Ġhum ides
ĠvÃ©r itÃ©
Ġpar lÃ©
Ġmar quÃ©e
Ġto ile
Ġp and
Ġtex tiles
Ġaccep te
Ġsouhaite z
pers onn
Ġremp li
Ã©lev age
Ð ¾
Ġcomp tent
Ġc laires
Ġstructure ls
Ġpor tÃ©es
ĠdÃ©mont re
Ġe v
if Ã¨res
s en
â ĪĴ
ess entiel
oc tobre
Ġconsid Ã¨rent
Ġan alogues
Ġnom mer
Ġsign Ã©e
Ġphy si
Ġconf ort
Ġob tenue
Ġcon gÃ©s
ĠÃ©g alitÃ©
ĠnÃ©g li
Ġminor itaires
Ġence intes
Ġinc onn
a tivitÃ©
Ġmon tag
Ġcollec tif
Ġsex ospÃ©ci
ag ents
Ġm el
Ġform Ã©s
Ġtrouv ant
Ġcompa tible
tic s
Ġmanufact ur
Ġins cription
Ġfi able
Ġtransnation ale
Ġarm Ã©e
Ġh abilitÃ©
ĠrÃ©aff irmÃ©
ex ac
Ġcon viennent
ĠthÃ©or ie
Ġimp ose
ĠrÃ©cip ro
arm ac
Ġfluc tu
Ġgr an
Ġretr ouver
il y
endu m
Ġsyri enne
ĠdÃ©s er
ĠrÃ©v olution
Ġaudi ences
onu di
Ġtent ative
Ġf assent
Ġpar itÃ©
Ġreli Ã©s
Ġver re
Ġreligie use
199 4
Ġinfirm iÃ¨res
Ġsoumis sionn
ĠÃ© tendue
Ġtour istique
Ġre tenu
Ġcompara bles
ce au
ar gentine
Ã©ch Ã©
Ġspec tre
Ġchr ist
Ġo rale
ĠprÃ© cip
ph one
Ġgu Ã¨re
8 00
Ġadditionn elles
Ġrent abilitÃ©
Ġinfec tions
Ġsou ches
tis er
Ġcol oni
Ġcol lo
Ġdirig er
k ina
Ġret ards
inter action
Ġfer m
ĠcÃ´ tiÃ¨re
ĠdÃ©t ourn
g el
Ġmus Ã©es
Ġvis ait
agrÃ© ment
Ġven deur
Ġar tif
Ġintel lig
Ġsusc iter
om as
Ġmac k
Ġra men
Ġtransform er
ĠlÃ©g umes
ĠisraÃ©li ennes
Ġcondam nÃ©
Ġrich ard
Ġcompa rer
v as
Ġindispens ables
Ġins pir
ĠfÃ©min ine
Ġred ou
Ġmul tination
Ġrelev Ã©s
ĠÃ©ch el
ĠrÃ©p utation
Ġcherche ur
ĠdÃ©mo graphique
Ġfa ill
Ġfr uc
a ti
n p
Ġapp endice
cn rc
ot y
Ġdis que
Ġand re
Ġcontinu itÃ©
Ġdu s
i du
ur a
ĠindÃ©pend antes
Ġdemand Ã©e
carb ures
Ġinter actions
Ġqu art
Ġpar k
Ġexplo itants
ĠspÃ©cialis Ã©
ĠdÃ©mar ches
Ġm cc
Ġcum ula
eff ort
Ġamb iti
Ã©rone f
Ġvisi bilitÃ©
in tim
Ġfavoris ent
ind onÃ©sie
Ġconver gence
Ġinclu ent
Ġcontre partie
liqu ant
Ġexp ert
Ġrespec tÃ©
en e
Ġz Ã©ro
Ġacqu it
Ġintergouvernement ale
Ġatt endant
Ġcontamin ants
Ġrepro duc
Ġ- --
Ġprofond es
ment ation
Ġam erican
Ġco tisation
Ġou t
m ond
Ġvers ements
Ġheb domad
Ġsta gi
av ril
Ġhay e
Ġgu ides
Ġconfront Ã©s
al b
la ira
Ġmunicip ales
in certitude
Ġform ations
ĠindÃ©sira bles
Ġs ant
objec tifs
Ġaffec tÃ©es
ĠdÃ© vers
un animitÃ©
Ġsign ale
om o
cap acitÃ©
ĠdÃ©mo graphiques
Ġfinan cÃ©es
ar me
ĠÅĵu v
Ġparlement s
Ġdistinc tes
Ġv ite
Ġp m
Ġeng end
ĠmÃ© tis
l l
Ġdo ha
Ġvers Ã©e
Ġcons enti
Ġpen cher
Ġh igh
minis tÃ©ri
Ġpr ud
Ġhabit ant
iss aient
n om
Ġvacc ination
Ġreconna issent
Ġus agers
ins pec
Ġparc ours
Ġnaturel lement
Ġop tique
Ġaffec tation
Ġindirec tement
Ġsignal Ã©s
us alem
Ġb ir
Ġgh ana
ĠdÃ©liv rÃ©
Ġfais ons
Ġinf anti
ĠinÃ©g alitÃ©s
Ġin vent
fin ancement
Ġregroup ement
dis crimination
Ġappar ent
ra toire
Ġrou tier
og Ã¨nes
Ġfoy ers
h os
Ġurba ins
Ġd j
i rait
Ġcompa tibles
= -
Ġh or
ĠintÃ©gra le
Ġdiscrimin atoire
Ġj Ã©r
ti bilitÃ©
i al
f ace
ĠtempÃ©ra tures
ĠÃ©num Ã©rÃ©s
ie w
o po
Ġgra s
Ġdiver sif
Ġfra ction
Ġarme ments
Ġmar ie
ra te
tÃ© lÃ©
Ġacc Ã©l
ĠdiplÃ´m Ã©s
u alitÃ©
Ġpron oncÃ©
Ġcal i
ter dam
Ġrec on
Ġsupp rim
Ġwh ite
Ġvoulu es
o f
Ġdemand Ã©s
imb ab
Ġchr om
Ġre tenir
Ġw ag
Ã©c ou
Ġcar to
Ġc f
la h
dÃ© veloppement
ĠrÃ©s ide
Ġimp Ã´t
Ġtiss u
b is
d ou
d Ã©s
Ġcommun ity
k m
Ġflexi bilitÃ©
ite z
Ġarri vÃ©e
Ġma th
lic opt
effor ce
Ġb ras
au f
al erte
Ġsubsidi aires
Ġpos Ã©es
Ð °
Ġm orts
Ġall ons
Ã©t endre
Ġten sions
Ġmod Ã©l
ĠministÃ©ri elles
Ġinter diction
Ġav al
en tis
Ġam i
Ġinf o
Ġr os
Ġsalv ador
ĠrÃ©col te
Ġl c
Ġperman ence
Ġformul Ã©e
Ġins taurer
Ġmet tra
Ġces sion
Ġappro xim
Ġconstru it
Ġbar Ã¨me
Ġchron iques
Ġdesqu elles
Ġmanifes tement
ĠÃ©vent uel
Ġo xy
ĠreprÃ©sent Ã©s
Ġsensi bilitÃ©
v r
Ġav ion
Ġt un
entre posage
Ġcombus tion
locu tion
Ġk ing
Ġn ich
Ġclass Ã©s
idÃ© mi
ĠdÃ©b ar
Ñ ģ
ess ais
Ġr n
ĠdÃ©f a
Ġgu y
c onn
Ġf leu
il ier
Ġra tio
Ġlanc Ã©e
Ġobserv Ã©e
ex tension
Ġcit y
Ġaccord Ã©es
laira ge
m t
ch im
Ġpol icy
Ġf mi
Ġfon de
Ġd p
00 1
Ġd re
Ġat titudes
ĠÃ©vent uelles
Ġab ond
Ġcoordonn ateurs
ĠdÃ©cou le
min Ã©e
Ġform ats
extra dition
Ã©g lise
lÃ¨ ne
ac o
Ġconsci ent
ann once
ĠrÃ©glement ations
ab andon
Ġass urent
b our
w ard
ĠrÃ©c rÃ©
ĠrÃ©c omp
Ġorient al
ĠprÃ©c au
Ġinc iter
Ġpas sif
Ġsex uel
Ġpri mes
Ġmain tenance
Ġliqu ides
se ph
Ġe lec
m as
Ġ197 9
Ġde partment
Ġch rÃ©
and er
Ġbar ba
Ġconfig uration
Ġma mm
ica ra
Ġs s
) -
Ġautoris er
Ġg ov
Ġdistinc te
Ġconstitu ait
Ġcontamin Ã©s
Ġimport Ã©s
Ġven ant
inv itation
in itÃ©
ĠdÃ©pend ent
entrepren eur
Ġdiv isions
Ġind ice
Ġesp aces
at ar
ĠrÃ© form
au g
Ġrespec tives
Ġenvironment al
d t
Ġun if
Ġra jus
ĠsÃ©di ments
Ġexac tement
f il
Ġtr ousse
reu ves
Ġen c
fr ance
Ġclau ses
ta ine
me di
ri ra
Ġmon tagne
Ġv aut
val le
Ġchau ss
Ġdonn Ã©s
Ġat tent
Ġind onÃ©sie
oc Ã©
Ġenglob e
ĠrelÃ¨ vement
Ġph armac
in timÃ©
Ġmo z
Ġjo h
ĠcrÃ© anciers
internation al
Ġgra du
Ġf lor
Ġprop ice
ĠlÃ©giti mes
apprÃ© ciation
frica ine
Ġliti ges
ĠarrÃª tÃ©s
Ġidentif iÃ©
ĠadÃ©qu ates
Ġh all
Ġcivil isations
Ð µ
Ġsa h
Ġaccompagn Ã©
Ġmaj eurs
Ġrepr is
Ġ10 1
ĠÃ©duca tif
instal lations
ar mer
ag as
ton e
it ar
tionn aire
ph Ã©n
ras er
Ġmo tion
Ġsatisfais ante
ĠscÃ©n ario
Ġpr ouver
ĠrÃ©serv Ã©
auto dÃ©termination
Ġenvisag Ã©es
Ġcy c
indi quer
Ġchron ique
curr ence
Ġfor ment
Ġz imbab
Ġexp lications
Ġreg ret
Ġim m
ro s
Ġappr ouver
Ġremar ques
Ġretourn er
Ġ use
ĠtÃ©lÃ©phon ique
Ġman uels
ic ier
Ġcor r
Ġden rÃ©es
g re
ĠantÃ©ri eurs
Ġimp ortateurs
c rÃ©
ari os
Ġexer cÃ©
Ġbila tÃ©rales
Ġad di
Ġpos Ã©
Ġf umer
tens tein
ĠsÃ©rie usement
amÃ©rica ine
ĠrÃ©di ger
Ġdesqu els
p lan
__ _
iss Ã©
Ġnet work
Ġd c
Ġfich es
Ġrespec tÃ©es
Ġstra sbourg
Ġun iques
Ġsusp endu
ĠprÃ©sent ement
ĠdÃ©mons tration
explo iter
om pe
Ġprofes sions
ĠexÃ©cu tive
exp lique
ĠlÃ©g ales
hui le
i Ã£
Ġavoir s
Ġprom en
Ġinter ministÃ©ri
Ġorigin ale
Ġpa v
Ġwilli am
eu m
ĠdÃ©c ouv
Ġapp lique
Ġau dit
Ġacc roissement
Ġ- ,
o on
Ġcons ister
or gi
ĠprÃ©c Ã¨de
Ġorig ine
ĠdÃ©clar Ã©e
Ġmarch ande
Ġso y
Ġ197 8
Ġdirec tes
Ġpsych ologique
ĠgÃ©n oci
Ġvo tes
Ġcamer oun
ex pÃ©ri
entrepr endre
Ġbr Ã»
Ġsin on
Ġtra de
Ġescomp tÃ©s
Ġrec ord
Ġenvisag Ã©
ent endre
def ault
f em
Ġv endus
Ġglob ales
Ġsoup Ã§
Ġstim ul
eff icience
Ġinhum ains
Ġxx ie
Ġban k
emb ar
Ġvisite z
ĠjÃ©r usalem
Ġarbit ral
ĠtÃ©mo igne
c ou
Ġath lÃ¨tes
Ġch u
ĠcrÃ© ances
Ġimmeu bles
Ġin cer
g n
ke y
Ġstric tement
lab lement
Ġpays age
Ġ ËĨ
Ġin ond
Ġcomp table
ĠÃ©valu Ã©s
Ġlec teur
Ġno ire
ins cri
Ġinnov ations
Ġrenouvel able
Ġouv re
ma tric
accep ter
Ġappu ient
Ġva pe
Ġquo tas
Ġhoriz on
Ġd or
ĠquÃ© b
Ġs ulf
appu ie
re tte
ĠrÃ©s idu
Ġrapp orteurs
Ġconsci ents
en h
Ġperform ances
Ġb h
Ġsurven us
va is
Ġmodu les
ech tenstein
Ġadap ter
er ence
Ġcolle ge
Ġinsu ff
Ġcons erve
Ġexaminer a
Ġraisonn ablement
Ġcor ro
os oph
Ġf aux
Ġformu les
hÃ© bergement
âĢ ²
y enne
Ġdiscip lines
Ġpropag ation
li Ã¨re
Ġpertur b
app arition
apec a
ĠÃ ¨
ĠÃ©lar gie
Ġgouvernement al
Ġconsci ente
Ġg lu
Ġbul l
Ġdeven us
Ġent er
ĠdÃ©ser tification
oli e
Ġï £
les te
q l
Ġa lex
Ġmentionn Ã©e
w ell
a justement
Ġ13 0
Ġcali bre
Ġn icara
ri ques
Ġmas cul
Ġpal ais
land aise
Ġexplo sifs
Ġfourn ira
Ġent rÃ©
Ġpay e
Ġmention ne
Ġemploy Ã©es
ĠreflÃ© ter
Ġassujet tis
ĠÎ¼ g
or ti
Ġquin ze
ĠrÃ©vis er
Ġsta ges
est ations
hypo thÃ¨se
Ġconcr Ã¨te
Ġs r
Ġch il
Ġk i
Ġvraisemb lablement
Ġyougosla vie
Ġgov ern
ĠphÃ©nom Ã¨nes
Ġm ut
app endice
Ġabsol ue
m iques
Ġa cier
Ġremarqu able
am or
es pÃ©
Ġs ar
Ġp Ã£
et t
m ann
Ġchar gement
prÃ©sid ents
ĠdÃ©grad ants
Ġ14 0
Ġca re
Ġfr uit
Ġexc lus
Ġch ute
Ġm t
Ġun s
Ġg ain
ĠcÃ´ tÃ©s
ĠdÃ©li m
form itÃ©
Ġou g
Ġexp ertise
ir miers
Ġdispar itÃ©s
Ġaccep tables
ĠprotÃ©g Ã©
Ġlead er
Ġsou fre
Ġdiscrimin atoires
ĠintÃ©gra lement
Ġfacil ite
=- =-
ĠprÃ© lÃ¨vement
Ġfais abilitÃ©
Ġdirige ant
u laires
Ġalli ance
Ġt ad
Ġh ond
Ġphil osoph
ci ales
Ġfem elles
semb les
Ġk ong
Ġant h
indi que
Ġavan cÃ©
on al
Ġf is
Ġclarif ier
ĠproblÃ© matique
Ġvou lez
Ġcontinuer ont
Ġne ige
Ġmagas ins
Ġurg ent
Ġf ood
ch lor
Ġd oses
Ġmunicip aux
ou bli
Ġbr un
Ġrenfer me
bud g
Ġste ph
Ġr i
an ol
m it
Ġcolon ies
Ġim ag
c y
Ġam ende
ad rc
ica tives
Ġsal ue
Ġqualif iÃ©e
Ġmich el
* ,
ins uffisance
v ation
Ã©ch app
Ġperfec tionn
ĠprÃ©cÃ©d ant
habil itation
ou er
Ġbru it
Ġfas o
Ġconnex ion
Ġcon d
Ġex ces
Ġfra g
Ġspor tives
Ġra rement
Ġartif ici
Ġclas sique
il ton
ĠtraitÃ© e
Ã©larg ir
Ġfond er
o e
Ġnova trices
Ġc Ã©d
Ġa h
Ġcondam nation
Ġar gent
Ġcigare ttes
dÃ©c ision
a illes
ĠdÃ© tient
ĠthÃ© matique
ĠingrÃ©di ents
ĠdÃ©tÃ©ri oration
chau ff
ĠÃ©th ique
Ġfa im
Ġjard in
Ġf un
ĠdÃ©mar rage
Ġboli vie
Ġappliqu ant
Ġgl oss
ĠdiffÃ©r end
id Ã©mie
Ġray onnement
Ġal location
m ans
ĠdÃ©char ge
ce v
Ġmine ur
Ġl y
or mes
Ġobserv Ã©es
ten tions
Ġcalcul s
Ġcouv rant
Ġs ph
Ġcellu le
Ġsimultan Ã©ment
extra ction
Ġafrica in
Ġcambod ge
en quÃª
Ġag it
exp ulsion
Ġsoix antiÃ¨me
ate d
c os
Ġconc iliation
Ġac cueillir
Ġac tives
Ġrespec tant
ĠÃ©labor Ã©es
Ġan nex
y lÃ¨ne
Ġvit a
inf o
Ġnew s
u p
ĠrÃ©s ervation
bure au
Ġporta il
Ġimpos Ã©e
Ġconcurr ents
Ġt p
Ġna ir
Ġresta urants
Ġgar antis
Ġinstal lÃ©
Ġpatri moni
Ġ3 50
Ġartis tique
h re
Ġw ill
Ġexp rime
ci es
umin ium
Ġs n
Ġrich esse
Ġab ro
Ġn ets
l Ã£
Ġtour istiques
Ġpal ud
Ġdi es
Ġressor tir
ip el
Ġinfanti le
Ġsou tiennent
Ġjapon ais
r Ã¨g
ĠmodÃ©l isation
Ġb et
Ã© tation
Ġredress ement
Ġcontra ign
Ġentre tien
Ġmu tuellement
ĠconÃ§ ue
ra lement
n am
ĠnÃ©fas tes
Ġc lo
on ique
amÃ©rica in
Ġexig Ã©
en ant
Ġli echtenstein
enn ement
Ġlang age
ra y
Ġadap tÃ©e
Ġcommen Ã§ant
Ġsatisfa its
Ġnour r
Ã©p reuve
n era
Ġparti elle
b all
b or
Ġserv ira
Ġmagn if
f m
ĠdÃ©termin ants
ï¿½ ï¿½
Ã©t end
ĠrÃ©un it
ĠboÃ® te
Ġrendu es
Ġadress Ã©
ĠdÃ©sign Ã©es
Ġs g
re d
ĠcollÃ¨g ue
Ġsimplif ier
Ġch ers
Ġg ood
Ġqu an
Ġantiterr oriste
ĠrÃ©p artis
va sion
Ġsub ordonn
Ġoubli er
a jout
Ġannon ces
la y
Ġcin Ã©
Ġs at
ĠdÃ©b u
p in
imp unitÃ©
Ġval ide
s n
ĠinfÃ©ri eurs
Ġpalud isme
ac tives
Ġmain tenu
mi di
su b
Ġinstitu tionnelle
intÃ© ressÃ©
ol Ã©
Ġw ell
Ġr ot
Ġru isse
ĠÃ©li mination
Ġti re
Ġattribu ables
Ġapprofon di
Ġfleu ve
ĠÃ® le
Ġal lait
Ġaugment ations
Ġang le
il lÃ©
Ġobserv Ã©s
Ġs and
Ġlo y
opp ort
Ġesp Ã£
ĠlÃ©gi tim
Ġmultip li
Ġhui tiÃ¨me
ĠdÃ©velopp ements
ĠrÃ©g ulation
az erbaÃ¯djan
du mping
expÃ© dition
Ġzimbab we
Ġordin ateurs
Ġcandidat ures
Ġcent raux
ĠcaractÃ©ris tique
t ou
m g
ĠdÃ©nom ination
Ġa gi
Ġtran che
ore rie
appro pri
Ġfoun dation
d ge
Ġm l
re prÃ©sent
ĠconÃ§ ues
Ġreli Ã©es
Ġmal i
docu ment
exac titude
Ġarch itec
ad Ã©qu
Ġcontribu ant
Ä ĩ
Ġent rÃ©es
Ġtermin ant
Ġte lec
ĠcompÃ©ti tion
appar tenance
Ġins istÃ©
Ġder riÃ¨re
Ġappel Ã©s
Ġba in
ĠdÃ©fense urs
Ġsour is
ĠprÃ©occup Ã©e
Ġsignifica tif
Ġre ine
no te
Ġaccompagn Ã©e
Ġra re
Ġrapport ent
ĠprÃª ter
Ġforesti ers
Ġexcell ente
Ġtrans mises
Ġmeu bles
Ġpar tant
li m
d onnÃ©es
imp oser
acc rÃ©ditation
Ġtrait ant
av er
Ġinf irmiers
ĠdÃ© tenu
Ġenregistre ments
Ġg are
m ier
Ġbless Ã©s
Ġpass Ã©s
ĠgÃ©noci de
Ġrapporte use
Ġlicenci Ã©e
analys er
Ã¨ lent
aut or
Ġgra in
Ġexp lication
Ġfro id
Ġsec ur
ĠtrÃ©s orerie
Ġvi eux
Ġlim itÃ©s
di ques
Ġau teur
Ġven u
Ġth omas
Ġstatu ts
Ġinterc ulture
ĠrÃ©ussi r
ĠâĢ ĺ
Ġs Ã¨
Ġsurv iv
ĠnÃ©cess iter
Ġbur kina
Ġv eux
Ġracc ord
tm l
ĠthÃ©rapeu tiques
ĠvÃ©g Ã©tation
ou ts
Ġc t
Ġk ings
Ġr Ãª
ill us
rid ge
Ġsa in
Ġa cide
Ġch anti
ĠdÃ©lÃ© guÃ©
Ġcorrec tives
ĠÃ©duca tifs
Ġconduc teur
Ġtrib u
s k
Ġnair obi
ĠrÃ©p andu
ĠrÃ©flÃ©ch ir
in capacitÃ©
Ġdu dit
pa ys
Ġrenfor Ã§ant
ĠÃ©g ypte
Ġsta des
Ġchau d
Ġs able
Ġx vi
or tÃ©e
ĠÃ©ner gies
ti tion
ĠcomplÃ¨ tes
Ġte le
Ġexerc ent
Ġvo ient
Ġtermin Ã©e
Ġass is
Ġcher chent
Ġbal k
Ġpropor tionn
ĠdÃ©bou chÃ©s
Ġajus tements
ocÃ© an
Ġmodif iÃ©es
Ġsusmentionn Ã©es
Ġv ocation
ill ants
ĠcorrÃ© lation
Ġgre c
Ġinscri vez
Ġ19 67
Ġp iÃ©
abord er
ĠÃ©n once
Ġsign ataires
Ġcircu laire
Ġexist ante
ch en
Ġatmosph Ã©riques
Ġmo rales
Ġcal me
ĠÃ©labo re
Ġparticip antes
Ġeurope an
imp ose
ĠscÃ©n arios
v ol
Ġâ Ĥ¬
Ġvi ii
b ar
Ġprononc Ã©e
velopp e
ĠsÃ©cher esse
ar gu
en quÃªtes
Ġexclu sive
l ass
Ġcon nexe
imp osent
hol m
est es
Ġ197 7
Ġinspec teurs
Ġren dez
Ġes cadre
Ġno ta
Ġsh e
Ġdomes tique
Ġcon ces
Ġillus tre
ĠprÃ©par Ã©s
Ġm p
Ġt on
secrÃ© taire
Ġat titude
e ci
Ġbo v
Ġr og
d ec
in tens
Ġimp osÃ©
y ougosla
ĠfÃ©lic itÃ©
Ġexhaus tive
antÃ© cÃ©d
ĠcÃ´ tiÃ¨res
Ġorganisation nelle
Ġy e
al ise
ĠdÃ©tec ter
Ġsyste m
h au
Ð ¸
Ġmon Ã©taires
ĠÃ©v olu
duc tions
Ġpisc ine
j onction
id rc
aqu aculture
Ġh tml
Ġhypoth Ã¨ses
Ġh ouse
Ġang lo
ĠdÃ©couver t
Ġconsul tant
z bÃ©
Ã¯ des
abs or
Ġaz erbaÃ¯djan
Ġr od
Ġra ts
zbÃ© kistan
Ġd al
yougosla vie
Ġbri Ã¨vement
Ġpor tait
Ġent rent
Ġdiver g
Ġfor ts
Ġ10 4
Ġju gÃ©e
Ġpass Ã©es
ĠrÃ©tro action
m Ã©d
h Ã©r
Ġv ies
Ġplaign ante
Ġgra ins
Ġtransp orter
Ġwest ern
p le
ĠtroisiÃ¨me ment
ĠrÃ©fÃ©r endum
Ġfor fait
Ġwind ows
Ġvi ables
Ġrequ iert
ĠcÃ¢ ble
Ġh ec
oc arb
Ġven us
Ġcrimin elles
ĠrÃ© unis
Ġinsuff isant
Ġgra ines
Ġimmobil isations
dr ome
Ġber lin
Ġvig oure
au th
Ġadress er
Ġdonn era
op ath
on um
Ġgloss aire
at ures
Ġsupp orts
at ti
Ġk a
Ã©quip age
Ġsyste ms
Ġan tic
as pect
199 2
Ġdemand ons
ĠrÃ©guli Ã¨res
t us
ĠdiffÃ©r enci
k es
Ġeffic ient
Ġt ente
er reur
oun d
Ġstre et
Ġadop tant
Ġposs Ã©der
Ġs chÃ©
Ġlour d
Ġaliment ation
Ġdistric ts
ou issement
inc or
Ġlaiss Ã©
ĠpÃ©ri ph
Ġparta gÃ©e
Ġtransit oire
Ġolymp ique
ĠÃ©quilib rÃ©e
Ġlour ds
ac teur
ĠocÃ© an
el la
Ġat omique
Ġpris ons
im ages
Ġcoup able
Ã©ra l
Ġlig ue
Ġrecueill is
Ġmal ades
ĠsÃ©ri es
ct on
Ġs ig
Ġpor no
r us
intens itÃ©
ad o
Ġprojec t
ĠnÃ©gli ge
Ġdirig Ã©e
acc Ã©lÃ©rer
ĠisraÃ©li en
Ġre tenus
Ġfix es
Ġallem ande
n ations
Ġdil ig
Ġsond ages
en cad
Ġh ill
Ġserv eur
Ã©m at
Ġglob alement
ĠfÃ©lic itons
Ġminim al
ĠstÃ© rÃ©
Ġappro visi
Ġas sig
Ġmoz amb
ĠintÃ©gra l
ĠmÃ©n age
Ġde gr
est ri
Ġcl andes
Ġnicara gua
Ġf raser
Ġcollec tifs
Ġsa vent
Ġaccep tÃ©e
min Ã©s
oc cupe
Ġcontra inte
ograph ique
ras se
Ġgu ider
Ġdistribu teurs
Ġgarantiss ant
Ġprodu ctions
s ans
ali Ã©n
Ġsoup le
Ġau dience
Ġtou cher
Ġim migration
Ġ16 0
Ġsatell ites
Ä į
Ġcapit aine
Ġh aine
** **
Ġcent ra
Ġinqui Ã©tudes
Ġnu ire
Ġsuffis ants
armer ie
Ġconc entre
hab itation
Ġv Ã©cu
ĠdÃ©ploy er
Ġsubs titution
Ġmc g
ĠdÃ©tente urs
Ġdemander esse
og Ã¨ne
Ã¨ ques
res sionn
Ġchar les
Ġref u
indi vidu
Ġfrontal iers
Ã¡Ã¡ Ã¡Ã¡
Ġs un
id Ã©es
Ġoccup ent
Ġle dit
Ġp t
h or
Ġassur ances
Ġquit tÃ©
ĠexÃ©cu tÃ©
Ġtent Ã©
ou gh
Ġacc rÃ©d
je tÃ©
ĠdÃ©gag er
Ġpar cour
ĠcÃ©lÃ¨ bre
Ġr ss
Ġconf Ã¨re
re f
Ġï£ µ
Ġpa ie
ri ght
ĠrÃ©du isant
Ġb Ã©ta
Ġbal ance
im meu
Ġcru els
Ġ10 3
Ġnig er
Ġb ec
199 1
Ġjam aÃ¯que
r h
ĠpÃ©riodi quement
rÃ©gion al
Ġexprim Ã©e
Ġtot aux
ĠimmÃ©di at
ĠdÃ©n omm
ĠrÃ© alitÃ©s
ĠlÃ©g Ã¨re
Ġmon g
Ġindi en
g is
yc lo
ĠcoopÃ©ra tive
Ġcent er
om Ã¨tre
opÃ© ra
Ġfores tiÃ¨re
ĠÃ©val ue
Ġg Ã¨re
Ġde o
ud s
Ġsusmentionn Ã©s
Ġferrovi aires
Ġrassemb ler
Ġanti dumping
b auche
Ġpersonn ellement
Ġsouter ra
Ġgre en
ĠÃ© tal
Ġanaly tique
Ġinf lig
ĠhÃ´tel s
Ġbo ard
v d
o lique
Ġconn ues
ĠÃ©vo quÃ©
Ġtent atives
Ġbata ille
c d
Ġsang u
ill ance
ĠÃ©qu iv
Ġdomes tiques
Ġlarge ur
Ġtranspar ente
exig e
ĠallÃ© gation
s ct
Ġprofes seurs
Ġsa vez
Ġorgan ise
Ġarbitra ire
Ġcomp tant
Ġqual ification
Ġgend armerie
ta ts
antÃ©cÃ©d ents
Ġs ab
Ġinstitu ant
Ġcru ciale
Ġap titudes
appu yant
s ch
Ġl inÃ©
no w
Ġi tin
Ġ20 15
199 3
Ġ( "
Ġinten sif
Ġins iste
Ġexplic itement
y m
Ġr endant
Ġg ib
Ġpoursu ivent
Ġma Ã¯s
extr Ãªme
v ements
Ġexcessi ve
Ġkir gh
Ġpatr ou
ĠcrÃ© Ã©es
Ġliv rer
Ġdiv id
Ġm idi
on a
Ġcar dia
Ġconvain cue
Ġapparti ennent
Ġse gment
ache teur
eur opa
Ġf ri
Ġenvoy Ã©s
ern es
ĠbÃ©n in
Ġu p
Ġinaccep table
Ġind ices
Ġpara s
Ġy Ã©m
Ġsymb ole
Ġres ources
Ġconcurr entiel
ĠrÃ© installation
Ġtechn ology
Ã§ ait
Ġ our
Ġna issances
Ġra t
Ġportu g
Ġl os
Ġvois inage
Ġrectif ications
Ġstra te
Ġ10 8
ĠtÃ©lÃ©phon iques
Ġfac t
ass ure
po p
ur as
dite ur
aut oriser
Ġimmobil ier
Ġsta ge
exp liquer
Ġ197 1
dr en
exemp tion
Ġtra um
Ġ197 5
Ġjou issent
Ġv oc
Ġcontribu ables
Ġla mp
Ġventil ation
enz a
Ġv ais
ora teur
Ġindividu ellement
Ġstock holm
Ġdev ises
Ġexcep tionnel
Ġb le
Ġfonci ers
incor po
Ġneu tra
ler ie
Ġpilo tage
in vention
Ġco ton
Ġvol umes
Ġhora ires
Ġces sez
Ġsus pec
ĠfrÃ©qu ences
Ġimpliqu Ã©s
Ġacc ent
Ġcorrespond antes
Ġ( -
Ġ11 5
Ġtrait ent
Ġprolong ation
Ġprocha ins
Ġbiom asse
Ġpro cur
Ġtrans missi
Ġba il
um s
ĠrequÃ©r ants
Ġvisi ble
o o
Ġr ues
pati te
Ġdiam Ã¨tre
Ġr io
Ġdo tÃ©e
Ġcompr ise
Ġz ambie
Ġre mor
ĠcÃ©rÃ© ales
Ġmen ant
Ġfra gment
us ine
ĠprÃ©pa re
Ġgri ppe
v ants
Ġest onie
h eures
Ġira qui
Ġjo seph
es a
ĠÃ ¡
ĠrÃ©sid ant
Ġinc ont
Ġadministr Ã©
amend ements
en vergure
ĠschÃ© ma
res pect
anim aux
Ġincen dies
ĠprÃ© cur
to x
o tiques
Ġsouff rant
Ġeff or
Ġ10 7
Ġconc ord
emp run
Ġmobil iÃ¨res
ĠnÃ©cess itent
Ġaffich Ã©
est y
Ġg rÃ©
arrang ement
Ġdiam ants
Ġ13 73
ĠsÃ© ro
ĠdÃ©pla cer
Ġh c
lo ient
le vait
Ġfac ture
8 19
ĠÃ©num Ã©rÃ©es
ĠÃ©lec tr
ĠillÃ©g ales
Ġrecr utÃ©s
Ġpr enne
Ġprati ciens
Ġstand ards
Ġdiploma tiques
ĠlÃ©gitim itÃ©
ĠamÃ©lior ant
Ġfum Ã©e
isi tions
ĠmÃ¢ les
Ġanim ale
Ġsuc ces
Ġc ass
Ġdes criptions
ry th
Ġf ora
Ġq atar
av Ã¨re
Ã¡ n
Ġiden tique
ĠrÃ©pu tÃ©
Ġ ________________
Ġappel er
ch r
Ġvari Ã©tÃ©s
Ġchale ure
eff ets
g estion
Ġprojec tions
Ġfol k
n ing
Ġpubli e
Ġprog ressÃ©
Ġquestionn aires
Ġhy dra
av ion
ĠdÃ© tenues
Ġtermin e
Ġco ff
f ig
v an
ĠexÃ©cu tÃ©s
Ġrenfor ce
Ġd ay
Ġbalk ans
ĠÃ©nonc Ã©e
oxy gÃ¨ne
Ġdies el
ĠprÃ©sent era
Ġsenti r
Ġcon tent
Ġlond on
b ac
Ġdegr Ã©s
Ġestim ons
Ġincomb ent
Ġtoxicom anie
gi le
ĠprÃ©cis Ã©s
d Ã©p
Ġcibl Ã©es
Ġattend us
y an
Ġplas tique
ĠrÃ©v Ã¨lent
ou ti
Ã º
d ont
Ġvape ur
Ġmin us
r ances
r omp
ty pe
ordin ateur
ĠÃ©c art
ĠÃ©tudi e
tÃ© l
Ġs to
Ġsouff rent
ĠÃ©qu itables
Ġst ar
10 5
20 11
personn el
Ġarri vÃ©
tis Ã©
Ġmar y
enreg istre
s m
Ġconvainc us
Ġbri g
Ġh ier
Ġsubsidi aire
Ġpla que
actu alitÃ©
Ġenvisag Ã©e
ĠdÃ©v ou
Ġimmeu ble
si er
ĠprotÃ©g Ã©e
po li
Ġconsac re
Ġcompta bil
Ġdoc tr
Ġunifor mes
Ġbla ck
Ġda ta
so ft
Ġattrib utions
Ã©c ran
Ġs ki
Ġreje tÃ©e
accomp lissement
Ġdomin icaine
t ch
Ã©r on
ul aritÃ©
Ġprivil Ã¨ges
Ġrappro chement
Ġal locution
ĠexpÃ© di
Ġred dition
ĠirrÃ© gu
Ġforum s
Ġsupp rimÃ©
Ġ19 60
ĠÃ© ryth
er i
Ġpo wer
ĠmÃ©diterran Ã©
ĠdÃ©c Ã©d
in vestissements
Ġw ar
Ġv ag
ĠprÃ©voy ait
ins on
Ġins truction
Ġvis as
alphabÃ© tisation
Ġclair s
Ġcu ivre
occup ent
Ġpa quet
tra ire
Ġdimin u
Ġpr udence
table au
Ġass ume
ĠrÃ©vis Ã©es
Ġtre mb
Ġproro gation
Ġidentif ication
cie uses
ĠindÃ©pend ance
Ġaffec ter
Ġpermettra ient
a me
Ġen sembles
Ġdi man
Ġfer ait
Ġiniti ales
Ġju g
ĠÃ©p reuves
Ġquin qu
Ġadul te
Ġparti cul
Ġsocio Ã©conomique
Ġprovo quer
gram mes
Ġcollabo re
ĠcrÃ© ativitÃ©
Ġcarb urants
Ġaut onum
Ġexcep tionnelle
Ġti er
2 50
t p
Ġbiling ue
Ġbass ins
Ġcontin gent
Ġdistin guer
ro l
ÃŃ a
pe au
ĠÂ» ;
ti a
Ġgar di
Ġw il
e ce
cc c
ir o
Ġform elle
Ġmozamb ique
ĠreprÃ©sent aient
Ġ18 0
Ġpermet te
Ġcle fs
ĠadÃ©qu ats
Ġen cad
Ġcon cession
ĠbÃ©ta il
Ġterr oriste
ĠpÃ©nur ie
ram me
Ġpan ama
> .
Ġb enz
ins taurer
Ġf us
Ġr ondes
Ġobli gÃ©
sep ac
Ġcorrection nel
Ġcom tÃ©
Ġcommen cent
Ġgouvern eure
Ġexige ant
Ġf lÃ©
Ġpromo teurs
arbit re
ra di
Ġfer mes
Ġfrancoph one
Ġla titude
doc s
ĠrÃ© itÃ©
Ġaccus Ã©s
w in
Ġpay Ã©e
en rich
Ġend omm
Ġneu viÃ¨me
ĠlittÃ©ra ture
oc currence
Ġar chÃ©
Ġp iste
Ġrecru ter
Ġb ill
Ġcy ber
Ġrenvo y
Ġe g
Ġcons orti
iz iÃ¨me
! !
Ġsa f
Ġro tation
Ġ its
Ġfac ulta
Ġexplo rer
Ġa ire
Ġman qu
don ald
Ġchil dren
Ġ antÃ©cÃ©dents
Ġentour ant
Ġe li
Ġas c
Ġf Ãªte
Ġd Ã®
Ġstagi aires
ĠprÃ© avis
Ġas pi
Ġno ci
Ġins pection
ĠÃ©valu Ã©es
Ġjuridi quement
Ġrev it
Ġmicro bi
Ġ ).
r q
Ġe ce
Ġ197 6
til les
Ġrou tiers
Ġintro duire
Ġutilis ateur
Ġpe op
Ġin ex
Ġtransfron tiÃ¨res
Ġexp ression
Ã©ch ec
min g
) ).
Ġv ec
appare ils
Ġf und
Ġle ver
Ġsusc itÃ©
it z
Ġparta gÃ©s
a ille
Ġpla id
Ġsimplif ication
Ġadministra teur
Ġprocu reurs
s ol
Ġpand Ã©mie
Ġattribu Ã©s
Ġimp lications
itte e
Ġbar riÃ¨res
Ġapport ent
Ġsy l
Ġclass Ã©
Ġadjo inte
Ġsoulev Ã©
end es
Ġcompromet tre
Ġpotenti ellement
r en
ĠÃ©tudi ant
a tisation
inf rastructures
< /
im mobil
ĠdÃ©l its
ĠmÃ©diterran Ã©e
Ġincl uses
Ġgreff ier
ĠgÃ© rÃ©
Ġm orte
ress ource
Ġrecru tÃ©
Ġdiscu tÃ©
ĠprÃ©f Ã©rable
ass in
Ġremp lies
p as
Ġconvention nels
Ġbu ff
s ous
ul l
ob e
ĠtÃ© lÃ©s
Ġl ende
op ol
dom in
Ġt ap
Ġc ari
Ã©c lairage
Ġ10 6
ĠisraÃ©li ens
Ġmon tÃ©nÃ©gro
Ġaut or
Ġpor tion
qu iÃ©
Ġlib ra
amb ule
v us
Ġpos tÃ©ri
Ġmig rateurs
ch ements
Ġtu telle
Ġalg Ã©rie
ad r
exÃ©cu ter
Ġsuiv ies
alg Ã©rie
ru p
) /
n esty
Ġin Ã©v
Ġfores tiÃ¨res
Ġme dia
Ġdemand Ã©es
" )
Ġn as
Ġpn eu
ĠgÃ©n Ã©
atta que
Ġtad ji
ĠmÃ©can ique
Ġclass Ã©es
Ġra v
Ġ12 3
Ġreg rette
Ġing Ã©nie
Ġpay able
Ġparta gent
Ġlieu tenant
ĠÃ©chel ons
l ers
Ġexp ul
Ġsc rs
par c
si as
Ġus ine
qu in
Ġgu Ã©r
ĠpossÃ©d ant
er gy
sec tori
n ers
Ġreg ina
Ġcellu laire
Ġl ind
Ġprom et
ĠprÃ© ju
Ġcrimin elle
Ġju gÃ©s
Ġhabit udes
Ġanci ennes
Ġauth or
Ġsusp ens
Ġnam ib
ĠrÃ©pu tÃ©e
b ou
lu ents
ĠÃ©labor Ã©e
f ra
entra ide
Ġcompa tibilitÃ©
Ġprot Ã¨ge
Ġcou ches
ĠsÃ© journ
Ġcar ol
Ġminor itaire
i at
Ġs Ã£
ĠbÃ¢ tir
ving t
til itÃ©
Ġpropos ent
Ġimp ressionn
Ġattent ats
ari a
qu ien
Ġadress es
Ġpoursuiv ra
Ġe p
Ġin ventaire
Ġexplo itations
Ġmontag nes
Ġter rasse
ĠÃ© puis
Ġordonn ances
ab ond
ĠÃ©lec tro
wa ter
Ġexprim Ã©s
ĠprÃ©c isant
Ġconf Ã©dÃ©ration
Ġpanne aux
op tique
ĠbÃ©nÃ©fici ant
Ġrevend ication
Ġcompren ait
Ġwag ons
ï Ŀ
Ġmotiv ation
ĠdÃ©mo bilisation
Ġi x
ĠagrÃ© able
tra ge
Ġtranspar ent
Ġemb au
tue use
Ġde b
Ġdoc torat
Ġforesti er
ch ang
Ġsouha itÃ©
ĠprÃ© p
Ġpara Ã®t
Ġq c
Ġtouch Ã©
Ã´ ne
il la
Ġob tient
all y
un itÃ©s
Ġcomp tait
k en
Ġ20 20
Ġhond uras
Ġon ziÃ¨me
Ġann uellement
Ġsectori elles
Ġfaill ite
Ġmand ataire
g are
j onc
Ġlende main
ĠdÃ©f ende
Ġcan aux
Ġcompos ant
Ġira quien
Ġartis tiques
Ġflo tte
ĠfÃ©lic itant
Ġint Ã¨g
Ġs cc
Ġaccompagn Ã©s
Ġremerci ements
di ve
Ġsurf aces
âĢĿ .
ĠcollÃ¨g es
Ġvar ier
ro id
e use
Ġab rÃ©
Ġpersonn alitÃ©s
Ġch y
Ġaid ant
n Ã£
Ġrac ines
Ġmulti mÃ©di
Ġrev ues
un ie
p ad
b b
Ġsta tes
Ġsauve gard
er ies
Ġcor p
Ġimp ortÃ©es
ign er
Ġblan che
enz ie
Ġpasse ports
Ġclar tÃ©
r ine
Ġsupp lÃ©
Ġg is
ĠdÃ©pass Ã©
Ġvis u
Ġd un
no tamment
Ġdisp osÃ©
ĠbÃ©nÃ©vo le
Ġas simil
Ġla iti
ap titude
s al
ĠrÃ© chauff
Ġbar c
Ġmo ments
Ġexp ansion
Ġ20 11
accessi ble
Ġsucc urs
Ġh en
ĠmÃ©ta bol
Ġper mission
intro duire
Ġp eur
Ġestima tif
Ġrejo indre
v ic
Ġmaj eures
Ġer ron
Ġrespec tÃ©s
ac cident
ĠlÃ©g alement
Ġpar ts
Ġamb i
Ġadh Ã©rer
Ġpol on
lo tte
Ġjustif ie
Ġdynam iques
ĠdÃ©b iteur
es tÃ©
Ġpr Ã©n
ĠÃ©ch app
p d
Ġse mestre
o iseaux
ĠmÃ© tiers
inc en
tex te
Ã©gi de
Ġpass ent
ĠrÃ©cep teur
Ġport Ã©s
Ġdimin ue
ress ources
Ġimpos able
ĠÃ©t endre
Ġbroch ure
ili ers
Ġrou lant
Ġl its
w est
Ġlim itations
b issau
l on
Ġrencont rÃ©s
Ġk u
Ġl tc
Ġmobil ier
w h
Ġes cad
adi e
omm un
Ġcompara ble
Ġcalcul Ã©e
Å ¾
Ġaider ont
Ġpersonn alitÃ©
ci Ã³n
Ġli fe
ask a
av Ã©rer
Ġtransf Ã©rÃ©
Ġsouhait ons
Ġhom ologues
ĠrÃ©glement er
Ġf ret
si ers
ĠrÃ© novation
va h
ĠrÃ©du its
Ġinv itation
ĠprÃ© ambule
s auf
Ġo h
Ġsusp endre
ĠhÃ´ tes
Ġindemn isation
Ġinten sifier
Ġconjo intes
we alth
Ġex istait
ĠdÃ©bat tre
l os
Ġs v
Ġbr Ã¨ve
ĠdÃ©l it
Ġaugment ent
Ġsouff rances
Ġpro vient
Ġrepos ent
Ġsollic iter
Ġinh ib
Ġinterd isant
Ġquotidi ennes
Ġra tionnelle
Ġd ite
Ġjourn Ã©es
Ġd ie
employ er
Ã©m ique
Ġrent able
ĠÃ© ri
Ġf oc
ass ur
tic al
ĠcontrÃ´ lÃ©e
Ġattrib uer
Ġm ic
Ġtch ad
Ñ Ĥ
Ġham ilton
Ġoptim ale
Ġstructure lles
entre vue
ĠprÃ©para toires
Ġp iles
Ġinc omp
Ġrev iew
Ġrenvo ie
Ġiss ue
Ġatt ente
Ġg Ã¨nes
Ġmar c
Ġon e
er vent
Ġre m
ĠÃ©ch ec
prÃ©sid ente
Ġsa medi
Ġw p
Ġconstruc tif
Ġcandid ate
ĠrÃ©serv oir
Ġrapatri ement
ins Ã©curitÃ©
Ġacqu ises
Ġm ille
Ġsuc cession
ordin ateurs
ĠantÃ©rieure ment
Ġgen res
ĠprÃ©f Ã©rences
Ġcontra dic
Ġsou lÃ¨ve
Ġp ommes
Ġli aisons
ĠperpÃ© tr
Ã©tique tte
Ġro che
ĠmÃ©tal liques
ous ses
hou sias
Ġth er
Ġcop enh
Ġconcer tÃ©e
Ġang ola
ag ression
Ġsteph en
Ġpres cription
Ġplate au
Ġcar dio
Ġvie illes
d ites
Ġquarti ers
Ġdo tÃ©es
Ġm h
Ġtermin ologie
Ġradi ation
Ġsau vage
ĠdÃ©mont rent
Ġhar bour
ĠyÃ©m en
Ġn ice
Ġrempla ce
Ġencourag Ã©s
Ġcar c
Ġsa chant
Ġcoeffic ient
Ġcondam nÃ©s
Ġsais onn
ar de
Ġnet tes
Ġtransmissi bles
m us
Ġme d
199 0
Ġfonctionn els
Ġjou ir
Ġpos tale
Ġ10 2
Ġpav illon
Ġâ Ī
Ġh iver
Ġc cs
ĠdÃ©clar Ã©es
Ġso vi
Ġrepos ant
tin a
Ġbiling ues
Ġambiti eux
Ġemploy Ã©e
s ou
Ġp ac
Ġinter dire
Ġstation nement
fr an
Ġinform elle
r n
Ġb leu
Ġsu ites
ĠprÃ©sid Ã©
p ent
Ġ11 8
Ġanci enne
Ġcircu its
Ġb it
ph el
Ġindi gÃ¨nes
16 0
ĠmÃ¨ nent
Ġoct roy
Ġterritori al
ill ons
Ġl Ã©
Ġmodern iser
Ġreti rÃ©
on ciation
Ġaccep tÃ©es
accum ulation
ir ma
Ġconf iÃ©
Ġdu re
ins pire
Ġf ille
________ ____
ĠexÃ©cu tions
au tique
enn ant
Ġcommunique z
envo yer
Ġrou lement
appr ouver
Ġruisse au
Ġinterpr Ã¨tes
o ta
ĠbactÃ©ri es
b n
Ġsatisfais ant
Ñ Ģ
en lÃ¨vement
ĠarrÃª ter
inc itation
Ġqu ator
ĠaffÃ©r entes
Ġsupp os
Ġcomb inÃ©
Ġassemb lÃ©es
Ġgouverne urs
exp osÃ©
Ġsign alisation
Ġenvoy Ã©e
hÃ© patite
Ġincom pati
Ġsta bles
ult ur
Ġoug anda
Ġo ralement
Ġchy pri
s itÃ©
Ġenregistre r
ĠrÃ©mun Ã©rÃ©
tr ui
Ġinv ers
ĠdÃ©taill ants
Ġidentif iÃ©es
Ġcir cul
Ġj et
" >
ĠÃ©th iopie
appr endre
Ġorgan ique
graph e
Ġcommon wealth
Ġbas Ã©es
ĠÃ©n orme
Ġflu or
Ġpluriann uel
Ġcomm ittee
Ġbou lev
ĠrÃ©fugi Ã©
ĠvidÃ© os
ĠprÃ©visi ble
s oit
Ġgrie fs
ac uation
disciplin aire
Ġren oncer
Ġbo ok
Ġsort es
Ġdiman che
p ier
ti endra
x i
Ġt va
Ġinv iter
Ġmarqu age
Ġcompara tive
Ġtadji kistan
ĠtÃ©lÃ© vis
Ġin te
Ġtravaille uses
ĠpÃ©nitenti aire
to wn
Ġh Ã©r
Ġjoh annes
Ġlib yenne
Ġus ages
p res
ĠÃ Ĺ
Ġharmon isation
Ġorgan iz
Ġdistribu Ã©s
ch i
on se
affich age
Ġdou g
lÃ¨ vements
Ġre hau
ĠrÃ©serv oirs
Ġpour vu
ier ie
Ġcer ve
Ġtherm ique
Ġ11 1
Ġrejet er
Ġbila tÃ©ral
Ġappare mment
ĠvÃ©gÃ©t ales
Ġse g
to pic
Ġag r
ĠmatÃ©ri au
Ã©p idÃ©mie
Ġmu tuel
Ġlou is
rÃ©s id
Ġav iation
Ġfluctu ations
Ġmodif ie
Ġexcep tionnelles
Ġfabri quÃ©s
Ġju gÃ©es
Ġcorpore ls
Ã©quival ent
trait ance
o ts
Ġmong olie
Ġitali en
Ġinflu ent
Ġvit al
ph ones
ĠrÃ©f rig
Ġz o
Ġpres ti
esc la
Ġlu mine
198 5
it ait
Ã©ch anges
ĠÃ©loign Ã©es
Ġsupp orter
ad s
Ġrus ses
ĠÃ©quival ents
Ġfranc s
un a
ĠintÃ©ress Ã©e
Ġ âĢĻ
ĠinfÃ©ri eures
y aux
Ġjac ques
Ġbarc elon
ĠdÃ©liv rer
Ġmagaz ine
Ã© mis
ĠÃ©c rits
Ġpara guay
ĠcÃ´ tes
lam m
ĠstÃ© ril
Ġfond ations
Ġdiffus Ã©
Ġch en
Ġactionn aires
hy dra
Ġsubdi vision
Ġfavora blement
Ġrecommand Ã©e
Ġr id
que ts
Ġtransf Ã©rÃ©s
Ġpromen ade
Ġun d
Ġfer mÃ©
Ã©vÃ©n ements
absor ption
Ġdis ent
Ġconserv Ã©s
n l
Ġex acte
ell ent
oty pes
Ġmiss iles
Ġd resser
ar riÃ¨re
ind ication
Ġveill ant
mÃ©th yl
Ġfonctionn elle
Ġex pose
Ġincid ent
Ġmus eum
Ġg ly
Ġatta chÃ©
Ġja une
inves ti
Ġcap ture
si de
Ġvoy ager
Ð ½
ĠÃ©p idÃ©mi
r antes
Ġ10 9
t ps
Ġpens Ã©e
Ġch Ã´me
Ġdiv or
u les
Ġinform Ã©e
Ġfinan cÃ©e
Ġcour age
Ġappr entissage
w ana
Ġgra de
Ġrembours er
ins tar
a oÃ»t
Ġso igne
Ġreligi ons
ci en
Ġallou Ã©s
Ġaffich er
Ġdou bles
Ġcircu it
Ġconf ier
Ġto go
Ġvou lue
Ġmes ur
Ġsocio Ã©conomiques
ĠsexospÃ©ci f
Ġ ),
Ġfran k
Ġpar oles
emb auche
Ã© mer
Ġha ve
Ġg Ã©rÃ©s
Ġsais is
Ġautoris ant
Ġ197 4
engag ent
ĠrÃ©parti es
ag eux
Ġsymb oles
ĠprocrÃ© ation
a vais
Ġconf erence
Ġpro tec
Ġpro di
min Ã©
Ġso dium
Ġoccup er
emp loie
ĠrÃ©alis te
mp o
Ġjo inte
Ġattribu Ã©e
ĠdÃ©pass ant
rÃ© g
Ġprolong Ã©e
Ġfonctionn ent
Ġr ock
ĠsÃ©par Ã©s
ra toires
ĠrÃ©capit ula
Ġsa m
ĠrÃ©p ar
atta che
ĠplÃ©n iÃ¨res
Ġra ch
Ġuk rain
app els
Ġ0 49
Ġdi ag
Ġnouv ellement
ĠempÃª che
ab eth
ul ine
ĠprÃ©t end
Ġmes urÃ©e
Ġess ayer
tar es
Ġmaj estÃ©
ag enda
ĠdÃ©fav ora
Ġhoriz ont
i Ã¨rent
Ġprovo quÃ©
fr om
Ġcon tenue
Ġmicro soft
Ġchir ur
Ġcollo que
an et
Ġqu ad
Ġrenvo yer
Ġrepr end
iri ya
. Â».
Ġappro fond
s pati
Ġm ir
Ġsouterra ines
s te
Ã©r ants
Ġpostsecond aire
Ġparven u
ĠrÃ© nov
Ġpopu laires
Ġ11 2
Ġfal lu
Ġd at
s ent
Ġinter institutions
Ġp it
ĠrÃ©vÃ© ler
Ġfin i
Ġcontra ires
ograph iques
Ġcopenh ague
Ġinstal ler
h ommes
inqui Ã¨te
lÃ© gi
ĠcinÃ© ma
b anis
Ġregr oupe
ĠÃ©c ran
Ġray ons
ĠÃ©tabl issent
ĠdÃ© duire
ĠÃ©valu Ã©e
Ġsur int
ci aux
Ġb onn
Ġdess us
b rÃ©s
Ġt ellement
al ena
Ġre er
Ġimp lic
organ es
p ices
te chn
ab ou
ah iriya
Ġmultila tÃ©rale
Åĵu vres
ĠdÃ©central isation
Ġliban ais
ĠdÃ©clar ant
ĠindÃ© ter
ĠtÃ© tra
Ġlar ges
ĠÃ©p oux
de urs
Ġentre p
Ġcons istent
a tivement
me x
mi rats
Ã©tabl issements
Ġm b
ĠvÃ©r itables
Ġsem ences
h oriz
Ġla issent
can adi
Ġmin er
si bles
Ġf Ã©c
Ġgol f
7 20
Ġress er
ĠreprÃ©sent ait
olog ue
m ons
Ã©s itÃ©
Ġsh er
Ġprof its
fi eld
Ġmon aco
Ġeconom ic
Ġrou es
Ġabord Ã©
Ġjou issance
Ġbila tÃ©rale
Ġflo t
ow n
la cements
Ġconstruc tive
arm Ã©nie
Ġmoy ennant
Ġnamib ie
Ġcompens er
Ġdocument aire
d ing
Ġkirgh iz
n ab
Ġn ic
Ġaccr ues
ĠrÃ©serv Ã©s
Ġfrancoph onie
end er
Ġdis para
Ġg ou
Ġrec ul
Ġseu ils
omb uds
Ġexclu sif
Ġrup ture
Ġca po
Ã©tÃ© ro
Ġinond ations
ist ante
Ġh ow
Ġmain tient
Ġam Ã©riques
Ġsomm aires
Ġmanu tention
Ġbag ages
Ġbre ve
Ġ ................................
Ġlang u
Ġcollabo rateurs
Ġcal ifor
tu m
Ġfranc is
Ġarm Ã©nie
Ġf umeurs
Ġmar ia
ĠparallÃ¨ les
Ã©ro sion
ph a
Ġcol omb
ĠcrÃ© ent
dÃ© fin
Ġcer cle
Ġhorizon tale
Ġtechn iciens
Ġcentra fricaine
Ġimp ro
Ġpor c
Ã©tudi ants
Ġhy bri
ĠprÃ©pa rations
Ġfaibles se
Ġvis er
Ġinter sectori
Ġde ttes
Ġcro ient
Ġpers istance
Ġaigu Ã«
hre Ã¯n
ar ter
cu les
Ġriv iÃ¨res
Ġtrans mise
Ġ197 3
Ġpren ez
Ġinsuffis ante
Ġappara issent
Ġfond ements
ĠprÃ©ven tive
Ġres titution
ar itÃ©s
man itoba
gra is
Ġcibl Ã©s
Ġt ali
Ġconc lue
Ġrenouvel er
rapp ort
rÃ©gion ales
Ġpla ts
r ss
at titude
ĠÃ© diteurs
lo t
ĠlÃ©g alitÃ©
Ġh iv
i able
Ġm rs
Ġp istes
Ġco d
Ġpour voir
Ġconten eurs
Ġmauva ises
ĠÃ© mises
t os
Ġemb ar
ĠisraÃ©li enne
Ġsaskat oon
ĠtÃ©moign ent
âĢĶ âĢĶ
min age
Ġinc it
hydro gÃ¨ne
Ġaff ai
Ġco sepac
Ġvou lait
atti rer
ins tant
Ġ11 4
onn Ã©e
vi enne
Ġgreff e
Ġchrom os
Ġdouan iÃ¨res
Ġcompa raisons
Ġcra inte
ĠrÃ© ag
ag an
Ġpar lant
Ġtu bes
Ġcoup le
Ġrestre indre
ĠcrÃ© ance
la c
Ġson ore
im mer
Ġservir ont
Ġpropre ment
Ġtrouv ait
Ġre mon
Ġtrans vers
Ġpri Ã©s
ologi quement
ĠÃ©qu ateur
Ġcorrespond ante
Ġsalari ale
Ġpotenti elles
Ġval ables
agas car
Ġau trich
Ġaccord ant
Ġba ins
Ġbureau cra
Ã©chÃ© ance
Ġdemande z
Ġcircons criptions
at om
Ġral entiss
o tes
ĠdÃ© tent
Ġass ess
Ġann u
an ium
Ġclas sif
ci a
ĠtÃ©moign ages
Ġprescr its
m ie
Ġn Ã£
Ġt op
Ġcer titude
Ġamen er
Ġf oire
Ġaus pices
olon isation
ĠcoÃ»te ux
Ã©cos ystÃ¨me
ĠcrÃ© ancier
Ġn ick
Ġcontro l
Ġve d
Ġpens ent
Ġmath Ã©
ĠdÃ® ner
Ġoffic ier
Ġla s
20 13
Ġpi ra
ĠdÃ©rou ler
ĠmÃ©r itent
Ġriv e
er se
Ġsu icide
Ġfisc alitÃ©
Ġn is
ĠprÃ©f Ã©r
Ġexerc Ã©e
Ġfaute uil
Ġinform atis
Ġhebdomad aire
m ens
Ġcat alyse
ĠprÃ©s erv
Ġdilig ence
Ġc ord
tro it
Ġprim autÃ©
Ġgu ich
Ġp ipel
Ġtraditionn ellement
us er
Ġb pc
ul um
Ġche val
Ġref roid
al uminium
Ġc v
Ġw ee
Ġpont s
Ġpla cÃ©es
ĠrÃ©vis ions
Ġh ome
minis tres
opport unitÃ©
Ġfacil itant
Ġdan iel
assur ances
ins tabilitÃ©
Ġappar tement
ou Ã©
Ġobli ge
Ġac p
Ġesti mer
Ġpharmaceu tique
Ġm oun
ĠmÃ©l anges
che z
Ġreli ef
Ġsubstanti elle
Ġlong s
ĠpÃ©dago giques
oug anda
incen die
Ġinterven ant
min Ã©es
f l
Î ±
Ġexig Ã©s
i an
Ã©rap ie
Ġatten tivement
Ġfabri quer
Ġfla gr
ant aine
Ġsou ten
tiss ements
b ell
ĠrÃ© intÃ©gration
Ġargu ment
mon tÃ©nÃ©gro
Ġurg ences
... )
mar in
Ġjus tes
Ġan alogue
af e
Ġins Ã©rer
Ġmack enzie
Ġlec teurs
serv ice
Ġoptim ales
Ġpour rons
ĠdÃ©b utÃ©
Ġvolontaire ment
Ġs els
wa re
Ġco Ã¯n
tine au
r Ã´
ad ress
Ġsy rie
Ġur uguay
en cer
Ġmentionn ons
Ġdou leur
Ġcarto graphie
argu ment
Ġaspi rations
c is
Ġtour istes
Ġjou eurs
Ġma Ã®tre
inter valle
inves tir
Ġfili ale
ĠamÃ©lio re
Ġta mp
Ġchois ie
Ġ197 2
Ġn an
aisse ur
z o
ad h
Ã©th iopie
Ġmaxim iser
w or
ĠdÃ©tru ire
ĠintÃ©ress Ã©
instal ler
oc y
ana ise
Ġadh Ã©rÃ©
ĠÃ©vol uÃ©
ĠÃ© mo
Ġpl ong
Ġhydro carbures
ĠmÃ© tier
Ġpropos ant
it ales
os a
ĠadÃ©qu atement
Ġcondi tionnelle
ĠÃ©ch anger
Ġ13 5
Ã©lec tions
Ġ4 50
Ġindirec te
Ġapprovisi onnements
Ġsa ins
Ġcr ist
Ġinstal lÃ©s
s oci
Ġjustif iÃ©e
Ġoeu v
Ġv ire
ĠdÃ©pla cÃ©s
la in
Ġadap tation
Ġinqui Ã©tude
Ġ1 19
Ġreven di
Ġbro wn
Ġalli Ã©s
inter venir
ĠÃ©quip Ã©s
Ġexplic ite
g m
Ġanim al
Ġspati aux
Ġregion al
Ġno yau
Ġren omm
Ġr ose
Ġre quÃªtes
Ġrece vabilitÃ©
Ġnorth ern
Ġdiff Ã¨rent
inv iter
n ements
Ġex ister
Ġad jac
ĠdÃ©pass ent
Ġpa m
territ ori
c ir
Ġauthor ity
ultur alisme
ĠdÃ©c olonisation
occup ant
allÃ© gement
ĠvÃ©gÃ©t aux
ĠgÃ©n Ã©re
in rp
Ã¨ vre
Ġpu issances
Ġci el
Ġprolong er
ĠÃ©duca tives
Ġprati quer
Ġbr ou
ĠreprÃ©sent Ã©e
Ġcar riÃ¨res
Ġrecommand Ã©es
Ġhora ire
Ã¨ tent
lement ation
Ġorigin aux
Ġgraph iques
Ġdispens er
bre r
ĠimpÃ©ra tif
tres se
Ġextra it
ra ble
oli ques
Ġad jud
Ġinter dite
Ġco in
Ġconsul tÃ©s
g g
b Ã©s
Ġpe inture
za ines
Ġcouv rent
ĠÃ© m
Ġd ites
ic ides
am er
Ġdent aires
Â» )
Ġcomp are
Ġrest ant
Ġassujet ties
Ġrom an
Ġno tions
aa aa
Ġen vergure
Ġtermin al
ho tel
Ġconcr Ã¨tement
Ġasi atique
ĠgÃ©n Ã©rer
Ġphotograph ies
Ġba hreÃ¯n
l ants
ĠrÃ©pa rations
Ġfro ide
Ġcommet tre
ĠcontrÃ´ lÃ©
Ġins tant
Ġconsorti um
Ġcant on
Ġform alitÃ©s
Ġenvir ons
Ġsou missions
Ġcouver te
Ġa lÃ©
Ġr pc
Ġl tÃ©e
Ġan gu
j ordanie
10 9
Ġgal erie
h l
Ġg c
Ġconven able
Ġpoly m
Ġp iliers
pa cif
journ al
ĠhÃ© licopt
Ġsuiv is
urÃ© at
Ġj osÃ©
Ġso laire
ĠÃ©th iques
Ġappliqu ent
Ġarch itecture
Ġaccep tÃ©s
Ġcons ulaires
Ġt m
tri tion
Ġsurint endant
tex t
Ġbou ton
Ġgagn Ã©
au dition
Ġper Ã§u
Ġsoigne usement
ĠcomplÃ© tÃ©
ĠprÃ©cur seurs
ch age
Ġbi ologie
Ġaccus Ã©
Ġspor tifs
jud ici
Ġdiverg ences
Ġcli quer
par ts
ĠantÃ©ri eur
Ġatta que
Ġconstitu tionnelles
20 4
Ã©ch anger
Ġrenseign er
b lÃ©
ĠhÃ© bergement
Ġprescrit es
thÃ¨ que
Ġgratu ite
b ut
ĠfÃ©min ines
wa ys
ĠultÃ©ri eures
ĠcontrÃ´ lÃ©es
Ġkings ton
Ġconstruc teur
inten sifier
associ er
Ġconduc teurs
% .
Ġsemb ler
Ġa k
Ġs ad
Ġex tension
Ġappr en
Ġmad agascar
Ġe ast
or ique
Ġappu yant
Ġsyner gies
Ġproc lam
ir ont
Ġpotenti elle
Ġral enti
is a
ĠdÃ©velopp e
Ġ12 2
Ġfac tures
Ġp se
Ġextr Ãªmes
Ġma tur
f o
Ġpla cÃ©e
Ġconfidenti els
Ġendomm ag
Ġeng ins
Ġorient er
im mig
Ġmens uel
b ra
je an
Ġabou tir
Ġemb al
h ier
ĠrepÃ© rer
m ou
Ġstric tes
â ĸ
Ġsu isses
Ġver te
Ġpar king
Ġdivul guer
ph al
Ġvoud rait
aur a
Ġglob aux
Ġrempl it
Ġj al
ĠsÃ©lection nÃ©s
Ġbas Ã©s
Ġmaur it
Ġcal ci
Ġstu dy
Ġ11 6
alb anie
Ġhonora ires
ĠsystÃ© matiques
ind ustri
Ġcontra ignant
Ġhas ard
Ġsyn drome
ud ci
Ġamen Ã©
ate liers
ĠdÃ©sir ent
off icier
Ġindirec ts
Ġp anc
ch ons
Ġbou te
Ġfo ot
h an
Ġde f
Ġcombin Ã©s
ĠpÃª cher
Ġcroy ons
ĠÃ©g ales
Ġau rez
inter ro
Ġaffili Ã©e
ver b
Ġam er
el i
Ġair lines
Ġal bert
Ġadministr Ã©s
t ous
Ġcompr ises
Ġinternation alement
Ġrepro duit
Ġrel Ã¢
Ġrembours ements
Ġviv ants
du le
Ġpla ques
Ġrep oser
Ġassujet ti
ch ets
ĠÃ©vol utions
ign ons
men sionn
imp lantation
Ġcy cl
er ci
Ġan tim
Ġviv e
ver t
q a
Ġsuper f
Ġanti personnel
Ġju dic
Ġsignifica tivement
Ġanaly tiques
Ġmusul mans
ĠinvitÃ© es
Ġ11 3
ĠrÃ©serv er
Ġisol Ã©s
c it
Ġhos pit
Ġen ch
Ġpour par
ĠchÃ´me urs
Ġminu te
ombuds man
Ġnu isi
Ġno table
Ġenf ance
infra ctions
fem mes
Ġlc pe
Ġbran ches
Ġ12 7
Ġisol Ã©es
abond ance
Ġjam ahiriya
p Ã¨re
ĠprÃ©val oir
Ġsal mon
Ġ11 7
Ġmedic al
Ġun der
Ġsign Ã©s
ĠnÃ© o
val les
Ġmanifes tÃ©
ĠÃ© mission
Ġconseill Ã¨re
ica tive
Ã¢ ts
Ġter ri
Ã® tra
Ġrapid itÃ©
ĠrÃ©sul ter
imp lication
escla vage
Ġpourpar lers
Ġliqu id
Ġnova teurs
in eux
Ġinter view
Ġpap iers
Ġ1 000
am moni
Ġm id
ul ent
ad Ã©mie
Ġr ide
ĠrÃ©sum Ã©s
imp ortateur
Ġattribu Ã©es
arrÃª ter
Ġjou it
ĠdÃ© ont
Ġconstitu Ã©s
Ġir re
Ã©mer gence
Ġpho toc
ĠÃ© mirats
ass umer
Ã©m itÃ©
Ġpure ment
Ġ ~
Ġspati al
Ġtel us
Ġpil ier
Ã©quip ements
ad er
Ġd ru
m il
Ġ2 10
Ġacqu isition
h s
Ġharmon iser
Ã§ age
Ġentre tiens
ĠlÃ©g er
Ġadditionn elle
g et
Ġg ang
ĠreprÃ©sent atif
ach eter
Ġver ts
Ġpror og
Ġalb anie
Ġvig il
Ġdestin ataire
Ġdispos Ã©s
or tait
Ġpos Ã©s
Ġrn can
Ġin util
ĠsÃ» rs
Ġpouss Ã©e
est onie
Ġv end
Ġobjec tive
off rent
Ġchin oise
Ġar rÃªts
ĠprÃ©cip itations
ĠdÃ© tri
ĠprÃ©s Ã©lection
Ġredou bler
ĠÃ© d
Ġquan tif
Ġache teurs
Ġl m
Ġlo ts
Ġjohannes burg
Ġcar rÃ©s
Ġrestre inte
Ġlim itent
Ġinter jetÃ©
Ġom is
Ġdevoir s
Ġ7 50
Ġw ol
parc ours
Ġl un
Ġfacil es
Ġ20 12
Ġatta che
ĠÃ©larg issement
Ġapprofon dies
Ġsub issent
p v
imp arti
ouv rage
co laire
lu or
fond Ã©
Ġr oi
Ġcau c
ĠrÃ© habilitation
Ġgovern ment
Ġav i
Ġ {
Ġtran qu
Ġnutri tifs
influ enza
os itÃ©
ist antes
Ġspecta cle
Ġinu tile
che f
Ġmes urÃ©
excÃ©d ent
Ġp omp
Ġm anger
s tra
Ġb ob
Ġb eaux
Ġcollec tivement
Ġdoctr ine
Ġf lam
Ġpa tron
ĠrÃ©un ies
Ġsco tt
ĠrÃ©aff ec
er ing
ĠcommÃ©mo ra
Ġdans e
Ġpers uad
til itÃ©s
Ġconvainc re
Ġt w
Ġins ec
Ġsouven ir
ĠdÃ©c ro
a xe
in cident
au l
Ġfre der
Ġref use
Ġpay Ã©es
aw i
ti ciens
ign ement
ĠnÃ©cess itant
Ġcondi tionn
id ence
Ġouv rage
ing Ã©n
Ġloc alisation
Ġcol is
Ġcons entis
Ġdou ziÃ¨me
Ġpla ges
ĠapprÃ© cier
on ale
Ġen ne
Ġache tÃ©
he imer
su pp
Ġsensi bil
Ã©c oute
ĠmÃ©d aille
Ġav ance
Ã¨g ent
ĠrÃ©p ert
Ġw at
Ġmonter rey
ts wana
obs ervateurs
ĠÃ©qui pÃ©
Ġmos cou
a ta
gu Ã©es
Ġbarba de
ĠsubsÃ©qu ente
. :
Ġpri Ã©es
s antÃ©
ifor mes
Ġb illet
Ġprodu isant
ĠdÃ©l ica
ĠsÃ©v ices
Ġm ang
Ġn ar
Ġatt est
Ġaffec tations
Ġconstitu aient
Ġinstitu Ã©
ĠillÃ©g al
Ġsignifica tifs
Ġvoil ure
budg Ã©taires
ĠdÃ©velopp Ã©es
ant h
Ġam ont
Ġen ergy
Ġen vah
e g
ĠdÃ© minage
t ton
Ġcorrespond re
Ġpropos ons
- (
ra h
Ġextra its
Ġtrim estri
Ġcan c
ĠÃ©chÃ© ance
ĠsÃ©lection ner
tin s
ĠempÃª chent
Ġstu dies
Ġgen e
u eux
Ġo x
ad jud
ĠagrÃ© Ã©
ĠdÃ©ta chement
Ġmcg ill
Ġis lande
Ġnavig ables
Ġeff luents
Ġdess erv
Ġfen Ãªtre
ĠhÃ´ pital
Ġintr ants
Ġin adÃ©qu
arr estation
obli gations
Ġt ai
Ġ13 8
Ġcoup les
ĠsÃ©qu ence
Ġinten tions
Ġt np
Ġd id
Ġcoup ables
Ġitali enne
Ġwee k
ĠrÃ©g issent
Ġcn udci
ĠdÃ©tent eur
Ġcon jonc
ĠdÃ©cel er
ĠdÃ©c our
Ġd in
explo itant
Ġin quiÃ©
Ġchris ti
Ġbarcelon e
q w
Ġmagas in
Ġfolk lore
bi ens
bur y
Ġ12 1
Ġin du
Ġdi oxyde
Ġass istant
ĠbÃ© ton
Ġprimordi al
s ell
ĠdÃ© lic
Ġ* **
ĠdÃ©fende ur
Ġch ic
Ġrec las
Ġc itÃ©s
Ġjustif iÃ©
Ġk am
Ġinter valles
Ġrich esses
Ġpros pec
Ġindustri alisÃ©s
Ġexerc Ã©es
accus Ã©
Ġor phel
indi vidus
ic ale
Ġcol or
Ġconstitu Ã©es
Ġlaisse z
Ġmon te
Ġp pm
Ġmagnif ique
Ġtransfron tiÃ¨re
Ġauxili aires
Ġsugg Ã¨rent
a Ã©ronefs
Ġration aliser
Ġreli Ã©
Ġrespira toires
Ġst y
aur aient
Ġcin Ã©mat
Ġinform elles
Ġdouan iÃ¨re
. (
Ġapp orts
allÃ© gation
ch ap
Ġimprim Ã©e
Ġalig nÃ©s
Ġmh z
Ġsoy ez
Ġarrang ement
Ġincon vÃ©n
Ġver y
Ġquo tes
Ġn Ã©s
Ġo ther
Ġin chang
Ġvra c
Ġphilosoph ie
Ġchauss ures
as a
Ġti enne
h t
Ġtemporaire ment
Ġmatur itÃ©
Ġencour agent
cu la
int ures
Ġ2 20
Ġsupervis er
i end
Ġcaus Ã©e
Ġcons istait
Ġemp lacements
5 00
Ġration alisation
Ġque en
d ay
Ġcoordonn Ã©
Ġstruct urÃ©
Ġpl ante
âĢĻ Â«
ĠrÃ© examiner
Ġcompos er
ĠvÃ©tÃ©rin aires
Ġtra ins
Ġkirghiz istan
Ġ orth
pier re
o que
horiz on
Ġfaibles ses
ĠÃ©tro its
acqu is
Ġrepro duire
b ase
ĠÃ©quilib rÃ©
ĠÃ©gard s
ne w
Ġsignifica tives
Ġmain tes
Ġsta bil
Ġfinance ments
Ġg Ã£
Ġper cep
o ke
Ġg asp
ĠamÃ©lior Ã©s
Ġ Ï
ic ales
Ġsatisf ont
ĠirrÃ© g
Ġsil ence
Ġsac rif
ony me
ĠdÃ©tri ment
Ġ urgence
Ġgra titude
Ġguer res
Ġrectif icatif
Ġestim Ã©e
n it
op ro
Ġsta te
ĠÃ©ch ang
Ġauth en
Ġk it
Ġ19 68
Ġch an
Ġrigoure ux
Ġn l
v p
ĠprÃ© mat
Ġins ister
ĠrÃ©f Ã©rer
Ġs pr
Ġs ages
Ġal cool
Ġopportun itÃ©s
c itÃ©
Ġmon tage
Ġautonom ie
ĠperÃ§ us
ĠprÃ©occup Ã©s
Ġc tm
Ġcor Ã©
Ġcle f
ĠagrÃ© Ã©s
Ġres semb
ce aux
Ġag ency
s Ã©
cs m
ĠnÃ©glig ence
encad rement
Ġv ins
Ġbel ge
Ġf ant
Ġ12 8
ol d
Ġtr on
da w
ĠdÃ©couver tes
Ġbus h
Ġa xes
= =
an ies
Ġw ipo
Ġjo ints
ou c
âĢ ĺ
z ip
es e
Ġdur ban
Ġcri ti
Ġs is
n or
Ġmont rant
Ã¯ ne
oli tion
Ġro om
accompagn ement
Ġabord Ã©s
ĠchÃ¢ ti
Ġgr Ã¨ve
Ġwood s
Ġmin uk
abs tenir
Ġma ti
ĠconcrÃ© tiser
ĠnÃ©er landais
Ġliqu idation
Ġj ui
Ġto wn
Ġpu issant
n is
Ġcur ric
Ġcompil ation
pro f
ĠdÃ©liv rÃ©s
Ġcollabor Ã©
Ġj im
ĠreprÃ©sent Ã©es
Ġmunicip ale
Ġfora ge
ĠsÃ¨ che
Ġtr ent
Ã©v acuation
Ġphoto graphie
Ġquo ique
Ġcontrac tuels
Ġtal ent
ue o
Ġaffich e
Ġexh orte
Ġ8 50
Ġremerci Ã©
Ġf it
Ġfidu ci
Ġh Ã©tÃ©ro
ve urs
Ġsupp oser
matric ulation
alis ant
Ġcamp ing
ag gra
se igne
i ff
ir d
Ġrempla cÃ©e
Ġmanip ulation
Ġmamm ifÃ¨res
it al
si Ã¨re
Ġinter action
Ã©chapp ement
om i
enti ment
Ġen zy
Ġralentiss ement
to p
in vasion
ĠbÃ¢ le
Ġsim ulation
ĠamÃ©lior Ã©es
Ġco g
Ġdisciplin aires
Ġb un
Ġan om
Ġl t
iso lement
Ġsou tenus
Ġp b
Ġrecens er
Ġemp ir
r t
Ġju vÃ©n
Ġprog ress
ĠinterprÃ© tations
Ġda tÃ©
pla in
Ġr andonn
ĠrÃ©s ume
Â ¢
Ã©c ois
Ġv ague
au vr
ĠlÃ©s ions
Ġcam ions
Ġsecur ity
ĠrÃ© ci
ch ine
serv ices
ĠmolÃ©cu laire
el a
Ġenvoy Ã©es
Ġk b
m y
Ġsou che
Ġc ci
Ġbeau tÃ©
cr p
Ġmon tÃ©e
it ud
Ġrecommand ons
m ad
Ġaugment ant
Ġseg ments
Ġcontre ven
enquÃª ter
ch Ã´mage
or ies
Ġpara Ã®tre
ĠrÃ©aff irmer
Ġsah ara
ĠrÃ©form er
Ġdivid endes
tionn ellement
Ġnomm Ã©e
h v
Ġach et
Ġfre inage
Ġamp leur
t k
om on
Ġporno graphie
rÃ©gion aux
Ġdis ques
Ġga tineau
Ġincompati ble
Ġsectori els
Ġfamili aux
ĠrÃ©sul tent
roy aume
orient er
Ġcalcul Ã©s
Ġappro visionnement
Ġextra budgÃ©taires
Ġcontribuer ont
r d
Ġmodes te
Ġcaus Ã©es
Ġanalys Ã©
Ġdess er
ĠapprÃ©ci ation
Ġexces sif
Ġsur p
Ġno Ã«l
Ġfamili ar
Ġvil la
ĠdÃ©s accord
Ġhong ro
Ġlanc Ã©s
ular itÃ©s
Ġmars h
s askat
Ġtur km
Ġportu aire
Ġr iz
Ġpa ir
Ġdev ienne
Ġouv rant
Ġinter locu
ĠpÃ©tro liers
au teurs
Ġmo re
immun isation
tra tions
Ġtu Ã©s
Ġcontre fa
Ġaccus ations
ĠthÃ©or ique
at ori
ĠÃ©vol uer
Ġprononc Ã©es
Ġrefu ge
Ġs ma
Ġal phab
ĠquÃ©b Ã©cois
Ġintergouvernement aux
cont rac
Ġrappro cher
l ist
z aine
Ġh av
Ġfre in
Ġclu bs
ex erc
ĠrÃ©g Ã©n
z i
Ġre jec
mar k
Ġser ais
Ġdis tor
ĠÃ©tique ttes
olog ical
ica trice
Ġlib Ã©rer
z heimer
Ġren vers
Ġt ours
Ġindi enne
Ġpen sionn
os t
Ġfix ant
intÃ© resse
Ġsusmentionn Ã©e
Ã©rÃ© ment
Ġtourn er
ĠcohÃ©r ent
Ġsur plus
Ġcondam nations
ĠdÃ©b ris
ĠÃ©cou lÃ©e
b enz
Ġdispens Ã©s
Ġchar lotte
Ġviet nam
ĠrÃ©chauff ement
par ole
Ġin aug
ĠÃ© lÃ©g
Ġa er
Ġcerve au
as tre
obs erver
i ables
at o
Ġrenfor cent
ĠÃ©ta tiques
w l
Ġb ab
ĠdÃ©p ression
Ġ17 0
Ġbo tswana
Ġabs tra
Ġpal iers
icy cle
ĠdÃ©cri vant
Ġch ans
ĠbrÃ©s ili
Ġinvent aires
Ġmain tenue
Ġsh ar
Ġctm r
Ġh onn
ĠdÃ© vo
. ;
ĠdÃ©v as
ĠÃ©tudi Ã©s
fig ure
us ta
Ġfili ales
Ġpos Ã©e
Ġwh ich
on te
ara bie
bi an
ĠindÃ©ter minÃ©e
h ex
Ġla val
pr p
pro duits
Ġcontinent al
Ġmor ph
ĠÂ» ).
ĠillÃ©g aux
Ġf leurs
interven ants
ingu isme
alis ations
Ġdj ib
Ġsc ulp
Ġmusul man
Ġg oÃ»t
di x
ĠrÃ©sol us
Ġprescr ite
i or
Ġtrans position
Ġmon uc
oc ulture
Ġdiff Ã¨re
Ġsa illants
Ġmal awi
Ġtr ust
duc teurs
op ies
Ġg de
ĠaffÃ©r ents
n ord
Ġces e
Ġs per
activ ation
Ġdemand ait
Ġprop ices
Ã¼ r
Ġporter a
Ġmix tes
Ġman quement
Ġ19 49
Ġattend ons
Ġh orm
ti ces
Ġo d
Ġpos tal
c Ã´
Ġlong itud
Ġtrouv aient
Ġdispos ons
is lande
Ġrencont rÃ©es
on o
Ġpart ners
ĠdÃ©fin issent
Ġb ale
Ġminim iser
Ġradiodiff us
k ar
lo g
Ġslova que
Ġcr sh
immeu ble
atta cher
Ġcre ek
vÃ© gi
Ġpublic itaires
Ġcomprend ra
Ġr oma
ĠdÃ©rou le
ĠÃ¢ gÃ©
Ġlour de
Ġassess ment
Ġl yn
un ique
to b
Ġpass ages
Ġriv era
a Ã©ronef
Ġcr is
Ġventil Ã©es
es sionn
Ġ13 2
Ġrejec ted
Ġf iss
Ġann ulation
Ġx ix
Ġmaurit anie
Ġacqu isitions
onn ant
ica tifs
conseil s
ĠcÃ©lÃ©b ration
Ġqu ai
ĠprÃ©ven tives
Ġexemp tion
de p
Ġexc lure
Ġimp lant
Ġaddi tif
Ġp f
Ġis ola
Ġs qu
Ġchois issez
Ã©ta le
Ã©chantill ons
Ġal lÃ©g
ĠprÃ©al ablement
Ġcouver tes
ĠvÃ©rif iÃ©
anci ens
Ġd rain
parti te
Ġfu ite
Ġdis e
Ġpor taient
ĠfÃ©min in
Ġimprim Ã©s
Ġprouv Ã©
Ġfranch ise
pi ration
ta c
Ġnor vÃ©gi
Ġf ine
Ġcalci um
s d
Ġi p
Ġsupervise ur
h uit
ĠrÃ©cupÃ© rer
Ġcis jordanie
Ġspor tif
Ġpers istants
Ġsais ies
. ]
se x
ica in
Ġw ord
Ġ13 3
Ġconfor table
Ġmagistra ts
e ac
acc ou
Ã©n a
ĠÃ©conom iquement
Ġs tr
ĠmatÃ©ri elles
Ġre form
opÃ©ra bilitÃ©
Ġman iÃ¨res
Ġp ire
ver y
Ġgrie f
Ġhos tilitÃ©s
ĠprÃ© cieuse
Ġdispos ant
Ġcour amment
w ich
Ġsold at
Ġoccup ant
di ves
Ġoccident aux
Ġsemb lait
Ġattend ent
tm Ã£
Ġro ad
fon ction
Ġcompar Ã©
Ġh un
s ite
ch o
) ?
Ġt am
Ġcorre ctions
tor y
Ġsoulign ent
ch ette
Ġfinanci Ã¨rement
hy per
r ence
Ġo li
ert y
Ġajou tÃ©s
Ġj as
Ġinn oc
harmon iser
ĠrÃ© alise
Ġb id
Ġsovi Ã©tique
ind icateur
lic itÃ©
Ġci bler
Ġn ex
ĠprÃ© tendu
ĠsiÃ¨ cles
k n
fr ench
obs tant
Ġvac ants
Ġemp re
Ġnor diques
Ġara bie
Ġsecond es
Ġam nesty
Ġm d
Ġexpos Ã©e
ĠpÃ©dago gique
Ġl ent
Ġexig Ã©e
Ġconc ilier
Ġrencont rent
Ġcompos ent
Ġf ore
Ġ12 9
Ġa ri
Ġmenac Ã©es
@ @
Ġsu Ã©d
Ġsymp osi
Ġm utation
Ġnul le
Ġchu tes
ĠÃ©p is
in jec
Ġdi zaines
arrÃª tÃ©
ĠespÃ© rer
immun itÃ©
ĠÃ©vid ente
Ġaccord ent
ur anium
effectu e
Ġto it
inf ec
Ġcomp teurs
Ġexemp te
Ġr c
c at
Ġab orde
direc teur
ĠÃ©quip Ã©es
ĠdÃ©g Ã¢ts
iv i
Ġrenvo yÃ©
Ġcibl Ã©e
ĠexÃ©cu tÃ©es
et tement
ĠdÃ©c ern
et o
ĠdÃ©pos itaire
c entre
ĠperÃ§ ue
Ġex istence
expÃ©ri ences
Ġcommuni quÃ©e
Ġbl ind
ĠcontrÃ´ lÃ©s
Ġde p
Ġfacil it
ah arienne
Ġj um
de aux
ĠdÃ©p our
Ġr and
Ġconv ers
Ġcoup s
Ġsoulev er
Ġcardio vas
irma tive
Ġdomin ante
ĠdÃ© tenir
Ġtrib une
Ġpermet tait
verb aux
omÃ© trie
Ġd igne
ch et
Ġdess ous
ĠdÃ©favoris Ã©s
g an
Ġra f
Ġallemand s
Ġpas sible
Ġvou lant
ĠchÃ¢ teau
Ġjurid ic
Ġchar ger
ĠsÃ©cur itaires
ass es
ĠdÃ©liv rÃ©e
inv ite
Ġchim ie
b iditÃ©
Ġaltern ative
qu ait
ĠsÃ©qu ences
Ġprocu re
saskat chewan
char ge
Ġpriv atisation
ur uguay
Ġm ous
Ġcardia que
Ġcon fin
Ġl en
cin q
autor oute
1 20
ur ch
ĠrÃ©cip iend
Ġcontinu ellement
ou ld
Ġpla t
pro p
gra de
ks on
Ġfor cÃ©es
h on
im ag
Ġsta ff
Ġmultic ulturalisme
Ġh ali
Ġy our
ĠsuÃ©d ois
ĠrÃ© organisation
Ġpra c
Ġav ances
Ġsur cro
tin ction
Ġouv rables
Ġpour riez
qu al
ĠmatÃ©ri elle
Ġe ut
Ġallou Ã©
Ġcher chÃ©
Ġfoss iles
Ġsusc ite
Ġul time
Ġval orisation
Ġma il
Ġc fc
b ande
Ġco li
Ġgarantiss ent
Ã©l Ã©ration
sionn aire
ĠÃ© parg
Ġforest erie
Ġba issÃ©
Ġportu aires
Ġnon obstant
Ġdisp er
an cer
Ã©r yth
ĠdÃ©sire z
b t
Ġstric t
Ġoeu vres
Ġper cevoir
Ġm erve
Ġre gi
Ġhab ile
Ġsec t
ĠdÃ©fin issant
Ġpes er
ĠrevÃª tent
Ã©ta is
objec tion
Ġtr initÃ©
ĠarrÃª tÃ©es
pi Ã¨ce
Ġp ous
gi eux
osi tions
Ġavis Ã©
Ġvari abilitÃ©
Ġlaiti ers
Ġescad ron
Ġextra judici
pacif ique
n um
Ġpos tu
Ġincl use
Ġpath ogÃ¨nes
ĠprÃ©cau tion
Ġm util
Ġaustra le
Ġentam Ã©
li Ã¨res
Ġb sci
ĠdiscrÃ© tion
Ġmon cton
Ġharmon isÃ©
Ġmonu ments
an adi
Ġparta gÃ©
exig er
it or
Ġimmig rÃ©s
ĠreprÃ©sent ations
ir sc
Ġti rÃ©e
Ġs ul
Ġc Ã©
ag ro
a ac
Ġaqu atique
in titu
ĠlinÃ© aire
hum iditÃ©
di mensionn
Ġbar res
Ġconfirm Ã©e
Ġpar ois
Ġpubli quement
Ġb and
Ġatmosph Ã¨re
Ġconten ait
f ac
objet s
Ġspor tive
Ġb all
Ġconf isc
Ġs mo
Ġassor ti
m n
Ġsco tia
Ġorig ines
Ġtransfrontal iers
accus ation
Ġra b
Ġconc ret
ĠentraÃ® nent
Ġti m
Ã© dif
Ġma z
vo quer
Ġmar quer
Ġincap able
ĠdÃ©velopp Ã©e
Ġrest era
Ġsurcro Ã®t
sci an
Ġtom ber
Ġsa ines
Ġad v
Ġfonctionn el
el low
Ġinjus tif
Ġcondu ites
Ġcrois ement
ĠrÃ© tention
rÃ© p
w eb
ob Ã©sitÃ©
Ġd s
Ġcurric ulum
cur sions
Ġtransfrontal iÃ¨re
ł âĸ
min ement
Ġordonn Ã©
ta bli
ari tions
Ġse a
ind res
nu trition
Ġfoss Ã©
Ġexp liqu
Ġa is
ab a
eu g
dic tions
Ġconjonc ture
u b
Ġappar tements
oph y
ar es
artis te
Ġ17 5
Ġproduc ts
Ġantim icro
g ma
Ġrenouvel Ã©
Ġl or
Ġinsuffis antes
Ġpoursuiv is
Ġblanc s
Ġch ant
Ġtr ompe
provin cial
Ġreli Ã©e
Ġabord Ã©es
Ġrespira toire
ĠprÃ© domin
ĠvÃ©rif iÃ©s
Ġj eter
ingÃ©n ierie
ĠrÃ©parti r
Ġenvoy ez
6 04
Ġafgh an
Ġsouhait era
Ġentrepren eur
Ġmar ges
ac cueillir
Ġat lan
Ġsign atures
Ġla tin
Ġmon opo
Ġscol arisation
ro se
tim isation
Ġorganisation nel
Ġdirig Ã©s
Ġwind sor
or re
Ġlour des
Ġfu sionn
Ġhec tares
Ġprochain ement
ĠrÃ©cep teurs
app liquant
Ġt Ã´les
d ication
Ġx i
pr ise
Ġmac donald
Ġex act
enn is
intÃ© ress
ro por
Ġi f
Ġinter viennent
au ts
le ton
Ġessay Ã©
Ġfam ily
Ġdjib outi
& #
Ġsy d
Ġanim ales
ĠÃ©cri re
Ġd ys
Ġl us
Ġt d
ĠvÃ©rif icateurs
oy er
Ġhabit uelle
Ġpro hib
ont an
10 1
Ġcar g
ĠÃ©tudi Ã©es
Ġrub riques
Ġincap acitÃ©
Ġd vd
Ġno tation
Ġdisp ropor
Ġw o
Ġenseign ant
Ġhu iles
Ġten ons
Ġache vÃ©e
Ġespagn ole
at trib
Ġb ad
Ġal tÃ©
Ġcalcul Ã©es
Ġatti rÃ©
Ġbi ocarb
Ġviv antes
Ġcontrac tuelles
Ġinterro gÃ©es
Ġparven us
Ġl ie
Ġspecta cles
Ġsau ver
incorpo ration
Ġimmun itÃ©s
Ġaff irmer
Ġfis her
Ġob tiennent
Ġpren ons
Ġps n
Ġviol ents
ac cidents
encour agement
ret our
Ġenf re
out ch
Ġentre vue
Ġconten ants
Ã ¬
Ġad le
Ġdel ta
intÃ© gra
Ġal lez
if e
Ġom d
Ġre man
r ans
Ġarc tique
ber ge
Ġpro to
ord on
Ġeur opa
ĠÃ©dif ice
Ġs po
et hn
ĠrÃ¨g ne
Ġla issant
Ġbroch ures
Ġnick el
Ġatta chement
h ora
Ġa jout
Ġus a
n aire
Ġdispos ait
Ġcondam ne
tob ago
ĠdÃ© di
and re
Ġdiffus Ã©es
pol it
c ture
Ġsor ties
Ġment al
Ġo v
Ġlaur ier
in erie
Ġsubs tra
ĠÂ §
Ġrigoure use
Ġb acc
ossi bilitÃ©
tra va
ĠconsidÃ©r ons
hos pit
w i
ĠmultimÃ©di a
a inc
Ġ12 6
Ġjur istes
Ġman us
in k
Ġinfluen cer
ur y
ĠÃ©tro it
tu es
ĠdÃ©cis if
Ġaff rÃ©
Ġa pr
Ġo k
Ã©p an
oun g
Ġfr Ã¨res
Ġfo ie
Ġsou tiens
tric k
Ġdistin gue
Ġdou che
Ġsp ontan
Ġajou tant
c m
Ġb est
Ġg on
Ġsuc cessi
ĠrÃ©v ocation
Ġs id
Ġgro sse
Ġm urs
ĠcaractÃ©r ise
Ġsoir Ã©e
Ġt onne
ĠdÃ©b iteurs
habit ants
enn ale
Ġpeop le
ĠcÃ©lÃ© brer
ĠperpÃ© tu
Ġbud gÃ©
p se
Ġsu m
Ġmari ages
Ġcamp us
ĠstÃ©rÃ© otypes
Ġmil les
ĠgÃ©nÃ© tiquement
ĠdÃ©fini tivement
Ġsoci aliste
Ġprolong ement
Ġsurv ol
Ġsc and
tue uses
Ġcoeffic ients
Ġr on
Ġloc alitÃ©s
Ġsex uellement
te aux
Ġbo x
Ġo ral
ĠrÃ©g lÃ©s
Ġcor rid
Ġdis tances
Ġextraordin aires
Ġun es
Ġci o
Ġconsta tant
Ġexig i
ac adÃ©mie
or if
Ġsub jec
ac tuel
ĠdÃ©vou ement
ch ait
ĠdÃ©c or
Ġaff irment
Ġk ab
ĠÃ© oli
Ġus d
Ġrur aux
Ġcon venir
Ġrempla cÃ©s
orm Ã©ment
Ġacc Ã©lÃ©
Ġcapo ral
ud c
ĠÃ©quival ente
u Ã©s
ĠtÃ©lÃ©commun ication
Ġperturb ations
Ġfer mer
t bs
chÃ© tch
ge z
imparti alitÃ©
Ġautom ne
ĠexpÃ©riment al
ĠgÃ©nÃ©ral itÃ©s
Ġsouff rance
Ġviol Ã©
Ġad met
Ġdisp ers
Ġins truc
Ġl ord
Ġinter actif
Ġintro duites
Ġdivor ce
Ġvari ante
łâĸ łâĸ
Ġchanti er
Ġanglo phones
Ġiniti aux
Ġentre tenir
Ġ12 4
ag a
f umeurs
Ã ·
pp er
as semb
im matriculation
Ġpsych ologiques
ĠsÃ©journ er
publ ication
Ġjug ements
cr its
10 4
Ġdiffus Ã©s
Ġcoff re
Ġ19 69
Ġinter organisations
Ġconstitu erait
Ġcolon el
ap est
ĠpÃ©n alitÃ©
Ġ14 7
enrich issement
Å Ĥ
Ġf m
Ġthe ir
Ġfonctionn elles
ot t
Ġparticul aritÃ©s
Ġvic toire
Ġnotif ications
ne ws
Ġdevi endra
or tement
a trices
Ġ14 9
ĠdÃ©ro gations
Ġac adi
observ atoire
Ġtal ents
Ġc ut
for ces
Ġber ne
Ġretrouv ent
Ġinten sitÃ©
Ġeffectu ent
Ġk ur
rais onn
Ġmilli aire
Ġ19 50
ĠrÃ©g lÃ©
Ġach at
ĠmÃ©ta donnÃ©es
Ġser bes
Ġembal lages
Ã©valu ations
Ġaffec tant
11 1
Ã©qu ateur
Ġallou Ã©es
out an
ĠintÃ©g rant
Ġbru ts
Ġpier res
Ġarbitra ires
attÃ©n uer
ĠfÃ©c ond
Ġn csm
Ġentra ve
ĠÃ©n ormÃ©ment
Ġtrain ing
yl or
crip t
Ġ(- >
ĠrÃ© tic
Ġ3 60
Ġnum Ã©r
il and
Ġsol des
Ġins criptions
Ġconsul ting
Ġconven ues
Ġtard er
Ġved ette
Ġgla ci
Ã©m ies
ume ur
Ġvag ues
Ġ ompi
Ġsoudan ais
ti d
Ġma x
Ġdiss olution
Ġco v
Ġt chÃ©tch
la ble
Ġdisper sion
Ġdouan iers
3 60
Ġpar i
Ġw ay
ĠprÃ©s colaire
Ġincer titudes
p lo
ex ion
Ã¨ nement
Ġanth rop
4 00
Ġon ze
pr is
Ġconces sions
e re
app elle
Ġson ores
ct mr
Ġinten se
Ġ8 19
arch ives
Ġclima tisation
Ġimpos Ã©s
Ġa imer
Ġstructure l
ha w
Ġ13 6
Ġb in
Ġdistinc tif
m ir
Ġcour be
Ġg t
ab olition
Ġtac tique
Ġconvi endra
Ġbri an
Ġman quer
ing ue
Ġexcep tionnels
Ġfid ji
Ġse rez
Ġgre at
vi a
Ġemb ry
Ġrecueil li
Ã©ra ire
. /
ĠinterprÃ© ter
ter ies
Ġmeur tre
r ise
Ġneu tre
Ġchlor ure
la te
gl om
Ġrend ra
ĠdÃ©ploy Ã©
Ġrenfor cÃ©es
Ġchois ies
Ġt ob
Ġs d
Ġpays ages
y me
ĠprotÃ© ine
yclo pÃ©
c ence
Ġoff rira
ģ Ħ
if Ã¨re
bs ta
Ġlanc Ã©es
Ġving tiÃ¨me
e me
Ġprofessionn alisme
ĠmÃ©can iques
Ġpa quets
Ġpropor tions
Ġm unis
Ġtemp ore
Ġurg ente
Ġl entement
Ġfeu illet
Ġren f
% ,
ĠdÃ©lin qu
ich lor
Ġadop tent
Ġconfisc ation
utilis ateurs
Ġassis tÃ©e
ec k
Ġbou tique
Ġcontrefa Ã§on
ĠdÃ© troit
g on
Ġcomm ise
ĠnÃ©glige able
9 02
Ġe as
Ġdoug las
Ġmajor itaire
w art
in Ã©galitÃ©
Ġmal nutrition
Ġac ro
Ġbro ad
mal adie
Ġmagistra ture
ĠmÃ©tÃ©or ologique
Ġun ani
Ġind us
Ġamb igu
Ġinsta urÃ©
Ġh onneur
Ġma eci
Ġfacil itent
Ġag issent
Ġexp ortateur
associ ations
Ġmultip le
immer sion
w ards
ch t
Ġz e
Ġanti d
ar di
Ġn s
Ġconcern ait
en veloppe
Ġconvo quer
Ġfab rique
Ġappuy Ã©e
in iti
Ġdeven ues
immobil isations
mo a
ĠnÃ©goci Ã©
Ġconf Ã©r
Ġsouhait erait
Ġimpos ables
tic itÃ©
ĠprÃ©lev Ã©s
ĠprÃ©con ise
Ġm Ã©ri
Ġorganisation nelles
le tte
inc lu
Ġbov ins
pe aux
Ġmultip lication
ĠrÃ©sid ants
Ġvieilles se
Ġp ent
Ġ( +
Ġbr om
Ġvita mine
un der
Ġh ans
Ġse igne
entraÃ® ner
Ġira k
Ġ ____
Ġmet te
Ġadminis trer
intim idation
Ġpl ants
omÃ© trique
Ġtali ban
ud son
Ġoccup ation
fran Ã§
Ġretr ans
v era
ĠlÃ©g ers
Ġf ern
Ġrend ements
Ġbru tes
ill ant
Ġdou tes
Ġflo re
ĠÃ©ryth rÃ©e
Ġch aire
Ġagr and
Ġvie ille
tabl issement
Ġcamp bell
sa int
Ġbacc ala
autom obile
publ ic
q c
ur i
Ã© levait
Ġplu ie
Ġdispar u
Ġmagaz ines
ensi ble
ĠdÃ©mocra tisation
ĠdÃ©ont ologie
ig an
Ġalli ances
Ġcontex tes
Ġc ac
Ġtex tile
Ġlux e
o ises
Ġrejet te
Ġimpu table
ĠÃ¢ gÃ©e
land s
Ġtur c
ĠÃ©g aux
Ġirre cev
on udc
Ġfoot ball
o ks
Ġin appropri
ud a
Ã©ra dication
p y
co d
Ġdisp aritions
Ã©re mment
Ġrecons tru
Ġv ier
Ġdangere use
angle terre
Ġmes urÃ©es
aut onom
Ġutil itÃ©
Ġcro Ã®tre
tiss ent
Ġ _
intÃ© ressent
Ġcoordonn e
Ġfre e
ĠÃ£ atre
ĠÃ©tudi Ã©e
Ġiss u
Ġprivil Ã¨ge
Ġmine ures
ĠrÃ©du ites
ĠentraÃ® nant
Ġaccr us
ĠpostÃ©ri eure
pp es
tur Ã©s
Ġ14 5
ront er
Ġinter institu
Ġinter romp
Ġar tic
arn ing
n aires
Ã© puis
Ġquotidi ens
Ġch Ã¨ques
in ets
r f
Ġclass er
ĠrÃ©g lÃ©es
Ġvir tuel
Ġjus que
Ġimpliqu Ã©es
c onc
am Ã©lio
Ġr oss
Ġe valuation
ak a
Ġaffec te
Ġregroup ant
Ġvola ille
ĠrÃ©glement Ã©es
Ġg Ã©rÃ©es
Ġjus tement
habit ude
ĠcrÃ©di ble
observ ations
Ġramen er
Ġf raÃ®
Ġcompor tait
ĠmÃ©mo ires
Ġc ec
198 9
ins ule
Ġfau sse
ri es
ro w
Ġconven ablement
ff er
Ġuni form
c lÃ©s
ps a
co pe
accomp lir
Ã©m as
Ġride au
Ġro ches
Ġcontre r
ĠpÃ¢ tes
Ġple ins
Ġpul mon
Ġgrande ur
ĠÃ©lÃ©ment aire
ula teurs
Ġmultination ales
n ess
Ġheure use
4 16
and ais
ĠdÃ©pens er
Ġdispropor tionn
â ģĦ
Ġg n
Ġl isez
z one
Ġincap ables
Ġsort ant
Ġo ver
Ġad pic
Ġlim it
Ġav ail
ĠrÃ©jou is
ad olesc
ĠimmÃ©di ats
Ġb fc
Ġmil it
Ġdr hc
Ġin val
Ġb ig
Ġtu be
Ð¾ Ð
Ġpromo tions
ĠdÃ©termin ent
Ġintro duite
Ġbru ce
Ġca isses
Ġbiocarb urants
Ġin tent
Ġarch iv
Ġgab on
Ġguich et
Ġpour vo
aff irmative
Ġaffec tÃ©e
ĠboÃ® tes
Ġh ard
Ġgr is
p g
00 2
Ġ14 6
Ġcam Ã©ra
Ġbu ild
ĠfrÃ©qu entes
Ġman Åĵuvre
id Ã©s
Ġr oc
Ġentre ra
Ġdev rez
ĠÂ» ),
housias me
m u
ĠprÃ© dÃ©
Ġtransit oires
Ġregroup er
Ġ9 57
Ġparc elle
ĠexpÃ© ditions
Ġvendu es
Ġatti re
ĠÃ©mer g
Ġinc ulp
omp son
Ã© dification
Ġp om
Ġma tri
Ġblo cs
Ġprom esses
Ġn g
Ġpour rions
Ġa Ã©ron
Ġstric te
ĠapprÃ©ci Ã©
z en
ĠrÃ©f Ã¨re
Ġim min
ache minement
Ġcroy ances
Ġla o
Ã©ra teur
Ġcontre bande
ĠÃ©li gibles
Ġprair ie
Ġf org
n ia
Ġarri vÃ©s
Ġcour ts
Ġdistribu teur
Ġg il
Ġrevit alisation
rÃ©sid ents
Ġre vi
Ġcon se
ĠpÃ© di
Ġamer ica
ĠrÃ©gi es
l iste
Ġcel l
Ġpacif ic
Ġcop y
Ġtransmet tant
Ġexamin ant
Ġch urch
ĠflÃ© au
ath er
Ġbh outan
ĠrevÃª tement
Ġarri vent
Ġno tons
Ġsugg estion
ĠempÃª chÃ©
Ġco ok
ĠdÃ© tresse
Ġlim itant
Ġann uler
Ġrefroid issement
ĠmaÃ®tr iser
Ġlo b
Ġatte ignent
enti tÃ©s
Ġdesc end
Ġcollabor ent
k u
Ġsignal Ã©es
Ġtend ent
Ġpay ables
Ġmens uelle
Ġx ml
ĠspÃ©cif iÃ©s
ins pir
ĠrÃ©f Ã©rant
ĠtÃ©lÃ© com
Ġfed eral
Ġca outch
ils on
oxy d
ĠingÃ©nie urs
Ġconcurr entielle
Ġti me
Ġma ter
Ġconf irment
Ġdiploma tie
mes ures
Ġar th
ĠrÃ©mun Ã©rÃ©s
Ġno irs
Ġinterven us
Ġent rant
ĠinvitÃ© e
ent ure
ou tre
ta teurs
fa ite
Ã©n istan
........ ....
ĠtÃ©lÃ©ph ones
ĠdÃ©cou ler
Ġdestin ations
Ġjard ins
Ġaffec tent
ĠrÃ©pÃ© ter
Ġco tes
fond s
Ġefficient e
Ġli p
Ġanti mines
entre tenir
Ġrou ges
por tu
ĠinconvÃ©n ients
Ġsoulev Ã©s
ĠinterministÃ©ri el
Ġtest er
tri es
Ġaltern atives
Ġvis uelle
Ġambassade ur
Ġrad ar
is lam
Ġ24 0
Ġcor n
esti mer
Ġinflu er
Ġc ard
Ġch Ã¨que
a issance
Ġbud apest
ĠdÃ©rou lent
Ġhom olo
Ġg Ãª
ĠenquÃª teurs
ent er
Ġ }
is ait
lÃ¨ te
Ġgra m
Ġmor ue
Ġr mr
Ġpers Ã©cu
Ġ13 7
k ok
od Ã©
Ġquotidi ennement
co se
mont ant
ĠguÃ©r ison
i ement
ul ant
Ġ14 2
Ã¯ de
Ġmarsh all
ti t
Ġba illeurs
Ġinfec tion
Ġsusmentionn Ã©
Ġpostsecond aires
Ġemploy er
Ġvit ro
ĠaÃ©ro port
ĠrÃ©sol ue
Ġinterd ites
Ġle v
ĠgÃ© orgi
ĠrÃ© exa
tis te
Ġts un
w al
u ter
Ġphy to
ri gation
Ġform ateurs
yclopÃ© die
Ġrecev ra
Ġrecev ront
Ġintro du
e uses
ex tinction
Ġavant ageux
Ġch al
Ġ23 0
Ġtourn Ã©e
Ġsec rets
Ġ19 61
oh mi
Ġapport ant
Ġv on
Ġy a
Ġindique z
Ġannonc Ã©es
Ġre lan
gi ble
Ġbou che
Ġbaccala urÃ©at
Ġgr ille
Ġsubs aharienne
ĠintÃ¨g re
Ġvertic ale
ĠÃ©clair c
Ġaccueill ant
ĠpÃ©nitenti aires
Ġcra intes
inspec teur
30 6
Ġaccep tation
Ġpense z
ĠÃ© min
Ġtu yaux
Ġb ed
li eu
ĠdÃ©fa illance
l ises
Ġconsulta tive
ĠprÃ©sum Ã©
Ġal ban
inscri vent
Ġcauc ase
ĠthÃ©rapeu tique
e y
Ġpasse re
ĠprÃ©par Ã©e
Ġimp ortÃ©
Ġinjec tion
cip ation
me ta
im m
Ġfabri quÃ©
Ġnat ur
ĠidÃ© ale
Ġmul tis
Ġinv itons
Ġcatalyse ur
Ġhali eu
Ġsymposi um
ĠvÃ©tÃ©rin aire
Ġtelec om
ĠdÃ©fic its
Ġabord able
Ġfra u
ou pes
Ġturkm Ã©nistan
t Ãªte
Ġc pl
Ġso ph
Ġ16 5
Ġaffich Ã©s
Ġmultic ulture
Ġno tables
ĠbÃ©nÃ©f iques
am our
Ġassure z
Ġtouch Ã©e
Ġ20 4
Ġbass es
dro it
Ġconfidenti el
Ġsauvegard er
che v
ĠdÃ© raisonn
Ġcol onnes
Ġ( %)
Ġremp lie
er o
Ġconfron tÃ©
Ġb ap
Ġexplo ite
a tisf
s el
Ġconf iÃ©es
Ġre mises
Ġsubsidi aritÃ©
ĠdiscrÃ© tionnaire
Ġ13 4
Ġrel ance
Ġav eug
Ġban ff
Ġjohn son
Ġrigoure uses
ĠlÃ©g aux
r ane
Ġin aliÃ©n
ĠprÃ©t endre
ĠprÃ©ju gÃ©s
pa tibles
is ol
ĠgÃ©n Ã©rique
Ġba ham
Ġa Ã©ronef
Ġres titu
ĠdÃ©p lore
Ġadminis tre
Ġb og
Ġconstant es
Ġbr on
Ġbru te
atmosph Ã©rique
Ġspe cial
Ġbou c
Ġd its
Ġrepro du
Ġdiscrimin ations
Ġexp ortation
ĠrÃ©pa rer
op timis
l ux
Ġf ic
c opie
ĠprÃ©p ond
c ell
ten ait
gram me
ĠrÃ©serv Ã©e
Ġjan e
Ġtra jet
ot tes
Ġi on
pm d
Ġpal li
Ġsymp ath
Ġmul titude
Ġlou ise
Ġdi a
ann oncer
Ġproc la
Ġprogres sif
ur banis
ap d
Ġz inc
ori quement
g us
Ġd m
Ġann ulÃ©
si vitÃ©
embar go
Ġcontin us
Ġbre fs
ĠsÃ©rie uses
ĠillÃ©g alement
Ġvis itÃ©
min o
ana ises
effor cent
extr Ã©mitÃ©
Ġrepro duites
Ġdil ution
Ġign or
Ġconsta tation
Ġcoun try
Ġintr ins
e pa
Ġbien faits
Ġval ley
Ġbern ard
Ġcondi tionnement
os ci
Ġy oung
r Ã¨tement
end ettement
al ies
Ġsouhait ant
xx xx
Ġcontro vers
ĠdÃ©clar ent
Ġcontract ants
ĠprÃ©s omp
Ġfavoris Ã©
Ġsoulev Ã©e
Ġ14 1
ta blement
oma tiques
23 3
ĠdÃ©f auts
Ġexclu es
Ġeng ine
Ġenvo ie
Ã©n ager
ĠtÃ© u
Ġaccompagn er
analys es
Ġr d
Ġfor cÃ©e
Ġtent ent
ĠsÃ©par Ã©
Ġmacro Ã©conomique
ĠprÃ©dÃ© ces
Ġcalifor nie
ol is
ĠpÃ©n insule
sep t
Ġne pad
Ġpo in
Ġcond ens
Ġvis age
Ġpro vision
Ġcommand er
Ã© to
ch ron
Ġorphel ins
on Ã©s
ĠÃ©dif ices
spati ale
Ġglob e
Ġ22 5
ĠprÃ©judici ables
Ġmenac Ã©e
ur ba
ĠbÃ©nÃ©f ique
tr Ã©
Ġform Ã©e
Ġafrica ines
Ġence inte
Ġoeu fs
re l
ĠrÃ©gi ment
if i
Ġcompren aient
Ġinter vient
to tal
Ġatta chÃ©s
ĠgÃ©nÃ©ral isÃ©e
Ġtra ce
ĠrÃ©p rimer
Ġaim erait
Ġprof ite
Ġtra gÃ©
ira k
Ġcombin Ã©e
ĠdÃ©favoris Ã©es
hora ire
Ġsac s
Ġconserv Ã©
la teur
Ġsi Ã©g
Ġf Ã©ri
Ġjustif ient
Ġlumine use
Ġpanc anadi
in ki
Ġs et
Ġpeup lement
excÃ©d ant
Ġmicro s
ida e
ĠdÃ© dou
Ġdis ant
Ġmanifest er
Ġ13 1
obs ta
ĠmathÃ© matiques
Ġassoci ates
lin k
t z
Ġver se
ĠmÃ©ri di
Ġm our
Ġmo toc
Ġdirig Ã©es
d l
ĠintÃ©ress ante
ĠcaractÃ©ris Ã©
Ġexamin ent
ta te
inter opÃ©rabilitÃ©
ĠprivilÃ©gi Ã©
enregistre r
Ġrela x
Ã¯ que
ĠvulnÃ©ra ble
rapp orteur
Ġregard er
19 88
Ġpar ra
ĠÃ©c ologiquement
Ġb oy
ic ton
Ġavail able
els on
ĠdÃ©tru it
Ġmess agerie
Ġun it
Ġdynam isme
Ġavi aire
m Ã¨tre
p ass
mis ph
s elon
Ġen vois
ri ment
Ġpolon ais
Ġdev ise
pa ras
Ġais Ã©ment
ĠrÃ©g lage
Ġsyner gie
Ġtre at
ĠprÃ©sent ait
Ġloc alitÃ©
ĠÅĵu fs
Ġcc g
5 14
Ġcoordonn Ã©s
ĠenquÃª ter
Ġpare il
Ġauxili aire
Ġpan ora
Ġconv ictions
icu le
ĠintÃ©g ritÃ©
Ġachet Ã©s
Ġain c
appro fond
omÃ© triques
Ġv ign
Ġth ompson
Ġplafond s
Ġmin ier
Ġhe ad
il er
Ġpalestin iennes
Ġeffec tives
Ġveill ent
els inki
Ġprof itent
gr oupes
Ġrev u
ĠÃ©p reuve
ar o
le vel
uni formitÃ©
opp ose
Ġenvir onnements
Ġpriv ation
tk f
Ġautre fois
Ġadjo ints
un itar
ĠgÃ©n Ã©riques
Ġdo page
Ã©tal onnage
Ġnavig ateur
gu inÃ©e
ĠrÃ©cip ients
Ġrajus tements
Ġes pa
Ġliquid itÃ©s
Ġyou th
t ariats
Ġangle terre
Ġexport Ã©s
Ġcaoutch ouc
i me
Ġâĸ ł
tel s
ora t
Ġgratu its
ou zbÃ©kistan
Ġmo ratoire
Ġressortiss ant
Ġg ordon
off ici
Ġca che
Ġcy l
Ġal co
Ġnis ga
Ġmati Ã£
Ġqu Ãªte
3 00
Ġsenti ments
Ġappel ants
Ġno v
Ġbless ure
Ġsomme ts
Ġparent al
Ġreclas sif
Ġisola ts
Ġcul p
jus tice
Ġqualif iÃ©es
z abeth
Ġrempl issent
av al
Ġsouhaiter ais
Ġsyd ney
ĠcrÃ© ateurs
aur ont
cf m
eng en
ĠdÃ©bou cher
au trui
Ã©cou lement
is taient
Ġfau sses
Ġh ad
Ġrac istes
gr tkf
Ġexplo itant
ĠdÃ© duc
Ġd d
bl in
Ġmain c
Ġun itaire
Ġph ys
Ġincom patibles
ĠrÃ©capitula tif
app ara
Ġrela is
Ġc ents
ĠsÃ©v Ã¨res
Ġhum ide
n t
Ġra justement
Ġma h
Ġad obe
Ġquinqu ennal
Ġso ign
Ġpertur bation
cont r
ĠconsÃ©cu tives
ann uler
Ġportug ais
aff irm
c li
Ġpuis sions
mar ie
Ġf ish
app lic
Ġimp ortateur
Ġfaciliter a
Ġcont ester
Ġpoly val
Ġcomp t
Ġa a
Ġcorrec te
ĠaccÃ©lÃ© rÃ©
Ġobjec tion
Ġare a
Ġsou tenant
Ġprolong Ã©
Ġplas tiques
Ġdan ois
m ire
Ġsta biliser
Ġmul til
10 7
Ġrehau sser
Ġordonn er
v rer
ps n
qu atre
Ġ19 0
oir ies
Ġce i
Ġguy ana
Ġconf iÃ©e
Ġco erci
ĠÃ¢ ges
ĠcomplÃ©ment aritÃ©
Ġimpu tables
n iv
Ġassure ra
Ġpe ar
Ġdiv isÃ©
---------------- ----------------
Ġsu Ã©do
Ġde bian
ĠspÃ©ci alisation
Ġan orm
Ġimp rimÃ©
ĠdÃ©p loie
h el
Ġatt estation
Ġgroup ements
Ġsitu ent
Ġexplo itÃ©s
pos Ã©s
Ġcellu laires
oma tique
Ġtar dive
en cier
imp ossibilitÃ©
Ġorigin aire
vi al
ĠdÃ©pend ra
Ġpourcent ages
Ġfr ench
ĠprÃ©cau tions
Ġsom ali
ut h
inter face
Ġimp ression
Ġviol ent
ĠgÃ©n ome
ĠÃ©c la
inter dire
g as
u vre
Ġdiff Ã©remment
Ġ________________________________ ________________________________
tionn aires
Ġaccep tent
ĠintÃ©ress antes
Ġjum el
f ast
Ġform el
g Ã£
Ġir landais
oth o
Ġmig ratoires
para graphe
Ġassujet tie
ĠdÃ©couv rez
Ġh ur
Ġâ ī
autonom isation
Ġabs tentions
ban k
al am
par lement
Ġemp loie
Ġvari Ã©s
Ġprojec tion
enc yclopÃ©die
Ġren vois
Ġport rait
Ã©ryth rÃ©e
Ġdonn eur
tern itÃ©
Ġtra c
ĠsÃ» res
Ġpla tes
h f
mo bilisation
Ġcomp rimÃ©
Ġp ack
ky o
Ġremarqu ables
Ġ15 5
Ġindus try
program mes
fil m
ĠgÃ©ograph ie
Ġaccum ulÃ©
ta ils
Ġliv raisons
Ġnuisi bles
Ġrig ueur
Ġy ellow
Ġmass ac
Ġt pmd
val u
bo ok
ĠprÃ© d
euros ystÃ¨me
Ġcan afe
ĠÃ© ditions
Ġexig Ã©es
Ġba isser
Ġfor cÃ©s
y de
Ġk el
Ġforfait aire
ĠfrÃ©qu ents
par ties
Ġloc alement
ams terdam
Ġti rage
Ġtranspar entes
ph e
ass entiment
Ġstatu er
Ġcumula tifs
Ġtier ce
Ġpun ir
Ġmascul in
auto chton
Ġma ire
lo ber
Ġoff rons
ĠdÃ©cri vent
entraÃ® ne
Ġcomp lications
Ġab d
Ġhypo thÃ¨se
Ġrang s
h op
opp os
Ġma trice
Ġmarchand ise
Ġin tim
Ġdev riez
Ġpartis ans
intÃ©gra litÃ©
m ol
Ġc sa
Ġtra duits
all en
ĠirrÃ©g ularitÃ©s
Ġin ventions
ĠdÃ© tiennent
Ġprom esse
Ġparticip ative
tps gc
ĠrÃ©g ression
Ġmaxim ales
Ġasi atiques
Ġg Ã¨ne
Ġconc our
Ġtur que
Ġreb elles
Ġfen Ãªtres
Ġconstitu era
sn g
Ġbar riÃ¨re
ĠrÃ©vis Ã©s
Ġstu dio
Ġav iser
Ġ19 51
Ġmet h
Ġsal uer
Ġch anc
b p
Ġpar lent
Ġw ild
Ġrest ants
Ġqual ity
Ġfier tÃ©
Ġwor ks
Ġris quer
ĠprÃ©cis Ã©es
Ġeli zabeth
Ġoptimis er
Ġconv ocation
k el
am is
Ġpho ques
Ġfigur aient
Ġaffich es
Ġsa moa
Ġes qu
intÃ© resser
Ġfil tre
Ġperfectionn er
disciplin aires
Ġsi mon
Ġmin iÃ¨res
Ġcour tes
o ch
Ã£ o
rim Ã©s
Ġopp osÃ©
Ġeffectu ant
ĠrÃ©pert ori
Ġlicenci ement
Ġcro ss
anc y
ad ministre
Ġindi an
Ġcomm od
Ġsouff re
ĠrÃ©glement Ã©e
ĠintÃ©ress ants
Ġsurviv ants
ac y
op tions
Ġhui le
ĠrÃ©un issant
Ġappel ant
Ġfrau dule
ĠthÃ©rap ie
Ġincorpo rer
b ourg
Ġp uni
aut oris
Ġcap t
Ġtra cÃ©
k ov
Ġle p
ses sions
pro duction
int endance
Ġinu tiles
ĠsexospÃ©cif ique
Ġfondament alement
dis tribution
Ġappuy ons
ĠrÃ©pandu e
Ġconcer tÃ©es
Ġm ers
onom ique
Ġpass ager
Ġmacro Ã©conomiques
Ġat tes
Ġrenfor cÃ©s
Ġabord ables
Ġta ylor
Ġimp ortait
ĠÃ©c ar
ag u
Ġtox ique
Ġno x
Ġmatri moni
ou e
Ġs la
ĠrÃ© it
de d
ĠsÃ»re tÃ©s
Ġcan cÃ©
Ġinter f
Ġsch engen
ĠbÃ© bÃ©s
Ġexhaus tif
a ides
illet te
Ġb ol
ĠÃ©qu atori
d in
ĠdÃ©m Ã©nagement
Ġju li
Ġbaham as
n r
Ġdru g
acqu it
ĠtÃ©lÃ©char gement
as si
ĠÃ©g yp
Ġwe re
Ġpara ly
Ġexplo itÃ©
Ġh onorable
Ġex actes
Ġfr Ã¨re
ĠrÃ©solu ment
abil ity
Ġpa per
ĠÃ©g lises
ĠfranÃ§ aises
Ġchevau chement
Ġop en
ĠÃ©valu ateurs
l aud
Ġso ft
Ġdonn Ã£
Ġnotif ier
Ġfig ures
Ġin habit
ac s
Ġcircons tance
Ġs dd
ograph ies
mar s
ommun ications
Ġsenti ers
10 2
Ġh Ã¢
Ġfinanci al
grÃ© gation
Ġchamp ionn
Ġremerci ons
Ġminis try
ris que
ĠÃ© mise
Ġress enti
ĠÃ© mettre
Ġsup ra
ĠÃ©c o
en land
ĠtÃ©lÃ©s antÃ©
Ġamend es
Ġatta chÃ©e
ĠrÃ©du isent
Ġprovis ions
Ġ15 3
ill ard
Ġgra v
Ġmedic ine
Ã©v idence
u ts
ĠpÃ©n alitÃ©s
Ġ ours
Ġquantita tive
Ã¨ les
Ġassoci er
re mp
lo o
Ġcons tants
ĠpÃ© ti
Ġrest es
op age
Ġrent ables
Ġsectori elle
Ġdra peau
ĠdÃ©s Ã©qu
Ġst an
Ġcarb on
Ġdipl Ã´mes
Ġculp abilitÃ©
Ġesp oir
Ġconcurr entiels
Ġbo w
Ġalex ander
Ġconcent rÃ©
tis tes
ĠdÃ©c rets
appr ouv
Ġnoci fs
Ġdisp ense
inter ventions
ĠdÃ©tourn ement
Ġbre ak
Ġconstru its
Ã©vent ail
ĠexcÃ©dent aires
Ġfr us
Ġco ins
Ġdocument aires
Ġf os
Ġ19 66
Ġmerve ille
Ġed ward
ĠrÃ©g it
ici a
Ġexp liquent
Ġremp ortÃ©
Ġchois it
Ġfais ceau
Ġsur viennent
Ġautoma tiques
Ġcont ourn
Ġinvo quÃ©
Ġsyri en
Ġc ern
tin es
Ġal so
Ġrest aurer
ĠprÃ©occup ante
un ops
Ġ19 58
Ġseigne ur
Ã©lec trique
ra g
ili bres
Ġinh al
Ġcoutu mier
Ġprorog er
f am
Ġfonctionn ant
Ġjustif iant
Ġregret table
tis seur
Ġcontra diction
ail lement
Ġco ca
ĠprÃ©par Ã©es
Ġexp liquant
ĠrÃ©cipro que
Ġconfron tÃ©e
Ġreconna issons
ĠÃ ¥
b lo
atri ques
appel er
Ġab onnÃ©s
cr c
Ġattest ant
Ġo sc
oy ens
ĠrÃ©flex ions
Ġsuspendu e
app lications
Ġreti re
Ġr pp
Ġexclu sion
ĠÃ©mer gents
Ġnom me
Ġimp liquer
Ã» ts
ĠrÃ©alis tes
Ġoccup Ã©e
Ġchem ical
Ġsaf ety
Ġinc itations
Ġtyp ique
ens er
Ġand rÃ©
Ġil lim
Ġtechn icien
fr anc
Ġ> >
Ġdiss ua
ĠbÃ©nÃ©vo lat
Ġ13 9
Ġmark et
Ġarchitec tur
dis p
Ġmagn Ã©tique
ĠlÃ©gisla teur
Ġp oudre
Ġj amb
Ġhoriz ontal
Ġconsoli d
Ġcib lÃ©
Ġin vestiss
ne au
omm od
gi ons
Ġinnova trices
Ġpas sionn
Ġremar quÃ©
Ġinterpr Ã¨te
Ġd am
Ã©n avant
Ġres tÃ©
Ġlu min
Ġinterd Ã©pend
ĠÃ©ta y
Ġregis traire
os Ã©e
Ġhist oires
o ine
Ġflexi ble
Ġr an
ed monton
Ġfreder icton
ag ara
Ġmut ations
Ġlob by
or ps
espÃ© rance
Ġj un
Ġth under
? ?
Ġinnova teurs
Ġhoc key
resp ons
Ġapproxim ativement
Ġ Åĵ
Ġhu is
Ġmenac ent
Ġinterculture l
Ġrou le
ĠprÃ©sum Ã©s
Ġlibra ry
u aire
ta teur
imp rimer
Ġsm all
europÃ© ens
ou asie
Ġchau di
Ġfinal s
Ġau ss
Ġam Ã£
Ġfou le
Ġet re
Ġall Ã¨g
Ġtrou ble
Ġcons ent
Ġw ilson
la ration
ec o
ĠprÃ©sid entielle
ĠdÃ©lin quant
Ġcharlotte town
Ġven ue
Ġnutri ments
Ġexp oser
az iland
Ġdor Ã©navant
Ġw he
engag ements
Ġanc est
Ġar sen
Ġfond ent
Ġmod el
Ġrec lass
Ġquar antaine
b ord
Ġvi ens
Ġsent ence
i ait
Ġav Ã©rÃ©
Ġplan Ã©taire
ensi ve
Ġhorizont ales
anim ation
hÃ´ te
co de
i tin
Ġaur ons
ĠprÃ©cÃ©d Ã©
Ġcan nab
Ġfi Ã¨vre
Ġestim ait
Ġtransform Ã©
Ġles otho
Ã©quival ence
Ġprend ront
Ġti rent
Ġloc omo
Ġconvention nelles
Ġp ne
Ġprovo que
de ao
injec tion
Ġ14 3
Ġannonc Ã©e
10 3
Ġinter dits
Ġarri Ã©rÃ©s
Ġgen er
ĠbudgÃ© tisation
Ġf iers
Ġcomb ats
exp ortateur
Ġrenforcer a
Ġpou let
Ġ2 12
la bles
ĠrÃ©gÃ©n Ã©ration
Ġ ig
ĠapprÃ© cie
Ġinconn u
Ġsoumissionn aires
v s
Ġrespec tÃ©e
arri ver
Ġbar rage
Ġisol Ã©
inter pr
Ġappel Ã©es
Ġorganiz ation
Ġbr unswick
ĠmÃ©th yle
Ġchi ens
ĠrÃ© tabli
Ġcoutu mes
Ġol Ã©
Ġexpl icatives
ill Ã©e
ill Ã©s
Ġparta gÃ©es
Ġsenti er
ĠdÃ©fense ur
Ġandre w
acc ro
acc Ã©lÃ©ration
ulta ts
Ġment aux
Ġhalieu tiques
Ġpasser iformes
mas ter
Ġex acts
is m
ang ola
Ġque ue
Ġkg m
Ġplaid oyer
Ã© lÃ¨ves
Ġann oncer
ard o
16 8
ab at
lif e
ĠrÃ©crÃ© atives
10 6
Ġsurve y
Ġconsac rent
Ġprouv e
Ġlar ves
Ġdisciplin aire
ass ister
Ġprom is
Ġinstant an
Ġla mb
Ġgla ces
Ġco dification
p ti
ĠsÃ©par Ã©es
cher che
til lerie
Ã¨ ves
ĠrÃ©us sie
ĠrÃ©jou it
ĠÃ©clairc issements
ĠpÃ©nÃ© trer
Ġprom p
Ġinv est
Ġpar quet
Ġt uÃ©
ĠspÃ©cif iÃ©
or n
Ġrecommand Ã©s
co e
10 8
Ġv if
Ġb elles
pn ud
inter d
Ġjourn aliste
c omb
Ġpron once
Ã©m iques
Ġinterro gÃ©s
aver tissement
Ġab a
cons ul
ĠrÃ©serv ations
Ġanalys is
Ġlangu age
h rc
ou i
Ġserv eurs
ĠpÃ¢ te
Ġpo tas
Ġpar faite
em ment
Ġurg ents
s pec
Ã©th ylÃ¨ne
Ġfa q
50 6
ĠsÃ©n ateur
Ġle e
Ġartis an
Ġvis aient
Ġchir urg
Ġsurve ille
Ġanalys Ã©s
inter ne
Ġul tÃ©rieur
Ġand erson
ag Ã©
fa o
Ġparent ale
Ġse e
ca tÃ©gor
Ġsal uÃ©
Ġantimicro biens
ĠdÃ©c omp
Ġsou la
tis Ã©s
gi quement
ma x
Ġexc lut
Ġdiag ramme
Ġbook ing
o tique
Ġcorpo rations
Ġspecta culaire
Ġchasse urs
Ġboli v
Ġplan cher
ent entes
Ġinf lamm
Ġrenomm Ã©e
on age
ĠaffrÃ© tÃ©s
Ġe co
b it
lo sion
eff ond
chim iques
Ġcomp ression
app liqu
Ġimpos ent
Ġfonci Ã¨re
Ġque bec
Ġoffici eux
Ġbel grade
Ġcath olique
Ġl ente
Ġto kyo
ony mes
emprun t
Ġsol enn
Ġtre iziÃ¨me
Ã©p in
w ar
Ġ16 9
Ġm ys
Ġpar viennent
ph es
am itiÃ©
Ã©ra it
Ġass iste
Ġquar ts
Ġappar ente
ĠrÃ© cession
=-=- =-=-
Ġdo ig
Ġexp ir
ense ur
Ġbata illon
Ġpro ce
mi um
Ġo re
Ġ18 2
Ġsw aziland
ĠrÃ©g lÃ©e
Ġcos mÃ©
Ġac ad
ĠdÃ©bou chÃ©
Ġremon te
s ystÃ¨me
opp oser
Ġjustif icatives
Ġorganis ateurs
Ġc ite
o tro
ina me
Ġs ie
Ġcol onie
Ġtra ces
Ġann ulÃ©e
ĠÃ©labor ant
â Ī
Ġtomb e
ĠintÃ©ress ent
Ġv ents
Ġrapp ortÃ©
Ġpe ace
Ġremp lis
b ridge
til le
Ġsci an
Ġdeme ur
Ġs pÃ©
inter conn
Ãª tement
Ġrob us
Ġaffili Ã©es
Ġj on
Ġa le
Ġser ons
Ġsph Ã¨re
Ġa ci
Ġdispar ues
tu al
ĠmÃ©tabol isme
Ġdiagnos ti
Ġnour rir
k ara
ĠÃ©lecto raux
ar ies
Ġanti paras
rÃ©gion ale
Ġclau de
Ġsinc Ã¨rement
ĠvÃ©g Ã©tale
Ġcr yp
Ġenvis agent
Ġfrapp Ã©
Ġp ires
ĠcaractÃ©ris Ã©e
administre r
ir rigation
Ġ14 4
Ġdiss Ã©
ĠperÃ§ ues
Ġd ri
ensi bles
it ch
Ġcontempora ines
Ġh Ã©s
Ã©co les
Ġal titude
Ġvir gin
Ã© bauche
Ġtraum atis
Ġchirur gie
Ġafgh ans
Ġcopy right
Ġex ten
Ġen cl
az z
Ġnourr issons
Ġdispara Ã®tre
ad ul
Ġphosph ore
ĠrÃ©it Ã¨re
ic aux
Ġnomin ale
rÃ¨g lement
h aus
ĠdÃ©s ta
in ales
Ġlog o
Ġrespec tueux
Ġpor teurs
Ġsouver ain
Ġjac k
Ġaffirm ant
ĠcÃ¢ bles
hydro xy
Ġb orÃ©
ig es
Ġpse ud
Ġcol lÃ©gi
Ġdiffus Ã©e
Ġpolici Ã¨re
os oci
Ġchypri ote
Ġbre tton
ĠmaÃ® tres
pr Ã©h
ĠdÃ©cid ent
affirm ation
entif ication
Ġfal ls
Ġaver tissement
b au
Ġsit uer
Ġclo se
ĠrÃ©uss ites
ĠexcÃ©dent aire
d ir
in verse
4 03
Ġher b
Ġin co
ĠaccÃ©l Ã©rÃ©e
g t
Ġc ce
Ġreli er
Ġrep ortÃ©
Ġsurv ient
Ġabsor b
ĠÃ©lec tricitÃ©
ing ues
ĠÃ©lÃ©ment aires
Ġvou lus
ĠÃ© dic
Ġfa ti
Ġpa trick
Ġro ch
Ġinter amÃ©ricaine
Ġbang kok
empÃª che
a frica
it Ã´t
Ġ15 2
qu is
ĠbÃ© bÃ©
b arb
Ġcommand Ã©
ĠdÃ©sire ux
Ġconsomm er
ens uit
dÃ© tection
Ġpercep tions
Ġfi bre
ĠrÃ©glement Ã©s
Ġbel ize
ĠmÃ©tro polit
docu ments
j ard
ĠinterprÃ©tÃ© e
Ġquantita tives
p ra
Ġcap su
lÃ¨ vent
Ġv esti
su isse
g oci
gÃ©n Ã©ral
Ġsuspec ts
Ġwilli ams
Ġk now
Ġajus tement
Ġnav ale
Ġsuccurs ale
Ġt Ã£
Ġrenouv eau
umin eux
ra i
pop ulation
rÃ© di
ion e
intitu lÃ©
Ġdo wn
agr and
ĠÃ© bauche
Ġou zbÃ©kistan
Ġg onf
as pc
ĠdÃ©lim itation
Ġvec teurs
Ġpr ier
Ġenj eu
Ġcontinuer ons
Ġfamiliar iser
pu bli
Ã©ra ires
Ġbuff et
ĠprÃ© texte
Ġfil tres
accou chement
Ġvois in
Ġdiss oci
Ġf Ãªtes
Ġconsoli dÃ©
ĠpÃ©nÃ© tration
Ġba ign
Ġrassemb lement
Ġrecouv re
ĠÃ© lan
Ġsou d
Ġhistor y
ĠÃ©clair Ã©
inten sification
Ġdrain age
Ġsou da
Ġajou tÃ©es
ĠprÃ©sent aient
ĠrÃ©s ister
ap er
Ġdonn eurs
gu ent
Ġsurv ivre
Ġh an
ta ges
inter prÃ©
Ġattrib ue
Ġ20 13
Ġcontes tÃ©
onn ent
Ġj av
le vaient
Ġr r
im a
ĠtÃ©moign er
Ġescomp tÃ©es
Ġma rais
Ġcivil isation
Ġpap ouasie
Ġmal dives
Ġdid ac
n y
u ant
Ġno tice
ĠfÃ©lic itations
t our
y en
ag cs
Ġman quent
k et
we en
Ġle fp
Ġan alo
Ġprimordi ale
Ġre al
Ã©th anol
Ġauss itÃ´t
Ġrecons titution
im agerie
Ġvites ses
ĠdÃ© duit
lu ent
Ġlac une
Ġstim ulation
Ġdent aire
Ġc ct
Ġfa ille
ex amens
Ġres tait
Ġas h
Ġantid opage
Ġtan gibles
Ġtransf Ã©rÃ©es
a ies
ĠopÃ© rant
Ġjudici eux
sec teur
Ġquin ziÃ¨me
cad res
Ġrecouv rer
Ġassor tie
ĠÃ©tabli ra
Ġrelan cer
Ġh ou
Ġinsuffis ants
Ġgroup ement
Ġtrav erse
Ġav ois
Ġsalari Ã©
Ġtransnation ales
Ġ26 0
Ġrecons titu
Ġpla za
Ġsc p
Ġinjus te
ĠsÃ©rie use
vi i
ĠÃ©tendu es
13 0
k Ã©
in tr
11 2
Ġval ides
Ġespa Ã±
Ġtu yau
00 3
Ġkil o
ajou te
ĠchÃ¢ti ments
Ġactu ari
Ġ( ...)
ed s
tÃ© brÃ©s
ĠfrÃ©qu ente
Ġconf Ã©rer
ĠÃ©n ormes
o duc
ĠamÃ©nag ements
Ġent rÃ©s
prin cip
amÃ©rica ins
m id
Ã©ra le
Ġfact uration
Ġn ec
Ġvi ole
Ġcombin aisons
Ġres ource
Ġbomb ard
autochton es
Ġre dÃ©fin
eac ute
f ec
ĠthÃ©or iques
11 5
Ġcorpore l
Ġdou blÃ©
e ting
Ġboliv arienne
Ġproduc tif
Ġtourn ant
Ġprot Ã¨gent
Ġfranch ir
Ġfestiv als
Ġf ccc
Ġti mo
Ġaccro Ã®t
Ġnom bres
Ġthe re
ess or
Ġg ara
Ġab at
Ġtsun ami
ar us
Ġh ous
Ġa ac
Ġray on
ys tÃ©
Ġrenf erm
re en
ac sta
Ġgra ham
ĠmÃ©tÃ© o
Ġsubvention nement
Ġsol vants
Ġpas sion
ph p
Ġchar me
Ġcondam ner
Ġpar lons
ĠdÃ©c ol
Ġform ant
Ġauto bus
Ġann Ã£
ec tori
Ġlo yer
Ġcorrection nels
al Ã©na
al zheimer
ve d
Ã©c riture
ell y
Ġinform els
Ġanom alies
att estation
ĠprotÃ© geant
Ġg agne
ĠdÃ©m ant
Ġharmon isÃ©e
Ġparc elles
ĠpÃ©tro liÃ¨re
Ġni agara
Ġpro te
Ġeng lober
ĠdÃ©f end
Ġchristi an
Ġretra itÃ©s
Ġs ons
Ġtri ennal
Ġlib Ã©rÃ©
Ġconju g
Ġd ress
onn ier
in cu
Ġhypoth Ã©c
k ins
Ġr ol
for ment
Ġcoordonn atrice
ici lement
ĠdÃ©s Ã©quilibre
icu les
Ġbrig ade
Ġatlan tic
Ġaccus Ã©es
ĠdÃ©bu ts
Ġbibli ographie
Ġsur iname
Ġf ci
et own
Ġentend us
ĠcÃ©rÃ© b
affec ter
in vent
Ġop tiques
Ġrequ iÃ¨rent
Ġch utÃ©
ĠrÃ© Ã©valuation
Ġpartners hip
Ġrembours ables
ĠdÃ©velopp ent
Ã©c lair
ĠrÃ©per toires
ĠprÃ© cieuses
ler y
Ġconn aisse
Ġhabit ations
Ġaver tissements
Ġpa in
Ġdiff icilement
Ġ4 16
ĠirrÃ©gu liÃ¨re
Ġ15 1
ĠspÃ©cif icitÃ©
Ġbac k
Ġmens uels
Ġcam ion
Ġvie ws
Ġangu laire
Ġs ras
av ions
con vention
ĠallÃ©g uÃ©
Ġang el
ĠmÃ©di atique
hÃ©r itage
Ġle Ã§on
Ġjui fs
Ġbou l
Ġcy to
Ġcons ula
Ġparam Ã¨tre
s pÃ©ci
ay a
Ġench Ã¨res
op ar
Ġmen a
Ġillustr ent
ĠdÃ©p ou
Ġhy d
ĠdÃ©cis ive
Ġpu issants
interven ant
Ġat omes
Ġemb allage
Ġcon gel
Ġtran si
Ġf el
a id
Ġmal ade
Ġth an
Ġentre tient
Ġobjec tions
Ġmen tions
Ġto po
Ġinfec tÃ©es
Ġpros pÃ¨re
s tat
al lait
Ġmulti disciplinaire
Ã© met
Ġins atisf
Ġ5 50
th me
Ġcombin Ã©es
Ġtradu isent
ĠapprÃ©ci able
Ġtru chement
ich e
Â© ,
Ġinter ruption
Ġmor biditÃ©
Ġchois issent
Ġplaign ants
Ġma jo
ĠsÃ©n ateurs
Ġcoloni aux
Ġsub it
Ã©dif ice
tic o
ĠdÃ©s astre
Ġconver tir
Ġmor ris
Ġmonu ment
Ġb ent
Ġimp er
Ġcog ni
ĠdÃ©c om
Ġhar per
ign on
Ġris k
Ġdistribu Ã©e
Ġirrecev able
re p
Ġsch Ã©mas
Ġqualit ative
Ġen grais
Ġlou er
Ġf Ã©d
Ġtrouv Ã©e
Ġproduc tives
att le
sig n
Ġ" .
Ġge org
Ġfavoris era
ĠÃ©merg entes
Ġcannab is
Ġrob erts
Ġcontempora in
Ġt au
Ġmod Ã©rÃ©e
Ġdiver sifier
Ġfin ir
Ġextr Ã©mis
ĠhÃ©licopt Ã¨res
on tin
Ġquator ziÃ¨me
Ġcent aine
Ġb icycle
Ġencourage ons
Ġpoursuiv ie
ĠdÃ©tru its
Ġxix e
Ġcomp li
ĠprÃ©sum Ã©e
Ġb cn
tis Ã©e
Ġpor teur
ĠfranÃ§ ois
appliquer a
Ġextrajudici aires
Ġvir tuelle
ĠhiÃ©rarch ie
ĠÃ©vol ue
Ġpos taux
p el
Ġcontin ues
Ġtap is
Ġf ire
Ġpre vention
Ġann o
Ġaut oc
Ġestim Ã©s
Ġhonora bles
ĠprÃ©somp tion
o int
arch iv
Ġgol an
Ġconstruc teurs
Ġhospital iers
Ġcol ons
en j
exp ort
ven u
Ġvol ont
tr ons
Ġorganis ant
Ġenglob ent
opÃ© rateur
ur ne
Ġsouter raine
inter rog
ĠprÃ©oc cupe
Ġparrain age
Ġemb arc
Ġtransf Ã©rÃ©e
interd Ã©pendance
df o
Ġtv h
gi o
ur ations
Ġaffec tions
Ġcontrac tuelle
Ġcircul er
Ġdestin ataires
Ġv aisse
Ġsub ies
Ġgro enland
Ġpsych osoci
air s
Ġdu blin
ï ľ
ĠdÃ©nomm Ã©
ĠrÃ©seau tage
ĠrÃ©sid entiel
s is
Ã§ aient
Ġtransform ateurs
re e
ĠrÃ©s er
op timisation
Ġmod estes
Ġcontribuer ait
Ġgradu ellement
Ġnul lement
Ã§ Ãł
Ġreti rÃ©e
ĠdÃ© pose
as tique
Ġle on
Ġk al
mo dif
i tions
Ġsais ons
Ġvoyage ur
Ġrempl issage
end raient
Ġappuy Ã©s
Ġcons ervateur
Ġmain tenus
aff rÃ¨tement
accomp agne
Ġpubl ish
ĠtÃ©lÃ© dÃ©tection
lu cie
Ġam Ã©nagement
Ġrece vant
Ġso ja
Ġstruct urÃ©e
f Ã©dÃ©ration
Ġimpos ant
Ġ20 2
ĠprivilÃ©gi er
Ġanticip Ã©e
ĠgÃ©n omique
ĠspÃ©ci alitÃ©s
Ġu vre
Ġn Ã©e
Ġquo ta
Ġ ondes
Ġlm si
ĠrÃ© n
Ġemprun ts
Ġc cn
a q
ĠrÃ©col tes
Ġb ic
Ġrecher chÃ©
tron ique
da ta
re ux
Ã§ a
Ġdis sim
Ġn y
Ġvis uels
ĠreprÃ©s ailles
Ġre cueille
Ġi an
Ġpres ent
Ġlit tle
Ġd avis
ol y
Ġw i
g age
Ġvoud ra
Ġcar rÃ©
Ġinc ite
11 3
acqu itte
Ġqu Ã£
Åĵ urs
Ġje ff
Ġrempla Ã§ant
Ġvari Ã©
Ġco qu
Ġstructure lle
Ġch lore
Ġind onÃ©s
Ġgrec que
il o
Ġvoud rions
Ġaugment era
Ġsa vait
Ġmar quÃ©s
ĠcinÃ©mat ographique
Ġcomp arti
Ġmes urÃ©s
Ġnor dique
ĠinhÃ©r ents
Ġpipel ine
Ġwh o
hÃ©s itez
isi ble
ĠthÃ©rap ies
j apon
Ġexplo rateur
Ġen ra
ci m
ĠprÃ©c itÃ©
ĠspÃ©ci mens
Ġch ild
Ġcommand ants
Ġpal ier
s tr
ĠsecrÃ© tariats
os h
cl asse
v Ã©r
Ġk n
Ġpl onge
min ist
Ġvit ale
Ġ19 48
Ġplu ies
Ġmil ices
Ġt uer
Ġ14 8
Ġchamp ignons
ĠdÃ©lib Ã©rÃ©ment
Ġpro je
Ġre joint
Ġsignif ier
hydro carbures
Ġta ci
ĠdÃ©pos ants
Ġprovisoire ment
Ġformul Ã©s
Ġfiss iles
w all
Ġp ompe
Ġind icatif
eu t
Ġat outs
Ġgra ppes
Ġdesser vir
im s
Ġcorri gÃ©
Ø §
Ã©tabl it
Ġmerc en
Ġconstitu tifs
Ġx xe
Ã¤ n
is ti
Ġx ii
x ie
Î ¼
Ġalb um
mp e
Ġplas ma
ad dition
Ġcont estation
Ġcontes te
m ais
Ġmonn aies
Ġindiqu ait
Ã©puis ement
Ġinc arc
Ġsti gma
Ġr ip
Ġair ways
Ġchoc s
on Ã§ant
ro c
ĠrÃª ve
Ã ¦
Ġclarif ication
ĠdÃ©mant Ã¨lement
Ġsurven u
Ġ16 2
arb res
qa ida
Ġab rit
Ġab original
ĠÅĵuv rer
Ġcour ir
am erican
av es
Ġincont es
Ġproclam ation
Ġsau mons
Ġval ider
Î ¿
Ġapp e
Ġont ari
ĠtÃ©moign Ã©
ĠdÃ©lica te
Ġchanc el
Ġs pp
Ġtur b
Ġrec ouver
Ġfragment ation
ĠsÃ©ro posi
z ation
ĠsÃ©v Ã¨re
Ġste wart
ss on
inf irm
ĠexpÃ©riment ales
a que
Ġc ue
Ġdec ision
on istes
Ġb ann
v m
Ġaff ronter
Ġannonc Ã©s
Ġfiduci aire
Ġmon itor
Ġs che
Ġand orre
mo re
Ġins pire
Ġcess ent
Ġcas ino
Ġliv rÃ©
Ġg reg
Ġhabil itÃ©s
Ġsoumissionn aire
ta h
88 8
ec u
Ġdonn ait
Ġfour r
Ã©vent uelles
Ġpo ign
Ġcombin er
Ġra ss
Ġren onciation
ĠÃ©quip Ã©e
Ġti endront
Ġfeuille ts
Ġrais onnement
Ġsur g
Ã©p aisseur
Ġl ine
Ġmo indres
Ġimp Ã©ri
av ortement
Ġmi ra
Ġinv olon
ĠprÃ©occup ant
Ġ ie
Ġinter face
Ġis bn
Ġradio actives
Ã© i
ĠidÃ© alement
ĠsÃ©pa rer
Ġmarch Ã£
ĠdÃ©mocra ties
Ġal ent
Ġti mes
Ġl oup
Ġj Ã©s
ica ins
Ġamor tissement
Ġla m
Ġport o
Ġtransform Ã©s
ju in
ĠÃ©cou ter
ache ver
opath ie
Ġsupervise urs
Ġremor que
Ġbou tiques
Ġinsec tes
Ġapp auvr
Ġab out
Ġproduc tifs
Ġredev ance
Ġoppos Ã©s
Ġent Ã©r
Ġcher chant
Ġesc la
Ġ19 45
Ġvari Ã©es
ĠimmÃ©di ates
Ġhom olog
Ġdiscu te
m orial
Ġexplo itÃ©e
Ġconven ait
Ã©tudi ant
Ġgren ade
Ġr ce
Ġcul te
ows ki
ĠÃ©tro ites
ĠrÃ©cla mer
rou gh
Ġchar m
m iÃ¨re
Ġo il
Ġ3 20
m and
eu f
ac a
ille ur
Ġmin iers
Ġten ait
ĠÃ©qu itÃ©
Ġc cc
end rons
Ġestim ant
iss ables
Ġbuild ing
Ġtermin aux
ĠcaractÃ©r isation
g lob
11 4
ĠprÃ© lÃ¨vements
Ġconstru ite
ĠÃ©quival entes
ĠfrÃ©quent ation
Ġincorpor Ã©
Ġg ir
Ġcit ernes
ys te
Ġorigin ales
Ġet p
Ġser be
Ġsouff ert
Ġdoc teur
Ġfranch issement
Ġla ser
Ġpsych iat
198 7
Ġtrans cription
Ġradio ph
ĠdÃ©vers ements
Ġfra ppe
Ġparas ites
je uner
ĠcohÃ©r entes
ab ro
Ġidentif ie
i eux
ca f
Ġoffic ieuse
Ġmal traitance
ĠÃ©limin Ã©
onu sida
si an
Ġla urÃ©
Ġmon o
Ġhc dh
Ġ95 4
Ġorganisation nels
ĠquÃ©b Ã©co
he ad
ens is
Ġheure usement
ĠforcÃ© ment
Ġmach inerie
orta ient
Ġregroup Ã©s
Ġradiodiffus eurs
Ġentra vent
Ġimparti ale
jard ins
bil ity
Ġperd us
Ġreje tÃ©es
ĠÃ©lectr om
Ġexp resse
ma i
Ġp Ã¨s
ot te
f u
Ġin vention
ĠprocÃ©d ant
Ġcu ir
Ġap tes
Ġrece veur
Ġesc al
Ġconf is
Ġg au
imp liquent
ĠarrÃª tÃ©e
crÃ© dit
Ġvra ie
Ġdomin ique
ec d
Ġ28 0
Ġ ________
) ].
Ġg ue
rÃ© f
Ġminis ter
Ġpra g
u Ã©e
Ġciv ique
Ġtravail lons
ĠprÃ©visi bles
ĠtragÃ© die
anis h
Ġparticiper ont
Ġp end
Ġassu ment
Ġfruc tueuse
es b
ĠÃ©ta ges
Ġ6 50
Ġgu ise
Ġconcord ance
Ġcontradic toires
g ly
Ġm Ã©g
Ġalban ais
Ġpe intures
Ġlib Ã©rÃ©s
asc endance
Ġconfirm ant
um Ã©
Ġp ang
Ġle x
Ġn erv
ac tuelle
hist orique
Ġce a
Ġvi b
Ġ {\
Ġtoile ttes
Ã©h yde
barb uda
Ġfaculta tifs
Ġcalend riers
00 5
ĠmÃ© pris
mor ph
il lement
Ġj ones
Ġpau se
Ġdistin ctions
se in
Ġchang ent
ula teur
conf Ã©rence
immig rants
ur ale
el in
Ġentam er
Ġhar ris
Ġexprim ant
Ġinter sessions
c ic
ex on
Ġ19 65
ĠÃ© lÃ©
Ġce inture
Ġgard ant
Ã©m ocra
Ġconnec tivitÃ©
Ġmar quÃ©es
ĠÃ©quiv aut
arth rite
Ġlog istiques
Ġnat ural
Ġe mer
Ġpet ro
Ġc ti
dis ent
Ġreti rÃ©s
hor se
Ġag res
12 5
ĠÃ©tique tte
Ġdiver tissement
Ġgis ements
Ġgross es
Ġmit ch
Ġau dits
Ġplate forme
Ġfond ateur
ĠcomplÃ© tÃ©e
ie v
me ts
gie use
Ġjapon aise
Ġph are
Ġm yth
Ġag ressions
Ġapprofond ir
Ġsa p
Ġdis til
hÃ© licopt
Ġtra Ã®
vis tes
Ġpanne au
ĠfÃ©cond itÃ©
w ord
Ġan y
Ġdi ox
Ġriv es
Ġexplo itÃ©es
ĠintÃ©rim aires
Ġinter active
Ġmenac Ã©s
ĠrÃ©ag i
Ġconc it
Ġenvisag Ã©s
Ġcolon isation
Ġhebdomad aires
Ġchanti ers
Ġk ra
vi Äĩ
ĠsÃ©lection nez
l isation
Ġle gal
Ġplan ning
Ġher bes
interconn exion
ĠreprÃ©sent ative
Ġcour tiers
Ġ15 7
Ġap titude
enci ers
Ġauthen tique
ĠâĪ ļ
Ġdon ateur
Ã¯ tÃ©
Ġpouss er
Ã©s ique
Ġco existence
Ġsec s
Ġambassade urs
ĠultÃ©ri eurs
Ġsembler ait
w en
ois ement
ĠÃ©ch elles
Ġj enn
ici ences
Ġanalys tes
Ġequ ip
ĠimpÃ©ra tifs
Ġtur cs
Ġgol d
ĠreprÃ©sent atifs
Ġconfidenti elles
Ġes ta
Ġscol ar
e ducation
Ġmesur ables
Ġad dition
ĠcÃ©rÃ©mon ies
Ġharmon ie
ĠdÃ©vers ement
Ġ15 6
Ġfacil itÃ©s
Ġaucun ement
Ġpropor tionnelle
Ġcab inets
Ġinterro g
Ġper i
ell Ã©s
Ġment orat
ĠÃ©quival ant
Ġxvi i
Ã´ tre
Ġsta tus
Ġaffai bl
Ġu v
Ġtac tiques
Ġn ico
Ġmotiv Ã©
bro oke
Ġn t
comm er
Ġhabile tÃ©s
ou ch
Ġ19 63
Ġl ymp
Ġactu alisÃ©e
Ġcut an
ĠsecrÃ© taires
Ġappar u
Ġnova trice
Ġadolesc entes
h ome
Ġfa ir
Ġcommerci aliser
ĠprÃ©f Ã¨rent
Ġdispos Ã©e
Ġplais ance
Ġnav ette
Ġ< !
Ġurg entes
ĠdÃ©c oup
laud issements
tent ri
Ġrog ers
Ġ18 5
misph Ã¨re
Â» ),
Ġco tation
alcool isme
ĠminÃ©ra les
ĠapprÃ© h
Ġsk y
Ġrapp orter
Ġpolici Ã¨res
ĠÃ©ta yer
disp oni
Ġjou ets
ĠrÃ©g is
Ġfruc tueux
Ġvi andes
Ġinfec tÃ©s
Ã©n ormes
oth Ã©rapie
el y
ec os
Ġcr sng
Ġen veloppe
Ã©n ique
Ġju gent
og le
Ġsynth Ã©tiques
Ã©pan ouissement
Ġ% ;
Ġobli gÃ©s
Ġcontrac ter
iterran Ã©
Ġin organ
Ġt umeurs
ĠsubsÃ©qu entes
Ġg od
Ġexp ortÃ©es
as on
oto x
Ġmultip lier
ĠrÃ©cipiend aire
Ġg ig
d ad
ic ulture
Ġfigur ait
Ġm ts
Ġmi ke
Ġanti bi
Ġsuc cÃ©d
Ġsep tentri
ĠdÃ©linqu ance
Ã§ ants
Ġ16 8
an at
ĠconsÃ©cu tive
Ġcar net
Ġ16 4
ĠpÃ¢ tur
Ġincorpor Ã©es
ent endent
ins Ã©rer
util ise
Ġprof itÃ©
os tÃ©
Ġni k
Ġharmon isÃ©es
Ã©lÃ¨ ne
Ġalphab Ã©tique
Ġvisu aliser
w at
Ġbi Ã¨re
Ġlong itude
inc iter
w d
ol utions
con formitÃ©
Ġcontraign antes
Ġparcour ir
Ġtai wan
Ġv id
Ġinspir Ã©
land aises
ak i
Ġvac ance
w is
Ġci ment
ich t
y mÃ©
aff irmer
Ġtp ac
adh Ã©rer
Ġ3 25
ĠalÃ© atoire
ĠdÃ© ductions
ĠdÃ©rou lÃ©e
ĠvÃ©rif ie
Ġvigil ance
ĠlÃ©gisla ture
adress ant
ĠdÃ© d
ĠrÃ©g ular
Ġ23 5
Ġpeup lements
Ġconcern aient
Ġimm ense
e a
Ã©p uration
vi k
li ons
enne mi
Ġsub is
is ants
Ġfon cier
Ġsouhait ait
Ġbe ach
Ġretard er
ĠsexospÃ©ci fic
ï¿½ï¿½ ï¿½ï¿½
imp Ã´ts
Ġdu p
ign ait
Ġabandonn Ã©
ĠÃ¨ re
te ch
Ġpho que
es sion
Ġcra indre
ĠpÃ©riph Ã©riques
ta xe
rÃª te
] ]
Ġbarre au
Ġtax ation
Ġapp ellent
Ġabord Ã©e
in aire
Ġchoc ola
Ġcau tion
Ġc dc
Ġtransform ations
Ġman quÃ©
ĠÃ©clair Ã©es
Ġtr Ã´ne
ar tillerie
Ã©n er
europÃ© en
embar quement
Ġhen ry
Ġinten sive
Ġaff ron
Ġrempl issez
Ġste el
Ġaddi tifs
Ġac ous
Â» ).
for um
Ġplur alisme
Ġconfron tÃ©es
ou is
Ġform ellement
exp rim
ex ister
Ġsub al
Ġj oy
Ġcar n
explo rer
Ġplong Ã©e
Ġp g
pu bs
ici eux
Ġag re
osph Ã¨re
v c
raÃ® ch
m ac
Ġh us
Ġcha ir
Ġrep Ã¨re
ĠconsÃ©cu tifs
ose x
Ã©ri en
il Ã©
Ġconfor tables
ĠrÃ©sum er
Ġache ver
Ġinvesti gations
o eb
ar tic
Ġsupp lÃ©ments
Ġsalu ons
Ġpr int
graph es
Ġcens Ã©
Ġc b
enseign ants
Ġregroup Ã©es
exp lication
Ġunivers els
ĠarchÃ© ologiques
Ġhau sses
Ġappel ons
ĠsÃ©lection nÃ©
Ġpouss Ã©
Ġexclu sifs
ex istait
Ġ27 0
Ġaccompagn Ã©es
Ġinterven u
Ġrestric tives
Ġtun nel
Ġconf Ã©rÃ©s
Ġti rant
Ġdev rons
ĠamÃ©lior ent
................................ ................................
Ġconsig ner
Ġfla mb
ĠdÃ© tenue
ise urs
ĠrÃ©serv Ã©es
Ġad ri
Ġden is
Ġsent ent
jus qu
Ġant oni
Ġprom ette
Ġavois in
Ġoccup ante
f ound
ĠsÃ©lec tive
Ġexp lor
ch on
Ġassum Ã©
ĠpÃ©di at
Ġconcent rÃ©s
Ġk im
**** ****
ĠÃ©quiv oque
mex ique
it re
ie re
Ã©ro s
Ġlit res
l p
Ġanalys Ã©es
Ġma de
Ġer ic
ĠprÃ©judici able
Ġg ambie
Ġexemp tions
Ġtransport Ã©s
l ite
Ġp enn
enc la
Ġmont s
Ġca hier
Ġrab ais
om bre
exemp les
Ġsou nd
Ġsol u
Ġfile ts
Ġhiv ern
agro alimentaire
Ġp Ã¨res
Ġal laient
Ã© rera
Ġsus tain
Ġcontinu ant
Ġmas sif
lig ne
Ġaccomp l
Ġble ue
b in
Ġg Ã©rÃ©e
interrog atoire
* )
f acts
Ġmarque urs
ĠdÃ© loy
ne aux
Ġconven ue
ĠdÃ©g age
Ġp ente
Ġvol can
Ġbar ro
Ġestim Ã©es
Ã¡Ã¡Ã¡Ã¡ Ã¡Ã¡Ã¡Ã¡
pri x
appu ient
Ġchau de
Ã©vent ualitÃ©
Ġapporter a
Ġsouven irs
Ġconsul tÃ©es
Ġk at
Ġtribu taires
d Ã£
Ġs ter
ĠdÃ©sÃ©qu ilibres
Ġfra gile
Ġher itage
Ð ¹
ĠÃ©duca teurs
1 50
Ġ33 8
ĠsystÃ© mique
tionn er
od y
Ġcorpo ra
Ġcath er
" ;
Ġpr Ã©e
Ġfour chette
Ġdes jardins
Ġat tendue
20 2
ic om
ĠÃ©chÃ© ances
o tage
Ġimp orter
Ġ20 5
Î ¹
Ġcl Ã´t
Ġconv ivi
exer ce
Ġser ment
Ġcultiv Ã©es
Ġcar tou
Ġtri partite
Ġradi oc
Ġmens uelles
Ġal an
Ġ15 40
Ġcigare tte
al ors
Ġmon tÃ©
tant es
Ġom an
ten aient
ĠcancÃ© ro
Ġda tÃ©es
Ġtoxicom anies
Ġgardi ens
Ġmonopo le
Ġaltern atif
b ien
Ġ24 8
Ġbl ue
Ġfas c
Ġjou eur
ĠingrÃ©di ent
Ġim matric
Ġrembours able
Ġcontinent ale
m illi
Ġtr ousses
Ġconfidenti elle
ĠdÃ©raisonn able
Ġci me
Ġn b
Ã¨ nements
ĠprÃ© rog
Ġsm c
Ġexemp t
00 4
esc al
adjud ication
Ġon Ã©re
tiss ant
Ġabu sif
tis Ã©es
ch ines
Ġacc ou
ĠÃ©ch ouÃ©
Ġconclu es
Ġatte ignant
h p
Ġin Ã©d
Ġnorm alisÃ©
apprÃ© cier
thÃ¨ ques
Ġpros pection
Ġnomin al
Ġcyc lique
Ġconcit oyens
Ġwhite horse
Ġann an
Ġsatisfait es
a jus
Ġc Ã©li
Ġsi enne
ĠpÃ©tro liÃ¨res
h ai
artis tes
Ġ5 14
Ġpla ines
nom bre
Ġins urance
Ġsalari ales
ti g
era tive
Ġres tÃ©e
Ġad ju
Ġexp orter
Ġproportionn alitÃ©
h aÃ¯
to t
ĠsuÃ©do ise
ĠprÃ©f Ã©rÃ©
Ġarr ond
Ġfore ign
Ġentra ver
ĠamÃ©lio rera
hospit alisation
Ġmil itants
Ġvul gar
Ġse mis
Ġ16 1
Ġcom ite
' t
Ġappren ants
kn ife
Ġproduc tive
Ð »
Ġ16 6
Ġsouff rir
Ġau dition
wor ks
ajou tent
ĠchrÃ© tiens
Ġmoun tain
Ġsus an
Ġsangu ins
Ġrandonn Ã©e
Ġpoli tiquement
oun t
la di
al ignement
Ġrev Ãªtements
Ġbas ant
Ġcra int
ĠÃ©v ac
Ġcro chets
ty pes
Ġc iti
Ġf s
ĠÃ©v itant
ĠdÃ©pass ement
Ġassor tis
Ġv ern
ĠdÃ©bat tu
Ġsex iste
Ġdise ase
n at
Ġbe y
Ġextr ants
intim Ã©e
l ur
visi ble
Ġcompta bilisation
ĠdÃ©favora ble
4 18
lo se
Ġ16 7
dro its
incid ents
Ġexces sifs
Ġpar vi
Ġdemand era
Ġmanifest ent
ĠentraÃ® nera
ouv re
Ġat out
Ġbra ss
ol as
ge on
ĠÃ©met teurs
ĠexÃ©cu tÃ©e
li en
Ġatta quÃ©
ocy tes
sta te
Ġli er
olog iste
er reurs
Ġtrouv Ã©s
ĠrÃ©d ac
u g
ob enz
ĠcÃ´ tiers
entre p
h eur
ment aire
Ġ17 2
ig ramme
Ġ[ [
Ġess ence
12 3
Ġchrist oph
Ġinter parlement
ĠdÃ©f ec
f ul
Ġboute illes
pr Ã©c
ĠÃ© tions
ge age
Ġconf ond
Ġqu itte
Ġcollec ter
Ġarm Ã©n
Ġpr ice
ĠsÃ© grÃ©gation
ĠÃ ¶
ad ressent
av i
Ã©qu i
Ġger man
b ox
Ġexac er
Ġpalli atifs
Ġvers ant
Ġpom pes
Ġca deaux
Ġsoulign ons
ĠdÃ©gag Ã©
d ale
arm Ã©es
' "
du e
ars en
Ġfid Ã¨le
Ġfrag iles
Ġboulev ers
2 26
ĠprÃ©cis ent
Ġtransport ation
ann a
Ġaustrali en
poli tique
Ġcondu isant
Ġvire ment
h udson
d b
Ġcoh orte
ĠprÃª tes
Ġartis te
aci Ã³n
c ation
Ġam ateurs
ĠintÃ© resse
Ġrep res
Ġcommencer a
Ġven ait
Ġoctro yÃ©
Ġtrans missions
qu ation
Ġtravers er
pre mier
Ġsom e
Ġpromul gation
Ġd ents
li b
ĠpÃ¨s ent
h ard
Ġtra vel
Ġbrom ure
ĠspÃ©cif iÃ©es
Ġ( .
or f
ĠdÃ©f iciences
Ġamb iance
Ġ3 30
Ġven ise
Ġhydro graphique
ag Ã©s
Ġj ord
tis seurs
ĠdÃ©p lo
Ġpar oi
Ġb sif
Ġhandica ps
Ġsoci alement
Ġdiff use
Ġtri p
Ġmol lus
Ġsurveill ant
Ġintro duits
aliment aires
Ġpatrou illes
h aut
Ġamor cÃ©
Ġc aire
ta b
Ġeuros tat
Ġcomprend s
Ġpro ble
Ġmo ham
ĠcoÃ¯n cid
Ġb alis
exa min
Ã©lÃ¨ vent
Ġcontra ste
Ġmex ico
lo gie
Ġ15 8
Ġhon orer
ĠdÃ©c oration
gr r
Ġsimultan Ã©e
Ġdos age
Ġcorro sion
Â» ;
Ġprofond s
affich e
Ġimp liquÃ©
ĠrÃ©pon de
Ġco auteurs
Ġcar di
Ġvari ant
Ġtarif ication
Ġ15 4
Ġbet ween
Ġten eurs
Ġfacul tÃ©s
Ġdiversif iÃ©e
Ġp iv
Ġabs tention
Ġpatrou ille
Ã© rez
Ġsud bury
Ġw all
Ġenlev er
uel ph
Ġfile t
Ġ19 1
Ġde Ã§Ãł
Ġim mer
Ġcab ine
Ġconsta tÃ©es
Ġ27 5
Ġk er
Ġven deurs
ac cession
Ġattrib ution
exc lure
ĠinÃ©v itablement
ĠhÃ©r itage
1 19
Ġaff airs
Ġvie w
Ġdom ic
Ġsad c
Ġwal ter
Ġfin is
Ġobjec tives
ĠÃ©qu itablement
Ã©lec triques
as thme
Ġmontre al
b ack
and o
Ġth Ã¨se
Ã¢ me
da e
Ġcar re
15 7
Ġunila tÃ©rales
ĠdÃ©p endre
Ġsuperf ici
Ġf Ã£
Ġces ap
alphabÃ© tisme
Ġc z
Ġadh Ã©r
Ġcather ine
Ġ4 99
kh az
Ġportug aise
Ġag enda
Ġstatu Ã©
n c
Ġa xe
ĠreprÃ©sent atives
Ġver rou
Ġsurpr enant
Ġr ond
ct ures
Ġsh ow
Ġboulev ard
u al
ong a
oles cent
ĠmÃ©di oc
i as
bre ton
Ġratif iÃ©e
Ġe ar
Ġmultination ale
Ġaccus ation
Ġsuccessi ves
Ġfu sions
Ġsuccurs ales
Ġacro bat
Ġpulmon aire
ess ayer
Ġreconstru ire
Ġs bsta
Ġfin aux
ĠmolÃ©cu les
1 10
organis Ã©e
Ġ15 9
pro pri
Ġexemp tes
Ġmeth od
Ġpass era
Ġappu iera
Ġf leur
vi ations
ĠÃ©p ouse
Ã¢ tre
Ġcommuni quent
terr issage
Ġex otiques
Ġcondi tionnelles
Ġamp lif
ur ales
ĠmÃ©l ang
Ġnotif iÃ©
Ġti ges
Ã©ra teurs
Ġcre v
Ġfa me
os ur
Ġdouan ier
Ġtra fi
Ġp Ã©c
Ġmusic ales
Ġheur tent
Ġjo intes
ammoni ac
ĠsÃ©par Ã©e
Ġmemb rane
Ġray onnements
Ġt as
Ġcom ores
os te
Ġv Ã©lo
que ttes
cri min
Ġan tis
Ġcro issantes
Ġelec tron
ĠdÃ©clen chement
Ġk ara
Ġ" ,
ĠrÃ©glement Ã©
la w
20 8
Ġdra matiques
Ġna me
Ġmusic ale
Ġsen ateur
amor tissement
Ġr tm
Ġbat terie
ise ur
ĠmÃ© f
Ġprob antes
11 7
ĠentraÃ®ner ait
$ )
Ġrejet Ã©s
tor onto
Ġfacilit ateur
Ġf arm
Ġmas ter
Ġres semble
Ġobli ger
ĠmÃ©di a
Ġdispens Ã©e
Ġmass es
istan bul
ĠdÃ©pens Ã©
gu ant
Ġdat ant
Ġreli ant
Ġinterpr Ã©ta
ĠpÃªcher ies
Ġras semble
Ġrach at
ch s
aut oma
ĠcrÃ©di bles
Ã©qui pes
Ġchev eux
Ġpat entes
p an
Ġthe y
Ġ ern
Ġstra t
Ġconcer ts
Ġconvo quÃ©
Ġwork ing
Ġrw andais
Ġp Ã©rÃ©
investi gation
Ġp ale
ĠprÃ©sid entielles
14 0
Ġpond Ã©ration
Ġrecr ues
Ġc ust
Ġad mettre
Ġpublic itaire
Ġchromos omes
Ã µ
Ġcons istÃ©
Ġ18 1
ĠlittÃ©ra ires
p end
Ġmet tons
Ġindustri al
Ġcod age
Ġyellow knife
Ġexc el
ĠrÃ©sid ences
Ġcompens atoires
Ġsatisfais ants
or ie
Ġconna issons
Ġsollic itÃ©
Ġs rc
Ġt ony
Ġop er
u lique
Ġr ico
di g
Ġtranspar ents
Ã©valu Ã©es
a ches
al c
Ġan tiv
Ġconf Ã©rÃ©
ps c
ĠrÃ©pÃ© tÃ©es
exc lu
Ġab rite
Ġn age
al aska
auth entification
Ġresser rer
Ġti b
Ġbor dure
Ġcomp liqu
Ġas si
mar y
Ġriv age
Ġentre tenu
k land
Ġacqu iert
Ġsous cri
Ġerron Ã©e
Ġmou les
ĠÃ ¸
trava il
ĠrÃ©di gÃ©e
Ġconseil lÃ©
Ġc itÃ©es
Ġ19 64
Ġge orgi
Ġo rales
Ġam t
uss alam
t ter
ĠrÃ©p utÃ©s
Ġiraqui ens
Ġbrevet Ã©s
tra ite
11 6
Ġprud ente
Ġd resse
Ġdou bl
Ġviv aient
inspir ant
Ġtr omp
Ġx iii
l ors
Ġinter dictions
optimis er
Ġco dÃ©cision
entrepren eurs
Ġc g
Ġo g
Ġta Ã¯
mod al
ĠvÃ©rif icatrice
in ale
ou a
Ġgo ogle
Ġhabit uel
Ġbal tique
Ġtp g
ĠÃ©duca tive
z er
Ġpar vient
Ġconsta t
Ġvertic al
ol l
inter ruption
Ġmul tif
anim al
Ġinsuffis ances
Ġcommerci alisÃ©s
anis me
Ġbov ine
Ġac teur
Ġliv rÃ©s
Ġdis si
Ġappar tenance
198 6
Ġke y
ĠreflÃ© tant
if t
Ġpor tage
7 09
Ġcli quant
abou tir
un if
Ġarr estation
Ġvoy ons
accompagn er
ĠprÃ© dire
Ġamb iant
Ġch allen
Ġgard es
Ġtre ize
Ġrapatri Ã©s
p en
au di
Ġretour ne
Ġtermin Ã©s
Ġa lain
ĠdÃ©mar rer
Ġpatr icia
Ġbar s
ti mes
ol ir
Ġv Ã£
Ġfonctionn alitÃ©s
li tion
as ing
Ġser gent
ĠdÃ©cisionn els
Ġp omme
Ġfer aient
Ġpar u
Ġav Ã©rÃ©e
12 2
ĠdÃ©b ours
associ e
arma ceu
tic a
Ġsimplif iÃ©e
si um
Ġpasse z
Ġqualif ier
Ġbiom Ã©d
Ġver ra
Ġmig rantes
Ġadap tations
e ie
k ir
) ),
Ġ20 1
ĠmÃ©thod ologies
Ġpropag ande
assin at
ĠnÃ©goci ateur
Ġcorpore lles
found land
Ġgi ec
Ġintellig ente
il itÃ©
Ġcoun sell
ĠdÃ©cÃ©d Ã©
Ġrecens ements
Ġsages se
c us
Ġrep ouss
allait ement
comm and
ĠdÃ©favora bles
ra k
Ġcontempora ine
at tent
Ġra con
ĠÎ ²
Ġgang s
Ġar n
' ,
p me
a igu
ach ats
Ġlab our
ĠprivilÃ©gi Ã©e
emb lÃ©e
franc ais
Ġquit tent
ĠempÃª chant
Ġred Ã©p
Ġad mises
Ġannex Ã©
Ġa ge
Ġr entrer
Ġcomp teur
v ard
Ġr ole
if er
Ġfed eration
Ġbloc us
ent amer
to rale
ĠdÃ©li vre
Ġcertif iÃ©
Ġ ..
Ã©l as
Ġchev aux
Ġinaccep tables
Ġproc Ã¨dent
Ġacquit tÃ©
Ġbarba ra
Ġtrouv ez
amen er
ĠdÃ©par ts
Ġol d
Ġsignal Ã©e
Ġsant a
ĠrÃ©itÃ© rÃ©
Ġmultis ectori
ar te
imp u
Ġmargin alisation
k it
Ġet e
Ġle vel
Ġpan el
t end
com itÃ©s
Ġai me
Ġtribu taire
Ġnorm alisÃ©s
Ġcontinu ons
Ġcad mium
o ti
p ress
Ġdisc ontin
Ġsur venir
Ġmargin alisÃ©s
Åĵu f
ĠdÃ©f endu
Ġsal ons
ĠnÃ© ant
um age
Ġdonner ait
esc ence
Ġcoop Ã¨rent
Ġaudiovis uels
Ġrail way
ĠjÃ©s us
Ġcontra cep
Ġdar ussalam
ĠpÃ©rÃ© quation
000 1
Ġphili ppe
Ġles dites
ff e
Ġfac to
Ġvari antes
og en
ĠÎ ±
Ġlin ux
ab e
Ġdocument er
Ġsp Ã£
ĠdÃ©c on
Ġk ent
Ġcap teurs
Ġta illes
Ġ18 9
ĠcaractÃ©ris ent
Ġbal ay
Ġpous siÃ¨re
o va
Ġactu alisÃ©es
Ġbless Ã©
Ġconsister a
Ġcad ets
Ġhabit uelles
7 50
Ġblo g
un iques
tra c
ĠrÃ©pÃ© tition
g uide
Ġon ly
ĠexÃ©cu te
Ġbil inguisme
Ġobligatoire ment
Ġcari bou
Ġvo tent
Ġ16 3
Ġrelev Ã©es
Ġor b
Ġatten tif
om an
ant erie
Ġcom bl
Ġcaus ent
le a
Ġ19 57
x u
yÃ© th
Ġencourag Ã©e
Ġquator ze
Ġemp ris
ĠdÃ©nom in
pp s
Ġabu sive
ĠplÃ©n ier
Ġn elson
Ġj azz
Ġc Ã©der
Ġn ou
Ġv inc
Ġpoursuiv ant
Ġsubstitu er
Ġss na
ĠdÃ©velopp ant
aliÃ©n ation
Ã©c ologie
Ġgri mp
Ġend et
Ġferm Ã©e
Ġconsig nÃ©s
Ġass istants
Ġpartage ons
Ġrou ma
Ġnorm aux
au tiques
Ġpas sifs
ing er
Ġfl ash
Ġveill era
s yn
Ġmon ographie
Ġsectori el
Ġcours es
Ġimplic ite
ĠprÃ©fÃ©r entiel
Ġrecens Ã©s
Ġphysi quement
on el
Ġo ce
15 4
Ġproro gÃ©
Ġconserv Ã©es
au de
hou sie
Ġm Ã©s
Ġsatisfa ite
Ġpersonn ages
ĠmÃ©th ane
Ġ24 2
rÃ© tro
Ġam o
Ġpra gue
ĠrÃ© amÃ©nagement
ĠâĢĵ )
Ġalent ours
ole t
Ġtrans at
Ã©qu ation
Ġm Ã»
ĠdÃ©nom bre
Ġferm Ã©s
Ġd pt
Ġre ad
ten ez
Ġth rough
y mes
Ġ tin
ult ural
is si
ĠprÃ©jud ices
ĠprÃ©cis Ã©e
Ã» ment
Ġsign ataire
enseign ant
Ġx xx
Ġtran cher
a tÃ©
Ġ9 41
appro ches
Ġclass Ã©e
Ġhomolog uÃ©
rÃ©s ident
ĠcompÃ©ti tive
Ġaccessi bilitÃ©
Ġb ath
Ġh r
alis ent
Ġdispens Ã©
Ġkab oul
Ġcan on
ĠÃ©quip age
Ġhybri des
Ġglu cose
l ante
app oint
Ġtw o
Ġeur atom
Ġp ousse
Ġsher brooke
Ġsubs istent
Ġsurven ue
Ġp on
Ġouver tement
h en
Ġpes d
ĠcosmÃ© tiques
ti eux
la teurs
Ġenvah issantes
Ġf idÃ©
Ġass ise
Ġsal ut
ie f
Ġco ve
Ġincorpor Ã©s
ins ec
Ġcas es
w as
Ġt g
Ġactiv itÃ£
Ġfl uide
inter f
inqui Ã©tude
e du
Ġassoci ant
Ġvoy ez
Ġcamb ridge
Ġquasi ment
m ul
Ġw c
ĠhiÃ©rarch ique
Ġcommun Ã©ment
Ã©c us
Ġform Ã©es
Ġjustif iÃ©es
Ġen s
Ġunila tÃ©rale
Ġch ien
Ġeffec ts
Ġconsta tÃ©s
in tel
Ġfin alitÃ©
am Ã£
cs a
Ġtravail lait
Ġin verse
Ġtr ous
Ġeng endre
Ġpor table
en os
âĢ ľ
est riel
Ġinnov antes
Ġ2 13
Ġad am
Ġparra inÃ©
m Ã¨tres
Ġmotiv Ã©e
Ġchen al
Ġf irme
Ġna Ã®tre
Ġhongro is
Ġbar rages
Ġopport une
Ġdistribu Ã©es
Ġlaw rence
Ġincorpo re
d av
vin cent
Ġg Ã©rance
ad ines
Ġneutra litÃ©
Ġal arm
ĠsupplÃ© ants
si a
vi ii
phÃ©n yl
Ġmur ray
Ġccs n
Ġon line
ĠdÃ©c a
Ġ21 7
Ġanalys te
mar ins
Ġfort une
Ġcanc ers
Ġj ar
ĠdÃ©p endant
ĠcompÃ©ti tif
ta d
gr en
Ġha w
Ġtravail laient
ĠrÃ©di gÃ©s
Ġch aires
Ġrot terdam
u mine
Ġpo is
Ġwater loo
imp os
Ġtot alisant
Ġautoma tisÃ©
Ġac a
Ġ17 4
Ġcapit ales
Ġutilis era
Ġcomment er
ĠgÃ©n Ã©sique
Ġme as
Ġsen ateurs
Ġinter armÃ©es
and s
Ġgra isses
effond rement
bur n
Ġfa uniques
Ġfon taine
Ġrep Ã¨res
Ġadministr Ã©e
appropri ation
ai me
c ulture
Ġinform Ã©es
Ġoptim al
Ġki mber
Ġsuper be
Ġcoll ine
diff usion
Ġpul vÃ©r
ĠhabilitÃ© e
li ens
ĠdÃ©d omm
Ġn r
Ġg out
Ġc lois
Ġin tÃ£
Ġcontra int
ĠcommÃ©mo ration
Ġdes truc
Ġdu rer
Ġinc lusion
Ġrempl issant
Ġv eto
ĠÃ©p id
ĠÃ©labo rera
ge ons
) *
s ource
Ġcertif iÃ©s
ĠprÃ©d ateurs
ĠpÃ©c uni
g alement
Ġg ala
Ġbi ographie
Ġ17 3
Ġfrapp ant
Ġdal housie
4 50
Ġex change
Ġnew foundland
l m
Ġli minaire
Ġsus pect
ĠmÃ©di ateurs
al t
Ġrest Ã©s
assemb lage
Ġsous traire
Ġwat ch
ic itÃ©s
Ġch at
ite m
Ġnorm an
Ġ ................
ĠfÃ©lic itÃ©e
meu blement
Ġ3 000
oni a
ĠdÃ©b ute
hÃ© misphÃ¨re
Ġconsig nÃ©es
h Ã©ta
Ġg estes
Ġabandonn er
Ġfer ons
cor r
d Ã©mocra
Ġdon ald
issau ga
tÃ©lÃ© copie
Ġv el
ola f
ĠdÃ© mis
Ġmar t
Ġles dits
Ġar gen
Ġexclu ant
Ġ Ð³
ol ine
Ġinter jet
Ġth on
artis anat
Ġpar f
Ġt res
Ġtechn iquement
Ġactu alitÃ©s
Ġ um
Ġc cr
Ġt oma
Ġk an
Ġcoup lage
ĠprÃ©sid entiel
Ġpers istent
ir ent
Ã» te
Ġdiff er
ĠnÃ©goci ateurs
ĠespaÃ± ol
g os
Ġva in
Ġsyn chron
olog istes
Ġc no
Ġg uelph
br an
Ġfol low
Ġmas sives
ĠirrÃ© ver
ch u
Ġtu teur
Ġmollus ques
lo ts
Ġg att
Ġt ennis
ĠperÃ§ oivent
Ġbreak fast
h us
Ġrat tra
om iques
ch aient
Ġfidu cies
ĠÃ©oli enne
Ġsa una
Ġcar ences
interprÃ© ter
Ġtra duite
Ġimport ation
Ġb cp
Ġk in
Ġph p
Ġcontra ints
ĠcoÃ»te use
Ġiv an
Ã©r itÃ©
Ġpropos ait
Ġdig ital
ĠextrÃ©mis tes
Ġcons om
Ġcommer ces
Ġimparti al
Ġsou tenues
ĠcompÃ©ti tions
Ġrecev able
Ġh at
Ġsolid aire
ĠrÃ©per cu
gi bilitÃ©
Ġpol icier
Ġbo euf
Ġcorrid or
ĠrÃ©s istant
Ġrenfer ment
Ġgross esses
ĠdÃ©c al
Ġna z
Ġlamp es
a cides
om er
11 8
Ġpau lo
ĠperpÃ©tr Ã©s
Ġad hÃ©s
ĠdÃ©g us
ĠmÃ©c onn
Ġvola til
Ġenvo i
Ġconcep tuel
ĠindÃ©sira ble
Ġrefus Ã©e
Ġ17 7
ĠexcÃ©d er
a ven
Ġillus trer
Ġ4 25
Ġsupprim Ã©s
ri els
Ġk r
Ġfond ateurs
Ġbomb e
Ġpassere lle
Ġag ente
ph osph
Ġvou laient
Ġp d
Ġï Ĥ
qu aient
ad is
Ġcomp e
Ġ21 5
Ġassur Ã©es
au dio
he alth
Ġp ant
Ġen seigne
Ġeur op
Ġco prÃ©sidents
Ġcle an
onn aire
Ġtra Ã§
Ġ20 7
num Ã©ro
ĠprÃ©dÃ©ces seur
r wa
attrib uer
eme p
Ã© min
Ġr it
Ġlign Ã©es
gl ise
Ġmitch ell
Ġs Ã©r
la ou
Ġcons tructions
ma y
ĠdÃ©p li
Ġretra its
vid ence
sionn aires
Ġr entes
s ki
re au
Ġpsych ologie
Ġcan ola
Ġju an
ĠrÃ©un issent
Ġbrun Ã©i
b org
h ouse
ĠcomplÃ¨ tent
Ġenzy mes
Ġpne us
Ġa ig
ĠgÃ©n Ã©rÃ©
Ġh ull
Ġparven ue
applic abilitÃ©
omb e
20 5
ĠexÃ©cu toire
' ),
Ġsusc itent
x c
Ġtamp on
Ġdis ait
otro pes
20 7
Ġpren eur
ĠcaractÃ©ris Ã©s
Ġ19 62
Ġraf raÃ®ch
Ġh Ã©m
Ãª che
lÃ© on
Ġsou cieux
Ġaffili Ã©s
pa y
Ġtransfrontal iÃ¨res
emp ire
vo y
ĠdÃ©cour ager
ĠcoopÃ©ra tif
20 9
Ġtermin Ã©es
Ġsaur aient
Ġye ar
exp oser
dis trib
Ġchic ago
Ġconsta tÃ©e
Ġbloc age
Ġinterlocu teurs
Ġf ox
ap i
ĠprÃ©co ces
tra duit
Ġtransfrontal ier
Ġcardiovas culaires
tra ction
Ġpourvo i
Ġt cr
Ġbro ok
Ġsurpr ise
Ġfonctionn alitÃ©
Ġvit alitÃ©
ĠÃ©vo que
Ġc di
qu age
Ġtra its
Ġparticip era
direc tive
ĠvidÃ© oc
Ġsubal ter
Ġl g
emp rise
Ġ95 2
se a
Ġ13 25
Ġd orm
Ġconnex ions
mb h
wl rq
id is
Ġparticip ante
Ġsex ualitÃ©
Ã Ł
Ġce deao
eb a
Ġdiss uad
m ur
Ġvis uel
ches tre
Ġah med
Ġin admissi
Ġp ist
Ġvic tor
Ġdes dits
al and
Ġattra ctions
Ġ2 11
Ġchypri otes
7 80
Ġmar gare
Ġlu is
ĠbÃ©nÃ©ficier ont
Ð º
ĠÃ©labor ent
Ġrouge ole
Ġinvesti t
Ġ22 6
Ġenfre int
m Ã´
ĠcÃ©li ba
Ġcat alog
con tin
Ġsyndic ales
ĠdÃ©n oncer
al lem
ĠdÃ©char gement
Ġradic aux
w c
y lo
Ġinc itÃ©
Ġadmissi bilitÃ©
Ġorganis ent
Ġam Ã¨ne
cel lu
13 73
Ġdiff am
ing rÃ©di
Ġph ono
Ġexp iration
Ġinu ites
ĠmÃ©tal lique
Ã©lev er
Ġdiam ant
rom pu
ĠproblÃ© matiques
Ù Ħ
Ġco financement
Ġk anda
Ġautoris ent
Ġmus iciens
Ġconvers ation
kÃ© laou
ann i
exig ences
la ce
Ġmil ler
Ġ18 3
Ġtelec ommunications
Ã ½
Ġpen che
Ġf iÃ¨re
ul sions
Ġti endrait
Ġemploy ment
Ġsinc Ã¨res
Ġdur Ã©
as ter
Ġneu fs
Ġni dification
approfond ir
Ġins istant
Ġag ri
Ġtar dif
Ġimmun itaire
p ine
ĠfÃ©dÃ©ra tions
Ġq g
Ġrecueil lie
ari um
ĠsÃ© jours
Ġequ al
Ġgard erie
Ġtyp iques
Ġf lÃ¨
que tte
Ġen velopp
ĠcrÃ© diteurs
Ġfer rÃ©e
Ġgara ge
Ġn m
ca de
Ġattra y
Ġaffai bli
ĠjuvÃ©n ile
import ant
Ġko fi
Ġimmobil iÃ¨re
Ġnova teur
obsta cles
r one
Ġmar ti
po le
Ġpara dis
Ġr t
Ġdiv isÃ©e
Ġnu isent
atta chement
Ġrenferm ant
Ġrecour ant
Ġad jonction
Ġwh at
Ġg Ã¶
Ġsal omon
Ġatta quÃ©e
f ur
Ġgar y
ag ira
Ġapparent Ã©es
Ġesp oirs
ĠrÃ©cipro citÃ©
n ons
Ġclandes tine
op ic
ver tÃ©brÃ©s
Ġsh a
Ġcompens ateurs
Ġnomm Ã©es
Ġ17 1
ĠprÃ©par ent
Ġagro alimentaires
Ġinterro gÃ©
Ġflexi bles
ĠrÃ©sid entiels
Ã ¿
Ġfabri quÃ©es
pre miÃ¨re
ti ci
Ġa po
ra ted
Ġne iges
ĠcrÃ© ateur
20 3
inf anterie
ĠprÃ©ven tif
Ġinvo quer
it ri
Ġm cle
Ġtransp ortÃ©es
Ġbun des
Ġvier ges
Ġnouveau tÃ©
f isc
en i
in aux
Ġincit atifs
imp asse
Ġrig ide
zz i
Ġantoni o
Ġin oxyd
os Ã©s
Ġexp ire
ĠtÃ©lÃ©ph onie
Ġcou l
x v
ĠdÃ©p lor
os Ã©es
Ġto kÃ©laou
u ement
Ġf ord
ĠÃ© lÃ¨ve
Ġtransp lantation
ĠrÃ©mun Ã©rations
t endent
Ġinv itant
Ġextra cÃ´
Ġv enti
Ġcorpore lle
Ġsubstra t
Ġret ours
Ġf lÃ©ch
ĠdÃ©s avant
Ġ99 6
Ġsouten ons
onom iques
Ġsous crire
Ġaudiovis uelles
re li
Ġanti gua
Ġafgh ane
Ġsynth Ã©tique
Ġro ta
ĠmultilatÃ©ral isme
Ġreclass ement
e qu
ab andonn
Ġcour tage
Ġcoop Ã¨re
Ġstimul ant
Ġnu ages
Ġf an
Ġcy b
esp Ã£
Ġcr Ã¨me
Ġhom ogÃ¨ne
Ġle arning
Ġconsom ment
Ġt n
un t
incu bation
Ġtrafi quants
territ orial
ĠdÃ©com position
Ġh il
Ġda kar
Ġtier ces
Ġinterinstitu tionnel
Ġcent rÃ©e
inc om
Ġcoun tries
exerc ices
Ġnu mber
ĠÃ© ti
Ġsais onniers
Ġte am
Ġsort ent
k ers
Ġbe en
a ting
ĠhÃ© pa
Ġv endent
Ġutilis ons
ĠspÃ©cif icitÃ©s
ĠprÃ©f Ã¨re
Ġarth ur
Ġfon te
Ġchang es
Ġradio actifs
ĠnÃ©er landaise
Ġbi jou
v ide
publ ications
Ġle g
oc cident
Ġtravailler a
Ġ17 8
Ġcollo ques
ĠÅĵuv rant
Ġminer ai
Ġkanda har
ĠÃ©volu ent
ou tes
Ġcr c
Ġimp liquent
Ġtemp Ãªte
ĠdÃ©b its
Ġaffich Ã©e
Ġgib ral
di er
Ġag glom
y la
ĠhÃ© ber
Ġhydra ulique
g lu
Ġgal lery
Ġcon gÃ©n
al arme
Ġinterparlement aire
Ġ19 5
Ġinstal lÃ©e
ĠsexospÃ©cific itÃ©s
ro pri
am o
Ġmenac er
ĠsuggÃ© rer
Ġgal eries
ĠÃ©loign Ã©s
ĠdÃ©bu ter
ĠÃ©c ras
ber ges
ĠÃ©tudi ent
Ġl p
sc opie
v g
Ġsollic iteur
Ġinfluen cÃ©
ĠconcrÃ© tisation
enf ouissement
actu alisation
ce tte
ĠcompÃ©ti tifs
Ġsc it
Ġnutri tionnel
Ġr omp
ĠdÃ©b ord
Ġbran ch
Ġb ali
ĠprÃ©c aire
Ġcondu isent
ic ole
Ġal lusion
ĠcÃ©lÃ©b rations
Ġdispar us
Ġmor ceaux
ĠÃ©limin Ã©s
Î µ
Ã©th yl
Ġcre dit
inspire r
Ġsa ra
Ġnom encla
Ġ25 1
Ġgro w
vir us
Ġsulf ate
p aul
ĠprÃ©s ide
Ġtemp le
ip c
ĠlÃ©gi f
Ġmemb ran
Ġethn oculture
Ġpas sibles
Ġbil ans
ĠrÃ©vÃ© lÃ©e
Ġconten eur
Ġbo isson
Ġcont est
Ġhospital ier
Ġg mbh
12 4
Ġcompos Ã©es
att endent
Ġi de
Ġcap tures
ou d
ĠÃ©c laire
ci o
Ġg Ã¢
Ġexig era
Ġinconn ue
Ġd h
Ġmet ro
ĠnÃ©goci ables
ur u
Ġsu re
Ġprob abil
Ġp ch
Ġn app
ĠdÃ©ploy Ã©es
Ġt Ãªtes
Ġdra matique
Åĵu vrer
Ġno ires
Ġ20 3
Ġexc lue
om ie
Ġab ri
6 00
12 1
Ġmil an
ran chement
Ġconsenti r
Ġcommuni quant
ĠpÃ©nur ies
on Ã©
Ġm ec
pe z
ĠdÃ©mont rant
Ġdirect or
d ar
le ttes
ĠaÃ©ro portu
Ġsomme il
Ġlin ks
Ġpersonn alisÃ©
tra de
oure ux
Ġn h
Ġjohn s
an ase
yc ine
Ġcompt oir
Ã©vent uels
ĠexpÃ©riment Ã©s
Ġwol f
Ġf oli
oc ca
illet tes
Ġmc k
Ġform id
exon Ã©ration
Ġbr ise
tÃ©ra lement
Ġparent ales
urbanis ation
it o
Ġconf lic
Ġsor ti
at on
app laudissements
ĠrÃ©p Ã¨te
tenti eux
adolesc ence
ins piration
Ġa di
Ġinc roy
ĠdÃ© te
Ñ ĥ
Ġmenac Ã©
Ġconse ille
Ġqua tu
Ġattribu ts
Ġmiss issauga
minist Ã¨re
Ġ4 03
Ġimp utÃ©s
Ġterre ur
Ġponc tuelles
Ġe e
ve y
Ġfre ins
Ġsymb ol
Ġt em
ĠpossÃ©d ait
Ġcis r
Ġsoy ons
arti er
Ġexamin ons
Ġinutil isÃ©
Ġache vÃ©s
Ġb ond
Ġse iziÃ¨me
Ġ0 50
Ġ23 4
Ġpotas sium
p ac
ĠgÃ© o
Ġlin k
as simil
ĠrÃ© vo
ĠtchÃ©tch Ã©nie
ĠpÃ©r enn
Ġref onte
Ġsh aw
ĠrelÃ¢ che
Ġs bi
Ġpes ant
une ce
ĠcoÃ»te uses
Ġl iter
Ġlatin o
Ġmotoc y
Ï ģ
Ġat las
exp rime
g p
m ins
Ġtran ches
ĠdÃ©cern Ã©
Ġex ag
Ġment ales
ĠdÃ©terminer a
id ine
Ġma as
ĠopÃ© rer
Ġmutil ations
Ġ19 30
ĠquatriÃ¨me ment
Ġqualit atives
y ro
ma tÃ©ri
Ġcor on
Ġradic al
" ).
Ġco dif
Ġphy tos
Ġcommun iste
Ġtrib al
e le
Ġsou lÃ¨vent
acc orde
Ġadministr ante
ĠaÃ©ron autique
/ .
Ġgas tro
Ġsou cieuse
ĠprÃ©con isÃ©
Ġendet tÃ©s
univers alitÃ©
2 13
Ġcondam nÃ©es
Ġgardi en
v ale
i j
Ġin to
Ġz u
Ġs ables
Ġconsta tons
excell ent
Ġfrancis co
dÃ© jeuner
Ġaffirm ation
Ġzo om
Ġsign alement
Ġvisite ur
ĠrÃ©pÃ© ti
Ġcon g
Ġexp eri
Ġpneu matiques
Ġentra ves
Ġunani me
Ġminu tie
Ġap te
Ġcontes tÃ©e
Ġp ig
Ġt sa
Ġb p
Ġ19 2
Ġfi eld
Ġanim Ã©
Ġp li
Ġcommand ite
Ġpens Ã©
Ġ87 40
Ġnit rate
Ġtun nels
l ington
Ġprog resse
Ġbit umineux
ĠÃ©c rans
Ġfrom age
bl anc
Ġconfirm Ã©s
ta il
Ġliv rent
ĠcÃ©rÃ© al
Ġnetto yer
Ã©p idÃ©mi
ĠprÃ©visi onn
k k
Ġimp ati
Ġnu its
Ġ4 30
ĠmÃ©di an
avoc ats
Ġapparent Ã©s
b ic
harmon ie
Ġmercen aires
Ġ ....
ck er
Ġconten aient
Ġrigoure usement
pr st
Ã¯ ques
Ġcorre ct
un rwa
Ġinter valle
Ġobs ervateur
og Ã©n
ĠdÃ©bar ra
Ġconcer tÃ©s
igne z
Ġstatis tics
Ġ3 67
Ġna tive
Ġcon ti
s f
acc o
Ġrest eront
Ġw el
ant enne
Ġexpul s
ĠtÃ©lÃ©c opies
Ġmini me
Ġaudiovis uel
lig ht
q v
Ġe le
to is
Ġamb ass
Ġdys fonction
f ia
Ġfra me
Ġchevau chements
Ġdiff Ã©rer
Ġstatu e
expÃ©ri mentation
Ġ17 9
ss Ã©
Ġbenz Ã¨ne
Ġla v
Ġfu ites
ĠsiÃ©g er
b d
Ġar tÃ©ri
effec tifs
ing Ã©nie
Ġle vÃ©s
Ã¨ ler
Ġtoxicom anes
Ġs ale
Ġvo ile
Ġtur ques
Ġrog er
Ġcon tentieux
Ġdan u
Ġvoc ab
ic ist
pro pos
ica ce
Ġcarg aison
Ġcontent er
Ġs l
Ġchamp ion
enci a
Ġpsych otropes
Ġham as
Ġpers iste
Ġmin ce
Ġprof itez
ĠrÃ©comp ense
ĠrÃ©p res
Ġh ope
ĠprÃ©occup ent
oubli ez
Ġindire ct
au tes
00 00
Ġrup ert
Ġparti elles
Ġk on
Ġincor rec
Ġ30 1
Ġconfor ment
Ġpatrimoni aux
Ġb lu
int on
Ġsymb olique
ar is
Ã©ta te
Ġet h
Ġtra gique
Ġcult ural
Ġbarro so
Ġprop erty
Ġcit ons
v ons
Ġre viennent
Ã©r ante
Ġass ises
Ġquatu or
Ġstatis tiquement
indi quÃ©
ĠdiffÃ©renci ation
Ġtron Ã§on
Ġdo ive
Ġinf lation
Ġcyc lo
r r
ĠconsidÃ©ra it
Ġcarol ine
Ġper mise
Ġti ge
( )
e tats
Ġinf lue
Ġlu c
Ġl ist
Ġass ist
gie uses
Ġposi tionnement
ha med
Ġla ver
Ġvita mines
ĠÃ©pidÃ©mi ologiques
Ġpou ces
Ġatte ind
Ġrappel ons
Ġaqu aculture
interro ger
Ġgibral tar
ill Ã©es
Ġnouveau tÃ©s
Ġcons ervent
ĠprÃ©sent ons
onu clÃ©
23 5
Ġpromul guÃ©
Ġparaly mp
Ġaccomp agne
Ġentrepr end
Ġordonn e
et z
or b
Ġam s
ne e
ami ante
Ġsper me
ĠÃ©quatori ale
Ġcontro verse
Ġcounsell ing
Ġacc Ã©d
Ġ20 8
Åĵ il
ĠimprÃ© vues
amen de
Ġ6 04
ĠrÃ©alis able
Ġproven aient
ĠminÃ©ra le
ĠallÃ¨g ue
ill ent
ĠprÃ©v aut
ĠsystÃ© miques
Ġestima ient
ib id
Ġno ct
loy d
Ġmand ataires
Ġidentif iÃ©e
Ġ99 7
ĠexpÃ©riment ale
Ġsurviv ant
ĠtraÃ§ abilitÃ©
ĠentraÃ®ne urs
Ġap atri
Ġla p
Ġfin landais
ĠpiÃ© geage
a ter
âĢĶâĢĶ âĢĶâĢĶ
Ġretrans mission
Ġtraumatis mes
Ġda w
ĠrÃ©di gÃ©es
Ġving taine
ĠthÃ©or ies
Ġinoxyd able
ort es
opp osent
Ġmatern el
ĠinaliÃ©n ables
ra p
li on
Ġsignal ent
neu f
Ġde uts
Ġg Ã¨rent
ĠrÃ©sul tÃ©
Ġpor cs
Ġbord en
Ġrembours Ã©s
Ġhydro graphiques
Ġsubstitu ts
au se
Ġse v
Ġme eting
Ã©ta bli
explo sion
Ġpren ait
ĠagrÃ© ment
Ġpolym Ã¨res
ĠÃ©tudi antes
Ġphytos an
Ġhybri de
Ġmonitor ing
Ġa que
pp i
end o
Ġtrans forme
cont rats
ĠcommÃ©mora tive
am t
av Ã¨nement
Ġexplo ration
Ġrac ine
en cÃ©
Ġo rateur
appel lation
Ġambi ante
Ġe mail
Ġr ta
import ante
ĠdÃ©mocra tes
dÃ© cembre
Ġhoriz ons
ĠprÃ©lev Ã©
12 8
Ġcoup er
Ġin validitÃ©
Ġinc ar
Ġdom ination
Ġplu vi
Ġest oni
Ġpresti ge
Ġdi ane
Ġiv oir
Ġtra ductions
ai i
ĠspÃ©cif iÃ©e
Ġv ill
Ġmet tait
Ġr p
Ġest h
Ġtour ne
Ġrestric tive
ĠrÃ©ser vistes
p il
Ġm n
Ġhabit ent
2 10
si Ã¨ge
pri vÃ©
va po
Ġcour tier
chlor o
Ġk enne
Ġ18 8
Ġengine ering
Ġm Ãª
ĠpÃ©ti tions
Ġmus cles
Ġtox ines
Ġconsister ait
Ġadministr Ã©es
ĠrÃ©ci dive
Ġaca dem
Ġref let
au te
ĠprÃ©c Ã¨dent
list text
Ġd b
in Ã©s
enn aux
aus si
Ġc enti
Ġpoli ticiens
Ġpoly g
i op
Ġattendu es
Ġpa ient
po t
h ec
ĠcrÃ© d
offici ers
Å Ł
Ġc Ã©ra
an alphabÃ©tisme
Ġpa ires
ĠgÃ©n Ã¨re
Ġdeme urant
Ġcroy ance
Ġpro ies
Ġchans ons
ĠexcÃ©d ents
pr ises
Ã¶ r
ĠtÃ©lÃ© v
Ġimp osition
in ond
13 5
Ġr m
Ġcomp as
Ġcertif iÃ©e
Ġvigoure usement
Ġpang ouvernement
Ġp ile
Ġenseign er
ĠmÃ©n ager
Ġempre intes
oeu vres
it ante
op las
Ġk ins
Ġtrouv ons
mar chÃ©s
Ġ23 3
ĠdÃ©ri vÃ©
ĠÃ©cou lÃ©
ĠdÃ©dou an
om Ã¨res
ĠaccrÃ©d itÃ©s
rÃ©tro vi
Ġin sig
is ons
Ġaliment er
ĠmÃ©thod ologiques
Ġ20 9
el li
Ġlit h
Ġm ousse
Ġn ui
Ġ________________________________ ________________
Ġw ould
Ġcompar Ã©s
ĠlaurÃ© ats
Î ½
ĠrÃ©p ara
en grais
Ġ22 2
ÃŃ n
pos te
Ġbour siers
Ġasc enseur
me mbres
Ġ3 10
Ġfum ier
Ġf Ã¼r
Ġassor ties
Ġv Åĵ
Ġfin ul
Ġs li
tin c
Ġbu enos
Ġj er
Ġk w
Ġste ve
Ġco que
Ġfrontal iÃ¨res
Ġraccord ement
Ġk lu
od o
Ġprob ables
Ġrespec tif
ment aires
Ġg m
ac cess
Ġliv e
27 0
Ġpro ie
Ġsubstanti elles
- [
i eld
Ġur ban
ĠgÃ© os
j ur
v eu
Ġav ise
Ġw ifi
id d
Ġchris tine
g ri
Ġprati quÃ©e
Ġ17 6
Ġoctro i
Ġcari b
Ġmis Ã¨re
Ġquantif ier
19 73
Ġporter ont
expÃ© diteur
Ġs tel
ĠÃ©num Ã¨re
ĠconfÃ©r enciers
Ġmon ographies
Ġnorm alisÃ©es
ĠvÅĵ ux
Ġord er
ĠrÃ©s iliation
gÃ©n Ã©ra
Ġdomic ili
f luor
Ġdonn ez
Ġas pir
Ġshar on
ĠindÃ© fin
Ġd ressÃ©
Ġhon or
Ġ7 80
Ġes tiv
mo ire
jac entes
Ġke vin
provin ciale
Ġcontrac tÃ©es
efforcer a
Ġad mise
Ġjudic ieuse
Ġmargare t
di os
ĠsÃ©lection nÃ©es
Ġ25 6
ĠinÃ©v itable
Ã© ti
Ġflagr ante
Ġ3 40
t min
Ġca deau
Ġexamin ateurs
Ġs z
te ts
Ġstatu taire
Ġchaleure ux
an agan
Ġges te
Ġn il
Ã©ri enne
accep te
ĠÃ©cos se
Ġnex t
d ri
ke d
Ġcompara tif
Ġinsuffis ance
Ġ18 4
Ġay ons
Ġpers istante
23 7
Ġmex icain
Ġsty les
Ġv Ãªtement
Ġconstitu tionnels
resse urs
Ġtes ta
Ġnerv eux
Ã© lu
Ġin tac
Ġtra jec
inter romp
Ġconf iÃ©s
Ġc ites
ann on
Ã©mis me
Ġv s
Ġcollec tÃ©es
Ġann a
25 5
Ġsembla ient
Ġin certitude
Ġhu gh
Ġfid Ã¨les
Ġroche uses
Ġjas per
Ġgas tr
Ġp ec
le dge
Ġcoun ty
Ġex cursions
Ġsuiv ez
Ã©met teur
Ġcu b
du es
Ġad vis
Ġmanufactur ier
Ġsec r
Ġk le
en rÃ´
Ġs now
Ġmain tenues
Ġpertur ber
Ġpla f
Ġatta quer
Ġom ission
Ġb au
Ġdistrib utions
Ġarr estations
Ġsuiv ra
Ġconstruc tives
ĠdÃ©m ission
Ġexc Ã¨s
bel gique
Ġchocola t
Ġle wis
ra z
Ġta mb
Ġ Ę
ile o
Ġ25 5
Ġstimul ants
Ġmain tiennent
Ġlib ye
Ġsu z
Ġvit ae
Ġdistor sions
18 0
Ã©ra ient
ĠlibÃ©ra ux
Ġtrouv Ã©es
Ġbat teries
Ġisol Ã©e
Ġvide o
Ġcontraign ants
imprimer ie
Ġprotection n
Ġsh ang
Ġfil iÃ¨re
Ġgra cieux
Ã©p oux
Ġ23 6
Ġencourag era
Ġinterculture lle
omb rables
Ġh ach
Ġbiblio th
Ġcompli ments
Ġar te
ĠpÃ©tro lier
Ġcoca Ã¯ne
Ġpol ices
Ġrou e
Ġinformatis Ã©
Ġanti cipÃ©
Ġarri vants
ĠintÃ©gra litÃ©
Ġsupprim Ã©e
at terrissage
av ancer
Ġind Ã©n
Ġcompar ant
niv eau
Ġun ions
ĠdÃ© form
Ġ4 01
ĠÃ©v Ã¨nements
ĠdÃ©sign ations
Ġrembours Ã©
trich t
ĠmÃ¨ nera
c ard
ss Ã©e
Ġme morial
Ġfournir ont
Ġdemeure ra
Ġexac titude
our ge
Ġindirec tes
ques tions
Â© .
Ġb enn
Ġpos td
Ġmich igan
si Ã¨res
Ġca pe
Ġcol d
y r
Ġd psn
emp loient
Ġappr ennent
mÃ© u
Ġcam ionn
] [
ĠexÃ©cu tifs
Ġvar so
Ġven ons
Ġramen Ã©
Ġt mÃ©u
Ġform elles
ĠdÃ©termin ante
Ġdomin ant
ĠÃ©tique tage
u ent
Ġcour bes
Ġcal c
ĠrÃ©un ira
al igner
Ġg cc
Ġlind a
Ġl ir
av enture
or ith
ĠentraÃ® nement
Ġaffich ent
Ġinvo quÃ©e
ĠrÃ© assurance
Ġaltern atifs
Ġvarso vie
Ġpear son
ĠÎ¼ m
Ġcens Ã©s
Ġal lan
Ġracc our
ec a
ven ant
Ġbi os
ass age
Ġdistor sion
it udes
Ġhom osex
ĠprÃ©lev er
Ã©s ium
Ã© quemment
Ġ19 4
Ġtrans atlantique
ĠdÃ©m ante
Ġm organ
al titude
ĠrÃ©tro spec
Ġhydro lo
Ã©ri es
oni quement
ĠrÃ©comp enses
Ġcardia ques
Ġcongo lais
ĠdÃ©clen cher
Ġadjac entes
Ġde ter
Ġtomb ent
Ġincen die
Ġla vage
Ġ2 19
Ġmarchand s
Ġorient Ã©e
Ġconsul te
Ġempir iques
Ġantibi otiques
unif em
Ġinflu ences
ĠÃ©t ang
Ġp urs
di vision
Ġouv riers
trans f
ĠÃ©vo quer
ĠÃ© ro
Ġgl en
osci ences
Ġra ciales
disponi ble
p asser
Ġfin es
Ġsuffis ent
ĠmÃ© triques
Ġpira terie
ente urs
Ġuti lement
Ġcommence ment
n ier
Ġau g
[...]
