{"[SEP]":0,"[PAD]":1,"!":2,"\"":3,"#":4,"$":5,"%":6,"&":7,"'":8,"(":9,")":10,"*":11,"+":12,",":13,"-":14,".":15,"/":16,"0":17,"1":18,"2":19,"3":20,"4":21,"5":22,"6":23,"7":24,"8":25,"9":26,":":27,";":28,"<":29,"=":30,">":31,"?":32,"@":33,"A":34,"B":35,"C":36,"D":37,"E":38,"F":39,"G":40,"H":41,"I":42,"J":43,"K":44,"L":45,"M":46,"N":47,"O":48,"P":49,"Q":50,"R":51,"S":52,"T":53,"U":54,"V":55,"W":56,"X":57,"Y":58,"Z":59,"[":60,"\\":61,"]":62,"^":63,"_":64,"`":65,"a":66,"b":67,"c":68,"d":69,"e":70,"f":71,"g":72,"h":73,"i":74,"j":75,"k":76,"l":77,"m":78,"n":79,"o":80,"p":81,"q":82,"r":83,"s":84,"t":85,"u":86,"v":87,"w":88,"x":89,"y":90,"z":91,"{":92,"|":93,"}":94,"~":95,"¡":96,"¢":97,"£":98,"¤":99,"¥":100,"¦":101,"§":102,"¨":103,"©":104,"ª":105,"«":106,"¬":107,"®":108,"¯":109,"°":110,"±":111,"²":112,"³":113,"´":114,"µ":115,"¶":116,"·":117,"¸":118,"¹":119,"º":120,"»":121,"¼":122,"½":123,"¾":124,"¿":125,"À":126,"Á":127,"Â":128,"Ã":129,"Ä":130,"Å":131,"Æ":132,"Ç":133,"È":134,"É":135,"Ê":136,"Ë":137,"Ì":138,"Í":139,"Î":140,"Ï":141,"Ð":142,"Ñ":143,"Ò":144,"Ó":145,"Ô":146,"Õ":147,"Ö":148,"×":149,"Ø":150,"Ù":151,"Ú":152,"Û":153,"Ü":154,"Ý":155,"Þ":156,"ß":157,"à":158,"á":159,"â":160,"ã":161,"ä":162,"å":163,"æ":164,"ç":165,"è":166,"é":167,"ê":168,"ë":169,"ì":170,"í":171,"î":172,"ï":173,"ð":174,"ñ":175,"ò":176,"ó":177,"ô":178,"õ":179,"ö":180,"÷":181,"ø":182,"ù":183,"ú":184,"û":185,"ü":186,"ý":187,"þ":188,"ÿ":189,"Ā":190,"ā":191,"Ă":192,"ă":193,"Ą":194,"ą":195,"Ć":196,"ć":197,"Ĉ":198,"ĉ":199,"Ċ":200,"ċ":201,"Č":202,"č":203,"Ď":204,"ď":205,"Đ":206,"đ":207,"Ē":208,"ē":209,"Ĕ":210,"ĕ":211,"Ė":212,"ė":213,"Ę":214,"ę":215,"Ě":216,"ě":217,"Ĝ":218,"ĝ":219,"Ğ":220,"ğ":221,"Ġ":222,"ġ":223,"Ģ":224,"ģ":225,"Ĥ":226,"ĥ":227,"Ħ":228,"ħ":229,"Ĩ":230,"ĩ":231,"Ī":232,"ī":233,"Ĭ":234,"ĭ":235,"Į":236,"į":237,"İ":238,"ı":239,"Ĳ":240,"ĳ":241,"Ĵ":242,"ĵ":243,"Ķ":244,"ķ":245,"ĸ":246,"Ĺ":247,"ĺ":248,"Ļ":249,"ļ":250,"Ľ":251,"ľ":252,"Ŀ":253,"ŀ":254,"Ł":255,"ł":256,"Ń":257,"Ġt":258,"Ġa":259,"he":260,"in":261,"Ġthe":262,"er":263,"Ġs":264,"on":265,"Ġ,":266,"re":267,"Ġw":268,"Ġc":269,"Ġo":270,"ed":271,"Ġb":272,"nd":273,"Ġf":274,"at":275,"Ġ.":276,"or":277,"it":278,"en":279,"Ġp":280,"Ġin":281,"Ġm":282,"is":283,"es":284,"ar":285,"Ġof":286,"an":287,"al":288,"ing":289,"Ġd":290,"as":291,"Ġand":292,"Ġh":293,"Ġto":294,"ro":295,"ic":296,"Ġl":297,"ion":298,"ĠĊ":299,"ou":300,"Ġn":301,"Ġre":302,"il":303,"Ġe":304,"Ġg":305,"Ġth":306,"Ġ=":307,"le":308,"ent":309,"Ġ\"":310,"Ġ1":311,"st":312,"Ġ@":313,"el":314,"am":315,"om":316,"Ġon":317,"ac":318,"ad":319,"Ġwas":320,"Ġst":321,"Ġbe":322,"Ġhe":323,"ur":324,"ly":325,"Ġ'":326,"Ġfor":327,"Ġu":328,"id":329,"im":330,"ol":331,"ter":332,"Ġas":333,"ir":334,"-@":335,"Ġ@-@":336,"iv":337,"ig":338,"ct":339,"ot":340,"ut":341,"Ġr":342,"et":343,"ith":344,"ay":345,"ow":346,"Ġ2":347,"Ġal":348,"ver":349,"Ġwith":350,"ce":351,"ation":352,"Ġthat":353,"Ġwh":354,"Ġit":355,"ch":356,"Ġcon":357,"Ġat":358,"Ġj":359,"Ġan":360,"Ġby":361,"Ġde":362,"Ġse":363,"Ġis":364,"us":365,"Ġk":366,"Ġv":367,"th":368,"Ġ)":369,"Ġ(":370,"ul":371,"ers":372,"Ġch":373,"and":374,"ain":375,"em":376,"Ġ19":377,"rom":378,"Ġhis":379,"os":380,"her":381,"ag":382,"av":383,"um":384,"est":385,"Ġcom":386,"00":387,"Ġsu":388,"ri":389,"Ġfrom":390,"Ġpro":391,"od":392,"pe":393,"Ġne":394,"ist":395,"if":396,"un":397,"ill":398,"ore":399,"ld":400,"ap":401,"Ġsh":402,"se":403,"Ġy":404,"ere":405,"igh":406,"res":407,"op":408,"ies":409,"Ġro":410,"qu":411,"art":412,"ber":413,"ard":414,"Ġor":415,"Ġex":416,"ich":417,"Ġpl":418,"Ġwere":419,"ak":420,"ate":421,"ort":422,"all":423,"Ġun":424,"ab":425,"Ġle":426,"ant":427,"ud":428,"oc":429,"gh":430,"ong":431,"ated":432,"ip":433,"ity":434,"ess":435,"Ġar":436,"ame":437,"ive":438,"Ġtr":439,"ie":440,"Ġhad":441,"Ġâ":442,"ack":443,"ĠâĢ":444,"ast":445,"red":446,"rou":447,"Ġwhich":448,"our":449,"ge":450,"Ġare":451,"ment":452,"Ġnot":453,"ian":454,"ov":455,"Ġaf":456,"ial":457,"pt":458,"ost":459,"ell":460,"ia":461,"ight":462,"Ġcl":463,"ust":464,"ary":465,"Ġwor":466,"ine":467,"Ġwhe":468,"pp":469,"cl":470,"rit":471,"ther":472,"Ġ3":473,"oun":474,"Ġad":475,"ical":476,"ave":477,"Ġsc":478,"cc":479,"Ġcomp":480,"Ġbut":481,"Ġen":482,"ction":483,"ord":484,"Ġthis":485,"Ġfir":486,"Ġher":487,"Ġ200":488,"te":489,"ould":490,"Ġtw":491,"Ġab":492,"ish":493,"Ġafter":494,"Ġcont":495,"Ġfirst":496,"ous":497,"so":498,"Ġte":499,"ide":500,"Ġ20":501,"Ġsp":502,"ure":503,"Ġits":504,"Ġnew":505,"ign":506,"Ġtheir":507,"Ġam":508,"Ġall":509,"Ġ;":510,"Ġman":511,"per":512,"Ġone":513,"ra":514,"ition":515,"Ġint":516,"Ġper":517,"ass":518,"ĠâĢĵ":519,"Ġalso":520,"ub":521,"Ġus":522,"Ġmar":523,"ire":524,"og":525,"ok":526,"Ġshe":527,"ru":528,"ear":529,"Ġ:":530,"ater":531,"ome":532,"Ġtim":533,"Ġres":534,"out":535,"orm":536,"age":537,"Ġrec":538,"ond":539,"Ġthey":540,"ry":541,"Ġser":542,"Ġi":543,"hed":544,"Ġtwo":545,"Ġfe":546,"Ġpart":547,"Ġ4":548,"Ġag":549,"ue":550,"Ġwho":551,"Ġcomm":552,"du":553,"Ġdes":554,"ans":555,"Ġhave":556,"Ġ5":557,"ree":558,"Ġbec":559,"ally":560,"ff":561,"Ġdis":562,"ance":563,"ile":564,"Ġgo":565,"Ġ18":566,"Ġwe":567,".@":568,"Ġ@.@":569,"pl":570,"Ġover":571,"Ġyear":572,"own":573,"ted":574,"ice":575,"Ġoff":576,"iz":577,"Ġplay":578,"Ġhas":579,"uring":580,"Ġbeen":581,"ence":582,"Ġco":583,"Ġother":584,"ect":585,"Ġ201":586,",@":587,"Ġ@,@":588,"Ġim":589,"ough":590,"ke":591,"are":592,"ory":593,"Ġcol":594,"ely":595,"ts":596,"Ġout":597,"Ġme":598,"ations":599,"clud":600,"Ġup":601,"ach":602,"ace":603,"Ġinter":604,"Ġpre":605,"ound":606,"land":607,"Ġev":608,"Ġpr":609,"Ġfin":610,"wn":611,"Ġwhen":612,"Ġbo":613,"ade":614,"ib":615,"act":616,"ions":617,"Ġspe":618,"Ġtime":619,"Ġduring":620,"Ġcan":621,"ail":622,"urn":623,"Ġinclud":624,"ress":625,"ced":626,"Ġap":627,"Ġfl":628,"ric":629,"ens":630,"Ġwould":631,"ks":632,"Ġsec":633,"man":634,"Ġfil":635,"one":636,"Ġind":637,"we":638,"ward":639,"Ġbr":640,"ang":641,"nder":642,"Ġinto":643,"Ġhim":644,"Ġatt":645,"Ġbl":646,"ite":647,"ult":648,"Ġear":649,"oll":650,"ates":651,"Ġ6":652,"Ġmore":653,"Ġqu":654,"able":655,"Ġjo":656,"Ġwar":657,"ces":658,"ased":659,"Ġpe":660,"Ġchar":661,"ited":662,"ren":663,"Ġcent":664,"amp":665,"ied":666,"Ġrep":667,"ase":668,"Ġbet":669,"Ġfilm":670,"rough":671,"way":672,"Ġgr":673,"ount":674,"Ġform":675,"les":676,"form":677,"Ġ7":678,"ors":679,"ason":680,"aw":681,"Ġpo":682,"ember":683,"ings":684,"Ġwhile":685,"ose":686,"Ġacc":687,"vel":688,"Ġmus":689,"Ġgame":690,"ne":691,"ild":692,"Ġmost":693,"ve":694,"ered":695,"Ġthere":696,"Ġrem":697,"Ġcar":698,"Ġfr":699,"ind":700,"Ġnor":701,"ck":702,"Ġpar":703,"Ġso":704,"Ġgen":705,"Ġsou":706,"Ġass":707,"ake":708,"ious":709,"att":710,"old":711,"Ġcons":712,"Ġhow":713,"ents":714,"aus":715,"Ġ8":716,"fer":717,"iss":718,"reat":719,"Ġem":720,"Ġno":721,"Ġlater":722,"Ġbu":723,"Ġsong":724,"ick":725,"round":726,"Ġreg":727,"Ġprodu":728,"Ġagain":729,"ft":730,"Ġonly":731,"gan":732,"Ġact":733,"rib":734,"ved":735,"Ġunder":736,"Ġwork":737,"ood":738,"Ġsy":739,"Ġmay":740,"Ġthem":741,"Ġkn":742,"Ġ9":743,"Ġsome":744,"Ġthan":745,"Ġret":746,"ters":747,"Ġthree":748,"als":749,"Ġabout":750,"ubl":751,"ix":752,"Ġ199":753,"ath":754,"ween":755,"Ġver":756,"Ġbetween":757,"ollow":758,"ph":759,"ons":760,"hip":761,"Ġday":762,"Ġhigh":763,"Ġbro":764,"Ġrele":765,"Ġeng":766,"Ġthrough":767,"Ġmon":768,"oth":769,"Ġrecord":770,"Ġfollow":771,"Ġmin":772,"eric":773,"Ġma":774,"fore":775,"ational":776,"Ġapp":777,"Ġsecond":778,"Ġrel":779,"Ġend":780,"Ġli":781,"Ġph":782,"Ġnum":783,"ict":784,"Ġsub":785,"Ġac":786,"Ġele":787,"ton":788,"ug":789,"Ġimp":790,"Ġpres":791,"iew":792,"Ġ00":793,"Ġsa":794,"Ġed":795,"Ġair":796,"Ġalb":797,"Ġseason":798,"Ġfour":799,"Ġep":800,"Ġdef":801,"Ġpos":802,"Ġdo":803,"Ġworld":804,"Ġameric":805,"Ġnorth":806,"Ġinc":807,"Ġent":808,"Ġwhere":809,"cted":810,"ral":811,"Ġbefore":812,"Ġteam":813,"ning":814,"Ġmov":815,"ular":816,"ating":817,"ames":818,"Ġspec":819,"Ġwrit":820,"Ġarm":821,"Ġmade":822,"Ġsm":823,"Ġlar":824,"Ġsch":825,"ision":826,"Ġloc":827,"Ġgu":828,"Ġwill":829,"ived":830,"Ġsuch":831,"hes":832,"Ġsur":833,"Ġcap":834,"Ġpol":835,"Ġdr":836,"Ġsing":837,"son":838,"Ġalbum":839,"Ġpubl":840,"Ġ000":841,"ished":842,"Ġsever":843,"io":844,"Ġyears":845,"ained":846,"ics":847,"Ġsupp":848,"iel":849,"Ġcall":850,"ode":851,"ever":852,"Ġ10":853,"ll":854,"Ġsouth":855,"Ġshow":856,"Ġback":857,"ident":858,"ros":859,"Ġadd":860,"Ġrev":861,"Ġ/":862,"Ġgener":863,"Ġboth":864,"ual":865,"tern":866,"ily":867,"Ġinv":868,"Ġthen":869,"Ġhowever":870,"Ġappe":871,"Ġepis":872,"Ġcount":873,"Ġused":874,"Ġdec":875,"Ġrece":876,"ute":877,"Ġmill":878,"ale":879,"ific":880,"Ġbeing":881,"Ġthese":882,"Ġwell":883,"ury":884,"Ġmet":885,"Ġset":886,"Ġstud":887,"Ġseries":888,"Ġagainst":889,"Ġbatt":890,"Ġz":891,"ten":892,"ank":893,"Ġcharac":894,"Ġinst":895,"ife":896,"Ġfound":897,"Ġnumber":898,"Ġste":899,"velop":900,"Ġbel":901,"Ġlead":902,"Ġmany":903,"Ġ17":904,"Ġmusic":905,"Ġsim":906,"Ġmat":907,"orn":908,"Ġperform":909,"Ġ0":910,"Ġmain":911,"ane":912,"Ġlong":913,"other":914,"Ġop":915,"Ġcity":916,"Ġter":917,"int":918,"Ġcre":919,"ool":920,"oy":921,"Ġbrit":922,"ause":923,"ince":924,"end":925,"Ġdevelop":926,"Ġbecame":927,"ert":928,"Ġunited":929,"Ġsl":930,"Ġdire":931,"igin":932,"Ġseveral":933,"Ġhist":934,"Ġart":935,"Ġincluding":936,"Ġship":937,"ĠâĢĶ":938,"hn":939,"Ġdep":940,"au":941,"ather":942,"air":943,"Ġstate":944,"Ġmil":945,"Ġexp":946,"ise":947,"Ġinf":948,"Ġearly":949,"Ġdiv":950,"ier":951,"Ġorigin":952,"ised":953,"ower":954,"Ġob":955,"vern":956,"Ġ198":957,"Ġ15":958,"Ġ12":959,"Ġpop":960,"Ġtrans":961,"Ġdid":962,"its":963,"ars":964,"Ġdist":965,"ired":966,"ement":967,"ject":968,"ork":969,"ley":970,"ures":971,"ines":972,"Ġnov":973,"Ġ194":974,"rop":975,"und":976,"iet":977,"Ġcontin":978,"Ġgovern":979,"olog":980,"Ġwin":981,"ities":982,"Ġpers":983,"der":984,"roup":985,"Ġprov":986,"led":987,"az":988,"Ġepisode":989,"til":990,"Ġstates":991,"elf":992,"ross":993,"ared":994,"Ġcrit":995,"anc":996,"Ġsaid":997,"Ġjohn":998,"Ġfollowing":999,"ful":1000,"ird":1001,"Ġke":1002,"Ġest":1003,"Ġconst":1004,"Ġdesign":1005,"Ġgroup":1006,"Ġcould":1007,"Ġdif":1008,"Ġstr":1009,"ys":1010,"ative":1011,"iver":1012,"Ġreturn":1013,"Ġmed":1014,"Ġ16":1015,"Ġrun":1016,"Ġoper":1017,"Ġamerican":1018,"ock":1019,"Ġdesc":1020,"ouse":1021,"na":1022,"Ġalth":1023,"Ġknown":1024,"tend":1025,"Ġalthough":1026,"Ġcomple":1027,"ield":1028,"Ġaust":1029,"Ġany":1030,"ivers":1031,"Ġwest":1032,"Ġger":1033,"Ġsign":1034,"Ġ197":1035,"Ġmod":1036,"Ġking":1037,"Ġjun":1038,"ron":1039,"Ġserv":1040,"Ġpass":1041,"Ġlo":1042,"emb":1043,"Ġdown":1044,"ually":1045,"Ġ196":1046,"Ġ11":1047,"Ġland":1048,"uch":1049,"ty":1050,"Ġfam":1051,"Ġnear":1052,"ued":1053,"Ġbegan":1054,"ting":1055,"Ġlike":1056,"gr":1057,"Ġfeat":1058,"Ġoffic":1059,"ined":1060,"Ġeff":1061,"Ġuntil":1062,"row":1063,"ople":1064,"ism":1065,"Ġdisc":1066,"ange":1067,"Ġbar":1068,"aking":1069,"Ġhar":1070,"Ġalong":1071,"Ġschool":1072,"Ġbecause":1073,"Ġown":1074,"ern":1075,"ided":1076,"Ġreleased":1077,"Ġopen":1078,"Ġport":1079,"ccess":1080,"ins":1081,"ized":1082,"Ġcalled":1083,"Ġnational":1084,"Ġprev":1085,"Ġel":1086,"ger":1087,"Ġcr":1088,"Ġthough":1089,"uc":1090,"Ġmaj":1091,"ists":1092,"Ġwee":1093,"iam":1094,"Ġpeople":1095,"ured":1096,"stem":1097,"Ġyou":1098,"ially":1099,"up":1100,"Ġins":1101,"Ġgre":1102,"ution":1103,"Ġann":1104,"Ġclass":1105,"Ġcolle":1106,"ments":1107,"Ġmillion":1108,"osed":1109,"Ġjust":1110,"ium":1111,"Ġcour":1112,"Ġever":1113,"Ġsystem":1114,"cept":1115,"Ġbritish":1116,"ull":1117,"Ġge":1118,"Ã©":1119,"Ġsince":1120,"Ġhead":1121,"Ġla":1122,"Ġ13":1123,"Ġsix":1124,"ner":1125,"Ġadv":1126,"Ġbest":1127,"Ġaut":1128,"Ġaround":1129,"Ġaug":1130,"ark":1131,"Ġaward":1132,"Ġmajor":1133,"Ġlife":1134,"Ġcor":1135,"Ġ$":1136,"Ġif":1137,"Ġju":1138,"Ġeach":1139,"Ġsuccess":1140,"ains":1141,"Ġbre":1142,"Ġattack":1143,"Ġsept":1144,"any":1145,"xt":1146,"gest":1147,"ah":1148,"Ġvar":1149,"Ġcharacter":1150,"oot":1151,"Ġuse":1152,"Ġav":1153,"Ġseptember":1154,"Ġdescrib":1155,"Ġaugust":1156,"Ġstart":1157,"amed":1158,"Ġconf":1159,"rap":1160,"get":1161,"ible":1162,"Ġsame":1163,"Ġroad":1164,"Ġtri":1165,"Ġhel":1166,"ont":1167,"ik":1168,"Ġeast":1169,"aced":1170,"Ġfinal":1171,"Ġline":1172,"Ġsupport":1173,"Ġocc":1174,"Ġoct":1175,"Ġanother":1176,"ris":1177,"Ġdem":1178,"Ġfive":1179,"Ġcare":1180,"Ġpublic":1181,"aining":1182,"Ġ14":1183,"Ġprom":1184,"Ġsw":1185,"Ġkm":1186,"Ġty":1187,"Ġgreat":1188,"Ġbuild":1189,"Ġlit":1190,"Ġra":1191,"Ġold":1192,"Ġconc":1193,"els":1194,"Ġaustral":1195,"aving":1196,"Ġ195":1197,"Ġext":1198,"Ġmy":1199,"Ġgl":1200,"Ġtook":1201,"Ġcamp":1202,"Ġband":1203,"Ġgerman":1204,"ues":1205,"enn":1206,"Ġbook":1207,"Ġarea":1208,"Ġmid":1209,"Ġhouse":1210,"Ġsmall":1211,"ob":1212,"ove":1213,"ann":1214,"Ġreport":1215,"Ġ193":1216,"ep":1217,"Ġconsid":1218,"Ġcentury":1219,"ober":1220,"Ġturn":1221,"ped":1222,"Ġreceived":1223,"uss":1224,"Ġoctober":1225,"Ġcontro":1226,"ets":1227,"ants":1228,"ives":1229,"ble":1230,"Ġstre":1231,"Ġunivers":1232,"ically":1233,"Ġsk":1234,"hing":1235,"Ġ191":1236,"Ġwhat":1237,"Ġdue":1238,"Ġgames":1239,"Ġpartic":1240,"Ġshort":1241,"Ġlast":1242,"Ġgovernment":1243,"Ġdirect":1244,"ility":1245,"Ġref":1246,"Ġhal":1247,"Ġrest":1248,"Ġmarch":1249,"ately":1250,"ina":1251,"ene":1252,"cess":1253,"Ġcommand":1254,"Ġleg":1255,"Ġes":1256,"Ġperson":1257,"Ġhome":1258,"gin":1259,"Ġ]":1260,"Ġ[":1261,"ians":1262,"ored":1263,"Ġjan":1264,"ink":1265,"Ġway":1266,"Ġjune":1267,"tle":1268,"Ġmag":1269,"ril":1270,"Ġsingle":1271,"Ġthird":1272,"Ġmark":1273,"Ġgeneral":1274,"over":1275,"Ġmen":1276,"ime":1277,"Ġsqu":1278,"Ġtit":1279,"ission":1280,"Ġjuly":1281,"Ġchild":1282,"Ġ%":1283,"Ġcapt":1284,"iving":1285,"pect":1286,"Ġnovember":1287,"urch":1288,"Ġtrack":1289,"Ġdeath":1290,"Ġdel":1291,"Ġreview":1292,"ash":1293,"Ġmuch":1294,"Ġevent":1295,"Ġisland":1296,"raft":1297,"Ġarr":1298,"Ġyork":1299,"Ġapril":1300,"uro":1301,"Ġfur":1302,"Ġdam":1303,"Ġtop":1304,"Ġlarge":1305,"uary":1306,"Ġbattle":1307,"che":1308,"Ġaccord":1309,"Ġpower":1310,"lish":1311,"Ġvers":1312,"Ġeven":1313,"Ġleft":1314,"Ġdece":1315,"Ġtown":1316,"Ġsoc":1317,"ural":1318,"ctions":1319,"Ġcast":1320,"ional":1321,"..":1322,"Ġche":1323,"Ġvide":1324,"ient":1325,"Ġallow":1326,"ively":1327,"Ġintern":1328,"Ġgun":1329,"Ġdiffer":1330,"Ġmonth":1331,"Ġ30":1332,"idge":1333,"Ġstar":1334,"ilt":1335,"Ġkill":1336,"Ġpat":1337,"Ġstory":1338,"bo":1339,"Ġappro":1340,"Ġvis":1341,"aim":1342,"ms":1343,"Ġfamily":1344,"Ġbased":1345,"Ġplace":1346,"ague":1347,"Ġcur":1348,"Ġaddition":1349,"Ġnow":1350,"mber":1351,"Ġvict":1352,"min":1353,"ven":1354,"Ġincre":1355,"Ġcal":1356,"ales":1357,"Ġpark":1358,"Ġexpl":1359,"Ġblack":1360,"ified":1361,"Ġant":1362,"Ġright":1363,"Ġ...":1364,"Ġlaw":1365,"Ġcompany":1366,"Ġarmy":1367,"avy":1368,"empt":1369,"rote":1370,"Ġdecember":1371,"Ġhistory":1372,"eng":1373,"Ġclub":1374,"Ġplayed":1375,"Ġ25":1376,"Ġmor":1377,"Ġstorm":1378,"by":1379,"Ġaccording":1380,"Ġpost":1381,"ling":1382,"Ġincluded":1383,"Ġriver":1384,"ps":1385,"Ġname":1386,"ats":1387,"Ġlos":1388,"Ġjanuary":1389,"Ġwater":1390,"Ġled":1391,"Ġred":1392,"Ġ192":1393,"Ġir":1394,"rist":1395,"ograp":1396,"omet":1397,"bert":1398,"Ġhand":1399,"aged":1400,"Ġwind":1401,"ball":1402,"ony":1403,"apan":1404,"Ġwom":1405,"Ġwrote":1406,"inc":1407,"Ġii":1408,"Ġwon":1409,"Ġang":1410,"Ġhum":1411,"ently":1412,"erg":1413,"Ġresp":1414,"Ġjapan":1415,"Ġtimes":1416,"ages":1417,"Ġstru":1418,"Ġorgan":1419,"Ġopp":1420,"Ġval":1421,"ience":1422,"Ġrequ":1423,"Ġprevious":1424,"ital":1425,"Ġposition":1426,"Ġwithin":1427,"port":1428,"Ġappear":1429,"ody":1430,"Ġmake":1431,"med":1432,"Ġdescribed":1433,"Ġinit":1434,"Ġrad":1435,"Ġthose":1436,"Ġeuro":1437,"Ġdeb":1438,"Ġstill":1439,"Ġfore":1440,"Ġchamp":1441,"Ġvideo":1442,"Ġbill":1443,"Ġfar":1444,"ides":1445,"Ġnext":1446,"ott":1447,"Ġlate":1448,"Ġmemb":1449,"Ġstand":1450,"Ġnamed":1451,"omin":1452,"ney":1453,"Ġbelie":1454,"Ġbus":1455,"Ġamong":1456,"Ġoriginal":1457,"Ġrelease":1458,"Ġattempt":1459,"Ġeffect":1460,"por":1461,"Ġfurther":1462,"iven":1463,"Ġrepl":1464,"Ġlist":1465,"ster":1466,"ilar":1467,"Ġleague":1468,"Ġforce":1469,"Ġvery":1470,"Ġdest":1471,"Ġtele":1472,"Ġposs":1473,"cy":1474,"Ġfoot":1475,"Ġx":1476,"Ġview":1477,"Ġiss":1478,"ister":1479,"Ġbas":1480,"mer":1481,"Ġroute":1482,"iod":1483,"Ġrom":1484,"Ġreal":1485,"aff":1486,"bru":1487,"ention":1488,"Ġcy":1489,"ret":1490,"Ġ100":1491,"Ġcommun":1492,"Ġproduction":1493,"Ġexper":1494,"Ġspecies":1495,"erv":1496,"rench":1497,"ness":1498,"ior":1499,"ption":1500,"Ġmembers":1501,"ached":1502,"ival":1503,"Ġconstru":1504,"Ġsound":1505,"Ġpolit":1506,"pend":1507,"Ġwhite":1508,"Ġmilit":1509,"Ġformer":1510,"Ġchrist":1511,"Ġtour":1512,"Ġcoun":1513,"Ġfle":1514,"Ġfebru":1515,"Ġfebruary":1516,"Ġsimilar":1517,"Ġinfl":1518,"arch":1519,"Ġtak":1520,"Ġer":1521,"ances":1522,"Ġnort":1523,"Ġsold":1524,"Ġperiod":1525,"riend":1526,"Ġpa":1527,"br":1528,"Ġdivision":1529,"Ġdays":1530,"Ġbuilt":1531,"Ġmatch":1532,"Ġplan":1533,"Ġtem":1534,"ences":1535,"Ġside":1536,"Ġnat":1537,"ched":1538,"Ġroy":1539,"vers":1540,"Ġsuper":1541,"Ġprop":1542,"Ġheld":1543,"Ġeurope":1544,"ple":1545,"Ġyoun":1546,"Ġuniversity":1547,"Ġrock":1548,"Ġlight":1549,"Ġfrench":1550,"Ġgood":1551,"Ġpoint":1552,"Ġcle":1553,"ried":1554,"hen":1555,"Ġ2010":1556,"Ġservice":1557,"Ġsay":1558,"hor":1559,"Ġpresident":1560,"Ġlocal":1561,"Ġrole":1562,"Ġestab":1563,"Ġdesp":1564,"Ġmo":1565,"augh":1566,"uted":1567,"wards":1568,"Ġpresent":1569,"Ġequ":1570,"tended":1571,"Ġorder":1572,"Ġ21":1573,"Ġfre":1574,"ec":1575,"Ġdet":1576,"Ġcame":1577,"ropical":1578,"Ġevery":1579,"Ġtot":1580,"hy":1581,"Ġnever":1582,"Ġcaus":1583,"Ġsol":1584,"Ġbeh":1585,"ham":1586,"Ġhaving":1587,"Ġwilliam":1588,"Ġweek":1589,"self":1590,"Ġcross":1591,"oci":1592,"Ġeas":1593,"Ġresult":1594,"ense":1595,"Ġfew":1596,"Ġsum":1597,"ford":1598,"ĠÂ":1599,"Ġsug":1600,"ulation":1601,"Ġje":1602,"Ġtro":1603,"Ġtest":1604,"Ġassoci":1605,"Ġprof":1606,"Ġplayer":1607,"Ġchart":1608,"sh":1609,"Ġsee":1610,"ax":1611,"Ġtake":1612,"app":1613,"Ġ2008":1614,"Ġoften":1615,"Ġcommon":1616,"ices":1617,"Ġstat":1618,"ards":1619,"Ġhalf":1620,"Ġhur":1621,"Ġcareer":1622,"Ġ2009":1623,"Ġ24":1624,"ler":1625,"me":1626,"Ġcontinued":1627,"Ġgeor":1628,"Ġwat":1629,"Ġtech":1630,"Ġlow":1631,"ots":1632,"Ġfire":1633,"Ġpri":1634,"Ġclaim":1635,"Ġsty":1636,"Ġhistor":1637,"craft":1638,"ring":1639,"Ġ2011":1640,"Ġlevel":1641,"Ġsent":1642,"Ġmich":1643,"ator":1644,"Ġdifferent":1645,"Ġwithout":1646,"Ġpress":1647,"Ġfun":1648,"bs":1649,"Ġelect":1650,"estern":1651,"ese":1652,"Ġdespite":1653,"atic":1654,"Ġcover":1655,"Ġengland":1656,"Ġ&":1657,"ology":1658,"gram":1659,"Ġless":1660,"Ġmer":1661,"Ġcourt":1662,"Ġten":1663,"Ġparty":1664,"read":1665,"af":1666,"Ġconsidered":1667,"Ġcontr":1668,"Ġ22":1669,"ops":1670,"Ġec":1671,"gress":1672,"Ġdav":1673,"Ġdevelopment":1674,"aster":1675,"let":1676,"Ġchurch":1677,"Ġ2007":1678,"Ġarch":1679,"Ġrepres":1680,"par":1681,"Ġly":1682,"Ġtre":1683,"Ġnight":1684,"Ġcountry":1685,"ves":1686,"Ġcounty":1687,"Ġcomb":1688,"Ġinflu":1689,"Ġchampions":1690,"Ġfield":1691,"Ġroyal":1692,"Ġsongs":1693,"Ġfriend":1694,"Ġhy":1695,"Ġversion":1696,"Ġenglish":1697,"Ġmilitary":1698,"Ġmoved":1699,"Ġhighway":1700,"Ġhig":1701,"Ġdon":1702,"Ġwritten":1703,"Ġtrad":1704,"Ġwant":1705,"Ġstrong":1706,"ones":1707,"Ġdefe":1708,"rodu":1709,"co":1710,"vision":1711,"Ġconv":1712,"Ġprogram":1713,"Ġvol":1714,"Ġ2012":1715,"Ġprote":1716,"Ġbecome":1717,"Ġforces":1718,"Ġlim":1719,"Ġmi":1720,"Ġanim":1721,"Ġlittle":1722,"Ġchang":1723,"alk":1724,"side":1725,"Ġfact":1726,"Ġlost":1727,"Ġproject":1728,"ertain":1729,"ches":1730,"ize":1731,"Ġlond":1732,"Ġinternational":1733,"line":1734,"Ġbuilding":1735,"Ġ23":1736,"Ġson":1737,"Ġgiven":1738,"Ġmiss":1739,"urs":1740,"Ġtropical":1741,"Ġcontrol":1742,"Ġlondon":1743,"Ġtotal":1744,"Ġinvol":1745,"Ġaff":1746,"Ġauthor":1747,"Ġsuggest":1748,"elt":1749,"Ġord":1750,"Ġrefer":1751,"Ġhit":1752,"Ġbur":1753,"ison":1754,"utes":1755,"Ġphil":1756,"Ġ190":1757,"Ġannoun":1758,"Ġvir":1759,"hel":1760,"be":1761,"ged":1762,"atter":1763,"Ġlet":1764,"Ġlab":1765,"Ġhour":1766,"Ġread":1767,"Ġstreet":1768,"ald":1769,"Ġimport":1770,"Ġfree":1771,"iment":1772,"ened":1773,"Ġdecl":1774,"iety":1775,"ery":1776,"Ġget":1777,"Ġcanad":1778,"Ġho":1779,"Ġeight":1780,"roy":1781,"ai":1782,"sequ":1783,"Ġve":1784,"Ġvi":1785,"Ġrail":1786,"Ġperformance":1787,"que":1788,"Ġgold":1789,"ille":1790,"Ġsal":1791,"Ġsit":1792,"Ġstation":1793,"Ġgave":1794,"Ġearl":1795,"Ġwent":1796,"ering":1797,"Ġfind":1798,"Ġrepresent":1799,"rent":1800,"Ġcir":1801,"ae":1802,"Ġreturned":1803,"Ġsomet":1804,"ailed":1805,"Ġusing":1806,"Ġbroad":1807,"Ġjack":1808,"Ġneed":1809,"Ġfather":1810,"Ġpublished":1811,"Ġcoast":1812,"Ġproduced":1813,"Ġhen":1814,"Ġwestern":1815,"Ġcompet":1816,"Ġarg":1817,"Ġnews":1818,"Ġreported":1819,"Ġobs":1820,"ead":1821,"xim":1822,"Ġmass":1823,"Ġhun":1824,"Ġpopular":1825,"ably":1826,"Ġparticular":1827,"Ġrecorded":1828,"Ġchildren":1829,"ape":1830,"Ġtelevision":1831,"Ġinde":1832,"Ġ2006":1833,"Ġdu":1834,"ories":1835,"Ġstated":1836,"Ġaircraft":1837,"aign":1838,"Ġspecial":1839,"Ġcult":1840,"ama":1841,"Ġships":1842,"Ġinterest":1843,"itions":1844,"Ġground":1845,"Ġcampaign":1846,"Ġshould":1847,"Ġinclude":1848,"Ġlive":1849,"Ġlove":1850,"Ġmaking":1851,"Ġide":1852,"Ġdev":1853,"used":1854,"Ġdou":1855,"day":1856,"Ġcritic":1857,"omb":1858,"yl":1859,"Ġage":1860,"mit":1861,"Ġvo":1862,"ief":1863,"Ġfront":1864,"Ġwomen":1865,"ument":1866,"Ġhurric":1867,"Ġcentral":1868,"Ġ27":1869,"Ġcoll":1870,"aren":1871,"Ġcop":1872,"Ġthroughout":1873,"Ġprim":1874,"ints":1875,"Ġupon":1876,"Ġ50":1877,"Ġ28":1878,"Ġyoung":1879,"Ġonce":1880,"osp":1881,"iness":1882,"ploy":1883,"raw":1884,"Ġhom":1885,"Ġsuff":1886,"onom":1887,"Ġhimself":1888,"Ġofficial":1889,"Ġaustralia":1890,"Ġ2013":1891,"Ġchampionship":1892,"Ġdestroy":1893,"Ġtechn":1894,"Ġaud":1895,"ying":1896,"Ġdepart":1897,"Ġmot":1898,"Ġfac":1899,"Ġrich":1900,"Ġwall":1901,"Ġsen":1902,"Ġcharacters":1903,"ned":1904,"Ġnon":1905,"Ġsouther":1906,"cer":1907,"Ġvill":1908,"Ġball":1909,"ensive":1910,"Ġtrav":1911,"rest":1912,"Ġ40":1913,"rew":1914,"Ġcas":1915,"play":1916,"alth":1917,"Ġhor":1918,"Ġfav":1919,"Ġsea":1920,"Ġplayers":1921,"Ġsquad":1922,"Ġrelations":1923,"itive":1924,"Ġft":1925,"Ġ26":1926,"Ġpra":1927,"Ġcam":1928,"Ġcirc":1929,"Ġinstead":1930,"eder":1931,"Ġtur":1932,"Ġfall":1933,"Ġcommit":1934,"Ġsouthern":1935,"ither":1936,"Ġbase":1937,"Ġtitle":1938,"Ġseven":1939,"akes":1940,"Ġjames":1941,"Ġwriting":1942,"lo":1943,"Ġaway":1944,"Ġ189":1945,"Ġcost":1946,"ges":1947,"Ġmad":1948,"acy":1949,"Ġbegin":1950,"Ġacross":1951,"Ġfem":1952,"Ġintrodu":1953,"Ġdied":1954,"Ġremained":1955,"com":1956,"Ġmonths":1957,"Ġcenter":1958,"Ġfort":1959,"Ġsignific":1960,"Ġdeveloped":1961,"Ġce":1962,"Ġgrand":1963,"Ġpromot":1964,"dom":1965,"Ġfull":1966,"Ġhall":1967,"Ġpolitical":1968,"Ġlook":1969,"Ġmount":1970,"Ġvarious":1971,"ries":1972,"Ġmanag":1973,"Ġfif":1974,"Ġmodern":1975,"Ġhurricane":1976,"Ġwood":1977,"uck":1978,"Ġrace":1979,"Ġtoo":1980,"ration":1981,"Ġmc":1982,"Ġput":1983,"Ġaver":1984,"ency":1985,"Ġhill":1986,"fic":1987,"Ġhol":1988,"Ġnet":1989,"Ġham":1990,"Ġill":1991,"Ġcat":1992,"Ġfight":1993,"Ġcond":1994,"Ġhon":1995,"Ġoffice":1996,"hern":1997,"isted":1998,"Ġbig":1999,"Ġpal":2000,"inted":2001,"Ġhard":2002,"Ġbow":2003,"most":2004,"ael":2005,"Ġworks":2006,"Ġfelt":2007,"ef":2008,"Ġareas":2009,"Ġsil":2010,"Ġnoted":2011,"ked":2012,"Ġindust":2013,"orts":2014,"Ġamerica":2015,"Ġpit":2016,"Ġeventually":2017,"Ġruss":2018,"Ġstyle":2019,"erc":2020,"Ġannounced":2021,"Ġcreated":2022,"Ġmiles":2023,"Ġreached":2024,"Ġbrother":2025,"Ġcollege":2026,"Ġdiscover":2027,"Ġhot":2028,"Ġdi":2029,"Ġcro":2030,"Ġconstruction":2031,"Ġjapanese":2032,"Ġstri":2033,"Ġengine":2034,"ming":2035,"Ġsan":2036,"Ġsun":2037,"Ġsuccessful":2038,"Ġnorthern":2039,"Ġhold":2040,"Ġ2005":2041,"Ġmal":2042,"Ġbody":2043,"Ġseen":2044,"Ġpain":2045,"Ġsele":2046,"Ġheavy":2047,"Ġstruct":2048,"ising":2049,"cast":2050,"Ġcut":2051,"ĠâĢĻ":2052,"Ġagre":2053,"Ġfollowed":2054,"Ġ29":2055,"Ġrange":2056,"gether":2057,"Ġtogether":2058,"Ġsym":2059,"field":2060,"Ġmeet":2061,"Ġprot":2062,"Ġprocess":2063,"Ġmem":2064,"Ġperformed":2065,"Ġciv":2066,"ization":2067,"iting":2068,"Ġbrown":2069,"Ġserved":2070,"Ġhelp":2071,"Ġmember":2072,"Ġactiv":2073,"work":2074,"Ġ2014":2075,"Ġbridge":2076,"Ġknow":2077,"ality":2078,"Ġgeorge":2079,"Ġmix":2080,"Ġfootball":2081,"Ġtor":2082,"Ġesc":2083,"Ġkilled":2084,"Ġmur":2085,"Ġsignificant":2086,"Ġgod":2087,"ana":2088,"idence":2089,"Ġprofess":2090,"ids":2091,"Ġable":2092,"Ġtaken":2093,"Ġsaw":2094,"cent":2095,"olution":2096,"Ġestabl":2097,"Ġmm":2098,"ature":2099,"Ġident":2100,"Ġimpro":2101,"rict":2102,"elling":2103,"Ġsat":2104,"ze":2105,"Ġbecom":2106,"Ġaction":2107,"Ġround":2108,"Ġque":2109,"Ġpoints":2110,"Ġhuman":2111,"Ġborn":2112,"Ġdoes":2113,"Ġthought":2114,"oss":2115,"Ġestablished":2116,"Ġmean":2117,"Ġoriginally":2118,"Ġinvest":2119,"ius":2120,"bor":2121,"Ġthom":2122,"ds":2123,"Ġaustralian":2124,"Ġgar":2125,"Ġsubsequ":2126,"Ġgrow":2127,"aval":2128,"Ġenc":2129,"enth":2130,"Ġothers":2131,"Ġstage":2132,"ament":2133,"enced":2134,"Ġbri":2135,"irl":2136,"Ġentire":2137,"Ġappeared":2138,"ression":2139,"ara":2140,"Ġ!":2141,"Ġsn":2142,"Ġdavid":2143,"Ġlocated":2144,"Ġdirector":2145,"cil":2146,"Ġsurv":2147,"Ġredu":2148,"Ġfeatures":2149,"ctor":2150,"Ġden":2151,"ray":2152,"ett":2153,"Ġvoc":2154,"ox":2155,"Ġcrew":2156,"oon":2157,"iers":2158,"Ġcommission":2159,"ground":2160,"Ġbusiness":2161,"Ġstarted":2162,"rick":2163,"Ġplaying":2164,"Ġafric":2165,"Ġpot":2166,"bur":2167,"aves":2168,"Ġmother":2169,"odes":2170,"less":2171,"Ġcaused":2172,"ought":2173,"Ġdecided":2174,"Ġcivil":2175,"Ġcritics":2176,"yn":2177,"ressed":2178,"ript":2179,"Ġkingdom":2180,"Ġfeet":2181,"Ġur":2182,"Ġrather":2183,"Ġrank":2184,"ators":2185,"ship":2186,"Ġfourth":2187,"Ġmater":2188,"Ġfell":2189,"Ġpen":2190,"Ġreb":2191,"Ġrese":2192,"Ġinform":2193,"Ġeconom":2194,"den":2195,"Ġbehind":2196,"Ġindepend":2197,"Ġformed":2198,"Ġsite":2199,"ogn":2200,"Ġmagaz":2201,"Ġadded":2202,"Ã¡":2203,"Ġfleet":2204,"Ġimportant":2205,"Ġcase":2206,"Ġbi":2207,"ma":2208,"Ġ188":2209,"Ġsoon":2210,"gg":2211,"Ġpred":2212,"ample":2213,"reek":2214,"Ġcomment":2215,"ivid":2216,"ateg":2217,"Ġjud":2218,"Ġmart":2219,"wood":2220,"rought":2221,"Ġ31":2222,"Ġeastern":2223,"cing":2224,"Ġdamage":2225,"Ġital":2226,"Ġeduc":2227,"Ġpopulation":2228,"Ġcompleted":2229,"Ġgreen":2230,"ades":2231,"Ġguns":2232,"Ġmult":2233,"Ġalmost":2234,"Ġsam":2235,"Ġneg":2236,"Ġsex":2237,"head":2238,"dle":2239,"Ġpeak":2240,"Ġru":2241,"aces":2242,"Ġexec":2243,"Ġclose":2244,"Ġcup":2245,"ination":2246,"Ġtom":2247,"Ġinterv":2248,"Ġlang":2249,"emy":2250,"Ġindian":2251,"Ġjour":2252,"ata":2253,"Ġinitially":2254,"Ġawards":2255,"Ġregion":2256,"Ġloss":2257,"Ġinj":2258,"Ġtreat":2259,"lin":2260,"oney":2261,"ways":2262,"Ġoccur":2263,"Ġ2004":2264,"itar":2265,"Ġopened":2266,"Ġlack":2267,"Ġcreat":2268,"Ġsocial":2269,"Ġhost":2270,"go":2271,"aps":2272,"Ġpract":2273,"Ġmichael":2274,"Ġproble":2275,"Ġscre":2276,"Ġgirl":2277,"Ġrelationship":2278,"Ġ186":2279,"Ġindivid":2280,"Ġpur":2281,"ceed":2282,"Ġfa":2283,"Ġren":2284,"Ġfund":2285,"to":2286,"Ġul":2287,"Ġlou":2288,"ements":2289,"Ġsus":2290,"Ġleading":2291,"Ġtyp":2292,"cher":2293,"Ġweeks":2294,"Ġtradition":2295,"hic":2296,"Ġ2015":2297,"Ġworking":2298,"Ġradio":2299,"Ġbay":2300,"Ġsepar":2301,"ino":2302,"Ġclos":2303,"Ġworked":2304,"Ġfrance":2305,"Ġdiffic":2306,"Ġcurrent":2307,"Ġdifficult":2308,"Ġsour":2309,"Ġnar":2310,"Ġprem":2311,"Ġrecording":2312,"Ġsecret":2313,"ula":2314,"Ġtowards":2315,"Ġaccom":2316,"Ġale":2317,"Ġroom":2318,"Ġconn":2319,"medi":2320,"Ġappo":2321,"Ġbomb":2322,"Ġmel":2323,"ki":2324,"Ġbal":2325,"Ġmac":2326,"Ġcouncil":2327,"Ġlaun":2328,"Ġunion":2329,"Ġscene":2330,"Ġrain":2331,"umb":2332,"rison":2333,"istic":2334,"imes":2335,"Ġrap":2336,"Ġgoal":2337,"Ġwid":2338,"ica":2339,"asing":2340,"Ġrespect":2341,"Ġrepubl":2342,"Ġresul":2343,"Ġhenry":2344,"igned":2345,"Ġquick":2346,"anch":2347,"Ġnorm":2348,"Ġreve":2349,"Ġrobert":2350,"Ġbreak":2351,"ky":2352,"Ġmaterial":2353,"Ġnavy":2354,"Ġrecords":2355,"Ġaccept":2356,"eth":2357,"Ġvot":2358,"Ġtraining":2359,"Ġwashing":2360,"Ġleast":2361,"Ġscored":2362,"Ġ2000":2363,"pec":2364,"Ġprovided":2365,"Ġreach":2366,"Ġwanted":2367,"Ġmust":2368,"Ġey":2369,"Ġfig":2370,"Ġtroops":2371,"Ġbrought":2372,"Ġaverage":2373,"hest":2374,"Ġbrig":2375,"Ġdut":2376,"Ġspace":2377,"Ġrecogn":2378,"board":2379,"Ġfeatured":2380,"Ġearth":2381,"iding":2382,"ological":2383,"ows":2384,"Ġcru":2385,"Ġ500":2386,"osition":2387,"Ġcolon":2388,"Ġeither":2389,"Ġnomin":2390,"Ġquar":2391,"Ġ187":2392,"Ġproper":2393,"Ġfoc":2394,"Ġallowed":2395,"Ġangel":2396,"Ġrob":2397,"ected":2398,"Ġpast":2399,"Ġestim":2400,"Ġfut":2401,"Ġtar":2402,"Ġfeder":2403,"Ġwife":2404,"ams":2405,"Ġvictory":2406,"Ġstudio":2407,"Ġplaced":2408,"Ġgenerally":2409,"Ġavail":2410,"Ġwashington":2411,"Ġinn":2412,"Ġrul":2413,"iff":2414,"aut":2415,"Ġcho":2416,"Ġpriv":2417,"Ġcycl":2418,"here":2419,"ico":2420,"Ġach":2421,"Ġruns":2422,"Ġphys":2423,"Ġexample":2424,"Ġdark":2425,"aur":2426,"Ġevents":2427,"Ġmagazine":2428,"Ġchief":2429,"Ġbattal":2430,"mp":2431,"Ġder":2432,"Ġrepublic":2433,"Ġleng":2434,"Ġboard":2435,"Ġsummer":2436,"antic":2437,"ville":2438,"Ġinsp":2439,"Ġpaul":2440,"Ġstaff":2441,"Ġcred":2442,"Ġ2003":2443,"Ġparticip":2444,"ential":2445,"Ġwil":2446,"Ġdro":2447,"Ġjoined":2448,"Ġdesigned":2449,"Ġsquadron":2450,"Ġunc":2451,"Ġgrad":2452,"uel":2453,"Ġsurf":2454,"Ġhours":2455,"Ġregular":2456,"Ġspan":2457,"Ġpie":2458,"ike":2459,"Ġmiddle":2460,"Ġemploy":2461,"Ġdan":2462,"Ġquest":2463,"Ġspeed":2464,"Ġnine":2465,"Ġshot":2466,"Ġoperation":2467,"Ġcondu":2468,"ving":2469,"Ġthreat":2470,"Ġopening":2471,"ells":2472,"Ġmedia":2473,"ka":2474,"Ġbelieved":2475,"Ġrelig":2476,"ude":2477,"men":2478,"Ġ35":2479,"Ġscore":2480,"Ġregard":2481,"Ġcome":2482,"Ġcou":2483,"anks":2484,"Ġwinds":2485,"Ġox":2486,"Ġbir":2487,"tim":2488,"Ġmary":2489,"Ġflight":2490,"Ġtransport":2491,"aper":2492,"Ġreplaced":2493,"ugh":2494,"Ġmph":2495,"han":2496,"Ġprior":2497,"Ġstone":2498,"Ġscen":2499,"iction":2500,"Ġinfant":2501,"Ġpay":2502,"Ġben":2503,"Ġber":2504,"imin":2505,"Ġdeter":2506,"oring":2507,"Ġemp":2508,"Ġsequ":2509,"Ġcaptain":2510,"Ġpolice":2511,"Ġinvolved":2512,"Ġstop":2513,"Ġeuropean":2514,"ification":2515,"Ġlangu":2516,"Ġminutes":2517,"erous":2518,"Ġearlier":2519,"fall":2520,"west":2521,"Ġfinished":2522,"Ġresearch":2523,"Ġsociety":2524,"asion":2525,"aled":2526,"Ġhop":2527,"ha":2528,"Ġcontrib":2529,"utive":2530,"Ġlength":2531,"Ġpossible":2532,"Ġsaying":2533,"Ġindic":2534,"off":2535,"Ġroman":2536,"ago":2537,"lic":2538,"Ġimmedi":2539,"Ġcommerc":2540,"Ġchange":2541,"Ġny":2542,"reg":2543,"Ġpil":2544,"Ġtrib":2545,"Ġassociation":2546,"Ġkeep":2547,"Ġadmin":2548,"Ġremov":2549,"Ġlargest":2550,"Ġatl":2551,"Ġhighest":2552,"Ġparticularly":2553,"Ġlower":2554,"Ġboy":2555,"Ġfilms":2556,"Ġbeginning":2557,"Ġbad":2558,"Ġfly":2559,"Ġscott":2560,"Ġexist":2561,"Ġkey":2562,"Ġadm":2563,"Ġavailable":2564,"ishing":2565,"Ġrespons":2566,"Ġpercent":2567,"Ġplat":2568,"Ġvirgin":2569,"Ġforced":2570,"pected":2571,"Ġsection":2572,"Ġassist":2573,"Ġ2001":2574,"Ġbetter":2575,"wer":2576,"Ġweak":2577,"Ġachie":2578,"Ġdisp":2579,"Ġuk":2580,"hib":2581,"Ġoutside":2582,"Ġdeal":2583,"anned":2584,"Ġtaking":2585,"Ġanti":2586,"Ġlear":2587,"mar":2588,"Ġmeas":2589,"Ġcharles":2590,"Ġcommitte":2591,"aring":2592,"Ġheart":2593,"ography":2594,"Ġgrant":2595,"Ġnovel":2596,"Ġthomas":2597,"ĠÂ°":2598,"Ġmaint":2599,"Ġturned":2600,"Ġincreased":2601,"Ġended":2602,"ipp":2603,"Ġreason":2604,"Ġunits":2605,"of":2606,"ems":2607,"ida":2608,"Ġfeel":2609,"oke":2610,"Ġcommunity":2611,"Ġreviews":2612,"Ġcalif":2613,"sel":2614,"ases":2615,"Ġacad":2616,"Ġnin":2617,"Ġfuture":2618,"Ġpassed":2619,"Ġpraised":2620,"oph":2621,"Ġcaliforn":2622,"heast":2623,"Ġmove":2624,"Ġhous":2625,"Ġgoing":2626,"Ġbeat":2627,"Ġpan":2628,"Ġ2002":2629,"Ġabove":2630,"Ġmcc":2631,"Ġadditional":2632,"Ġtex":2633,"Ġappearance":2634,"iation":2635,"key":2636,"Ġphot":2637,"Ġthus":2638,"Ġguitar":2639,"for":2640,"su":2641,"Ġbird":2642,"action":2643,"ios":2644,"Ġtype":2645,"aded":2646,"Ġcanada":2647,"itor":2648,"Ġps":2649,"str":2650,"Ġlik":2651,"Ġenough":2652,"Ġliter":2653,"Ġcastle":2654,"Ġinfantry":2655,"ership":2656,"Ġordered":2657,"Ġlake":2658,"Ġsmith":2659,"Ġplot":2660,"Ġdaugh":2661,"Ġpreviously":2662,"Ġpun":2663,"Ġlat":2664,"tr":2665,"Ġpersonal":2666,"ocr":2667,"Ġsigned":2668,"Ġmusical":2669,"ey":2670,"Ġminor":2671,"nal":2672,"Ġdoc":2673,"Ġterrit":2674,"Ġrichard":2675,"tt":2676,"ston":2677,"Ġalex":2678,"Ġelements":2679,"Ġinstit":2680,"Ġrights":2681,"Ġmarket":2682,"arily":2683,"Ġdig":2684,"Ġpac":2685,"Ġtheat":2686,"Ġviol":2687,"Ġcalifornia":2688,"Ġabs":2689,"ush":2690,"pped":2691,"Ġpositive":2692,"agon":2693,"my":2694,"Ġprob":2695,"Ġcritical":2696,"Ġdead":2697,"ference":2698,"Ġparts":2699,"Ġha":2700,"Ġaccess":2701,"Ġfood":2702,"Ġlord":2703,"Ġbackground":2704,"Ġgive":2705,"erson":2706,"Ġlines":2707,"pper":2708,"gen":2709,"Ġbat":2710,"Ġtravel":2711,"Ġpow":2712,"Ġmoney":2713,"Ġfemale":2714,"sen":2715,"Ġspent":2716,"Ġbeg":2717,"Ġoverall":2718,"Ġtold":2719,"itz":2720,"Ġprinc":2721,"cts":2722,"Ġsubject":2723,"ique":2724,"ilities":2725,"clus":2726,"Ġscient":2727,"Ġtax":2728,"Ġmic":2729,"Ġdirected":2730,"Ġflood":2731,"uation":2732,"Ġblue":2733,"back":2734,"Ġcommittee":2735,"uter":2736,"Ġvictor":2737,"elled":2738,"Ġinterview":2739,"Ġfailed":2740,"Ġdeep":2741,"Ġ1990":2742,"Ġpet":2743,"Ġ60":2744,"nel":2745,"Ġdomin":2746,"Ġchap":2747,"Ġcorn":2748,"Ġsquare":2749,"Ġrequired":2750,"Ġpoor":2751,"Ġdebut":2752,"Ġgroups":2753,"reng":2754,"mon":2755,"Ġ45":2756,"Ġmach":2757,"Ġgermany":2758,"ga":2759,"Ġclear":2760,"Ġhapp":2761,"Ġkil":2762,"Ġbroadcast":2763,"Ġobject":2764,"bers":2765,"sc":2766,"nes":2767,"Ġterm":2768,"ĠÃ":2769,"Ġdistrict":2770,"Ġconstit":2771,"Ġpeter":2772,"Ġroll":2773,"ening":2774,"Ġexc":2775,"Ġenv":2776,"Ġanal":2777,"Ġitself":2778,"Ġhealth":2779,"ume":2780,"Ġindia":2781,"Ġchristian":2782,"Ġbattalion":2783,"Ġevidence":2784,"Ġsometimes":2785,"Ġwal":2786,"Ġstep":2787,"isl":2788,"Ġfrank":2789,"ibility":2790,"Ġprison":2791,"Ġbank":2792,"berg":2793,"Ġoccup":2794,"Ġreception":2795,"Ġcontract":2796,"Ġ185":2797,"Ġelection":2798,"Ġinvestig":2799,"Ġcommercial":2800,"Ġasked":2801,"Ġstars":2802,"Ġtransfer":2803,"Ġexcept":2804,"ĠÂ£":2805,"Ġ?":2806,"ready":2807,"Ġlu":2808,"Ġdefend":2809,"stand":2810,"erved":2811,"Ġparl":2812,"ii":2813,"Ġze":2814,"Ġstreng":2815,"ability":2816,"Ġliving":2817,"Ġadminist":2818,"Ġour":2819,"ays":2820,"Ġsov":2821,"Ġwhose":2822,"Ġmex":2823,"edy":2824,"aker":2825,"apt":2826,"gar":2827,"onse":2828,"Ġnatural":2829,"Ġstudy":2830,"airs":2831,"Ġcomplete":2832,"Ġalready":2833,"Ġclaimed":2834,"onna":2835,"Ġgovernor":2836,"Ġapproxim":2837,"Ġclim":2838,"ream":2839,"Ġchic":2840,"Ġbey":2841,"Ġsoviet":2842,"Ġflor":2843,"Ġintroduced":2844,"Ġfrequ":2845,"igan":2846,"Ġwhom":2847,"Ġforest":2848,"Ġminister":2849,"Ġthink":2850,"Ġusually":2851,"Ġamb":2852,"Ġburn":2853,"Ġwoman":2854,"Ġmuse":2855,"Ġstudents":2856,"enue":2857,"wor":2858,"Ġeducation":2859,"Ġquickly":2860,"acted":2861,"Ġidea":2862,"bc":2863,"Ġlimited":2864,"Ġbud":2865,"Ġwild":2866,"Ġbul":2867,"Ġrh":2868,"Ġfranc":2869,"Ġanc":2870,"Ġmight":2871,"Ġguard":2872,"Ġeffects":2873,"Ġmovement":2874,"Ġconcern":2875,"Ġ32":2876,"Ġresponse":2877,"Ġprevent":2878,"Ġlib":2879,"Ġsyn":2880,"Ġissue":2881,"Ġcertain":2882,"Ġcommander":2883,"Ġcentre":2884,"Ġslow":2885,"Ġgro":2886,"Ġqueen":2887,"atory":2888,"Ġ1970":2889,"Ġplant":2890,"Ġsurface":2891,"Ġpolic":2892,"Ġyour":2893,"Ġself":2894,"Ġlay":2895,"Ġtun":2896,"Ġdepartment":2897,"aint":2898,"Ġfifth":2899,"Ġarrived":2900,"Ġespec":2901,"bour":2902,"Ġ1980":2903,"Ġsand":2904,"Ġhosp":2905,"Ġbritain":2906,"Ġface":2907,"Ġespecially":2908,"Ġdecision":2909,"Ġservices":2910,"pr":2911,"sec":2912,"ergy":2913,"Ġfer":2914,"Ġoperations":2915,"Ġvillage":2916,"Ġteams":2917,"Ġvoice":2918,"Ġlie":2919,"Ġparliam":2920,"ties":2921,"Ġstructure":2922,"Ġbox":2923,"Ġshows":2924,"Ġrac":2925,"Ġran":2926,"ump":2927,"Ġgard":2928,"anded":2929,"Ġcongress":2930,"Ġmuseum":2931,"Ġindustry":2932,"Ġwalk":2933,"Ġlarger":2934,"ba":2935,"Ġfest":2936,"Ġwriter":2937,"Ġscience":2938,"Ġlyric":2939,"Ġbecoming":2940,"Ġremaining":2941,"Ġestimated":2942,"Ġlatter":2943,"Ġepisodes":2944,"Ġremain":2945,"Ġdefeated":2946,"Ġ-":2947,"Ġcarried":2948,"fl":2949,"Ġheav":2950,"Ġparliament":2951,"Ġgot":2952,"ises":2953,"Ġmultip":2954,"wh":2955,"Ġultim":2956,"Ġdraw":2957,"Ġnetwork":2958,"Ġdiscuss":2959,"aries":2960,"oor":2961,"pre":2962,"Ġol":2963,"Ġpressure":2964,"Ġblood":2965,"Ġ1999":2966,"Ġprogress":2967,"Ġsurround":2968,"Ġflag":2969,"ully":2970,"iron":2971,"Ġscenes":2972,"Ġcm":2973,"Ġconsider":2974,"Ġbrief":2975,"ites":2976,"de":2977,"Ġleaving":2978,"Ġrunning":2979,"Ġchanges":2980,"ulf":2981,"Ġacqu":2982,"Ġvirginia":2983,"Ġcand":2984,"Ġjew":2985,"Ġcomplet":2986,"Ġmas":2987,"ession":2988,"Ġ36":2989,"Ġnaval":2990,"porary":2991,"Ġdom":2992,"ror":2993,"Ġsuggested":2994,"outh":2995,"Ġentered":2996,"Ġnearly":2997,"val":2998,"Ġ80":2999,"Ġdepression":3000,"orial":3001,"ining":3002,"Ġquarter":3003,"Ġappointed":3004,"Ġwinning":3005,"Ġinfluence":3006,"Ġdate":3007,"Ġapproximately":3008,"ift":3009,"Ġfail":3010,"Ġchall":3011,"Ġtwent":3012,"Ġsize":3013,"Ġros":3014,"Ġemb":3015,"Ġcapital":3016,"Ġleader":3017,"Ġlanguage":3018,"Ġfant":3019,"erve":3020,"Ġshortly":3021,"Ġislands":3022,"Ġregiment":3023,"Ġestablish":3024,"Ġempire":3025,"Ġscript":3026,"Ġfederal":3027,"Ġfavor":3028,"Ġmeth":3029,"Ġequip":3030,"Ġcourse":3031,"Ġscreen":3032,"Ġtoday":3033,"Ġthr":3034,"ta":3035,"Ġjackson":3036,"Ġfinally":3037,"ania":3038,"Ġbra":3039,"change":3040,"Ġupper":3041,"Ġwide":3042,"ander":3043,"Ġtracks":3044,"Ġunl":3045,"Ġmission":3046,"Ġcann":3047,"Ġoly":3048,"Ġlouis":3049,"Ġdestroyed":3050,"Ġproposed":3051,"Ġdaughter":3052,"Ġpurch":3053,"ulated":3054,"Ġhigher":3055,"Ġolymp":3056,"Ġwing":3057,"Ġproducer":3058,"Ġmanager":3059,"burg":3060,"Ġarrang":3061,"Ġspanish":3062,"king":3063,"Ġcorps":3064,"abor":3065,"Ġlad":3066,"Ġexperience":3067,"Ġnature":3068,"Ġvan":3069,"Ġdistrib":3070,"Ġ75":3071,"Ġcer":3072,"Ġenviron":3073,"Ġprincip":3074,"Ġhorse":3075,"Ġprovide":3076,"Ġsubsequently":3077,"Ġbrigade":3078,"Ġbattles":3079,"idents":3080,"Ġrailway":3081,"Ġprofessional":3082,"ires":3083,"Ġaltern":3084,"mitted":3085,"Ġdiss":3086,"ension":3087,"Ġcompared":3088,"Ġbreed":3089,"iser":3090,"oid":3091,"Ġparen":3092,"Ġcomplex":3093,"Ġconcept":3094,"Ġhero":3095,"Ġintended":3096,"Ġemerg":3097,"Ġimmediately":3098,"Ġmarried":3099,"Ġdemocr":3100,"inese":3101,"Ġaw":3102,"Ġ1960":3103,"Ġprivate":3104,"Ġ184":3105,"Ġfans":3106,"Ġsaf":3107,"Ġcele":3108,"Ġtemper":3109,"Ġjournal":3110,"Ġ300":3111,"Ġpict":3112,"Ġsupported":3113,"ÃŃ":3114,"ns":3115,"Ġagreed":3116,"Ġstay":3117,"Ġspir":3118,"Ġentertain":3119,"Ġshoot":3120,"Ġintens":3121,"alled":3122,"Ġcompan":3123,"Ġbord":3124,"Ġdone":3125,"Ġmr":3126,"Ġedward":3127,"Ġarchit":3128,"Ġmodel":3129,"Ġfeature":3130,"Ġincreasing":3131,"Ġinitial":3132,"gy":3133,"Ġawarded":3134,"Ġliber":3135,"Ġgi":3136,"ria":3137,"Ġweap":3138,"Ġdisplay":3139,"Ġchicago":3140,"Ġbor":3141,"Ġarchitect":3142,"Ġchinese":3143,"Ġwhether":3144,"Ġhelped":3145,"Ġrelated":3146,"Ġlegisl":3147,"Ġplanned":3148,"Ġcard":3149,"down":3150,"Ġbooks":3151,"Ġofficer":3152,"Ġimm":3153,"ching":3154,"Ġ1998":3155,"aph":3156,"Ġsoldiers":3157,"Ġmom":3158,"Ġcreate":3159,"Ġbring":3160,"Ġlonger":3161,"Ġtrade":3162,"Ã¶":3163,"Ġartic":3164,"uk":3165,"hem":3166,"Ġfair":3167,"Ġmont":3168,"Ġhere":3169,"Ġwit":3170,"atively":3171,"Ġattr":3172,"Ġple":3173,"ores":3174,"Ġcause":3175,"Ġkore":3176,"thing":3177,"Ġgal":3178,"Ġcaptured":3179,"teen":3180,"Ġvalley":3181,"Ġplans":3182,"Ġyet":3183,"Ġiron":3184,"Ġbuildings":3185,"Ġconserv":3186,"Ġcolor":3187,"omm":3188,"ban":3189,"ny":3190,"Ġunit":3191,"Ġforward":3192,"Ġblock":3193,"inct":3194,"Ġchanged":3195,"Ġconclud":3196,"Ġq":3197,"Ġwinter":3198,"Ġwithd":3199,"Ġpenn":3200,"Ġcoach":3201,"asy":3202,"Ġassociated":3203,"Ġsubst":3204,"Ġfriends":3205,"Ġdance":3206,"chester":3207,"Ġsomething":3208,"Ġofficers":3209,"Ġinstr":3210,"Ġspring":3211,"ien":3212,"Ġremains":3213,"Ġmostly":3214,"selves":3215,"Ġpacific":3216,"Ġsingles":3217,"Ġ33":3218,"Ġbillboard":3219,"Ġsev":3220,"abit":3221,"Ġjohnson":3222,"Ġthemselves":3223,"Ġstandard":3224,"Ġrat":3225,"Ġ70":3226,"ronic":3227,"Ġtarget":3228,"Ġcountries":3229,"Ġlyrics":3230,"oms":3231,"Ġexam":3232,"Ġmixed":3233,"Ġprobably":3234,"ken":3235,"riage":3236,"Ġreally":3237,"Ġmethod":3238,"hl":3239,"Ġextended":3240,"well":3241,"Ġray":3242,"Ġmoving":3243,"Ġpu":3244,"Ġnumerous":3245,"Ġfinanc":3246,"Ġfit":3247,"Ġattend":3248,"Ã¼":3249,"ena":3250,"Ġinformation":3251,"Ġportray":3252,"Ġcontem":3253,"leg":3254,"Ġcopies":3255,"Ġalways":3256,"Ġrequest":3257,"Ġnation":3258,"Ġvisit":3259,"Ġscot":3260,"Ġlocation":3261,"Ġgoals":3262,"Ġca":3263,"Ġoce":3264,"isions":3265,"Ġrid":3266,"Ġindividual":3267,"Ġbirth":3268,"Ġsales":3269,"Ġcit":3270,"Ġfocus":3271,"Ġ1997":3272,"rated":3273,"rd":3274,"Ġissued":3275,"Ġcounter":3276,"Ġstatus":3277,"Ġmess":3278,"Ġleave":3279,"Ġenergy":3280,"Ġatlantic":3281,"Ġincludes":3282,"Ġartist":3283,"andon":3284,"olic":3285,"ili":3286,"Ġtas":3287,"Ġconference":3288,"Ġ37":3289,"Ġsuffered":3290,"Ġjim":3291,"Ġmale":3292,"can":3293,"Ġsinger":3294,"Ġvia":3295,"Ġadmir":3296,"Ġtraff":3297,"Ġhospital":3298,"Ġtal":3299,"Ġimpact":3300,"ands":3301,"Ġflorida":3302,"Ġmartin":3303,"Ġedition":3304,"Ġproblems":3305,"Ġalbums":3306,"Ġbene":3307,"Ġmaxim":3308,"Ġmeeting":3309,"Ġtermin":3310,"hood":3311,"Ġdouble":3312,"Ġgall":3313,"Ġlikely":3314,"Ġchina":3315,"Ġincrease":3316,"Ġcarry":3317,"Ġassemb":3318,"Ġremoved":3319,"Ġapproach":3320,"Ġindependent":3321,"bury":3322,"Ġcelebr":3323,"Ġmovie":3324,"Ġbond":3325,"bed":3326,"Ġdog":3327,"Ġtexas":3328,"Ġrevolution":3329,"pan":3330,"Ġinspired":3331,"Ġforeign":3332,"atives":3333,"chan":3334,"Ġrang":3335,"Ġrefle":3336,"ole":3337,"Ġmaster":3338,"Ġterms":3339,"Ġprimary":3340,"Ġcreek":3341,"Ġdv":3342,"Ġmajority":3343,"lands":3344,"Ġsir":3345,"Ġcompos":3346,"Ġkind":3347,"Ġast":3348,"Ġoffered":3349,"Ġwa":3350,"Ġice":3351,"Ġinterse":3352,"Ġconsist":3353,"Ġtakes":3354,"Ġqual":3355,"Ġminute":3356,"vin":3357,"Ġvehic":3358,"ograph":3359,"Ġtons":3360,"isc":3361,"vey":3362,"Ġstad":3363,"aily":3364,"Ġens":3365,"Ġdrum":3366,"ously":3367,"Ġadop":3368,"iter":3369,"Ġattacks":3370,"ounted":3371,"Ġsar":3372,"Ġut":3373,"Ġfox":3374,"Ġentertainment":3375,"Ġmakes":3376,"Ġconfir":3377,"Ġign":3378,"Ġword":3379,"Ġcomposed":3380,"Ġdamaged":3381,"Ġoil":3382,"Ġcombat":3383,"Ġraised":3384,"Ġ183":3385,"Ġcanadian":3386,"Ġranked":3387,"Ġenvironment":3388,"ounds":3389,"Ġafrica":3390,"etic":3391,"Ġprec":3392,"Ġconcert":3393,"Ġlog":3394,"icted":3395,"Ġcarol":3396,"Ã³":3397,"aches":3398,"Ġcyclone":3399,"Ġshar":3400,"Ġwrest":3401,"het":3402,"Ġdaily":3403,"Ġletter":3404,"Ġund":3405,"Ġappears":3406,"Ġfighting":3407,"Ġselected":3408,"Ġmountain":3409,"light":3410,"Ġrevealed":3411,"Ġdiscovered":3412,"Ġcateg":3413,"oo":3414,"Ġsimp":3415,"Ġtrain":3416,"Ġmetal":3417,"Ġactive":3418,"Ġdeterm":3419,"Ġrussian":3420,"Ġera":3421,"Ġdeg":3422,"ify":3423,"Ġ90":3424,"ucle":3425,"Ġmorning":3426,"ails":3427,"Ġinside":3428,"Ġsports":3429,"Ġconditions":3430,"ung":3431,"Ġtwenty":3432,"Ġkent":3433,"aland":3434,"Ġdemon":3435,"Ġunable":3436,"Ġschol":3437,"Ġlaunched":3438,"ari":3439,"uries":3440,"Ġgreater":3441,"era":3442,"umed":3443,"Ġrespectively":3444,"ste":3445,"Ġwr":3446,"Ġven":3447,"Ġtv":3448,"Ġsched":3449,"Ġwhole":3450,"Ġ1995":3451,"Ġnumbers":3452,"Ġissues":3453,"Ġneeded":3454,"Ġsister":3455,"Ġsmaller":3456,"Ġbelow":3457,"Ġangeles":3458,"Ġos":3459,"Ġincor":3460,"ee":3461,"Ġthir":3462,"Ġlived":3463,"Ġconnect":3464,"ado":3465,"Ġadvance":3466,"Ġtouch":3467,"Ġcontains":3468,"Ġ34":3469,"uth":3470,"Ġyard":3471,"Ġattempted":3472,"Ġslight":3473,"Ġattacked":3474,"Ġtraditional":3475,"lor":3476,"Ġyards":3477,"Ġshown":3478,"ription":3479,"zz":3480,"Ġbed":3481,"Ġstra":3482,"Ġculture":3483,"Ġoccurred":3484,"Ġnewsp":3485,"Ġreligious":3486,"uments":3487,"aj":3488,"Ġpick":3489,"Ġcart":3490,"uals":3491,"use":3492,"Ġnick":3493,"Ġiii":3494,"Ġ38":3495,"Ġsilver":3496,"aging":3497,"Ġrein":3498,"iest":3499,"Ġdefeat":3500,"Ġring":3501,"Ġcab":3502,"Ġtourn":3503,"ortun":3504,"joy":3505,"Ġrecover":3506,"Ġactor":3507,"Ġannual":3508,"Ġlarg":3509,"anced":3510,"ech":3511,"Ġrare":3512,"Ġelected":3513,"Ġfestival":3514,"Ġiv":3515,"Ġ2016":3516,"Ġpeace":3517,"Ġreferred":3518,"Ġ1996":3519,"aught":3520,"Ġ1950":3521,"Ġconstant":3522,"new":3523,"Ġreform":3524,"Ġbon":3525,"izing":3526,"uing":3527,"cting":3528,"Ġfrancis":3529,"Ġmind":3530,"Ġneigh":3531,"Ġdra":3532,"rial":3533,"urity":3534,"amb":3535,"Ġbab":3536,"olk":3537,"vert":3538,"Ġjose":3539,"Ġaudience":3540,"Ġschools":3541,"Ġtheme":3542,"Ġsav":3543,"Ġresulted":3544,"Ġlargely":3545,"Ġpsy":3546,"rian":3547,"Ġassigned":3548,"Ġmagn":3549,"Ġcovered":3550,"Ġprince":3551,"asc":3552,"Ġris":3553,"Ġocean":3554,"enant":3555,"Ġath":3556,"Ġdar":3557,"Ġfast":3558,"Ġdun":3559,"Ġexpress":3560,"Ġlink":3561,"Ġitalian":3562,"Ġvariety":3563,"Ġlisted":3564,"Ġcollection":3565,"Ġpurp":3566,"uated":3567,"Ġban":3568,"Ġ1994":3569,"Ġguest":3570,"Ġglob":3571,"Ġcompetition":3572,"hold":3573,"ya":3574,"Ġcath":3575,"Ġnames":3576,"Ġash":3577,"mi":3578,"Ġearned":3579,"Ġstadium":3580,"Ġcontrovers":3581,"Ġexpected":3582,"ls":3583,"Ġcommented":3584,"Ġhaw":3585,"tered":3586,"Ġsout":3587,"itude":3588,"Ġstarting":3589,"Ġrapid":3590,"Ġclosed":3591,"ãĥ":3592,"quar":3593,"Ġperformances":3594,"Ġattention":3595,"Ġnucle":3596,"Ġdocument":3597,"Ġquestion":3598,"Ġimper":3599,"Ġenter":3600,"Ġairport":3601,"Ġgiving":3602,"Ġmichigan":3603,"ental":3604,"Ġlegal":3605,"Ġaccount":3606,"Ġrefused":3607,"Ġviet":3608,"Ġextre":3609,"Ġmir":3610,"Ġeconomic":3611,"Ġfigh":3612,"Ġkar":3613,"Ġrepe":3614,"Ġcrow":3615,"Ġcham":3616,"ij":3617,"Ġcust":3618,"ounts":3619,"Ġcompl":3620,"Ġgreatest":3621,"Ġwaters":3622,"Ġsett":3623,"aped":3624,"Ġenjoy":3625,"ples":3626,"Ġelectric":3627,"Ġtower":3628,"Ġwales":3629,"utions":3630,"Ġability":3631,"Ġserious":3632,"Ġdirection":3633,"nding":3634,"Ġstories":3635,"Ġnotes":3636,"Ġnative":3637,"Ġdie":3638,"Ġhund":3639,"Ġpromin":3640,"Ġ1940":3641,"Ġdeclared":3642,"Ġrate":3643,"Ġmun":3644,"Ġmeant":3645,"Ġmatches":3646,"Ġstan":3647,"Ġvocals":3648,"bridge":3649,"Ġthings":3650,"Ġod":3651,"Ġpoll":3652,"pted":3653,"Ġspl":3654,"Ġ49":3655,"Ġ180":3656,"bre":3657,"Ġhundred":3658,"isher":3659,"Ġmention":3660,"Ġhus":3661,"Ġabandon":3662,"Ġlevels":3663,"uf":3664,"Ġwords":3665,"Ġswe":3666,"uff":3667,"Ġkh":3668,"Ġnearby":3669,"gl":3670,"ims":3671,"Ġchann":3672,"ona":3673,"Ġmarriage":3674,"Ġproduce":3675,"Ġtext":3676,"Ġdoctor":3677,"Ġnecess":3678,"Ġconstitution":3679,"ker":3680,"Ġcry":3681,"Ġpractice":3682,"Ġdefense":3683,"Ġprep":3684,"Ġconstructed":3685,"Ġfill":3686,"Ġemper":3687,"win":3688,"Ġsource":3689,"odies":3690,"ols":3691,"Ġlot":3692,"Ġfantasy":3693,"iences":3694,"Ġ41":3695,"icient":3696,"Ġ1992":3697,"Ġcandid":3698,"wide":3699,"Ġmatt":3700,"pass":3701,"road":3702,"gs":3703,"Ġdvd":3704,"Ġvocal":3705,"Ġseparate":3706,"Ġhighly":3707,"ram":3708,"Ġlabor":3709,"Ġess":3710,"icated":3711,"Ġmeans":3712,"Ġeth":3713,"Ġfarm":3714,"Ġwriters":3715,"ette":3716,"Ġrow":3717,"umn":3718,"Ġmedical":3719,"itation":3720,"Ġspot":3721,"Ġzealand":3722,"Ġcontroll":3723,"Ġexecutive":3724,"ging":3725,"Ġles":3726,"Ġexhib":3727,"Ġdirectly":3728,"ishop":3729,"Ġpositions":3730,"Ġultimately":3731,"Ġpurs":3732,"ellow":3733,"Ġobserv":3734,"Ġda":3735,"Ġnorthwest":3736,"Ġweather":3737,"ping":3738,"Ġsle":3739,"Ġcontinue":3740,"Ġpresented":3741,"Ġreduced":3742,"Ġeffort":3743,"kin":3744,"Ġafrican":3745,"mas":3746,"Ġmexico":3747,"Ġcub":3748,"Ġmultiple":3749,"Ġadmiral":3750,"Ġjer":3751,"Ġbound":3752,"Ġ400":3753,"Ġchem":3754,"writ":3755,"Åį":3756,"Ġflow":3757,"Ġefforts":3758,"Ġbrad":3759,"Ġdism":3760,"ibly":3761,"Ġanimals":3762,"Ġmechan":3763,"Ġformation":3764,"Ġdyn":3765,"Ġ1930":3766,"Ġhouses":3767,"Ġlieut":3768,"Ġchris":3769,"ding":3770,"Ġstrateg":3771,"ogue":3772,"Ġsettle":3773,"band":3774,"Ġtried":3775,"rical":3776,"Ġlin":3777,"Ġgas":3778,"Ġmemorial":3779,"Ġattended":3780,"Ġ55":3781,"kn":3782,"Ġbatter":3783,"Ġstudies":3784,"Ġaccepted":3785,"Ġstating":3786,"Ġfinancial":3787,"Ġwear":3788,"Ġparal":3789,"Ġtalk":3790,"Ġrule":3791,"Ġlibr":3792,"Ġmadonna":3793,"vement":3794,"acher":3795,"don":3796,"Ġpair":3797,"Ġseem":3798,"Ġspecific":3799,"Ġsymb":3800,"la":3801,"Ġdepend":3802,"rie":3803,"Ġ1993":3804,"Ġbob":3805,"Ġ1991":3806,"Ġoh":3807,"Ġhonor":3808,"Ġadvent":3809,"Ġincorpor":3810,"track":3811,"rier":3812,"isation":3813,"Ġending":3814,"Ġbegins":3815,"Ġthick":3816,"Ġsaint":3817,"Ġcerem":3818,"Ġrecomm":3819,"Ġinch":3820,"Ġorganization":3821,"Ġ179":3822,"Ġram":3823,"Ġpilot":3824,"Äĩ":3825,"anes":3826,"Ġlif":3827,"Ġtrue":3828,"Ġtheatre":3829,"Ġtraffic":3830,"ruction":3831,"Ġsides":3832,"Ġenemy":3833,"Ġcases":3834,"Ġscotland":3835,"Ġjones":3836,"Ġrough":3837,"illery":3838,"Ġdrive":3839,"Ġarrest":3840,"ners":3841,"house":3842,"Ġire":3843,"rey":3844,"Ġbell":3845,"Ġpack":3846,"oper":3847,"Ġflying":3848,"Ġluc":3849,"Ġmob":3850,"Ġresponsible":3851,"Ġconfl":3852,"Ġeye":3853,"Ġmanaged":3854,"Ġpath":3855,"Ġforms":3856,"Ġwound":3857,"Ġmeaning":3858,"Ġ+":3859,"Ġuses":3860,"Ġarab":3861,"Ġresulting":3862,"Ġgreek":3863,"Ġkenn":3864,"Ġ39":3865,"Ġtournament":3866,"Ġkept":3867,"Ġsoundtrack":3868,"Ġlieutenant":3869,"Ġacademy":3870,"Ġdropped":3871,"Ġprotest":3872,"Ġshowed":3873,"Ġrose":3874,"Ġauthority":3875,"Ġpolicy":3876,"Ġedge":3877,"Ġbost":3878,"Ġmos":3879,"Ġprime":3880,"Ġ182":3881,"Ġquality":3882,"une":3883,"Ġstrugg":3884,"Ġ48":3885,"Ġemperor":3886,"Ġexped":3887,"Ġ42":3888,"Ġfat":3889,"Ġwick":3890,"Ġartillery":3891,"Ġapart":3892,"Ġcombined":3893,"Ġhors":3894,"claim":3895,"Ġdru":3896,"Ġboat":3897,"ceeded":3898,"Ġacting":3899,"uit":3900,"Ġded":3901,"Ġfounded":3902,"Ġsecretary":3903,"Ġell":3904,"Ġspirit":3905,"Ġcontinues":3906,"Ġtrial":3907,"Ġmarked":3908,"Ġadministration":3909,"ada":3910,"Ġinches":3911,"Ġproperty":3912,"ips":3913,"Ġwilliams":3914,"Ġbit":3915,"Ġsystems":3916,"Ġencoun":3917,"Ġsubsequent":3918,"Ġpropos":3919,"nam":3920,"Ġartists":3921,"ero":3922,"Ġcontemporary":3923,"Ġ181":3924,"Ġattempts":3925,"Ġsearch":3926,"ex":3927,"Ġextr":3928,"Ġterritory":3929,"Ġparis":3930,"gypt":3931,"iated":3932,"Ġdraft":3933,"Ġnortheast":3934,"uge":3935,"Ġsteam":3936,"Ġrear":3937,"Ġcompanies":3938,"thel":3939,"Ġpotential":3940,"Ġmarsh":3941,"Ġperf":3942,"Ġpresence":3943,"Ġmetres":3944,"Ġviewers":3945,"Ġplanet":3946,"icip":3947,"Ġallowing":3948,"ani":3949,"Ġthous":3950,"Ġstudios":3951,"Ġsixth":3952,"ulations":3953,"Ġprepar":3954,"Ġrecent":3955,"Ġsuppl":3956,"Ġscale":3957,"Ġ1942":3958,"Ġcoal":3959,"Ġofficials":3960,"Ġconducted":3961,"ket":3962,"Ġbehav":3963,"je":3964,"Ġegypt":3965,"Ġmu":3966,"thur":3967,"Ġobt":3968,"Ġseg":3969,"Ġjob":3970,"Ġrespond":3971,"Ġpiece":3972,"Ġdigital":3973,"Ġfilming":3974,"Ġhyd":3975,"Ġdefence":3976,"Ġmachine":3977,"Ġlee":3978,"Ġheadquar":3979,"Ġcontrast":3980,"oe":3981,"Ġamount":3982,"Ġtemple":3983,"olf":3984,"Ġtransferred":3985,"Ġcollabor":3986,"standing":3987,"Ġlatin":3988,"Ġparents":3989,"Ġyellow":3990,"ingu":3991,"Ġscoring":3992,"Ġopportun":3993,"Ġic":3994,"Ġmaximum":3995,"Ġsenior":3996,"rain":3997,"Ġcorpor":3998,"Ġfigure":3999,"Ġcoming":4000,"Ġstephen":4001,"Ġdise":4002,"Ġ65":4003,"Ġsac":4004,"Ġallied":4005,"enge":4006,"Ġbeaut":4007,"Ġfeaturing":4008,"inem":4009,"Ġtorped":4010,"Ġtherefore":4011,"Ġprimarily":4012,"cle":4013,"Ġ47":4014,"Ġrelatively":4015,"Ġoxford":4016,"Ġgeorg":4017,"Ġelev":4018,"Ġowned":4019,"Ġpeaked":4020,"Ġtheory":4021,"Ġbecomes":4022,"Ġstudent":4023,"Ġcold":4024,"Ġtitled":4025,"Ġjoseph":4026,"Ġtorpedo":4027,"Ġmort":4028,"Ġactually":4029,"aga":4030,"Ġrecommend":4031,"iance":4032,"Ġportion":4033,"Ġdistance":4034,"Ġbattleship":4035,"Ġcert":4036,"Ġcitiz":4037,"Ġconcluded":4038,"ersey":4039,"Ġstock":4040,"Ġboston":4041,"Ġconver":4042,"Ġpremi":4043,"Ġmanchester":4044,"Ġmut":4045,"Ġton":4046,"Ġinvasion":4047,"Ġsituation":4048,"Ġstrength":4049,"Ġwrite":4050,"Ġbass":4051,"Ġchair":4052,"Ġharrison":4053,"orter":4054,"Ġpsych":4055,"Ġtransl":4056,"Ġjeff":4057,"osh":4058,"Ġbroke":4059,"Ġfunction":4060,"Ġshare":4061,"Ġobserved":4062,"Ġselling":4063,"Ġphysical":4064,"Ġsecurity":4065,"Ġalongside":4066,"Ġcommunic":4067,"arent":4068,"Ġdistinct":4069,"ca":4070,"Ġtree":4071,"Ġswed":4072,"ented":4073,"Ġplays":4074,"Ġpersonnel":4075,"Ġresults":4076,"Ġconcent":4077,"Ġ46":4078,"Ġliver":4079,"Ġ52":4080,"Ġdivided":4081,"Ġsources":4082,"stein":4083,"Ġdoll":4084,"istics":4085,"Ġpaid":4086,"Ġseconds":4087,"Ġresist":4088,"Ġcalling":4089,"ita":4090,"Ġcities":4091,"Ġrating":4092,"Ġ1944":4093,"Ġslightly":4094,"ini":4095,"Ġborder":4096,"Ġshell":4097,"Ġinh":4098,"Ġreturning":4099,"Ġpowerful":4100,"Ġcolumb":4101,"Ġfred":4102,"Ġmanagement":4103,"Ġcontest":4104,"Ġarts":4105,"Ġreject":4106,"Ġhistorian":4107,"Ġott":4108,"Ġhistorical":4109,"Ġ64":4110,"Ġhan":4111,"Ġimperial":4112,"Ġminim":4113,"Ġonto":4114,"Ġsust":4115,"Ġactions":4116,"Ġ43":4117,"Ġelse":4118,"Ġmile":4119,"Ġvess":4120,"Ġplatform":4121,"Ġadj":4122,"aming":4123,"Ġfear":4124,"Ġnothing":4125,"Ġbirds":4126,"ider":4127,"Ġbeach":4128,"Ġkg":4129,"Ġfreed":4130,"Ġinfluenced":4131,"Ġow":4132,"Ġactivity":4133,"Ġcanc":4134,"Ġinnings":4135,"ctive":4136,"astic":4137,"Ġfan":4138,"Ġtrust":4139,"ils":4140,"unt":4141,"Ġ44":4142,"Ġsuc":4143,"Ġresidents":4144,"Ġathlet":4145,"Ġcomedy":4146,"ellig":4147,"force":4148,"Ġbbc":4149,"Ġpoet":4150,"Ġdesignated":4151,"Ġpromoted":4152,"osaur":4153,"Ġnominated":4154,"Ġpassing":4155,"Ġresc":4156,"Ġcultural":4157,"Ġrod":4158,"Ġcrown":4159,"mond":4160,"Ġcompletely":4161,"stone":4162,"Ġcroat":4163,"Ġconflict":4164,"po":4165,"Ġlane":4166,"Ġmis":4167,"Ġproblem":4168,"Ġavenue":4169,"Ġlov":4170,"Ġorche":4171,"Ġweight":4172,"Ġheight":4173,"Ġmainly":4174,"Ġsubs":4175,"phy":4176,"Ġsexual":4177,"Ġtrail":4178,"ault":4179,"Ġstruck":4180,"Ġcharts":4181,"istry":4182,"Ġarms":4183,"iced":4184,"Ġsought":4185,"Ġreplac":4186,"Ġpaper":4187,"Ġrot":4188,"Ġ1920":4189,"Ġhands":4190,"Ġencour":4191,"Ġancient":4192,"Ġsense":4193,"Ġ1945":4194,"Ġseasons":4195,"nds":4196,"Ġwebs":4197,"Ġcontent":4198,"lement":4199,"Ġ1941":4200,"Ġvari":4201,"Ġ150":4202,"Ġdoub":4203,"Ġpul":4204,"Ġconsec":4205,"Ġfeed":4206,"Ġwars":4207,"za":4208,"Ġfish":4209,"Ġcharge":4210,"Ġimage":4211,"Ġreaching":4212,"while":4213,"Ġspect":4214,"ills":4215,"Ġfellow":4216,"Ġweapons":4217,"yer":4218,"zy":4219,"Ġitaly":4220,"Ġcell":4221,"Ġinstrument":4222,"iano":4223,"olved":4224,"Ġdang":4225,"Ġamericans":4226,"Ġchannel":4227,"Ġwidely":4228,"Ġmit":4229,"Ġfavour":4230,"acts":4231,"Ġmedal":4232,"Ġgil":4233,"Ġsr":4234,"Ġry":4235,"Ġbaseball":4236,"Ġappearances":4237,"Ġhabit":4238,"Ġalone":4239,"Ġintellig":4240,"Ġemot":4241,"ura":4242,"Ġjersey":4243,"ques":4244,"Ġconfirmed":4245,"iber":4246,"Ġfres":4247,"Ġkr":4248,"Ġgained":4249,"Ġshel":4250,"ylv":4251,"Ġgra":4252,"Ġbeyond":4253,"Ġfiction":4254,"Ġireland":4255,"Ġchoice":4256,"adel":4257,"Ġbrothers":4258,"Ġjoin":4259,"Ġmurder":4260,"roll":4261,"Ġreign":4262,"ota":4263,"Ġolder":4264,"rative":4265,"Ġbru":4266,"Ġelement":4267,"Ġproved":4268,"Ġsteel":4269,"Ġversions":4270,"Ġanalys":4271,"Ġcrick":4272,"Ġlibrary":4273,"Ġcarl":4274,"uled":4275,"Ġheadquarters":4276,"Ġfloor":4277,"oration":4278,"Ġexplained":4279,"Ġsays":4280,"mans":4281,"cers":4282,"Ġoffer":4283,"Ġahead":4284,"Ġsens":4285,"oman":4286,"Ġalt":4287,"aling":4288,"Ġexpans":4289,"known":4290,"Ġnegot":4291,"ule":4292,"Ġdw":4293,"Ġserve":4294,"Ġrainfall":4295,"Ġ1989":4296,"bon":4297,"Ġcausing":4298,"town":4299,"Ġcomes":4300,"Ġspeech":4301,"Ġsant":4302,"Ġ1943":4303,"Ġhotel":4304,"Ġvictoria":4305,"Ġopt":4306,"ican":4307,"Ġcharl":4308,"Ġsuit":4309,"Ġrecon":4310,"dy":4311,"Ġrequire":4312,"Ġfal":4313,"Ġ51":4314,"Ġexpressed":4315,"Ġcatholic":4316,"Ġequipment":4317,"Ġworkers":4318,"Ġsplit":4319,"Ġhorses":4320,"Ġarticle":4321,"Ġapparent":4322,"ety":4323,"ares":4324,"Ġroads":4325,"Ġreports":4326,"ees":4327,"Ġgrowth":4328,"Ġpap":4329,"Ġprominent":4330,"Ġoffensive":4331,"Ġoccasion":4332,"Ġbranch":4333,"Ġgross":4334,"Ġdrama":4335,"Ġadvanced":4336,"Ġbowl":4337,"Ġexperiment":4338,"ancy":4339,"Ġcapture":4340,"Ġidentified":4341,"Ġofficially":4342,"oured":4343,"Ġsetting":4344,"Ġhusband":4345,"Ġworldwide":4346,"Ġarmed":4347,"ufact":4348,"gu":4349,"usion":4350,"Ġpattern":4351,"Ġsoft":4352,"Ġcategory":4353,"Ġsnow":4354,"ighth":4355,"Ġsurre":4356,"Ġmanufact":4357,"Ġtells":4358,"Ġheavily":4359,"Ġreserve":4360,"Ġsenate":4361,"Ġbott":4362,"Ġjustice":4363,"Ġsport":4364,"Ġmatter":4365,"Ġcomputer":4366,"Ġrepresented":4367,"Ġextra":4368,"iÄĩ":4369,"Ġtrees":4370,"Ġactivities":4371,"Ġescape":4372,"iring":4373,"Ġspread":4374,"mark":4375,"Ġcricket":4376,"Ġunf":4377,"Ġplaces":4378,"Ġmeanwhile":4379,"Ġtreatment":4380,"Ġadapt":4381,"Ġpieces":4382,"bit":4383,"Ġleaves":4384,"ĠÎ":4385,"Ġtay":4386,"bi":4387,"Ġactress":4388,"Ġleaders":4389,"Ġfigures":4390,"Ġjul":4391,"Ġavoid":4392,"Ġfired":4393,"Ġwhy":4394,"Ġinjury":4395,"Ġbelieve":4396,"Ġtoward":4397,"ube":4398,"Ġduke":4399,"Ġagreement":4400,"Ġsupply":4401,"Ġexpedition":4402,"Ġdutch":4403,"Ġlives":4404,"ylvania":4405,"where":4406,"abeth":4407,"Ġunknown":4408,"Ġillust":4409,"Ġdoing":4410,"Ġanth":4411,"Ġcasual":4412,"Ġalbert":4413,"Ġdata":4414,"Ġcouple":4415,"Ġkilomet":4416,"Ġunlike":4417,"Ġprin":4418,"Ġimag":4419,"Ġeliz":4420,"Ġlaid":4421,"Ġeditor":4422,"Ġstrike":4423,"Ġconsisted":4424,"Ġpin":4425,"Ġdebuted":4426,"hire":4427,"essions":4428,"Ġdin":4429,"acity":4430,"Ġwalls":4431,"ours":4432,"ads":4433,"pool":4434,"Ġri":4435,"Ġmig":4436,"Ġdream":4437,"Ġaired":4438,"Ġid":4439,"Ġbart":4440,"Ġargued":4441,"ushed":4442,"Ġopin":4443,"Ġstations":4444,"Ġwatch":4445,"Ġtypically":4446,"Ġopposition":4447,"more":4448,"Ġsevere":4449,"Ġspin":4450,"Ġmoment":4451,"Ġstore":4452,"Ġreference":4453,"Ġmounted":4454,"osen":4455,"Ġhomer":4456,"iles":4457,"Ġtwice":4458,"Ġclaims":4459,"Ġnations":4460,"Ġaffected":4461,"Ġpolish":4462,"Ġdescription":4463,"bn":4464,"Ġactors":4465,"Ġcra":4466,"oty":4467,"Ġanimal":4468,"Ġaspect":4469,"Ġfaced":4470,"inson":4471,"Ġindustrial":4472,"Ġpowers":4473,"Ġ600":4474,"lines":4475,"Ġemph":4476,"Ġnotable":4477,"Ġsupre":4478,"Ġsher":4479,"Ġjon":4480,"Ġsky":4481,"Ġmaintained":4482,"Ġaccident":4483,"Ġtechnology":4484,"Ġtrying":4485,"Ġprotection":4486,"Ġvalue":4487,"elle":4488,"gers":4489,"Ġknight":4490,"Ġvisited":4491,"Ġtable":4492,"ifying":4493,"Ġorders":4494,"Ġdaniel":4495,"Ġconvers":4496,"Ġcriticized":4497,"Ġlanding":4498,"Ġconne":4499,"Ġdelay":4500,"Ġfuel":4501,"Ġmotor":4502,"ux":4503,"Ġcarolina":4504,"Ġbroken":4505,"Ġholly":4506,"Ġsom":4507,"Ġsail":4508,"Ġfully":4509,"emic":4510,"Ġresident":4511,"Ġba":4512,"worth":4513,"Ġgrowing":4514,"Ġchosen":4515,"Ġmotion":4516,"ockey":4517,"Ġtwel":4518,"Ġet":4519,"har":4520,"ruit":4521,"Ġ53":4522,"Ġ1987":4523,"Ġinstitute":4524,"Ġcooper":4525,"ocks":4526,"Ġmul":4527,"Ġscottish":4528,"enger":4529,"Ġlabel":4530,"Ġtwelve":4531,"Ġdur":4532,"Ġdemonstr":4533,"gian":4534,"Ġ1988":4535,"Ġcriticism":4536,"Ġhat":4537,"Ġproducers":4538,"Ġyouth":4539,"Ġfrequently":4540,"Ġcompar":4541,"ola":4542,"Ġsolo":4543,"Ġentr":4544,"Ġseventh":4545,"Ġurban":4546,"Ġphilos":4547,"Ġta":4548,"Ġjoint":4549,"clusion":4550,"Ġcondition":4551,"Ġwounded":4552,"Ġ85":4553,"Ġlands":4554,"ayer":4555,"Ġaccompan":4556,"Ġpenns":4557,"Ġmd":4558,"Ġvice":4559,"Ġnest":4560,"Ġbenef":4561,"Ġlooking":4562,"Ġinte":4563,"Ġtra":4564,"Ġgolden":4565,"Ġnewspaper":4566,"Ġoppos":4567,"Ġsurrounding":4568,"ala":4569,"agn":4570,"Ġbillion":4571,"Ġchor":4572,"Ġbol":4573,"Ġindependence":4574,"Ġdegree":4575,"Ġlew":4576,"Ġcomposition":4577,"rael":4578,"Ġmoon":4579,"Ġregister":4580,"Ġoperated":4581,"Ġbarb":4582,"Ġrepublican":4583,"Ġassembly":4584,"Ġnuclear":4585,"Ġbudget":4586,"Ġchampion":4587,"izes":4588,"ordin":4589,"Ġcomic":4590,"Ġperfect":4591,"Ġserving":4592,"Ġgrew":4593,"Ġdry":4594,"Ġcreation":4595,"Ġsoutheast":4596,"uous":4597,"Ġsimply":4598,"Ġhip":4599,"Ġfollows":4600,"Ġrival":4601,"Ġincident":4602,"Ġvote":4603,"Ġlosing":4604,"Ġexpansion":4605,"Ġcool":4606,"Ġfamous":4607,"ano":4608,"Ġkilling":4609,"Ġcontained":4610,"Ġrisk":4611,"under":4612,"Ġnewly":4613,"Ġagric":4614,"wise":4615,"ias":4616,"Ġcontact":4617,"Ġbc":4618,"mission":4619,"Ġherself":4620,"Ġpasses":4621,"Ġoppon":4622,"Ġandrew":4623,"Ġweekly":4624,"Ġends":4625,"Ġindividuals":4626,"Ġcaval":4627,"Ġbac":4628,"yle":4629,"Ġpros":4630,"Ġchristmas":4631,"urb":4632,"Ġcinem":4633,"ivity":4634,"hew":4635,"wall":4636,"Ġnormal":4637,"Ġapplic":4638,"Ġjac":4639,"Ġ54":4640,"Ġsin":4641,"yr":4642,"Ġheard":4643,"Ġgh":4644,"Ġeyes":4645,"Ġhomes":4646,"Ġattrib":4647,"Ġconsecutive":4648,"Ã¨":4649,"ote":4650,"Ġwilson":4651,"Ġtam":4652,"cul":4653,"isters":4654,"Ġemphas":4655,"Ġnav":4656,"Ġchronic":4657,"Ġtaylor":4658,"Ġcrossing":4659,"ucky":4660,"Ġaer":4661,"Ġcannot":4662,"Ġthing":4663,"Ġorchest":4664,"Ġwebsite":4665,"Ġmeasure":4666,"Ġnarrow":4667,"Ġevac":4668,"Ġsupporting":4669,"Ġ1986":4670,"Ġconsequ":4671,"Ġperman":4672,"Ġchose":4673,"pton":4674,"fully":4675,"Ġelizabeth":4676,"ults":4677,"Ġjoe":4678,"Ġopposed":4679,"Ġ95":4680,"Ġ97":4681,"illy":4682,"ographer":4683,"Ġsequence":4684,"Ġalexander":4685,"Ġnote":4686,"Ġ56":4687,"Ġvolume":4688,"Ġparticipated":4689,"Ġagricult":4690,"Ġpoly":4691,"Ġhistoric":4692,"Ġthemes":4693,"Ġvon":4694,"Ġwave":4695,"Ġrise":4696,"cend":4697,"Ġdub":4698,"Ġleadership":4699,"Ġskin":4700,"lam":4701,"water":4702,"rid":4703,"Ġadopted":4704,"jo":4705,"Ġcolonel":4706,"Ġeld":4707,"Ġfresh":4708,"Ġcapacity":4709,"Ġtry":4710,"prise":4711,"Ġabandoned":4712,"Ġdisease":4713,"Ġadvant":4714,"Ġhair":4715,"ancing":4716,"Ġstanding":4717,"ãĤ":4718,"estic":4719,"Ġextend":4720,"Ġfilmed":4721,"Ġfamil":4722,"Ġdefin":4723,"Ġplants":4724,"Ã¤":4725,"Ġdemocratic":4726,"Ġmax":4727,"Ġvisual":4728,"imens":4729,"Ġbasis":4730,"Ġstraight":4731,"uting":4732,"Ġnegative":4733,"Ġpennsylvania":4734,"Ġegg":4735,"Ġdeploy":4736,"greg":4737,"Ġpier":4738,"Ġtall":4739,"Ġrand":4740,"iled":4741,"Ġlic":4742,"Ġfailure":4743,"tery":4744,"Ġcreating":4745,"Ġchalleng":4746,"Ġdrop":4747,"Ġgameplay":4748,"Ġmike":4749,"Ġappl":4750,"Ġ177":4751,"Ġregarded":4752,"Ġpossibly":4753,"Ġsund":4754,"Ġclin":4755,"uses":4756,"Ġtank":4757,"kins":4758,"Ġharry":4759,"Ġarc":4760,"Ġtreaty":4761,"ko":4762,"Ġirish":4763,"Ġlap":4764,"isers":4765,"Ġbodies":4766,"Ġpalace":4767,"Ġcore":4768,"Ġseat":4769,"Ġdistingu":4770,"Ġtrip":4771,"Ġcanal":4772,"Ġgirls":4773,"ev":4774,"Ġflu":4775,"Ġfoundation":4776,"Ġlady":4777,"rane":4778,"Ġlege":4779,"Ġinterchange":4780,"Ġtend":4781,"Ġkid":4782,"Ġspain":4783,"Ġadult":4784,"Ġmerch":4785,"amm":4786,"Ġkick":4787,"Ġparalle":4788,"Ġreact":4789,"Ġideas":4790,"Ġzone":4791,"Ġeag":4792,"Ġridge":4793,"Ġretired":4794,"Ġadvert":4795,"Ġdismiss":4796,"Ġsel":4797,"Ġsurrender":4798,"Ġlind":4799,"Ġtell":4800,"Ġwel":4801,"Ġped":4802,"Ġmist":4803,"tv":4804,"Ġextensive":4805,"Ġdeliver":4806,"Ġdeck":4807,"Ġ76":4808,"rol":4809,"gal":4810,"onc":4811,"Ġ178":4812,"azz":4813,"ruct":4814,"Ġaid":4815,"Ġyounger":4816,"Ġhockey":4817,"Ġscholars":4818,"Ġroles":4819,"Ġexplos":4820,"Ġnob":4821,"Ġgarden":4822,"Ġdial":4823,"Ġatm":4824,"Ġrailroad":4825,"ledge":4826,"Ġbasket":4827,"Ġhope":4828,"Ġanalysis":4829,"ato":4830,"Ġbishop":4831,"Ġclassic":4832,"Ġaim":4833,"Ġfranch":4834,"Ġ1939":4835,"Ġopera":4836,"Ġworth":4837,"Ġgate":4838,"anda":4839,"Ġdrew":4840,"Ġrepeated":4841,"Ġimproved":4842,"uls":4843,"Ġachieved":4844,"Ġeconomy":4845,"Ġga":4846,"Ġeffective":4847,"icks":4848,"Ġbom":4849,"Ġsoul":4850,"Ġlem":4851,"Ġbriefly":4852,"Ġglass":4853,"Ġbanks":4854,"mes":4855,"Ġisrael":4856,"Ġhay":4857,"Ġpiano":4858,"ienced":4859,"Ġdip":4860,"Ġsche":4861,"Ġthor":4862,"Ġunsu":4863,"Ġchamber":4864,"iana":4865,"Ġwed":4866,"Ġcurrently":4867,"orters":4868,"Ġsouthwest":4869,"Ġtrou":4870,"Ġhousehold":4871,"Ġnecessary":4872,"rich":4873,"Ġvehicles":4874,"Ġsud":4875,"Ġgranted":4876,"Ġdefensive":4877,"Ġroof":4878,"Ġ61":4879,"Ġpurpose":4880,"Ġregional":4881,"Ġfame":4882,"Ġ1985":4883,"Ġturns":4884,"hol":4885,"Ġcitizens":4886,"Ġrejected":4887,"Ġcaught":4888,"Ġarthur":4889,"arked":4890,"Ġorganized":4891,"Ġ1968":4892,"Ġ66":4893,"Ġrecently":4894,"Ġtypes":4895,"Ġgenus":4896,"Ġkilometres":4897,"Ġfro":4898,"Ġspeak":4899,"Ġkir":4900,"Ġmarine":4901,"Ġprovince":4902,"ja":4903,"Ġreceive":4904,"Ġexpanded":4905,"Ġcorre":4906,"Ġsecondary":4907,"resp":4908,"Ġatmosp":4909,"Ġauthorities":4910,"Ġflooding":4911,"Ġsell":4912,"Ġcommissioned":4913,"Ġonline":4914,"Ġrhy":4915,"Ġdidn":4916,"Ġble":4917,"lers":4918,"Ġbraz":4919,"Ġcavalry":4920,"iments":4921,"Ġohio":4922,"station":4923,"Ġjes":4924,"Ġtransform":4925,"Ġfamilies":4926,"onic":4927,"Ġsuccessfully":4928,"Ġperforming":4929,"Ġdivers":4930,"Ġletters":4931,"Ġori":4932,"Ġdetermined":4933,"Ġfreedom":4934,"Ġliterature":4935,"Ġalle":4936,"Ġweb":4937,"Ġdescribes":4938,"Ġfought":4939,"Ġagent":4940,"Ġassistant":4941,"Ġwhit":4942,"utation":4943,"Ġhydro":4944,"Ġtowns":4945,"uate":4946,"Å¡":4947,"Ġdram":4948,"Ġsafety":4949,"Ġpicture":4950,"Ġunus":4951,"iday":4952,"adelph":4953,"Ġtail":4954,"Ġ1984":4955,"Ġupgr":4956,"Ġgoes":4957,"Ġcustom":4958,"Ġsinging":4959,"Ġprefer":4960,"iate":4961,"Ġfreeway":4962,"Ġhorn":4963,"umber":4964,"Ġ800":4965,"Ġacquired":4966,"illa":4967,"Ġphiladelph":4968,"Ġtitles":4969,"set":4970,"Ġsuggests":4971,"stream":4972,"Ġcommonly":4973,"Ġplanning":4974,"Ġgives":4975,"rif":4976,"ading":4977,"oln":4978,"Ġcenturies":4979,"alty":4980,"Ġsupreme":4981,"Ġvac":4982,"Ġclou":4983,"oted":4984,"Ġmicro":4985,"ifications":4986,"Ġmentioned":4987,"Ġrevol":4988,"Ġdistribution":4989,"Ġgeorgia":4990,"Ġ57":4991,"Ġcambridge":4992,"inn":4993,"Ġron":4994,"Ġscheduled":4995,"aven":4996,"Ġcontain":4997,"Ġtrains":4998,"Ġcontrolled":4999,"ope":5000,"Ġwithdraw":5001,"Ġconvention":5002,"Ġalternative":5003,"Ġ120":5004,"Ġmyth":5005,"Ġprotect":5006,"Ġphiladelphia":5007,"Ġsets":5008,"Ġshooting":5009,"isf":5010,"Ġsimple":5011,"Ġcook":5012,"attle":5013,"Ġkel":5014,"Ġclar":5015,"haps":5016,"Ġchance":5017,"Ġprincipal":5018,"Ġunique":5019,"Ġreaction":5020,"Ġgraph":5021,"Ġvirt":5022,"Ġperhaps":5023,"Ġregarding":5024,"Ġka":5025,"Ġsie":5026,"Ġfix":5027,"Ġdecre":5028,"Ġss":5029,"Ġwrestling":5030,"Ġfinds":5031,"Ġ1967":5032,"hi":5033,"oul":5034,"Ġwitness":5035,"Ġsave":5036,"Ġmoder":5037,"Ġrussia":5038,"Ġsubmar":5039,"Ġestate":5040,"een":5041,"Ġcrime":5042,"Ġrules":5043,"Ġfacilities":5044,"umes":5045,"Ġkit":5046,"Ġ62":5047,"Ġreading":5048,"Ġarrival":5049,"Ġtag":5050,"amin":5051,"Ġscientific":5052,"Ġkorean":5053,"Ġdemand":5054,"Ġgain":5055,"tic":5056,"Ġscout":5057,"Ġmedic":5058,"Ġsession":5059,"Ġcontaining":5060,"Ġexchange":5061,"Ġaz":5062,"Ġpublication":5063,"Ġaccompanied":5064,"Ġuns":5065,"Ġteach":5066,"Ġlis":5067,"Ġrated":5068,"Ġtact":5069,"Ġnintend":5070,"pa":5071,"Ġmouth":5072,"Ġprice":5073,"Ġlocations":5074,"Ġbelong":5075,"Ġfighter":5076,"Ġrub":5077,"Ġfinish":5078,"Ġtouchdown":5079,"Ġceremony":5080,"Ġliverpool":5081,"mouth":5082,"Ġanne":5083,"Ġbrid":5084,"Ġboats":5085,"Ġmap":5086,"Ġquite":5087,"Ġselection":5088,"Ġhits":5089,"Ġbrook":5090,"Ġevening":5091,"Ġnintendo":5092,"Ġentirely":5093,"Ġlinc":5094,"Ġasia":5095,"Ġcd":5096,"Ġmand":5097,"unk":5098,"Ġconcer":5099,"Ġcolumbia":5100,"Ġpy":5101,"Ġexisting":5102,"ington":5103,"Ġfirm":5104,"Ġrum":5105,"Ġdedicated":5106,"Ġgri":5107,"Ġcrowd":5108,"Ġintensity":5109,"agan":5110,"och":5111,"Ġsingap":5112,"shire":5113,"Ġcontributed":5114,"rupt":5115,"Ġfash":5116,"da":5117,"Ġlegacy":5118,"Ġjean":5119,"Ġjewish":5120,"Ġbrand":5121,"Ġremix":5122,"Ġgrey":5123,"Ġprovides":5124,"Ġpurchased":5125,"etts":5126,"Ġ58":5127,"Ġcasualties":5128,"Ġkings":5129,"Ġadap":5130,"Ġken":5131,"oma":5132,"Ġwindows":5133,"Ġ1983":5134,"Ġbrazil":5135,"Ġresemb":5136,"Ġpage":5137,"rising":5138,"Ġok":5139,"Ġ74":5140,"Ġcampus":5141,"inger":5142,"Ġthrow":5143,"Ġbattery":5144,"Ġax":5145,"kes":5146,"room":5147,"Ġadvantage":5148,"ables":5149,"Ġresistance":5150,"Ġproduct":5151,"inity":5152,"Ġsites":5153,"Ġoccupied":5154,"Ġcarey":5155,"Ġboys":5156,"Ġsingapore":5157,"sey":5158,"Ġfrancisco":5159,"Ġ1969":5160,"Ġeighth":5161,"respond":5162,"Ġcorrespond":5163,"Ġheads":5164,"Ġholding":5165,"Ġ1964":5166,"Ġbasketball":5167,"Ġgib":5168,"Ġlincoln":5169,"oses":5170,"Ġcode":5171,"Ġ72":5172,"Ġgulf":5173,"Ġbes":5174,"Ġpromotion":5175,"Ġstructures":5176,"Ġbright":5177,"Ġgay":5178,"Ġelimin":5179,"Ġmiller":5180,"Ġprotected":5181,"Ġdrawn":5182,"Ġregions":5183,"Ġmerc":5184,"Ġresour":5185,"Ġnap":5186,"Ġmarc":5187,"Ġcoastal":5188,"Ġ1914":5189,"Ġconqu":5190,"Ġhms":5191,"Ġgill":5192,"Ġreceiving":5193,"Ġspr":5194,"Ġclosely":5195,"fort":5196,"rons":5197,"ection":5198,"Ġplaystation":5199,"ĠâĪ":5200,"Ġcars":5201,"Ġ1918":5202,"Ġlaws":5203,"Ġdisney":5204,"cript":5205,"Ġjudge":5206,"itled":5207,"Ġopportunity":5208,"Ġturning":5209,"Ġ1971":5210,"Ġ1982":5211,"Ġlewis":5212,"Ġgeneration":5213,"gn":5214,"Ġcalls":5215,"Ġconsists":5216,"Ġroughly":5217,"iger":5218,"Ġ1972":5219,"Ġsteve":5220,"Ġ1966":5221,"Ġgrade":5222,"Ġ1979":5223,"Ġ59":5224,"iny":5225,"Ġcorner":5226,"Ġdefined":5227,"Ġreserv":5228,"Ġacts":5229,"Ġanderson":5230,"Ġbyz":5231,"ware":5232,"burgh":5233,"wick":5234,"Ġstrengt":5235,"Ġsymbol":5236,"Ġjr":5237,"Ġbrian":5238,"Ġexperienced":5239,"Ġextrem":5240,"Ġanything":5241,"Ġneighbor":5242,"Ġtenn":5243,"Ġolympic":5244,"Ġlosses":5245,"Ġrolling":5246,"Ġfashion":5247,"Ġtask":5248,"Ġheat":5249,"garian":5250,"Ġassault":5251,"Ġhyp":5252,"verse":5253,"otic":5254,"ocated":5255,"box":5256,"Ġbyzant":5257,"Ġsurvey":5258,"Ġ1965":5259,"Ġbands":5260,"ek":5261,"Ġretire":5262,"Ġfocused":5263,"Ġviewed":5264,"Ġengaged":5265,"Ġhind":5266,"awa":5267,"ua":5268,"Ġpolitics":5269,"Ġreligion":5270,"Ġintelligence":5271,"Ġ#":5272,"Ġproviding":5273,"Ġflat":5274,"mann":5275,"rate":5276,"Ġrelief":5277,"Ġdeveloping":5278,"engers":5279,"Ġ1975":5280,"Ġnhl":5281,"Ġ99":5282,"Ġappeal":5283,"Ġsemi":5284,"Ġdomestic":5285,"Ġuncle":5286,"Ġrapidly":5287,"Ġinvestigation":5288,"Ġshared":5289,"Ġbottom":5290,"rant":5291,"Ġwond":5292,"Ġoak":5293,"Ġshall":5294,"Ġmales":5295,"Ġhired":5296,"Ġenl":5297,"Ġdisapp":5298,"Ġwalter":5299,"Ġtow":5300,"Ã¸":5301,"Ġhollywood":5302,"Ġphase":5303,"Ġmyster":5304,"Ġtemperature":5305,"Ġhighlight":5306,"Ġguy":5307,"Ġcredits":5308,"Ġans":5309,"Ġgermans":5310,"Ġgram":5311,"Ġsolid":5312,"Ġmountains":5313,"Ġeverything":5314,"Ġintroduction":5315,"Ã¡n":5316,"Ġfaith":5317,"Ġlaunch":5318,"Ġmissing":5319,"Ġrecognized":5320,"cles":5321,"Ġ1974":5322,"Ġpainting":5323,"ifically":5324,"Ġdavis":5325,"Ġvent":5326,"Ġjunior":5327,"Ġbelief":5328,"opher":5329,"Ġjourney":5330,"Ġhart":5331,"Ġ1973":5332,"bound":5333,"Ġappoint":5334,"Ġ63":5335,"Ġhell":5336,"Ġgetting":5337,"Ġisol":5338,"Ġ77":5339,"heim":5340,"Ġgord":5341,"Ġfalls":5342,"iat":5343,"Ġsubstant":5344,"Ġtyph":5345,"Ġprepared":5346,"Ġ73":5347,"Ġshape":5348,"active":5349,"Ġconve":5350,"essed":5351,"Ġfolk":5352,"Ġrome":5353,"Ġtick":5354,"Ġfranchise":5355,"ilton":5356,"enc":5357,"Ġknew":5358,"Ġserb":5359,"Ġthin":5360,"Ġopinion":5361,"Ġcens":5362,"Ġnaz":5363,"Ġglobal":5364,"Ġamend":5365,"Ġ1976":5366,"Ġsignificantly":5367,"Ġprojects":5368,"Ġintersection":5369,"Ġexact":5370,"Ġauth":5371,"Ġapproved":5372,"Ġsort":5373,"Ġlb":5374,"tar":5375,"Ġliterary":5376,"Ġadding":5377,"Ġarchae":5378,"Ġpenins":5379,"Ġhung":5380,"Ġlas":5381,"friend":5382,"eper":5383,"Ġknowledge":5384,"Ġconfeder":5385,"Ġreasons":5386,"Ġwings":5387,"wart":5388,"Ġwheel":5389,"ographic":5390,"Ġunsuccess":5391,"Ġraid":5392,"Ġsab":5393,"ishes":5394,"ologist":5395,"Ġchallenge":5396,"Ġplayoff":5397,"oncÃ©":5398,"Ġward":5399,"iful":5400,"rence":5401,"Ġmusl":5402,"Ġvic":5403,"Ġsyd":5404,"eme":5405,"erted":5406,"Ġviews":5407,"Ġstages":5408,"Ġsettlement":5409,"Ġcabin":5410,"ulate":5411,"achus":5412,"Ġpoem":5413,"Ġ250":5414,"Ġescort":5415,"Ġevolution":5416,"eman":5417,"Ġcris":5418,"Ġoperating":5419,"Ġstoryline":5420,"asty":5421,"Ġexerc":5422,"ocked":5423,"Ġ67":5424,"Ġequal":5425,"va":5426,"unte":5427,"Ġshut":5428,"break":5429,"Ġinternal":5430,"Ġrenamed":5431,"eds":5432,"lav":5433,"Ġexpect":5434,"Ġscul":5435,"Ġreputation":5436,"Ġrebu":5437,"ĠbeyoncÃ©":5438,"Ġshaped":5439,"ira":5440,"ador":5441,"Ġwatched":5442,"Ġneverthel":5443,"Ġemployed":5444,"Ġnevertheless":5445,"Ġsed":5446,"Ġproceed":5447,"Ġvolunte":5448,"Ġbaby":5449,"Ġallies":5450,"ients":5451,"Ġpopularity":5452,"Ġautom":5453,"Ġlimit":5454,"Ġfine":5455,"Ġinjured":5456,"Ġthirty":5457,"Ġcape":5458,"Ġshore":5459,"itan":5460,"Ġprofessor":5461,"Ġhumans":5462,"Ġguide":5463,"Ġtriple":5464,"Ġfemales":5465,"Ġpaint":5466,"Ġbull":5467,"Ġneut":5468,"Ġblues":5469,"Ġincreasingly":5470,"Ġcited":5471,"Ġkentucky":5472,"Ġheaded":5473,"Ġneither":5474,"hens":5475,"aver":5476,"Ġ1946":5477,"Ġbern":5478,"Ġmodels":5479,"Ġwealth":5480,"Ġdeclined":5481,"Ġ1981":5482,"zen":5483,"Ġhills":5484,"appe":5485,"Ġraf":5486,"Ġfinding":5487,"Ġconnected":5488,"antly":5489,"Ġcollected":5490,"Ġviolence":5491,"Ġ82":5492,"Ġgrav":5493,"Ġdetails":5494,"Ġjam":5495,"see":5496,"arm":5497,"istan":5498,"Ġ96":5499,"Ġ68":5500,"Ġexistence":5501,"Ġconverted":5502,"Ġdiam":5503,"Ġlabour":5504,"Ġdepth":5505,"Ġsustained":5506,"Ġenjoyed":5507,"ĠâĪĴ":5508,"inum":5509,"Ġcontroversy":5510,"mod":5511,"Ġlearned":5512,"Ġnorway":5513,"Ġentry":5514,"onym":5515,"Ġtorn":5516,"Ġconsum":5517,"Ġ1917":5518,"aka":5519,"Ġimpl":5520,"Ġvolcan":5521,"Ġbron":5522,"nic":5523,"Ġmassachus":5524,"Ġolympics":5525,"rec":5526,"Ġouter":5527,"Ġchampionships":5528,"ceived":5529,"Ġapplied":5530,"bl":5531,"Ġmassachusetts":5532,"Ġsynt":5533,"hr":5534,"Ġsad":5535,"Ġvel":5536,"Ġari":5537,"iform":5538,"Ġcrimin":5539,"ella":5540,"Ġallows":5541,"Ġcamera":5542,"istol":5543,"Ġinterp":5544,"Ġteacher":5545,"Ġ87":5546,"Ġpear":5547,"Ġswim":5548,"Ġways":5549,"Ġoccas":5550,"Ġcells":5551,"ava":5552,"Ġclark":5553,"Ġentrance":5554,"Ġapproached":5555,"Ġpremier":5556,"Ġaware":5557,"apes":5558,"Ġarsen":5559,"Ġdecade":5560,"Ġcarrying":5561,"Ġeasily":5562,"osis":5563,"ropri":5564,"Ġdesigns":5565,"Ġtests":5566,"Ġgree":5567,"Ġ160":5568,"Ġresponded":5569,"Ġloy":5570,"Ġconfron":5571,"Ġmine":5572,"Ġfoss":5573,"Ġdownlo":5574,"atures":5575,"Ġgang":5576,"Ġts":5577,"Ġdiscovery":5578,"Ġnic":5579,"Ġtechnical":5580,"Ġ1948":5581,"rel":5582,"Ġindu":5583,"Ġgray":5584,"Ġpitch":5585,"Ġchairman":5586,"Ġburied":5587,"Ġduty":5588,"Ġhang":5589,"Ġextension":5590,"psons":5591,"Ġ700":5592,"omy":5593,"Ġconvoy":5594,"Ġgradually":5595,"Ġsax":5596,"Ġsucceeded":5597,"eral":5598,"Ġsections":5599,"ima":5600,"Äģ":5601,"Ġmayor":5602,"Ġspecifically":5603,"Ġbreeding":5604,"Ġhull":5605,"Ġacres":5606,"Ġshowing":5607,"Ġprograms":5608,"Ġnas":5609,"Ġraw":5610,"una":5611,"Ġjay":5612,"ignment":5613,"Ġhug":5614,"Ġbush":5615,"Ġmunicip":5616,"Ġastron":5617,"Ġsons":5618,"Ġdoor":5619,"Ġmode":5620,"Ġprize":5621,"Ġinstall":5622,"aine":5623,"Ġstret":5624,"Ġsimpsons":5625,"Ġlev":5626,"tical":5627,"ati":5628,"Ġ69":5629,"Ġitems":5630,"Ġprisoners":5631,"Ġexclus":5632,"Ġ1978":5633,"ÅĤ":5634,"Ġarranged":5635,"Ġshop":5636,"Ġnone":5637,"Ġcredited":5638,"Ġgone":5639,"Ġgenre":5640,"Ġlegend":5641,"wa":5642,"Ġaddress":5643,"iro":5644,"Ġsimilarly":5645,"Ġvietnam":5646,"itors":5647,"Ġutil":5648,"Ġ78":5649,"Ġstatement":5650,"Ġteen":5651,"Ġweakened":5652,"Ġseems":5653,"Ġproducing":5654,"Ġwinner":5655,"Ġadditionally":5656,"Ġcad":5657,"Ġimprove":5658,"Ġearliest":5659,"Ġparties":5660,"Ġcryst":5661,"Ġlandfall":5662,"Ġ91":5663,"Ġross":5664,"come":5665,"Ġrural":5666,"Ġwarning":5667,"ss":5668,"Ġroutes":5669,"Ġpresidential":5670,"put":5671,"Ġthreatened":5672,"Ġplac":5673,"Ġdivisions":5674,"Ġ1915":5675,"Ġcandidate":5676,"ogen":5677,"Ġfields":5678,"Ġengineer":5679,"Ġretained":5680,"Ġsounds":5681,"Ġottoman":5682,"Ġinner":5683,"entions":5684,"Ġcombination":5685,"Ġbear":5686,"Ġsydney":5687,"Ġadam":5688,"Ġlasted":5689,"Ġmoore":5690,"Ġproducts":5691,"Ġspok":5692,"Ġ1977":5693,"Ġpoland":5694,"Ġbrain":5695,"Ġinstru":5696,"now":5697,"Ġmtv":5698,"Ġkim":5699,"Ġ94":5700,"ipe":5701,"Ġhear":5702,"Ġmaryland":5703,"issance":5704,"inking":5705,"Ġsha":5706,"Ġreplace":5707,"Ġsupplies":5708,"Ġones":5709,"ivered":5710,"onia":5711,"Ġdress":5712,"Ġchemical":5713,"Ġadapted":5714,"ctors":5715,"met":5716,"Ġinterior":5717,"Ġevil":5718,"Ġot":5719,"Ġanimated":5720,"Ġdowntown":5721,"Ġbasic":5722,"Ġintegr":5723,"eless":5724,"Ġ81":5725,"Ġpeninsula":5726,"Ġafterwards":5727,"Ġfrag":5728,"Ġkur":5729,"athan":5730,"Ġgrounds":5731,"Ġengines":5732,"Ġdelivered":5733,"Ġinspir":5734,"Ġ98":5735,"Ġ1963":5736,"Ġagency":5737,"Ġcul":5738,"math":5739,"Ġspeaking":5740,"Ġmagic":5741,"Ġfilled":5742,"Ġmaintain":5743,"Ġmessage":5744,"Ġsurviv":5745,"Ġrhodes":5746,"Ġcrash":5747,"rets":5748,"Ġcalc":5749,"Ġequival":5750,"Ġstopped":5751,"oli":5752,"Ġentitled":5753,"Ġpermanent":5754,"Ġaffairs":5755,"aly":5756,"Ġcow":5757,"Ġ1916":5758,"Ġsupporters":5759,"Ġindicated":5760,"Ġclean":5761,"Ġsusp":5762,"Ġclimate":5763,"Ġextremely":5764,"Ġwides":5765,"Ġarchitecture":5766,"izations":5767,"Ġengineering":5768,"ali":5769,"mun":5770,"Ġdeaths":5771,"Ġsole":5772,"Ġcauses":5773,"Ġaffect":5774,"Ġdiamond":5775,"Ġphilipp":5776,"Ġbath":5777,"ushing":5778,"Ġalien":5779,"Ġbuff":5780,"Ġgreg":5781,"Ġfruit":5782,"Ġ71":5783,"Ġsecure":5784,"Ġdrug":5785,"apped":5786,"Ġproposal":5787,"Ġimportance":5788,"Ġrestaur":5789,"Ġmars":5790,"Ġreturns":5791,"Ġgordon":5792,"Ġmulder":5793,"time":5794,"sp":5795,"Ġdeleg":5796,"lee":5797,"Ġspons":5798,"Ġratings":5799,"othes":5800,"Ġtyphoon":5801,"osa":5802,"Ġknots":5803,"cks":5804,"Ġtel":5805,"Ġstreets":5806,"Ġphilip":5807,"itt":5808,"Ġimplement":5809,"Ġacid":5810,"Ġharv":5811,"Ġ1919":5812,"Ġcomposer":5813,"leton":5814,"Ġ1962":5815,"Ġches":5816,"emies":5817,"Ġ89":5818,"Ġpig":5819,"Ġko":5820,"book":5821,"Ġmans":5822,"Ġtanks":5823,"ropol":5824,"iversary":5825,"Ġsurvived":5826,"Ġconsc":5827,"Ġjur":5828,"Ġclassical":5829,"pective":5830,"Ġbure":5831,"Ġswit":5832,"Ġaftermath":5833,"Ġira":5834,"Ġdescribing":5835,"Ġcompon":5836,"Ġreferences":5837,"Ġcolour":5838,"Ġwrites":5839,"bourne":5840,"Ġkat":5841,"Ġconvin":5842,"Ġgiant":5843,"Ġll":5844,"Ġprint":5845,"chers":5846,"Ġbos":5847,"Ġfict":5848,"Ġmah":5849,"Ġclassification":5850,"Ġbought":5851,"Ġconcerns":5852,"Ġmes":5853,"Ġsongwrit":5854,"Ġholy":5855,"Ġalf":5856,"Ġimages":5857,"oles":5858,"inois":5859,"Ġeric":5860,"Ġvul":5861,"Ġflo":5862,"Ġ1938":5863,"Ġruled":5864,"Ġack":5865,"Ġrab":5866,"Ġsomeone":5867,"Ġmedie":5868,"Ġtypical":5869,"Ġentering":5870,"Ġrivers":5871,"Ġarmor":5872,"Ġenvironmental":5873,"ela":5874,"Ġ88":5875,"Ġjane":5876,"Ġremember":5877,"Ġgy":5878,"ante":5879,"Ġna":5880,"Ġstudied":5881,"Ġarrested":5882,"Ġdecline":5883,"Ġportrayed":5884,"entially":5885,"Ġcruiser":5886,"Ġvoted":5887,"Ġpreced":5888,"Ġretreat":5889,"mus":5890,"Ġuniverse":5891,"Ġreduce":5892,"Ġsale":5893,"Ġrecalled":5894,"Ġshr":5895,"Ġscar":5896,"Ġeleven":5897,"Ġago":5898,"Ġsiege":5899,"Ġpurchase":5900,"Ġcorporation":5901,"Ġsculpt":5902,"ansas":5903,"Ġquant":5904,"Ġactual":5905,"Ġcapable":5906,"Ġmedieval":5907,"Ġfeeling":5908,"cop":5909,"Ġbang":5910,"Ġacademic":5911,"zer":5912,"aki":5913,"adow":5914,"Ġalliance":5915,"Ġowner":5916,"Ġobjects":5917,"Ġnomination":5918,"lying":5919,"Ġalan":5920,"Ġcolonial":5921,"Ġliberal":5922,"Ġpav":5923,"Ġrecognition":5924,"Ġsessions":5925,"Ġdriving":5926,"Ġobl":5927,"Ġsufficient":5928,"Ġchapter":5929,"Ġtony":5930,"Ġequipped":5931,"Ġnel":5932,"Ġkong":5933,"Ġ130":5934,"Ġthousands":5935,"Ġoffers":5936,"Ġidentity":5937,"Ġhunting":5938,"Ġfunds":5939,"Ġhistorians":5940,"Ġpassage":5941,"Ġnoting":5942,"Ġmarg":5943,"Ġ175":5944,"Ġcamer":5945,"Ġconcerned":5946,"Ġconnection":5947,"Ġanniversary":5948,"Ġfinals":5949,"Ġ1956":5950,"Ġmeters":5951,"Ġbry":5952,"Ġdecades":5953,"Ġdebate":5954,"Ġcrossed":5955,"Ġconsisting":5956,"Ġundert":5957,"Ġadmitted":5958,"hus":5959,"Ġrecommended":5960,"Ġprincess":5961,"Ġ79":5962,"Ġprogramme":5963,"Ġplate":5964,"Ġdetect":5965,"Ġinterested":5966,"right":5967,"Ġthunder":5968,"uct":5969,"Ġinvited":5970,"Ġdipl":5971,"Ġgam":5972,"inal":5973,"eller":5974,"Ġinstalled":5975,"Ġdougl":5976,"Ġsight":5977,"Ġker":5978,"Ġadams":5979,"Ġbreaking":5980,"Ġconsiderable":5981,"Ġarsenal":5982,"Ġpound":5983,"Ġstarts":5984,"Ġuniversal":5985,"Ġhou":5986,"Ġjord":5987,"Ġak":5988,"uan":5989,"Ġmonument":5990,"Ġestablishment":5991,"Ġcourts":5992,"Ġdates":5993,"Ġcolony":5994,"Ġwarm":5995,"Ġdecor":5996,"Ġ1936":5997,"Ġmaria":5998,"Ġeat":5999,"aked":6000,"Ġsequel":6001,"oir":6002,"wich":6003,"Ġhamilton":6004,"Ġbou":6005,"Ġenemies":6006,"Ġstyles":6007,"iques":6008,"acks":6009,"Ġcharged":6010,"Ġsimon":6011,"Ġduties":6012,"Ġimprov":6013,"Ġremainder":6014,"ranean":6015,"Ġveter":6016,"Ġparallel":6017,"heas":6018,"pread":6019,"oked":6020,"Ġutc":6021,"Ġmanner":6022,"Ġtruth":6023,"ora":6024,"Ġwidespread":6025,"Ġjump":6026,"Ġalleg":6027,"Ġready":6028,"Ġshield":6029,"Ġpure":6030,"Ġ92":6031,"Ġsharp":6032,"Ġnegoti":6033,"Ġcommunist":6034,"Ġ93":6035,"eb":6036,"Ġpromote":6037,"Ġpictures":6038,"eland":6039,"Ġsalt":6040,"Ġconservative":6041,"ilation":6042,"Ġnether":6043,"Ġpad":6044,"Ġ1961":6045,"osaurus":6046,"Ġindones":6047,"Ġthro":6048,"Ġcontinuing":6049,"Ġbid":6050,"Ġ84":6051,"Ġslowly":6052,"Ġdean":6053,"Ġmole":6054,"Ġherit":6055,"ingly":6056,"igation":6057,"Ġdeparture":6058,"Ġbehavior":6059,"Ġaspects":6060,"Ġoccasionally":6061,"Ġdiet":6062,"Ġclasses":6063,"Ġtransition":6064,"Ġnba":6065,"Ġwwe":6066,"Ġcos":6067,"Ġelectronic":6068,"Ġanimation":6069,"Ġlam":6070,"Ġ1953":6071,"Ġargent":6072,"Ġbeautiful":6073,"Ġresources":6074,"Ġromantic":6075,"Ġhitler":6076,"iling":6077,"Ġdestruction":6078,"Ġorchestra":6079,"Ġhappy":6080,"Ġrhyth":6081,"Ġrug":6082,"Ġkennedy":6083,"Ġwearing":6084,"Ġposted":6085,"Ġemergency":6086,"Ġacclaim":6087,"Ġsunday":6088,"Ġtransportation":6089,"Ġhoward":6090,"Ġassistance":6091,"Ġdisappo":6092,"akers":6093,"Ġtreas":6094,"Ġsweet":6095,"Ġsenator":6096,"Ġsuperior":6097,"Ġindiana":6098,"Ġride":6099,"atch":6100,"Ġcarbon":6101,"outs":6102,"Ġformal":6103,"Ġvessels":6104,"ione":6105,"Ġleon":6106,"Ġoccurs":6107,"aken":6108,"ashed":6109,"Ġaccur":6110,"hetic":6111,"Ġnorwe":6112,"Ġcertified":6113,"Ġdated":6114,"Ġincome":6115,"Ġbot":6116,"Ġcredit":6117,"Ġmemory":6118,"Ġpopulations":6119,"Ġscully":6120,"Ġattached":6121,"Ġ1947":6122,"Ġproperties":6123,"Ġdemol":6124,"Ġancest":6125,"Ġchorus":6126,"Ġpassengers":6127,"bey":6128,"Ġ1958":6129,"Ġconservation":6130,"Ġshots":6131,"Ġequivalent":6132,"aware":6133,"Ġportug":6134,"Ġmathem":6135,"Ġchapel":6136,"Ġoldest":6137,"Ġinvolving":6138,"Ġturk":6139,"regon":6140,"icide":6141,"ophy":6142,"Ġ1910":6143,"after":6144,"Ġcircum":6145,"Ġterminus":6146,"Ġ110":6147,"Ġ86":6148,"oard":6149,"Ġtunnel":6150,"Ġacknow":6151,"Ġheritage":6152,"Ġcant":6153,"no":6154,"Ġoregon":6155,"Ġadventure":6156,"Ġ1957":6157,"Ġpriest":6158,"Ġexpand":6159,"Ġsettled":6160,"Ġcatch":6161,"Ġrig":6162,"Ġwins":6163,"Ġryan":6164,"pir":6165,"veland":6166,"Ġobtained":6167,"Ġpink":6168,"Ġpope":6169,"Ġbombard":6170,"Ġsleep":6171,"Ġ1937":6172,"Ġjunction":6173,"Ġfisher":6174,"Ġrescue":6175,"Ġdynasty":6176,"Ġcolumn":6177,"icit":6178,"Ġaccused":6179,"Ġauthors":6180,"Ġfinishing":6181,"Ġworst":6182,"Ġderived":6183,"Ġcharges":6184,"Ġninth":6185,"agues":6186,"Ġincorporated":6187,"ivals":6188,"Ġreviewers":6189,"Ġfavorite":6190,"Ġdouglas":6191,"Ġcircuit":6192,"rus":6193,"Ġreplacement":6194,"Ġeu":6195,"Ġprede":6196,"Ġcrisis":6197,"Ġcleveland":6198,"heastern":6199,"Ġillinois":6200,"Ġcommitted":6201,"Ġmissions":6202,"Ġhosted":6203,"hered":6204,"Ġprey":6205,"Ġsword":6206,"Ġmoves":6207,"Ġ<":6208,"Ġbelt":6209,"Ġsegment":6210,"wan":6211,"etime":6212,"Ġrebell":6213,"Ġbringing":6214,"Ġvehicle":6215,"bar":6216,"Ġshear":6217,"Ġgrass":6218,"Ġsupposed":6219,"Ġaudio":6220,"Ġandy":6221,"Ġlenn":6222,"aret":6223,"Ġassumed":6224,"Ġmediter":6225,"Ġdenied":6226,"Ġ1959":6227,"Ġweeke":6228,"Ġstanley":6229,"inary":6230,"ĠâĢĿ":6231,"Ġinterpret":6232,"western":6233,"Ġcirculation":6234,"Ġrooms":6235,"Ġclubs":6236,"Ġrecre":6237,"Ġrepresentatives":6238,"Ġjordan":6239,"oes":6240,"Ġunusual":6241,"Ġunp":6242,"Ġdens":6243,"Ġtheater":6244,"Ġfictional":6245,"Ġmediterranean":6246,"Ġmusicians":6247,"Ġcommanded":6248,"ji":6249,"Ġstrongly":6250,"Ġroger":6251,"Ġkevin":6252,"Ġseeing":6253,"Ġbeatles":6254,"eline":6255,"agonist":6256,"Ġoutstanding":6257,"Ġbegun":6258,"Ġintercept":6259,"Ġdeput":6260,"Ġmexican":6261,"Ġcompletion":6262,"Ġconte":6263,"Ġsurviving":6264,"Ġbruce":6265,"Ġcharacteristics":6266,"ran":6267,"Ġdeem":6268,"Ġ1955":6269,"Ġbristol":6270,"Ġmaterials":6271,"Ġrif":6272,"Ġ1954":6273,"Ġreality":6274,"Ġsolar":6275,"ĠâĢľ":6276,"Ġcathed":6277,"Ġgust":6278,"Ġisbn":6279,"Ġnorwegian":6280,"Ġalleged":6281,"ician":6282,"Ġpersu":6283,"Ġattor":6284,"Ġmonarch":6285,"Ġcosts":6286,"ooth":6287,"Ġmol":6288,"Ġwickets":6289,"Ġexception":6290,"Ġdescend":6291,"Ġlanc":6292,"Ġtied":6293,"Ġpossibility":6294,"Ġmethods":6295,"Ġsailed":6296,"Ġwet":6297,"Ġresponsibility":6298,"borne":6299,"works":6300,"Ġhaz":6301,"Ġreconst":6302,"Ġbah":6303,"Ġvision":6304,"Ġpraise":6305,"Ġpassenger":6306,"Ġeveryone":6307,"Ġcancer":6308,"Ġdriven":6309,"Ġford":6310,"Ġaggress":6311,"lets":6312,"state":6313,"Ġopposite":6314,"ami":6315,"Ġdifferences":6316,"ager":6317,"Ġeru":6318,"Ġcarrier":6319,"Ġrepresentative":6320,"Ġmissed":6321,"Ġintention":6322,"Ġatmosphere":6323,"Ġscheme":6324,"Ġhabitat":6325,"Ġlisa":6326,"Ġkorea":6327,"Ġbuy":6328,"uv":6329,"weight":6330,"Ġthereafter":6331,"Ġdesire":6332,"Ġvoy":6333,"Ġvary":6334,"con":6335,"ĠÃĹ":6336,"Ġrecovered":6337,"Ġotherwise":6338,"Ġmassive":6339,"char":6340,"Ġorange":6341,"organ":6342,"arian":6343,"Ġthrone":6344,"onto":6345,"Ġfunding":6346,"Ġwrong":6347,"Ġplatinum":6348,"Ġnich":6349,"burn":6350,"Ġdragon":6351,"Ġstrategy":6352,"Ġattributed":6353,"Ġreinforce":6354,"itable":6355,"Ġwarri":6356,"Ġphill":6357,"Ġserves":6358,"ucks":6359,"erged":6360,"Ġske":6361,"Ġstayed":6362,"Ġshif":6363,"Ġtwin":6364,"Ġdisappe":6365,"Ġ83":6366,"Ġemerged":6367,"Ġretirement":6368,"Ġeffectively":6369,"Ġcommunities":6370,"Ġclassified":6371,"Ġ1952":6372,"Ġmorris":6373,"Ġlun":6374,"Ġpunk":6375,"Ġoutbreak":6376,"Ġtownship":6377,"Ġille":6378,"Ġministry":6379,"Ġceme":6380,"Ġadults":6381,"Ġweapon":6382,"alf":6383,"Ġaboard":6384,"Ġrobinson":6385,"Ġinse":6386,"Ġaccommod":6387,"Ġmorgan":6388,"elsh":6389,"Ġmobile":6390,"Ġregularly":6391,"ez":6392,"Ġcrosses":6393,"Ġnorman":6394,"Ġdissip":6395,"bell":6396,"rell":6397,"aza":6398,"Ġdocumentary":6399,"Ġelections":6400,"Ġnelson":6401,"Ġtoll":6402,"Ġaccounts":6403,"Ġpartn":6404,"Ġpremiere":6405,"Ġlies":6406,"Ġhawai":6407,"riers":6408,"Ġunderground":6409,"Ġfalling":6410,"Ġstrengthen":6411,"Ġ1933":6412,"Ġcircle":6413,"Ġwonder":6414,"Ġpleas":6415,"Ġstead":6416,"Ġattracted":6417,"Ġcrop":6418,"Ġneck":6419,"Ġcha":6420,"Ġinspiration":6421,"Ġstood":6422,"isms":6423,"Ġsubmarine":6424,"Ġpir":6425,"Ġforming":6426,"Ġtrials":6427,"Ġsatisf":6428,"Ġ176":6429,"enses":6430,"oslav":6431,"Ġangle":6432,"Ġfactor":6433,"Ġraces":6434,"Ġracing":6435,"Ġcriminal":6436,"Ġpret":6437,"Ġcla":6438,"Ġparks":6439,"Ġmovements":6440,"Ġlith":6441,"Ġcommem":6442,"Ġrenew":6443,"Ġjenn":6444,"sole":6445,"Ġadvis":6446,"rett":6447,"Ġlyn":6448,"Ġinjuries":6449,"Ġvotes":6450,"Ġbattleships":6451,"pping":6452,"Ġbatting":6453,"Ġimmig":6454,"Ġsid":6455,"Ġanton":6456,"Ġpull":6457,"Ġdor":6458,"Ġneeds":6459,"anth":6460,"Ġraise":6461,"Ġmck":6462,"abled":6463,"oking":6464,"Ġ1935":6465,"Ġconduct":6466,"Ġseparated":6467,"Ġsweden":6468,"20":6469,"Ġpatrick":6470,"Ġrelative":6471,"Ġallen":6472,"Ġgarrison":6473,"Ġpredecess":6474,"Ġchain":6475,"Ġphotograph":6476,"Ġsudden":6477,"Ġwy":6478,"Ġ1949":6479,"Ġrecru":6480,"Ġshark":6481,"Ġpublisher":6482,"Ġ1951":6483,"Ġwelsh":6484,"Ġearn":6485,"Ġpale":6486,"Ġbag":6487,"idden":6488,"Ġtemporary":6489,"Ġnom":6490,"Ġqueens":6491,"uts":6492,"Ġremn":6493,"Ġplane":6494,"Ġdesert":6495,"Ġsymph":6496,"Ġflank":6497,"Ġdifficulty":6498,"aug":6499,"Ġorb":6500,"Ġdistinguished":6501,"Ġech":6502,"Ġpartner":6503,"bing":6504,"Ġseemed":6505,"Ġports":6506,"Ġrequested":6507,"Ġdelayed":6508,"Ġhem":6509,"teenth":6510,"Ġuss":6511,"Ġbarr":6512,"Ġtoronto":6513,"Ġfacility":6514,"Ġsoph":6515,"Ġdepict":6516,"Ġrestored":6517,"Ġsurrounded":6518,"Ġelder":6519,"Ġgets":6520,"Ġstandards":6521,"Ġmatthew":6522,"Ġeggs":6523,"Ã³n":6524,"Ġatom":6525,"Ġscr":6526,"ogy":6527,"Ġcurt":6528,"Ġbyzantine":6529,"coming":6530,"Ġhoped":6531,"imate":6532,"Ġom":6533,"Ġharm":6534,"Ġclaiming":6535,"Ġelsewhere":6536,"Ġbridges":6537,"Ġnetherlands":6538,"Ġsend":6539,"Ġshir":6540,"Ġchildhood":6541,"Ġhin":6542,"Ġmetropol":6543,"Ġtu":6544,"Ġpenalty":6545,"Ġconvection":6546,"Ġamaz":6547,"Ġreviewer":6548,"abil":6549,"Ġmurd":6550,"rad":6551,"oyd":6552,"Ġtemperatures":6553,"oral":6554,"Ġframe":6555,"Ġinternet":6556,"Ġmeets":6557,"Ġali":6558,"Ġstands":6559,"Ġrud":6560,"Ġconvinced":6561,"Ġkiss":6562,"Ġages":6563,"Ġexamples":6564,"Ġere":6565,"Ġiraq":6566,"Ġgreatly":6567,"Ġmoderate":6568,"Ġjews":6569,"Ġcathedral":6570,"Ġlock":6571,"Ġpublishing":6572,"Ġjacob":6573,"Ġwolf":6574,"rations":6575,"Ġjazz":6576,"Ġdangerous":6577,"Ġinvolvement":6578,"Ġcycle":6579,"Ġpainted":6580,"Ġappropri":6581,"Ġeasy":6582,"Ġtub":6583,"Ġye":6584,"Ġrick":6585,"yard":6586,"Ġwooden":6587,"Ġaccompl":6588,"Ġdrag":6589,"Ġrit":6590,"Ġalco":6591,"Ġ1900":6592,"oz":6593,"Ġadaptation":6594,"Ġsatell":6595,"Ġwright":6596,"Ġhundreds":6597,"Ġspoke":6598,"Ġtries":6599,"Ġattract":6600,"Ġlearn":6601,"iley":6602,"Ġimmediate":6603,"Ġfled":6604,"Ġrecordings":6605,"Ġah":6606,"Ġarn":6607,"Ġanyone":6608,"Ġsumm":6609,"Ġexcell":6610,"pson":6611,"Ġleaf":6612,"Ġparish":6613,"erto":6614,"Ġtechniques":6615,"Ġcheck":6616,"Ġstrip":6617,"Ġdod":6618,"Ġbureau":6619,"Ġcoin":6620,"Ġsalv":6621,"war":6622,"imet":6623,"Ġappearing":6624,"Ġlearning":6625,"what":6626,"Ġsynthes":6627,"uther":6628,"bro":6629,"Ġassass":6630,"Ġencouraged":6631,"reck":6632,"omot":6633,"Ġsomewhat":6634,"berts":6635,"Ġsuffering":6636,"Ġchur":6637,"Ġarmen":6638,"Ġsafe":6639,"Ġdispl":6640,"Ġmeasures":6641,"Ġprohib":6642,"Ġip":6643,"Ġcroatian":6644,"Ġpoetry":6645,"Ġgraphics":6646,"Ġinsur":6647,"Ġveget":6648,"agement":6649,"Ġpatri":6650,"Ġrussell":6651,"bra":6652,"Ġpel":6653,"Ġlegislation":6654,"Ġbears":6655,"Ġdetermine":6656,"Ġjournalist":6657,"Ġdismissed":6658,"Ġhorror":6659,"Ġthompson":6660,"Ġusa":6661,"Ġtan":6662,"sex":6663,"Ġdating":6664,"Ġhub":6665,"going":6666,"Ġislam":6667,"Ġflash":6668,"Ġinterests":6669,"Ġensure":6670,"Ġfacing":6671,"Ġhud":6672,"Ġhend":6673,"Ġpak":6674,"formula":6675,"Ġwhereas":6676,"Ġattempting":6677,"Ġmargin":6678,"Ġnickn":6679,"Ġfu":6680,"Ġgor":6681,"Ġabsor":6682,"Ġupd":6683,"Ġkelly":6684,"Ġfighters":6685,"iva":6686,"Ġ06":6687,"Ġbuck":6688,"Ġnfl":6689,"Ġfitted":6690,"Ġcarter":6691,"Ġkl":6692,"Ġholds":6693,"agre":6694,"Ġcommonwe":6695,"Ġthousand":6696,"Ġtip":6697,"igg":6698,"Ġtrophy":6699,"Ġstarred":6700,"Ġpuerto":6701,"body":6702,"Ġbypass":6703,"Ġattacking":6704,"Ġdepos":6705,"Ġformerly":6706,"Ġgent":6707,"Ġscrap":6708,"Ġvisible":6709,"Ġcommonwealth":6710,"eld":6711,"Ġquestions":6712,"Ġcloser":6713,"Ġextreme":6714,"Ġconclusion":6715,"Ġbiggest":6716,"encies":6717,"Ġspears":6718,"iant":6719,"Ġbats":6720,"Ġmete":6721,"apping":6722,"Ġabsence":6723,"itzer":6724,"Ġwes":6725,"ighter":6726,"Ã±":6727,"Ġproductions":6728,"Ġhungarian":6729,"Ġinfluences":6730,"Ġmodified":6731,"Ġniel":6732,"fe":6733,"Ġprosec":6734,"Ġreprodu":6735,"Ġdeemed":6736,"Ġhonour":6737,"real":6738,"Ġbatman":6739,"Ġcloth":6740,"Ġinstruments":6741,"Ġlion":6742,"Ġoverse":6743,"Ġdiplom":6744,"Ġ1913":6745,"Ġpremiered":6746,"Ġapparently":6747,"night":6748,"Ġparker":6749,"Ġcontroversial":6750,"Ġbronze":6751,"ito":6752,"Ġlanded":6753,"Ġlandsc":6754,"Ġlaboratory":6755,"alo":6756,"Ġscand":6757,"Ġnovels":6758,"Ġharris":6759,"Ġharbor":6760,"Ġnarrative":6761,"á»":6762,"Ġmurray":6763,"Ġlongest":6764,"Ġdistributed":6765,"Ġdre":6766,"Ġgather":6767,"Ġ1927":6768,"Ġterritories":6769,"rete":6770,"Ġleads":6771,"Ġlocomot":6772,"Ġoperate":6773,"Ġ1926":6774,"Ġgallery":6775,"ila":6776,"Ġrestoration":6777,"Ġfiles":6778,"Ġunderstand":6779,"ameter":6780,"Ġvictims":6781,"Ġalph":6782,"Ġattorney":6783,"Ġarrangement":6784,"Ġtrained":6785,"Ġjoy":6786,"Ġdiscip":6787,"Ġlaure":6788,"Ġcreative":6789,"Ġacknowled":6790,"chang":6791,"Ġrhythm":6792,"ivan":6793,"Ġ1934":6794,"Ġ1921":6795,"Ġcloud":6796,"Ġvisitors":6797,"Ġstor":6798,"Ġuniform":6799,"Ġmainstream":6800,"Ġunsuccessful":6801,"Ġmamm":6802,"Ġweekend":6803,"Ġsubstit":6804,"vis":6805,"Ġreleases":6806,"Ġconcur":6807,"Ġrefuge":6808,"Ġsor":6809,"Ġsees":6810,"Ġrepresenting":6811,"owa":6812,"Ġbelieves":6813,"Ġdynam":6814,"Ġdna":6815,"Ġkw":6816,"Ġexcess":6817,"Ġdepicted":6818,"Ġinfluential":6819,"Ġberlin":6820,"Ġresolution":6821,"Ġowners":6822,"Ġcoins":6823,"Ġliqu":6824,"Ġbasin":6825,"entional":6826,"agu":6827,"ici":6828,"Ġexit":6829,"Ġlooked":6830,"Ġdominated":6831,"Ġ08":6832,"apers":6833,"Ġ900":6834,"hanna":6835,"Ġhouston":6836,"Ġraaf":6837,"dd":6838,"aws":6839,"Ġyan":6840,"Ġsecured":6841,"Ġchurches":6842,"ixon":6843,"Ġvideos":6844,"Äį":6845,"Ġsanta":6846,"Ġwol":6847,"eler":6848,"tz":6849,"chen":6850,"Ġwag":6851,"Ġfinn":6852,"Ġnotably":6853,"roit":6854,"Ġyug":6855,"Ġinformed":6856,"Ġcomics":6857,"Ġ1912":6858,"Ġexpos":6859,"Ġcasting":6860,"Ġwatching":6861,"Ġlegs":6862,"illing":6863,"pany":6864,"Ġreun":6865,"Ġdriver":6866,"Ġgiants":6867,"Ġlod":6868,"Ġindians":6869,"Ġoffices":6870,"using":6871,"aya":6872,"Ġcemetery":6873,"ture":6874,"Ġroberts":6875,"Ġswedish":6876,"Ġdeployed":6877,"Ġhut":6878,"Ġlanguages":6879,"atically":6880,"Ġimposs":6881,"Ġguardian":6882,"Ġsimpson":6883,"Ġterror":6884,"Ġrelationships":6885,"Ġbehavi":6886,"oster":6887,"ultane":6888,"Ġ1932":6889,"Ġtone":6890,"Ġdick":6891,"Ġsimultane":6892,"Ġresear":6893,"Ġneighbour":6894,"Ġhousing":6895,"illed":6896,"eenth":6897,"vens":6898,"Ġdies":6899,"aska":6900,"Ġhu":6901,"ĠâĤ":6902,"Ġhearing":6903,"Ġdevice":6904,"Ġtesting":6905,"acent":6906,"Ġtie":6907,"Ġopponents":6908,"Ġskills":6909,"Ġcabinet":6910,"Ġmeteor":6911,"Ġdiagn":6912,"Ġcov":6913,"ication":6914,"Ġkne":6915,"Ġachieve":6916,"Ġpregn":6917,"Ġbh":6918,"apse":6919,"Ġwarner":6920,"Ġoperational":6921,"Ġabd":6922,"Ġcock":6923,"Ġincom":6924,"Ġdetail":6925,"Ġsang":6926,"Ġdrums":6927,"Ġfreder":6928,"Ġimpressed":6929,"Ġgenerated":6930,"ructure":6931,"Ġintense":6932,"Ġemotional":6933,"Ġjason":6934,"Ġ09":6935,"Ġliz":6936,"Ġfactors":6937,"Ġreportedly":6938,"Ġmainten":6939,"rig":6940,"Ġdialogue":6941,"li":6942,"Ġagents":6943,"Ġhappened":6944,"Ġau":6945,"Ġbapt":6946,"Ġmaintenance":6947,"ternal":6948,"Ġwindow":6949,"Ġdownload":6950,"Ġcommemor":6951,"fare":6952,"Ġay":6953,"Ġrender":6954,"iously":6955,"Ġnbc":6956,"Ġyugoslav":6957,"Ġformat":6958,"Ġsuccessor":6959,"Ġagricultural":6960,"Ġanthony":6961,"Ġfiring":6962,"Ġfootage":6963,"Ġemployees":6964,"Ġexperiences":6965,"Ġmud":6966,"Ġsatur":6967,"Ġsomers":6968,"Ġabbey":6969,"arts":6970,"Ġtrek":6971,"olph":6972,"Ġclay":6973,"Ġrising":6974,"otype":6975,"Ġgaga":6976,"Ġdetroit":6977,"tw":6978,"Ġfishing":6979,"udes":6980,"ci":6981,"Ġcroatia":6982,"Ġlose":6983,"mate":6984,"Ġsure":6985,"Ġteeth":6986,"Ġdefended":6987,"Ġnegotiations":6988,"Ġcu":6989,"Ġlowest":6990,"Ġscientists":6991,"Ġbun":6992,"ache":6993,"fire":6994,"Ġzero":6995,"Ġraj":6996,"Ġrevolutionary":6997,"Ġ1929":6998,"Ġstem":6999,"ih":7000,"icial":7001,"Ġexecuted":7002,"Ġbelg":7003,"Ġark":7004,"Ġku":7005,"Ġ1911":7006,"Ġcod":7007,"Ġfried":7008,"Ġmedium":7009,"Ġdiscussed":7010,"Ġcollect":7011,"Ġgilbert":7012,"ctic":7013,"Ġpersonality":7014,"Ġfeud":7015,"Ġ140":7016,"Ġnormally":7017,"Ġrecur":7018,"Ġtreated":7019,"Ġseas":7020,"igen":7021,"noon":7022,"aints":7023,"Ġsic":7024,"Ġenters":7025,"Ġportra":7026,"anny":7027,"Ġtribute":7028,"Ġasian":7029,"Ġafternoon":7030,"Ġinterstate":7031,"Ġtenth":7032,"Ġsympt":7033,"Ġstewart":7034,"Ġlob":7035,"Ġradar":7036,"Ġdj":7037,"Ġresign":7038,"Ġ1931":7039,"Ġdrawing":7040,"Ġ1922":7041,"Ġclinton":7042,"Ġresidential":7043,"achment":7044,"Ġcarib":7045,"Ġmelbourne":7046,"ontin":7047,"Ġstorms":7048,"30":7049,"Ġflew":7050,"Ġjesus":7051,"Ġresigned":7052,"Ġaccompany":7053,"Ġgoods":7054,"Ġcher":7055,"Ġdifference":7056,"Ġvessel":7057,"Ġadvoc":7058,"Ġdetailed":7059,"iliar":7060,"Ġethnic":7061,"Ġinhabit":7062,"Ġtornado":7063,"Ġbreat":7064,"Ġboil":7065,"ois":7066,"Ġorigins":7067,"Ġaged":7068,"Ġevans":7069,"Ġformally":7070,"Ġpointed":7071,"Ġbudd":7072,"Ġnielsen":7073,"Ġpartnership":7074,"Ġtechnique":7075,"Ġmilitia":7076,"Ġreveals":7077,"Ġprevented":7078,"Ġsynd":7079,"Ġinnov":7080,"Ġpreferred":7081,"Ġloop":7082,"Ġglac":7083,"Ġxbox":7084,"pet":7085,"Ġpushed":7086,"Ġstable":7087,"Ġdirectors":7088,"Ġtempor":7089,"Ġhuge":7090,"oen":7091,"Ġkeeping":7092,"Ġforb":7093,"Ġarriving":7094,"Ġannounce":7095,"Ġapprec":7096,"Ġexposed":7097,"Ġ05":7098,"arf":7099,"Ġorganizations":7100,"Ġisolated":7101,"Ġinstitution":7102,"Ġneighborhood":7103,"Ġsisters":7104,"orous":7105,"Ġatlant":7106,"ni":7107,"Ġsubstantial":7108,"Ġdisturb":7109,"sk":7110,"Ġpartly":7111,"Ġhanded":7112,"Ġsevent":7113,"Ġmetro":7114,"Ġmoments":7115,"Ġforty":7116,"Ġmuslim":7117,"Ġmarshall":7118,"Ġlinked":7119,"Ġfounder":7120,"Ġsamuel":7121,"otes":7122,"Ġturkish":7123,"iner":7124,"Ġoxy":7125,"Ġphen":7126,"lie":7127,"Ġimprison":7128,"Ġenthus":7129,"Ġsarah":7130,"Ġdeparted":7131,"Ġanaly":7132,"Ġmack":7133,"Ġhans":7134,"rees":7135,"Ġherald":7136,"Ġcontinental":7137,"Ġdesigner":7138,"Ġfactory":7139,"vere":7140,"Ġaustria":7141,"Ġcomplic":7142,"mad":7143,"Ġcorrect":7144,"rose":7145,"Ġcolorado":7146,"Ġsuspend":7147,"Ġlennon":7148,"Ġexisted":7149,"Ġassess":7150,"Ġfrequent":7151,"Ġpione":7152,"Ġmanh":7153,"Ġmeg":7154,"Ġfifteen":7155,"Ġdramatic":7156,"Ġgreece":7157,"Ġimpossible":7158,"ologists":7159,"Ġperiods":7160,"bean":7161,"Ġranking":7162,"Ġinstrumental":7163,"Ġbenn":7164,"Ġproced":7165,"Ġavo":7166,"Ġextent":7167,"Ġwedding":7168,"Ġmoral":7169,"Ġoccupation":7170,"Ġbaltim":7171,"Ġparticipate":7172,"Ġconcerts":7173,"Ġcatal":7174,"sa":7175,"ģĦ":7176,"Ġsymp":7177,"Ġinstance":7178,"Ġ170":7179,"Ġpatrol":7180,"Ġinher":7181,"Ġload":7182,"Ġbaltimore":7183,"Ġshock":7184,"rome":7185,"imb":7186,"olis":7187,"Ġseeking":7188,"Ġiniti":7189,"mat":7190,"lev":7191,"usted":7192,"Ġarmament":7193,"Ġcruisers":7194,"Ġscholar":7195,"inder":7196,"Ġapple":7197,"Ġanticip":7198,"stic":7199,"Ġalter":7200,"Ġmalays":7201,"Ġdeputy":7202,"Ġspecimens":7203,"Ġgrace":7204,"Ġmail":7205,"Ġtru":7206,"Ġtaught":7207,"Ġturb":7208,"ullivan":7209,"Ġaqu":7210,"Ġhelic":7211,"Ġverse":7212,"Ġfinale":7213,"Ġghost":7214,"lyn":7215,"Ġseek":7216,"music":7217,"Ġimpress":7218,"Ġfab":7219,"die":7220,"Ġern":7221,"Ġmanus":7222,"Ġhunt":7223,"Ġrarely":7224,"Ġgates":7225,"Ġsem":7226,"Ġrepair":7227,"Ġsmooth":7228,"Ġamendment":7229,"Ġnewspapers":7230,"Ġcreator":7231,"Ġfriendly":7232,"Ġspending":7233,"Ġdave":7234,"fr":7235,"arn":7236,"Ġupgraded":7237,"Ġalab":7238,"Ġmetropolitan":7239,"Ġgene":7240,"Ġobser":7241,"Ġdiameter":7242,"Ġdoesn":7243,"Ġwithdrew":7244,"Ġdir":7245,"Ġrelie":7246,"gate":7247,"Ġarena":7248,"Ġabsol":7249,"Ġprecip":7250,"Ġchase":7251,"cope":7252,"mal":7253,"Ġpip":7254,"Ġdivor":7255,"Ġ1928":7256,"Ġstro":7257,"Ġpoison":7258,"idae":7259,"Ġtimber":7260,"Ġlisten":7261,"Ġnag":7262,"Ġuncertain":7263,"Ġexhibition":7264,"Ġcovers":7265,"Ġpicked":7266,"Ġencountered":7267,"iami":7268,"Ġmathemat":7269,"Ġfrederick":7270,"Ġpermission":7271,"ras":7272,"Ġpounds":7273,"iller":7274,"Ġjoining":7275,"Ġlect":7276,"obi":7277,"Ġchanc":7278,"Ġboss":7279,"umin":7280,"Ġrefere":7281,"boy":7282,"icians":7283,"Ġcollaps":7284,"Ġdifficulties":7285,"Ġpolicies":7286,"Ġrates":7287,"Ġchanging":7288,"Ġschedule":7289,"Ġmario":7290,"Ġskull":7291,"Ġsomerset":7292,"Ġplus":7293,"Ġlegislature":7294,"Ġgab":7295,"Ġconsult":7296,"Ġ1925":7297,"Ġinaug":7298,"Ġmississ":7299,"Ġmulti":7300,"Ġanna":7301,"Ġsuicide":7302,"Ġcous":7303,"Ġpartially":7304,"sea":7305,"Ġ1890":7306,"Ġinqu":7307,"borough":7308,"Ġanch":7309,"Ġrestrict":7310,"Ġturrets":7311,"Ġmerchant":7312,"ski":7313,"Ġadvice":7314,"ĠÃ¦":7315,"Ġsank":7316,"anium":7317,"Ġanglo":7318,"Ġfederation":7319,"Ġovers":7320,"Ġbombers":7321,"Ġathletic":7322,"Ġmiami":7323,"aria":7324,"chell":7325,"Ġseed":7326,"Ġric":7327,"Ġpilots":7328,"Ġloan":7329,"Ġdisaster":7330,"Ġfran":7331,"Ġrestric":7332,"Ġadjacent":7333,"Ġtraveled":7334,"Ġsector":7335,"Ġrefers":7336,"Ġgap":7337,"Ġseattle":7338,"Ġcomments":7339,"col":7340,"Ġmines":7341,"Ġ1924":7342,"Ġrebellion":7343,"Ġbenefit":7344,"olas":7345,"Ġagree":7346,"Ġaffair":7347,"Ġwaves":7348,"Ġdal":7349,"Ġpref":7350,"Ġexplo":7351,"Ġsoldier":7352,"Ġphilosophy":7353,"Ġseats":7354,"Ġgardens":7355,"Ġplain":7356,"Ġsigns":7357,"Ã©e":7358,"Ġproport":7359,"Ġkal":7360,"Ġmarry":7361,"Ġworship":7362,"amese":7363,"Ġpitched":7364,"Ġminimum":7365,"Ġian":7366,"Ġ07":7367,"Ġshakes":7368,"Ġcriticised":7369,"Ġeagle":7370,"Ġiowa":7371,"Ġmeat":7372,"Ġmunicipal":7373,"Ġphr":7374,"Ġcoordin":7375,"ti":7376,"Ġsi":7377,"Ġbases":7378,"Ġalabama":7379,"Ġsoil":7380,"Ġnapole":7381,"esis":7382,"sters":7383,"Ġaustralians":7384,"Ġdestroyers":7385,"iot":7386,"Ġprompted":7387,"Ġcompete":7388,"Ġstruggle":7389,"Ġmint":7390,"Ġremove":7391,"gery":7392,"Ġmissou":7393,"Ġrepr":7394,"Ġpc":7395,"Ġsurprise":7396,"Ġswift":7397,"Ġdanc":7398,"Ġoverl":7399,"usal":7400,"Ġindicate":7401,"Ġwhil":7402,"attan":7403,"Ġhelicop":7404,"Ġcollapse":7405,"Ġion":7406,"Ġrav":7407,"power":7408,"inction":7409,"Ġcommunication":7410,"Ġneutral":7411,"Ġcaribbean":7412,"uster":7413,"Ġmedicine":7414,"Ġcharlie":7415,"Ġspiritual":7416,"Ġmanuscript":7417,"Ġforcing":7418,"Ġlawrence":7419,"Ġcapit":7420,"Ġdesignation":7421,"Ġstring":7422,"Ġhalo":7423,"Ġindeed":7424,"Ġgrown":7425,"Ġminnes":7426,"Ġsatellite":7427,"Ġbros":7428,"Ġarmored":7429,"Ġ1923":7430,"Ġparent":7431,"Ġblow":7432,"Ġenterprise":7433,"enh":7434,"Ġpowered":7435,"pie":7436,"Ġwalker":7437,"attered":7438,"Ġgat":7439,"Ġcopy":7440,"Ġteaching":7441,"Ġpaintings":7442,"Ġwhilst":7443,"gi":7444,"Ġstream":7445,"Ġcollaboration":7446,"isd":7447,"Ġum":7448,"nings":7449,"Ġciting":7450,"Ġsurvivors":7451,"Ġrestaurant":7452,"Ġyanke":7453,"Ġvalues":7454,"Ġelectron":7455,"Ġprotagonist":7456,"gas":7457,"Ġwreck":7458,"Ġfifty":7459,"Ġkhan":7460,"Ġmarketing":7461,"Ġyor":7462,"Ġbranc":7463,"Ġpossession":7464,"Ġcovering":7465,"Ġappointment":7466,"Ġharbour":7467,"mont":7468,"Ġdescribe":7469,"Ġrounds":7470,"Ġapproval":7471,"esh":7472,"Ġprovinc":7473,"Ġencounter":7474,"Ġnazi":7475,"oren":7476,"Ġcandidates":7477,"Ġtravelled":7478,"ascar":7479,"Ġdepending":7480,"Ġjen":7481,"Ġmane":7482,"Ġformula":7483,"ika":7484,"Ġpretty":7485,"mates":7486,"rum":7487,"Ġcharter":7488,"Ġunderstanding":7489,"Ġabb":7490,"Ġpoems":7491,"Ġbalance":7492,"Ġfortress":7493,"Ġreconna":7494,"Ġdispute":7495,"Ġbrill":7496,"Ġhungary":7497,"Ġpine":7498,"Ġorbit":7499,"Ġoxygen":7500,"Ġvictories":7501,"Ġbenj":7502,"imeter":7503,"Ġcyl":7504,"Ġdollars":7505,"mo":7506,"Ġmall":7507,"Ġprompt":7508,"Ġlisting":7509,"Ġsituated":7510,"Ġbowling":7511,"Ġdisplayed":7512,"Ġpic":7513,"Ġbattalions":7514,"Ġvillages":7515,"Ġarticles":7516,"Ġminimal":7517,"Ġdim":7518,"ception":7519,"Ġpole":7520,"Ġchristopher":7521,"icate":7522,"lan":7523,"Ġsurvive":7524,"Ġviolent":7525,"Ġwake":7526,"Ġfel":7527,"Ġbelgium":7528,"Ġhamp":7529,"Ġrugby":7530,"Ġlegislative":7531,"Ġreconnaissance":7532,"Ġearthqu":7533,"Ġcot":7534,"Ġalive":7535,"Ġserial":7536,"Ġoption":7537,"Ġdock":7538,"Ġfemin":7539,"Ġassisted":7540,"Ġclosing":7541,"Ġtelling":7542,"Ġdegrees":7543,"Ġplayoffs":7544,"Ġ01":7545,"Ġpublications":7546,"Ġnam":7547,"Ġcargo":7548,"Ġforests":7549,"Ġdiego":7550,"Ġprol":7551,"Ġdiff":7552,"Ġsoftware":7553,"Ġdancing":7554,"Ġinterpre":7555,"Ġamongst":7556,"Ġfuneral":7557,"Ġhelping":7558,"Ġguil":7559,"Ġsymptoms":7560,"Ġmarks":7561,"Ġcolonies":7562,"Ġshakespe":7563,"Ġeliminated":7564,"Ġtomb":7565,"Ġacted":7566,"Ġjar":7567,"Ġasks":7568,"odore":7569,"Ġbrun":7570,"Ġmonster":7571,"Ġsugar":7572,"Ġriders":7573,"Ġski":7574,"Ġadministrative":7575,"nie":7576,"Ġ*":7577,"Ġnad":7578,"Ġpurposes":7579,"phone":7580,"Ġdrivers":7581,"Ġalfred":7582,"Ġdisl":7583,"anna":7584,"Ġmys":7585,"Ġ1908":7586,"velt":7587,"Ġmichel":7588,"Ġcircumst":7589,"Ġpron":7590,"Ġrepairs":7591,"Ġ1905":7592,"Ġcompilation":7593,"Ġsimpl":7594,"Ġtrouble":7595,"Ġoccasions":7596,"Ġfatal":7597,"Ġmississipp":7598,"Ġ1909":7599,"Ġbenjamin":7600,"Ġmason":7601,"Ġroose":7602,"Ġblind":7603,"Ġconcrete":7604,"orted":7605,"Ġjok":7606,"Ġstatue":7607,"Ã§":7608,"Ġhong":7609,"Ġrout":7610,"Ġalcohol":7611,"Ġinland":7612,"Ġminnesota":7613,"Ġvietn":7614,"Ġcrus":7615,"Ġvietnamese":7616,"Ġlists":7617,"Ġinteract":7618,"Ġattendance":7619,"Ġcannon":7620,"atus":7621,"Ġpreserved":7622,"Ġpreparation":7623,"Ġanime":7624,"Ġpublicly":7625,"Ġhoriz":7626,"Ġgrammy":7627,"Ġconsole":7628,"Ġbusinesses":7629,"rupted":7630,"inals":7631,"Ġmental":7632,"Ġstevens":7633,"Ġmanhattan":7634,"Ġpool":7635,"leman":7636,"Ġabilities":7637,"Ġvoiced":7638,"Ġtang":7639,"Ġsick":7640,"Ġorganisation":7641,"Ġcommunications":7642,"Ġ105":7643,"Ġwider":7644,"ng":7645,"Ġpant":7646,"Ġdefeating":7647,"Ġillness":7648,"Ġ125":7649,"Ġhighways":7650,"fted":7651,"Ġramp":7652,"Ġargument":7653,"forced":7654,"ographical":7655,"Ġfranklin":7656,"uman":7657,"eing":7658,"Ġtouring":7659,"Ġ04":7660,"Ġelabor":7661,"jan":7662,"Ġsignal":7663,"Ġammun":7664,"Ġjet":7665,"Ġresumed":7666,"Ġroosevelt":7667,"Ġkansas":7668,"Ġvs":7669,"uda":7670,"Ġresidence":7671,"Ġ1907":7672,"Ġprel":7673,"Ġcompeted":7674,"Ġbelieving":7675,"Ġintensified":7676,"ivated":7677,"agen":7678,"Ġsas":7679,"Ġsurge":7680,"atherine":7681,"Ġammunition":7682,"Ġalignment":7683,"opes":7684,"Ġcrews":7685,"Ġcoff":7686,"Ġarchb":7687,"Ġexcav":7688,"Ġthinking":7689,"Ġ164":7690,"Ġflights":7691,"Ġdollar":7692,"Ġcounties":7693,"Ġairborne":7694,"Ġbacking":7695,"Ġportland":7696,"Ġfallen":7697,"Ġopponent":7698,"Ġstrategic":7699,"ounced":7700,"Ġunderst":7701,"Ġdocuments":7702,"acle":7703,"ishment":7704,"Ġsigning":7705,"Ġsubjects":7706,"Ġrib":7707,"Ġnit":7708,"Ġnash":7709,"Ġdeliber":7710,"Ġamate":7711,"iable":7712,"Ġing":7713,"Ġusd":7714,"Ġassists":7715,"Ġwalking":7716,"Ġfriendship":7717,"Ġwilling":7718,"Ġaudiences":7719,"din":7720,"Ġalternate":7721,"Ġusual":7722,"Ġceremon":7723,"Ġbiographer":7724,"Ġphilippines":7725,"Ġsuitable":7726,"Ġsib":7727,"Ġgenetic":7728,"Ġinteresting":7729,"Ġstu":7730,"orph":7731,"Ġdoubt":7732,"Ġengineers":7733,"Ġrush":7734,"Ġnoble":7735,"Ġatomic":7736,"Ġmississippi":7737,"Ġ1880":7738,"ensions":7739,"Ġfeelings":7740,"Ġabol":7741,"Ġspar":7742,"Ġradical":7743,"Ġsaturday":7744,"Ġ165":7745,"Ġchand":7746,"Ġwarren":7747,"Ġloyal":7748,"Ġprovincial":7749,"Ġpeters":7750,"Ġguards":7751,"Ġtribes":7752,"Ġdc":7753,"Ġunderw":7754,"Ġsubmitted":7755,"Ġpercentage":7756,"Ġcompleting":7757,"Ġwaiting":7758,"Ġwoods":7759,"à¤":7760,"Ġownership":7761,"Ġexplosion":7762,"Ġcob":7763,"Ġfunctions":7764,"Ġadopt":7765,"Ġbehalf":7766,"Ġtab":7767,"itated":7768,"Ġcharity":7769,"Ġalexand":7770,"donald":7771,"Ġasking":7772,"Ġautobi":7773,"iveness":7774,"Ġhook":7775,"utor":7776,"Ġpor":7777,"Ġdisord":7778,"Ġtast":7779,"Ġsullivan":7780,"Ġrip":7781,"Ġvinc":7782,"Ġguer":7783,"Ġpolar":7784,"Ġtennes":7785,"Ġretail":7786,"Ġartistic":7787,"Ġcampbell":7788,"Ġshakespeare":7789,"Ġevolved":7790,"Ġstick":7791,"ods":7792,"Ġhindu":7793,"dale":7794,"Ġcinema":7795,"Ġchronicle":7796,"Ġlex":7797,"Ġfrust":7798,"Ġtargets":7799,"Ġfalse":7800,"Ġrevenue":7801,"Ġwire":7802,"ifer":7803,"Ġsteven":7804,"Ġobv":7805,"Ġquad":7806,"Ġted":7807,"Ġfrig":7808,"Ġchest":7809,"Ġremark":7810,"Ġregistered":7811,"Ġbirthday":7812,"Ġastronom":7813,"cular":7814,"Ġlakes":7815,"onymous":7816,"Ġsuspended":7817,"Ġcass":7818,"Ġrice":7819,"Ġcartoon":7820,"ader":7821,"Ġhole":7822,"ses":7823,"Ġgoth":7824,"Ġnep":7825,"Ġfavorable":7826,"Ġdimens":7827,"Ġmovies":7828,"ige":7829,"Ġreluct":7830,"Ġjosh":7831,"Ġkin":7832,"Ġcivilian":7833,"Ġlucas":7834,"ãģ":7835,"Ġbeauty":7836,"Ġpoorly":7837,"Ġborough":7838,"icts":7839,"Ġprovision":7840,"Ġheading":7841,"Ġguilty":7842,"10":7843,"Ġpok":7844,"father":7845,"pecies":7846,"Ġegyptian":7847,"Äĥ":7848,"Ġreplacing":7849,"Ġhob":7850,"Ġforth":7851,"eston":7852,"Ġcomfort":7853,"Ġliked":7854,"Ġpace":7855,"Ġpup":7856,"Ġmush":7857,"oto":7858,"Ġrecip":7859,"Ġcliff":7860,"Ġarmies":7861,"Ġarmour":7862,"Ġideal":7863,"Ġ1870":7864,"Ġshells":7865,"Ġaimed":7866,"Ġquiet":7867,"Ġoffering":7868,"Ġsolution":7869,"Ġmeasured":7870,"inea":7871,"Ġmissouri":7872,"Ġtennessee":7873,"Ġboundary":7874,"Ġjos":7875,"Ġengagement":7876,"Ġclearly":7877,"Ġprospect":7878,"Ġacceler":7879,"Ġretrie":7880,"Ġlouisiana":7881,"Ġmargaret":7882,"Ġrocks":7883,"Ġ1906":7884,"inations":7885,"Ġexpensive":7886,"sky":7887,"Ġtemporarily":7888,"pes":7889,"ËĪ":7890,"Ġpalest":7891,"lah":7892,"Ġrecognised":7893,"Ġ360":7894,"Ġmontreal":7895,"Ġsimultaneously":7896,"Ġshipping":7897,"Ġ1904":7898,"Ġgear":7899,"Ġfiled":7900,"Ġesp":7901,"zech":7902,"Ġvulner":7903,"Ġsequences":7904,"uable":7905,"Ġbehaviour":7906,"Ġbrick":7907,"Ġaviation":7908,"Ġsubt":7909,"Ġremnants":7910,"Ġbutter":7911,"Ġgran":7912,"Ġbilly":7913,"Ġrepresents":7914,"Ġgalax":7915,"Ġstorage":7916,"Ġblocks":7917,"Ġagriculture":7918,"Ġcraw":7919,"Ġmonaster":7920,"crib":7921,"Ġwore":7922,"cel":7923,"Ġconspir":7924,"Ġreaders":7925,"Ġessential":7926,"Ġcontext":7927,"Ġfra":7928,"wned":7929,"Ġwants":7930,"Ġsaved":7931,"Ġtox":7932,"Ġcoverage":7933,"Ġstores":7934,"oh":7935,"Ġmitchell":7936,"Ġerr":7937,"Ġtalent":7938,"Ġamph":7939,"Ġsket":7940,"Ġcomparison":7941,"Ġcoinc":7942,"Ġmining":7943,"Ġpatterns":7944,"iac":7945,"Ġczech":7946,"Ġcancelled":7947,"Ġpars":7948,"Ġphone":7949,"Ġphoen":7950,"Ġkirk":7951,"Ġpropag":7952,"Ġaside":7953,"Ġsurgery":7954,"Ġtight":7955,"Ġ03":7956,"Ġperspective":7957,"Ġsuggesting":7958,"Ġinstitutions":7959,"Ġoverseas":7960,"Ġcoc":7961,"rix":7962,"Ġcontinu":7963,"Ġfaster":7964,"Ġspotted":7965,"Ġil":7966,"Ġthirteen":7967,"Ġfamiliar":7968,"Ġgraham":7969,"Ġmatters":7970,"Ġreflected":7971,"Ġmaneu":7972,"Ġwasn":7973,"Ġpractices":7974,"Ġcontributions":7975,"Ġrebuilt":7976,"Ġnotice":7977,"Ġbare":7978,"Ġfurn":7979,"Ġprotein":7980,"issions":7981,"Ġdogs":7982,"Ġlesser":7983,"ylan":7984,"Ġfastest":7985,"mn":7986,"life":7987,"Ġther":7988,"ori":7989,"Ġcarn":7990,"Ġhunter":7991,"Ġglobe":7992,"Ġfurthermore":7993,"Ġpredomin":7994,"Ġshadow":7995,"Ġdestroyer":7996,"Ġpulled":7997,"Ġvertical":7998,"Ġapplication":7999,"net":8000,"Ġarchbishop":8001,"rator":8002,"Ġranks":8003,"Ġcrystal":8004,"Ġescaped":8005,"rim":8006,"Ġroots":8007,"Ġflagship":8008,"Ġbadly":8009,"Ġariz":8010,"Ġoliv":8011,"Ġdrugs":8012,"Ġstrict":8013,"Ġsummit":8014,"Ġsubspecies":8015,"yon":8016,"storm":8017,"Ġforg":8018,"unes":8019,"Ġamounts":8020,"Ġjobs":8021,"Ġsult":8022,"car":8023,"Ġlacked":8024,"Ġcuba":8025,"rants":8026,"Ġsq":8027,"Ġdrove":8028,"Ġcave":8029,"Ġexclud":8030,"Ġallmusic":8031,"Ġdecides":8032,"Ġintelle":8033,"Ġslaves":8034,"Ġpanel":8035,"Ġbombs":8036,"Ġempt":8037,"Ġconfederate":8038,"Ġosc":8039,"Ġargues":8040,"Ġwicket":8041,"Ġintellect":8042,"tha":8043,"Ġbulk":8044,"Ġtoky":8045,"Ġunex":8046,"Ġsubur":8047,"Ġportions":8048,"Ġtriang":8049,"vereign":8050,"kshire":8051,"Ġindies":8052,"Ġsovereign":8053,"Ġautumn":8054,"Ġcontrols":8055,"osing":8056,"artney":8057,"Ġexpression":8058,"Ġsquadrons":8059,"Ġquarterback":8060,"Ġml":8061,"Ġspider":8062,"Ġseverely":8063,"Ġinhabitants":8064,"Ġearning":8065,"Ġstriking":8066,"Ġbiography":8067,"urally":8068,"Ġprinted":8069,"Ġstarring":8070,"Ġtort":8071,"Ġdistinctive":8072,"Ġtamil":8073,"Ġwarship":8074,"Ġcrest":8075,"Ġtoy":8076,"Ġcondem":8077,"Ġambass":8078,"Ġtack":8079,"Ġmainland":8080,"Ġpersian":8081,"Ġguitarist":8082,"Ġsony":8083,"Ġferry":8084,"Ġobservations":8085,"Ġstern":8086,"Ġarizona":8087,"Ġfo":8088,"Ġchick":8089,"Ġcoron":8090,"Ġgodd":8091,"Ġbonus":8092,"Ġrestricted":8093,"Ġtale":8094,"Ġwish":8095,"Ġmarie":8096,"Ġcharacterized":8097,"Ãº":8098,"Ġorth":8099,"Ġvast":8100,"Ġconstitutional":8101,"Ġstere":8102,"Ġplanets":8103,"lings":8104,"urer":8105,"Ġexcellent":8106,"Ġ115":8107,"Ġranging":8108,"Ġclock":8109,"Ġliberty":8110,"Ġbald":8111,"Ġdylan":8112,"Ġvisiting":8113,"iy":8114,"Ġspend":8115,"ieties":8116,"Ġcommanding":8117,"Ġsitting":8118,"Ġflower":8119,"cru":8120,"Ġjury":8121,"Ġrevival":8122,"Ġphenom":8123,"Ġdefinition":8124,"Ġpearl":8125,"rog":8126,"Ġnik":8127,"Ġfixed":8128,"Ġcurren":8129,"Ġmik":8130,"Ġrings":8131,"Ġwilhel":8132,"Ġwait":8133,"Ġvib":8134,"Ġplut":8135,"athy":8136,"idency":8137,"Ġmeetings":8138,"Ġlt":8139,"Ġnominations":8140,"Ġtiss":8141,"Ġwine":8142,"Ġholiday":8143,"Ġthrew":8144,"Ġexplain":8145,"Ġexplains":8146,"Ġbombing":8147,"Ġathletes":8148,"Ġultimate":8149,"Ġsig":8150,"Ġdominant":8151,"olid":8152,"Ġcarriers":8153,"Ġstatistics":8154,"Ġdemonstrated":8155,"Ġamateur":8156,"Ġacou":8157,"fish":8158,"Ġoklah":8159,"Ġillegal":8160,"Ġtig":8161,"Ġbone":8162,"Ġarrive":8163,"Ġbroadway":8164,"equ":8165,"Ġdy":8166,"oga":8167,"Ġdanger":8168,"Ġmultipl":8169,"Ġeducational":8170,"Ġparliamentary":8171,"unction":8172,"Ġartific":8173,"ract":8174,"Ġpill":8175,"Ġaustrian":8176,"Ġmarvel":8177,"Ġfounding":8178,"Ġmetall":8179,"vo":8180,"Ġhidden":8181,"Ġyield":8182,"Ġmrs":8183,"Ġmaur":8184,"Ġswitzer":8185,"Ġticket":8186,"owed":8187,"Ġdust":8188,"Ġforecast":8189,"Ġrook":8190,"Ġartwork":8191,"Ġlen":8192,"Ġcoat":8193,"Ġgrave":8194,"Ġnorthward":8195,"Ġprepare":8196,"Ġharvey":8197,"hu":8198,"thy":8199,"estone":8200,"Ġorn":8201,"Ġarist":8202,"Ġ1901":8203,"Ġaerial":8204,"Ġ174":8205,"Ġcensus":8206,"Ġabund":8207,"Ġswitzerland":8208,"anian":8209,"Ġmurphy":8210,"Ġpredicted":8211,"Ġtalking":8212,"Ġbeam":8213,"Ġamy":8214,"Ġpush":8215,"Ġrever":8216,"ested":8217,"Ġexperimental":8218,"Ġdeclar":8219,"Ġpm":8220,"Ġreaches":8221,"Ġpeaking":8222,"Ġconversion":8223,"Ġslave":8224,"away":8225,"Ġdread":8226,"Ġbarry":8227,"Ġdelaware":8228,"Ġanat":8229,"emen":8230,"Ġovert":8231,"ulating":8232,"Ġfeeding":8233,"Ġconscious":8234,"orer":8235,"Ġlanes":8236,"asts":8237,"Ġsteps":8238,"Ġvii":8239,"Ġabc":8240,"Ġberg":8241,"Ġhouseholds":8242,"Ġdisagre":8243,"Ġchel":8244,"di":8245,"Ġoverw":8246,"grad":8247,"Ġapartment":8248,"Ġnut":8249,"Ġoklahoma":8250,"uations":8251,"Ġaccum":8252,"Ġni":8253,"Ġinnoc":8254,"Ġwestward":8255,"Ġcruc":8256,"Ġfeels":8257,"Ġliquid":8258,"Ġinterf":8259,"Ġbaker":8260,"orship":8261,"Ġseriously":8262,"Ġjoh":8263,"Ġobtain":8264,"Ġrepeatedly":8265,"Ġva":8266,"Ġuseful":8267,"Ġmembership":8268,"Ġaudition":8269,"Ġpredecessor":8270,"Ġbach":8271,"Ġswimming":8272,"Ġsymphony":8273,"Ġmate":8274,"Ġconsidering":8275,"Ġchoose":8276,"Ġcopper":8277,"Ġlayer":8278,"bec":8279,"Ġlaugh":8280,"Ġlon":8281,"Ġ02":8282,"Ġcongreg":8283,"Ġpatron":8284,"Ġ1903":8285,"Ġbones":8286,"Ġwells":8287,"Ġninet":8288,"Ġ155":8289,"Ġconsequently":8290,"Ġcircumstances":8291,"Ġattained":8292,"Ġthanks":8293,"Ġmini":8294,"Ġ1902":8295,"Ġpreserv":8296,"Ġkurt":8297,"elli":8298,"Ġperry":8299,"Ġbacked":8300,"Ġbod":8301,"Ġfasc":8302,"Ġgw":8303,"Ġdelivery":8304,"Ġmelody":8305,"Ġphysics":8306,"Å«":8307,"Ġtodd":8308,"Ġfeather":8309,"Ġrevolt":8310,"imen":8311,"Ġrico":8312,"umps":8313,"Ġperceived":8314,"Ġmemor":8315,"eton":8316,"Ġlooks":8317,"Ġmong":8318,"Ġmillenn":8319,"uma":8320,"Ġmadag":8321,"Ġleslie":8322,"icut":8323,"iders":8324,"Ġshaw":8325,"cs":8326,"Ġrevers":8327,"Ġstones":8328,"Ġvig":8329,"rast":8330,"Ġpages":8331,"Ġhav":8332,"Ġflowers":8333,"isp":8334,"Ġeve":8335,"Ġvaluable":8336,"Ġbernard":8337,"Ġbour":8338,"Ġsunk":8339,"Ġsubsid":8340,"ridge":8341,"Ġballad":8342,"ĠÎ¼":8343,"Ġimprovements":8344,"Ġtokyo":8345,"Ġask":8346,"Ġcomed":8347,"oned":8348,"angel":8349,"Ġremarked":8350,"Ġpossess":8351,"Ġduo":8352,"Ġtactics":8353,"Ġretain":8354,"Ġcompens":8355,"Ġengage":8356,"Ġdenmark":8357,"ym":8358,"Ġturret":8359,"Ġjonathan":8360,"Ġtowers":8361,"Äĳ":8362,"Ġpromised":8363,"Ġpersonally":8364,"Ġrenov":8365,"Ġairlines":8366,"Ġbattlecru":8367,"Ġlandscape":8368,"Ġguar":8369,"Ġjohnny":8370,"Ġatlanta":8371,"rating":8372,"Ġmusician":8373,"Ġtheatrical":8374,"Ġedwards":8375,"Ġment":8376,"Ġexecution":8377,"Ġdawn":8378,"Ġenlisted":8379,"Ġairfield":8380,"Ġobst":8381,"Ġrihanna":8382,"Ġpatt":8383,"Ġhog":8384,"Ġkam":8385,"Ġkids":8386,"Ġspart":8387,"Ġcompound":8388,"Ġmanga":8389,"apolis":8390,"Ġdemands":8391,"Ġsixteen":8392,"asa":8393,"Ġstrengthened":8394,"fa":8395,"Ġnixon":8396,"Ġ101":8397,"Ġtravels":8398,"Ġcampaigns":8399,"onomy":8400,"Ġjuan":8401,"Ġprofile":8402,"Ġsung":8403,"itter":8404,"Ġisa":8405,"uded":8406,"mingham":8407,"Ġqualified":8408,"Ġexplan":8409,"Ġrede":8410,"Ġelevation":8411,"Ġraising":8412,"Ġfunny":8413,"Ġmechanical":8414,"vi":8415,"abs":8416,"Ġdemanded":8417,"inian":8418,"Ġral":8419,"Ġspa":8420,"Ġpapers":8421,"low":8422,"ruption":8423,"Ġillustrated":8424,"Ġ168":8425,"Ġarnold":8426,"ele":8427,"Ġsuccession":8428,"bard":8429,"estyle":8430,"Ġburns":8431,"Ġaggreg":8432,"Ġpitts":8433,"Ġwaste":8434,"Ġinterpretation":8435,"arr":8436,"Ġms":8437,"ova":8438,"Ġinsisted":8439,"Ġclothing":8440,"mith":8441,"Ġkeith":8442,"Ġstress":8443,"Ġenroll":8444,"rows":8445,"Ġcompounds":8446,"Ġruling":8447,"Ġelectricity":8448,"bird":8449,"nik":8450,"yt":8451,"Ġbeats":8452,"Ġsettlers":8453,"Ġcanter":8454,"Ġjimmy":8455,"Ġmirror":8456,"Ġbak":8457,"Ġdressed":8458,"Ġlying":8459,"Ġjudg":8460,"Ġsak":8461,"ghan":8462,"Ġphoenix":8463,"Ġbaron":8464,"Ġfewer":8465,"Ġmeter":8466,"Ġstruggled":8467,"Ġhood":8468,"Ġglee":8469,"Ġcarp":8470,"Ġruth":8471,"Ġtales":8472,"Ġvik":8473,"Ġprost":8474,"uki":8475,"Ġhybr":8476,"Ġrachel":8477,"ĠÏ":8478,"Ġdemolished":8479,"Ġencl":8480,"Ġsucceed":8481,"Ġerected":8482,"Ġpersons":8483,"Ġtrading":8484,"Ġstronger":8485,"esty":8486,"Ġfourteen":8487,"Ġpassion":8488,"ulty":8489,"Ġdecisions":8490,"Ġconquest":8491,"Ġincreases":8492,"Ġriding":8493,"Ġshift":8494,"ensis":8495,"Ġparas":8496,"Ġinsects":8497,"acked":8498,"Ġcutting":8499,"Ġcoup":8500,"Ġyankees":8501,"odox":8502,"Ġtracy":8503,"Ġ166":8504,"Ġremoval":8505,"Ġfis":8506,"Ġhugh":8507,"utt":8508,"Ġexternal":8509,"Ġobjective":8510,"Ġwatershed":8511,"Ġsurpass":8512,"Ġmills":8513,"Ġbirmingham":8514,"Ġdaughters":8515,"Ġcompliment":8516,"Ġpursue":8517,"Ġblu":8518,"jection":8519,"Ġadvertising":8520,"Ġculmin":8521,"nat":8522,"Ġbog":8523,"acre":8524,"Ġdefences":8525,"Ġsuperst":8526,"Ġlights":8527,"xual":8528,"Ġwarfare":8529,"Ġburial":8530,"Ġdeterior":8531,"Ġbobby":8532,"gie":8533,"Ġdevelopers":8534,"avery":8535,"Ġexactly":8536,"folk":8537,"aro":8538,"Ġ109":8539,"Ġobama":8540,"Ġkiller":8541,"Ġoverwhel":8542,"Ġconcentration":8543,"Ġdenn":8544,"eled":8545,"Ġcomprom":8546,"Ġresol":8547,"Ġdiscovers":8548,"Ġgriff":8549,"Ġmercury":8550,"omp":8551,"Ġorganised":8552,"Ġmagazines":8553,"lock":8554,"Ġfate":8555,"Ġlip":8556,"Ġbacter":8557,"Ġfossil":8558,"fts":8559,"Ġaltered":8560,"Ġspur":8561,"Ġdefending":8562,"Ġranges":8563,"Ġbuddh":8564,"Ġmant":8565,"Ġvenue":8566,"kh":8567,"Ġwealthy":8568,"Ġemployment":8569,"Ġhydrogen":8570,"Ġhudson":8571,"erb":8572,"Ġelectrical":8573,"Ġgosp":8574,"Ġloved":8575,"Ġfold":8576,"Ġapproaching":8577,"Ġdall":8578,"Ġeval":8579,"Ġdebt":8580,"Ġexercise":8581,"Ġarmoured":8582,"Ġced":8583,"season":8584,"ctr":8585,"Ġkarl":8586,"Ġadventures":8587,"Ġraids":8588,"zzle":8589,"cha":8590,"Ġestablishing":8591,"Ġselect":8592,"Ġexposure":8593,"Ġwayne":8594,"Ġinvestment":8595,"Ġcommentary":8596,"Ġlimits":8597,"Ġhearts":8598,"Ġmccartney":8599,"Ġmadagascar":8600,"Ġtong":8601,"Ġprofit":8602,"Ġmood":8603,"Ġshak":8604,"Ġconnecticut":8605,"Ġjurisd":8606,"rises":8607,"Ġjup":8608,"Ġconnecting":8609,"Ġaggressive":8610,"mund":8611,"Ġvanc":8612,"Ġhence":8613,"Ġcenters":8614,"Ġepic":8615,"Ġmature":8616,"Ġgods":8617,"Ġpartial":8618,"Ġarchitectural":8619,"Ġqualifying":8620,"Ġontar":8621,"rams":8622,"Ġparach":8623,"Ġliv":8624,"iden":8625,"Ġoutd":8626,"Ġcanterbury":8627,"Ġontario":8628,"Ġprove":8629,"Ġfriday":8630,"Ġmorrison":8631,"Ġslip":8632,"Ġlor":8633,"Ġtrick":8634,"ensively":8635,"Ġindicating":8636,"Ġdwarf":8637,"Ġgren":8638,"Ġongoing":8639,"Ġexter":8640,"Ġedited":8641,"Ġmarkets":8642,"Ġdetermin":8643,"Ġtraveling":8644,"Ġnapoleon":8645,"Ġarrangements":8646,"Ġextrat":8647,"Ġisot":8648,"Ġshorter":8649,"Ġradiation":8650,"Ġimprovement":8651,"Ġwithdrawal":8652,"Ġannouncement":8653,"ardo":8654,"ouver":8655,"Ġsultan":8656,"Ġunless":8657,"aux":8658,"Ġvolumes":8659,"Ġcelebrated":8660,"Ġappropriate":8661,"py":8662,"Ġtheore":8663,"Ġstationed":8664,"Ġevacuated":8665,"Ġpruss":8666,"Ġdissipated":8667,"Ġacknowledged":8668,"Ġextratropical":8669,"Ġhoney":8670,"Ġputting":8671,"Ġpredict":8672,"Ġbomber":8673,"Ġprecipitation":8674,"Ġacoustic":8675,"rous":8676,"Ġsciences":8677,"Ġpermitted":8678,"Ġslavery":8679,"Ġsurvival":8680,"Ġtube":8681,"Ġdict":8682,"Ġcler":8683,"Ġpreparations":8684,"ifies":8685,"Ġdiscussion":8686,"Ġrealized":8687,"Ġsilent":8688,"Ġnurs":8689,"Ġrend":8690,"Ġyoungest":8691,"Ġtna":8692,"Ġinitiated":8693,"Ġdubbed":8694,"Ġplacing":8695,"iph":8696,"Ġgraduated":8697,"caa":8698,"lain":8699,"oons":8700,"Ġkills":8701,"bow":8702,"anger":8703,"Ġhosts":8704,"efa":8705,"Ġpotter":8706,"Ġrecovery":8707,"Ġphotographs":8708,"Ġvoices":8709,"Ġdisappoint":8710,"Ġcort":8711,"Ġhardy":8712,"Ġindustries":8713,"adi":8714,"Ġmcm":8715,"Ġwis":8716,"Ġfleming":8717,"Ġtranslation":8718,"Ġparam":8719,"Ġterr":8720,"Ġgraduate":8721,"Ġkon":8722,"itis":8723,"Ġtruck":8724,"Ġhypothes":8725,"Ġuefa":8726,"Ġgary":8727,"shore":8728,"ulous":8729,"Ġattitude":8730,"Ġ152":8731,"uese":8732,"Ġrehe":8733,"Ġvancouver":8734,"Ġrequires":8735,"Ġstrongest":8736,"Ġconventional":8737,"Ġaffili":8738,"Ġburning":8739,"Ġconfront":8740,"Ġoriginated":8741,"Ġvoyage":8742,"Ġestimates":8743,"itudes":8744,"Ġvamp":8745,"Ġjupiter":8746,"aser":8747,"Ġreporter":8748,"pled":8749,"Ġharmon":8750,"Ġtransit":8751,"amental":8752,"hard":8753,"Ġstol":8754,"hips":8755,"Ġreferring":8756,"Ġtubes":8757,"Ġtrough":8758,"Ġknock":8759,"Ã©t":8760,"Ġdonated":8761,"Ġsonic":8762,"Ġexha":8763,"Ġmend":8764,"Ġexclusive":8765,"Ġecho":8766,"Ġnerv":8767,"Ġedin":8768,"Ġdevast":8769,"Ġrus":8770,"Ġendors":8771,"Ġtours":8772,"Ġsupplement":8773,"Ġexpert":8774,"Ġspecimen":8775,"Ġsignature":8776,"Ġrp":8777,"Ġ104":8778,"Ã¦":8779,"Ġeug":8780,"Ġcolleagues":8781,"Ġclosest":8782,"hous":8783,"itively":8784,"Ġparody":8785,"Ġguinea":8786,"autical":8787,"Ġminority":8788,"Ġsoutheastern":8789,"Ġpakistan":8790,"ingham":8791,"Ġpromotional":8792,"Ġaxis":8793,"Ġindicates":8794,"Ġbearing":8795,"Ġdecide":8796,"Ġcord":8797,"Ġhey":8798,"oven":8799,"Ġkap":8800,"Ġmonte":8801,"Ġdrinking":8802,"Ġearthquake":8803,"Ġrecall":8804,"Ġ173":8805,"ĠÃ¦thel":8806,"rep":8807,"Ġlac":8808,"Ġscattered":8809,"Ġportuguese":8810,"Ġwool":8811,"Ġmanor":8812,"Ġvisits":8813,"Ġ1860":8814,"Ġbradman":8815,"Ġoutf":8816,"Ġlegit":8817,"Ġchallenged":8818,"Ġluke":8819,"Ġattending":8820,"Ġdensity":8821,"Ġcraft":8822,"ivation":8823,"Ġheaven":8824,"inces":8825,"Ġalice":8826,"Ġlawyer":8827,"Ġconcentrated":8828,"Ġgathered":8829,"cr":8830,"Ġmerely":8831,"Ġusers":8832,"Ġprogramming":8833,"Ġemphasis":8834,"Ġcollapsed":8835,"Ġidentify":8836,"Ġcruise":8837,"Ġdwight":8838,"Ġmorph":8839,"Ġtraditionally":8840,"Ġcoalition":8841,"pers":8842,"Ġoverlo":8843,"Ġpam":8844,"Ġterritorial":8845,"Ġsupplied":8846,"à¸":8847,"Ġncaa":8848,"Ġgovernments":8849,"Ġhanna":8850,"case":8851,"Ġdale":8852,"Ġannually":8853,"Ġscreenplay":8854,"Ġdemocrats":8855,"Ġcotton":8856,"Ġov":8857,"ulted":8858,"uration":8859,"Ġindigen":8860,"Ġ1893":8861,"Ġprinciples":8862,"Ġartificial":8863,"mers":8864,"adier":8865,"Ġachievement":8866,"Ġbeng":8867,"Ġbarn":8868,"Ġdevil":8869,"Ġcousin":8870,"Ġelectro":8871,"Ġphotography":8872,"Ġsacrif":8873,"Ġtai":8874,"Ġcash":8875,"graph":8876,"claimed":8877,"Ġcelt":8878,"ello":8879,"Ġportrait":8880,"bal":8881,"Ġprovinces":8882,"Ġlawsu":8883,"Ġ1896":8884,"Ġalpha":8885,"Ġstal":8886,"soft":8887,"Ġprisoner":8888,"nia":8889,"Ġuncom":8890,"Ġprices":8891,"Ġpredators":8892,"Ġoptim":8893,"Ġdoctr":8894,"Ġfed":8895,"Ġoffense":8896,"Ġchemistry":8897,"Ġhampshire":8898,"otte":8899,"Ġafghan":8900,"Ġoliver":8901,"Ġdeclaration":8902,"Ġseized":8903,"Ġterrain":8904,"Ġboom":8905,"Ġaccompanying":8906,"Ġedinburgh":8907,"Ġtalks":8908,"Ġapplications":8909,"Ġtopped":8910,"Ġcompeting":8911,"Ġpond":8912,"Ġfailing":8913,"Ġig":8914,"andy":8915,"Ġreinforcements":8916,"Ġindigenous":8917,"agger":8918,"Ġturner":8919,"Ġinvestigate":8920,"Ġveloc":8921,"Ġreverse":8922,"Ġmosc":8923,"feld":8924,"Ġuranium":8925,"Ġ127":8926,"Ġuniversities":8927,"Ġstuff":8928,"Ġsending":8929,"Ġmaya":8930,"Ġportrayal":8931,"Ġ1898":8932,"Ġsmart":8933,"Ġglen":8934,"Ġtenure":8935,"Ã¼r":8936,"Ġrangers":8937,"Ġpenet":8938,"Ġvictorian":8939,"Ġheir":8940,"Ġchord":8941,"irm":8942,"Ġbroadcasting":8943,"Ġgaz":8944,"Ġoutput":8945,"Ġrevenge":8946,"pin":8947,"Ġnu":8948,"Ġregime":8949,"Ġ350":8950,"Ġreconstruction":8951,"Ġ172":8952,"Ġexperiments":8953,"Ġcros":8954,"Ġconsolid":8955,"Ġvolunteers":8956,"bu":8957,"Ġbeneath":8958,"imetres":8959,"Ġtap":8960,"Ġkan":8961,"Ġflooded":8962,"Ġcertainly":8963,"Ġterminal":8964,"Ġrecurring":8965,"Ġguid":8966,"Ġhitting":8967,"Ġtroub":8968,"iti":8969,"Ġjuven":8970,"Ġprofession":8971,"Ġgoddess":8972,"Ġdual":8973,"Ġyam":8974,"Ġsharks":8975,"Ġbranches":8976,"aks":8977,"Ġargentina":8978,"Ġ111":8979,"Ġcontribution":8980,"Ġlav":8981,"ieth":8982,"Ġredes":8983,"Ġobsc":8984,"Ġsuspect":8985,"Ġvoting":8986,"Ġyorkshire":8987,"Ġhes":8988,"Ġceased":8989,"Ġlords":8990,"Ġralph":8991,"idal":8992,"Ġapoll":8993,"Ġassembled":8994,"Ġimagery":8995,"Ġcraig":8996,"Ġspaces":8997,"Ġibn":8998,"Ġtribe":8999,"itch":9000,"Ġspy":9001,"Ġtexts":9002,"Ġquestioned":9003,"Ġsongwriter":9004,"Ġjama":9005,"ellation":9006,"Ġrio":9007,"Ġstrange":9008,"Ġhyper":9009,"Ã°":9010,"Ġdecay":9011,"Ġgender":9012,"Ġhistorically":9013,"gle":9014,"Ġsmoke":9015,"Ġmasters":9016,"Ġdrummer":9017,"Ġrevised":9018,"Ġcommenting":9019,"Ġimpression":9020,"Ġinfrast":9021,"Ġunderwent":9022,"cribed":9023,"Ġcable":9024,"Ġhast":9025,"Ġconce":9026,"Ġenforce":9027,"Ã©s":9028,"owski":9029,"Ġreflect":9030,"Ġdors":9031,"Ġvirus":9032,"Ġjerry":9033,"Ġelig":9034,"Ġstops":9035,"Ġchristianity":9036,"Ġcomponents":9037,"imp":9038,"Ġdestroying":9039,"Ġmillennium":9040,"iary":9041,"Ġreward":9042,"Ġreorgan":9043,"ayan":9044,"Ġserge":9045,"Ġreduction":9046,"Ġreducing":9047,"Ġchoir":9048,"Ġcomponent":9049,"oviÄĩ":9050,"Ġreplied":9051,"Ġdevices":9052,"Ġunclear":9053,"Ġstamp":9054,"Ġ1899":9055,"Ġduration":9056,"Ġsurve":9057,"rh":9058,"Ġnice":9059,"Ġruler":9060,"Ġfulf":9061,"onian":9062,"unc":9063,"hammad":9064,"Ġqueensland":9065,"Ġtrium":9066,"Ġapproaches":9067,"Ġcollins":9068,"Ġconsistent":9069,"ologies":9070,"atra":9071,"Ġmarge":9072,"Ġidentical":9073,"Ġreveal":9074,"Ġmarines":9075,"Ġmultiplayer":9076,"Ġandre":9077,"Ġturnp":9078,"Ġbuffalo":9079,"pler":9080,"Ġambassador":9081,"rawn":9082,"Ġsamples":9083,"Ġcole":9084,"Ġcorrid":9085,"Ġpatients":9086,"Ġgarn":9087,"Ġhowe":9088,"Ġlloyd":9089,"Ġgaming":9090,"Ġfinland":9091,"Ġhumor":9092,"Ġfrequency":9093,"Ġproposals":9094,"Ġrena":9095,"Ġpartis":9096,"Ġrequirements":9097,"Ġarrives":9098,"Ġtraded":9099,"Ġsurrendered":9100,"Ġsings":9101,"Ġdak":9102,"Ġ108":9103,"Ġintervention":9104,"oting":9105,"Ġspoken":9106,"Ġlifetime":9107,"Ġchess":9108,"Ġreed":9109,"Ġfier":9110,"Ġconflic":9111,"Ġbub":9112,"ensed":9113,"Ġmond":9114,"atever":9115,"Ġnorfolk":9116,"Ġclimb":9117,"Ġplatforms":9118,"Ġconceived":9119,"Ġunw":9120,"Ġturkey":9121,"Ġhawaii":9122,"itary":9123,"Ġplaza":9124,"Ġwinners":9125,"Ġwhatever":9126,"Ġresearchers":9127,"Ġwii":9128,"Ġsprings":9129,"Ġrejo":9130,"Ġdistant":9131,"Ġ169":9132,"Ġromance":9133,"Ġdonald":9134,"Ġburton":9135,"Ġbanned":9136,"ricts":9137,"Ġasc":9138,"place":9139,"Ġrepresentation":9140,"Ġexclusively":9141,"rates":9142,"Ġpractical":9143,"Ġrobin":9144,"Ġnicholas":9145,"Ġsuddenly":9146,"cott":9147,"Ġbench":9148,"Ġconnections":9149,"Ġtape":9150,"Ġchore":9151,"Ġbelgian":9152,"Ġcelebration":9153,"Ġcrimes":9154,"Ġwarriors":9155,"Ġcommanders":9156,"uras":9157,"Ġstyl":9158,"Ġ1850":9159,"Ġsubm":9160,"Ġfaces":9161,"Ġburned":9162,"gom":9163,"run":9164,"Ġweigh":9165,"Ġfinance":9166,"Ġcollections":9167,"Ġcontinuous":9168,"Ġrebels":9169,"Ġbennett":9170,"illes":9171,"Ġresur":9172,"ibilities":9173,"Ġvaried":9174,"Ġcatherine":9175,"Ġdavies":9176,"itarian":9177,"Ġvincent":9178,"Ġdistricts":9179,"Ġlighting":9180,"Ġcompetitive":9181,"Ġpraising":9182,"dles":9183,"phal":9184,"Ġmansion":9185,"Ġflames":9186,"nda":9187,"Ġinvent":9188,"Ġpod":9189,"Ġconfidence":9190,"Ġshoulder":9191,"Ġdarwin":9192,"Ġreactions":9193,"Ġthorough":9194,"gam":9195,"Ġbast":9196,"Ġspeaker":9197,"Ġguild":9198,"Ġdispers":9199,"Ġprogressive":9200,"Ġpon":9201,"ista":9202,"Ġmanif":9203,"Ġlux":9204,"Ġsample":9205,"Ġabuse":9206,"Ġcamps":9207,"Ġreviewed":9208,"Ġsignificance":9209,"Ġlauren":9210,"icy":9211,"Ġadvised":9212,"Ġprix":9213,"Ġtaxes":9214,"iciency":9215,"nell":9216,"Ġprest":9217,"Ġconsiders":9218,"Ġscientology":9219,"Ġpas":9220,"Ġub":9221,"hs":9222,"ethel":9223,"Ġcompr":9224,"Ġsailing":9225,"Ġboilers":9226,"Ġworn":9227,"Ġintersects":9228,"Ġtranslated":9229,"Ġhughes":9230,"Ġshares":9231,"Ġ163":9232,"Ġvulnerable":9233,"Ġfern":9234,"Ġproceeded":9235,"ugu":9236,"haw":9237,"ded":9238,"Ġdischar":9239,"Ġgirlfriend":9240,"born":9241,"oly":9242,"wing":9243,"acles":9244,"Ġshep":9245,"Ġpresidency":9246,"Ġharvard":9247,"Ġeleph":9248,"Ġjudges":9249,"terly":9250,"Ġtrig":9251,"ffield":9252,"Ġfilmm":9253,"Ġscores":9254,"Ġwitch":9255,"Ġunderstood":9256,"zh":9257,"Ġhandled":9258,"Ġ1897":9259,"Ġopportunities":9260,"point":9261,"Ġministers":9262,"Ġmedals":9263,"Ġpresentation":9264,"ellor":9265,"Ġpall":9266,"Ġpairs":9267,"Ġcompanion":9268,"Ġgeoff":9269,"Ġmarshal":9270,"Ġmanufacturing":9271,"Ġnumbered":9272,"Ġbombardment":9273,"Ġcrops":9274,"Ġinfrastructure":9275,"Ġrivalry":9276,"Ġenthusi":9277,"Ġphrase":9278,"Ġds":9279,"Ġracial":9280,"Ġfairly":9281,"Ġoslo":9282,"Ġbind":9283,"Ġswiss":9284,"Ġobservation":9285,"Ġsaxon":9286,"Ġflows":9287,"Ġnautical":9288,"Ġ106":9289,"Ġpetition":9290,"Ġgif":9291,"Ġrocky":9292,"Ġindonesia":9293,"Ġfoster":9294,"itely":9295,"Ġrespective":9296,"Ġkate":9297,"Ġvital":9298,"uating":9299,"Ġexceed":9300,"Ġdescent":9301,"Ġexplicit":9302,"Ġmoscow":9303,"Ġcleared":9304,"Ġcyclones":9305,"Ġgrossing":9306,"Ġpeng":9307,"Ġtransported":9308,"Ġjtw":9309,"Ġseal":9310,"Ġproof":9311,"Ġintermedi":9312,"Ġgrap":9313,"Ġcommissioner":9314,"Ġjtwc":9315,"igs":9316,"Ġassum":9317,"Ġtraditions":9318,"Ã¶n":9319,"Ġknights":9320,"Ġextending":9321,"Ġcameron":9322,"Ġrehears":9323,"Ġcards":9324,"encing":9325,"Ġexile":9326,"Ġspong":9327,"Ġoutl":9328,"Ġvl":9329,"Ġunlik":9330,"Ġprotests":9331,"sts":9332,"strong":9333,"Ġteles":9334,"Ġreinforced":9335,"Ġhide":9336,"roph":9337,"Ġ167":9338,"Ġmim":9339,"Ġmystery":9340,"Ġpittsburgh":9341,"Ġ154":9342,"vant":9343,"Ġdrain":9344,"Ġstructural":9345,"Ġtoured":9346,"Ġelite":9347,"Ġnonethel":9348,"Ġcuts":9349,"Ġtonnes":9350,"Ġnonetheless":9351,"Ġfee":9352,"Ġcommenced":9353,"Ġdrink":9354,"Ġcharacteristic":9355,"Ġrandom":9356,"Ġtoler":9357,"Ġexists":9358,"Ġtroop":9359,"Ġtrend":9360,"Ġdecorated":9361,"Ġparticipation":9362,"erce":9363,"Ġrivals":9364,"Ġterry":9365,"Ã«":9366,"Ġtiger":9367,"Ġrelatives":9368,"Ġmaintaining":9369,"Ġkane":9370,"Ġsteep":9371,"Ġrestore":9372,"Ġgift":9373,"Ġalaska":9374,"Ġtested":9375,"Ġnavigation":9376,"Ġfert":9377,"Ġnur":9378,"Ġdri":9379,"Ġdaw":9380,"berry":9381,"Ġcolum":9382,"Ġwithdrawn":9383,"Ġcanyon":9384,"Ġvictim":9385,"Ġwallace":9386,"Ġanswer":9387,"Ġantonio":9388,"hum":9389,"Ġtheories":9390,"Ġdil":9391,"Ġrelocated":9392,"Ġbin":9393,"inge":9394,"oa":9395,"Ġclan":9396,"Ġabsent":9397,"Ġbert":9398,"Ġskill":9399,"Ġreforms":9400,"Ġpreparing":9401,"Ġturnpike":9402,"Ġmp":9403,"Ġgest":9404,"Ġwarnings":9405,"Ġsenators":9406,"cules":9407,"Ġguerr":9408,"Ġeating":9409,"Ġairline":9410,"Ġcel":9411,"Ġeis":9412,"Ġhonours":9413,"Ġbib":9414,"Ġpse":9415,"Ġcosm":9416,"Ġinquir":9417,"Ġtoxic":9418,"Ġhollow":9419,"Ġmicrosoft":9420,"Ġdum":9421,"ashes":9422,"Ġstef":9423,"Ġmonthly":9424,"Ġsyria":9425,"Ġwritings":9426,"minster":9427,"Ġnord":9428,"cester":9429,"Ġrichmond":9430,"oria":9431,"hers":9432,"Ġdisplaced":9433,"itious":9434,"Ġupset":9435,"Ġrepublicans":9436,"world":9437,"Ġsculpture":9438,"Ġempty":9439,"Ġunexpected":9440,"illo":9441,"Ġcoaches":9442,"anche":9443,"Ġarchaeological":9444,"Ġclothes":9445,"Ġcarries":9446,"Ġmanip":9447,"Ġinterviews":9448,"Ġmagnitude":9449,"Ġamazing":9450,"ario":9451,"Ġinteraction":9452,"Ġheavyweight":9453,"Ġmixing":9454,"Ġfitz":9455,"Ġblo":9456,"Ġconcerning":9457,"Ġsheffield":9458,"Ġsusan":9459,"Ġansw":9460,"Ġlarry":9461,"Ġdying":9462,"aha":9463,"Ġtelegraph":9464,"Ġvariations":9465,"yan":9466,"rooms":9467,"Ġsega":9468,"Ġlightning":9469,"Ġmythology":9470,"Ġmalaysia":9471,"Ġww":9472,"Ġvit":9473,"Ġcourses":9474,"ashi":9475,"Ġinterpreted":9476,"Ġdreadn":9477,"fc":9478,"isive":9479,"avia":9480,"Ġnev":9481,"Ġbeck":9482,"Ġdisplays":9483,"Ġhurricanes":9484,"Ġvilla":9485,"Ġlearns":9486,"Ġchambers":9487,"Ġisraeli":9488,"Ġmeteorological":9489,"Ġdallas":9490,"aired":9491,"hal":9492,"Ġ1895":9493,"Ġcommercially":9494,"Ġjefferson":9495,"Ġidol":9496,"Ġmilk":9497,"Ġjohnston":9498,"Ġconfusion":9499,"Ġarguing":9500,"Ġadvertis":9501,"aman":9502,"Ġaft":9503,"Ġdesper":9504,"Ġpseud":9505,"Ġgolf":9506,"olds":9507,"Ġdemo":9508,"Ġparkway":9509,"Ġessentially":9510,"Ġdoors":9511,"Ġblocked":9512,"Ġflex":9513,"Ġpock":9514,"Ġtooth":9515,"Ġemmy":9516,"Ġsalary":9517,"Ġsegments":9518,"Ġowen":9519,"Ġdinner":9520,"Ġvolcanic":9521,"Ġjess":9522,"Ġvariation":9523,"Ġloud":9524,"Ġcorporate":9525,"Ġclarke":9526,"Ġairing":9527,"Ġconstitu":9528,"Ġfbi":9529,"adesh":9530,"Ġuncon":9531,"Ġaustin":9532,"Ġheroes":9533,"Ġregiments":9534,"Ġ171":9535,"Ġfaculty":9536,"Ġbryan":9537,"Ġlover":9538,"Ġshifted":9539,"Ġcolors":9540,"Ġmyc":9541,"Ġgrandfather":9542,"Ġcyrus":9543,"beat":9544,"Ġcostume":9545,"Ġaccurate":9546,"Ġreleg":9547,"Ġinternation":9548,"pot":9549,"Ġcircular":9550,"Ġunlikely":9551,"Ġacre":9552,"Ġeditions":9553,"Ġswing":9554,"Ġopposing":9555,"Ġshallow":9556,"Ġreh":9557,"Ġduch":9558,"oda":9559,"Ġcolours":9560,"Ġstall":9561,"eted":9562,"Ġneil":9563,"Ġsuspic":9564,"Ġemotion":9565,"Ġparsons":9566,"Ġpent":9567,"Ġsponsored":9568,"prised":9569,"Ġbreaks":9570,"Ġcorp":9571,"Ġvalid":9572,"Ġboulev":9573,"Ã¥":9574,"Ġangry":9575,"nan":9576,"Ġcattle":9577,"abe":9578,"Ġ102":9579,"Ã¢":9580,"Ġarmstrong":9581,"leans":9582,"Ġ121":9583,"Ġlasting":9584,"Ġdancers":9585,"Ġcommerce":9586,"keeper":9587,"Ġrebel":9588,"Ġwished":9589,"Ġdanish":9590,"Ġchelsea":9591,"Ġties":9592,"Ġgon":9593,"Ġworlds":9594,"Ġxx":9595,"Ġaber":9596,"icing":9597,"Ġsurprised":9598,"Ġbrazilian":9599,"lete":9600,"Ġbible":9601,"agi":9602,"Ġembr":9603,"Ġquebec":9604,"atched":9605,"Ġgru":9606,"Ġmckin":9607,"rot":9608,"onium":9609,"Ġmacar":9610,"Ġprinciple":9611,"Ġdiverse":9612,"Ġtickets":9613,"Ġdiplomatic":9614,"eness":9615,"ussion":9616,"Ġsnake":9617,"Ġdeeply":9618,"Ġsustain":9619,"Ġrecreation":9620,"hell":9621,"Ġnewton":9622,"Ġkaiser":9623,"Ġwart":9624,"Ġexamination":9625,"Ġtension":9626,"Ġcav":9627,"isons":9628,"asters":9629,"Ġgamb":9630,"Ġhammer":9631,"Ġefficient":9632,"Ġcott":9633,"Ġadvancing":9634,"Ġpitcher":9635,"Ġferr":9636,"Ġhd":9637,"Ġnorthwestern":9638,"Ġprosper":9639,"Ġinclusion":9640,"Ġstim":9641,"Ġcivilians":9642,"Ġcaes":9643,"Ġnose":9644,"Ġnaming":9645,"Ġopens":9646,"Ġdrafted":9647,"Ġcrazy":9648,"Ġdisturbance":9649,"Ġliner":9650,"Ġrevel":9651,"Ġbiological":9652,"Ġparachute":9653,"Ġpursuit":9654,"Ġkilome":9655,"Ġconstantin":9656,"Ġtir":9657,"Ġbeating":9658,"Ġblacks":9659,"Ġtravelling":9660,"Ġine":9661,"ortion":9662,"Ġsheep":9663,"Ġemer":9664,"Ġrebuild":9665,"Ġplum":9666,"Ġfi":9667,"Ġreich":9668,"Ġhamlet":9669,"wright":9670,"arsh":9671,"Ġhoping":9672,"Ġdreams":9673,"Ġwilhelm":9674,"Ġstolen":9675,"Ġdioc":9676,"Ġconcurrent":9677,"Ġdivorce":9678,"Ġlag":9679,"Ġorleans":9680,"osexual":9681,"Ġhappen":9682,"Ġinfer":9683,"Ġmg":9684,"Ġwhale":9685,"ules":9686,"ĠâĢ²":9687,"Ġratio":9688,"Ġsporting":9689,"enon":9690,"Ġmild":9691,"Ġalg":9692,"Ġorient":9693,"Ġdirections":9694,"Ġpromise":9695,"Ġstreak":9696,"Ġprocesses":9697,"Ġnavig":9698,"Ġinsurance":9699,"abilities":9700,"Ġutah":9701,"Ġsettlements":9702,"Ġsubstitute":9703,"Ġverte":9704,"castle":9705,"Ġparad":9706,"Ġ158":9707,"Ġ1861":9708,"nor":9709,"Ġpotentially":9710,"uri":9711,"landers":9712,"Ġlocally":9713,"Ġharold":9714,"Ġvillain":9715,"Ġquarters":9716,"Ġchallenges":9717,"Ġmonastery":9718,"lane":9719,"Ġdense":9720,"Ġchile":9721,"asha":9722,"Ġfifa":9723,"inis":9724,"itted":9725,"Ġ1889":9726,"Ġserbian":9727,"Ġtaste":9728,"itate":9729,"Ġrect":9730,"iko":9731,"Ġbeaten":9732,"Ġequally":9733,"Ġfunded":9734,"rac":9735,"Ġyout":9736,"Ġcharted":9737,"Ġsentence":9738,"Ġcolumns":9739,"iqu":9740,"Ġpump":9741,"Ġrocket":9742,"Ġproportion":9743,"Ġconspiracy":9744,"Ġlift":9745,"Ġevident":9746,"Ġfollowers":9747,"Ġbenefits":9748,"Ġrookie":9749,"Ġrains":9750,"Ġafford":9751,"Ġmanage":9752,"Ġcox":9753,"Ġdelta":9754,"Ġknows":9755,"Ġaltitude":9756,"Ġtet":9757,"Ġbore":9758,"Ġenzy":9759,"Ġcanon":9760,"Ġkeys":9761,"Ġexplaining":9762,"Ġscandal":9763,"rin":9764,"Ġoffshore":9765,"Ġ161":9766,"Ġparticipants":9767,"Ġmuhammad":9768,"Ġmerged":9769,"chi":9770,"Ġ1894":9771,"rehens":9772,"Ġperc":9773,"Ġdisb":9774,"Ġrecept":9775,"Ġadminister":9776,"Ġrunner":9777,"Ġextinct":9778,"Ġerror":9779,"Ġtill":9780,"Ġcbs":9781,"Ġsemin":9782,"Ġabu":9783,"Ġrequiring":9784,"Ġ1000":9785,"Ġoptions":9786,"Ġstuart":9787,"bri":9788,"Ġcaps":9789,"Ġboulevard":9790,"reated":9791,"Ġjurisdiction":9792,"vised":9793,"Ġnova":9794,"Ġ162":9795,"Ġkidn":9796,"Ġpersuaded":9797,"Ġconven":9798,"Ġmemoir":9799,"Ġconstantine":9800,"Ġ113":9801,"Ġveteran":9802,"Ġlud":9803,"Ġtyler":9804,"Ġoperates":9805,"Ġaa":9806,"Ġsimilarities":9807,"Ġrifle":9808,"Ġxii":9809,"Ġborrow":9810,"Ġwitnesses":9811,"Ġyoutube":9812,"Ġ1891":9813,"Ġjudicial":9814,"Ġimplemented":9815,"Ġpregnant":9816,"Ġdevoted":9817,"Ġcounterp":9818,"Ġfarmers":9819,"Ġreservoir":9820,"Ġwisc":9821,"Ġgaining":9822,"onsin":9823,"Ġeducated":9824,"Ġsocialist":9825,"Ġveterans":9826,"rov":9827,"ampton":9828,"Ġdivine":9829,"Ġparaly":9830,"Ġknee":9831,"Ġapollo":9832,"Ġhi":9833,"Ġvin":9834,"Ġblast":9835,"Ġaddressed":9836,"Ġprototype":9837,"Ġinitiative":9838,"cription":9839,"Ġtuck":9840,"onica":9841,"Ġstatements":9842,"Ġmcl":9843,"master":9844,"Ġreef":9845,"affe":9846,"Ġmassacre":9847,"Ġlinks":9848,"Ġvirtually":9849,"Ġbrooks":9850,"Ġindonesian":9851,"Ġaccommodate":9852,"Ġoz":9853,"Ġstrikes":9854,"Ġwildlife":9855,"Ġbent":9856,"Ġforever":9857,"Ġoriented":9858,"Ġcardiff":9859,"Ġdisorder":9860,"Ġtools":9861,"Ġpersona":9862,"Ġproteins":9863,"Ġoblig":9864,"Ġtent":9865,"aters":9866,"Ġfeared":9867,"Ġweakening":9868,"Ġcategories":9869,"Ġcomplained":9870,"Ġodd":9871,"vet":9872,"heric":9873,"Ġflav":9874,"Ġboundaries":9875,"Ġfavourite":9876,"Ġ156":9877,"cliff":9878,"Ġjoan":9879,"Ġ1892":9880,"piece":9881,"ocation":9882,"iah":9883,"Ġnickel":9884,"Ġamid":9885,"Ġnan":9886,"mented":9887,"Ġkeen":9888,"Ġ135":9889,"hill":9890,"Ġanarch":9891,"Ġknocked":9892,"boards":9893,"Ġchrom":9894,"Ġ1800":9895,"Ġpeas":9896,"Ġstudying":9897,"Ġtempo":9898,"Ġthreats":9899,"Ġtactical":9900,"Ġhipp":9901,"Ġhostile":9902,"Ġpanzer":9903,"Ġtide":9904,"Ġsox":9905,"Ġtrapped":9906,"pert":9907,"Ġwisconsin":9908,"Ġaar":9909,"Ġky":9910,"Ġ240":9911,"enos":9912,"Ġdealing":9913,"pine":9914,"Ġkyle":9915,"Ġextensively":9916,"osph":9917,"rific":9918,"Ġmarit":9919,"Ġhonorary":9920,"Ġmaps":9921,"Ġzh":9922,"Ġthrown":9923,"Ġmontgom":9924,"usalem":9925,"nels":9926,"Ġboyfriend":9927,"Ġdanny":9928,"Ġstretch":9929,"osaurs":9930,"izer":9931,"Ġsoap":9932,"Ġhenri":9933,"gow":9934,"gus":9935,"Ġpreserve":9936,"Ġmidnight":9937,"Ġembarked":9938,"Ġivan":9939,"Ġmyself":9940,"Ġgothic":9941,"Ġfires":9942,"Ġrider":9943,"Ġislamic":9944,"Ġjohann":9945,"ometric":9946,"Ġsized":9947,"ĠâģĦ":9948,"Ġgalaxy":9949,"Ġgospel":9950,"Ġconflicts":9951,"Ġsentenced":9952,"Ġtune":9953,"Ġhighlighted":9954,"Ġrey":9955,"Ġ153":9956,"Ġhonors":9957,"Ġjerusalem":9958,"Ġost":9959,"Ġtyr":9960,"ashing":9961,"Ġschum":9962,"Ġjustin":9963,"Ġcitizen":9964,"Ġtribune":9965,"Ġusage":9966,"Ġtasked":9967,"Ġteammate":9968,"Ġnights":9969,"backs":9970,"Ġwarships":9971,"Ġtigers":9972,"Ġtourism":9973,"Ġmacarthur":9974,"Ġobvious":9975,"rically":9976,"Ġresolved":9977,"Ġdocumented":9978,"Ġvelocity":9979,"Ġboeing":9980,"othy":9981,"ĠâĤ¹":9982,"Ġremote":9983,"Ġtrio":9984,"Ġevacuation":9985,"eto":9986,"Ġpoliticians":9987,"Ġlacking":9988,"Ġmachin":9989,"Ġhybrid":9990,"Ġpartners":9991,"auc":9992,"Ġprovisions":9993,"Ġfus":9994,"Ġabroad":9995,"Ġ1888":9996,"hop":9997,"Ġchad":9998,"Ġsaturn":9999,"Ġreass":10000,"Ġintent":10001,"Ġstein":10002,"Ġordinary":10003,"Ġrenewed":10004,"Ġrushing":10005,"Ġsurp":10006,"Ġdiscontin":10007,"Ġregardless":10008,"ÃŃn":10009,"Ġrecruited":10010,"Ġlamb":10011,"Ġrescued":10012,"Ġscholarship":10013,"Ġassert":10014,"Ġbarnes":10015,"Ġdefenders":10016,"fly":10017,"Ġcolored":10018,"Ġexplore":10019,"Ġdarkness":10020,"enburg":10021,"istent":10022,"Ġuser":10023,"Ġorthodox":10024,"zing":10025,"Ġdimin":10026,"Ġencounters":10027,"Ġbeer":10028,"ackdown":10029,"Ġtelephone":10030,"Ġguests":10031,"Ġhoused":10032,"Ġescorted":10033,"Ġamphib":10034,"lington":10035,"Ġbeliefs":10036,"ju":10037,"Ġrogers":10038,"Ġbattlefield":10039,"Ġauthorized":10040,"Ġpp":10041,"aments":10042,"Ġenabled":10043,"Ġcompetitions":10044,"Ġconsiderably":10045,"roid":10046,"Ġreceives":10047,"Ġhelps":10048,"Ġisn":10049,"Ġnoise":10050,"Ġ1885":10051,"Ġseparation":10052,"Ġcats":10053,"Ġgau":10054,"Ġscots":10055,"Ġpresents":10056,"Ġbrigadier":10057,"ulsion":10058,"urst":10059,"uches":10060,"Ġpursued":10061,"Ġelaborate":10062,"Ġmontgomery":10063,"Ġinhib":10064,"Ġsean":10065,"Ġcrashed":10066,"Ġsuspension":10067,"Ġimprisoned":10068,"Ġspo":10069,"Ġashore":10070,"Ġpyram":10071,"Ġconj":10072,"Ġtrunk":10073,"Ġprayer":10074,"Ġobserver":10075,"aved":10076,"Ġconfident":10077,"Ġhurt":10078,"Ġfrontier":10079,"Ġhumanity":10080,"Ġgarnered":10081,"Ġsinking":10082,"Ġware":10083,"Ġspeculation":10084,"Ġhandle":10085,"Ġinvolves":10086,"Ġtherap":10087,"olly":10088,"Ġjaw":10089,"Ġmonitor":10090,"Ġchristians":10091,"Ġpromoting":10092,"Ġpierre":10093,"Ġbills":10094,"Ġpalm":10095,"Ġtrailer":10096,"eg":10097,"Ġinning":10098,"Ġunve":10099,"ocene":10100,"Ġdepicts":10101,"Ġdat":10102,"Ġchop":10103,"oded":10104,"Ġhandling":10105,"amas":10106,"Ġbaltic":10107,"ĠÎ¼m":10108,"Ġuprising":10109,"Ġ978":10110,"far":10111,"anim":10112,"Ġkrist":10113,"ÃŃa":10114,"Ġpupp":10115,"uters":10116,"Ġbatteries":10117,"erts":10118,"akh":10119,"Ġzoo":10120,"Ġbrilliant":10121,"uz":10122,"Ġfru":10123,"Ġbackst":10124,"Ġbatted":10125,"Ġconfirm":10126,"Ġoccasional":10127,"Ġtriumph":10128,"Ġdevelopments":10129,"Ġhopes":10130,"Ġflour":10131,"Ġregulations":10132,"Ġsanct":10133,"Ġarcade":10134,"ÉĻ":10135,"Ġlaps":10136,"oca":10137,"Ġloose":10138,"Ġcapturing":10139,"Ġremembered":10140,"Ġpirates":10141,"Ġmagnetic":10142,"Ġiceland":10143,"ovak":10144,"Ġ112":10145,"Ġurged":10146,"Ġace":10147,"Ġbeth":10148,"Ġleop":10149,"Ġsuspected":10150,"Ġbreeds":10151,"Ġthames":10152,"Ġeventual":10153,"Ġorganisms":10154,"Ġmixture":10155,"Ġthunderstorm":10156,"Ġglas":10157,"Ġleonard":10158,"Ġinternationally":10159,"Ġmarl":10160,"Ġbarbara":10161,"Ġediting":10162,"Ġtint":10163,"Ġ145":10164,"Ġcompositions":10165,"Ġimpressive":10166,"Ġmetric":10167,"Ġlicense":10168,"sch":10169,"Ġdozen":10170,"Ġensemb":10171,"Ġowing":10172,"Ġaest":10173,"Ġbooth":10174,"Ġtissue":10175,"Ġcs":10176,"enberg":10177,"kee":10178,"Ġ1865":10179,"Ġathens":10180,"Ġtruly":10181,"Ġdug":10182,"Ġrailways":10183,"Ġcastles":10184,"Ġassociate":10185,"Ġcardinals":10186,"Ġsherman":10187,"Ġhorizont":10188,"Ġsap":10189,"Ġlions":10190,"Ġphoto":10191,"Ġchron":10192,"Ġrelation":10193,"Ġreagan":10194,"Ġromney":10195,"Ġlyrical":10196,"Ġmechanism":10197,"Ġvolunteer":10198,"Ġrendered":10199,"Ġdecreased":10200,"Ġthereby":10201,"Ġ159":10202,"Ġ117":10203,"Ġnato":10204,"Ġdisappointed":10205,"Î±":10206,"Ġpolitician":10207,"Ġchancellor":10208,"Ġnancy":10209,"zed":10210,"Ġburg":10211,"Ġintellectual":10212,"Ġwiz":10213,"Ġclip":10214,"Ġbund":10215,"Ġtracked":10216,"Ġmccar":10217,"Ġchamberlain":10218,"Ġrestrictions":10219,"rang":10220,"Å¾":10221,"acing":10222,"Ġunn":10223,"Ġwarned":10224,"Ġmarking":10225,"Ġorganic":10226,"Ġconsumption":10227,"Ġinherited":10228,"Ġshah":10229,"Ġpositively":10230,"Ġcounsel":10231,"Ġupdated":10232,"Ġbee":10233,"Ġenh":10234,"Ġmutual":10235,"Ġcustomers":10236,"arest":10237,"ublin":10238,"Ġanticipated":10239,"aco":10240,"agh":10241,"Ġballs":10242,"Ġernest":10243,"Ġhelicopter":10244,"Ġupcoming":10245,"Ġspokes":10246,"Ġswitch":10247,"isition":10248,"Ġdirecting":10249,"Ġinhab":10250,"Ġapply":10251,"oys":10252,"Ġaccidentally":10253,"ando":10254,"rible":10255,"Ġcontracts":10256,"Ġmammals":10257,"rage":10258,"Ġcum":10259,"cht":10260,"Ġkos":10261,"Ġgenu":10262,"Ġinvaded":10263,"mel":10264,"Ġmachines":10265,"udi":10266,"Ġsouthwestern":10267,"Ġpatient":10268,"Ġ114":10269,"Ġ118":10270,"Ġvolt":10271,"Ġclosure":10272,"Ġ450":10273,"Ġdependent":10274,"Ġconversation":10275,"Ġdetective":10276,"Ġportugal":10277,"Ġheb":10278,"unning":10279,"Ġantib":10280,"Ġdelegates":10281,"Ġconstantinople":10282,"Î¿":10283,"Ġhaven":10284,"Ġnewcastle":10285,"Ġbreast":10286,"Ġassessment":10287,"ĠÄĳ":10288,"enter":10289,"Ġauto":10290,"Ġinaugural":10291,"Ġlighter":10292,"ended":10293,"Ġlodge":10294,"idia":10295,"Ġroot":10296,"Ã©n":10297,"Ġreader":10298,"Ġfossils":10299,"Ġmcg":10300,"Ġpete":10301,"Ġbradley":10302,"Ġcharlotte":10303,"Ġmak":10304,"Ġgrid":10305,"Ġtitan":10306,"Ġdebris":10307,"Ġcorridor":10308,"Ġvoters":10309,"Ġlawsuit":10310,"gue":10311,"Ġdud":10312,"Ġrally":10313,"Ġeddie":10314,"ĠjosÃ©":10315,"nery":10316,"Ġconstruct":10317,"restrial":10318,"Ġfundamental":10319,"Ġborders":10320,"Ġcinc":10321,"Ġnickname":10322,"Ġplates":10323,"annon":10324,"Ġgibral":10325,"Ġbesides":10326,"colm":10327,"Ġnephew":10328,"aders":10329,"Ġunre":10330,"Ġtram":10331,"Ġ1864":10332,"Ġaccessible":10333,"Ġgibraltar":10334,"Ġeasier":10335,"Ġmerced":10336,"Ġsweep":10337,"phan":10338,"Ġantar":10339,"Ġcornwall":10340,"Ġpsychiat":10341,"Ġcomplicated":10342,"Ġinfection":10343,"Ġboost":10344,"Ġmemories":10345,"Ġoccurring":10346,"aire":10347,"Ġvick":10348,"Ġspit":10349,"Ġpeop":10350,"zo":10351,"áº":10352,"Ġtib":10353,"Ġsheriff":10354,"Ġshaft":10355,"Ġsharing":10356,"anton":10357,"ovic":10358,"Ġprelimin":10359,"Ġmetre":10360,"Ġversus":10361,"Ġchester":10362,"Ġpand":10363,"Ġagu":10364,"took":10365,"Ġmolecular":10366,"view":10367,"ilda":10368,"Ġheights":10369,"pat":10370,"Ġremar":10371,"Ġlesb":10372,"Ġsupports":10373,"Ġparticles":10374,"ught":10375,"Ġfeathers":10376,"Ġkaz":10377,"Ġslav":10378,"Ġxi":10379,"neys":10380,"Ġmalcolm":10381,"Ġavoided":10382,"wald":10383,"Ġflags":10384,"Ġster":10385,"Ġaj":10386,"Ġcurve":10387,"Ġprogressed":10388,"Ġkenneth":10389,"Ġprotestant":10390,"Ġmurdered":10391,"Ġthrowing":10392,"Ġarmenian":10393,"Ġcena":10394,"Ġupl":10395,"Ġrecruit":10396,"Ġeastward":10397,"edia":10398,"Ġleices":10399,"Ġsyl":10400,"Ġdoctrine":10401,"Ġwartime":10402,"Ġpom":10403,"Ġib":10404,"Ġnortheastern":10405,"Ġshelter":10406,"Ġconsequence":10407,"Ġicon":10408,"Ġautobiography":10409,"Ġoscar":10410,"lu":10411,"Ġimposed":10412,"Ġinspect":10413,"Ġintermediate":10414,"var":10415,"Ġwrap":10416,"Ġunt":10417,"Ġpunishment":10418,"Ġlung":10419,"Ġintegrated":10420,"Ġtier":10421,"Ġmv":10422,"icon":10423,"Ġwalt":10424,"Ġunh":10425,"Ġproduces":10426,"Ġreporting":10427,"Ġconvicted":10428,"Ġisaac":10429,"Ġãĥ":10430,"Ġbris":10431,"Ġtourist":10432,"Ġkilog":10433,"Ġexhibit":10434,"Ġbotan":10435,"Ġdepicting":10436,"inated":10437,"Ġnoticed":10438,"Ġmicha":10439,"Ġpedro":10440,"changed":10441,"Ġmounts":10442,"roe":10443,"ether":10444,"assy":10445,"Ġcrane":10446,"Ġexploration":10447,"Ġduck":10448,"Ġthreatening":10449,"Ġthriller":10450,"ht":10451,"Ġmonit":10452,"Ġclouds":10453,"enna":10454,"Ġresid":10455,"Ġtouchdowns":10456,"Ġdublin":10457,"ielder":10458,"gett":10459,"heimer":10460,"Ġ131":10461,"Ġviewing":10462,"Ġ1862":10463,"Ġphilosopher":10464,"Ġpeoples":10465,"Ġverses":10466,"Ġposts":10467,"Ġvicinity":10468,"Ġyes":10469,"ellar":10470,"oba":10471,"Ġannex":10472,"Ġseb":10473,"Ġholes":10474,"Ġmathematics":10475,"Ġhier":10476,"acht":10477,"Ġattraction":10478,"Ġsaints":10479,"Ġfib":10480,"Ġbailey":10481,"Ġsri":10482,"Ġlinear":10483,"flow":10484,"hall":10485,"tra":10486,"Ġcage":10487,"Ġcamb":10488,"Ġmelod":10489,"Ġundertaken":10490,"ĠÃ©":10491,"Ġdent":10492,"Ġsheet":10493,"Ġbrut":10494,"Ġreleasing":10495,"Ġcourage":10496,"Ġremoving":10497,"Ġshin":10498,"Ġtennis":10499,"Ġsulf":10500,"Ġheath":10501,"Ġhed":10502,"Ġ107":10503,"Ġdiversity":10504,"Ġjournalists":10505,"Ġignored":10506,"Ġwarrior":10507,"zes":10508,"Ġmk":10509,"Ġblame":10510,"Ġcream":10511,"Ġconstantly":10512,"Ġdecrease":10513,"Ġå":10514,"orf":10515,"Ġcoaching":10516,"Ġgabri":10517,"Ġsear":10518,"Ġexecut":10519,"bie":10520,"ho":10521,"encer":10522,"Ġclergy":10523,"Ġapolog":10524,"Ġentert":10525,"Ġmartial":10526,"Ġlan":10527,"Ġtommy":10528,"Ġpredominantly":10529,"fast":10530,"Ġfract":10531,"Ġrealistic":10532,"Ġfacil":10533,"Ġexpanding":10534,"gÃ©":10535,"Ġcincinn":10536,"cca":10537,"Ġsubd":10538,"aneous":10539,"Ġfare":10540,"Ġspell":10541,"irect":10542,"Ġremind":10543,"Ġanthem":10544,"Ġeighteen":10545,"Ġaux":10546,"ulk":10547,"Ġsacrifice":10548,"held":10549,"pez":10550,"Ġluft":10551,"Ġns":10552,"Ġtwitter":10553,"Ġspringfield":10554,"Ġ157":10555,"Ġfortune":10556,"Ġcongressional":10557,"Ġserbia":10558,"Ġmaritime":10559,"gent":10560,"aping":10561,"Ġups":10562,"Ġalberta":10563,"Ġ220":10564,"Ġkru":10565,"Ġcontacted":10566,"Ġfocuses":10567,"Ġdolph":10568,"Ġparking":10569,"Ġdisappeared":10570,"Ġenorm":10571,"Ġgenerals":10572,"Ġtwentieth":10573,"Ġrelieved":10574,"Ġarose":10575,"Ġincred":10576,"Ġbarrier":10577,"Ġgrows":10578,"Ġindependently":10579,"Ġbulgar":10580,"Ġnes":10581,"Ġisle":10582,"Ġpleased":10583,"Ġpropaganda":10584,"Ġdoctors":10585,"Ġ1840":10586,"Ġteachers":10587,"found":10588,"Ġaur":10589,"umped":10590,"Ġmeasuring":10591,"Ġtaiwan":10592,"Ġbil":10593,"Ġcentered":10594,"Ġchurchill":10595,"Ġcreature":10596,"Ġexplanation":10597,"olia":10598,"Ġcouldn":10599,"Ġsentiment":10600,"Ġstability":10601,"Ġencom":10602,"Ġsacred":10603,"Ġasserted":10604,"Ġmask":10605,"Ġmuslims":10606,"Ġpreliminary":10607,"Ġhack":10608,"Ġmetac":10609,"Ġestates":10610,"Ġnept":10611,"Ġcanceled":10612,"Ġfriedrich":10613,"adal":10614,"Ġcompiled":10615,"Ġmalta":10616,"Ġoxid":10617,"Ġtren":10618,"Ġjake":10619,"Ġroster":10620,"Ġyugoslavia":10621,"Ġparade":10622,"Ġspeeds":10623,"hanced":10624,"Ġinducted":10625,"ais":10626,"ener":10627,"Ġmonsters":10628,"Ġsituations":10629,"Ġcelebrate":10630,"Ġcollaborated":10631,"Ġsubtropical":10632,"Ġshiva":10633,"Ġbutt":10634,"Ġenhanced":10635,"Ġroadway":10636,"Ġpaying":10637,"Ġabsorbed":10638,"Ġlocomotives":10639,"iture":10640,"Ġincidents":10641,"Ġbrah":10642,"Ġwagner":10643,"ws":10644,"Ġtol":10645,"Ġcontinent":10646,"Ġscientist":10647,"Ġlayers":10648,"Ġsaving":10649,"Ġmaine":10650,"Ġgravity":10651,"Ġexterior":10652,"Ġreiss":10653,"ulum":10654,"Ġworse":10655,"Ġachiev":10656,"Ġcale":10657,"amine":10658,"Ġchuck":10659,"Ġplains":10660,"ective":10661,"Ġfocusing":10662,"Ġvarying":10663,"Ġaided":10664,"gans":10665,"Ġbullet":10666,"avan":10667,"ahl":10668,"Ġsubmarines":10669,"osion":10670,"Ġbetray":10671,"Ġgenres":10672,"Ġappeals":10673,"Ġpublicity":10674,"Ġcincinnati":10675,"Ġtum":10676,"Ġsut":10677,"Ġtob":10678,"icus":10679,"ocol":10680,"Ġnetworks":10681,"Ġmaced":10682,"Ġburke":10683,"Ġnormandy":10684,"Ġtargeted":10685,"Ġleo":10686,"Ġregist":10687,"Ġ126":10688,"Ġfortifications":10689,"Ġdiscussing":10690,"Ġritual":10691,"Ġolivia":10692,"Ġ132":10693,"Ġbrowns":10694,"Ġangelou":10695,"rels":10696,"Ġirreg":10697,"Ġafghanistan":10698,"iga":10699,"Ġbeta":10700,"Ġscouting":10701,"Ġirregular":10702,"Ġtensions":10703,"elin":10704,"Ġcreatures":10705,"Ġdislik":10706,"Ġatop":10707,"Ġinterc":10708,"Ġbars":10709,"asm":10710,"Ġleeds":10711,"Ġvegas":10712,"etta":10713,"Ġdropping":10714,"Ġdive":10715,"Ġtea":10716,"Ġmarched":10717,"Ġreminis":10718,"Ġpositioned":10719,"Ġfungus":10720,"lett":10721,"Ġmadison":10722,"Ġpreceding":10723,"Ġhir":10724,"Ġtough":10725,"Ġ119":10726,"Ġ1887":10727,"ritic":10728,"Ġcritically":10729,"Ġconfused":10730,"aughter":10731,"Ġsummon":10732,"Ġswept":10733,"Ġkitchen":10734,"Ġacclaimed":10735,"Ġtreasury":10736,"Ġelevated":10737,"Ġresignation":10738,"Ġabsolute":10739,"hin":10740,"zac":10741,"Ġedmund":10742,"Ġtransmission":10743,"Ġcompromise":10744,"Ġaub":10745,"Ġtender":10746,"Ġmechanics":10747,"£o":10748,"eda":10749,"Ġpi":10750,"Ġleagues":10751,"Ġbutler":10752,"ĠpokÃ©":10753,"idd":10754,"Ġhelen":10755,"Ġglad":10756,"Ġconcepts":10757,"Ġcinemat":10758,"Ã´":10759,"Ġmentions":10760,"roscop":10761,"Ġ1863":10762,"Ġply":10763,"Ġmega":10764,"Ġeagles":10765,"Ġanchor":10766,"Ġcapitol":10767,"Ġbold":10768,"Ġspots":10769,"Ġresort":10770,"Ġbrigades":10771,"orious":10772,"Ġpover":10773,"Ġcarr":10774,"Ġcorruption":10775,"Ġviii":10776,"Ġ1886":10777,"Ġspacecraft":10778,"Ġbonds":10779,"Ġgregory":10780,"Ġsmoking":10781,"ront":10782,"Ġarguments":10783,"Ġproxim":10784,"Ġflot":10785,"Ġventure":10786,"Ġmushroom":10787,"Ġmam":10788,"Ġjna":10789,"ipher":10790,"nn":10791,"Ġworker":10792,"Ġsuggestion":10793,"Ġathletics":10794,"Ġsailors":10795,"Ġpoverty":10796,"hart":10797,"Ġstored":10798,"Ġgrove":10799,"umberland":10800,"imony":10801,"Ġmanaging":10802,"Ġwalks":10803,"Ġmlb":10804,"Ġmanifest":10805,"Ġschumacher":10806,"Ġstair":10807,"Ġconced":10808,"Ġdevot":10809,"Ġatmospheric":10810,"Ġassassination":10811,"Ġseam":10812,"Ġgraves":10813,"Ġfarmer":10814,"Ġbrooklyn":10815,"Ġcorresponding":10816,"Ġcondemned":10817,"aba":10818,"Ġflown":10819,"Ġphyl":10820,"Ġdennis":10821,"Ġorton":10822,"Ġtrap":10823,"Ġiran":10824,"Ġmissile":10825,"instein":10826,"stan":10827,"Ġfloren":10828,"Ã¶r":10829,"Ġjulian":10830,"Ġeman":10831,"leted":10832,"acular":10833,"Ġhispan":10834,"Ġloaded":10835,"Ġrar":10836,"Ġmarath":10837,"issioned":10838,"alt":10839,"Ġwidow":10840,"Ġorchestral":10841,"ĠËĪ":10842,"Ġhass":10843,"Ġisab":10844,"Ġepit":10845,"Ġslam":10846,"Ġmoist":10847,"inter":10848,"Ġintr":10849,"Ġtrem":10850,"Ġphysically":10851,"Ġprinceton":10852,"eding":10853,"Ġinver":10854,"rogen":10855,"Ġtorpedoes":10856,"Ġmigration":10857,"Ġinstructions":10858,"Ġaria":10859,"Ġdelight":10860,"Ġpurple":10861,"Ġinhg":10862,"Ġrotation":10863,"Ġretreated":10864,"Ġdetected":10865,"Ġceremonies":10866,"Ġmckinley":10867,"Ġfing":10868,"Ġhok":10869,"Ġblamed":10870,"ugg":10871,"Ġchallenging":10872,"Ġpreservation":10873,"Ġcaf":10874,"Ġbutton":10875,"Ġpride":10876,"Ġparticipating":10877,"Ġgusts":10878,"Ġmouse":10879,"Ġnathan":10880,"Ġbeau":10881,"Ġfinger":10882,"Ġknowing":10883,"Ġhubbard":10884,"Ġdisbanded":10885,"Ġmull":10886,"Ġsue":10887,"Ġfluor":10888,"Ġnasa":10889,"Ġconsciousness":10890,"Ġachievements":10891,"Ġnass":10892,"Ġbarcel":10893,"Ġ1884":10894,"Ġsteadily":10895,"Ġcomposers":10896,"Ġmock":10897,"Ġagencies":10898,"Ġdisabled":10899,"Ġflesh":10900,"Ġmessages":10901,"Ġcalculated":10902,"Ġcomprehens":10903,"Ġemerging":10904,"Ġvariable":10905,"Ġvegetation":10906,"Ġdistinction":10907,"Ġposter":10908,"Ġcommitment":10909,"Ġholland":10910,"Ġmontana":10911,"mill":10912,"Ġants":10913,"Ġsummar":10914,"Ġdarker":10915,"Ġglasgow":10916,"eter":10917,"omon":10918,"Ġadri":10919,"izz":10920,"Ġgenesis":10921,"Ġsoci":10922,"Ġmaple":10923,"Ġprinting":10924,"rod":10925,"agers":10926,"Ġsmackdown":10927,"Ġ103":10928,"Ġpostp":10929,"Ġconvey":10930,"Ġseeds":10931,"Ġfinest":10932,"Ġquit":10933,"aja":10934,"usters":10935,"Ġcanucks":10936,"Ġaustro":10937,"Ġconvince":10938,"ettes":10939,"Ġreserves":10940,"Ġsingers":10941,"Ġconfig":10942,"Ġelectoral":10943,"Ġvenues":10944,"Ġmour":10945,"Ġbrings":10946,"Ġrebounds":10947,"Ġvest":10948,"Ġquoted":10949,"Ġopinions":10950,"Ġsolely":10951,"Ġintend":10952,"Ġbelle":10953,"Ġmotif":10954,"Ġendang":10955,"Ġmysterious":10956,"arus":10957,"Ġconducting":10958,"Ġpilgr":10959,"Ġsongwriting":10960,"Ġneuro":10961,"Ġfavored":10962,"Ġcooperation":10963,"Ġgentle":10964,"ËĲ":10965,"Ġgig":10966,"Ġwhales":10967,"Ġherbert":10968,"iens":10969,"agg":10970,"Ġmodest":10971,"Ġphillies":10972,"oi":10973,"sis":10974,"Ġtheodore":10975,"Ġcope":10976,"Ġradius":10977,"Ġexamined":10978,"Ġceltic":10979,"Ġgraphic":10980,"Ġpocket":10981,"lem":10982,"Ġtril":10983,"Ġnaturally":10984,"Ġwalked":10985,"Ġisles":10986,"Ġsod":10987,"Ġhein":10988,"Ġpriority":10989,"Ġessay":10990,"Ġindirect":10991,"Ġwestminster":10992,"Ġeverybody":10993,"Ġtheaters":10994,"itals":10995,"aku":10996,"Ġdenver":10997,"Ġeligible":10998,"Ġrenaissance":10999,"onso":11000,"Ġbce":11001,"Ġrouting":11002,"Ġtemples":11003,"Ġrounded":11004,"Ġtintin":11005,"Ġaids":11006,"Ġdepot":11007,"Ġtracking":11008,"Ġpatro":11009,"dam":11010,"Ġharsh":11011,"Ġremake":11012,"lla":11013,"Ġbark":11014,"Ġhomosexual":11015,"ishops":11016,"Ġdecisive":11017,"Ġcurved":11018,"Ġscreens":11019,"Ġ1877":11020,"Ġvolcano":11021,"Ġawareness":11022,"Ġshopping":11023,"Ġfragments":11024,"Ġgast":11025,"Ġjin":11026,"Ġlibert":11027,"Ġ129":11028,"Ġdemographic":11029,"Ġextraordin":11030,"ulu":11031,"Ġpoe":11032,"Ġauthen":11033,"Ġtaxonomy":11034,"Ġpray":11035,"Ġnationalist":11036,"Ġ138":11037,"Ġ230":11038,"Ġprompting":11039,"isations":11040,"Ġphon":11041,"Ġ1876":11042,"Ġconsideration":11043,"Ġlogo":11044,"arded":11045,"abad":11046,"Ġmarqu":11047,"Ġ122":11048,"Ġlegion":11049,"Ġposthum":11050,"Ġfarms":11051,"Ġmercedes":11052,"Ġvern":11053,"Ġfault":11054,"ĠÐ":11055,"Ġcomparing":11056,"Ġ116":11057,"Ġangles":11058,"Ġpenal":11059,"Ġspectrum":11060,"Ġlaz":11061,"Ġnem":11062,"Ġyd":11063,"Ġmanuel":11064,"Ġthemed":11065,"Ġglou":11066,"Ġheavier":11067,"Ġcontrad":11068,"Ġbulgarian":11069,"Ġnevada":11070,"Ġnewfound":11071,"Ġconsens":11072,"Ġperformers":11073,"Ġelementary":11074,"Ġlut":11075,"Ġproclaimed":11076,"Ġunoff":11077,"Ġafterward":11078,"Ġmanning":11079,"Ġlikewise":11080,"Ġpossessed":11081,"Ġprivile":11082,"iev":11083,"Ġplayable":11084,"Ġemig":11085,"Ġtourists":11086,"Ġagrees":11087,"Ġconnects":11088,"Ġaccomplished":11089,"Ġdynamic":11090,"iors":11091,"Ġdeer":11092,"Ġalbany":11093,"Ġ134":11094,"Ġronald":11095,"Ġvirtual":11096,"Ġexpectations":11097,"add":11098,"Ġpercy":11099,"Ġrefuses":11100,"Ġsearching":11101,"Ġfrigate":11102,"gary":11103,"atisf":11104,"Ġcommentators":11105,"Ġpsychological":11106,"umbered":11107,"Ġandr":11108,"Ġsignals":11109,"Ġcarlos":11110,"Ġconfer":11111,"Ġrosen":11112,"Ġrefugees":11113,"Ġensemble":11114,"asia":11115,"Ġinsuff":11116,"Ġcubic":11117,"Ġsensitive":11118,"Ġconsequences":11119,"Ġmunicipality":11120,"Ġkilometers":11121,"Ġsurprising":11122,"Ä«":11123,"roc":11124,"Ġcomprising":11125,"Ġottawa":11126,"Ġsergeant":11127,"Ġmast":11128,"Ġnok":11129,"oming":11130,"Ġlistening":11131,"Ġukrain":11132,"Ġsans":11133,"istical":11134,"Ġcommons":11135,"Ġoutcome":11136,"izers":11137,"Ġnig":11138,"acc":11139,"Ġcong":11140,"Ġdrake":11141,"Ġdiscour":11142,"á»ĩ":11143,"Ġdiscipline":11144,"Ġstom":11145,"olan":11146,"Ġjoke":11147,"Ġdepiction":11148,"Ġdescript":11149,"ennial":11150,"Ġ1830":11151,"Ġtransformed":11152,"Ġencompass":11153,"Ġopined":11154,"Ġintelligent":11155,"Ġharvest":11156,"Ġrational":11157,"Ġguit":11158,"Ġmilan":11159,"Ġbanksia":11160,"Ġexercises":11161,"Ġdeposits":11162,"Ġmisc":11163,"Ġabra":11164,"Ġpioneer":11165,"Ġprocedure":11166,"Ġnak":11167,"Ġpla":11168,"Ġcelebrity":11169,"Ġemotions":11170,"Ġwidth":11171,"Ġproperly":11172,"Ġdeliberately":11173,"Ġmichaels":11174,"Ġexecutives":11175,"ĠpokÃ©mon":11176,"Ġbarcelona":11177,"Ġ1875":11178,"Ġpayment":11179,"Ġweakness":11180,"Ġcolin":11181,"Ġlandmark":11182,"Ġladies":11183,"Ġbarracks":11184,"Ġsaga":11185,"Ġgrim":11186,"Ġphosph":11187,"Ġchiefs":11188,"Ġkeyboard":11189,"Ġreluctant":11190,"Ġadjust":11191,"Ġgale":11192,"chy":11193,"Ġunderwater":11194,"Ġprocessing":11195,"Ġsteady":11196,"Ġfabric":11197,"Ġtwe":11198,"assic":11199,"Ġformations":11200,"anka":11201,"Ġstrings":11202,"atar":11203,"Ġaccus":11204,"atty":11205,"Ġ128":11206,"Ġroutine":11207,"Ġchal":11208,"rians":11209,"Ġenix":11210,"Ġpermit":11211,"Ġceo":11212,"Ġcontribute":11213,"Ġlatest":11214,"Ġdialect":11215,"Ġcomplimented":11216,"Ġinex":11217,"ulates":11218,"Ġsilence":11219,"star":11220,"ighed":11221,"Ġmiddles":11222,"Ġraymond":11223,"Ġextends":11224,"Ġloyalty":11225,"Ġgauge":11226,"Ġtool":11227,"Ġunanim":11228,"Ġmetals":11229,"Ġvaries":11230,"reen":11231,"Ġecl":11232,"Ġjets":11233,"Ġchip":11234,"Ġestimate":11235,"Ġtribut":11236,"Ġenlar":11237,"Ġhenderson":11238,"Ġgathering":11239,"amation":11240,"Ġanger":11241,"Ġherb":11242,"Ġbowled":11243,"Ġfears":11244,"Ġphilosoph":11245,"Ġguitars":11246,"Ġonwards":11247,"Ġemma":11248,"Ġfarming":11249,"Ġexpressway":11250,"icking":11251,"Ġcollecting":11252,"Ġ1883":11253,"Ġvocalist":11254,"Ġparalymp":11255,"Ġdome":11256,"Ġsting":11257,"etary":11258,"Ġproud":11259,"ampa":11260,"Ġcarved":11261,"Ġromanian":11262,"Ġphotos":11263,"Ġgem":11264,"Ġalam":11265,"Ġchains":11266,"Ġspite":11267,"Ġpoles":11268,"Ġcomplement":11269,"Ġcontributing":11270,"Ġcontempor":11271,"herent":11272,"Ġfile":11273,"Ġstaged":11274,"eta":11275,"Ġmillions":11276,"Ġ1881":11277,"cot":11278,"oric":11279,"chw":11280,"ĠâĻ":11281,"Ġroller":11282,"Ġalumn":11283,"umi":11284,"Ġrent":11285,"Ġberm":11286,"Ġcomplaints":11287,"Ġinstrumentation":11288,"Ġrevealing":11289,"Ġsandy":11290,"Ġinput":11291,"Ġstabil":11292,"Ġblair":11293,"Ġfunk":11294,"Ġdiseases":11295,"aun":11296,"Ġassets":11297,"Ġdamaging":11298,"Ġconsistently":11299,"appa":11300,"Ġlemurs":11301,"Ġcoffee":11302,"Ġcameo":11303,"Ġsymbols":11304,"lake":11305,"yers":11306,"Ġdop":11307,"Ġunaware":11308,"iki":11309,"Ġrichardson":11310,"Ġrag":11311,"Ġclause":11312,"Ġblog":11313,"Ġvenice":11314,"Ġpont":11315,"Ġferdin":11316,"Ġenvironments":11317,"Ġlancash":11318,"Ġlocomotive":11319,"Ġnervous":11320,"Ġjamaica":11321,"Ġpix":11322,"Ġusher":11323,"Ġmonk":11324,"Ġchen":11325,"Ġpermanently":11326,"Ġphenomenon":11327,"Ġpolitically":11328,"Ġ1869":11329,"Ġbeds":11330,"Ġbelonging":11331,"Ġpowell":11332,"Ġjumping":11333,"kar":11334,"Ġpowder":11335,"Ġpreventing":11336,"Ġstaying":11337,"Ġduncan":11338,"Ġadvisory":11339,"ema":11340,"anted":11341,"actic":11342,"Ġ151":11343,"Ġsixty":11344,"Ġcalgary":11345,"Ġimproving":11346,"Ġdisputed":11347,"Ġlancashire":11348,"Ġbever":11349,"Ġrays":11350,"iper":11351,"Ġmidway":11352,"Ġradi":11353,"dan":11354,"Ġlamp":11355,"Ġdetachment":11356,"Ġpercussion":11357,"Ġgenera":11358,"Ġacceptance":11359,"Ġreferee":11360,"Ġdispatched":11361,"Ġchlor":11362,"Ġ1866":11363,"Ġeruption":11364,"Ġtelescope":11365,"Ġng":11366,"atern":11367,"Ġveronica":11368,"Ġlessons":11369,"Ġwanting":11370,"Ġceiling":11371,"Ġchapters":11372,"Ġerupt":11373,"Ġretrieved":11374,"stown":11375,"Ġally":11376,"Ġcolleges":11377,"Ġhabitats":11378,"Ġhypothesis":11379,"Ġpatrols":11380,"yll":11381,"adows":11382,"Ġbend":11383,"riages":11384,"Ġfloyd":11385,"Ġfaction":11386,"Ġobjectives":11387,"Ġrodrig":11388,"Ġrequirement":11389,"Ġswitched":11390,"Ġredevelop":11391,"iar":11392,"hening":11393,"Ġfantastic":11394,"Ġblockade":11395,"Ġwitnessed":11396,"Ġfraud":11397,"Ġconsensus":11398,"Ġstir":11399,"Ġfrances":11400,"Ġ750":11401,"Ġunsuccessfully":11402,"Ġinteractions":11403,"Ġargue":11404,"Ġironcl":11405,"Ġfart":11406,"omed":11407,"Ġbeij":11408,"Ġanx":11409,"Ġgrants":11410,"Ġcostumes":11411,"Ġpleasure":11412,"bus":11413,"alia":11414,"Ġreson":11415,"Ġangels":11416,"Ġcircles":11417,"Ġlengths":11418,"Ġellen":11419,"Ġadaptations":11420,"Ġdimensional":11421,"Ġsag":11422,"Ġtrinity":11423,"iang":11424,"inth":11425,"Ġwheat":11426,"Ġencourage":11427,"Ġfreshman":11428,"Ġpublishers":11429,"Ġsyndrome":11430,"Ġbacteria":11431,"Ġunrel":11432,"Ġactively":11433,"Ġeccles":11434,"Ġtradem":11435,"Ġhomeless":11436,"Ġderby":11437,"Ġallegations":11438,"Ġcrawford":11439,"Ġana":11440,"Ġexplosive":11441,"Ġimmigrants":11442,"Ġdigit":11443,"cu":11444,"Ġincl":11445,"Ġmbar":11446,"Ġling":11447,"Ġperpet":11448,"Ġ124":11449,"Ġbelonged":11450,"Ġjudgment":11451,"Ġwer":11452,"Ġflanders":11453,"Ġaccol":11454,"Ġconvert":11455,"rium":11456,"Ġrenown":11457,"Ġdistinguish":11458,"Ġpalestine":11459,"Ġleicester":11460,"zig":11461,"Ġdot":11462,"Ġeb":11463,"Ġchannels":11464,"Ġhemisp":11465,"Ġabundant":11466,"brien":11467,"Ġguadal":11468,"Ġlandings":11469,"Ġglory":11470,"Ġdestiny":11471,"Ġplanes":11472,"Ġsuffer":11473,"enues":11474,"Ġreop":11475,"Ġdiary":11476,"Ġburger":11477,"Ġ1873":11478,"Ġnicknamed":11479,"Ġcongregation":11480,"Ġfischer":11481,"Ġparamount":11482,"assed":11483,"boat":11484,"Ġtasks":11485,"Ġunusually":11486,"Ġinnocent":11487,"Ġtucker":11488,"omys":11489,"Ġoverd":11490,"Ġintroduce":11491,"Ġ1882":11492,"Ġsubmerged":11493,"Ġdudley":11494,"Ġlava":11495,"Ġdesired":11496,"Ġcontrary":11497,"Ġloves":11498,"Ġforgot":11499,"Ġbeast":11500,"istle":11501,"abl":11502,"Ġshipped":11503,"Ġthoughts":11504,"Ġteenage":11505,"Ġoutdoor":11506,"Ġeldest":11507,"Ġmachinery":11508,"Ġwatson":11509,"Ġ1871":11510,"Ġproceedings":11511,"Ġadvocate":11512,"Ġcylinder":11513,"Ġbeijing":11514,"eon":11515,"Ġeg":11516,"Ġfringe":11517,"Ġdistr":11518,"fin":11519,"Ġnaked":11520,"Ġnewman":11521,"Ġ1867":11522,"Ġcrucial":11523,"Ġnineteenth":11524,"Ġoverwhelming":11525,"Ġadequ":11526,"Ġsubordin":11527,"Ġinstruction":11528,"Ġsurpassed":11529,"Ġald":11530,"avian":11531,"Ġdemocracy":11532,"Ġ202":11533,"Ġiw":11534,"Ġfever":11535,"Ġrepet":11536,"rington":11537,"Ġwelcome":11538,"Ġdefenses":11539,"Ġkepler":11540,"Ġadvocated":11541,"Ġbachel":11542,"Ġmccarthy":11543,"Ãł":11544,"Ġkem":11545,"Ġproc":11546,"Ġexport":11547,"Ġhorsepower":11548,"Ġreviewing":11549,"Ġplatoon":11550,"Ġfestivals":11551,"Ġhorns":11552,"Ġaristocr":11553,"Ġtrench":11554,"Ġcric":11555,"Ġviv":11556,"Ġunity":11557,"Ġtruman":11558,"Ġclif":11559,"ulture":11560,"Ġmonuments":11561,"Ġzones":11562,"Ġmalay":11563,"Ġmott":11564,"Ġchet":11565,"Ġpounder":11566,"Ġspores":11567,"Ġintim":11568,"Ġverd":11569,"Ġstorylines":11570,"Ġhunters":11571,"Ġcomprised":11572,"Ġadela":11573,"Ġdiving":11574,"mother":11575,"Ġitunes":11576,"Ġetc":11577,"Ġnests":11578,"Ã¨re":11579,"Ġbiz":11580,"nae":11581,"Ġ1878":11582,"Ġmanufactured":11583,"Ġtil":11584,"Ġsau":11585,"Ġmosque":11586,"waffe":11587,"Ġrushed":11588,"Ġstrat":11589,"Ġ137":11590,"Ġexplored":11591,"Ġcustoms":11592,"Ġvariant":11593,"Ġnobel":11594,"Ġwolver":11595,"inqu":11596,"Ġhil":11597,"Ġgeography":11598,"Ġborne":11599,"Ġeleventh":11600,"Ġtriangle":11601,"Ġvampire":11602,"Ġvlad":11603,"fs":11604,"Ġfount":11605,"Ġune":11606,"Ġmacdonald":11607,"Ġgibson":11608,"Ġendangered":11609,"Ġauthentic":11610,"erm":11611,"Ġbout":11612,"Ġholl":11613,"Ġturbines":11614,"Ġunveiled":11615,"Ġhorizontal":11616,"bach":11617,"ystem":11618,"zi":11619,"olith":11620,"Ġboot":11621,"Ġcriter":11622,"Ġrams":11623,"Ġshan":11624,"Ġspeculated":11625,"Ġaveraged":11626,"Ġeconomics":11627,"heads":11628,"Ġresemble":11629,"Ġdere":11630,"utely":11631,"chel":11632,"Ġindex":11633,"ipping":11634,"Ġspectators":11635,"Ġcurrency":11636,"Ġferg":11637,"Ġdorm":11638,"Ġnh":11639,"Ġthorn":11640,"Ġundertook":11641,"Ġrelating":11642,"Ġbigger":11643,"Ġchaos":11644,"Ġlp":11645,"Ġliterally":11646,"Ġdissolved":11647,"Ġming":11648,"Ġchi":11649,"Ġensu":11650,"Ġquint":11651,"Ġgrain":11652,"Ġdamages":11653,"Ġlengthy":11654,"Ġshirt":11655,"Ġineff":11656,"Ġwander":11657,"opol":11658,"keep":11659,"Ġtrips":11660,"Ġfights":11661,"Ġathlete":11662,"Ġraven":11663,"Ġaston":11664,"Ġlone":11665,"Ġtrump":11666,"Ġouts":11667,"Ġcoastline":11668,"Ġstripped":11669,"Ġfairy":11670,"yright":11671,"Ġprostit":11672,"Ġenormous":11673,"Ġensuing":11674,"Ġlil":11675,"ums":11676,"Ġswamp":11677,"Ġcopyright":11678,"Ġadmiralty":11679,"Ġmaneuver":11680,"Ġsara":11681,"Ġmick":11682,"stad":11683,"Ġmeyer":11684,"Ġbaptist":11685,"Ġtrigger":11686,"Ġmetacritic":11687,"Ġrah":11688,"Ġank":11689,"Ġmanages":11690,"Ġovercome":11691,"Ġembassy":11692,"Ġeditorial":11693,"otypes":11694,"Ġinstallation":11695,"Ġaaron":11696,"Ġluther":11697,"Ġwellington":11698,"Ġinterviewed":11699,"Ġdiscussions":11700,"alid":11701,"Ġoral":11702,"occ":11703,"Ġadds":11704,"Ġguarant":11705,"eur":11706,"pit":11707,"Ġanonymous":11708,"Ġrelied":11709,"Ġcoral":11710,"Ġstroke":11711,"oning":11712,"Ġintact":11713,"Ġhonest":11714,"Ġjail":11715,"employ":11716,"Ġawa":11717,"Ġqualities":11718,"Ġmerchand":11719,"Ġlemur":11720,"Ġwishes":11721,"Ġextinction":11722,"Ġfusion":11723,"Ġlaf":11724,"Ġdestination":11725,"jections":11726,"Ġluftwaffe":11727,"Ġsoccer":11728,"ographed":11729,"Ġshelley":11730,"Ġbermuda":11731,"Ġengaging":11732,"Ġsilk":11733,"Ġinsufficient":11734,"ichi":11735,"Ġbankrupt":11736,"Ġlifted":11737,"Ġalert":11738,"Ġdeals":11739,"Ġmonroe":11740,"Ġrelay":11741,"Ġadvances":11742,"origin":11743,"enz":11744,"through":11745,"Ġbrew":11746,"overed":11747,"Ġmistake":11748,"Ġlynch":11749,"Ãª":11750,"asaki":11751,"Ġmarx":11752,"Ġnomine":11753,"Ġaguil":11754,"Ġtrilogy":11755,"Ġrevived":11756,"Ġbattlecruisers":11757,"imer":11758,"igo":11759,"Ġleather":11760,"Ġadrian":11761,"Ġweighed":11762,"Ġflee":11763,"Ġgains":11764,"Ġcultures":11765,"Ġ1868":11766,"Ġ1872":11767,"Ġgrossed":11768,"Ġproceeds":11769,"cock":11770,"Ġ123":11771,"Ġnegle":11772,"Ġfluid":11773,"Ġotto":11774,"hand":11775,"Ġtin":11776,"Ġinstructed":11777,"appy":11778,"Ġselena":11779,"Ġreminiscent":11780,"Ġaguilera":11781,"monton":11782,"Ġfeminist":11783,"Ġaus":11784,"oves":11785,"Ġsuccessive":11786,"Ġrulers":11787,"Ġphotographer":11788,"Ġsummary":11789,"Ġcere":11790,"ovsky":11791,"mitt":11792,"Ġincomple":11793,"Ġchandler":11794,"Ġenrolled":11795,"Ġcres":11796,"Ġasp":11797,"Ġintersections":11798,"Ġfunctional":11799,"Ġcurtis":11800,"Ġcoronation":11801,"Ġchin":11802,"Ġunemploy":11803,"Ġnewport":11804,"Ġglam":11805,"Ġsoviets":11806,"Ġellis":11807,"lia":11808,"Ġdakota":11809,"nar":11810,"Ġbishops":11811,"Ġsuited":11812,"Ġdisgu":11813,"Ġappealed":11814,"Ġscreening":11815,"gener":11816,"Ġranch":11817,"Ġdeeper":11818,"Ġslower":11819,"Ġmasses":11820,"Ġrapper":11821,"Ġdealt":11822,"Ġmerchants":11823,"Ġrumors":11824,"Ġwise":11825,"Ġriley":11826,"Ġarctic":11827,"ubs":11828,"Ġgrammar":11829,"Ġaliens":11830,"Ġbatsman":11831,"Ġamp":11832,"Ġinterference":11833,"neath":11834,"Ġphant":11835,"Ġtermed":11836,"Ġdeployment":11837,"Ġleigh":11838,"Ġtrace":11839,"Ġconting":11840,"Ġwald":11841,"Ġraz":11842,"Ġriff":11843,"Ġbread":11844,"Ġfloating":11845,"Ġquantities":11846,"Ġpengu":11847,"Ġdart":11848,"Ġhond":11849,"Ġkay":11850,"Ġarbit":11851,"Ġdisrupt":11852,"Ġundergrad":11853,"Ġgamespot":11854,"Ġsymmet":11855,"Ġdisputes":11856,"Ġinvestigations":11857,"Ġmaxwell":11858,"Ġphillips":11859,"Ġbarely":11860,"kas":11861,"hend":11862,"Ġgle":11863,"ocy":11864,"Ġprivately":11865,"Ġpanels":11866,"Ġadelaide":11867,"keley":11868,"Ġassign":11869,"aurus":11870,"Ġras":11871,"bery":11872,"Ġretros":11873,"Ġpersec":11874,"Ġgorge":11875,"Ġferdinand":11876,"Ġhanc":11877,"Ġblank":11878,"Ġexhibited":11879,"Ġmobil":11880,"inus":11881,"Ġdad":11882,"Ġjoins":11883,"obile":11884,"Ġbusy":11885,"Ġgeoffrey":11886,"Ġsier":11887,"Ġbik":11888,"Ġconform":11889,"Ġinsist":11890,"Ġseparately":11891,"Ġanalog":11892,"Ġthickness":11893,"Ġwwf":11894,"Ġsurrey":11895,"Ġpackage":11896,"Ġcurves":11897,"Ġrobot":11898,"Ġinquiry":11899,"Ġitem":11900,"odon":11901,"Ġunrest":11902,"ologically":11903,"Ġecology":11904,"alling":11905,"Ġimported":11906,"gon":11907,"ptic":11908,"Ġnobody":11909,"Ġmarcus":11910,"olo":11911,"Ġsupporter":11912,"Ġbarrett":11913,"Ġessex":11914,"Ġdelays":11915,"Ġinvolve":11916,"Ġdisliked":11917,"Ġflotilla":11918,"rect":11919,"Ġpagan":11920,"Ġshoo":11921,"Ġblake":11922,"Ġsubsc":11923,"Ġdecomp":11924,"Ġpatch":11925,"Ġcasino":11926,"Ġcustody":11927,"Ġabraham":11928,"Ġexpense":11929,"Ġrealm":11930,"Ġcylind":11931,"Ġredesign":11932,"Ġspencer":11933,"Ġcoaster":11934,"Ġromans":11935,"Ġcease":11936,"Ġescal":11937,"Ġpuzz":11938,"Ġtasman":11939,"Ġanthrop":11940,"Ġplymouth":11941,"vent":11942,"eries":11943,"Ġrepaired":11944,"Ġdeveloper":11945,"Ġmagical":11946,"Ġcalm":11947,"Ġexperts":11948,"Ġdeton":11949,"Ġdunge":11950,"Ġcontested":11951,"Ġlicensed":11952,"Ġtherapy":11953,"Ġproximity":11954,"Ġmadrid":11955,"Ġwarrant":11956,"issa":11957,"Ġunderneath":11958,"Ġmaybe":11959,"Ġrefit":11960,"Ġtribal":11961,"Ġblend":11962,"Ġdescendants":11963,"rs":11964,"Ġfog":11965,"Ġchan":11966,"Ġpresum":11967,"eches":11968,"Ġprotecting":11969,"writer":11970,"pic":11971,"Ġfm":11972,"Ġnl":11973,"utors":11974,"Ġplastic":11975,"Ġmolecules":11976,"Ġplutonium":11977,"list":11978,"Ġalk":11979,"Ġinterrupted":11980,"Ġgenius":11981,"Ġcaliber":11982,"Ġlimestone":11983,"Ġballet":11984,"Ġautomatic":11985,"Ġmathematical":11986,"bt":11987,"front":11988,"Ġruins":11989,"Ġpavil":11990,"Ġlunar":11991,"Ġmvp":11992,"Ġwashed":11993,"urd":11994,"Ġump":11995,"Ġkub":11996,"Ġoperator":11997,"Ġcaptivity":11998,"Ġvienna":11999,"Ġmotors":12000,"Ġcardinal":12001,"Ġpedest":12002,"Ġexcessive":12003,"Ġnico":12004,"Ġstark":12005,"Ġria":12006,"Ġpled":12007,"Ġsecular":12008,"Ġprojected":12009,"uits":12010,"Ġsul":12011,"Ġkes":12012,"Ġcoloured":12013,"Ġdelegation":12014,"Ġltd":12015,"Ġcec":12016,"iri":12017,"Ġcomet":12018,"Ġnorse":12019,"kinson":12020,"Ġfergus":12021,"Ġrockets":12022,"Ġassociates":12023,"Ġcollision":12024,"Ġfloods":12025,"Ġarchitects":12026,"Ġdaniels":12027,"Ġbosnia":12028,"Ġfloors":12029,"Ġhancock":12030,"Ġoval":12031,"urg":12032,"Ġneo":12033,"Ġmonks":12034,"Ġinvented":12035,"Ġmyst":12036,"opsis":12037,"Ġacquisition":12038,"Ġflorence":12039,"Ġkeeps":12040,"Ġsurvivor":12041,"Ġpronounced":12042,"Ġcrom":12043,"Ġful":12044,"aching":12045,"Ġtunnels":12046,"Ġtotally":12047,"Ġthrust":12048,"Ġseemingly":12049,"Ġbengal":12050,"Ġá":12051,"Ġporter":12052,"Ġallocated":12053,"dot":12054,"Î½":12055,"Ġmaiden":12056,"Ġedmonton":12057,"Ġstrang":12058,"Ġrestaurants":12059,"acon":12060,"Ġhect":12061,"Ġcomparable":12062,"Ġimmun":12063,"nut":12064,"inte":12065,"Ġsubtle":12066,"Ġacquire":12067,"Ġjeremy":12068,"athetic":12069,"Ġforts":12070,"Ġundergo":12071,"Ġclimbing":12072,"Ġdemanding":12073,"Ġjennifer":12074,"Ġimmigration":12075,"Ġbaldwin":12076,"bel":12077,"Ġmoor":12078,"Ġreflecting":12079,"Ġarkansas":12080,"Ġleban":12081,"Ġfatalities":12082,"xide":12083,"icity":12084,"ido":12085,"Ġtwelf":12086,"aceous":12087,"Ġpublish":12088,"Ġpopulated":12089,"grade":12090,"Ġtrout":12091,"Ġlifestyle":12092,"Ġchicken":12093,"Ġpyramid":12094,"Ġtwelfth":12095,"ÏĤ":12096,"Ġshops":12097,"Ġunst":12098,"ĠhergÃ©":12099,"Ġromania":12100,"Ġdomain":12101,"Ġevolutionary":12102,"Ġextraordinary":12103,"Ġpreston":12104,"guard":12105,"Ġdisappear":12106,"Ġlobby":12107,"ourt":12108,"Ġjungle":12109,"Ġcrust":12110,"Ġstarr":12111,"Ġgarc":12112,"Ġ1879":12113,"Ġquart":12114,"Ġtransp":12115,"Ġmodifications":12116,"Ġenforcement":12117,"imir":12118,"osity":12119,"Ġpend":12120,"Ġbitter":12121,"Ġseventeen":12122,"wig":12123,"Ġcree":12124,"immer":12125,"Ġyok":12126,"Ġmuscle":12127,"Ġgenes":12128,"Ġsuburb":12129,"Ġmcdonald":12130,"Ġstruggling":12131,"Ġaccomplish":12132,"Ġauction":12133,"Ġdiscontinued":12134,"Ġsne":12135,"asi":12136,"urbed":12137,"Ġbyr":12138,"Ġgenerations":12139,"Ġgarage":12140,"Ġscrapped":12141,"Ġnun":12142,"Ġunfortun":12143,"stration":12144,"Ġsavage":12145,"Ġpierce":12146,"Ġneighbouring":12147,"Ġlesbian":12148,"ean":12149,"Ġai":12150,"Ġperimeter":12151,"Ġcrowned":12152,"Ġdemonstrate":12153,"Ġfierce":12154,"Ġvander":12155,"ishn":12156,"Ġdemonstration":12157,"Ġshack":12158,"Ġperth":12159,"Ġinteractive":12160,"Ġstreams":12161,"Ġpaved":12162,"Ġadministered":12163,"Ġhate":12164,"Ġnost":12165,"Ġshank":12166,"Ġminer":12167,"Ġminogue":12168,"Ġ141":12169,"Ġhalted":12170,"Ġlithuan":12171,"Ġyu":12172,"Ġopenly":12173,"Ġmerit":12174,"Ġmccain":12175,"Ġdescended":12176,"Ġsuburban":12177,"Ġelephant":12178,"irts":12179,"Ġfilter":12180,"Ġskinner":12181,"Ġbesie":12182,"Ġsketch":12183,"Ġdio":12184,"Ġreyn":12185,"abet":12186,"Ġarcher":12187,"Ġregained":12188,"Ġbowie":12189,"Ġrewrit":12190,"Ġspeakers":12191,"Ġdirty":12192,"Ġworried":12193,"Ġjanet":12194,"Ġsubstance":12195,"Ġhawk":12196,"Ġcreates":12197,"Ġhawaiian":12198,"Ġclerk":12199,"Ġcompact":12200,"Ġattachment":12201,"Ġoperas":12202,"Ġerosion":12203,"Ġcontracted":12204,"Ġdeclaring":12205,"Ġscenario":12206,"Ġupgrade":12207,"Ġlancaster":12208,"Ġelderly":12209,"Ġartif":12210,"Ġmodes":12211,"atorial":12212,"Ġ270":12213,"Ġturks":12214,"Ġkoreans":12215,"Ġlogan":12216,"Ġbanner":12217,"Ġtables":12218,"Ġbackup":12219,"Ġantiqu":12220,"Ġpregnancy":12221,"atem":12222,"eling":12223,"Ġmonarchy":12224,"Ġnewfoundland":12225,"anto":12226,"Ġtraged":12227,"Ġconfess":12228,"Ġtorch":12229,"Ġwonderful":12230,"Ġjokes":12231,"Ġbalk":12232,"eli":12233,"Ġassa":12234,"Ġwoodland":12235,"Ġcaution":12236,"Ġridic":12237,"Ġdiesel":12238,"Ġopted":12239,"Ġerrors":12240,"gins":12241,"Ð°":12242,"entric":12243,"Ġambitious":12244,"Ġscouts":12245,"Ġgonz":12246,"Ġpist":12247,"Ġkom":12248,"Ġampl":12249,"Ġidentification":12250,"Ġbiology":12251,"Ġdrunk":12252,"Ġprohibited":12253,"Ġdivide":12254,"Ġfindings":12255,"Ġspecialized":12256,"Ġnorthwestward":12257,"Ġbj":12258,"Ġmath":12259,"Ġluck":12260,"Ġperm":12261,"enson":12262,"Ġhoff":12263,"Ġnecessarily":12264,"Ġbuddhist":12265,"Ġcalend":12266,"Ġdecomm":12267,"Ġ146":12268,"Ġvalent":12269,"Ġog":12270,"Ġjg":12271,"ripp":12272,"Ġmotorway":12273,"Ġstrengthening":12274,"Ġthroat":12275,"Ġgriffin":12276,"Ġcricke":12277,"Ġinvitation":12278,"Ġaggregate":12279,"Ġfool":12280,"Ġpus":12281,"umar":12282,"Ġlease":12283,"Ġdetached":12284,"Ġlacks":12285,"natural":12286,"Ġspongeb":12287,"Ġsierra":12288,"Ġcig":12289,"Ġchances":12290,"pro":12291,"lew":12292,"Ġretro":12293,"Ġkle":12294,"Ġcontents":12295,"Ġcheer":12296,"lessly":12297,"Ġlouise":12298,"Ġcaroline":12299,"Ġremarkable":12300,"Ġcomprehensive":12301,"Ġroth":12302,"Ġrode":12303,"Ġteammates":12304,"Ġsocieties":12305,"Ġmerger":12306,"Ġmemorable":12307,"Ġarrow":12308,"Ġsphere":12309,"Ġrunway":12310,"Ġfreight":12311,"Ġdraws":12312,"Ġliberation":12313,"Ġdeciding":12314,"Ġrecognize":12315,"Ġcorners":12316,"50":12317,"bank":12318,"gel":12319,"anus":12320,"Ġgut":12321,"Ġstuck":12322,"Ġcentres":12323,"Ġloading":12324,"Ġpalmer":12325,"Ġfragment":12326,"Ġanatomy":12327,"Ġmold":12328,"Ġrunners":12329,"Ġcollector":12330,"Ġswan":12331,"Ġnashville":12332,"Ġrut":12333,"Ġharper":12334,"Ġallegedly":12335,"Ġjuvenile":12336,"ao":12337,"how":12338,"Ġkens":12339,"Ġ149":12340,"Ġstrait":12341,"Ġmeasurements":12342,"Ġobservers":12343,"Ġbachelor":12344,"core":12345,"Ġses":12346,"Ġkra":12347,"Ġmetab":12348,"inae":12349,"Ġtopic":12350,"Ġlayout":12351,"Ġmoz":12352,"Ġbassist":12353,"sl":12354,"Ġwelf":12355,"Ġhann":12356,"Ġkas":12357,"Ġard":12358,"Ġhealthy":12359,"Ġprogression":12360,"Ġriot":12361,"Ġcompensation":12362,"Ġtran":12363,"Ġintroducing":12364,"Ġdrowned":12365,"Ġdiagnosis":12366,"houses":12367,"Ġincomplete":12368,"Ġmere":12369,"ovich":12370,"uba":12371,"Ġcalvin":12372,"Ġspecialist":12373,"Ġmuzzle":12374,"Ġconsumer":12375,"Ġjag":12376,"Ġsurfaces":12377,"Ġlegends":12378,"Ã£o":12379,"Ġhiding":12380,"Ġplug":12381,"Ġspare":12382,"Ġspark":12383,"Ġreserved":12384,"Ġsuburbs":12385,"Ġhab":12386,"Ġforget":12387,"Ġemily":12388,"Ġedges":12389,"Ġdefender":12390,"Ġmaurice":12391,"Ġfen":12392,"Ġfond":12393,"Ġvow":12394,"Ġmarble":12395,"Ġspeeches":12396,"Ġmoreover":12397,"Ġgenerate":12398,"Ġdevon":12399,"Ġsynth":12400,"hero":12401,"Ġdys":12402,"Ġease":12403,"Ġunpre":12404,"Ġproven":12405,"Ġbusch":12406,"Ġrealizes":12407,"Ġattractive":12408,"Ġdoubles":12409,"Ġdiamonds":12410,"Ġore":12411,"Ġdh":12412,"Ġkot":12413,"Ġoverth":12414,"Ġconsent":12415,"Ġbasement":12416,"Ġeliminate":12417,"Ġdrainage":12418,"Ġpushing":12419,"Ġkath":12420,"Ġguatem":12421,"ficial":12422,"Ġperfectly":12423,"Ġreversed":12424,"tan":12425,"ormal":12426,"Ġ210":12427,"Ġgarfield":12428,"Ġcater":12429,"Ġrna":12430,"Ġbrass":12431,"Ġgrab":12432,"Ġberry":12433,"Ġconjunction":12434,"atri":12435,"Ġsecuring":12436,"Ġcollective":12437,"Ġrandy":12438,"Ġbred":12439,"Ġcomputers":12440,"Ġslot":12441,"Ġsupervis":12442,"Ġsolutions":12443,"Ġsufficiently":12444,"Ġbio":12445,"Ġregulation":12446,"Ġ1848":12447,"Ġunpop":12448,"Ġclaire":12449,"Ġdian":12450,"Ġrhodesia":12451,"Ġrifles":12452,"Ġsubdiv":12453,"Ġned":12454,"Ġmann":12455,"Ġlocked":12456,"Ġsuperman":12457,"Ġhospitals":12458,"Ġembarr":12459,"Ġtonight":12460,"Ġwelfare":12461,"pow":12462,"Ġcure":12463,"Ġfuck":12464,"Ġ1874":12465,"Ġfranco":12466,"Ġcameras":12467,"Ġcatalog":12468,"hd":12469,"Ġgir":12470,"urers":12471,"Ġwhites":12472,"Ġhardware":12473,"Ġpanama":12474,"holm":12475,"Ġdesperate":12476,"Ġpian":12477,"Ġscales":12478,"Ġairplay":12479,"Ġhelm":12480,"oop":12481,"Ġlingu":12482,"ayette":12483,"Ġhemisphere":12484,"Ġspongebob":12485,"Ġhanging":12486,"Ġcontend":12487,"Ġbuses":12488,"Ġvolunt":12489,"Ġholmes":12490,"Ġchoosing":12491,"Ġtreasure":12492,"Ġsop":12493,"Ġelim":12494,"Ġirving":12495,"Ġsolomon":12496,"Ġdefinitely":12497,"Ġplateau":12498,"birds":12499,"Ġauxili":12500,"Ġemphasized":12501,"Ġarmenia":12502,"Ġevol":12503,"Ġanywhere":12504,"Ġbreakthrough":12505,"Ġcounteratt":12506,"Ġfinnish":12507,"Ġdegener":12508,"Ġspiel":12509,"Ġedwin":12510,"Ġrape":12511,"Ġeaster":12512,"Ġarabic":12513,"Ġillustrations":12514,"Ġassessed":12515,"Ġvariants":12516,"brook":12517,"mons":12518,"Ġaster":12519,"Ġix":12520,"Ġinfected":12521,"erness":12522,"Ġ144":12523,"Ġmichelle":12524,"Ġhod":12525,"Ġtract":12526,"Ġnotion":12527,"Ġaborigin":12528,"Ġcrack":12529,"Ġcheap":12530,"Ġcompetitors":12531,"Ġgraduating":12532,"Ġwindsor":12533,"Ġdimensions":12534,"Ġlegitimate":12535,"ye":12536,"Ġket":12537,"ulus":12538,"Ġmanual":12539,"Ġserbs":12540,"achi":12541,"Ġincorporates":12542,"Ġjacques":12543,"Ġmurders":12544,"Ġfrustrated":12545,"post":12546,"Ġdow":12547,"elines":12548,"Ġvect":12549,"quer":12550,"Ġpromising":12551,"Ġdoug":12552,"Ġputs":12553,"Ġlindwall":12554,"Ġwounds":12555,"Ġkang":12556,"Ġincons":12557,"osphere":12558,"Ġcoupled":12559,"Ġcitizenship":12560,"Ġwo":12561,"ovo":12562,"Ġcalcul":12563,"Ġmissiles":12564,"Ġburst":12565,"Ġbloody":12566,"Ġdiagnosed":12567,"Ġglacier":12568,"Ġhale":12569,"qual":12570,"Ġterrestrial":12571,"Ġaugustus":12572,"Ġcontrolling":12573,"Ġstalin":12574,"istically":12575,"Ġorgans":12576,"Ġpanic":12577,"Ġdinosaurs":12578,"person":12579,"alous":12580,"Ġberkeley":12581,"Ġinvestigated":12582,"Ġunders":12583,"Ġpupils":12584,"Ġmonday":12585,"Ġstunt":12586,"Ġves":12587,"Ġnorthbound":12588,"Ġshipyard":12589,"Ġgerald":12590,"Ġmercy":12591,"Ġbreakdown":12592,"Ġluis":12593,"Ġtiny":12594,"oline":12595,"Ġpreval":12596,"Ġphysician":12597,"Ġranged":12598,"Ġtended":12599,"Ġappreciated":12600,"ĠÅ¡":12601,"Ġmoss":12602,"ĠrÃ©":12603,"cker":12604,"Ġlineup":12605,"Ġstanford":12606,"Ġdrift":12607,"Ġelimination":12608,"oni":12609,"agic":12610,"Ġdrives":12611,"Ġreads":12612,"Ġfrozen":12613,"Ġaccolades":12614,"12":12615,"Ġchim":12616,"Ġadmit":12617,"Ġassignment":12618,"Ġpresley":12619,"Ġseasonal":12620,"Ġconfined":12621,"Ġtestimony":12622,"Ġsexually":12623,"Ġstance":12624,"Ġwouldn":12625,"Ġpatent":12626,"Ġgrandson":12627,"Ġqualify":12628,"Ġskeleton":12629,"Ġsebast":12630,"Ġober":12631,"Ġnearest":12632,"Ġmartha":12633,"Ġflet":12634,"Ġpressed":12635,"Ġlaying":12636,"Ġsummers":12637,"Ġhelicopters":12638,"rez":12639,"Ġcircus":12640,"Ġsatir":12641,"Ġcuban":12642,"Ġcomfortable":12643,"Ġinhabited":12644,"Ġsz":12645,"Ġalc":12646,"Ġsunder":12647,"ailing":12648,"Ġpreview":12649,"Ġcarefully":12650,"Ġredd":12651,"Ġmaintains":12652,"Ġexciting":12653,"Ġoccupy":12654,"Ġtravers":12655,"Ġskiing":12656,"ocaust":12657,"elia":12658,"Ġved":12659,"Ġgover":12660,"Ġmonkey":12661,"Ġbulgaria":12662,"Ġdelhi":12663,"Ġpainter":12664,"Ġharmony":12665,"Ġtat":12666,"Ġenable":12667,"Ġevangel":12668,"Ġcarriage":12669,"Ġzel":12670,"Ġemployee":12671,"Ġbree":12672,"Ġdish":12673,"Ġsuite":12674,"Ġblown":12675,"Ġdesigners":12676,"Ġvacc":12677,"Ġexhaust":12678,"Ġgenuine":12679,"Ġunofficial":12680,"Ġheter":12681,"Ġseiz":12682,"Ġmanagers":12683,"Ġreformed":12684,"Ġfrost":12685,"do":12686,"cending":12687,"quet":12688,"Ġblond":12689,"Ġstatute":12690,"Ġecos":12691,"Ġjennings":12692,"Ġcauc":12693,"Ġprofits":12694,"Ġduet":12695,"Ġfacts":12696,"Ġmaneuvers":12697,"Ġcarpenter":12698,"Ġsuccesses":12699,"Ġglenn":12700,"Ġdefeats":12701,"Ġ280":12702,"Ġmistaken":12703,"matic":12704,"isle":12705,"rosse":12706,"Ġtopics":12707,"atsu":12708,"Ġhonored":12709,"Ġboxing":12710,"Ġfitting":12711,"Ġenthusiastic":12712,"Ġentertaining":12713,"tes":12714,"yd":12715,"omes":12716,"Ġtechnologies":12717,"Ġchapman":12718,"Ġ1851":12719,"Ġhazard":12720,"Ġabsolutely":12721,"Ġenhance":12722,"Ġgabriel":12723,"Ġgoverning":12724,"Ġscope":12725,"ishi":12726,"Ġwaterline":12727,"Ġbasil":12728,"canal":12729,"Ġsleeping":12730,"Ġgav":12731,"Ġprosecution":12732,"raid":12733,"Ã¡r":12734,"Ġbism":12735,"acement":12736,"Ġprose":12737,"Ġweird":12738,"Ġrepeat":12739,"Ġprocedures":12740,"Ġisotopes":12741,"Ġduches":12742,"Ġwash":12743,"Ġblade":12744,"Ġdepr":12745,"Ġescapes":12746,"Ġhayes":12747,"Ġdisappointment":12748,"Ġashes":12749,"Ġdisco":12750,"Ġholocaust":12751,"Ġcivilization":12752,"Ġhopkins":12753,"Ġaccuracy":12754,"Ġsophistic":12755,"Ġphylogen":12756,"Ġmumb":12757,"Ġstepped":12758,"umble":12759,"Ġgoeb":12760,"neum":12761,"Ġmineral":12762,"Ġinscription":12763,"Ġanglic":12764,"Ġprotective":12765,"Ġreconcil":12766,"atoes":12767,"Ġneighboring":12768,"Ġreferend":12769,"Ġguadalcanal":12770,"Ġdign":12771,"Ġnurse":12772,"Ġcement":12773,"Ġinspe":12774,"Ġ148":12775,"Ġdinosaur":12776,"Ġregret":12777,"Ġedgar":12778,"Ġguided":12779,"uchi":12780,"Ġcivic":12781,"Ġmomentum":12782,"Ġeurop":12783,"Ġinnovative":12784,"Ġspielberg":12785,"Ġfet":12786,"Ġdup":12787,"Ġbuzz":12788,"Ġdemocrat":12789,"Ġtraits":12790,"Ġspawned":12791,"Ġtrails":12792,"okes":12793,"Ġsubmit":12794,"Ġrequests":12795,"Ġbolton":12796,"Ġsynthesis":12797,"Ġunnamed":12798,"ook":12799,"Ġrises":12800,"Ġexceeded":12801,"Ġgraduation":12802,"Ġacadem":12803,"Ġslowed":12804,"Ġnationally":12805,"Ġincorporate":12806,"Ġkenny":12807,"Ġraiders":12808,"Ġimprisonment":12809,"Ġfletcher":12810,"lies":12811,"Ġbicy":12812,"Ġfake":12813,"Ġrely":12814,"stock":12815,"opp":12816,"Ġperformer":12817,"Ġeisenh":12818,"Ġlean":12819,"Ġears":12820,"Ġimped":12821,"rup":12822,"Ġbrandon":12823,"onsc":12824,"Ġsouthampton":12825,"Ġreadily":12826,"Ġstruggles":12827,"Ġpard":12828,"Ġshale":12829,"Ġlaura":12830,"Ġaval":12831,"Ġreds":12832,"Ġirre":12833,"Ġconvinc":12834,"ophone":12835,"Ġbangl":12836,"Ġrehabil":12837,"Ġphilosophical":12838,"Ġtrademark":12839,"Ġ136":12840,"Ġconcludes":12841,"Ġlig":12842,"Ġatoms":12843,"Ġvas":12844,"Ġshepher":12845,"ications":12846,"oud":12847,"Ġasyl":12848,"odia":12849,"Ġkeyboards":12850,"Ġvenus":12851,"Ġaffecting":12852,"Ġassume":12853,"cycl":12854,"Ġreflects":12855,"rified":12856,"Ġtongue":12857,"Ġdreadnought":12858,"Ġunpopular":12859,"Ġshout":12860,"pling":12861,"Ġthirds":12862,"Ġderiv":12863,"Ġnobility":12864,"Ġpatton":12865,"Ġtoss":12866,"Ġvand":12867,"Ġconsumed":12868,"Ġtheft":12869,"Ġstup":12870,"apa":12871,"ibal":12872,"Ġ133":12873,"Ġchoices":12874,"Ġnegotiated":12875,"Ġpreceded":12876,"Ġlocate":12877,"Ġrust":12878,"Ġposed":12879,"Ġarray":12880,"Ġdemolition":12881,"bage":12882,"Ġcombine":12883,"Ġilleg":12884,"Ġpredecessors":12885,"gro":12886,"kel":12887,"Ġtus":12888,"Ġecc":12889,"Ġpitching":12890,"Ġanthology":12891,"Ġhendrix":12892,"Ġalumni":12893,"Ġeisenhower":12894,"Ġbav":12895,"Ġemble":12896,"Ġdistances":12897,"Ġrealize":12898,"rews":12899,"Ġ370":12900,"Ġstomach":12901,"Ġlia":12902,"Ġathen":12903,"Ġrelevant":12904,"Ġcapabilities":12905,"Ġlimitations":12906,"cliffe":12907,"Ġbarber":12908,"Ġultr":12909,"Ġwals":12910,"Ġrespected":12911,"Ġcertific":12912,"Ġaltar":12913,"Ġgravel":12914,"Ġplacement":12915,"aul":12916,"Ġnebr":12917,"Ġcluster":12918,"Ġloos":12919,"Ġhammond":12920,"Ġargentine":12921,"Ġancestors":12922,"Ġecosystem":12923,"clamation":12924,"Ġconviction":12925,"Ġcrowds":12926,"kat":12927,"Ġlined":12928,"soon":12929,"Ġinfin":12930,"Ġrhode":12931,"Ġcubs":12932,"Ġsexuality":12933,"Ġstefani":12934,"Ġferguson":12935,"eit":12936,"Ġdigest":12937,"Ġclimax":12938,"Ġwarsaw":12939,"Ġhutch":12940,"Ġgore":12941,"ogical":12942,"Ġcorrespondence":12943,"Ġpose":12944,"Ġefficiency":12945,"Ġvarieties":12946,"Ġrussians":12947,"Ġbadge":12948,"Ġincorrect":12949,"Ġobservatory":12950,"Ġaltog":12951,"Ġyosh":12952,"Ġextant":12953,"Ġvictorious":12954,"Ġtrustees":12955,"Ġhatch":12956,"Ġaltogether":12957,"tershire":12958,"Ġacids":12959,"Ġlucy":12960,"Ġug":12961,"olics":12962,"Ġprecise":12963,"Ġethan":12964,"Ġdoubled":12965,"Ġsprint":12966,"Ġnamely":12967,"Ġbust":12968,"Ġspike":12969,"Ġmaturity":12970,"Ġsussex":12971,"Ġjeffrey":12972,"Ġcolumbus":12973,"Ġadoption":12974,"hurst":12975,"Ġdex":12976,"Ġretaining":12977,"Ġwillis":12978,"Ġbritney":12979,"Ġsettings":12980,"Ġinsect":12981,"Ġforgotten":12982,"Ġordin":12983,"Ġ260":12984,"Ġkicked":12985,"rimination":12986,"Ġwu":12987,"Ġinade":12988,"Ġkre":12989,"berger":12990,"Ġunderlying":12991,"Ġcastro":12992,"Ġsometime":12993,"Ġhaun":12994,"Ġconquered":12995,"iott":12996,"Ġhort":12997,"Ġhighlights":12998,"changes":12999,"Ġfranz":13000,"Ġgifts":13001,"Ġinadequ":13002,"kers":13003,"Ġcp":13004,"Ġnie":13005,"Ġriv":13006,"Ġtears":13007,"Ġamino":13008,"Ġfees":13009,"Ġsouthbound":13010,"Ġmorton":13011,"Ġsemif":13012,"Ġendorsed":13013,"Ġreynolds":13014,"uates":13015,"van":13016,"Ġbam":13017,"Ġterrible":13018,"Ġconcluding":13019,"Ġnc":13020,"Ġkor":13021,"Ġcran":13022,"Ġ142":13023,"Ġrankings":13024,"lemania":13025,"Ġrectang":13026,"nas":13027,"uania":13028,"Ġwillie":13029,"Ġsteering":13030,"Ġgoalkeeper":13031,"Ġachieving":13032,"Ġexcited":13033,"aic":13034,"isbury":13035,"Ġhighlands":13036,"Ġservants":13037,"Ġsecretly":13038,"Ġviolin":13039,"Ġtheoretical":13040,"Ġunhappy":13041,"Ġfountain":13042,"ben":13043,"jud":13044,"Ġstap":13045,"idian":13046,"Ġtrin":13047,"kson":13048,"Ġdepartments":13049,"Ġmunich":13050,"Ġsatisfied":13051,"Ġeugene":13052,"essa":13053,"Ġperception":13054,"Ġapprent":13055,"Ġannie":13056,"Ġfortified":13057,"Ġwrestlers":13058,"Ġcountryside":13059,"Ġivy":13060,"Ġconfronted":13061,"Ġlithuania":13062,"Ġabolished":13063,"Ġnebraska":13064,"Ġwan":13065,"Ġorch":13066,"Ġclash":13067,"Ġprimitive":13068,"Ġhomage":13069,"Ġlandsl":13070,"Ġtransformation":13071,"Ġgreeks":13072,"Ġyar":13073,"Ġschem":13074,"Ġcomprises":13075,"Ġmusically":13076,"Ġfails":13077,"Ġrecreational":13078,"Ġsubsidiary":13079,"jar":13080,"pur":13081,"vae":13082,"Ġpepper":13083,"Ġdeceased":13084,"Ġpawn":13085,"Ġpointing":13086,"Ġsolve":13087,"Ġresembles":13088,"Ġaccidents":13089,"iast":13090,"Ġactivated":13091,"ÅĦ":13092,"Ġseize":13093,"Ġformats":13094,"Ġboyd":13095,"Ġeaten":13096,"Ġpleasant":13097,"Ġbinding":13098,"lined":13099,"Ġdrawings":13100,"Ġcherry":13101,"oft":13102,"Ġphases":13103,"Ġsubc":13104,"Ġaccordance":13105,"Ġderek":13106,"Ġreferendum":13107,"itating":13108,"Ġrelax":13109,"Ġannoy":13110,"Ġdispos":13111,"Ġ1859":13112,"Ġdiocese":13113,"Ġlithuanian":13114,"icia":13115,"Ġballot":13116,"Ġorbital":13117,"Ġfol":13118,"Ġroc":13119,"Ġsubstantially":13120,"Ġdorsal":13121,"Ġwoll":13122,"Ġgenet":13123,"Ġrhys":13124,"Ġsafely":13125,"Ġprecurs":13126,"Ġcatholics":13127,"Ġnegotiate":13128,"ĠâĤ¬":13129,"Ġyang":13130,"Ġparan":13131,"Ġmedley":13132,"Ġstopping":13133,"Ġchronicles":13134,"ĠfranÃ§":13135,"Ġenacted":13136,"Ġtwins":13137,"Ġconcord":13138,"Ġbusinessman":13139,"Ã¡l":13140,"Ġcalendar":13141,"Ġlau":13142,"Ġalbeit":13143,"Ġlois":13144,"ãĥ¼":13145,"Ġshrine":13146,"Ġinherit":13147,"Ġbloom":13148,"bone":13149,"Ġlighth":13150,"Ġcoch":13151,"Ġfactions":13152,"Ġtotaled":13153,"criptions":13154,"ÅĽ":13155,"Ġstam":13156,"Ġathe":13157,"Ġstew":13158,"shi":13159,"Ġmemoirs":13160,"idel":13161,"iolet":13162,"Ġsalam":13163,"jord":13164,"Ġrept":13165,"Ġalpine":13166,"ipel":13167,"Ġmillimetres":13168,"Ġsalisbury":13169,"Ġavailability":13170,"Ġboarding":13171,"Ġsandstone":13172,"Ġdecommissioned":13173,"yth":13174,"Ġnd":13175,"Ġcanber":13176,"Ġgeographical":13177,"Ġrobertson":13178,"Ġscorer":13179,"Ġ1200":13180,"Ġgeological":13181,"Ġ139":13182,"Ġcareers":13183,"Ġcoul":13184,"Ġresolve":13185,"Ġspont":13186,"Ġwend":13187,"Ġfraser":13188,"ictions":13189,"Ġarchives":13190,"Ġconception":13191,"Ġpapal":13192,"Ġruther":13193,"Ġswall":13194,"Ġwelcom":13195,"Ġancestry":13196,"Ġjoyce":13197,"Ġsparrow":13198,"drop":13199,"Ġtheor":13200,"Ġsuz":13201,"Ġcolomb":13202,"Ġeffectiveness":13203,"Ġmotivated":13204,"Ġcontroller":13205,"Ġimagination":13206,"Ġsg":13207,"Ġlg":13208,"Ġnim":13209,"Ġstur":13210,"abling":13211,"ructed":13212,"Ġblaine":13213,"Ġmedian":13214,"Ġthinks":13215,"Ġgly":13216,"Ġeditors":13217,"Ġreceiver":13218,"Ġclearing":13219,"inely":13220,"Ġhiv":13221,"Ġcaptive":13222,"Ġinflicted":13223,"Ġpropulsion":13224,"Ġtorres":13225,"Ġlinda":13226,"Ġphilippine":13227,"Ġpipe":13228,"Ġtrucks":13229,"Ġcommodore":13230,"Ġjoel":13231,"Ġconductor":13232,"Ġexpend":13233,"Ġlawyers":13234,"Ġmorale":13235,"Ġpollution":13236,"Ġcomparisons":13237,"Ġintercepted":13238,"vik":13239,"Ġoath":13240,"Ġpneum":13241,"Ġcaliph":13242,"agonists":13243,"Ġ1845":13244,"Ġmagnific":13245,"Ġabolition":13246,"Ġdescriptions":13247,"Ġsunderland":13248,"riet":13249,"imeters":13250,"Ġhamburg":13251,"Ġcroc":13252,"Ġfarther":13253,"Ġkaren":13254,"Ġtrigg":13255,"Ġangela":13256,"Ġslee":13257,"Ġreproduction":13258,"Ġasylum":13259,"Ġdiction":13260,"aceae":13261,"Ġblaz":13262,"Ġadmired":13263,"Ġmortal":13264,"Ġisolation":13265,"Ġaccelerated":13266,"Ġtyrann":13267,"bul":13268,"âģĦ":13269,"Ġcogn":13270,"Ġgott":13271,"adic":13272,"Ġsteal":13273,"Ġcommands":13274,"Ġintroduces":13275,"Ġexhibits":13276,"Ġtendency":13277,"Ġjenna":13278,"gun":13279,"orp":13280,"Ġstrick":13281,"Ġkun":13282,"Ġbrighton":13283,"Ġfow":13284,"Ġoperators":13285,"Ġvisuals":13286,"Ġorganisations":13287,"Ġrubber":13288,"itic":13289,"ĠmÃ¼":13290,"Ġanders":13291,"Ġquinn":13292,"Ġacute":13293,"Ġfoundations":13294,"Ġadmission":13295,"iji":13296,"Ġpolls":13297,"Ġriaa":13298,"Ġbened":13299,"ĠâĢĺ":13300,"agonal":13301,"Ġdominican":13302,"Ġwhitney":13303,"Ġæ":13304,"Ġtul":13305,"Ġrealised":13306,"Ġclem":13307,"Ġinteg":13308,"Ġmanuscripts":13309,"11":13310,"ilia":13311,"Ġshed":13312,"Ġausten":13313,"Ġconquer":13314,"Ġtimberlake":13315,"Ġpike":13316,"roke":13317,"Ġveto":13318,"Ġabstr":13319,"Ġmatched":13320,"Ġinsight":13321,"Ġwatches":13322,"Ġdenomin":13323,"Ġorchestr":13324,"Ġcowboy":13325,"Ġwang":13326,"Ġgills":13327,"Ġlarvae":13328,"Ġnorton":13329,"Ġbowler":13330,"Ġconservatives":13331,"Ġarabian":13332,"Ġelliott":13333,"Ġbutterfly":13334,"Ġundergraduate":13335,"cat":13336,"aru":13337,"Ġspear":13338,"Ġbuenos":13339,"Ġreliable":13340,"Ġzinc":13341,"Ġincorporating":13342,"Ġshawn":13343,"Ġportsmouth":13344,"isch":13345,"omorph":13346,"Ġkann":13347,"Ġdayton":13348,"Ġ147":13349,"Ġdominance":13350,"Ġavoiding":13351,"Ġespn":13352,"Ġmcmah":13353,"Ġremarks":13354,"ĠãĤ":13355,"Ġdrops":13356,"Ġcaesar":13357,"bane":13358,"ui":13359,"Ġdull":13360,"Ġaveraging":13361,"Ġhik":13362,"Ġgand":13363,"Ġshapes":13364,"Ġtwist":13365,"Ġsuperhero":13366,"Ġpresenting":13367,"Ġscotia":13368,"Ġaccounting":13369,"Ġclinical":13370,"iatus":13371,"Ġpetersburg":13372,"Ġborrowed":13373,"Ġcommended":13374,"Ġdepress":13375,"Ġforbes":13376,"Ġdear":13377,"Ġretiring":13378,"Ġlegally":13379,"Ġdurham":13380,"Ġkerr":13381,"Ġeccentric":13382,"vas":13383,"Ġplent":13384,"Ġcurric":13385,"Ġ....":13386,"Ġlyrically":13387,"Ġfavoured":13388,"Ġhugo":13389,"Ġsaves":13390,"Ġstake":13391,"Ġdowned":13392,"Ġsalmon":13393,"Ġaccepting":13394,"Ġambig":13395,"Ġdepends":13396,"Ġinev":13397,"Ġpatroll":13398,"Ġfuller":13399,"Ġkrish":13400,"Ġpartisan":13401,"Ġpuzzles":13402,"Ġduchess":13403,"armed":13404,"Ġvene":13405,"Ġende":13406,"Ġbreath":13407,"Ġdetermination":13408,"child":13409,"Ġfins":13410,"Ã©r":13411,"Ġnationwide":13412,"Ġ1820":13413,"Ġclaud":13414,"Ġscandin":13415,"Ġbibl":13416,"Ġattributes":13417,"Ġsicily":13418,"Ġauxiliary":13419,"itory":13420,"ithm":13421,"Ġwhenever":13422,"Ġsms":13423,"Ġsingh":13424,"Ġgeographic":13425,"ylon":13426,"Ġactivist":13427,"Ġmagnet":13428,"Ġastronomical":13429,"Ġferrari":13430,"Ġmonitoring":13431,"Ġwong":13432,"Ġeject":13433,"Ġslopes":13434,"Ġcolleague":13435,"Ġhallow":13436,"Ġcommissioners":13437,"Ġgardner":13438,"Ġgalile":13439,"Ġpeaceful":13440,"Ġworthy":13441,"Ġpoisoning":13442,"Ġsovereignty":13443,"ections":13444,"oton":13445,"Ġgovernors":13446,"Ġhumph":13447,"Ġwebber":13448,"Ïģ":13449,"Ġtired":13450,"Ġstab":13451,"estock":13452,"Ġamber":13453,"Ġindie":13454,"ikh":13455,"Ġimmort":13456,"Ġremixes":13457,"Ġsink":13458,"Ġrats":13459,"Ġrovers":13460,"Ġstrain":13461,"Ġcolleg":13462,"Ġtestament":13463,"Ġresponses":13464,"Ġimplementation":13465,"Ġomaha":13466,"Ġdodgers":13467,"gence":13468,"roft":13469,"Ġpharm":13470,"Ġharder":13471,"boro":13472,"Ġphysic":13473,"Ġscripts":13474,"Ġpriests":13475,"Ġlance":13476,"Ġnumer":13477,"Ġpersisted":13478,"ÅĤaw":13479,"Ġconfiguration":13480,"Ġtrop":13481,"Ġwigg":13482,"Ġbf":13483,"ovan":13484,"Ġdisk":13485,"Ġspecified":13486,"Ġhappens":13487,"Ġdissent":13488,"Ġshelters":13489,"Ġtherm":13490,"fold":13491,"oan":13492,"Ġcly":13493,"Ġgur":13494,"Ġexagger":13495,"Ġmillimeter":13496,"Ġbritt":13497,"Ġgoverned":13498,"Ġfurious":13499,"Ġtaun":13500,"Ġbacon":13501,"Ġbahamas":13502,"Ġthermal":13503,"Ġcelest":13504,"Ġthunderstorms":13505,"oro":13506,"Ġmerg":13507,"rock":13508,"Ġzomb":13509,"retion":13510,"Ġcharting":13511,"Ġexplicitly":13512,"Ġrer":13513,"keys":13514,"Ġguys":13515,"Ġvalued":13516,"Ġresponsibilities":13517,"Ġimmune":13518,"Ġti":13519,"Ġleaked":13520,"Ġenthusias":13521,"Ġaspir":13522,"irmed":13523,"Ġja":13524,"Ġinstallment":13525,"Ġquantum":13526,"Ġlunch":13527,"Ġjoshua":13528,"Ġcanberra":13529,"orus":13530,"Ġkend":13531,"arte":13532,"Ġovertime":13533,"Ġaccent":13534,"Ġstriker":13535,"Ġsiblings":13536,"Ġmumbai":13537,"Ġcompart":13538,"Ġvisitor":13539,"Ġ1854":13540,"Ġspirits":13541,"Ġwrestlemania":13542,"Ġtalked":13543,"Ġaccommodation":13544,"Ġintentions":13545,"Ġconsort":13546,"Ġmagist":13547,"Ġtournaments":13548,"Ġcontemporaries":13549,"xton":13550,"Ġbm":13551,"omer":13552,"Ġperforms":13553,"Ġexpelled":13554,"Ġdevils":13555,"Ġactivists":13556,"Ġcommittees":13557,"Ġfrog":13558,"Ġreunited":13559,"Ġneighborhoods":13560,"Ġlecture":13561,"Ġnitrogen":13562,"uana":13563,"Î¹":13564,"Ġspor":13565,"Ġmonica":13566,"Ġdiscrimination":13567,"Ġprussia":13568,"Ġpoul":13569,"Ġnme":13570,"Ġyank":13571,"Ġfreestyle":13572,"rina":13573,"igious":13574,"sover":13575,"Ġoutlets":13576,"Ġepid":13577,"Ġshortened":13578,"Ġ1857":13579,"Ġpearson":13580,"unciation":13581,"Ġia":13582,"Ġdol":13583,"acco":13584,"ellers":13585,"Ġpoetic":13586,"Ġresource":13587,"Ġfrigates":13588,"Ġrutherford":13589,"Ġengr":13590,"Ġprimetime":13591,"Ġradioactive":13592,"marks":13593,"Ġflora":13594,"Ġrhine":13595,"Ġensured":13596,"Ġorbits":13597,"Ġaccumulated":13598,"hey":13599,"Ġregener":13600,"Ġsaff":13601,"Ġlopez":13602,"Ġambul":13603,"Ġfinancially":13604,"Ġcertifications":13605,"Ġrebuilding":13606,"Ġregistration":13607,"Ġcriteria":13608,"lon":13609,"Ġtailed":13610,"Ġshocked":13611,"Ġpoets":13612,"Ġhelium":13613,"Ġunwilling":13614,"Ġsued":13615,"Ġoverha":13616,"Ġinterim":13617,"Ġsyrian":13618,"Ġdisturbed":13619,"Ġcrater":13620,"Ġinvestigating":13621,"Ġiconic":13622,"mir":13623,"Ġaires":13624,"ilis":13625,"Ġnewark":13626,"Ġoversee":13627,"Ġsomebody":13628,"hyd":13629,"Ġconvoys":13630,"Ġtornadoes":13631,"Ġtragedy":13632,"Ġà":13633,"Ġtampa":13634,"Ġfalk":13635,"Ġdiana":13636,"ounce":13637,"Ġlaunching":13638,"Ġreunion":13639,"Ġguidance":13640,"Ġlent":13641,"ady":13642,"Ġsounded":13643,"Ġbenz":13644,"Ġnortheastward":13645,"Ġroofs":13646,"care":13647,"oufl":13648,"Ġintrig":13649,"Ġboards":13650,"Ġminers":13651,"Ġrevenues":13652,"Ġoppen":13653,"Ġcasc":13654,"Ġpitt":13655,"Ġdisagreed":13656,"Ġlivestock":13657,"Ġenthusiasm":13658,"aid":13659,"Ġdining":13660,"Ġgag":13661,"Ġholden":13662,"Ġexpressing":13663,"Ġlinking":13664,"Ġprominence":13665,"Ġsymbolic":13666,"Ġcontinuously":13667,"Ġrejoined":13668,"dal":13669,"ĠnÃ©e":13670,"Ġdevelops":13671,"Ġsuperv":13672,"Ġtense":13673,"Ġhr":13674,"empl":13675,"quin":13676,"Ġvalve":13677,"Ġconfrontation":13678,"bin":13679,"Ġdoz":13680,"Ġolive":13681,"ovakia":13682,"Ġenlarged":13683,"enary":13684,"Ġpony":13685,"Ġinability":13686,"Ġlich":13687,"Ġhers":13688,"Ġnewer":13689,"Ġfratern":13690,"Ġportal":13691,"Ġpatric":13692,"Ġscreened":13693,"Ġnarrowly":13694,"Ġbiblical":13695,"Ġbury":13696,"Ġamal":13697,"Ġsupernatural":13698,"Ġlowered":13699,"Ġdiá»ĩ":13700,"Ġportrays":13701,"Ġjesse":13702,"Ġlaser":13703,"Ġwages":13704,"Ġmaker":13705,"anor":13706,"Ġlucky":13707,"Ġwhip":13708,"Ġwheels":13709,"Ġregain":13710,"Ġorganize":13711,"Ġtelevised":13712,"Ġjudged":13713,"Ġdanube":13714,"Ġpersuade":13715,"Ġaunt":13716,"Ġleis":13717,"Ã©l":13718,"Ġillumin":13719,"Ġhotels":13720,"Ġcruz":13721,"Ġdedication":13722,"Ġdiá»ĩm":13723,"inos":13724,"icles":13725,"Ġperipher":13726,"Ġsegreg":13727,"Ġrelegated":13728,"onscious":13729,"tor":13730,"Ġwhis":13731,"Ġcompton":13732,"Ġgrandmother":13733,"Ġpursuing":13734,"Ġbeside":13735,"Ġprolong":13736,"Ġantarctic":13737,"Ġporn":13738,"Ġwors":13739,"Ġcapcom":13740,"Ġinvention":13741,"Ġsmallest":13742,"Ġviewer":13743,"Ġnarrator":13744,"Ġbrom":13745,"opl":13746,"Ġplas":13747,"Ġfreely":13748,"Ġrainbow":13749,"Ġcollectively":13750,"Ġdexter":13751,"Ġmcmahon":13752,"tender":13753,"Ġbrock":13754,"Ġstafford":13755,"Ġ320":13756,"Ġpsyched":13757,"Ġodds":13758,"Ġrows":13759,"Ġimagine":13760,"Ġlectures":13761,"Ġsanctuary":13762,"Ġheating":13763,"Ġtrim":13764,"Ġentries":13765,"Ġshipments":13766,"Ġeighteenth":13767,"Ġcosta":13768,"Ġknowles":13769,"Ġcompanions":13770,"Ġsympathetic":13771,"ailand":13772,"Ġcedar":13773,"Ġhannah":13774,"Ġencycl":13775,"Ġapoc":13776,"auer":13777,"Ġcasem":13778,"Ġadriatic":13779,"itational":13780,"ifax":13781,"Ġframes":13782,"Ġshortage":13783,"Ġexcluded":13784,"Ġbubble":13785,"Ġecclesiast":13786,"Ġbangladesh":13787,"swick":13788,"Ġmits":13789,"Ġthailand":13790,"Ġstun":13791,"Ġabrupt":13792,"Ġcunning":13793,"idity":13794,"Ġjaws":13795,"aird":13796,"ropods":13797,"Ġmakeup":13798,"Ġsitcom":13799,"Ġashley":13800,"Ġcooking":13801,"Ġinterface":13802,"Ġbattlecruiser":13803,"Ġwade":13804,"Ġmating":13805,"Ġgaza":13806,"Ġclad":13807,"Ġdeclining":13808,"Ġbedroom":13809,"Ġ550":13810,"Ġrecommendation":13811,"Ġconsolidated":13812,"Ġresurre":13813,"Ġrenowned":13814,"Ġtides":13815,"Ġfc":13816,"Ġdover":13817,"Ġcamoufl":13818,"Ġweaken":13819,"Ġceremonial":13820,"Ġaesthetic":13821,"mm":13822,"heres":13823,"Ġmiz":13824,"ilian":13825,"elic":13826,"Ġconclus":13827,"Ġkeyn":13828,"Ġkingston":13829,"Ġcounted":13830,"Ġhalls":13831,"Ġhomet":13832,"icular":13833,"iman":13834,"Ġallan":13835,"Ġpredator":13836,"Ġencouraging":13837,"Ġquantity":13838,"Ġmund":13839,"usa":13840,"Ġpert":13841,"Ġdivisional":13842,"Ġfielding":13843,"Ġ1858":13844,"Ġdisplacement":13845,"Ġrpg":13846,"Ġlots":13847,"elage":13848,"Ġhex":13849,"Ġflame":13850,"Ġcruel":13851,"Ġmortar":13852,"Ġmortality":13853,"Ġalexandria":13854,"Ġprovisional":13855,"Ġpostponed":13856,"Ġlans":13857,"Ġbeet":13858,"Ġcontacts":13859,"ogan":13860,
[...]
