{"<pad>":0,"!":1,"\"":2,"#":3,"$":4,"%":5,"&":6,"'":7,"(":8,")":9,"*":10,"+":11,",":12,"-":13,".":14,"/":15,"0":16,"1":17,"2":18,"3":19,"4":20,"5":21,"6":22,"7":23,"8":24,"9":25,":":26,";":27,"<":28,"=":29,">":30,"?":31,"@":32,"A":33,"B":34,"C":35,"D":36,"E":37,"F":38,"G":39,"H":40,"I":41,"J":42,"K":43,"L":44,"M":45,"N":46,"O":47,"P":48,"Q":49,"R":50,"S":51,"T":52,"U":53,"V":54,"W":55,"X":56,"Y":57,"Z":58,"[":59,"\\":60,"]":61,"^":62,"_":63,"`":64,"a":65,"b":66,"c":67,"d":68,"e":69,"f":70,"g":71,"h":72,"i":73,"j":74,"k":75,"l":76,"m":77,"n":78,"o":79,"p":80,"q":81,"r":82,"s":83,"t":84,"u":85,"v":86,"w":87,"x":88,"y":89,"z":90,"{":91,"|":92,"}":93,"~":94,"¡":95,"¢":96,"£":97,"¤":98,"¥":99,"¦":100,"§":101,"¨":102,"©":103,"ª":104,"«":105,"¬":106,"®":107,"¯":108,"°":109,"±":110,"²":111,"³":112,"´":113,"µ":114,"¶":115,"·":116,"¸":117,"¹":118,"º":119,"»":120,"¼":121,"½":122,"¾":123,"¿":124,"À":125,"Á":126,"Â":127,"Ã":128,"Ä":129,"Å":130,"Æ":131,"Ç":132,"È":133,"É":134,"Ê":135,"Ë":136,"Ì":137,"Í":138,"Î":139,"Ï":140,"Ð":141,"Ñ":142,"Ò":143,"Ó":144,"Ô":145,"Õ":146,"Ö":147,"×":148,"Ø":149,"Ù":150,"Ú":151,"Û":152,"Ü":153,"Ý":154,"Þ":155,"ß":156,"à":157,"á":158,"â":159,"ã":160,"ä":161,"å":162,"æ":163,"ç":164,"è":165,"é":166,"ê":167,"ë":168,"ì":169,"í":170,"î":171,"ï":172,"ð":173,"ñ":174,"ò":175,"ó":176,"ô":177,"õ":178,"ö":179,"÷":180,"ø":181,"ù":182,"ú":183,"û":184,"ü":185,"ý":186,"þ":187,"ÿ":188,"Ā":189,"ā":190,"Ă":191,"ă":192,"Ą":193,"ą":194,"Ć":195,"ć":196,"Ĉ":197,"ĉ":198,"Ċ":199,"ċ":200,"Č":201,"č":202,"Ď":203,"ď":204,"Đ":205,"đ":206,"Ē":207,"ē":208,"Ĕ":209,"ĕ":210,"Ė":211,"ė":212,"Ę":213,"ę":214,"Ě":215,"ě":216,"Ĝ":217,"ĝ":218,"Ğ":219,"ğ":220,"Ġ":221,"ġ":222,"Ģ":223,"ģ":224,"Ĥ":225,"ĥ":226,"Ħ":227,"ħ":228,"Ĩ":229,"ĩ":230,"Ī":231,"ī":232,"Ĭ":233,"ĭ":234,"Į":235,"į":236,"İ":237,"ı":238,"Ĳ":239,"ĳ":240,"Ĵ":241,"ĵ":242,"Ķ":243,"ķ":244,"ĸ":245,"Ĺ":246,"ĺ":247,"Ļ":248,"ļ":249,"Ľ":250,"ľ":251,"Ŀ":252,"ŀ":253,"Ł":254,"ł":255,"Ń":256,"Ġd":257,"es":258,"Ã©":259,"Ġl":260,"on":261,"en":262,"Ġp":263,"ti":264,"Ġc":265,"Ġ<":266,"Ġde":267,"an":268,"Ġs":269,"Ġa":270,"re":271,"er":272,"ent":273,"ur":274,"tion":275,"in":276,"qu":277,"is":278,"Ġe":279,"Ġla":280,"it":281,"Ġ</":282,"Ġm":283,"ra":284,"Ġet":285,"le":286,"Ġdes":287,"ou":288,"or":289,"ar":290,"un":291,"Ġle":292,"Ġles":293,"Ġt":294,"ment":295,"Ġpr":296,"ĠÃ":297,"ation":298,"Ġn":299,"Ġqu":300,"Ġf":301,"om":302,"ĠÃł":303,"Ġr":304,"te":305,"il":306,"âĢ":307,"Ġen":308,"Ġcon":309,"Ġau":310,"our":311,"Ã©s":312,"ant":313,"al":314,"Ġdu":315,"el":316,"âĢĻ":317,"Ã¨":318,"ic":319,"ĠÃ©":320,"Ġun":321,"si":322,"Ġv":323,"Ġpar":324,"au":325,"ta":326,"ce":327,"Ġpro":328,"ans":329,"Ġin":330,"ir":331,"Ġcom":332,"me":333,"ĠdÃ©":334,"Ġg":335,"Ġb":336,"ement":337,"tÃ©":338,"Ġpour":339,"Ġre":340,"ri":341,"us":342,"ont":343,"ci":344,"li":345,"pp":346,"ec":347,"as":348,"que":349,"Ġdans":350,"ire":351,"Ġque":352,"tre":353,"ch":354,"Ġsur":355,"ĠrÃ©":356,"Ġ(":357,"itÃ©":358,"Ġ1":359,"00":360,"et":361,"est":362,"Ġ2":363,"di":364,"se":365,"res":366,"les":367,"ro":368,"la":369,"tu":370,"ff":371,"ol":372,"Ġj":373,"mp":374,"onn":375,"ter":376,"Ġo":377,"Ġune":378,"eu":379,"de":380,"ouv":381,"ts":382,"Ã©e":383,"Ġqui":384,"ac":385,"ag":386,"iv":387,"Ġav":388,"ous":389,"ations":390,"ers":391,"ons":392,"Ġpl":393,"os":394,"ces":395,"Ġch":396,"ale":397,"Ã©es":398,"urs":399,"Ġaux":400,"ie":401,"Ġou":402,"Ġest":403,"Ġfa":404,"ul":405,"ad":406,"tions":407,"ig":408,"Ġh":409,"tiv":410,"Ġex":411,"ques":412,"mes":413,"pÃ©":414,"Ġsu":415,"pr":416,"Ġcomm":417,"du":418,"Ġac":419,"ne":420,"ab":421,"mb":422,"Ġpa":423,"aux":424,"ort":425,"Ġma":426,"Ã¨re":427,"Ġ200":428,"Ġra":429,"Ġmo":430,"end":431,"Ġil":432,"elle":433,"ires":434,"sion":435,"Ġce":436,"and":437,"Ġcan":438,"orm":439,"tr":440,"Ġtra":441,"Ã©n":442,"cu":443,"tif":444,"Ġse":445,"ins":446,"Ġpo":447,"Ġpas":448,"Ġparti":449,"Ãª":450,"ance":451,"Ġser":452,"ten":453,"rÃ©":454,"tes":455,"Ġcons":456,"ction":457,"gra":458,"min":459,"id":460,"Ġplus":461,"at":462,"Ġso":463,"ĠÃ©ta":464,"ys":465,"Ã©ra":466,"Ġsont":467,"ence":468,"gi":469,"ient":470,"ex":471,"iss":472,"ĠprÃ©":473,"Ġi":474,"Ġtr":475,"entre":476,"Ġinter":477,"tra":478,"ants":479,"ens":480,"itÃ©s":481,"Ã©r":482,"une":483,"Ã¨s":484,"Ġtou":485,"aire":486,"Ġapp":487,"Ġ:":488,"ue":489,"Ġont":490,"Ġcomp":491,"ĠÂ":492,"ord":493,"ven":494,"lo":495,"its":496,"aires":497,"ern":498,"lÃ©":499,"Ġan":500,"ĠprÃ©s":501,"Ġdis":502,"ite":503,"Ġne":504,"Ġgr":505,"Ġavec":506,"Ġdo":507,"Ġsa":508,"ise":509,"Ġno":510,"Ġli":511,"ĠÃ©tÃ©":512,"ĠrÃ©s":513,"lement":514,"Ġco":515,"Ġcet":516,"ĠâĢ":517,"Ġres":518,"org":519,"bl":520,"ure":521,"va":522,"ine":523,"pe":524,"Ġconc":525,"form":526,"tres":527,"ada":528,"ĠdÃ©c":529,"ique":530,"anis":531,"Ġ3":532,"Ġpu":533,"oir":534,"am":535,"ales":536,"ond":537,"oc":538,"ge":539,"jet":540,"ration":541,"Ġdro":542,"ign":543,"Ġ19":544,"ication":545,"Ġserv":546,"Ġpeu":547,"elles":548,"age":549,"ux":550,"Ġces":551,"Ġper":552,"ements":553,"Ġrapp":554,"Ã´":555,"ion":556,"Ġcanada":557,"Ġsi":558,"Ġad":559,"Ġentre":560,"ures":561,"Ġpers":562,"teur":563,"che":564,"ait":565,"tique":566,"Ġmar":567,"ĠsÃ©":568,"po":569,"gram":570,"Ã¨me":571,"ĠÃª":572,"um":573,"Ġsec":574,"Ġdi":575,"ve":576,"tri":577,"ss":578,"Ġ-":579,"bli":580,"ture":581,"Ã©d":582,"organis":583,"Ġfin":584,"ph":585,"ĠÃªtre":586,"Ġcette":587,"ille":588,"Ġservic":589,"Ġprogram":590,"ĠgÃ©n":591,"emp":592,"Ġnous":593,"titu":594,"Ġca":595,"..":596,"Ġpersonn":597,"Ġintern":598,"til":599,"cip":600,"teurs":601,"Ġme":602,"Ġmin":603,"tin":604,"eau":605,"ier":606,"app":607,"ang":608,"Ġsou":609,"ours":610,"Ġeff":611,"Ġren":612,"Ġpays":613,"Ġrec":614,"Ġses":615,"Ġter":616,"tiques":617,"Ã©ri":618,"Ġnom":619,"opp":620,"Ġar":621,"vel":622,"Ġcommun":623,"ĠgÃ©nÃ©ra":624,"ission":625,"Ġimp":626,"Ġins":627,"els":628,"ist":629,"ĠdÃ©p":630,"bre":631,"Ġinternation":632,"Ġleur":633,"velopp":634,"opÃ©":635,"ĠprÃ©sent":636,"able":637,"Ġmes":638,"Ġprodu":639,"estion":640,"__":641,"seil":642,"ande":643,"Ġtrava":644,"ĠdÃ©velopp":645,"Ġconseil":646,"Ġ4":647,"Ġbi":648,"Ã©g":649,"Ġson":650,"Ġlo":651,"Ã¨res":652,"Ã©ta":653,"ĠâĢ¢":654,"Ġob":655,"ies":656,"Ġtrans":657,"Ġdonn":658,"ĠÂ«":659,"ouvern":660,"fin":661,"Ġnouv":662,"tic":663,"ble":664,"Ġ5":665,"Ġcomme":666,"Ġdire":667,"ari":668,"adi":669,"Ġvo":670,"Ġdem":671,"ments":672,"rer":673,"Ġsoci":674,"enne":675,"tive":676,"isation":677,"ui":678,"to":679,"Ġmon":680,"ici":681,"Ã§":682,"util":683,"Ġpos":684,"Ġconf":685,"cess":686,"Ġgouvern":687,"ĠÃ©c":688,").":689,"ĠrÃ©p":690,"ors":691,"iques":692,"Ġnation":693,"Ġy":694,"ĠrÃ©gi":695,"ut":696,"ĠdÃ©veloppement":697,"omm":698,"),":699,"Ġtravail":700,"eur":701,"Ġfor":702,"op":703,"ines":704,"Ġservices":705,"Ġprojet":706,"Ġes":707,"Ġrapport":708,"Ġfait":709,"ica":710,"Ġacc":711,"Ġpoli":712,"ents":713,"Ġal":714,"alement":715,"ĠÃ©g":716,"Ġdev":717,"av":718,"Ġw":719,"Ġmemb":720,"ises":721,"ice":722,"th":723,"posi":724,"ix":725,"Ġcol":726,"ution":727,"tru":728,"tives":729,"im":730,"tifs":731,"Ġel":732,"ass":733,"Ġ199":734,"Ġgrou":735,"Ġti":736,"Ġpre":737,"ourn":738,"ard":739,"Ġcer":740,"eux":741,"bil":742,"Ġorganis":743,"Ġeur":744,"Ġcommission":745,"onom":746,"Ġcanadi":747,"int":748,"ĠmÃ©":749,"met":750,"Ġje":751,"Ġresp":752,"iÃ¨re":753,"lec":754,"Ġon":755,"Ġdeux":756,"Ġdroits":757,"Ġat":758,"rit":759,"cher":760,"Ã¨g":761,"Ġnon":762,"Ġain":763,"des":764,"Ġainsi":765,"Ġass":766,"Ġann":767,"ĠÃ©tats":768,"Ġprop":769,"Ġfond":770,"Ġprogramme":771,"antÃ©":772,"Ġmil":773,"lu":774,"200":775,"ante":776,"Ġvous":777,"uation":778,"Ġam":779,"Ġ6":780,"aut":781,"Ġform":782,"val":783,"Ġcha":784,"ois":785,"Ġvis":786,"Ġdiff":787,"olo":788,"Ġgouvernement":789,"enn":790,"ĠsantÃ©":791,"Ãł":792,"Ġexp":793,"hn":794,"Ġsys":795,"Ġtous":796,"ĠÂ»":797,"cur":798,"bles":799,"Ġnombre":800,"Ãªme":801,"Ġpeut":802,"Ġdirec":803,"Ġmais":804,"tis":805,"tÃ©ri":806,"trib":807,"Ġprin":808,"tivitÃ©s":809,"Ġk":810,"ĠcomitÃ©":811,"tÃ©g":812,"acc":813,"alitÃ©":814,"Ġmembres":815,"Ġju":816,"Ġleurs":817,"ente":818,"Ġpla":819,"Ġsuiv":820,"prÃ¨s":821,"ticle":822,"Ġfon":823,"vention":824,"Ġth":825,"Ġrepr":826,"vir":827,"Ġrela":828,"ĠcrÃ©":829,"ais":830,"co":831,"orts":832,"ĠrÃ¨g":833,"Ġcerta":834,"pÃ©ci":835,"Ġsous":836,"ob":837,"graph":838,"Ġsyst":839,"Ġprem":840,"sions":841,"ĠsÃ©cur":842,"endre":843,"semb":844,"ues":845,"ĠÃ©galement":846,"Ġcas":847,"ĠspÃ©ci":848,"Ġfaire":849,"ĠnÃ©":850,"ences":851,"mbre":852,"Ġman":853,"vis":854,"ĠeuropÃ©":855,"vent":856,"ill":857,"Ġnations":858,"ĠsÃ©curitÃ©":859,"Ġlors":860,"tant":861,"Ã®":862,"tionn":863,"Ġcompr":864,"Ġautres":865,"em":866,"alis":867,"if":868,"Ġtout":869,"tiÃ¨re":870,"Ġoff":871,"Ġloi":872,"Ġ7":873,"Ġutil":874,"rait":875,"Ã£":876,"Ġtec":877,"Ġvi":878,"Ã»":879,"Ġsit":880,"ma":881,"Ġtechn":882,"Ġpara":883,"Ġcad":884,"autres":885,"Ġgestion":886,"vre":887,"Ġaus":888,"Ġ9":889,"ances":890,"enti":891,"Ġ%":892,"Ġconcern":893,"ĠreprÃ©s":894,"formation":895,"erv":896,"cep":897,"mis":898,"Ġfourn":899,"seign":900,"ĠmÃªme":901,"Ġpubl":902,"onnement":903,"Ġcontre":904,"ources":905,"Ġrecher":906,"Ã¢":907,"vo":908,"ing":909,"ivers":910,"Ġ8":911,"Ġjus":912,"Ġdroit":913,"Ġind":914,"mment":915,"Ġdocu":916,"lab":917,"Ġparticu":918,"tement":919,"Ġmesures":920,"Ġimport":921,"Ã©li":922,"minis":923,"par":924,"Ġbien":925,"Ġplan":926,"ulta":927,"ĠÃ©conom":928,"aient":929,"ud":930,"ĠrÃ©gion":931,"Ġelle":932,"Ġress":933,"ĠactivitÃ©s":934,"uer":935,"Ġparticip":936,"jec":937,"for":938,"Ġgroupe":939,"Ġpermet":940,"Ġprincip":941,"Ġparticuli":942,"Ġaussi":943,"cer":944,"ils":945,"Ġto":946,"oma":947,"Ġaff":948,"pa":949,"Ġpartie":950,"iti":951,"ide":952,"Ġag":953,"olution":954,"lar":955,"Ġdont":956,"oci":957,"Ġtoute":958,"Ġunies":959,"cÃ©":960,"Ġcadre":961,"Ġmise":962,"ouver":963,"Â©":964,"Ġpersonnes":965,"Ã©qu":966,"Ġfonction":967,"Ġfr":968,"ĠdÃ©cis":969,"Ġcap":970,"Ġafin":971,"Ġdoit":972,"tÃ©s":973,"Ġten":974,"Ġfinan":975,"ĠnÃ©cess":976,"Ġsta":977,"Ġmarch":978,"Ġaut":979,"Ġniv":980,"Ġdemande":981,"ĠreprÃ©sent":982,"imp":983,"Ġindi":984,"antes":985,"Ġcor":986,"article":987,"ca":988,"Ġfem":989,"Ġ0":990,"Ã´le":991,"cri":992,"exp":993,"ĠgÃ©nÃ©ral":994,"Ġcours":995,"Ã©tÃ©":996,"____":997,"Ġpubli":998,"Ġpublic":999,"Ġutilis":1000,"sid":1001,"ables":1002,"eurs":1003,"Ġph":1004,"Ġmoy":1005,"ĠprÃ©sid":1006,"endant":1007,"Ġbas":1008,"ate":1009,"Ã©rence":1010,"vironnement":1011,"Ġemp":1012,"ĠmatiÃ¨re":1013,"Ġcar":1014,"Ġcompte":1015,"Ġcel":1016,"iÃ¨me":1017,"union":1018,"Ġcour":1019,"ct":1020,"ĠdonnÃ©es":1021,"ind":1022,"Ġver":1023,"Ġcommer":1024,"Ġtro":1025,"ions":1026,"estions":1027,"ministra":1028,"Ġprof":1029,"Ġdisposi":1030,"Ġrecherche":1031,"Ġcl":1032,"Ġmen":1033,"Ġstra":1034,"iste":1035,"voir":1036,"mo":1037,"ĠtÃ©":1038,"Ġinc":1039,"Ġdur":1040,"ves":1041,"ĠsystÃ¨me":1042,"Ġchar":1043,"iter":1044,"ez":1045,"Ġsoit":1046,"Ġressources":1047,"Ġmont":1048,"tection":1049,"Ã¨mes":1050,"information":1051,"Ġpolitique":1052,"Ġprogrammes":1053,"Ġquestions":1054,"ĠrÃ©g":1055,"tal":1056,"pes":1057,"taire":1058,"ong":1059,"entes":1060,"Ġsans":1061,"ivent":1062,"Ġparagraph":1063,"Ġpossi":1064,"Ġquestion":1065,"Ġ10":1066,"labo":1067,"abil":1068,"Ġconcernant":1069,"Ġpouv":1070,"ĠrÃ¨glement":1071,"Ġavant":1072,"mÃ©":1073,"Ġsub":1074,"Ġcontrib":1075,"ĠsecrÃ©":1076,"cÃ©d":1077,"tamment":1078,"pu":1079,"Ġproduits":1080,"....":1081,"elon":1082,"ats":1083,"lication":1084,"Ġrespons":1085,"Ġtemp":1086,"Ġtoutes":1087,"Ġenf":1088,"omme":1089,"Ã¹":1090,"Åĵ":1091,"Ġdoma":1092,"Ġfinanci":1093,"gie":1094,"Ġprotection":1095,"oris":1096,"Ġseu":1097,"xe":1098,"Ġmet":1099,"Ġrecomm":1100,"dif":1101,"Ġfemmes":1102,"Ġdemand":1103,"Ġpoint":1104,"Ġconsid":1105,"Ġminist":1106,"Ġplu":1107,"Ġconstitu":1108,"ications":1109,"Ġfac":1110,"Ġentrepr":1111,"ellement":1112,"ĠrÃ©sulta":1113,"tro":1114,"Ġinternational":1115,"loy":1116,"ĠoÃ¹":1117,"lÃ©e":1118,"lev":1119,"Ġmain":1120,"bilitÃ©":1121,"eaux":1122,"ton":1123,"Ġent":1124,"action":1125,"ages":1126,"ich":1127,"Ġ[":1128,"orte":1129,"lÃ¨":1130,"valuation":1131,"ann":1132,"Ġpolitiques":1133,"Ġpeuvent":1134,"pec":1135,"Ġhum":1136,"Ġprom":1137,"Ġselon":1138,"ĠâĢĵ":1139,"ĠdÃ©f":1140,"ode":1141,"ulture":1142,"rÃª":1143,"onc":1144,"Ġcontin":1145,"Ġniveau":1146,"istre":1147,"Ġconvention":1148,"Ġrenseign":1149,"Ã©ment":1150,"ĠpÃ©ri":1151,"Ġder":1152,"ler":1153,"quer":1154,"Ġpe":1155,"Ġsign":1156,"ĠgÃ©nÃ©rale":1157,"rations":1158,"Ġparagraphe":1159,"Ã©tat":1160,"oire":1161,"Ġnotamment":1162,"ulation":1163,"Ġinf":1164,"tation":1165,"Ġprocess":1166,"Ġbure":1167,"Ġna":1168,"Ġpra":1169,"Ġbes":1170,"Ġmoins":1171,"Ġcontra":1172,"Ġtrois":1173,"ĠdÃ©s":1174,"Ġdoivent":1175,"Ġjour":1176,"ress":1177,"Ġprocessus":1178,"ĠdÃ©b":1179,"Ġbeso":1180,"ologi":1181,"Ġcommunau":1182,"ĠlÃ©g":1183,"Ġinform":1184,"Åĵu":1185,"Ġcondi":1186,"Ġobjec":1187,"amen":1188,"anti":1189,"Ġservice":1190,"19":1191,"laire":1192,"cid":1193,"Ġmal":1194,"Ġenfants":1195,"issement":1196,"Ġinternationale":1197,"Ġmodif":1198,"Ã©lio":1199,"Ġconn":1200,"Ġdisp":1201,"Ġdern":1202,"Ġ.":1203,"Ġconform":1204,"ĠdiffÃ©r":1205,"Ġoc":1206,"Ġcro":1207,"Ġgrand":1208,"ĠÃ©tait":1209,"ĠÃ©tu":1210,"Ġab":1211,"Ġmilli":1212,"Ġrecommand":1213,"Ġparties":1214,"Ġinstitu":1215,"Ġtransp":1216,"Ġmondi":1217,"Ġrenseignements":1218,"ĠcoopÃ©":1219,"tÃ©e":1220,"miner":1221,"Ġadop":1222,"ĠdÃ©cla":1223,"inter":1224,"Ġvue":1225,"ĠprÃ©sident":1226,"one":1227,"Ġz":1228,"Ã©dÃ©ra":1229,"Ġans":1230,"Ġappro":1231,"Ġexemp":1232,"tien":1233,"Ġcent":1234,"tenir":1235,"ĠrÃ©du":1236,"homme":1237,"Ġcontr":1238,"ber":1239,"000":1240,"ric":1241,"ĠrÃ©sultats":1242,"ustri":1243,"Ġrenfor":1244,"ĠaprÃ¨s":1245,"organisation":1246,"Ġactu":1247,"Ã©c":1248,"ĠeuropÃ©enne":1249,"lic":1250,"gag":1251,"Ġris":1252,"Ġof":1253,"Ġrespec":1254,"Ġ15":1255,"su":1256,"gation":1257,"Ġtri":1258,"ets":1259,"urer":1260,"Ġprobl":1261,"Ġ$":1262,"loi":1263,"pÃ©ri":1264,"Ġloc":1265,"Ġ2006":1266,"Ġmod":1267,"ĠfÃ©dÃ©ra":1268,"issance":1269,"Ġ20":1270,"ĠrÃ©solution":1271,"ĠrÃ©f":1272,"Ġ2005":1273,"ĠdÃ©m":1274,"Ġaccord":1275,"Ġautre":1276,"Ġdocument":1277,"Ġ\"":1278,"Ġthe":1279,"Ġformation":1280,"Ġ12":1281,"Ġtrait":1282,"ĠdÃ©fin":1283,"ennes":1284,"erc":1285,"Ġils":1286,"Ġsupp":1287,"Ġbase":1288,"Åĵuvre":1289,"ili":1290,"Ġnotre":1291,"Ġpop":1292,"Ġrais":1293,"ĠdÃ©cision":1294,"Ġas":1295,"man":1296,"ĠÃ©conomique":1297,"Ġgar":1298,"10":1299,"ĠdÃ©ter":1300,"raient":1301,"ĠÃ©lec":1302,"ches":1303,"tivitÃ©":1304,"Ġ2004":1305,"ww":1306,"Ġeffec":1307,"Ġsession":1308,"Ġsecteur":1309,"Ã©cu":1310,"ĠministÃ¨re":1311,"oy":1312,"omp":1313,"Ġcli":1314,"rais":1315,"lÃ©ment":1316,"vi":1317,"Ġchaque":1318,"ĠcompÃ©":1319,"Ġconsul":1320,"Ġci":1321,"ariat":1322,"Ġtrav":1323,"ites":1324,"Ġbureau":1325,"Ġlim":1326,"Ġsal":1327,"Ġsituation":1328,"ĠtÃ©lÃ©":1329,"acitÃ©":1330,"Ġpri":1331,"tel":1332,"eff":1333,"ĠopÃ©":1334,"ru":1335,"Ġfonds":1336,"tention":1337,"ĠtrÃ¨s":1338,"ĠintÃ©":1339,"ap":1340,"semblÃ©e":1341,"Ġpres":1342,"eure":1343,"Ġlieu":1344,"Ġtemps":1345,"Ġplace":1346,"Ġsera":1347,"Ġgra":1348,"gr":1349,"Ġvie":1350,"oritÃ©s":1351,"vin":1352,"gÃ©":1353,"Ġnational":1354,"Ġjur":1355,"ĠcoopÃ©ration":1356,"Ġvale":1357,"mer":1358,"Ġvers":1359,"ĠfaÃ§":1360,"ĠmÃ©d":1361,"ĠÃ©tabl":1362,"ĠprÃ©c":1363,"Ġvotre":1364,"Ġobs":1365,"Ġbud":1366,"Ġpor":1367,"Ġtitre":1368,"ole":1369,"Ġparten":1370,"puis":1371,"Ġcertains":1372,"duc":1373,"sieurs":1374,"Ġpol":1375,"Ġpart":1376,"ĠÃ©qu":1377,"Ġlong":1378,"Ġmesure":1379,"agn":1380,"gment":1381,"ancement":1382,"abilitÃ©":1383,"ĠsociÃ©tÃ©":1384,"Ġlui":1385,"anc":1386,"Ġprojets":1387,"Ġpass":1388,"Ġ2007":1389,"isse":1390,"itia":1391,"Ġdate":1392,"Ġchang":1393,"uses":1394,"Ġand":1395,"Â»":1396,"Ġess":1397,"Ġpropos":1398,"ĠÅĵuvre":1399,"laboration":1400,"yant":1401,"ĠpÃ©riode":1402,"mination":1403,"quÃ©":1404,"Ãªtre":1405,"Ġquel":1406,"Ġavait":1407,"Ġdol":1408,"Ġbudg":1409,"Ġfam":1410,"Ġpriv":1411,"ateurs":1412,"tent":1413,"Ġconcer":1414,"Ġdivers":1415,"Ġ2003":1416,"Ġim":1417,"Ġnor":1418,"iÃ¨res":1419,"Ġor":1420,"sionn":1421,"Ġvol":1422,"ai":1423,"lation":1424,"Ġdollar":1425,"Ġpersonnel":1426,"Ġcollec":1427,"Ġavoir":1428,"oup":1429,"semble":1430,"ĠcoÃ»":1431,"Ġdepuis":1432,"Ġmis":1433,"Ġplusieurs":1434,"ĠconformÃ©ment":1435,"Ġ000":1436,"Ġ11":1437,"Ġâ":1438,"ĠfaÃ§on":1439,"Ġnature":1440,"Ã´t":1441,"illeurs":1442,"application":1443,"assemblÃ©e":1444,"Ã©valuation":1445,"Ġdispositions":1446,"Ġty":1447,"oni":1448,"entif":1449,"Ġauc":1450,"Ġ13":1451,"Ġ2002":1452,"aff":1453,"Ġdiv":1454,"sition":1455,"Ġmettre":1456,"Ġparticulier":1457,"ordin":1458,"Ġconna":1459,"Ġprovin":1460,"Ġpersonne":1461,"unis":1462,"Ġ18":1463,"Ġconditions":1464,"Ã©v":1465,"Ġnouveau":1466,"cue":1467,"unes":1468,"Ġdollars":1469,"venir":1470,"ĠprÃ©v":1471,"Ġexig":1472,"ĠconfÃ©rence":1473,"Ã©nÃ©":1474,"Ġculture":1475,"nexe":1476,"ĠpremiÃ¨re":1477,"era":1478,"Ġfonctionn":1479,"tÃ©es":1480,"Ġviol":1481,"Ġdomaine":1482,"truc":1483,"ope":1484,"environnement":1485,"Ġcompris":1486,"utions":1487,"Ġobjectifs":1488,"Ġprofes":1489,"off":1490,"ĠÃ©v":1491,"Ġterrit":1492,"ĠqualitÃ©":1493,"Ġproposi":1494,"core":1495,"ordre":1496,"Ġtrib":1497,"ora":1498,"Ġcentre":1499,"Ġcommerci":1500,"Ġsol":1501,"Ġdevrait":1502,"Ġparlement":1503,"Ġtaux":1504,"Ġhuma":1505,"Ã©ro":1506,"Ġdou":1507,"oritÃ©":1508,"quÃª":1509,"ĠprocÃ©d":1510,"Ġnos":1511,"ĠÃ©ch":1512,"alisation":1513,"Ġencore":1514,"Ġcin":1515,"tivement":1516,"intÃ©":1517,"eures":1518,"cement":1519,"crip":1520,"Ġsujet":1521,"itaire":1522,"Ġreconn":1523,"Ġsci":1524,"Ã©ch":1525,"toc":1526,"Ġadministra":1527,"ĠmarchÃ©":1528,"ĠdÃ©pens":1529,"Ġ14":1530,"ĠcontrÃ´le":1531,"tÃ©gi":1532,"Ġpendant":1533,"mi":1534,"Ġpublique":1535,"Ġ2000":1536,"ĠstratÃ©gi":1537,"ver":1538,"ĠÌ":1539,"pro":1540,"Ġentreprises":1541,"Ġ2001":1542,"ĠannÃ©es":1543,"tiss":1544,"ĠsecrÃ©taire":1545,"cup":1546,"rÃ©e":1547,"Ġprendre":1548,"lations":1549,"Ġtravaux":1550,"Ġnouvelle":1551,"lig":1552,"ĠrÃ´le":1553,"ip":1554,"trang":1555,"ange":1556,"Ġnationale":1557,"Ġfois":1558,"Ġche":1559,"Ġceux":1560,"ĠlÃ©gis":1561,"Ġemploy":1562,"Ġcau":1563,"Ġexa":1564,"Ġassoci":1565,"Ġsep":1566,"itation":1567,"Ã©p":1568,"fois":1569,"ĠrÃ©alis":1570,"Ġreven":1571,"ĠmÃ©th":1572,"Ġ30":1573,"Ġgroupes":1574,"Ġrapports":1575,"ĠbÃ©nÃ©":1576,"Ġsite":1577,"Ġorganismes":1578,"illes":1579,"Ġexemple":1580,"examen":1581,"Ġnu":1582,"Ġcela":1583,"Ġgrande":1584,"omb":1585,"Ġaur":1586,"Ġis":1587,"ennent":1588,"tric":1589,"aide":1590,"Ġcal":1591,"Ġciv":1592,"ĠnÃ©g":1593,"ĠdÃ©claration":1594,"Ġpaix":1595,"Ġcri":1596,"Ġdocuments":1597,"az":1598,"endement":1599,"ommes":1600,"Ġcara":1601,"Ġorganisations":1602,"Ġfinancement":1603,"Ġministre":1604,"ĠdÃ©penses":1605,"Ġtant":1606,"Ġnouvelles":1607,"Ġvertu":1608,"ile":1609,"Ġ>":1610,"ĠÃ©n":1611,"rent":1612,"iers":1613,"Ġpremier":1614,"Ġdonc":1615,"Ġtribun":1616,"Ġpopulation":1617,"blique":1618,"Ġvisant":1619,"quement":1620,"ĠmaniÃ¨re":1621,"ense":1622,"utilisation":1623,"Ġengag":1624,"no":1625,"Ġauto":1626,"itaires":1627,"Ã©rif":1628,"Ġayant":1629,"Ġconcerne":1630,"ĠrÃ©pu":1631,"igne":1632,"Ġbr":1633,"ges":1634,"Ġ16":1635,"uÃ©":1636,"________":1637,"Ġsy":1638,"Ġfer":1639,"og":1640,"ducation":1641,"iser":1642,"fr":1643,"Ġenvironnement":1644,"Ġobli":1645,"ori":1646,"ĠvÃ©rif":1647,"Ġrelatives":1648,"Ġlang":1649,"Ã¯":1650,"reg":1651,"Ġrou":1652,"Ġremp":1653,"Ġpouvoir":1654,"Ġta":1655,"issant":1656,"cembre":1657,"Ġtable":1658,"sif":1659,"Ġjusqu":1660,"Ġsus":1661,"ologie":1662,"20":1663,"Ġmillions":1664,"Ã®tre":1665,"ĠprÃ©sente":1666,"administra":1667,"Ġbesoins":1668,"Ġlorsque":1669,"idi":1670,"Ġpeti":1671,"Ġelles":1672,"aly":1673,"Ġseront":1674,"Ġesti":1675,"ĠdÃ©cembre":1676,"issent":1677,"Ġmoyen":1678,"jo":1679,"ĠrÃ©union":1680,"Ġcanadiens":1681,"ĠdÃ©lÃ©":1682,"Ġali":1683,"Ġsavoir":1684,"Ġii":1685,"ĠreÃ§":1686,"Ġlut":1687,"Ġaffaires":1688,"Ġmonde":1689,"Ġsoient":1690,"Ġparticipation":1691,"tenant":1692,"ĠconsÃ©qu":1693,"Ġproduction":1694,"Ġoutre":1695,"cc":1696,"Ã©liorer":1697,"ĠrÃ©pond":1698,"Ã©tabl":1699,"emploi":1700,"quelle":1701,"Ġoffici":1702,"gations":1703,"chton":1704,"ĠcommunautÃ©":1705,"accord":1706,"ĠÃ©taient":1707,"Ġlaquelle":1708,"tÃ©rieur":1709,"out":1710,"ĠbÃ©nÃ©f":1711,"Ġcanadien":1712,"Ġnum":1713,"Ġconclu":1714,"Ġnord":1715,"Ġ2008":1716,"Ġ17":1717,"rÃªt":1718,"Ġid":1719,"Ġsuite":1720,"Ġjeunes":1721,"Ġcanadienne":1722,"pit":1723,"inte":1724,"Ġcomment":1725,"Ġinformations":1726,"Ġgaranti":1727,"11":1728,"ert":1729,"xes":1730,"ĠrÃ©c":1731,"Ġautochton":1732,"Ġefforts":1733,"Ã©tu":1734,"Ġpossible":1735,"Ġcommerce":1736,"Ġpoursu":1737,"Ġeffectu":1738,"ĠproblÃ¨mes":1739,"Ġcertaines":1740,"cour":1741,"Ġmois":1742,"use":1743,"Ġmul":1744,"ints":1745,"eb":1746,"ateur":1747,"Ġjuin":1748,"Ġprofessionn":1749,"Ġaugment":1750,"st":1751,"Ġdirection":1752,"ordonn":1753,"ĠdÃ©j":1754,"Ã©ration":1755,"ĠrÃ©publique":1756,"erts":1757,"Ġpris":1758,"Ġvaleur":1759,"Ġport":1760,"Ġnouveaux":1761,"ercice":1762,"Ġseulement":1763,"oles":1764,"Ġu":1765,"Ġ198":1766,"Ġprix":1767,"12":1768,"Ġcr":1769,"Ġesp":1770,"........":1771,"abit":1772,"Ġtex":1773,"organ":1774,"Ġaid":1775,"Ġjuridi":1776,"Ġtrouv":1777,"Ġ25":1778,"Ġmi":1779,"ĠnÃ©cessaire":1780,"Ġfaut":1781,"Ġessenti":1782,"truction":1783,"administration":1784,"Ġdisponi":1785,"Ã¨rement":1786,"yer":1787,"import":1788,"Ġfig":1789,"tenu":1790,"lÃ©ments":1791,"Ġmars":1792,"ĠmÃ©c":1793,"ĠrÃ©glement":1794,"Ġop":1795,"ctions":1796,"ustrie":1797,"ĠÃ©tat":1798,"Ġterme":1799,"rique":1800,"Ġtotal":1801,"13":1802,"Ġinitia":1803,"Ġpromo":1804,"alyse":1805,"Ġtraitement":1806,"accÃ¨s":1807,"Ġdestin":1808,".,":1809,"Ġappr":1810,"Ġimportant":1811,"rier":1812,"istance":1813,"uel":1814,"ĠdÃ©ta":1815,"Ġtoutefois":1816,"Ġatte":1817,"Ġlib":1818,"Ġavons":1819,"Ġjou":1820,"liqu":1821,"Ġcomb":1822,"Ġunivers":1823,"ĠÃ©lev":1824,"tariat":1825,"ario":1826,"inf":1827,"Ġvou":1828,"Ġmontant":1829,"Ġtransport":1830,"ĠdÃ©fini":1831,"ĠsystÃ¨mes":1832,"Ġobserv":1833,"Ġfran":1834,"Ġconsomm":1835,"Ġsurve":1836,"art":1837,"Ġmand":1838,"tructure":1839,"Ġnote":1840,"Ġchez":1841,"Ġpourrait":1842,"Ġnormes":1843,"illet":1844,"ps":1845,"Ġpropri":1846,"onne":1847,"ensemble":1848,"ĠeuropÃ©en":1849,"jour":1850,"od":1851,"ĠsecrÃ©tariat":1852,"Ġtribunal":1853,"occup":1854,"ral":1855,"tÃ©gie":1856,"ĠmatÃ©ri":1857,"Ġeffet":1858,"Ġliste":1859,"isant":1860,"Ġsoutien":1861,"asse":1862,"ĠannÃ©e":1863,"ĠÃ©tant":1864,"laires":1865,"Ġbudget":1866,"enf":1867,"ĠdÃ©jÃł":1868,"ĠstratÃ©gie":1869,");":1870,"--":1871,"Ġinstitutions":1872,"Ġcir":1873,"pri":1874,"Ã©ducation":1875,"lection":1876,"Ġraison":1877,"dit":1878,"avant":1879,"Ã©h":1880,"per":1881,"Ġrecommandations":1882,"ĠÃ©trang":1883,"ba":1884,"Ġcelui":1885,"ell":1886,"ril":1887,"tice":1888,"gu":1889,"Ġautochtones":1890,"mÃ©di":1891,"ĠcompÃ©ten":1892,"rie":1893,"Ġcelle":1894,"ĠÃ©tabli":1895,"fs":1896,"rÃ©s":1897,"dure":1898,"wa":1899,"Ġrap":1900,"Ġpratiques":1901,"grÃ¨s":1902,"ras":1903,"tembre":1904,"Ġinternationales":1905,"Ġarticle":1906,"ris":1907,"Ġsoulig":1908,"Ġsc":1909,"Ġtype":1910,"ĠÃ©val":1911,"Ġsein":1912,"vestiss":1913,"tage":1914,"quel":1915,"osÃ©":1916,"ĠtraitÃ©":1917,"ali":1918,"agne":1919,"Ġhau":1920,"ĠrÃ©un":1921,"Ġqua":1922,"Ġseptembre":1923,"lais":1924,"Ġni":1925,"ception":1926,"Ġcit":1927,"Ġconta":1928,"inÃ©":1929,"Ġhaut":1930,"Ġrest":1931,"Ġsurveill":1932,"Ġeu":1933,"Ġmme":1934,"Ġproduit":1935,"ot":1936,"oires":1937,"Ġjan":1938,"ĠprÃ©pa":1939,"aprÃ¨s":1940,"rale":1941,"Ġban":1942,"ĠdÃ©cisions":1943,"tie":1944,"Ġfins":1945,"Ġdevraient":1946,"Ġval":1947,"Ġx":1948,"ĠnÃ©cessaires":1949,"Ġpau":1950,"Ġcommunication":1951,"Ġsoins":1952,"lob":1953,"199":1954,"ĠgÃ©":1955,"Ġappel":1956,"Ġmondiale":1957,"Ġfacil":1958,"hui":1959,"ĠmÃ©canis":1960,"ĠcrÃ©ation":1961,"pose":1962,"ĠÃ©lÃ©ments":1963,"ĠspÃ©cif":1964,"Ġrenforcer":1965,"Ġsection":1966,"cueil":1967,"cription":1968,"ara":1969,"Ġrequ":1970,"Ġperman":1971,"Ġsocial":1972,"cle":1973,"ĠsupplÃ©ment":1974,"iÃ©":1975,"Ġtransf":1976,"Ġfournir":1977,"Ġ24":1978,"ĠdeuxiÃ¨me":1979,"Ġalors":1980,"ĠintÃ©g":1981,"alitÃ©s":1982,"Ġven":1983,"cÃ©dure":1984,"Ġ;":1985,"ĠreprÃ©sentant":1986,"Ġst":1987,"ueur":1988,"tisf":1989,"arti":1990,"ĠpÃ©n":1991,"Ġmoyens":1992,"quÃªte":1993,"Ġmission":1994,"ensi":1995,"ĠÌģ":1996,"Ġple":1997,"europe":1998,"vier":1999,"Ġavis":2000,"ĠauprÃ¨s":2001,"...":2002,"Ġinv":2003,"ĠprocÃ©dure":2004,"ĠopÃ©rations":2005,"Ġbeau":2006,"mon":2007,"oi":2008,"Ġrev":2009,"did":2010,"Ġlog":2011,"jou":2012,"Ġtechnologi":2013,"Ġref":2014,"Ġrisque":2015,"ĠdonnÃ©":2016,"Ġbesoin":2017,"tiÃ¨res":2018,"Ġfrais":2019,"Ã©rique":2020,"Ġjustice":2021,"Ġcelles":2022,"Ġsud":2023,"tt":2024,"ocra":2025,"Ġexamin":2026,"Ġlutte":2027,"Ġ1999":2028,"ression":2029,"tron":2030,"sie":2031,"Ġvoir":2032,"explo":2033,"Ġconfl":2034,"Ã¨ne":2035,"Ġproposition":2036,"Ġsouh":2037,"ossi":2038,"Ġdomaines":2039,"Ġtenu":2040,"Ġdirecteur":2041,"Ġsatisf":2042,"Ġcandid":2043,"tobre":2044,"lique":2045,"ager":2046,"ones":2047,"Ġmai":2048,"cont":2049,"Ġreconna":2050,"ls":2051,"Ġjo":2052,"ĠnÃ©goci":2053,"Ã©rÃ©":2054,"ĠcapacitÃ©":2055,"duction":2056,"Ġcou":2057,"Ġserait":2058,"Ġjuillet":2059,"Ġsau":2060,"Ġlorsqu":2061,"Ġba":2062,"Ġpromotion":2063,"Ġfix":2064,"Ġminis":2065,"cul":2066,"exercice":2067,"Ġweb":2068,"Ġmaj":2069,"annÃ©e":2070,"vembre":2071,"Ġrece":2072,"ĠpÃª":2073,"Ġterr":2074,"industrie":2075,"Ġ21":2076,"Ġeffica":2077,"Ġexc":2078,"Ġang":2079,"viron":2080,"Ġeffets":2081,"tex":2082,"Ġdurable":2083,"Ġret":2084,"Ġvig":2085,"entrepr":2086,"Ġpuis":2087,"ĠmodÃ¨":2088,"Ġsp":2089,"Ġmoment":2090,"ĠnumÃ©ro":2091,"Ġreg":2092,"Ġpi":2093,"Ġnovembre":2094,"Ġencour":2095,"br":2096,"Ġsociale":2097,"ĠmÃ©di":2098,"Ġagric":2099,"Ġprest":2100,"Ġorgan":2101,"Ġrep":2102,"ĠrÃ©gions":2103,"Ġ100":2104,"ĠdÃ©mocra":2105,"Ġmulti":2106,"odes":2107,"rir":2108,"ĠÃ£":2109,"Ġlar":2110,"Ġgu":2111,"Ġcommuni":2112,"ĠÃ©conomiques":2113,"Ġmeille":2114,"Ġstatis":2115,"ification":2116,"ĠcoÃ»ts":2117,"ventions":2118,"cs":2119,"objet":2120,"urg":2121,"01":2122,"tÃ©gor":2123,"ront":2124,"taires":2125,"lant":2126,"jours":2127,"indre":2128,"vision":2129,"Ġ22":2130,"Ġavril":2131,"Ġvic":2132,"Ġjanvier":2133,"bec":2134,"mar":2135,"Ġheures":2136,"Ġ31":2137,"af":2138,"Ġdiscri":2139,"dio":2140,"ĠrÃ©pon":2141,"ipe":2142,"Ġrevenu":2143,"Ġcep":2144,"ditionn":2145,"Ġsemb":2146,"Ġmembre":2147,"Ġtechnique":2148,"Ġ23":2149,"Ġsouv":2150,"are":2151,"isme":2152,"Ġprincipes":2153,"lan":2154,"Ġoctobre":2155,"Ġquatre":2156,"ĠautoritÃ©s":2157,"ĠreprÃ©sentants":2158,"Ġmieux":2159,"Ġdisc":2160,"appro":2161,"erve":2162,"Ġcher":2163,"Ġcroissance":2164,"Ã¢ce":2165,"Ġpermis":2166,"Ġforme":2167,"Ã©laboration":2168,"gc":2169,"ien":2170,"ĠrÃ¨gles":2171,"ĠcatÃ©gor":2172,"Ġsuivi":2173,"ĠgrÃ¢ce":2174,"ĠprogrÃ¨s":2175,"ner":2176,"autre":2177,"Ġtoujours":2178,"Ġdemandes":2179,"Ġlet":2180,"ĠsupÃ©ri":2181,"ess":2182,"Ġrisques":2183,"Ġindustri":2184,"Ġpoints":2185,"Ġrelations":2186,"Ġnationales":2187,"Ġmaladi":2188,"Ġtechniques":2189,"Ġsensi":2190,"Ġassurer":2191,"Ġbut":2192,"ĠspÃ©cial":2193,"inc":2194,"50":2195,"Ġmandat":2196,"liquer":2197,"Ġpertin":2198,"Ġgen":2199,"Ġlesqu":2200,"dic":2201,"orter":2202,"Ġprotoc":2203,"coup":2204,"Ġnationaux":2205,"ĠexÃ©cu":2206,"tations":2207,"ĠÃ©tudi":2208,"ger":2209,"Ġrelative":2210,"ĠÂ»,":2211,"Ã©conom":2212,"ĠrÃ©gime":2213,"Ã¨ces":2214,"ose":2215,"cha":2216,"Ġsuff":2217,"ĠdÃ©terminer":2218,"xim":2219,"cipe":2220,"Ġglob":2221,"Ġcependant":2222,"ĠresponsabilitÃ©":2223,"ivre":2224,"jourd":2225,"Ġbeaucoup":2226,"resp":2227,"Ã©gard":2228,"Ġgouvernements":2229,"Ġpromouv":2230,"ension":2231,"Ġprises":2232,"Ġaucune":2233,"ĠprotÃ©g":2234,"Ġjours":2235,"office":2236,"Ġinstru":2237,"Ġdistrib":2238,"part":2239,"ĠprocÃ©dures":2240,"Ġdonner":2241,"Ġcode":2242,"Ġcitoy":2243,"Ġcapit":2244,"nes":2245,"Ġstatu":2246,"Ġmili":2247,"onu":2248,"Ġligne":2249,"ĠrÃ©seau":2250,"Ġsimp":2251,"ament":2252,"tient":2253,"ision":2254,"Ġpromouvoir":2255,"Ġvigueur":2256,"adop":2257,"Ġcoordin":2258,"Ġus":2259,"Ġpage":2260,"oli":2261,"ĠÃ©lectron":2262,"Ġcomple":2263,"Ġcanadiennes":2264,"ĠprÃ©vention":2265,"Ġir":2266,"Ġvoy":2267,"Ġbar":2268,"ĠdÃ©termin":2269,"ĠâĢĶ":2270,"ĠprÃ©vo":2271,"Ġcinq":2272,"icacitÃ©":2273,"Ġavaient":2274,"Ġappu":2275,"Ã©tÃ©s":2276,"icu":2277,"cr":2278,"assurer":2279,"Ġvari":2280,"Ġposte":2281,"Ġcorresp":2282,"Ġpai":2283,"Ġpeup":2284,"usion":2285,"appel":2286,"Ġparticipants":2287,"Ġjourn":2288,"Ġdit":2289,"ticles":2290,"Ġsurveillance":2291,"tification":2292,"Ġsitu":2293,"Ġpermettre":2294,"Ġoeu":2295,"ĠemployÃ©s":2296,"ĠdiffÃ©rents":2297,"Ġnombreux":2298,"15":2299,"Ġaucun":2300,"Ġcirc":2301,"ira":2302,"ĠproblÃ¨me":2303,"dess":2304,"Ġappropri":2305,"Ġannexe":2306,"Ġcorrespond":2307,"Ġcompos":2308,"ĠrÃ©fÃ©rence":2309,"ĠÂ».":2310,"Ġtel":2311,"ĠdÃ©fense":2312,"dro":2313,"Ġpreu":2314,"Ġautoris":2315,"resse":2316,"ĠconsidÃ©r":2317,"Ġfondament":2318,"ergie":2319,"Ġcontex":2320,"Ġve":2321,"Ġfai":2322,"Ġfav":2323,"ĠamÃ©liorer":2324,"Ġexigences":2325,"Ġcapac":2326,"Ġaccep":2327,"Ġfont":2328,"Ġsais":2329,"ĠcÃ´":2330,"Ġveu":2331,"Ġtermes":2332,"ĠprÃª":2333,"lles":2334,"ervation":2335,"Ġcrit":2336,"ĠfÃ©":2337,"Ġsouvent":2338,"Ġchangements":2339,"Ġconsta":2340,"alog":2341,"Ġliber":2342,"Ġhabit":2343,"Ġcoordination":2344,"Ġreli":2345,"ĠrÃ©sid":2346,"Ġexplo":2347,"Ġtels":2348,"appui":2349,"//":2350,"Ġscientif":2351,"tm":2352,"Ġenreg":2353,"Ġfamille":2354,"ĠdÃ©cid":2355,"Ġcertain":2356,"Ġnav":2357,"ĠÃ©tudes":2358,"Ġpartenaires":2359,"lus":2360,"ĠsÃ©ance":2361,"Ġlic":2362,"Ġparmi":2363,"Ġinitiatives":2364,"Ġbre":2365,"Ġsecteurs":2366,"ĠprÃ©cÃ©d":2367,"Ã©tablissement":2368,"Ġ28":2369,"exÃ©cu":2370,"ĠÃ©gard":2371,"ĠcapacitÃ©s":2372,"Ġterroris":2373,"Ġforces":2374,"ttp":2375,"Ġcontinuer":2376,"avantage":2377,"Ġcamp":2378,"Ġ|":2379,"ĠspÃ©cialis":2380,"Ġpartir":2381,"Ġ26":2382,"clÃ©":2383,"Ã©m":2384,"Ġtableau":2385,"ĠmarchÃ©s":2386,"ĠrÃ©duire":2387,"Ġinternationaux":2388,"agit":2389,"Ġcause":2390,"Ġaccomp":2391,"Ġexamen":2392,"30":2393,"://":2394,"nÃ©":2395,"ĠdÃ©clar":2396,"Ġapplication":2397,"ource":2398,"vait":2399,"Ġcollaboration":2400,"uelle":2401,"ĠlÃ©gislation":2402,"Ġ1998":2403,"Ġaliment":2404,"Ġgaz":2405,"mun":2406,"Ġdevant":2407,"Ġapprouv":2408,"annexe":2409,"ay":2410,"aces":2411,"Ġ27":2412,"ĠvÃ©h":2413,"ĠprÃ©occup":2414,"gh":2415,"Ã©pend":2416,"Ġtexte":2417,"vement":2418,"Ġsuivants":2419,"lin":2420,"Ġaujourd":2421,"Ġprise":2422,"ke":2423,"Ġinstal":2424,"Ġchapit":2425,"ĠdÃ©lÃ©gation":2426,"act":2427,"ĠparticuliÃ¨rement":2428,"Ġsubst":2429,"intes":2430,"Ġdossi":2431,"Ġtor":2432,"Ġdiscrimination":2433,"pÃ©rience":2434,"ase":2435,"Ġcy":2436,"tim":2437,"Ġquelques":2438,"orig":2439,"Ġactuellement":2440,"ĠdurÃ©e":2441,"Ġplein":2442,"Ġbiens":2443,"Ġconv":2444,"Ġcontexte":2445,"ĠrÃ©duction":2446,"ices":2447,"tte":2448,"issances":2449,"Ġrespect":2450,"ĠvÃ©hicu":2451,"Ġchac":2452,"Ġproduc":2453,"importance":2454,"Ġprocha":2455,"comm":2456,"Ġformu":2457,"Ġdisposition":2458,"Ã©vrier":2459,"Ġniveaux":2460,"veur":2461,"urance":2462,"Ġlois":2463,"Ġplans":2464,"Ġ50":2465,"Ġroy":2466,"14":2467,"lent":2468,"Ġmondial":2469,"urant":2470,"Ġdirective":2471,"lande":2472,"Ġaspec":2473,"Ã»t":2474,"ĠdÃ©bat":2475,"Ġorganisation":2476,"Ġterritoire":2477,"Ġouver":2478,"missions":2479,"ĠdÃ©sign":2480,"Ġdernier":2481,"ĠquÃ©":2482,"grÃ©":2483,"ĠfÃ©dÃ©ral":2484,"Ġplanification":2485,"Â°":2486,"ĠrÃ©ponse":2487,"ĠaccÃ¨s":2488,"Ġplupart":2489,"ĠpropriÃ©tÃ©":2490,"Ġprotocole":2491,"ĠprÃ©cis":2492,"ĠfÃ©vrier":2493,"issements":2494,"ĠfinanciÃ¨re":2495,"ĠopÃ©ration":2496,"Ġmarchand":2497,"forme":2498,"Ġaf":2499,"ĠnuclÃ©":2500,"Ġvicti":2501,"Ġconcur":2502,"Ġexist":2503,"Ġefficace":2504,"raÃ®":2505,"ace":2506,"Ġprincipe":2507,"www":2508,"Ġobtenir":2509,"ĠintÃ©ress":2510,"truct":2511,"Ġhy":2512,"Ġnorm":2513,"Ġrelev":2514,"Ġ/":2515,"laborer":2516,"Ġrecours":2517,"Ġsix":2518,"ĠadoptÃ©":2519,"ĠcrÃ©er":2520,"Ġmer":2521,"Ġstructure":2522,"table":2523,"institu":2524,"Ġviolence":2525,"Ġbon":2526,"osition":2527,"Ġrempla":2528,"Ġpublics":2529,"Ġpratique":2530,"Ġaider":2531,"16":2532,"Ġoeuvre":2533,"Ġhuman":2534,"Ġrenforcement":2535,"Ġfi":2536,"Ġcoordonn":2537,"Ġda":2538,"be":2539,"Ġarticles":2540,"Ã©rer":2541,"Ġfau":2542,"Ã©nergie":2543,"Ġanti":2544,"Ġconcurr":2545,"Ã©galitÃ©":2546,"Ġtechnologies":2547,"uni":2548,"Ã©rica":2549,"Ġdir":2550,"Ġprincipaux":2551,"rÃªts":2552,"ĠÃ©valuation":2553,"seignement":2554,"com":2555,"Ġdurant":2556,"ttes":2557,"Ġcommiss":2558,"exÃ©cution":2559,"Ã¨ge":2560,"ĠnÃ©cessitÃ©":2561,"cent":2562,"Ġenviron":2563,"Ġaide":2564,"ctÃ©":2565,"Ġdavantage":2566,"Ġ29":2567,"ĠvÃ©rification":2568,"gement":2569,"esp":2570,"Ġposi":2571,"Ã¨ce":2572,"Ġfournit":2573,"Ġfavoris":2574,"Ġfaveur":2575,"02":2576,"Ġprovinci":2577,"Ġpolice":2578,"ses":2579,"Ġconsac":2580,"Ġajou":2581,"ĠmÃ©thodes":2582,"activitÃ©":2583,"gÃ©s":2584,"Ã©lioration":2585,"oÃ»t":2586,"Ġchapitre":2587,"Ġbo":2588,"tenus":2589,"Ġpourraient":2590,"ii":2591,"Ġfut":2592,"exploitation":2593,"Ġtrouver":2594,"Ġsens":2595,"inÃ©a":2596,"Ġvos":2597,"ĠrÃ©unions":2598,"Ġtour":2599,"sc":2600,"isc":2601,"Ġmaintien":2602,"Ġsommes":2603,"ĠcompÃ©tences":2604,"Ġmus":2605,"Ġhumaines":2606,"Ġpostes":2607,"efficacitÃ©":2608,"bilisation":2609,"Ġmilieu":2610,"ĠrÃ©serve":2611,"Ġsociaux":2612,"Ġparce":2613,"Ġhttp":2614,"Ã©tude":2615,"ĠprÃ©senter":2616,"Ġresponsabil":2617,"ĠprioritÃ©s":2618,"Ġailleurs":2619,"Ġrendement":2620,"gration":2621,"trices":2622,"intÃ©rÃªt":2623,"Ġdirig":2624,"Ġnet":2625,"iles":2626,"agence":2627,"Ġzone":2628,"Ġface":2629,"Ġvolon":2630,"ĠfranÃ§":2631,"Ġmaintenant":2632,"ed":2633,"18":2634,"ach":2635,"rant":2636,"Ġfonctions":2637,"Ġchangement":2638,"Ġindiqu":2639,"ĠrÃ©pondre":2640,"ĠÃ¢":2641,"Ġtelles":2642,"ĠmatÃ©riel":2643,"lage":2644,"Ġtechnologie":2645,"Ġtenir":2646,"avis":2647,"Ġsuivant":2648,"con":2649,"ĠquÃ©bec":2650,"Ġcivile":2651,"ity":2652,"ĠdiffÃ©rentes":2653,"ontario":2654,"Ġtransports":2655,"Ġhommes":2656,"Ġjuridique":2657,"ultatif":2658,"Ġhist":2659,"Ġatt":2660,"Ġcondu":2661,"Ġsema":2662,"Ġparticiper":2663,"Ġcontribution":2664,"Ġdiffic":2665,"tuelle":2666,"ritann":2667,"25":2668,"Ġmarchandises":2669,"Ġimportante":2670,"ĠlÃ©gisla":2671,"ĠprÃ©sentÃ©":2672,"ĠdÃ©but":2673,"nov":2674,"ĠpossibilitÃ©":2675,"Ġcommunications":2676,"ĠcaractÃ©":2677,"sique":2678,"ĠsÃ©lection":2679,"ĠmÃ©dic":2680,"Ġphy":2681,"oser":2682,"Ġsyn":2683,"urent":2684,"Ġproven":2685,"lem":2686,"Ġquant":2687,"lam":2688,"Ġsom":2689,"Ġchef":2690,"Ġradio":2691,"ĠdemandÃ©":2692,"Ġsex":2693,"orteur":2694,"Ġfacteurs":2695,"Ġrendre":2696,"Ġfra":2697,"Ġpreuve":2698,"ĠcritÃ¨res":2699,"ĠrÃ©serv":2700,"toire":2701,"03":2702,"ĠconsidÃ©ra":2703,"dition":2704,"Ġobligations":2705,"ĠfinanciÃ¨res":2706,"Ġzones":2707,"Ġmentionn":2708,"ĠsociÃ©tÃ©s":2709,"Ġliens":2710,"Ġlign":2711,"alogue":2712,"Ġdistin":2713,"Ġrelatifs":2714,"ards":2715,"Ġpauvre":2716,"Ġconnaissances":2717,"Ġrus":2718,"Ġstatut":2719,"casion":2720,"Ġforce":2721,"Ġbonne":2722,"Ġvaleurs":2723,"Ġdiverses":2724,"Ġsuivantes":2725,"Ġsignif":2726,"origine":2727,"objec":2728,"ĠprÃ¨s":2729,"Ġcharge":2730,"Ġtend":2731,"Ġconsultations":2732,"Ġtouch":2733,"ĠcoÃ»t":2734,"Ġfinanciers":2735,"Ãªmes":2736,"go":2737,"ĠindiquÃ©":2738,"Ġsh":2739,"Ġporte":2740,"ĠsÃ©rie":2741,"uli":2742,"Ġcalcul":2743,"Ġcommunautaire":2744,"Ġtelle":2745,"land":2746,"rez":2747,"Ġdom":2748,"tta":2749,"intention":2750,"Ġvoie":2751,"Ġlequel":2752,"Ġtravailleurs":2753,"Ġ1997":2754,"Ġcommunaut":2755,"Ġsources":2756,"ĠtÃ©lÃ©ph":2757,"ĠpremiÃ¨res":2758,"Ġcontributions":2759,"Ġaffec":2760,"Ġmig":2761,"rÃ©es":2762,"ograph":2763,"Ġpropositions":2764,"Ġfil":2765,"mise":2766,"Ġchois":2767,"ouest":2768,"rain":2769,"Ġhar":2770,"Ġapplic":2771,"17":2772,"Ġconjo":2773,"analyse":2774,"Ġmaxim":2775,"ologiques":2776,"Ġjud":2777,"ume":2778,"ĠderniÃ¨re":2779,"ĠpauvretÃ©":2780,"Ġconstitue":2781,"2005":2782,"Ġcontrat":2783,"missi":2784,"enseignement":2785,"Ġaspects":2786,"ĠdÃ©li":2787,"pl":2788,"assurance":2789,"Ġeng":2790,"Ġacqu":2791,"initia":2792,"Ġorient":2793,"Ġlangues":2794,"Ġbanque":2795,"Ġcommen":2796,"Ġclients":2797,"Ġarmes":2798,"Ġsalle":2799,"ĠcommunautÃ©s":2800,"ulations":2801,"istes":2802,"tenti":2803,"Ġminim":2804,"obs":2805,"alys":2806,"att":2807,"hy":2808,"employ":2809,"04":2810,"sieur":2811,"Ġprincipal":2812,"ĠmodÃ¨le":2813,"adoption":2814,"iquement":2815,"Ġdeme":2816,"Ã´tel":2817,"Ġsucc":2818,"Ġposition":2819,"Ġamendement":2820,"bilitÃ©s":2821,"Ġmonsieur":2822,"ĠliÃ©s":2823,"ĠfÃ©lic":2824,"Ġlangue":2825,"Ġterres":2826,"ĠsÃ»":2827,"Ġprovis":2828,"abs":2829,"Ġprob":2830,"vers":2831,"ĠâĹ":2832,"Ġdivision":2833,"Ġeux":2834,"Ġversion":2835,"ĠaoÃ»t":2836,"ĠprivÃ©":2837,"Ġextra":2838,"rim":2839,"Ġrelatif":2840,"Ġdisponibles":2841,"Ġcomprend":2842,"ia":2843,"ret":2844,"Ġcinqu":2845,"Ġqual":2846,"24":2847,"ologique":2848,"Ġcitoyens":2849,"Ã©taire":2850,"ĠliÃ©es":2851,"Ġcho":2852,"Ġconstruction":2853,"Ġcu":2854,"Ġconfor":2855,"cessi":2856,"Ã©conomie":2857,"Ġmu":2858,"Ġfaciliter":2859,"ĠpÃªche":2860,"Ġvictimes":2861,"ĠrÃ©glementation":2862,"Ġportant":2863,"acqu":2864,"Ġclaire":2865,"Ġcontribuer":2866,"ĠmÃ©canismes":2867,"Ġsuffis":2868,"Ġ*":2869,"Ġconcent":2870,"05":2871,"Ã¨de":2872,"ĠtroisiÃ¨me":2873,"icile":2874,"Ġlignes":2875,"Ġguer":2876,"ides":2877,"Ġliv":2878,"Ġjudici":2879,"Ġpubliques":2880,"ĠderniÃ¨res":2881,"ĠministÃ¨res":2882,"Ġtran":2883,"mettre":2884,"dem":2885,"olog":2886,"Ã®t":2887,"Ġnombreuses":2888,"Ġrappel":2889,"Ġbil":2890,"ombie":2891,"ussions":2892,"ĠaÃ©ri":2893,"Ġrencont":2894,"all":2895,"ĠopÃ©rationn":2896,"23":2897,"ritannique":2898,"ĠsupplÃ©mentaires":2899,"ĠrÃ©alisation":2900,"onde":2901,"vestissement":2902,"Ġtari":2903,"tructures":2904,"Ġdirectement":2905,"ĠrÃ©gional":2906,"ĠstratÃ©gies":2907,"Ġpermettant":2908,"entreprise":2909,"uels":2910,"ĠÃ©lectronique":2911,"Ġoutil":2912,"Ġpropre":2913,"Ġ197":2914,"Ġsorte":2915,"ĠstratÃ©gique":2916,"dire":2917,"Ġarri":2918,"Ġtrouve":2919,"mission":2920,"ĠreÃ§u":2921,"labor":2922,"Ġterre":2923,"yn":2924,"ĠdÃ©par":2925,"iÃ©e":2926,"inform":2927,"ks":2928,"ĠcaractÃ©ris":2929,"Ġexiste":2930,"Ġdescription":2931,"thÃ¨":2932,"Ġsource":2933,"ĠâĹ¦":2934,"ablement":2935,"vie":2936,"atri":2937,"Ġlettre":2938,"ĠÃ©tude":2939,"Ġuti":2940,"Ġur":2941,"iller":2942,"lai":2943,"Ġsim":2944,"Ġprend":2945,"ĠcontrÃ´":2946,"Ġanglais":2947,"Ġ,":2948,"Ġtraditionn":2949,"Ġenti":2950,"Ġintel":2951,"Ġcaract":2952,"frica":2953,"ĠÃ©vent":2954,"vidu":2955,"Ġdimin":2956,"Ġpotenti":2957,"Ġarm":2958,"Ġprog":2959,"Ġant":2960,"2006":2961,"Ġeurope":2962,"Ġsuit":2963,"ĠdÃ©pla":2964,"Ġresponsable":2965,"Ġfeu":2966,"Ġtu":2967,"Ġcherche":2968,"Ġviv":2969,"Ġreste":2970,"Ġinternet":2971,"enfant":2972,"cif":2973,"irm":2974,"engag":2975,"________________":2976,"Ġincid":2977,"Ġtransfert":2978,"Ġavantages":2979,"Ġinstruments":2980,"ĠrÃ©guli":2981,"Ġfonctionnement":2982,"mig":2983,"Ġproc":2984,"trice":2985,"Ġdemander":2986,"Ġterrorisme":2987,"lure":2988,"ĠprotÃ©ger":2989,"Ġattrib":2990,"ĠcollectivitÃ©s":2991,"titude":2992,"Ġbou":2993,"ĠpossibilitÃ©s":2994,"suite":2995,"ĠtÃ©mo":2996,"ron":2997,"Ġintitu":2998,"Ġmodifications":2999,"ĠdÃ©finition":3000,"Ġpales":3001,"ĠchargÃ©":3002,"ĠconsÃ©quent":3003,"associ":3004,"gent":3005,"Ġlarge":3006,"Ġville":3007,"Ġpay":3008,"Ġfaisant":3009,"prÃ©":3010,"auteur":3011,"Ġâĸ":3012,"ana":3013,"ĠrÃ©sol":3014,"Ġsouhait":3015,"urgence":3016,"je":3017,"Ã©rences":3018,"Ġensemble":3019,"Ġ1996":3020,"da":3021,"men":3022,"lis":3023,"avoir":3024,"Ġ40":3025,"Ġfinancier":3026,"Ġsecond":3027,"Ġtenue":3028,"hÃ©s":3029,"Ġapproche":3030,"ĠlibertÃ©":3031,"Ġchoix":3032,"ib":3033,"Ġcontinu":3034,"cles":3035,"vÃ©":3036,"mps":3037,"Ġrendu":3038,"ĠtÃ¢":3039,"ĠdÃ©lai":3040,"cier":3041,"Ġva":3042,"29":3043,"Ġabs":3044,"istr":3045,"ane":3046,"Ġimportants":3047,"ĠprÃ©sentation":3048,"ĠmÃ©dica":3049,"60":3050,"Ġretra":3051,"ote":3052,"ĠdÃ¨s":3053,"Ġriv":3054,"orient":3055,"matique":3056,"Ġmun":3057,"Ã©tait":3058,"ĠintÃ©ri":3059,"cide":3060,"Ġaccords":3061,"Ġobjectif":3062,"ĠmatiÃ¨res":3063,"Ġrecommandation":3064,"crit":3065,"Ġrend":3066,"ĠÃ©levÃ©":3067,"Ġvisite":3068,"ĠmÃ©dias":3069,"istrement":3070,"bes":3071,"intÃ©gration":3072,"cie":3073,"Ġcentres":3074,"Ġresponsables":3075,"Ġenvis":3076,"Ġconseils":3077,"tÃ©ra":3078,"ĠÃ©tablissements":3079,"Ġdifficul":3080,"Ġoffre":3081,"ĠprÃ©voit":3082,"Ġvente":3083,"afrique":3084,"Ġfaible":3085,"Ġguerre":3086,"ĠprÃ©sence":3087,"Ġiniti":3088,"ugi":3089,"ĠÃ©missions":3090,"Ġjam":3091,"Ġconclusions":3092,"Ġdrog":3093,"Ġfournisse":3094,"Ġprovince":3095,"ĠamÃ©rica":3096,"Ġgrands":3097,"uk":3098,"ow":3099,"tait":3100,"mement":3101,"lle":3102,"chÃ©":3103,"acte":3104,"Ġstatistiques":3105,"Ġquanti":3106,"dÃ©":3107,"Ġconsultation":3108,"Ġsoumis":3109,"ied":3110,"Ġpermettra":3111,"assistance":3112,"Ã«":3113,"Ġrur":3114,"Ġclass":3115,"tout":3116,"Ġpartenariat":3117,"Ġinterven":3118,"2007":3119,"26":3120,"Ġvih":3121,"Ġax":3122,"Ġmanif":3123,"Ġsites":3124,"Ġcommand":3125,"ĠfrÃ©":3126,"Ġstoc":3127,"rou":3128,"ĠintÃ©rÃªts":3129,"ĠbÃ©nÃ©fici":3130,"ĠdÃ©cidÃ©":3131,"Ġinformation":3132,"gÃ©e":3133,"Ã©chelle":3134,"Ġnew":3135,"tibles":3136,"Ġconflits":3137,"Ġcircons":3138,"tance":3139,"Ġgrandes":3140,"aume":3141,"Ġpopulations":3142,"Ġformul":3143,"Ġutiliser":3144,"initiative":3145,"ĠlimitÃ©":3146,"ĠresponsabilitÃ©s":3147,"ĠcatÃ©gorie":3148,"Ġactions":3149,"Ġadress":3150,"ĠcomplÃ¨":3151,"2004":3152,"................":3153,"visi":3154,"tern":3155,"Ġobservations":3156,"Ġwww":3157,"Ġplut":3158,"Ġenregistr":3159,"Ġdialogue":3160,"Ġcontinue":3161,"jus":3162,"Ġchi":3163,"alinÃ©a":3164,"Ġcrimin":3165,"Ġfonctionnaires":3166,"ĠproposÃ©":3167,"Ġrelativement":3168,"cad":3169,"Ġcomptes":3170,"Ġpatri":3171,"icateurs":3172,"Ã©quipe":3173,"Ġorganes":3174,"anie":3175,"Ġconvient":3176,"iÃ©s":3177,"Ġlimite":3178,"Ġanim":3179,"ox":3180,"Ġsoli":3181,"ĠrÃ©fugi":3182,"ork":3183,"ult":3184,"Ġ?":3185,"Ġappar":3186,"ĠmÃ©thode":3187,"cn":3188,"ĠprÃ©vues":3189,"ĠÃ©valu":3190,"Ġindividu":3191,"Ġsignal":3192,"ĠprioritÃ©":3193,"oncÃ©":3194,"Ġhand":3195,"roÃ®tre":3196,"gion":3197,"Ġchim":3198,"Ġanalyse":3199,"exc":3200,"pace":3201,"ĠindÃ©pend":3202,"matiques":3203,"Ġtermin":3204,"Ġvoyage":3205,"Ġru":3206,"Ġbul":3207,"Ġbe":3208,"Ġpropres":3209,"Ġquand":3210,"ĠcrÃ©dit":3211,"till":3212,"tances":3213,"appr":3214,"Ġâĸª":3215,"Ġaccueil":3216,"Ġcn":3217,"Ġdonne":3218,"Ġlit":3219,"Ã©taires":3220,"objectif":3221,"Ġcondition":3222,"Ġlan":3223,"Ġgarantir":3224,"Ġterritoires":3225,"ĠespÃ¨ces":3226,"air":3227,"uit":3228,"fic":3229,"Ġrenouv":3230,"Ġtur":3231,"ĠplutÃ´t":3232,"Ġconven":3233,"Ġmodification":3234,"ĠmontrÃ©":3235,"Ġconsultatif":3236,"Ġgro":3237,"Ġidentif":3238,"Ġcontenu":3239,"amb":3240,"Ġjuridiques":3241,"Ġara":3242,"ĠdÃ©ch":3243,"Ġlab":3244,"ĠsuccÃ¨s":3245,"2003":3246,"Ġmoyenne":3247,"Ġfamili":3248,"orisation":3249,"amÃ©liorer":3250,"Ġetc":3251,"odi":3252,"Ġgouvernementales":3253,"position":3254,"Ġremb":3255,"lif":3256,"Ġformes":3257,"ĠrÃ©forme":3258,"Ġfaits":3259,"dessus":3260,"Ġcolombie":3261,"Ġcentrale":3262,"ĠnÃ©gociations":3263,"gÃ©es":3264,"Ġauxqu":3265,"uration":3266,"Ġentreprise":3267,"Ġenvo":3268,"Ġenfin":3269,"22":3270,"tine":3271,"Ġ60":3272,"enquÃªte":3273,"Ġpn":3274,"63":3275,"Ġfisc":3276,"uide":3277,".)":3278,"Ġagents":3279,"amÃ©lioration":3280,"Ġexaminer":3281,"quoi":3282,"ĠÃ©tablir":3283,"nexes":3284,"Ġquo":3285,"Ġrapid":3286,"ouverture":3287,"ade":3288,"demn":3289,"Ġrapporteur":3290,"ĠfÃ©dÃ©rale":3291,"ĠmÃ©dec":3292,"Ġsurtout":3293,"Ġmaladies":3294,"Ġcompa":3295,"ttawa":3296,"Ġministres":3297,"Ġseul":3298,"Ġaurait":3299,"Ġcorre":3300,"experts":3301,"Ġappliqu":3302,"Ġottawa":3303,"Ġlibre":3304,"ĠdÃ©clarÃ©":3305,"ĠentraÃ®":3306,"Ġanalys":3307,"Ġprim":3308,"ĠbÃ©nÃ©fic":3309,"ĠÌĪ":3310,"tale":3311,"Ġconsommation":3312,"Ġvise":3313,"emb":3314,"Ġtypes":3315,"ĠutilisÃ©s":3316,"gar":3317,"Ġengagements":3318,"ination":3319,"ov":3320,"Ġit":3321,"ĠutilisÃ©":3322,"Ġadap":3323,"icro":3324,"rage":3325,"Ġintellec":3326,"itable":3327,"tir":3328,"Ġpren":3329,"Ġpourquoi":3330,"Ġconcurrence":3331,"Ġtiers":3332,"Ġlocaux":3333,"Ġcommune":3334,"dits":3335,"Ġfab":3336,"2001":3337,"Ġ2009":3338,"ĠÃ©labor":3339,"Ġdirectives":3340,"Ġait":3341,"Ġprestations":3342,"Ġhandica":3343,"can":3344,"icip":3345,"antill":3346,"ĠdÃ©partement":3347,"Ġrecherches":3348,"Ġtrop":3349,"ĠrÃ©mun":3350,"Ġactuelle":3351,"isi":3352,"Ġchacun":3353,"40":3354,"Ġcandidats":3355,"ĠrÃ©us":3356,"univers":3357,"ask":3358,"ĠprÃ©vu":3359,"Ġfich":3360,"amÃ©rique":3361,"Ġvoud":3362,"atoire":3363,"Ġopp":3364,"Ġhistor":3365,"Ġ1995":3366,"blement":3367,"Ġiii":3368,"Ġconflit":3369,"ĠcaractÃ¨re":3370,"Ġcommissaire":3371,"Ġer":3372,"Ġisra":3373,"ĠÃ©p":3374,"identi":3375,"----":3376,"Ġmunicip":3377,"Ġbrev":3378,"df":3379,"ĠrÃ¨glements":3380,"Ã¨rent":3381,"Ġcompagn":3382,"ĠimmÃ©di":3383,"Ġparc":3384,"Ġcommis":3385,"novation":3386,"Ġroyaume":3387,"Ġsubs":3388,"Ġprovisoire":3389,"Ġlac":3390,"Ġpacif":3391,"Ġsuper":3392,"enreg":3393,"endu":3394,"Ġafrica":3395,"Ġlu":3396,"rimer":3397,"Ġrembours":3398,"Ġcomprendre":3399,"hÃ©sion":3400,"oto":3401,"Ãªte":3402,"ĠdÃ©pos":3403,"ĠthÃ©":3404,"ĠspÃ©ciale":3405,"Ġeffic":3406,"Ġveiller":3407,"expÃ©rience":3408,"Ġmilitaires":3409,"ĠrÃ©gionaux":3410,"Ġmilitaire":3411,"Ġtranspar":3412,"Ġinterne":3413,"Ġaliments":3414,"Ã©tique":3415,"ting":3416,"ĠrÃ©gionales":3417,"Ġprestation":3418,"27":3419,"tendu":3420,"Ġcoup":3421,"ĠvÃ©hicules":3422,"28":3423,"ĠtraitÃ©s":3424,"Ġintro":3425,"Ġrevenus":3426,"Ġclas":3427,"Ġdistribution":3428,"onnes":3429,"Ġvra":3430,"Ġcommentaires":3431,"ĠpÃ©":3432,"Ġordin":3433,"ĠrÃ©vis":3434,"ĠrÃ©parti":3435,"vestissements":3436,"ĠlÃł":3437,"Ġsolution":3438,"Ġpermanent":3439,"Ġdevons":3440,"tas":3441,"Ġchambre":3442,"Ġavez":3443,"Ġmac":3444,"exa":3445,"Ġaura":3446,"augment":3447,"entiss":3448,"osph":3449,"Ġcoll":3450,"pati":3451,"Ġmort":3452,"Ġsociales":3453,"Ġconstitution":3454,"Ġpublication":3455,"Ġatta":3456,"rc":3457,"Ġdix":3458,"Ġetats":3459,"illez":3460,"Ġsolutions":3461,"Ġhe":3462,"Ġquelque":3463,"Ġfrance":3464,"06":3465,"ĠactivitÃ©":3466,"actions":3467,"Ġperspec":3468,"Ġneu":3469,"Ġclairement":3470,"Ġsubstances":3471,"Ġpil":3472,"Ġraisons":3473,"investissement":3474,"occasion":3475,"ath":3476,"Ġestim":3477,"Ġvote":3478,"Ġsommet":3479,"Ġmarque":3480,"Ġcertif":3481,"Ġici":3482,"ak":3483,"Ġpalestin":3484,"vres":3485,"yl":3486,"entrÃ©e":3487,"ain":3488,"Ġsco":3489,"Ġunique":3490,"lair":3491,"Ġconsommateurs":3492,"Ġguide":3493,"Ġchine":3494,"Ġlesquelles":3495,"Ã¢ge":3496,"britannique":3497,"ĠrÃ©fugiÃ©s":3498,"ĠcompÃ©t":3499,"Ġorig":3500,"Ġ35":3501,"ĠdÃ©clarations":3502,"ore":3503,"Ġlocales":3504,"Ġhandicap":3505,"ĠgÃ©nÃ©ralement":3506,"Ġprovinces":3507,"Ġactes":3508,"Ġprovenant":3509,"ĠcrÃ©Ã©":3510,"Ġmess":3511,"Ġsuscep":3512,"Ġlesquels":3513,"issons":3514,"bation":3515,"Ġremer":3516,"Ġseule":3517,"arb":3518,"ick":3519,"ĠdÃ©mocratique":3520,"Ġannuel":3521,"ĠbÃ¢":3522,"ĠmÃ©canisme":3523,"prÃ©s":3524,"Ã¨ve":3525,"dis":3526,"Ġlicence":3527,"ĠÃ©crit":3528,"heure":3529,"Ġrepro":3530,".-":3531,"cident":3532,"Ġrapidement":3533,"Ġcop":3534,"Ġprincipales":3535,"Ġtravailler":3536,"urÃ©":3537,"Ġforum":3538,"ette":3539,"Ġsouha":3540,"ative":3541,"dite":3542,"dation":3543,"avenir":3544,"adap":3545,"Ġpaiement":3546,"Ġfron":3547,"lier":3548,"Ġphase":3549,"Ġfabr":3550,"vez":3551,"Ġpouvoirs":3552,"ĠÃ©tro":3553,"vous":3554,"Ġfavoriser":3555,"Ġchiff":3556,"gique":3557,"Ġmissions":3558,"Ġposs":3559,"Ġdon":3560,"Ġaction":3561,"dam":3562,"ider":3563,"lois":3564,"Ġ=":3565,"ĠÃ©li":3566,"Ġensuite":3567,"Ġouv":3568,"amment":3569,"Ġcontribu":3570,"Ġinstallations":3571,"Ġsuis":3572,"Ġsug":3573,"Ġprofessionnels":3574,"association":3575,"Ã©gi":3576,"Ġfabrication":3577,"Ġintellectuelle":3578,"Ġcharte":3579,"ĠspÃ©cifiques":3580,"Ġcarb":3581,"ĠfranÃ§ais":3582,"arm":3583,"ature":3584,"berta":3585,"Ġmicro":3586,"yp":3587,"do":3588,"ĠÃ©nonc":3589,"Ġgestionn":3590,"intÃ©rieur":3591,"loc":3592,"Ġdess":3593,"21":3594,"Ġpouvez":3595,"opie":3596,"Ġjustif":3597,"Ġsemble":3598,"Ġeaux":3599,"ariats":3600,"absence":3601,"aliment":3602,"iance":3603,"ĠtÃ©lÃ©phone":3604,"Ġpersonnels":3605,"quÃªtes":3606,"2002":3607,"Ġpoursuivre":3608,"lie":3609,"Ġbureaux":3610,"ĠministÃ©ri":3611,"Ġmeilleure":3612,"Ã¨te":3613,"Ġpied":3614,"Ġdivul":3615,"vaient":3616,"ĠdÃ©taill":3617,"ly":3618,"iz":3619,"ĠdÃ»":3620,"ĪĴ":3621,"ĠdÃ©pend":3622,"Ġfort":3623,"lex":3624,"sification":3625,"Ã§u":3626,"Ġquelle":3627,"idÃ©":3628,"Ġexclu":3629,"abord":3630,"Ġpeuples":3631,"ĠreprÃ©sente":3632,"cueill":3633,"Ġsciences":3634,"ĠrelÃ¨":3635,"Ġobjet":3636,"ĠprÃ©paration":3637,"Ġimportantes":3638,"moine":3639,"leur":3640,"Ġanci":3641,"Ġsuivante":3642,"autoritÃ©":3643,"uellement":3644,"Ã¡":3645,"Ġtarif":3646,"Ġexer":3647,"Ġestime":3648,"Ã¨tres":3649,"usement":3650,"Ġbel":3651,"Ġsan":3652,"ĠrÃ©sum":3653,"Ġrussie":3654,"Ġmouv":3655,"Ġveuillez":3656,"Ġ33":3657,"Ã©rÃ©s":3658,"ry":3659,"Ġ--":3660,"ĠinfÃ©ri":3661,"Ġfaud":3662,"tez":3663,"Ġqualif":3664,"Ġ45":3665,"ĠmÃ©dicaments":3666,"apon":3667,"Ġarch":3668,"ĠcompÃ©tence":3669,"alie":3670,"Ġraisonn":3671,"Ġall":3672,"habit":3673,"ĠnuclÃ©aires":3674,"Ġbu":3675,"riel":3676,"Ġgens":3677,"Ġmodifier":3678,"ĠdÃ©cou":3679,"Ġfamilles":3680,"htm":3681,"Ġdossier":3682,"agric":3683,"Ġdiffusion":3684,"Ġaugmentation":3685,"Ġcaus":3686,"Ġpleinement":3687,"aine":3688,"Ġfigure":3689,"ĠdÃ©mont":3690,"Ġsuivre":3691,"ĠintÃ©rieur":3692,"impÃ´t":3693,"Ġterrain":3694,"Ġro":3695,"Ġtitu":3696,"Ġtard":3697,"Ã©limination":3698,"ĠmajoritÃ©":3699,"ĠfrÃ©qu":3700,"ĠdÃ©mar":3701,"Ġcommunautaires":3702,"Ġobsta":3703,"Ġvas":3704,"Ġ1994":3705,"Ġdipl":3706,"Ġpatrimoine":3707,"ĠconsÃ©quences":3708,"quÃ©s":3709,"Ġmaladie":3710,"Ġdispose":3711,"ĠÃ©trangÃ¨res":3712,"Ġgre":3713,"cupÃ©":3714,"Ġnaturelles":3715,"enregistrement":3716,"Ġscientifiques":3717,"Ġinvestissements":3718,"qui":3719,"entissage":3720,"Ġfais":3721,"07":3722,"tionnelle":3723,"ms":3724,"Ġfemme":3725,"ome":3726,"Ġservir":3727,"Ġconservation":3728,"agement":3729,"Ġemploi":3730,"ĠrÃ©seaux":3731,"ĠÃ©valuer":3732,"Ġul":3733,"anci":3734,"Ġrespecter":3735,"Ã©tablir":3736,"Ĥ¬":3737,"der":3738,"Ġcapital":3739,"uelles":3740,"ï¿":3741,"ï¿½":3742,"ĠÃ©lÃ©ment":3743,"Ġpasse":3744,"ĠexaminÃ©":3745,"reur":3746,"Ġadmissi":3747,"Ġrecru":3748,"Ġ&":3749,"cÃ©s":3750,"Ġdisponible":3751,"Ġhumanitaire":3752,"Ġchamp":3753,"Ġrefus":3754,"ĠprÃ©f":3755,"Ġvu":3756,"ĠrÃ©sultat":3757,"Ġair":3758,"Ġps":3759,"Ġdifficile":3760,"ĠsupÃ©rieur":3761,"ĠtrÃ©s":3762,"lait":3763,"Ġremar":3764,"ĠÃ©ner":3765,"anges":3766,"Ġcommuniquer":3767,"Ġrempl":3768,"09":3769,"Ġrapide":3770,"Ġappui":3771,"lor":3772,"67":3773,"Ġpen":3774,"ĠrÃ¨gle":3775,"rastructure":3776,"ĠvÃ©r":3777,"jud":3778,"ith":3779,"ĠdifficultÃ©s":3780,"Ġefficaces":3781,"Ġjamais":3782,"Ġpropor":3783,"tiÃ¨me":3784,"âĢĵ":3785,"lemagne":3786,"atriÃ¨me":3787,"Ġconnaissance":3788,"ĠcaractÃ©ristiques":3789,"Ġofficielles":3790,"Ġoutils":3791,"sig":3792,"anger":3793,"Ã©trang":3794,"Ġpropose":3795,"aritÃ©":3796,"tan":3797,"ĠsiÃ¨ge":3798,"ĠdÃ©fis":3799,"Ġcontact":3800,"aise":3801,"wan":3802,"ĠÃ©vÃ©n":3803,"oun":3804,"agriculture":3805,"Ġdirectrices":3806,"Ã©co":3807,"armement":3808,"Ġparticuliers":3809,"57":3810,"Ġoccup":3811,"Ġassociation":3812,"Ġappor":3813,"ĠantÃ©ri":3814,"Ġtraite":3815,"Ġcommerciales":3816,"erver":3817,"Ġpublications":3818,"59":3819,"rement":3820,"Ġjuge":3821,"Ġpaiements":3822,"dre":3823,"Ġmariti":3824,"Ġcouv":3825,"Ġjapon":3826,"Ġconstituent":3827,"Ġinitiative":3828,"Ġintervenants":3829,"arch":3830,"endra":3831,"adresse":3832,"temps":3833,"ĠpassÃ©":3834,"mÃªme":3835,"Ġretour":3836,"ident":3837,"onto":3838,"ĠÃ©quip":3839,"tiquement":3840,"Ġconcep":3841,"sida":3842,"examiner":3843,"ĠdiversitÃ©":3844,"Ġclasse":3845,"Ġhumains":3846,"ĠconformitÃ©":3847,"cÃ©es":3848,"onses":3849,"unitÃ©":3850,"Ġjudiciaire":3851,"Ġmises":3852,"Ã©tudes":3853,"Ġvul":3854,"ĠstratÃ©giques":3855,"Ġpartenariats":3856,"ĠportÃ©e":3857,"Ġontario":3858,"Ġmine":3859,"ĠÃ©lections":3860,"pc":3861,"erva":3862,"Ġchau":3863,"Ġpal":3864,"Ġseraient":3865,"obli":3866,"instal":3867,"ĠrÃ©solutions":3868,"ister":3869,"Ġatteindre":3870,"istan":3871,"Ġach":3872,"aisse":3873,"08":3874,"cemment":3875,"Ġchercheurs":3876,"Ġconsoli":3877,"tenue":3878,"Ġpuisse":3879,"ĠcomplÃ©ment":3880,"Ġclient":3881,"Ġporter":3882,"aÃ¯":3883,"Ġinfra":3884,"Ã«l":3885,"aus":3886,"orta":3887,"affaires":3888,"ĠrÃ©aliser":3889,"Ġessentiel":3890,"universitÃ©":3891,"obtenir":3892,"Ġtox":3893,"let":3894,"tence":3895,"Ġtravers":3896,"ĠprivÃ©e":3897,"Ġpasser":3898,"2000":3899,"Ġsoutenir":3900,"Ġpetites":3901,"itant":3902,"Ġcontac":3903,"Ġdirige":3904,"esti":3905,"ĠrÃ©ponses":3906,"ĠrÃ©gionale":3907,"ĠrÃ©cemment":3908,"prÃ©tation":3909,"ĠprÃ©al":3910,"Ġrestric":3911,"Ġcompter":3912,"Ġcoh":3913,"Ġprincipalement":3914,"Ġpourcent":3915,"aison":3916,"58":3917,"Ġmultip":3918,"applique":3919,"Ġconsci":3920,"ĠcatÃ©gories":3921,"ĠdÃ©tail":3922,"Ġuniquement":3923,"Ġutilisation":3924,"ĠdÃ©velopper":3925,"âĢĿ":3926,"Ġafrique":3927,"Â».":3928,"Ġindique":3929,"informations":3930,"Ġenseign":3931,"ĠdÃ©pÃ´t":3932,"ĠpubliÃ©":3933,"Ġpens":3934,"ĠÃ©chÃ©":3935,"fc":3936,"Ġdispos":3937,"Ġinves":3938,"Ġsaint":3939,"Ġcompara":3940,"Ġcrise":3941,"Ġfaites":3942,"ĠrÃ©aff":3943,"Ġterritori":3944,"yÃ©":3945,"Ġfaci":3946,"Ġrich":3947,"Ġconnexes":3948,"Ġconfiance":3949,"Ġencourage":3950,"ĠgÃ©nÃ©rales":3951,"ĠmÃªmes":3952,"mat":3953,"ka":3954,"oph":3955,"Ġinflu":3956,"Ġprocu":3957,"ption":3958,"ĠÃ©trangers":3959,"Ġsexes":3960,"tables":3961,"Ġsemaine":3962,"lications":3963,"tori":3964,"institut":3965,"49":3966,"Ġbal":3967,"ĠâĢľ":3968,"Ġparents":3969,"Ġred":3970,"Ġmanque":3971,"ĠdÃ©posÃ©":3972,"Ã©change":3973,"Ġparagraphes":3974,"Ġscientifique":3975,"Ġq":3976,"mbres":3977,"ina":3978,"Ġconception":3979,"Ġmaintenir":3980,"sse":3981,"sive":3982,"Ã©t":3983,"Ġtransition":3984,"Ã©tranger":3985,"Ã©volution":3986,"activitÃ©s":3987,"Ġexpos":3988,"nÃ©s":3989,"Ġmobil":3990,"Ġmilliards":3991,"ĠpÃ©nale":3992,"ouvernement":3993,"Ġfinances":3994,"Ġenvironnementale":3995,"Ġimpos":3996,"ĠcrÃ©dits":3997,"Ġparta":3998,"Ġ1990":3999,"Ã©lec":4000,"Ġtest":4001,"Ġpermettent":4002,"larg":4003,"Ġpan":4004,"Ġalimentaire":4005,"ĠdÃ©sarmement":4006,"ĠdÃ©ploy":4007,"Ġdouan":4008,"Ġlimites":4009,"ĠdÃ©lÃ©gations":4010,"Ġcontrac":4011,"ĠrÃ©sul":4012,"33":4013,"tÃ©n":4014,"Ġextr":4015,"ĠeuropÃ©ens":4016,"tenues":4017,"apprentissage":4018,"prit":4019,"Ġindicateurs":4020,"ĠfondÃ©e":4021,"Ġmas":4022,"Ġlocal":4023,"troph":4024,"Ġdeven":4025,"istence":4026,"Ġcontient":4027,"lÃ©g":4028,"ĠconnaÃ®tre":4029,"Ġpetit":4030,"Ġdrogues":4031,"Ġtab":4032,"ran":4033,"itement":4034,"ids":4035,"attention":4036,"raison":4037,"Ġamb":4038,"55":4039,"Ġfinal":4040,"Ġoblig":4041,"nation":4042,"ĠclÃ©s":4043,"Ġrecettes":4044,"ĠtÃ©lÃ©c":4045,"Ġ37":4046,"Ã§ant":4047,"ĠenquÃªte":4048,"Ġtoronto":4049,"Ġsensibilisation":4050,"tionnel":4051,"Ã©quip":4052,"Ġabord":4053,"ompi":4054,"Ġpros":4055,"quie":4056,"irme":4057,"mor":4058,"Ġmag":4059,"rants":4060,"ĠapprouvÃ©":4061,"Ġ500":4062,"Ġache":4063,"engagement":4064,"Ġfaite":4065,"iÃ©es":4066,"tisation":4067,"Ġsch":4068,"Ġjuste":4069,"ĠadÃ©qu":4070,"Ã¨nes":4071,"minaire":4072,"Ġlien":4073,"Ġcorpo":4074,"Ġcontraire":4075,"ortation":4076,"ĠdÃ©cide":4077,"Ġdirect":4078,"lantique":4079,"ĠprÃ©vue":4080,"Ġsituations":4081,"ĠâĪĴ":4082,"Ġsatisfaction":4083,"Ġvoudrais":4084,"cipÃ©":4085,"vÃ©e":4086,"ĠmodÃ¨les":4087,"Ġment":4088,"Ġtent":4089,"ĠdÃ©crit":4090,"Ġadministratives":4091,"istique":4092,"Ġstatistique":4093,"arc":4094,"Ġhaute":4095,"Ġtot":4096,"indi":4097,"td":4098,"Ġtaille":4099,"ĠstabilitÃ©":4100,"mont":4101,"Ã©val":4102,"Ġdossiers":4103,"Ġvit":4104,"Ġconclusion":4105,"net":4106,"identif":4107,"ĠÃ©tudiants":4108,"innovation":4109,"âĤ¬":4110,"Ġemb":4111,"Ġinten":4112,"Ġiv":4113,"Ġjeu":4114,"ĠrÃ©munÃ©ration":4115,"Ġagricoles":4116,"Ġpacte":4117,"bi":4118,"Ġvuln":4119,"espace":4120,"ĠgÃ©nÃ©raux":4121,"Ġpacifique":4122,"Ġ34":4123,"Ġcycle":4124,"ritÃ©":4125,"angere":4126,"ĠdÃ©chets":4127,"esse":4128,"Ġcourriel":4129,"gouvernement":4130,"Ġphysique":4131,"Ġrecommande":4132,"Ġorigin":4133,"ĠrequÃ©r":4134,"Ġsouhaite":4135,"andis":4136,"Ġurba":4137,"tag":4138,"Ġcellu":4139,"ĠadoptÃ©e":4140,"ĠforÃª":4141,"Ġbois":4142,"vant":4143,"Ġformulaire":4144,"fi":4145,"99":4146,"Ġconsiste":4147,"Ġcondam":4148,"Ã©th":4149,"ĠvulnÃ©ra":4150,"ĠempÃª":4151,"Ġimportance":4152,"ÂĴ":4153,"ĠfÃ©dÃ©ration":4154,"Ġcirconstances":4155,"ĠsoulignÃ©":4156,"Ġapplicables":4157,"2008":4158,"Ġsauf":4159,"Ġpartage":4160,"Ġpourcentage":4161,"neu":4162,"port":4163,"Ġexige":4164,"askat":4165,"tible":4166,"ĠgÃ©ograph":4167,"appu":4168,"rons":4169,"ych":4170,"ĠconsÃ©quence":4171,"ĠrÃ©vision":4172,"die":4173,"Ġdomm":4174,"ĠmontrÃ©al":4175,"ĠmodalitÃ©s":4176,"Ġdangere":4177,"Ġpeine":4178,"Ġminu":4179,"add":4180,"appliquer":4181,"joint":4182,"Ġgouvernance":4183,"lusion":4184,"Ġexperts":4185,"Ġarb":4186,"ĠextÃ©ri":4187,"ĠrÃ©partition":4188,"Ġmener":4189,"ĠdÃ©n":4190,"Ġcommerciaux":4191,"ĠdÃ©liv":4192,"31":4193,"vora":4194,"lÃ©s":4195,"riÃ¨re":4196,"Ġmodern":4197,"tur":4198,"Ġrenvo":4199,"chement":4200,"ĠÃ©laborer":4201,"atique":4202,"ĠcompÃ©ti":4203,"Ġtempora":4204,"ĠmalgrÃ©":4205,"Ġappare":4206,"Ġfourni":4207,"Ġtraiter":4208,"Ġpetits":4209,"Ġfournisseurs":4210,"Ġsujets":4211,"uns":4212,"Ġdiver":4213,"Ġfavora":4214,"ĠprÃ©venir":4215,"Ġconcours":4216,"accent":4217,"Ġbibli":4218,"Ġamp":4219,"Ġpresse":4220,"Ġglobale":4221,"Ġauteurs":4222,"inde":4223,"intÃ©g":4224,"Ġsubventions":4225,"ival":4226,"atives":4227,"Ġorganisme":4228,"Ġchimiques":4229,"Ġavanc":4230,"itent":4231,"ĠentiÃ¨re":4232,"ĠparticipÃ©":4233,"Ġclin":4234,"Ġutile":4235,"ha":4236,"Ġate":4237,"Ġroute":4238,"Ġcomporte":4239,"augmentation":4240,"Ġvir":4241,"atta":4242,"impact":4243,"Ġchambres":4244,"oba":4245,"ĠutilisÃ©es":4246,"Ġprofessionnelle":4247,"ĠrÃ£":4248,"toires":4249,"Ġ!":4250,"Ġcarte":4251,"ĠintitulÃ©":4252,"Ġjouer":4253,"Ġsusp":4254,"ĠcomplÃ¨te":4255,"yc":4256,"Ġattribu":4257,"Ġfu":4258,"Ġaccessi":4259,"Ġsurf":4260,"once":4261,"criptions":4262,"inion":4263,"ĠparticuliÃ¨re":4264,"56":4265,"Ġrac":4266,"Ã©lÃ©":4267,"ĠprÃ©occupations":4268,"Ġpertinentes":4269,"irmÃ©":4270,"Ġgarde":4271,"Ġmultila":4272,"Ġpron":4273,"sec":4274,"Ã©lior":4275,"Ġassistance":4276,"iment":4277,"Ġtrafic":4278,"Ġcinquante":4279,"Ġfigurant":4280,"agent":4281,"rales":4282,"Ġpuissent":4283,"Ġtandis":4284,"Ġinsu":4285,"Ġmill":4286,"fa":4287,"pi":4288,"ĠsÃ»re":4289,"Ġfondamentaux":4290,"intervention":4291,"Ġethn":4292,"ĠÃ©lecto":4293,"Ġiss":4294,"ĠexpÃ©ri":4295,"ze":4296,"oses":4297,"Ġ38":4298,"Ġderniers":4299,"Ġpeuple":4300,"Ġjohn":4301,"hum":4302,"ĠconfÃ©rences":4303,"duit":4304,"Ġdivulgation":4305,"ĠenquÃªtes":4306,"itoba":4307,"ynam":4308,"Ġagricole":4309,"Ġcampagne":4310,"Ġexport":4311,"hist":4312,"ĠrÃ©sumÃ©":4313,"Ġbro":4314,"avait":4315,"ok":4316,"Ġprincipale":4317,"her":4318,"existence":4319,"Ġlogici":4320,"Ġcompor":4321,"Ġattention":4322,"Ġdr":4323,"Ġrecevoir":4324,"Ġdiscu":4325,"ĠamÃ©lior":4326,"organisme":4327,"Ġlieux":4328,"Ġsouligne":4329,"Â»,":4330,"ĠarrÃª":4331,"Ġpap":4332,"Ġforte":4333,"Ã´m":4334,"Ġsouff":4335,"oit":4336,"liquent":4337,"isent":4338,"Ġvice":4339,"Ġrelation":4340,"mÃ©diaire":4341,"ĠprÃ©sidence":4342,"cÃ©e":4343,"Ġcivils":4344,"Ġordre":4345,"ĠpÃªches":4346,"Ġaccr":4347,"ĠtrÃ©sor":4348,"diction":4349,"Ġproduire":4350,"Ġrig":4351,"Ġnavig":4352,"Ġproducteurs":4353,"Ġdiffus":4354,"\".":4355,"dessous":4356,"44":4357,"bas":4358,"Ġsimil":4359,"Ġmau":4360,"pection":4361,"mises":4362,"Ġpati":4363,"ga":4364,"Ġpuisque":4365,"Ġving":4366,"Ġconsulter":4367,"ds":4368,"Ġreconnaissance":4369,"ĠdonnÃ©e":4370,"ĠrÃ©alisÃ©s":4371,"Ġmanifest":4372,"ĠprÃ©sentÃ©e":4373,"iditÃ©":4374,"atement":4375,"Ġyork":4376,"exportation":4377,"Ġ36":4378,"ĠsystÃ©":4379,"Ġvolume":4380,"Ġdan":4381,"Ġglobal":4382,"sez":4383,"Ġcrime":4384,"Ġtraitements":4385,"Ġ90":4386,"Ġcontenant":4387,"Ġlabora":4388,"Ġstock":4389,"ĠprÃªts":4390,"Ġordonn":4391,"Ġ1993":4392,"eter":4393,"ĠdÃ©part":4394,"Ġhumaine":4395,"Ġartis":4396,"Ġ39":4397,"migration":4398,"Ġlogement":4399,"Ġmex":4400,"ĠÃ©coles":4401,"oss":4402,"ĠprocÃ©der":4403,"Ġapporter":4404,"enfants":4405,"Ġintergouvernement":4406,"ki":4407,"Ġactuel":4408,"Ġchefs":4409,"Ġprior":4410,"Ġmc":4411,"obligation":4412,"ĠdestinÃ©s":4413,"isÃ©":4414,"Ġ48":4415,"ĠfÃ©dÃ©raux":4416,"ĠpÃ©riodi":4417,"ingu":4418,"Ġrejet":4419,"armes":4420,"ood":4421,"ĠsupplÃ©mentaire":4422,"Ġcontrats":4423,"ĠtÃ¢ches":4424,"mobil":4425,"liers":4426,"Ġpense":4427,"Ã©nie":4428,"Ġappliquer":4429,"Ġtotale":4430,"ĠrÃ©serves":4431,"ĠdÃ©pass":4432,"ĠbÃ¢ti":4433,"Ġcentral":4434,"rimÃ©":4435,"Ġcivil":4436,"atte":4437,"he":4438,"Ġexcep":4439,"hÃ´tel":4440,"tabl":4441,"ennal":4442,"ĠvolontÃ©":4443,"ĠdÃ©finir":4444,"Ġpoursuiv":4445,"utiliser":4446,"Ġperf":4447,"fon":4448,"Ġaffich":4449,"Ġgenre":4450,"Ġgraves":4451,"Ġsugg":4452,"tastroph":4453,"Ġutilisateurs":4454,"ĠpÃ©tro":4455,"Ġslo":4456,"ives":4457,"ĠcollÃ¨g":4458,"effec":4459,"irs":4460,"ĠmenÃ©es":4461,"Ġcompagnie":4462,"Ġdevait":4463,"Ġlum":4464,"Ġsignifica":4465,"accueil":4466,"Ġcatastroph":4467,"ĠgenÃ¨ve":4468,"ĠorganisÃ©":4469,"ĠintÃ©rÃªt":4470,"61":4471,"Ġsexe":4472,"Ġrien":4473,"ola":4474,"ĠspÃ©ciales":4475,"47":4476,"Ġautant":4477,"auc":4478,"program":4479,"Ġtransparence":4480,"Ġcommerciale":4481,"duire":4482,"moins":4483,"37":4484,"Ġbl":4485,"Ġcollecte":4486,"Ġsusceptibles":4487,"Ġtaxe":4488,"Ã©cole":4489,"del":4490,"Ġfournis":4491,"Ġoffrir":4492,"ĠrecommandÃ©":4493,"mosph":4494,"Ġsaskat":4495,"Ġcommunes":4496,"oms":4497,"Ġperte":4498,"Ġ+":4499,"Ġresta":4500,"39":4501,"expression":4502,"ĠaccroÃ®tre":4503,"48":4504,"Ġlec":4505,"Ġtribunaux":4506,"Ġmots":4507,"Ġ55":4508,"Ġfl":4509,"Ġparvenir":4510,"Ġmode":4511,"Ġengagement":4512,"Ġnorme":4513,"ĠpiÃ¨ces":4514,"Ġcombat":4515,"Ġadditionn":4516,"ĠcollectivitÃ©":4517,"tidi":4518,"iant":4519,"35":4520,"Ġconduite":4521,"ĠallÃ©":4522,"Ġ1992":4523,"essai":4524,"Ġte":4525,"Ġdocumentation":4526,"ĠmillÃ©n":4527,"tiennent":4528,"Ġpermanente":4529,"isp":4530,"ussion":4531,"ĠhÃ´tel":4532,"Ġamend":4533,"Ġtient":4534,"Ġpremiers":4535,"Ġpouvant":4536,"ĠdÃ©mocratie":4537,"Ġrenouvel":4538,"Ġlead":4539,"Ġfal":4540,"Ġendro":4541,"Ġcess":4542,"alth":4543,"char":4544,"Ġtrou":4545,"Ġimporte":4546,"Ġretr":4547,"Ġmaison":4548,"Ġsoix":4549,"Ġmari":4550,"Ġcommercial":4551,"ĠassociÃ©s":4552,"66":4553,"Ġrob":4554,"commun":4555,"har":4556,"Ġcru":4557,"Ġdemeure":4558,"ĠexpÃ©rience":4559,"chewan":4560,"Ġphoto":4561,"quÃ©e":4562,"itter":4563,"erie":4564,"Ġsemaines":4565,"ĠÃ©vÃ©nements":4566,"Ġconva":4567,"Ġconforme":4568,"Ġmauva":4569,"Ġbord":4570,"Ġga":4571,"ĠrÃ©perc":4572,"ĠmillÃ©naire":4573,"ĠÃ©nergÃ©":4574,"Ġdynam":4575,"ĠprÃ©sentÃ©s":4576,"lÃ¨ves":4577,"Ġtravaille":4578,"Ġplainte":4579,"tc":4580,"Ġdiscussions":4581,"ruption":4582,"Ġcra":4583,"accep":4584,"yst":4585,"vid":4586,"onora":4587,"resser":4588,"Ġcomprennent":4589,"ĠquantitÃ©":4590,"Ġstructures":4591,"Ġatteint":4592,"less":4593,"ĠreprÃ©sentent":4594,"Ġ...":4595,"ĠsiÃ¨":4596,"Ġbri":4597,"formes":4598,"Ġchemin":4599,"Ġpourra":4600,"45":4601,"Ġmontre":4602,"cadre":4603,"Ġmeilleur":4604,"Ġnomination":4605,"Ġviolations":4606,"Ġsept":4607,"Ġ80":4608,"Ġnaturel":4609,"Ġlongue":4610,"88":4611,"Ġvil":4612,"ĠaugmentÃ©":4613,"Ġencourager":4614,"ĠnuclÃ©aire":4615,"Ġcourt":4616,"Ġap":4617,"Ġaccompagn":4618,"Ġinclu":4619,"Ġrue":4620,"diff":4621,"Ġobtenu":4622,"Ã¨le":4623,"Ġtextes":4624,"Ġcombin":4625,"erait":4626,"para":4627,"Ġvenir":4628,"Ġquotidi":4629,"siques":4630,"ĠvÃ©hicule":4631,"ĠprocÃ¨s":4632,"Ġcab":4633,"ĠeuropÃ©ennes":4634,"'s":4635,"ĠsituÃ©":4636,"Ġcirculation":4637,"Ġminimum":4638,"Ġperform":4639,"Ġindemn":4640,"Ġsor":4641,"Ġparcs":4642,"hip":4643,"dc":4644,"ĠpÃ©r":4645,"Ġsomme":4646,"Ġadul":4647,"Ġsimple":4648,"eng":4649,"ĠlumiÃ¨re":4650,"Ġappuyer":4651,"iens":4652,"Ġfilles":4653,"\",":4654,"ĠrÃ©percussions":4655,"Ġge":4656,"ĠminoritÃ©s":4657,"rastructures":4658,"ya":4659,"Ġauxquels":4660,"Ġsomm":4661,"rateurs":4662,"ĠquatriÃ¨me":4663,"Ġobstacles":4664,"Ġdiscussion":4665,"visionnement":4666,"ĠrÃ©v":4667,"ourg":4668,"Ġ49":4669,"Ġexter":4670,"Ġfre":4671,"Ġheure":4672,"utÃ©s":4673,"seurs":4674,"Ġbiais":4675,"Ġassur":4676,"Ġcorps":4677,"Ġreti":4678,"oug":4679,"fond":4680,"active":4681,"Ġportu":4682,"ĠconsidÃ©ration":4683,"ju":4684,"infrastructure":4685,"Ġ2010":4686,"aider":4687,"effet":4688,"Ã©l":4689,"Ġbiblio":4690,"Ġsuffisamment":4691,"ĠdÃ©rou":4692,"lÃ©es":4693,"âĢĲ":4694,"Ã©der":4695,"Ġanimaux":4696,"Ġretraite":4697,"Ġpsych":4698,"ĠocÃ©":4699,"adaptation":4700,"Ġcomportement":4701,"affaire":4702,"anda":4703,"anmoins":4704,"crire":4705,"Ġvar":4706,"dr":4707,"Ġgouvernementaux":4708,"affec":4709,"Ġjournal":4710,"ĠdÃ©lais":4711,"Ġmotifs":4712,"ĠutilisÃ©e":4713,"tat":4714,"rite":4715,"Ġsuc":4716,"Ġillic":4717,"ĠÃ©changes":4718,"enz":4719,"Ġspati":4720,"Ã¨tes":4721,"ĠconsidÃ©rÃ©":4722,"Ġgam":4723,"tionnels":4724,"liquÃ©":4725,"ĠÃ©chÃ©ant":4726,"Ġviolation":4727,"ĠnÃ©anmoins":4728,"orientation":4729,"Ġ47":4730,"isition":4731,"Ġ1991":4732,"Ġgard":4733,"ĠeffectuÃ©":4734,"tionnement":4735,"Ġpatients":4736,"ĠtempÃ©ra":4737,"ĠsÃ©ances":4738,"Ġculturels":4739,"ĠprÃ©par":4740,"Ġhors":4741,"Ġmanitoba":4742,"ĠÃ©tablissement":4743,"kistan":4744,"Ġinternes":4745,"Ġinstrument":4746,"ciale":4747,"ĠjournÃ©e":4748,"ĠÃ©valuations":4749,"viennent":4750,"ĠadoptÃ©es":4751,"ĠprÃ©vus":4752,"Ġplaintes":4753,"Ġconver":4754,"ĠcÃ´tÃ©":4755,"Ġadopter":4756,"Ġperfec":4757,"Ġstu":4758,"Ġprochaine":4759,"ĠdÃ©tention":4760,"asie":4761,"ĠdegrÃ©":4762,"Ġconventions":4763,"Ġconsens":4764,"uler":4765,"Ġregr":4766,"1999":4767,"Ġvaste":4768,"Ġbur":4769,"itiÃ©":4770,"Ġspec":4771,"Ã©riques":4772,"ida":4773,"ĠthÃ¨me":4774,"rs":4775,"autorisation":4776,"ĠhÃ´":4777,"Ġessais":4778,"oxy":4779,"ĠconsidÃ¨re":4780,"Â«":4781,"orth":4782,"Ġpoids":4783,"Ġdoute":4784,"ĠÃ®":4785,"Ġpoll":4786,"Ã©cos":4787,"Ġbrevets":4788,"Ġhistorique":4789,"Ġvois":4790,"agissant":4791,"nement":4792,"Ġpension":4793,"ilibre":4794,"Ġparfois":4795,"Ġutilisant":4796,"Ġcult":4797,"Ġcandidat":4798,"ail":4799,"ĠexÃ©cutif":4800,"interprÃ©tation":4801,"ates":4802,"extÃ©rieur":4803,"Ġnutri":4804,"oudre":4805,"aliser":4806,"Ġchacune":4807,"ĠconsidÃ©rÃ©e":4808,"Ġinfec":4809,"Ġtorture":4810,"ĠcomitÃ©s":4811,"Ġmaximum":4812,"38":4813,"letin":4814,"Ġdevra":4815,"Ġremboursement":4816,"Ġexportations":4817,"mine":4818,"ĠgÃ©rer":4819,"Ġapplicable":4820,"Ġconstru":4821,"ĠplÃ©n":4822,"long":4823,"quÃ©es":4824,"Ġsubvention":4825,"Ġcomplet":4826,"Ġautoma":4827,"Ġber":4828,"Ġacte":4829,"ĠapprÃ©":4830,"ula":4831,"Ġtendances":4832,"ĠmÃ©r":4833,"ĠchargÃ©e":4834,"ĠfÃ©licite":4835,"Ġtps":4836,"ĠbudgÃ©taires":4837,"Ġcomposition":4838,"argent":4839,"Ġmenace":4840,"Ġbis":4841,"Ġreconnu":4842,"ĠÃ©chantill":4843,"Ġste":4844,"enci":4845,"anistan":4846,"Ġhom":4847,"Ġ32":4848,"ala":4849,"ghanistan":4850,"Ġmol":4851,"Ġpotentiel":4852,"habitat":4853,"Ġconcr":4854,"ĠÃ©lectroniques":4855,"Ġtendance":4856,"ĠprÃ©sidente":4857,"Ġsenti":4858,"Ġlutter":4859,"ĠimmÃ©diatement":4860,"Ġaient":4861,"Ġexerc":4862,"ĠintÃ©grÃ©e":4863,"we":4864,"Ġsoup":4865,"ĠprÃ©li":4866,"environ":4867,"36":4868,"ĠcomprÃ©h":4869,"Ġnouvel":4870,"Ġbila":4871,"lut":4872,"Ġprovinciaux":4873,"ĠÃ©lÃ¨ves":4874,"Ġclassification":4875,"ĠbÃ©nÃ©ficier":4876,"Ġindiquer":4877,"programme":4878,"Ġpression":4879,"ĠprÃ©jud":4880,"Ġsignature":4881,"histoire":4882,"Ġmouvement":4883,"Ġprofessionnel":4884,"Ġentendu":4885,"ĠphÃ©n":4886,"icat":4887,"Ġquoi":4888,"rang":4889,"Ġpopu":4890,"ĠÃ©viter":4891,"Ġscience":4892,"Ġassociations":4893,"Ġinscr":4894,"arma":4895,"ĠvisÃ©es":4896,"Ġpetite":4897,"ĠconcernÃ©s":4898,"Ġdette":4899,"Ġvingt":4900,"Ġouvert":4901,"ĠrÃ©gimes":4902,"ude":4903,"ĠdiffÃ©rences":4904,"exposition":4905,"approbation":4906,"Ġsanc":4907,"ĠdÃ©termination":4908,"Ġtch":4909,"Ġcam":4910,"Ġcadres":4911,"Ġrecens":4912,"ĠbibliothÃ¨":4913,"ĠdÃ©tails":4914,"ĠinvitÃ©":4915,"Ġrecrutement":4916,"ĠchaÃ®":4917,"Ġdistinc":4918,"agers":4919,"Ġ00":4920,"andes":4921,"Ġgratu":4922,"Ġfourniture":4923,"Ġdevenir":4924,"sivement":4925,"iction":4926,"Ġgarantie":4927,"html":4928,"Ġexercice":4929,"Ġauquel":4930,"Ġactive":4931,"34":4932,"atifs":4933,"Ġbulletin":4934,"Ġprie":4935,"quent":4936,"ĠtÃ©lÃ©copie":4937,"isson":4938,"Ġessentiellement":4939,"Ġmor":4940,"Ġconsensus":4941,"ĠprÃ©para":4942,"Ġpresque":4943,"Ġ70":4944,"ĠmÃ©n":4945,"ifor":4946,"ĠprÃ©sentÃ©es":4947,"Ġbru":4948,"Ġlaiss":4949,"Ġpertinents":4950,"esprit":4951,"tionnelles":4952,"Ġsurface":4953,"Ġbless":4954,"ley":4955,"Ġtirer":4956,"Ġtenant":4957,"ko":4958,"ĠÃ©levÃ©s":4959,"adhÃ©sion":4960,"wick":4961,"Ã©rÃ©e":4962,"Ġvacc":4963,"Ġcorrec":4964,"Ġlingu":4965,"Ġoui":4966,"Ġproportion":4967,"Ġsaskatchewan":4968,"uits":4969,"Ġfaudrait":4970,"Ã©rÃ©es":4971,"Ġcouver":4972,"usage":4973,"ĠprÃ©alable":4974,"aur":4975,"Ġ%)":4976,"Ġpossibles":4977,"62":4978,"tor":4979,"Ġannuelle":4980,"ĠintÃ©rim":4981,"Ġfaibles":4982,"son":4983,"Ġexcell":4984,"Ġjurid":4985,"ĠrÃ©ception":4986,"Ġpouvait":4987,"ĠsiÃ¨cle":4988,"ĠmodifiÃ©":4989,"Ġliqu":4990,"ĠvisÃ©s":4991,"nous":4992,"Ã§ons":4993,"approche":4994,"atif":4995,"ĠspÃ©ciaux":4996,"ck":4997,"ĠlimitÃ©e":4998,"Ġclimatiques":4999,"Ġhausse":5000,"Ġinvite":5001,"ĠprÃ©cise":5002,"Ġinterventions":5003,"Ġutilise":5004,"Ġconseiller":5005,"Ġlocale":5006,"Ġmontants":5007,"Ġmach":5008,"Ġgestionnaires":5009,"Ã©rance":5010,"ĠprÃ©parer":5011,"Ġ44":5012,"ĠsÃ»retÃ©":5013,"immigration":5014,"Ġsembla":5015,"Ġ57":5016,"Ġautonom":5017,"Ġvoit":5018,"Ġobligatoire":5019,"ispens":5020,"ĠlÃ©gi":5021,"Ġalimentaires":5022,"Ġcalend":5023,"oure":5024,"Ġparal":5025,"ienne":5026,"sifs":5027,"Ġ99":5028,"Ġong":5029,"Ġfacteur":5030,"achat":5031,"Ġltd":5032,"Ġclair":5033,"Ġeau":5034,"Ġhydro":5035,"Ġferme":5036,"Ġtitulaire":5037,"alimentation":5038,"Ã©valuer":5039,"Ã´ts":5040,"Ã©quipement":5041,"Ġassure":5042,"Ġadministration":5043,"amp":5044,"ĠsÃ©n":5045,"ĠrÃ©vÃ©":5046,"Ġvision":5047,"Ġprolong":5048,"ontal":5049,"oncer":5050,"**":5051,"trich":5052,"Ġadminis":5053,"nu":5054,"ĠforÃªts":5055,"Ġol":5056,"ĠamÃ©lio":5057,"Ġindispens":5058,"fp":5059,"ĠÃ©tablie":5060,"cueillir":5061,"undi":5062,"ĠÃ©tape":5063,"Ġharmon":5064,"Ġexemples":5065,"Ġsanctions":5066,"ĠconÃ§":5067,"Ġsimplement":5068,"Ġcrois":5069,"Ġpnud":5070,"ĠcomplÃ©":5071,"Ġira":5072,"Ġcompren":5073,"Ġadjoint":5074,"ties":5075,"Ġcompens":5076,"Ġvendre":5077,"Ġfabric":5078,"ĠfrontiÃ¨res":5079,"Ġarchives":5080,"Ġsond":5081,"Ġofficielle":5082,"Ġwh":5083,"installation":5084,"Ġperspectives":5085,"ĠvidÃ©":5086,"Ġvilles":5087,"Ġmarques":5088,"ĠÃ©tablis":5089,"ĠcongÃ©":5090,"approvisionnement":5091,"Ġtemporaire":5092,"gal":5093,"itations":5094,"Ġsuisse":5095,"Ġrecons":5096,"Ġcongo":5097,"Ġemplois":5098,"ĠcommencÃ©":5099,"ffis":5100,"Ã©laborer":5101,"Ġculturelles":5102,"Ġcat":5103,"Ġadresse":5104,"vidus":5105,"Ġregistre":5106,"Ġquelles":5107,"Ġpollution":5108,"Ġimmobil":5109,"Ġloin":5110,"Ġdirigeants":5111,"ĠtÃ©lÃ©vision":5112,"Ġefficacement":5113,"Ġprofit":5114,"entement":5115,"Ġsignifie":5116,"68":5117,"ĠrÃ©guliÃ¨rement":5118,"ĠdÃ£":5119,"Ġgamme":5120,"ÃŃ":5121,"intro":5122,"exemp":5123,"yle":5124,"Ġquar":5125,"Ġmm":5126,"ĠunitÃ©s":5127,"Ġtiss":5128,"ĠdÃ©cenn":5129,"tements":5130,"Ġobtenus":5131,"Ġrecouv":5132,"Ġmines":5133,"doc":5134,"ĠrÃ©tabl":5135,"umer":5136,"Ġ58":5137,"Ġrespectivement":5138,"ĠprÃ©cÃ©dent":5139,"rid":5140,"Ġremplir":5141,"Ġchange":5142,"Ã®le":5143,"ĠÃ©laborÃ©":5144,"ĠillÃ©g":5145,"Ġvoix":5146,"raine":5147,"ĠvÃ©rifier":5148,"32":5149,"ĠmÃ©dicaux":5150,"cl":5151,"Ġlargement":5152,"incid":5153,"Ġrequis":5154,"Ġradiodiff":5155,"fe":5156,"Ġminutes":5157,"ĠÃ©qui":5158,"Ġmaritime":5159,"ĠbudgÃ©taire":5160,"icateur":5161,"olu":5162,"Ġveut":5163,"ancouver":5164,"Ġappara":5165,"Ġdistric":5166,"orde":5167,"delÃł":5168,"Ġesc":5169,"Ġsoumettre":5170,"ouss":5171,"icef":5172,"Ġconcentration":5173,"atiques":5174,"ĠÃ©du":5175,"unswick":5176,"Ġrang":5177,"ĠappropriÃ©es":5178,"Ã´mage":5179,"64":5180,"Ġsauve":5181,"ĠcomprÃ©hension":5182,"tabilitÃ©":5183,"Ġraisonnable":5184,"ĠÃ©quipe":5185,"contre":5186,"ban":5187,"ĠcinquiÃ¨me":5188,"Ġ75":5189,"Ġvisi":5190,"Ġpourront":5191,"Ġpassage":5192,"bs":5193,"nie":5194,"Ġinscrit":5195,"Ġtransmission":5196,"Ġtransformation":5197,"Ġadoption":5198,"Ġbande":5199,"rad":5200,"Ġconseill":5201,"ĠlancÃ©":5202,"Ġ59":5203,"Ġaccrue":5204,"offre":5205,"Ġdispositifs":5206,"Ġpertes":5207,"Ġapprofon":5208,"tier":5209,"Ġjeux":5210,"thÃ¨se":5211,"Ġbass":5212,"dan":5213,"Ġpouvons":5214,"Ġsoulev":5215,"ĠcÃ´te":5216,"Ġassez":5217,"Ġbaisse":5218,"cap":5219,"Ġacteurs":5220,"nouv":5221,"ĠnotÃ©":5222,"ĠrÃ©uss":5223,"omc":5224,"Ġceci":5225,"Ġcultures":5226,"ignant":5227,"Ġprogramm":5228,"Ġretard":5229,"tructions":5230,"ĠrÃ©d":5231,"Ġinde":5232,"Ġpayer":5233,"Ġparole":5234,"ĠÃ©quitable":5235,"Ġregard":5236,"Ġcertificat":5237,"inspection":5238,"Ġenfant":5239,"ĠmoitiÃ©":5240,"Ġfigurent":5241,"ĠparallÃ¨":5242,"Ġhong":5243,"Ġnoter":5244,"Ġratif":5245,"Ġmexique":5246,"Ġauront":5247,"Ġcombus":5248,"tralie":5249,"Ġirsc":5250,"Ġtourisme":5251,"Ġdonateurs":5252,"seur":5253,"ĠcontribuÃ©":5254,"Ġkos":5255,"ĠextrÃªme":5256,"col":5257,"Ġexprim":5258,"Ġinfrastructures":5259,"ĠdÃ©mo":5260,"ld":5261,"Ġchose":5262,"Ġculturel":5263,"ende":5264,"ĠpÃ©nal":5265,"Ġsport":5266,"bie":5267,"Ġtrouvent":5268,"Ġprochain":5269,"ĠÃ©tapes":5270,"Ġimportations":5271,"Ġconfidenti":5272,"ormais":5273,"Ġadmissibles":5274,"Ġrelevant":5275,"atoires":5276,"ĠspÃ©cifique":5277,"Ġoptions":5278,"Ġarabe":5279,"observation":5280,"Ġcomprom":5281,"Ġtrain":5282,"ĠdÃ©bats":5283,"Ġnour":5284,"appliquent":5285,"Ã¨que":5286,"Ġturquie":5287,"Ġfranco":5288,"onie":5289,"ĠreprÃ©sentation":5290,"Ġgaranties":5291,"instru":5292,"198":5293,"Ġ300":5294,"auche":5295,"Ġbiennal":5296,"inn":5297,"Ġbases":5298,"ĠtÃ¢che":5299,"ĠsignÃ©":5300,"Ġvancouver":5301,"Ġaven":5302,"Ġextraordin":5303,"Ġmeilleures":5304,"Ġcourant":5305,"Ġhuit":5306,"Ġbanques":5307,"alberta":5308,"Ġrurales":5309,"ĠtÃ©lÃ©commun":5310,"Ġgagn":5311,"Ġessentiels":5312,"Ġofficiel":5313,"Ġhos":5314,"entente":5315,"ĠrelÃ¨ve":5316,"Ġsoixante":5317,"visions":5318,"chÃ©s":5319,"Ġcommissions":5320,"Ġ95":5321,"ĠrÃ©gler":5322,"Ġnotes":5323,"Ġstim":5324,"Ġparis":5325,"Ġprivil":5326,"Ġ`":5327,"Ġoffic":5328,"ĠdÃ©cret":5329,"ĠdÃ©sormais":5330,"Ġkm":5331,"Ġchiffres":5332,"Ã©taient":5333,"613":5334,"ĠagrÃ©":5335,"Ġnavires":5336,"Ġentend":5337,"Ã³":5338,"sep":5339,"Ġ)":5340,"ĠcriminalitÃ©":5341,"ĠbrÃ©s":5342,"Ġrestrictions":5343,"Ġneuf":5344,"Ġstand":5345,"ah":5346,"Ã©rone":5347,"ĠrÃ©pa":5348,"Ġadultes":5349,"ium":5350,"Ġbos":5351,"ĠrÃ©di":5352,"aie":5353,"iliation":5354,"Ġho":5355,"Ġindustries":5356,"Ġremise":5357,"Ġbonnes":5358,"Ġcorruption":5359,"Ġmatern":5360,"ĠlibertÃ©s":5361,"entiel":5362,"ĠdÃ©ployÃ©s":5363,"ĠorganisÃ©e":5364,"por":5365,"Ġmich":5366,"ĠentitÃ©s":5367,"ĠtÃ©moign":5368,"ĠcorÃ©e":5369,"ĠrÃ©soudre":5370,"tÃ©raux":5371,"Ġamendements":5372,"Ġ77":5373,"Ġpoursuite":5374,"ĠintÃ©gra":5375,"ĠrÃ©formes":5376,"Ã©pendant":5377,"assade":5378,"Ġarbit":5379,"Ġressor":5380,"Ġrelever":5381,"Ġrecueil":5382,"chent":5383,"Ġtransform":5384,"eront":5385,"ĠdÃ©cÃ¨s":5386,"Ġdiscip":5387,"rÃ©gion":5388,"acquisition":5389,"dent":5390,"Ġusage":5391,"Ġcrimes":5392,"ĠisraÃ«l":5393,"41":5394,"Ġleaders":5395,"Ġdevront":5396,"intermÃ©diaire":5397,"ĠcÃ©rÃ©":5398,"Ġmot":5399,"Ġoccident":5400,"Ġventes":5401,"Ġofferts":5402,"Ġenj":5403,"ĠvisÃ©e":5404,"ĠÃ©vid":5405,"pos":5406,"Ġconcentrations":5407,"entretien":5408,"Ġprogres":5409,"ĠadressÃ©e":5410,"Ġdestruction":5411,"ends":5412,"Ġsm":5413,"ĠsÃ©par":5414,"Ġclimat":5415,"Ġcalendrier":5416,"ĠisraÃ©li":5417,"ĠultÃ©ri":5418,"Ġcancer":5419,"Ã©tiques":5420,"Ġtouchant":5421,"Ġsti":5422,"minaires":5423,"Ġenvironnementales":5424,"Ġsolid":5425,"Ġaccomplis":5426,"Ġcos":5427,"ĠhandicapÃ©es":5428,"Ġhealth":5429,"Ġhumain":5430,"pital":5431,"Ġcommuns":5432,"Ġlou":5433,"Ġchoses":5434,"ĠdestinÃ©es":5435,"Ġdiminution":5436,"ĠestimÃ©":5437,"parle":5438,"Ġfinancer":5439,"Ġtabac":5440,"ĠbÃ©":5441,"Ġregroup":5442,"Ġdirecteurs":5443,"ĠÃ©tablies":5444,"identitÃ©":5445,"Ġtransit":5446,"Ġdouanes":5447,"Ġenvers":5448,"Ġformat":5449,"ĠdÃ©terminÃ©":5450,"Ġincomb":5451,"Ġmention":5452,"Ġculturelle":5453,"ĠinformÃ©":5454,"chn":5455,"Ġincidences":5456,"Ġprobablement":5457,"Ġocca":5458,"ĠsupÃ©rieure":5459,"Ġdel":5460,"ĠocÃ©ans":5461,"Ã©pendance":5462,"ĠÃ©quival":5463,"Ġactuelles":5464,"Ġquels":5465,"Ġlocation":5466,"Ġterroristes":5467,"istiques":5468,"Ġpauvres":5469,"Ã©rap":5470,"Ġdouble":5471,"ĠprÃ©sentes":5472,"titution":5473,"ĠentiÃ¨rement":5474,"Ġactivement":5475,"cra":5476,"Ġcartes":5477,"Ġproactive":5478,"mÃªmes":5479,"ĠprÃªt":5480,"69":5481,"Ġmessage":5482,"trique":5483,"ĠÃ©duca":5484,"bler":5485,"ee":5486,"ĠprocÃ©dÃ©":5487,"auto":5488,"Ġsalari":5489,"istant":5490,"Ġindustrie":5491,"65":5492,"Ġpartis":5493,"issait":5494,"Ġsexuelle":5495,"ĠrÃ©alitÃ©":5496,"ĠlÃ©gislatives":5497,"Ġha":5498,"Ġeffectuer":5499,"employeur":5500,"Ġadministratif":5501,"Ġsouligner":5502,"ĠphÃ©nom":5503,"Ġconjoint":5504,"Ġpages":5505,"Ġradi":5506,"Ġstation":5507,"wn":5508,"osla":5509,"Ġjury":5510,"ĠrÃ©sidence":5511,"ĠspÃ©cialistes":5512,"Ġray":5513,"Ġconnu":5514,"ĠrÃ©clam":5515,"Ġom":5516,"ty":5517,"ĠprÃ©cÃ©dente":5518,"ĠdÃ©coulant":5519,"Ġconvenu":5520,"ĠdiffÃ©rence":5521,"Ġparticipant":5522,"Ġcul":5523,"lifÃ©ration":5524,"ĠdÃ©gra":5525,"):":5526,"identification":5527,"Ġtre":5528,"asp":5529,"ĠlibÃ©ra":5530,"ĠindÃ©pendant":5531,"Ġbanc":5532,"isÃ©e":5533,"euros":5534,"Ã©nagement":5535,"agir":5536,"Ġtoxic":5537,"Ġopport":5538,"Ġcommencer":5539,"exig":5540,"Ġentrepris":5541,"Ġblan":5542,"ovo":5543,"Ġ41":5544,"43":5545,"Ġquestionn":5546,"Ġentente":5547,"ĠassemblÃ©e":5548,"Ã¨tre":5549,"ĠnÃ©gociation":5550,"Ġfondation":5551,"Ġprati":5552,"Ġincor":5553,"Ġaccus":5554,"sa":5555,"Ġautom":5556,"ĠrÃ©ussi":5557,"Ġflo":5558,"olesc":5559,"Ġenvisag":5560,"espÃ¨ce":5561,"entreprises":5562,"Ġdim":5563,"ĠprÃ©voir":5564,"Ã©cosse":5565,"Ġexistants":5566,"inscription":5567,"ĠÃ©conomies":5568,"erm":5569,"Ġaller":5570,"Ġattend":5571,"73":5572,"Ġagent":5573,"ĠprÃ©sentent":5574,"atlantique":5575,"Ã©lÃ¨":5576,"Ġallant":5577,"harmon":5578,"tures":5579,"--------":5580,"Ġapport":5581,"ĠdatÃ©e":5582,"Ġremplacement":5583,"Ġcertaine":5584,"irmer":5585,"ĠannoncÃ©":5586,"unicef":5587,"ĠprÃ©occupation":5588,"Ġdispositif":5589,"Ġgl":5590,"Ġmanifes":5591,"Ġauxquelles":5592,"Ġlivre":5593,"Ġstocks":5594,"Ġpopulaire":5595,"Ġfamiliale":5596,"inet":5597,"Ġpartout":5598,"Ġrappelant":5599,"Ġconsolidation":5600,"brunswick":5601,"Ġutiles":5602,"cool":5603,"Ġpresta":5604,"meu":5605,"feu":5606,"ĠparticuliÃ¨res":5607,"ĠaccordÃ©e":5608,"Ġras":5609,"ĠmaÃ®":5610,"Ġentier":5611,"ĠaÃ©ro":5612,"Ġaper":5613,"cum":5614,"Ġliaison":5615,"Ġdomin":5616,"ĠbÃ©nÃ©ficiaires":5617,"Ġassu":5618,"accroÃ®tre":5619,"asi":5620,"Ġfondamentales":5621,"Ġformule":5622,"ukon":5623,"oriz":5624,"Ġparlementaire":5625,"Ġperspective":5626,"dn":5627,"allemagne":5628,"Ġpoly":5629,"ĠreconnaÃ®t":5630,"Ã´les":5631,"affectation":5632,"ĠdÃ©fi":5633,"Ġconclure":5634,"ĠemployÃ©":5635,"Ġprogrammation":5636,"Ġcoun":5637,"ĠintitulÃ©e":5638,"lt":5639,"Ġ42":5640,"imposition":5641,"Ġcre":5642,"Ġja":5643,"Ġsusc":5644,"tiers":5645,"Ġ%.":5646,"Ġenvironnementaux":5647,"Ġexh":5648,"ĠdÃ©cri":5649,"ary":5650,"Ġaqu":5651,"anim":5652,"Ġwas":5653,"line":5654,"anche":5655,"tec":5656,"Ġtransfr":5657,"ĠfondÃ©":5658,"Ġjustification":5659,"Ġpoissons":5660,"Ġdestination":5661,"Ġmodes":5662,"ĠÃ©levÃ©e":5663,"Ġgal":5664,"tell":5665,"indemn":5666,"ĠappropriÃ©e":5667,"ĠtempÃ©rature":5668,"ougosla":5669,"ĠeffectuÃ©es":5670,"rance":5671,"Ġec":5672,"accomp":5673,"Ġmoi":5674,"prÃ©sident":5675,"ĠÃ©nergÃ©tique":5676,"Ġmeilleurs":5677,"2009":5678,"icats":5679,"exception":5680,"Ġjeunesse":5681,"Ġdistribu":5682,"Ġatti":5683,"Ġgrave":5684,"Ġprenant":5685,"Ġtitres":5686,"Ġmettant":5687,"Ġprofond":5688,"ĠenregistrÃ©":5689,"Ã©chantill":5690,"Ġalli":5691,"Ġpharma":5692,"Ġincidence":5693,"ĠvulnÃ©rables":5694,"Ġsommaire":5695,"incidence":5696,"importation":5697,"encontre":5698,"ĠprÃ©visions":5699,"Ġafricaine":5700,"Ġcauses":5701,"pdf":5702,"90":5703,"ĠarmÃ©s":5704,"Ġmigrants":5705,"Ġlongtemps":5706,"Ġrent":5707,"Ġagence":5708,"Ġouverte":5709,"Ġlis":5710,"Ġkosovo":5711,"Ġgros":5712,"ville":5713,"Ġmineurs":5714,"Ġcontinuent":5715,"Ġactuels":5716,"Ġvites":5717,"ĠcontrÃ´les":5718,"ical":5719,"Ġtourn":5720,"Ã©larg":5721,"Ġcopie":5722,"Ġgol":5723,"interdiction":5724,"Ġcorrespondant":5725,"Ġindividus":5726,"Ġvoici":5727,"Ġed":5728,"Ġdra":5729,"Ġmultiples":5730,"Ġchoisir":5731,"Ġclau":5732,"Ġlimiter":5733,"idÃ©e":5734,"Ġ65":5735,"Ġrestre":5736,"Ġactifs":5737,"wp":5738,"ĠÃ©th":5739,"Ġcomplexe":5740,"Ġbate":5741,"Ġtraditionnels":5742,"80":5743,"Ġillus":5744,"Ġanciens":5745,"adopter":5746,"Ġsold":5747,"ĠvÃ©g":5748,"77":5749,"Ġsecondaire":5750,"Ã©tats":5751,"Ġconcept":5752,"Ġjuges":5753,"Ġvoies":5754,"ĠliÃ©e":5755,"ĠexposÃ©":5756,"Ġappareils":5757,"ĠconcernÃ©es":5758,"Ġsang":5759,"Ġdistance":5760,"Ġcircu":5761,"Ġcellules":5762,"Ġparam":5763,"cides":5764,"onorable":5765,"orise":5766,"Ġdommages":5767,"ted":5768,"Ġradiodiffusion":5769,"employÃ©":5770,"ĠmenÃ©e":5771,"ĠprÃ©ciser":5772,"Ġ54":5773,"ĠÎ":5774,"Ġuniversity":5775,"yth":5776,"isÃ©s":5777,"ĠreconnaÃ®tre":5778,"intÃ©gritÃ©":5779,"Ġspor":5780,"Ġlux":5781,"ĠÃ©noncÃ©s":5782,"ars":5783,"hÃ©":5784,"Ġyukon":5785,"ĠmentionnÃ©":5786,"Ġalberta":5787,"ĠchÃ´mage":5788,"Ġmenaces":5789,"opÃ©ration":5790,"Ġpme":5791,"ĠÃ¢gÃ©es":5792,"ĠaÃ©rien":5793,"ĠdestinÃ©":5794,"Ã©tudi":5795,"Ġconformes":5796,"itec":5797,"Ġremplacer":5798,"utÃ©":5799,"ĠamÃ©lioration":5800,"ĠproposÃ©e":5801,"Ġfrancoph":5802,"Ġauraient":5803,"effectu":5804,"Ġ]":5805,"Ġperfectionnement":5806,"Ġmada":5807,"ĠsÃ©jour":5808,"Ġcuba":5809,"ymp":5810,"graphie":5811,"Ġhumanitaires":5812,"Ġinterpr":5813,"neuve":5814,"illi":5815,"ik":5816,"fait":5817,"Ġscolaire":5818,"ĠÃ©quipes":5819,"Ġconstituer":5820,"Ġprovo":5821,"Ġsoulign":5822,"tons":5823,"Ġfc":5824,"Ġcee":5825,"ĠÃ©conomie":5826,"ĠdÃ©marche":5827,"ĠuniversitÃ©s":5828,"ĠÅĵu":5829,"Ġ43":5830,"75":5831,"ĠeffectuÃ©e":5832,"Ġnoms":5833,"Ġvues":5834,"Ġcommercialisation":5835,"ĠautorisÃ©":5836,"excell":5837,"cin":5838,"tricitÃ©":5839,"ĠcommuniquÃ©":5840,"Ġdiploma":5841,"ouverne":5842,"98":5843,"Ġinclure":5844,"internet":5845,"Ġlaboratoire":5846,"ĠchargÃ©s":5847,"ĠconsidÃ©rant":5848,"ĠcollÃ¨gues":5849,"Ġseconde":5850,"ĠintÃ©ressÃ©s":5851,"ĠÃ®les":5852,"ĠuniversitÃ©":5853,"Ġencourag":5854,"ĠappropriÃ©":5855,"Ġdiss":5856,"ĠthÃ¨mes":5857,"Ġconstruc":5858,"Ġconsentement":5859,"enc":5860,"Ġvaloir":5861,"quant":5862,"ĠdÃ©tenus":5863,"Ġ56":5864,"Ġsatisfaire":5865,"ĠÃ©liminer":5866,"gue":5867,"reurs":5868,"lacement":5869,"olÃ©rance":5870,"tendue":5871,"Ġden":5872,"issante":5873,"dience":5874,"Ġextraordinaire":5875,"opinion":5876,"tuel":5877,"ĠproposÃ©es":5878,"Ġbrevet":5879,"Ġpilo":5880,"Ġinstitution":5881,"ĠmatÃ©riaux":5882,"ĠrÃ©pondants":5883,"igh":5884,"Ġvac":5885,"Ġby":5886,"Ġordinaire":5887,"tagne":5888,"Ġvivant":5889,"Ġcomport":5890,"Ġeffectivement":5891,"ft":5892,"Ġoffice":5893,"Ġmadame":5894,"ĠtÃ©lÃ©communications":5895,"Ġlettres":5896,"Ġmasse":5897,"ĠprivÃ©s":5898,"Ġaffaire":5899,"encour":5900,"dia":5901,"ĠconsidÃ©rablement":5902,"Ġraciale":5903,"commiss":5904,"ĠpÃ©riodes":5905,"Ġfidu":5906,"Ġsatell":5907,"Ġlour":5908,"ĠintÃ©grÃ©":5909,"Ġinfractions":5910,"ĠriviÃ¨re":5911,"Ġdirecte":5912,"Ġmusique":5913,"Ġnova":5914,"arri":5915,"Ġurg":5916,"ws":5917,"ĠexposÃ©s":5918,"agnos":5919,"ĠeffectuÃ©s":5920,"ĠsuÃ¨de":5921,"Ġmanu":5922,"Ġadministrative":5923,"ĠgÃ©ographique":5924,"ast":5925,"Ġexistantes":5926,"ĠpublicitÃ©":5927,"Ġflu":5928,"Ġsessions":5929,"so":5930,"Ġaugmenter":5931,"Ġindire":5932,"ĠrÃ©alisÃ©":5933,"Ġsurv":5934,"Ġsocio":5935,"Ã©quitÃ©":5936,"ĠsÃ»r":5937,"titudes":5938,"manie":5939,"iseaux":5940,"bo":5941,"ĠrÃ©duit":5942,"alisme":5943,"Ġmilliers":5944,"Ġimpact":5945,"Ġdanger":5946,"Ġnotification":5947,"Ġstric":5948,"ĠtÃ©lÃ©copieur":5949,"Ġpoisson":5950,"Ġrappelle":5951,"Ġsubstance":5952,"Ġjean":5953,"taient":5954,"ule":5955,"Ġcotis":5956,"sp":5957,"Ġ85":5958,"mm":5959,"Ġvisent":5960,"effor":5961,"Ġavoc":5962,"Ġprojec":5963,"Ġtravaillent":5964,"poque":5965,"42":5966,"ham":5967,"Ġgla":5968,"tront":5969,"Ġdimension":5970,"octro":5971,"Ġchances":5972,"Ġrencontre":5973,"ĠaperÃ§u":5974,"ĠbÃ©nÃ©vo":5975,"triques":5976,"Ġher":5977,"erte":5978,"ĠÃ©troite":5979,"ĠextrÃªmement":5980,"ionn":5981,"ĠmortalitÃ©":5982,"estation":5983,"Ġlacs":5984,"Ġsoutenu":5985,"na":5986,"97":5987,"xx":5988,"ĠrÃ©action":5989,"ĠbrÃ©sil":5990,"organisations":5991,"ark":5992,"Ġmanuel":5993,"ĠconstatÃ©":5994,"ĠidÃ©":5995,"Ġcc":5996,"ĠcomposÃ©":5997,"Ġwith":5998,"ĠdÃ©lib":5999,"ĠvÃ©ritable":6000,"Ġimprim":6001,"ĠrequÃ©rant":6002,"ĠaccordÃ©":6003,"mentionn":6004,"Ġchr":6005,"Ġinspec":6006,"tÃ£":6007,"Ġappels":6008,"Ġmg":6009,"Ġvient":6010,"Ġenjeux":6011,"Ġallem":6012,"Ġvoyages":6013,"Ġoccasion":6014,"ĠamÃ©ricains":6015,"Ġcanadian":6016,"ĠreÃ§ues":6017,"Ġcontinuera":6018,"Ġpleine":6019,"Ġplur":6020,"Ġprochaines":6021,"Ġofficiels":6022,"ĠcompÃ©tentes":6023,"Ġrub":6024,"Ġajouter":6025,"ĠunitÃ©":6026,"Ġappartenant":6027,"................................":6028,"ĠmÃ©l":6029,"Ġobligation":6030,"Ġdispens":6031,"Ġenvoy":6032,"ĠrÃ©cente":6033,"Ġhu":6034,"alisÃ©s":6035,"Ġfera":6036,"Ġparent":6037,"Ġmoteur":6038,"Ġpou":6039,"ced":6040,"change":6041,"ĠdisponibilitÃ©":6042,"Ġfutures":6043,"icience":6044,"Ġsimplif":6045,"Ġ400":6046,"Ġsymp":6047,"46":6048,"Ġpuissance":6049,"Ġautour":6050,"Ġinstructions":6051,"ervateurs":6052,"ortÃ©":6053,"Ã¶":6054,"Ġrural":6055,"Ġprofonde":6056,"Ġfacilement":6057,"Ġapplications":6058,"ĠdÃ©couver":6059,"Ġanalyses":6060,"Ġdevaient":6061,"ĠtÃ©l":6062,"Ġdirectrice":6063,"Ġcontamin":6064,"Ġpapier":6065,"Ġparticipent":6066,"itÃ©e":6067,"ĠfÃ©dÃ©rales":6068,"Ġhabituellement":6069,"Ġgroup":6070,"tration":6071,"ĠÃ©cos":6072,"ĠrevÃª":6073,"Ġdoc":6074,"ĠpÃ©trole":6075,"Ġsusmentionn":6076,"Ġchin":6077,"95":6078,"Ġatmosph":6079,"Ġparler":6080,"Ġhal":6081,"lons":6082,"Ġallemagne":6083,"gen":6084,"Ġ%,":6085,"tÃ©ral":6086,"Ġsoudan":6087,"ĠconsacrÃ©":6088,"Ġacquis":6089,"Ġcouverture":6090,"ish":6091,"Ġfixe":6092,"Ġindustrielle":6093,"Ġsort":6094,"biliser":6095,"isations":6096,"inv":6097,"Ġadministrations":6098,"ĠprÃ©liminaire":6099,"ĠreflÃ¨":6100,"ho":6101,"Ã¨ges":6102,"guer":6103,"Ġdiagnos":6104,"Ġquarti":6105,"Ġconfirm":6106,"issue":6107,"cee":6108,"Ġdomicile":6109,"Ġrepos":6110,"Ġassujet":6111,"Ġmondialisation":6112,"ĠaÃ©rienne":6113,"taux":6114,"Ġcatastrophes":6115,"ditions":6116,"Ġstade":6117,"io":6118,"Ġdistrict":6119,"ĠÃ©trangÃ¨re":6120,"Ġinstamment":6121,"ĠaxÃ©e":6122,"Ġretrouv":6123,"lies":6124,"Ġconseillers":6125,"ĠexprimÃ©":6126,"las":6127,"Ġexpress":6128,"erti":6129,"Ġcommande":6130,"ago":6131,"Ġperformance":6132,"ĠhÃ©":6133,"Ġimpliqu":6134,"Ġbac":6135,"Ġfabri":6136,"istÃ©":6137,"Ġadministr":6138,"Ġmr":6139,"itÃ£":6140,"ĠplÃ©niÃ¨re":6141,"Ġrequises":6142,"ĠdÃ©t":6143,"Ġindiquent":6144,"ĠdÃ©lin":6145,"Ġlicences":6146,"Ġprennent":6147,"Ġseuls":6148,"amens":6149,"iver":6150,"ĠnumÃ©rique":6151,"Ġislam":6152,"uc":6153,"Ã©mie":6154,"Ġfichier":6155,"Ġprocureur":6156,"chant":6157,"ĠfranÃ§aise":6158,"Ġend":6159,"Ġ88":6160,"Ġcontinent":6161,"existe":6162,"Ġimmig":6163,"Ġprofessionnelles":6164,"extra":6165,"oz":6166,"Ġprofil":6167,"influ":6168,"ĠespÃ©":6169,"ĠproductivitÃ©":6170,"Ġchron":6171,"Ġliban":6172,"Ġdevoir":6173,"Ġvraiment":6174,"Ġbiologique":6175,"Ġobserver":6176,"Ġportent":6177,"armÃ©e":6178,"Ġsyndic":6179,"Ġcarbone":6180,"indÃ©pendance":6181,"mestre":6182,"cession":6183,"enfance":6184,"Ġinscrits":6185,"ĠcongrÃ¨s":6186,"ologne":6187,"Ġcontribue":6188,"ĠmonÃ©taire":6189,"ĠmÃ©decins":6190,"Ã©sie":6191,"ppe":6192,"acquitter":6193,"Ġestimations":6194,"Ġadolesc":6195,"Ġdemandeur":6196,"Ġamples":6197,"Ġvolontaires":6198,"Ġdynamique":6199,"ĠcarriÃ¨re":6200,"Ġsil":6201,"cial":6202,"Ġgouverne":6203,"Ġconserver":6204,"Ã©ria":6205,"isÃ©es":6206,"Ġcomparaison":6207,"Ġpier":6208,"ĠinvitÃ©s":6209,"Ġprovincial":6210,"Ġpensions":6211,"Ġindispensable":6212,"aÃ©ro":6213,"vÃ©s":6214,"Ġarts":6215,"________________________________":6216,"ĠrÃ©el":6217,"gÃ¨ne":6218,"Ã©viter":6219,"Ġcabinet":6220,"ĠmusÃ©e":6221,"ĠcaraÃ¯":6222,"pour":6223,"jan":6224,"Ġbra":6225,"ĠrÃ©alisations":6226,"gin":6227,"Ġleadership":6228,"ĠdÃ©putÃ©s":6229,"Ġoffrent":6230,"Ġpdf":6231,"Ġsupr":6232,"Ġmodu":6233,"tÃ©rales":6234,"ĠcommuniquÃ©s":6235,"Ġintroduction":6236,"roissement":6237,"arition":6238,"ĠamÃ©liorations":6239,"canada":6240,"Ġateliers":6241,"Ġorientations":6242,"avec":6243,"onneur":6244,"Ġvitesse":6245,"Ġracisme":6246,"Ġreje":6247,"Ġententes":6248,"Ġcollective":6249,"Ġprioritaires":6250,"Ġmaximale":6251,"ĠrÃ©daction":6252,"Ġtaxes":6253,"ĠempÃªcher":6254,"ouvrir":6255,"arrÃªt":6256,"vÃ¨ge":6257,"raux":6258,"ĠrÃ©glementaires":6259,"Ġsimilaires":6260,"Ġmilieux":6261,"aci":6262,"Ġtrente":6263,"Ġflux":6264,"tants":6265,"gÃ©n":6266,"Ġdevez":6267,"car":6268,"Ġclimatique":6269,"introduction":6270,"Ġ46":6271,"Ġbour":6272,"Ġquin":6273,"Ġmentale":6274,"ĠcompÃ©titivitÃ©":6275,"Ġgestionnaire":6276,"publique":6277,"ĠmodifiÃ©e":6278,"Ġfacile":6279,"Ġcomplexes":6280,"exclusion":6281,"triche":6282,"Ġprimaire":6283,"ĠapprÃ©ci":6284,"appuyer":6285,"Ġwest":6286,"Ġliti":6287,"Ġdisposer":6288,"ĠspÃ©cialisÃ©es":6289,"nel":6290,"Ġmenac":6291,"acts":6292,"ĠmÃ©mo":6293,"Ġmy":6294,"Ġfile":6295,"oivent":6296,"Ġpalestinien":6297,"Ġgross":6298,"Ġremercier":6299,"octroi":6300,"Ġcm":6301,"ĠvisÃ©":6302,"Ġpuisqu":6303,"Ġdrogue":6304,"Ġappuie":6305,"ĠclÃ©":6306,"Ġvont":6307,"inÃ©e":6308,"ĠÃ©cou":6309,"ĠconsidÃ©rer":6310,"ĠmaÃ®tr":6311,"lez":6312,"Ġpollu":6313,"Ġart":6314,"Ġbelgique":6315,"Ġ53":6316,"ĠchaÃ®ne":6317,"Ġarrang":6318,"Ġmerc":6319,"ĠformulÃ©es":6320,"Ġautochtone":6321,"Ġcontribuent":6322,"Ġko":6323,"Ġsouver":6324,"dies":6325,"Ġcodes":6326,"Ġfinale":6327,"Ã©rir":6328,"ald":6329,"ĠprotÃ©":6330,"ĠfÃ©min":6331,"Ã©lection":6332,"hydro":6333,"Ġcontacts":6334,"ĠpiÃ¨ce":6335,"ĠbibliothÃ¨que":6336,"Ġbus":6337,"ĠconsidÃ©rÃ©s":6338,"Ġfavorable":6339,"Ġinitiale":6340,"ĠinfÃ©rieur":6341,"ĠprivÃ©es":6342,"ĠsupÃ©rieurs":6343,"ĠliÃ©":6344,"ĠcaraÃ¯bes":6345,"ansion":6346,"Ġproxim":6347,"Ġprescriptions":6348,"Ġcorporation":6349,"Ġenseignants":6350,"Ġnorth":6351,"honorable":6352,"Ġindirec":6353,"ĠmenÃ©":6354,"Ġferro":6355,"Ġisol":6356,"ceu":6357,"Ġvolontaire":6358,"ĠsÃ©ri":6359,"Ġratification":6360,"Ġwe":6361,"onomie":6362,"ĠidÃ©es":6363,"Ġlecture":6364,"ĠÃ©change":6365,"Ġlivres":6366,"Ġnig":6367,"Ġexercer":6368,"ĠappelÃ©":6369,"Ã¼":6370,"ĠintÃ©ressÃ©es":6371,"Ġ1989":6372,"bres":6373,"Ġnaissance":6374,"Ġvoulu":6375,"Ġvisiteurs":6376,"ĠÃ©num":6377,"Ġconstate":6378,"ington":6379,"Ġjudiciaires":6380,"rich":6381,"Ġkil":6382,"ĠÃ©ducation":6383,"ieuses":6384,"Ġ51":6385,"ĠvidÃ©o":6386,"quants":6387,"Ġapproches":6388,"Ġnavigation":6389,"esc":6390,"ĠdÃ©l":6391,"andu":6392,"pol":6393,"Ġadministratifs":6394,"Ġscru":6395,"Ġbosnie":6396,"als":6397,"appare":6398,"Ġvisites":6399,"ĠdÃ©clare":6400,"reu":6401,"ennetÃ©":6402,"Ã¨vement":6403,"dom":6404,"Ġmesurer":6405,"Ġessentielles":6406,"trans":6407,"Ġ52":6408,"lages":6409,"ings":6410,"guÃ©s":6411,"Ġillicite":6412,"Ġmarine":6413,"Ġinstance":6414,"Ġcorrection":6415,"ja":6416,"Ġsert":6417,"Ġhotel":6418,"ĠlÃ©giti":6419,"appelant":6420,"Ġemployeurs":6421,"index":6422,"Ġpreuves":6423,"ĠfrontiÃ¨re":6424,"ajou":6425,"Ġmad":6426,"Ġfortement":6427,"Ġteneur":6428,"Ġdispar":6429,"Ġinclus":6430,"Ġavantage":6431,"Ġunion":6432,"Ġdiscuter":6433,"rador":6434,"Ġmix":6435,"ĠexpÃ©riences":6436,"ĠpossÃ¨de":6437,"ĠavancÃ©s":6438,"alcool":6439,"Ġplate":6440,"moni":6441,"Ġphot":6442,"Ġ1987":6443,"erne":6444,"Ġsac":6445,"ĠantÃ©rieure":6446,"lue":6447,"Ġ04":6448,"Ġconserv":6449,"Ġmotiv":6450,"orteurs":6451,"gies":6452,"ĠalinÃ©a":6453,"Ġconvain":6454,"Ġabou":6455,"cements":6456,"ĠopÃ©rationnelles":6457,"amÃ©rica":6458,"Ġlatine":6459,"Ġfournies":6460,"Ġsatisfais":6461,"ĠrÃ©centes":6462,"Ġ02":6463,"ortateurs":6464,"Ġdiscrimin":6465,"aa":6466,"Ġblanc":6467,"Ġservi":6468,"Ġ01":6469,"Ġessentielle":6470,"utilis":6471,"ĠconÃ§u":6472,"imer":6473,"ĠÃ©vo":6474,"velop":6475,"offrir":6476,"Ã©lectricitÃ©":6477,"Ġprovenance":6478,"hom":6479,"Ġrevue":6480,"Ġpilote":6481,"pt":6482,"ĠengagÃ©":6483,"Ġ67":6484,"ĠlÃ©gislatif":6485,"Ġatteinte":6486,"earch":6487,"ĠirrÃ©":6488,"Ġaccorder":6489,"Ġplanif":6490,"run":6491,"Ġfar":6492,"Ġprofiter":6493,"ĠÃªtes":6494,"Ġeffective":6495,"udence":6496,"ministre":6497,"ĠtÃ©moins":6498,"ĠtÃ´t":6499,"Ã´me":6500,"ĠÃ©t":6501,"Ġsollic":6502,"Ġcibl":6503,"Ġsondage":6504,"rets":6505,"Ġreligie":6506,"Ġroumanie":6507,"igu":6508,"aucune":6509,"Ġmillion":6510,"Ġmotif":6511,"ĠdÃ©terminÃ©e":6512,"Ġferrovi":6513,"].":6514,"Ġespagn":6515,"ĠrÃ©gissant":6516,"arbit":6517,"ax":6518,"ĠdÃ©faut":6519,"Ġautrement":6520,"Ġreproduction":6521,"za":6522,"Ġparlementaires":6523,"ĠdÃ©signÃ©":6524,"entrer":6525,"Ġnomin":6526,"Ġ61":6527,"Ġrevend":6528,"Ġphysiques":6529,"Ġentrepren":6530,"Ġmagn":6531,"Ġcapitaux":6532,"ĠÃ©noncÃ©es":6533,"Ġfournissent":6534,"ĠfondÃ©es":6535,"Ġinh":6536,"Ġuk":6537,"ĠprÃ©server":6538,"Åĵur":6539,"ano":6540,"autom":6541,"mc":6542,"idation":6543,"ĠtÃ©lÃ©char":6544,"Ġautorisation":6545,"Ġdiscours":6546,"Ġdevient":6547,"Ġproche":6548,"Ġdonnent":6549,"ĠportÃ©":6550,"Ġcoordonner":6551,"Ġimpossi":6552,"atteindre":6553,"otechn":6554,"rera":6555,"Ġoffert":6556,"fer":6557,"ĠsuprÃªme":6558,"Ġjoue":6559,"Ġconten":6560,"ĠapportÃ©es":6561,"Ġbiologiques":6562,"ĠnorvÃ¨ge":6563,"tissement":6564,"Ġdav":6565,"ĠcoopÃ©ra":6566,"intement":6567,"Ġvivent":6568,"etat":6569,"Ġsalaire":6570,"Ġphili":6571,"Ġreprise":6572,"nex":6573,"Ġlistes":6574,"Ġmontrent":6575,"Ġcontractant":6576,"ĠnationalitÃ©":6577,"ila":6578,"bc":6579,"Ġ1988":6580,"Ġlancement":6581,"Ġtechnologique":6582,"Ġhypo":6583,"viÃ¨me":6584,"ĠappropriÃ©s":6585,"ĠdÃ©cider":6586,"amendement":6587,"loiement":6588,"Ġfournisseur":6589,"Ġpositive":6590,"Ġcd":6591,"ection":6592,"Ġlivraison":6593,"Ġtiendra":6594,"ĠfixÃ©":6595,"ĠconsidÃ©rable":6596,"ĠtchÃ¨que":6597,"Ġsubsi":6598,"Ġtraditionnelles":6599,"ĠprÃ©judice":6600,"Ġsoutient":6601,"ressions":6602,"iner":6603,"Ġinstitutionnels":6604,"Ġrecour":6605,"Ġenvisager":6606,"ĠcontrÃ´ler":6607,"urÃ©e":6608,"ĠindÃ©pendants":6609,"Ġ98":6610,"mping":6611,"Ġhabitants":6612,"prin":6613,"Ġrapportant":6614,"ĠdÃ©ri":6615,"ĠrÃ©sultant":6616,"Ġtests":6617,"ĠcomplÃ©mentaires":6618,"ĠrequÃªte":6619,"Ġlanc":6620,"vage":6621,"ĠmÃ©decine":6622,"Ġindustriels":6623,"hors":6624,"erra":6625,"instruction":6626,"Ġtenus":6627,"Ġfeuille":6628,"Ġcombattre":6629,"entraÃ®":6630,"Ġdevelop":6631,"Ġinsuffis":6632,"Ġfaudra":6633,"Ġinitial":6634,"Ġasie":6635,"Ġconjointement":6636,"ico":6637,"Ġtraduction":6638,"Ġarabes":6639,"ertise":6640,"Ġvolet":6641,"tante":6642,"iraq":6643,"ĠrÃ©pondu":6644,"Ã¤":6645,"ĠcohÃ©r":6646,"Ġpologne":6647,"ĠprÃ©sentant":6648,"amÃ©nagement":6649,"Ġinfraction":6650,"artis":6651,"Ġcorri":6652,"Ġpalestiniens":6653,"Ġdangereuses":6654,"Ġeffectifs":6655,"ĠrÃ©sistance":6656,"itÃ©es":6657,"Ġgraph":6658,"Ġafghanistan":6659,"Ġfrom":6660,"ĠtÃªte":6661,"Ġappelle":6662,"ĠconcrÃ¨tes":6663,"rÃ©publique":6664,"Ġlacunes":6665,"78":6666,"ĠacceptÃ©":6667,"Ġrenouvellement":6668,"Ġconscience":6669,"vabilitÃ©":6670,"ĠentrÃ©e":6671,"ĠthÃ©or":6672,"Ġlire":6673,"ĠconstituÃ©":6674,"ĠprÃ©cisÃ©ment":6675,"Ġindiquant":6676,"Ġfacultatif":6677,"ĠproximitÃ©":6678,"ĠrÃ©sidents":6679,"Ġgrc":6680,"Ġquestionnaire":6681,"Ġretrait":6682,"51":6683,"cupe":6684,"quÃ©bec":6685,"Ġnun":6686,"pm":6687,"ĠÃ©volution":6688,"Ġsections":6689,"ache":6690,"Ġ800":6691,"Ġplantes":6692,"orge":6693,"alisÃ©":6694,"Ġallou":6695,"Ã©mission":6696,"ĠdÃ©finitions":6697,"Ġchauff":6698,"Ġresearch":6699,"Ġbrut":6700,"Ġapparti":6701,"Ġnul":6702,"alistes":6703,"Ġsurveiller":6704,"Ġmou":6705,"ĠfrÃ©quence":6706,"Ġmessages":6707,"ĠrÃ©ussite":6708,"ĠnommÃ©":6709,"Ġcharges":6710,"Ġhoriz":6711,"Ġcotisations":6712,"Ġcapitale":6713,"andonn":6714,"54":6715,"endrait":6716,"Ġannuels":6717,"ourses":6718,"Ġentra":6719,"Ġreligion":6720,"hc":6721,"tribution":6722,"ĠdÃ©veloppÃ©s":6723,"und":6724,"Ġproposer":6725,"Ã¨dent":6726,"irlande":6727,"Ġpont":6728,"asile":6729,"Ġressort":6730,"Ġreport":6731,"cidents":6732,"exer":6733,"Ġfuturs":6734,"Ġpakistan":6735,"organismes":6736,"Ġblo":6737,"Ġendroit":6738,"Ġsav":6739,"Ġactif":6740,"ĠÃ©larg":6741,"Ġadh":6742,"Ġrh":6743,"Ġpost":6744,"Ã©ronefs":6745,"ĠdÃ©taillÃ©e":6746,"Ġbuts":6747,"Ġlogiciel":6748,"Ġreconstruction":6749,"Ġgouvernementale":6750,"Ġlogiciels":6751,"Ġdevi":6752,"actes":6753,"ĠreÃ§us":6754,"Ġplas":6755,"Ġsin":6756,"Ġtitulaires":6757,"ĠexcÃ©d":6758,"Ġ68":6759,"Ġsymb":6760,"Ġintervention":6761,"onnage":6762,"Ã©rant":6763,"location":6764,"96":6765,"Ġeuro":6766,"ĠultÃ©rieure":6767,"avaient":6768,"ertion":6769,"âĢĶ":6770,"Ġfinlande":6771,"Ġcritique":6772,"Ġvienne":6773,"giques":6774,"Ġsupport":6775,"ĠrÃ´les":6776,"ĠclientÃ¨le":6777,"Ġunifor":6778,"ĠcontinuÃ©":6779,"Ġgri":6780,"ĠrÃ©flex":6781,"Ġsoldats":6782,"Ġformuler":6783,"zÃ©":6784,"ĠsolidaritÃ©":6785,"ovine":6786,"owe":6787,"len":6788,"ulÃ©":6789,"Ġfranc":6790,"ĠamÃ©rique":6791,"Ġbourses":6792,"zÃ©g":6793,"Ġfournie":6794,"Ġindustriel":6795,"Ġavan":6796,"Ġpose":6797,"Ġinformer":6798,"ĠexpÃ©riment":6799,"Ġopportun":6800,"ĠmÃ©tÃ©":6801,"gents":6802,"ĠlÃ¢":6803,"ĠmÃ©rite":6804,"Ġtonnes":6805,"organe":6806,"zÃ©govine":6807,"tiles":6808,"ĠrÃ©cip":6809,"Ġmens":6810,"iration":6811,"Ġsubsidi":6812,"ĠmÃ¨re":6813,"emark":6814,"Ġfro":6815,"Ġexamens":6816,"Ġduquel":6817,"Ġdiam":6818,"Ġexamine":6819,"uxelles":6820,"ĠprÃ©sents":6821,"ĠappliquÃ©es":6822,"Ġformer":6823,"Ġdurables":6824,"ĠdÃ©placement":6825,"Ġfonctionnaire":6826,"nent":6827,"Ġgh":6828,"Ġpib":6829,"Ġchev":6830,"ĠrÃ©pÃ©":6831,"ĠdÃ©cennie":6832,"urants":6833,"outil":6834,"ziÃ¨me":6835,"Ġaccessible":6836,"Ġmoyennes":6837,"Ã©thique":6838,"Ġchale":6839,"Ġtransferts":6840,"Ġhistoriques":6841,"Ġargu":6842,"Ġinvestis":6843,"Ġfaute":6844,"the":6845,"Ġaccessibles":6846,"ĠÃ©lar":6847,"Ġinterdit":6848,"ĠprÃ©oc":6849,"ĠbÃ©nÃ©ficiaire":6850,"Ġdign":6851,"ocde":6852,"ĠrÃ©glementaire":6853,"70":6854,"tar":6855,"Ġatelier":6856,"Ġcollabo":6857,"ĠallÃ©gations":6858,"Ġcompar":6859,"Ġib":6860,"Ġtransactions":6861,"ĠdÃ©fic":6862,"Ġrappro":6863,"Ġimpossible":6864,"Ġjugement":6865,"Ġsecours":6866,"ĠautorisÃ©e":6867,"Ġvillage":6868,"ĠarmÃ©es":6869,"ĠrÃ©paration":6870,"Ġpouvaient":6871,"Ġsup":6872,"ĠprÃ©val":6873,"ĠthÃ©rap":6874,"Ġtan":6875,"ji":6876,"herzÃ©govine":6877,"Ġislamique":6878,"Ġpassagers":6879,"ambassade":6880,"Ġdisposent":6881,"Ġcont":6882,"endent":6883,"Ġsoi":6884,"cevoir":6885,"ĠÃ©vidence":6886,"Ġrassemb":6887,"ĠrÃ©cupÃ©":6888,"ĠrÃ©visÃ©":6889,"ouse":6890,"Ġadmissible":6891,"ettes":6892,"ae":6893,"Ġpouss":6894,"ĠÃ©tudier":6895,"Ġfichiers":6896,"bal":6897,"ĠlibÃ©ration":6898,"Ġrecueillir":6899,"Ġexemplaires":6900,"ĠdÃ©finis":6901,"ĠdiffÃ©rends":6902,"ĠÃ©tablit":6903,"Ġnomm":6904,"Ġsk":6905,"leurs":6906,"ĠparamÃ¨tres":6907,"Ġdar":6908,"ni":6909,"sh":6910,"ĠopÃ©rationnel":6911,"iation":6912,"ports":6913,"Ġnaturels":6914,"ĠdÃ©sir":6915,"ĠÃ©vol":6916,"admissi":6917,"ĠefficacitÃ©":6918,"Ġcommence":6919,"tv":6920,"ailleurs":6921,"rages":6922,"ĠautoritÃ©":6923,"ades":6924,"Ġnuit":6925,"actif":6926,"ĠprÃ£":6927,"Ġmoderne":6928,"Ġpoursuites":6929,"entitÃ©":6930,"ĠjouÃ©":6931,"ĠphÃ©nomÃ¨ne":6932,"Ġmanifestations":6933,"isses":6934,"Ġadolescents":6935,"Ġdistinction":6936,"tens":6937,"Ġmauvais":6938,"tenance":6939,"oeu":6940,"ĠextÃ©rieur":6941,"ĠassociÃ©":6942,"ĠenregistrÃ©s":6943,"Ġcliniques":6944,"Ġpersonnelles":6945,"Ġchoisi":6946,"Ġsouhaitent":6947,"Ġtableaux":6948,"Ġplais":6949,"ena":6950,"pect":6951,"Ġcomposante":6952,"Ġsolide":6953,"ony":6954,"Ġyougosla":6955,"entine":6956,"ĠrÃ©tablissement":6957,"Ġagro":6958,"ĠproposÃ©s":6959,"Ġattentes":6960,"iii":6961,"ĠministÃ©rielle":6962,"Ġrenseignement":6963,"ĠindÃ©pendante":6964,"Ã©rations":6965,"Ġnunav":6966,"Ġmouvements":6967,"Ġajus":6968,"ĠmÃ©thod":6969,"aurer":6970,"ĠengagÃ©s":6971,"Ġprotocoles":6972,"ĠprÃ©ven":6973,"Ġvan":6974,"ker":6975,"ĠÃ¢ge":6976,"Ġpes":6977,"ĠintÃ©grer":6978,"apporter":6979,"ĠÃ©troitement":6980,"ĠperÃ§":6981,"Ġfruits":6982,"ĠcitoyennetÃ©":6983,"Ġrester":6984,"ĠcÅĵur":6985,"ĠmÃ©decin":6986,"Ġitalie":6987,"Ġcur":6988,"Ġexternes":6989,"Ġeuros":6990,"rÃ©d":6991,"Ġinstitut":6992,"Ġlundi":6993,"ĠÃ©quipements":6994,"atie":6995,"omÃ©":6996,"deux":6997,"Ġrappeler":6998,"Ġvendredi":6999,"Ġsida":7000,"Ã©rie":7001,"bÃ©":7002,"Ġchem":7003,"Ġcampagn":7004,"Ġpointe":7005,"ĠrÃ©tro":7006,"accessi":7007,"harmonisation":7008,"Ġbruxelles":7009,"sb":7010,"ocation":7011,"Ġpermettront":7012,"Ġnotion":7013,"Ġmalheure":7014,"Ġsurven":7015,"Ġcourrier":7016,"gence":7017,"Ġvirus":7018,"ĠstÃ©":7019,"envo":7020,"ĠÃ¢gÃ©s":7021,"ĠdÃ©ploiement":7022,"Ġquarante":7023,"ĠtÃ©lÃ©phon":7024,"Ġ600":7025,"Ġmaritimes":7026,"Ġconcernent":7027,"Ġvoyageurs":7028,"Ġportugal":7029,"Ġconsulta":7030,"ĠbÃ¢timent":7031,"dra":7032,"Ġscol":7033,"ĠrÃ©fÃ©rences":7034,"uced":7035,"hi":7036,"Ã©quilibre":7037,"oth":7038,"ĠÃ©lectorale":7039,"Ġsaur":7040,"Ġcompagnies":7041,"ĠmobilitÃ©":7042,"ĠspÃ©cialisÃ©s":7043,"ĠqualitÃ©s":7044,"Ġoct":7045,"ypte":7046,"Ġafricains":7047,"Ġphotos":7048,"Ġdotation":7049,"ĠcritÃ¨re":7050,"Ġcle":7051,"Ġexplique":7052,"ervateur":7053,"ute":7054,"Ġpermettrait":7055,"ĠÃ©chantillons":7056,"ĠhandicapÃ©s":7057,"Ġ08":7058,"Ġnormalement":7059,"ĠsixiÃ¨me":7060,"ores":7061,"Ġsing":7062,"ressÃ©":7063,"Ġinterro":7064,"Ġladite":7065,"ĠajoutÃ©":7066,"Ġolymp":7067,"ĠreÃ§oivent":7068,"Ġcomposantes":7069,"Ġcomprenant":7070,"Ġsemblent":7071,"ystÃ¨mes":7072,"Ġmonn":7073,"Ġjuridiction":7074,"graphique":7075,"Ġtarifs":7076,"Ġscolaires":7077,"lish":7078,"94":7079,"ĠrelevÃ©":7080,"Ġpeines":7081,"Ġregis":7082,"Ġenregistre":7083,"Ġaffirme":7084,"ĠgrÃ¨ce":7085,"Ġrecouvrement":7086,"Ġconstater":7087,"ety":7088,"Ġral":7089,"Ġlake":7090,"ĠmÃ©ta":7091,"Ġdehors":7092,"ani":7093,"Ġutilisent":7094,"Ġsalaires":7095,"gentine":7096,"Ġgains":7097,"oute":7098,"Ġfoy":7099,"1998":7100,"ĠmÃ©dical":7101,"Ġdanemark":7102,"Ġpotentiels":7103,"ĠbÃ¢timents":7104,"Ġstockage":7105,"Ġmaroc":7106,"Ġrestru":7107,"Ġlond":7108,"dev":7109,"ypre":7110,"trait":7111,"ĠlibÃ©ral":7112,"Ġressortiss":7113,"ĠsÃ©minaire":7114,"ĠsituÃ©s":7115,"ĠdÃ©bou":7116,"Ġcroy":7117,"Ġ62":7118,"ĠpropriÃ©taire":7119,"Ġplacement":7120,"Ġfour":7121,"Ġwa":7122,"Ġchanger":7123,"utation":7124,"Ġbudgets":7125,"100":7126,"Ġattendu":7127,"Ġaz":7128,"rions":7129,"Ġsierra":7130,"ĠpubliÃ©s":7131,"Ġslova":7132,"ĠsituÃ©e":7133,"emplois":7134,"Ġorgane":7135,"Ġ'":7136,"Ġmur":7137,"Ġindiens":7138,"Ġdangereux":7139,"inage":7140,"garie":7141,"otan":7142,"Ġobjets":7143,"ĠdÃ»ment":7144,"trois":7145,"comitÃ©":7146,"Ġtenues":7147,"pir":7148,"Ġcampagnes":7149,"ĠcohÃ©rence":7150,"Ġvivre":7151,"Ġpolici":7152,"Ġissus":7153,"ĠsignalÃ©":7154,"Ġ78":7155,"ĠreÃ§oit":7156,"ĠdÃ©ro":7157,"ama":7158,"ĠapportÃ©":7159,"ĠÃ©clair":7160,"Ġatlantique":7161,"ulteurs":7162,"Ġlimited":7163,"ĠconsidÃ©rÃ©es":7164,"tiens":7165,"occupation":7166,"Ġtechnologiques":7167,"riture":7168,"duits":7169,"entremise":7170,"roy":7171,"Ġaccepter":7172,"avons":7173,"ĠrÃ©elles":7174,"53":7175,"Ġsoumises":7176,"Ġsalu":7177,"Ġdescrip":7178,"guay":7179,"Ġmodernisation":7180,"Ġtissus":7181,"nels":7182,"Ġblanch":7183,"Ġmodifiant":7184,"52":7185,"Ġfallait":7186,"ĠintÃ©rimaire":7187,"Ġendroits":7188,"xy":7189,"ĠdÃ©signation":7190,"infra":7191,"Ġwor":7192,"Ġsaisie":7193,"212":7194,"tÃ©rale":7195,"Ġinu":7196,"ĠprÃ©cises":7197,"Ġrestent":7198,"Ġstandard":7199,"Ġreligi":7200,"Ġ#":7201,"rin":7202,"ĠquantitÃ©s":7203,"Ġsolde":7204,"Ġsectori":7205,"Ã¯d":7206,"Ġrepose":7207,"ĠpÃ©riodique":7208,"Ġfo":7209,"Ġtransmettre":7210,"Ġrw":7211,"ĠremÃ©di":7212,"mber":7213,"Ġcolon":7214,"Ġspecta":7215,"Ġpct":7216,"journ":7217,"ĠminÃ©ra":7218,"Ġrecensement":7219,"attÃ©n":7220,"Ġnotif":7221,"Ġdevelopment":7222,"ĠassociÃ©e":7223,"oirs":7224,"Ġcote":7225,"honneur":7226,"ĠcohÃ©sion":7227,"Ġaccess":7228,"Ġoptim":7229,"ech":7230,"ĠcomposÃ©s":7231,"ĠexpressÃ©ment":7232,"Ġfranch":7233,"Ġlancer":7234,"paravant":7235,"Ġcertification":7236,"insertion":7237,"ĠrÃ©per":7238,"audience":7239,"Ġresponsabilisation":7240,"Ġdommage":7241,"Ġinqui":7242,"ĠÃ©tranger":7243,"Ġretourn":7244,"ĠdÃ©gag":7245,"ĠmÃ©tal":7246,"ĠdÃ©sire":7247,"ault":7248,"Ġeffort":7249,"ĠdÃ©tru":7250,"Ġsupprimer":7251,"Ġluxemb":7252,"eld":7253,"orÃ©":7254,"Ġflex":7255,"Ġ64":7256,"ataire":7257,"Ġpharmaceu":7258,"Ġbilan":7259,"effectuer":7260,"Ġchili":7261,"Ġoiseaux":7262,"Ġ87":7263,"Ġfiscale":7264,"ĠrÃ©elle":7265,"Ġ150":7266,"Ġvoisins":7267,"Ġchypre":7268,"Ġvols":7269,"ĠinfÃ©rieure":7270,"Ġouest":7271,"ĠamÃ©ricain":7272,"ĠappliquÃ©e":7273,"Ġethniques":7274,"graphiques":7275,"Ġcnuced":7276,"ĠtotalitÃ©":7277,"Ġlaw":7278,"Ġrom":7279,"Ġordonnance":7280,"Ġoffrant":7281,"Ġagences":7282,"ipeg":7283,"Ġachats":7284,"Ġethnique":7285,"Ġmondiaux":7286,"Ġnetto":7287,"nouveau":7288,"istent":7289,"Ġsolides":7290,"Ġidentifier":7291,"Ġlaisse":7292,"Ġjac":7293,"innipeg":7294,"Ġincombe":7295,"Ġpassant":7296,"Ġbons":7297,"tension":7298,"Ġpourtant":7299,"Ġsuivent":7300,"Ġbassin":7301,"Ġvieill":7302,"institution":7303,"Ġexistant":7304,"uner":7305,"itte":7306,"ventaire":7307,"Ġmaur":7308,"ĠexpÃ©":7309,"Ġbritannique":7310,"Ġfutur":7311,"Ġchasse":7312,"Ġapprofondie":7313,"Ã©largissement":7314,"Ġconcert":7315,"Ġportefeu":7316,"Ġsensibiliser":7317,"Ġdue":7318,"appar":7319,"ĠintÃ©grÃ©s":7320,"commission":7321,"Ġconsig":7322,"Ġsusceptible":7323,"ĠscÃ¨ne":7324,"Ġenvisage":7325,"ung":7326,"Ġsatisfait":7327,"Ġremercie":7328,"Ġagir":7329,"Ġ63":7330,"Ġnavire":7331,"Ġmalheureusement":7332,"talement":7333,"Ã©re":7334,"osce":7335,"Ġdg":7336,"tue":7337,"Ġscrutin":7338,"Ġremerci":7339,"Ġformulation":7340,"Ġsecondaires":7341,"australie":7342,"laise":7343,"Ġagriculture":7344,"Ġamor":7345,"Ġcouleur":7346,"ĠdÃ©signÃ©s":7347,"ĠopÃ©rationnelle":7348,"Ġclinique":7349,"importe":7350,"ĠcompÃ©tents":7351,"any":7352,"Ġadministrateurs":7353,"onÃ©sie":7354,"ataires":7355,"sim":7356,"Ġvia":7357,"Ġmettent":7358,"bonne":7359,"ĠdifficultÃ©":7360,"Ġdonnant":7361,"ĠcoopÃ©rer":7362,"Ġminor":7363,"Ġcroatie":7364,"Ġbio":7365,"Ġcoordonnateur":7366,"dez":7367,"Ġpersonnelle":7368,"ĠrÃ©alisÃ©es":7369,"Ġpartager":7370,"Ġmariage":7371,"Ġprintemps":7372,"Ġtax":7373,"Ġï":7374,"Ġ1985":7375,"ĠpayÃ©":7376,"ĠÃ©levÃ©es":7377,"leu":7378,"Ġdemandeurs":7379,"ĠmÃ©taux":7380,"Ġcouvrir":7381,"Ġsait":7382,"arif":7383,"ĠÂ·":7384,"Ġsaisi":7385,"ĠajoutÃ©e":7386,"ĠcÃ©lÃ©":7387,"Ġbay":7388,"Ġfuture":7389,"ĠÃ©crite":7390,"Ġdavid":7391,"Ġfondamental":7392,"ortateur":7393,"opposition":7394,"arts":7395,"ĠdÃ©placÃ©es":7396,"Ġbat":7397,"Ãªtements":7398,"Ġslov":7399,"vues":7400,"ologation":7401,"lÃ¨vement":7402,"Ġcollection":7403,"ĠdiminuÃ©":7404,"ĠmÃ©moire":7405,"ĠsystÃ©matique":7406,"image":7407,"Ġfiducie":7408,"Ġrapporte":7409,"ousse":7410,"ĠrÃ©col":7411,"Ġcollaborer":7412,"Ġrechange":7413,"Ġinvo":7414,"Ġpartenaire":7415,"Ġfes":7416,"ĠbÃ©nÃ©ficient":7417,"Ġaides":7418,"Ġcible":7419,"ĠÃ©ventail":7420,"Ġpermanents":7421,"Ġdil":7422,"inions":7423,"Ġbiotechn":7424,"encourager":7425,"Ġ97":7426,"Ġiden":7427,"ĠsÃ©v":7428,"))":7429,"Ġtic":7430,"Ġaltern":7431,"ciation":7432,"ĠÃ©lo":7433,"Ġparticipe":7434,"Ġpenser":7435,"Ġuniversitaires":7436,"Ġprovinciales":7437,"rits":7438,"ĠscÃ©n":7439,"itables":7440,"iversaire":7441,"traduction":7442,"Ġbout":7443,"Ġquartier":7444,"attants":7445,"93":7446,"Ġpierre":7447,"lets":7448,"Ġdesqu":7449,"Ġservent":7450,"ĠdÃ©finies":7451,"Ã©lÃ©rer":7452,"ĠassociÃ©es":7453,"Ġfas":7454,")(":7455,"Ġofficieuses":7456,"endice":7457,"Ġmachines":7458,"oweÃ¯":7459,"ĠpriÃ©":7460,"Ã¨lement":7461,"Ġfoi":7462,"Ġfils":7463,"Ġham":7464,"Ġrendus":7465,"temp":7466,"Ġexclusivement":7467,"ĠconfirmÃ©":7468,"Ġposer":7469,"Ġken":7470,"Ġchercher":7471,"Ġsemblables":7472,"ĠÃ©mis":7473,"Ġbag":7474,"point":7475,"intÃ©rÃªts":7476,"itablement":7477,"ĠconsidÃ©rations":7478,"Ġwinnipeg":7479,"Ġroutes":7480,"dp":7481,"italie":7482,"Ġbulgarie":7483,"ĠobservÃ©":7484,"ĠnÃ©cessairement":7485,"Ã©conomique":7486,"ulsion":7487,"ĠtrouvÃ©":7488,"excellence":7489,"Ġespagne":7490,"Ġkg":7491,"Ã©do":7492,"Ġrenvoi":7493,"ĠtouchÃ©s":7494,"Ġclu":7495,"wer":7496,"Ġtar":7497,"hÃ´":7498,"ĠdÃ©tection":7499,"tawa":7500,"estres":7501,"Ġconvi":7502,"iteur":7503,"session":7504,"ĠcrÃ©di":7505,"Ġimages":7506,"umes":7507,"vitÃ©":7508,"Ġstable":7509,"Ġmajeure":7510,"Ġfilm":7511,"Ġvictime":7512,"Ġstruct":7513,"Ġoccasions":7514,"Ġrequise":7515,"demment":7516,"ĠsÃ©pa":7517,"quez":7518,"ĠjugÃ©":7519,"Ġeffectif":7520,"Ã©lÃ©ment":7521,"Ġdevenu":7522,"pers":7523,"Ġenregistrement":7524,"Ġinterd":7525,"ĠmÃ©diateur":7526,"exemple":7527,"Ġpositif":7528,"empÃª":7529,"Ġpartiel":7530,"ĠmÃ©dicament":7531,"ĠentraÃ®ner":7532,"Ġquelcon":7533,"orgie":7534,"tile":7535,"istage":7536,"ĠarrÃªt":7537,"Ġreprises":7538,"Ġannonce":7539,"iterran":7540,"acdi":7541,"Ġexterne":7542,"ĠconsacrÃ©e":7543,"ĠopÃ©rationnels":7544,"Ġsyste":7545,"Ġnunavut":7546,"Ġcritiques":7547,"Ġsaison":7548,"Ġarrangements":7549,"tisme":7550,"Ġpositifs":7551,"cieux":7552,"Ġtiens":7553,"Ġrendue":7554,"Ġconduit":7555,"Ġchiffre":7556,"ĠconsidÃ©rables":7557,"ĠorganisÃ©es":7558,"ĠpÃ©d":7559,"Ġ250":7560,"ĠkoweÃ¯":7561,"ampleur":7562,"ive":7563,"Ġsols":7564,"Ġclassement":7565,"nÃ©es":7566,"Ġappuy":7567,"Ġexpliquer":7568,"Ġrouge":7569,"Ġparven":7570,"Ġpositions":7571,"dh":7572,"inal":7573,"ĠoccupÃ©":7574,"ĠÃ©chelle":7575,"Ġtiennent":7576,"ĠautorisÃ©s":7577,"Ġserre":7578,"Ġronde":7579,"Ġitali":7580,"ĠprivilÃ©gi":7581,"ĠappliquÃ©":7582,"Ġbang":7583,"Ġrestruct":7584,"Ã³n":7585,"erba":7586,"Ġlaisser":7587,"Ġtouche":7588,"Ġare":7589,"sur":7590,"Ġamen":7591,"Ġprenantes":7592,"Ġinvestissement":7593,"oupe":7594,"Ġlogements":7595,"ĠremÃ©dier":7596,"Ġgo":7597,"Ġtarifaire":7598,"Ġobservateurs":7599,"Ġconstante":7600,"ĠpropriÃ©taires":7601,"Ġvrai":7602,"ĠrÃ©cep":7603,"Ġformulaires":7604,"anglais":7605,"Ġobstacle":7606,"Ġserbie":7607,"Ġvoil":7608,"Ġengage":7609,"Ġsurvie":7610,"ĠdÃ©pit":7611,"Ġprimaires":7612,"ĠdÃ©finit":7613,"Ġhauteur":7614,"Ġinvesti":7615,"Ġhongrie":7616,"ĠÃ©noncÃ©":7617,"Ġ1980":7618,"Ġmarge":7619,"Ġenglish":7620,"Ġimmun":7621,"Ġnette":7622,"ĠspÃ©cialement":7623,"Ġpertur":7624,"illon":7625,"landais":7626,"vient":7627,"parg":7628,"institutions":7629,"Ġsouples":7630,"zÃ©lande":7631,"Ġtimor":7632,"autonomie":7633,"Ġaudio":7634,"sta":7635,"jac":7636,"positions":7637,"endro":7638,"Ġroyale":7639,"Â®":7640,"ĠpÃ¢":7641,"exercer":7642,"Ġlinguistique":7643,"eral":7644,"admissibilitÃ©":7645,"91":7646,"âĢ°":7647,"deau":7648,"phab":7649,"Ġsuspension":7650,"Ġprestataire":7651,"ĠprÃ©occupÃ©":7652,"aliste":7653,"Ġdates":7654,"ĠcompÃ©tente":7655,"Ġaccru":7656,"ortÃ©es":7657,"Ġhol":7658,"Ġsouveraine":7659,"Ġsubi":7660,"ĠmunicipalitÃ©s":7661,"Ġtrimestre":7662,"Ġescomp":7663,"human":7664,"ĠextÃ©rieure":7665,"ky":7666,"Ġprogresser":7667,"Ġgarder":7668,"ĠdÃ©fav":7669,"cons":7670,"Ġrigoure":7671,"ĠreflÃ©":7672,"Ġfaune":7673,"erbaÃ¯d":7674,"Ã©chelon":7675,"ĠmÃ©tÃ©or":7676,"Ġgi":7677,"ĠdÃ©tec":7678,"Ġlongueur":7679,"Ġcum":7680,"Ġcolonne":7681,"iran":7682,"Ġconvainc":7683,"Ġdemeurent":7684,"gary":7685,"prolifÃ©ration":7686,"Ã´ture":7687,"cÃ©demment":7688,"Ġmigrations":7689,"ĠadoptÃ©s":7690,"Ã©vÃ©n":7691,"Ġlucra":7692,"ĠrÃ©flexion":7693,"avancement":7694,"espagne":7695,"ology":7696,"Ġincluant":7697,"ĠextÃ©rieures":7698,"Ã©tape":7699,"Ġverser":7700,"ĠfixÃ©s":7701,"Ġquelconque":7702,"Ġavenir":7703,"ĠrappelÃ©":7704,"sifier":7705,"ilib":7706,"Ġperdu":7707,"chÃ©e":7708,"ĠdÃ©finitive":7709,"Ġartistes":7710,"inscrire":7711,"engager":7712,"fact":7713,"Ã¡Ã¡":7714,"Ġdifficiles":7715,"Ġlisbonne":7716,"ĠclÃ´ture":7717,"Ġ1986":7718,"Ġreconnus":7719,"Ġveulent":7720,"ĠcomplÃ©ter":7721,"Ġcs":7722,"dÃ©c":7723,"terr":7724,"Ġuniverselle":7725,"Ġaccorde":7726,"Ġexistent":7727,"lir":7728,"Ġsignificative":7729,"Ġjuris":7730,"Ġfla":7731,"Ġfabricant":7732,"Ġrectif":7733,"onnements":7734,"Ġcontract":7735,"Ġpotable":7736,"Ġtransporteur":7737,"ĠÃ©cosystÃ¨mes":7738,"ĠmÃ¨tres":7739,"Ġpror":7740,"Ġlicenci":7741,"rante":7742,"Ġapprobation":7743,"Ġfixer":7744,"Ã©tudier":7745,"Ġjeune":7746,"Ġtotalement":7747,"Ġbei":7748,"Ġdiffuser":7749,"lÃ©ch":7750,"ĠrÃ©alisÃ©e":7751,"92":7752,"Ġtransnation":7753,"ĠprÃ©cÃ©demment":7754,"instrument":7755,"eric":7756,"ĠfinancÃ©s":7757,"Ġjouent":7758,"ĠlÃ©gÃ¨res":7759,"fre":7760,"prÃ©sid":7761,"Ġos":7762,"ĠdÃ©montrÃ©":7763,"Ġ06":7764,"Ġcrdi":7765,"Ġcuis":7766,"audit":7767,"Ġconformer":7768,"Ġtal":7769,"ainissement":7770,"ĠÃ©quilibre":7771,"ĠdÃ©taillÃ©es":7772,"Ġplaignant":7773,"inÃ©as":7774,"Ġseuil":7775,"Ġger":7776,"Ġanniversaire":7777,"Ġlogistique":7778,"ĠbÃ©nÃ©fices":7779,"Ġauparavant":7780,"iez":7781,"expansion":7782,"Ġmandats":7783,"Ġinstances":7784,"Ġdomes":7785,"1997":7786,"Ġindications":7787,"kh":7788,"Ġpolluants":7789,"ĠdÃ©livrance":7790,"ram":7791,"ĠintÃ©gration":7792,"ĠaffirmÃ©":7793,"ĠdÃ©bit":7794,"Ġmarche":7795,"aÃ©roport":7796,"Ġfum":7797,"conf":7798,"ĠsÃ©minaires":7799,"ĠrÃ©pression":7800,"Ã©conomiques":7801,"ĠterminÃ©":7802,"ĠamÃ©ricaine":7803,"Ġfinalement":7804,"ĠmaÃ®trise":7805,"ĠdÃ©pistage":7806,"Ġfe":7807,"istait":7808,"Ġclasses":7809,"ĠÃªtres":7810,"ĠmatÃ©riels":7811,"ĠsynthÃ¨se":7812,"Ġversement":7813,"ĠvÃ©rifications":7814,"Ġaspect":7815,"keting":7816,"ĠintÃ©ressant":7817,"Ġdiagnostic":7818,"obile":7819,"Ġprair":7820,"Ġpc":7821,"ĠprÃ©parÃ©":7822,"atelier":7823,"Ġoption":7824,"Ġexplic":7825,"Ġflexi":7826,"Ġsanction":7827,"Ġaccidents":7828,"Ġuniversitaire":7829,"Ġlinguistiques":7830,"Ġabsolu":7831,"Ġrepas":7832,"ĠintÃ©rieure":7833,"Ġxx":7834,"Ġbateaux":7835,"ĠdÃ©posÃ©e":7836,"Ġhistoire":7837,"obtention":7838,"ĠdestinÃ©e":7839,"ild":7840,"endus":7841,"ĠmÃ©nages":7842,"Ġcomportements":7843,"Ġportefeuille":7844,"Ġsen":7845,"Ġsatellite":7846,"esses":7847,"Ġcibles":7848,"Ġsuffisant":7849,"allÃ©":7850,"inves":7851,"Ġamis":7852,"Ġgouverneur":7853,"icy":7854,"ĠprÃ©paratoire":7855,"Ġtransmis":7856,"tuelles":7857,"ĠfaÃ§ons":7858,"king":7859,"Ġphilipp":7860,"Ġprot":7861,"Ġluxembourg":7862,"Ġsuffisante":7863,"lore":7864,"ĠÃ©gal":7865,"intÃ©grer":7866,"locu":7867,"Ġppe":7868,"Ġ963":7869,"Ġfabricants":7870,"ĠcomptabilitÃ©":7871,"Ġlin":7872,"Ġmoindre":7873,"Ġcontraintes":7874,"ĠprÃ©cÃ©dentes":7875,"ĠsuggÃ©":7876,"Ġtroubles":7877,"Ġmatin":7878,"bert":7879,"ĠprocÃ©dÃ©s":7880,"Ġanglaise":7881,"Ġservant":7882,"Ġespagnol":7883,"Ġcarburant":7884,"ĠmÃ©dicale":7885,"Ġopinion":7886,"ients":7887,"Ġalg":7888,"accorder":7889,"articles":7890,"ĠexaminÃ©es":7891,"Ġconjointe":7892,"Ġjeudi":7893,"ĠdÃ©g":7894,"Ġparfait":7895,"Ġremis":7896,"ĠdÃ©linquants":7897,"Ġfaisait":7898,"Ġpilotes":7899,"pn":7900,"Ġrecyc":7901,"ĠrÃ©vÃ©lÃ©":7902,"Ġpertinence":7903,"Ġgreff":7904,"ancien":7905,"Ġfou":7906,"Ġvariables":7907,"Ġcombattants":7908,"ĠconcernÃ©":7909,"Ġagriculteurs":7910,"ĠrÃ©sident":7911,"Ġcroire":7912,"cueille":7913,"avance":7914,".).":7915,"taurer":7916,"Ġredev":7917,"hol":7918,"Ġleone":7919,"ĠaÃ©riens":7920,"ĠtravaillÃ©":7921,"bri":7922,"Ġstations":7923,"Ġsw":7924,"Ġbaie":7925,"Ġmpo":7926,"Ġopinions":7927,"Ġblessures":7928,"ĠespÃ¨ce":7929,"Ġprovinciale":7930,"ĠdÃ©v":7931,"ĠÃ©man":7932,"Ġcomplex":7933,"duite":7934,"Ġdimen":7935,"Ġpur":7936,"Ġord":7937,"ĠcrÃ©Ã©s":7938,"Ġtpsgc":7939,"ĠÃ©lu":7940,"ĠdignitÃ©":7941,"Ġsavoirs":7942,"redi":7943,"ĠcÃ¢":7944,"Ġprononc":7945,"Ġerreur":7946,"ĠcrÃ©Ã©e":7947,"ĠministÃ©riel":7948,"dy":7949,"isra":7950,"attribution":7951,"ĠÃ©to":7952,"Ġactiv":7953,"troisiÃ¨me":7954,"Ġclarif":7955,"Ġtomb":7956,"ystÃ¨me":7957,"anes":7958,"Ġration":7959,"Ã´mes":7960,"Ġinstituts":7961,"Ġsuperfic":7962,"Ġremettre":7963,"Ġinfluence":7964,"ĠgÃ©nÃ©ration":7965,"ordonnance":7966,"Ġenglob":7967,"Ġlitu":7968,"estim":7969,"ye":7970,"ciens":7971,"Ġrubrique":7972,"Ġfournitures":7973,"Ġcroissant":7974,"oration":7975,"ĠÃ©lection":7976,"Ġcomportant":7977,"homologation":7978,"Ġacceptable":7979,"Ġmobilisation":7980,"appareil":7981,"mr":7982,"alli":7983,"Ġben":7984,"ĠaccÃ©der":7985,"erbaÃ¯djan":7986,"Ġke":7987,"ordanie":7988,"Ġcliquez":7989,"Ġhcr":7990,"atmosph":7991,"avoc":7992,"urÃ©s":7993,"ĠexÃ©cution":7994,"Ġtendant":7995,"Ġvoire":7996,"geant":7997,"Ġmdn":7998,"Ġaustra":7999,"ottawa":8000,"pic":8001,"ĠparallÃ¨lement":8002,"Ġannexes":8003,"Ġfestiv":8004,"Ġimmeu":8005,"Ġmaisons":8006,"try":8007,"Ã¨ses":8008,"rÃ©solution":8009,"itecture":8010,"ĠhaÃ¯":8011,"Ġjurispr":8012,"Ġalb":8013,"ĠarrÃªtÃ©":8014,"Ġhab":8015,"Ġentendre":8016,"oriste":8017,"ĠenvoyÃ©":8018,"ĠmentionnÃ©s":8019,"ifax":8020,"Ġseules":8021,"Ġprescrit":8022,"Ã©vent":8023,"Ġinfrastructure":8024,"alimentaire":8025,"rime":8026,"pla":8027,"ĠpÃ©riodiques":8028,"Ġnam":8029,"Ġprioritaire":8030,"ĠattÃ©n":8031,"=\"":8032,"Ġvoulons":8033,"Ġ05":8034,"Ġconvo":8035,"ĠdÃ©je":8036,"Ġinvestisseurs":8037,"Ġconduc":8038,"Ġ\\":8039,"guÃ©":8040,"Ġcalgary":8041,"fais":8042,"Ġcorpore":8043,"Ġfid":8044,"ĠnumÃ©ros":8045,"allage":8046,"loir":8047,"ĠgÃ©orgie":8048,"ĠsÃ©qu":8049,"humanitÃ©":8050,"Ġtrouverez":8051,"ĠaÃ©ronefs":8052,"Ġchap":8053,"tein":8054,"Ġinformatique":8055,"Ġenvoyer":8056,"Ġcommissariat":8057,"Ġcompromis":8058,"Ġestima":8059,"dd":8060,"ĠlÃ©gislative":8061,"Ġsortie":8062,"Ġindividuels":8063,"ĠviabilitÃ©":8064,"Ġprofession":8065,"ĠengagÃ©es":8066,"Ġbce":8067,"Ġ(Â«":8068,"ĠguinÃ©e":8069,"Ġincap":8070,"Ġdirects":8071,"Ġpressions":8072,"gl":8073,"Ġrobert":8074,"Ġnat":8075,"Ġinstallation":8076,"itants":8077,"Ġrusse":8078,"Ġciviles":8079,"Ġcath":8080,"Ġmixte":8081,"Ã©lÃ©ments":8082,"bretagne":8083,"Ġsubstanti":8084,"Ġ03":8085,"Ġsoir":8086,"ĠaxÃ©":8087,"Ġfavorables":8088,"Ġfondement":8089,"Ġretenue":8090,"partie":8091,"Ġinnov":8092,"Ġsyri":8093,"Ġindex":8094,"Ġpho":8095,"ĠthÃ©Ã¢":8096,"aucun":8097,"Ġallemand":8098,"Ġatteints":8099,"bon":8100,"Ġterritoriaux":8101,"Ã©dition":8102,"Ġorganiser":8103,"aines":8104,"Ġvoter":8105,"udes":8106,"organiser":8107,"Ã©gal":8108,"ĠdÃ©placements":8109,"ĠtraitÃ©es":8110,"ĠdÃ©cideurs":8111,"Ġ66":8112,"ĠpropriÃ©tÃ©s":8113,"expiration":8114,"ayant":8115,"Ġtravaillant":8116,"Ġcrises":8117,"ĠantÃ©rieures":8118,"ĠdÃ©char":8119,"four":8120,"Ġchimique":8121,"nelle":8122,"infection":8123,"1996":8124,"ĠprÃ©con":8125,"way":8126,"Ġrenouvelables":8127,"Ġcroissante":8128,"osent":8129,"ases":8130,"Ġcamb":8131,"Ġmontrer":8132,"hu":8133,"Ã©poque":8134,"Ġsoumise":8135,"Ġtrouvera":8136,"Ġky":8137,"Ã©lev":8138,"Ġfondamentale":8139,"Ġjustifier":8140,"Ġconstruire":8141,"extr":8142,"ĠapprouvÃ©s":8143,"ĠcoordonnÃ©es":8144,"Ġchinois":8145,"''":8146,"Ġryth":8147,"Ġdimensions":8148,"main":8149,"ĠdeuxiÃ¨mement":8150,"ĠgÃ©nie":8151,"Ġintergouvernementales":8152,"vue":8153,"Ġtunis":8154,"Ġsuggestions":8155,"ĠgÃ©nÃ©tique":8156,"Ãªtes":8157,"Ġcompany":8158,"Ã©cart":8159,"Ġmercredi":8160,"ĠdÃ©cent":8161,"Ġtransfrontal":8162,"lines":8163,"quemment":8164,"Ġmuni":8165,"Ġexhaus":8166,"ukraine":8167,"Ġorientale":8168,"Ġcig":8169,"Ġsignaler":8170,"Ġentrepreneurs":8171,"ĠrÃ©visÃ©e":8172,"Ġcentrales":8173,"Ġviolences":8174,"accroissement":8175,"Ġcorrectement":8176,"ĠdÃ©cisionn":8177,"yage":8178,"Ġauth":8179,"ĠrÃ©pondant":8180,"augmenter":8181,"ains":8182,"ouard":8183,"bile":8184,"Ġlucratif":8185,"Ġmanagement":8186,"Ġbandes":8187,"Ġespace":8188,"Ġarme":8189,"Ġ07":8190,"Ġrecev":8191,"Ġmonnaie":8192,"Ġatten":8193,"ĠpubliÃ©e":8194,"85":8195,"ĠrÃ©ellement":8196,"omes":8197,"cp":8198,"Ġyeux":8199,"pule":8200,"omÃ¨tres":8201,"ĠdÃ©signe":8202,"administrateur":8203,"ĠdÃ©montrer":8204,"Ġrecourir":8205,"ĠcoÃ»te":8206,"ĠprÃ©cision":8207,"pitaux":8208,"ertes":8209,"ĠadÃ©quate":8210,"Ġmardi":8211,"aujourd":8212,"Ġbran":8213,"Ġadd":8214,"Ġforesti":8215,"parti":8216,"Ġjurisprudence":8217,"automne":8218,"iciens":8219,"ĠprÃ©sentations":8220,"Ġinfirm":8221,"ĠÃ©cologique":8222,"Ġmarketing":8223,"Ġprobable":8224,"Ġaugmente":8225,"Ġinno":8226,"Ġvenez":8227,"Ġexploitation":8228,"ĠimposÃ©es":8229,"ĠrÃ©guliÃ¨re":8230,"actu":8231,"ĠgÃ©nÃ©tiques":8232,"umeurs":8233,"Ġasi":8234,"ĠrelÃ¨vent":8235,"quatriÃ¨me":8236,"wg":8237,"adapter":8238,"ĠÃ©gale":8239,"Ġfiscales":8240,"Ġspe":8241,"ester":8242,"Ġchamps":8243,"ĠdÃ©poser":8244,"Ġgauche":8245,"ĠlittÃ©ra":8246,"Ġenvironment":8247,"ami":8248,"rac":8249,"Ġcombler":8250,"Ġofficiellement":8251,"Ġheureux":8252,"apprÃ©":8253,"Ġconvaincu":8254,"Ġtac":8255,"identifier":8256,"garde":8257,"Ġcouvre":8258,"ĠcÃ©rÃ©mon":8259,"Ġcontiennent":8260,"ĠperpÃ©":8261,"non":8262,"ĠfrÃ©quent":8263,"Ġdose":8264,"ĠprÃ©sum":8265,"israÃ«l":8266,"Ġbienfais":8267,"septiÃ¨me":8268,"Ġincom":8269,"toria":8270,"Ã§on":8271,"Ð³":8272,"Ġwind":8273,"Ġreconnaissant":8274,"Ġincl":8275,"ĠmÃ©can":8276,"Ġconsommateur":8277,"lÃł":8278,"assainissement":8279,"ultan":8280,"by":8281,"Ġcandidature":8282,"Ġpossession":8283,"ĠprÃ©visi":8284,"utilisateur":8285,"Ġmigration":8286,"ĠremplacÃ©":8287,"monter":8288,"appelante":8289,"Ġbienven":8290,"Ġcommandement":8291,"Ġferroviaire":8292,"ĠÂ°":8293,"Ġmagas":8294,"Ġtransmet":8295,"alisÃ©e":8296,"ĠrÃ©conc":8297,"Ġterra":8298,"pre":8299,"onner":8300,"ondes":8301,"commissariat":8302,"lang":8303,"six":8304,"Ġ73":8305,"ino":8306,"Ġcombien":8307,"Ġsaisir":8308,"monton":8309,"rat":8310,"onniers":8311,"ĠdÃ©mocratiques":8312,"neuviÃ¨me":8313,"Ġdens":8314,"Ġparticules":8315,"ĠsiÃ¨ges":8316,"Ġagissant":8317,"ictions":8318,"ĠslovÃ©nie":8319,"ĠsouverainetÃ©":8320,"Ġrestaurant":8321,"ney":8322,"Ġbienfaisance":8323,"ĠthaÃ¯":8324,"ĠÃ§":8325,"Ġremarquer":8326,"Ġvieillissement":8327,"Ġfinance":8328,"Ġpoursuit":8329,"ĠexaminÃ©s":8330,"don":8331,"Ġmass":8332,"ĠvotÃ©":8333,"Ġrevendications":8334,"entielle":8335,"ĠcomplÃ¨tement":8336,"ographie":8337,"Ġintervenir":8338,"Ġprofesseur":8339,"Ġwater":8340,"Ġ700":8341,"ĠversÃ©es":8342,"ĠformÃ©":8343,"Ġact":8344,"aw":8345,"angle":8346,"Ġmos":8347,"Ġsoc":8348,"Ġsanitaires":8349,"Ġpress":8350,"ĠentraÃ®ne":8351,"Ġhauts":8352,"ĠpÃ©ril":8353,"Ġsigne":8354,"analys":8355,"Ġfores":8356,"ĠdÃ©fendre":8357,"Ġassor":8358,"deuxiÃ¨me":8359,"Ã¨se":8360,"ĠÃ©ventuellement":8361,"Ġurbain":8362,"icatif":8363,"ĠconÃ§us":8364,"rateur":8365,"Ġporta":8366,"gure":8367,"ĠreflÃ¨te":8368,"cure":8369,"Ġmilliard":8370,"ĠsÃ©rieux":8371,"ĠintÃ©grante":8372,"Ġfournissant":8373,"emplacement":8374,"Ġcontro":8375,"Ġ72":8376,"ozone":8377,"huitiÃ¨me":8378,"Ġchlor":8379,"Ġsct":8380,"Ġsauv":8381,"tuels":8382,"Ġaccompli":8383,"ĠdÃ©pÃ´ts":8384,"ĠbÃ©nÃ©voles":8385,"Ġfili":8386,"ĠdiffÃ©rente":8387,"ulf":8388,"Ġnormale":8389,"espÃ¨re":8390,"Ġaffili":8391,"ĠÃ©vident":8392,"sives":8393,"Ġmondiales":8394,"ĠalinÃ©as":8395,"Ġfed":8396,"immun":8397,"agrÃ©":8398,"ĠaffÃ©r":8399,"ĠdÃ©taillÃ©":8400,"ĠrÃ©cents":8401,"rev":8402,"ĠÃ©quilib":8403,"omique":8404,"arrivÃ©e":8405,"Ġpatient":8406,"Ġ84":8407,"Ġpertinente":8408,"ĠrÃ©pondent":8409,"hiver":8410,"Ġcnrc":8411,"impression":8412,"Ġcomparativement":8413,"Ġfeuilles":8414,"Ġexac":8415,"md":8416,"opÃ©rations":8417,"87":8418,"effic":8419,"Ġinstitute":8420,"rapp":8421,"ĠaffectÃ©s":8422,"trer":8423,"Ġaccum":8424,"ĠdÃ©crites":8425,"exploration":8426,"Ġfinales":8427,"cf":8428,"sud":8429,"bergement":8430,"Ġadopte":8431,"afghanistan":8432,"Ġterritoriales":8433,"Ġfrapp":8434,"dification":8435,"Ġconfirmer":8436,"terre":8437,"Ġrome":8438,"dans":8439,"curr":8440,"ĠrÃ©affirme":8441,"Ġsentiment":8442,"Ġconcevoir":8443,"ĠexpliquÃ©":8444,"Ġmacro":8445,"pal":8446,"loie":8447,"abus":8448,"Ġ94":8449,"Ġcrtc":8450,"Ġmajor":8451,"alisÃ©es":8452,"quet":8453,"Ġtherm":8454,"Ġsupervision":8455,"Ġriver":8456,"http":8457,"ĠÃ©tablissant":8458,"ĠlimitÃ©es":8459,"morandu":8460,"Ġcp":8461,"Ġrwanda":8462,"Ġventil":8463,"prince":8464,"ĠrÃ©affirm":8465,"oeuvre":8466,"Ġressortissants":8467,"Ġplafond":8468,"ĠgÃ©ographiques":8469,"Ġplaisir":8470,"ows":8471,"ĠentitÃ©":8472,"ĠreprÃ©senter":8473,"ĠboÃ®":8474,"Ġraisonnables":8475,"Ġmicha":8476,"liques":8477,"ĠdÃ©jeuner":8478,"Ġsalles":8479,")]":8480,"Ġoffices":8481,"Ġath":8482,"Ġthat":8483,"Ġexposition":8484,"timis":8485,"Ġquit":8486,"rec":8487,"Ġaudi":8488,"Ġcombinaison":8489,"ĠprÃ©cisions":8490,"ĠinterprÃ©tation":8491,"ĠconfidentialitÃ©":8492,"oux":8493,"ajouter":8494,"Ġindiennes":8495,"ĠprospÃ©":8496,"ĠdÃ©nom":8497,"nuap":8498,"Ġnourriture":8499,"Ġmark":8500,"Ġorientation":8501,"Ġspatiales":8502,"Ġannuelles":8503,"gs":8504,"ĠxÃ©n":8505,"Ġincorpor":8506,"Ġroyal":8507,"Ġcommandant":8508,"Ġcommissaires":8509,"ĠÃ©loign":8510,"Ġsuivie":8511,"larus":8512,"Ġemprun":8513,"Ġvariation":8514,"ĠfinancÃ©":8515,"Ġanaly":8516,"Ġterminer":8517,"Ġautonome":8518,"ĠvÃªtements":8519,"Ġpic":8520,"ford":8521,"Ġmargin":8522,"hypo":8523,"ĠdÃ¢":8524,"Ġancien":8525,"Ġbiodi":8526,"ĠÃ©lectrique":8527,"Ġconduire":8528,"ĠdÃ©crire":8529,"hr":8530,"ĠpremiÃ¨rement":8531,"Ġfrontal":8532,"Ã©rable":8533,"ĠidÃ©e":8534,"Ġrespectifs":8535,"Ġtotales":8536,"tress":8537,"ĠintÃ©grÃ©es":8538,"Ġimage":8539,"Ġnaturelle":8540,"ĠmÃ©diterran":8541,"Ġcapable":8542,"publ":8543,"Ġindustrielles":8544,"ĠaÃ®":8545,"Ġavions":8546,"deur":8547,"Ġ120":8548,"ĠentraÃ®nÃ©":8549,"Ġyou":8550,"ĠmentionnÃ©es":8551,"Ġing":8552,"Ġcontactez":8553,"Ġbloc":8554,"mÃ©th":8555,"Ġavocats":8556,"Ġinfluen":8557,"ĠassurÃ©":8558,"Ġratta":8559,"Ġmarins":8560,"Ġletton":8561,"ĠpÃ¨re":8562,"Ġordinaires":8563,"eth":8564,"endront":8565,"Ġcatastrophe":8566,"riÃ¨res":8567,"Ġentour":8568,"ophob":8569,"justement":8570,"Ġcomptables":8571,"Ġcoop":8572,"Ġintr":8573,"Ġentrer":8574,"ĠbilatÃ©raux":8575,"affich":8576,"Ġhon":8577,"ĠtolÃ©rance":8578,"arn":8579,"Ġdroite":8580,"Ġmobile":8581,"Ġsour":8582,"Ġremarqu":8583,"Ġretirer":8584,"ĠtirÃ©s":8585,"Ġrevanche":8586,"Ġfir":8587,"alogues":8588,"Ġclar":8589,"Ġconclut":8590,"Ġstyle":8591,"erner":8592,"ignent":8593,"Ġveill":8594,"Ġillicites":8595,"Ġcourte":8596,"Ġviennent":8597,"Ġconstatations":8598,"ĠcomplexitÃ©":8599,"Ġenvir":8600,"endroit":8601,"Ġhypoth":8602,"Ġinuits":8603,"Ġcontenus":8604,"Ġsoin":8605,"arctique":8606,"Ġpaul":8607,"Ġbarre":8608,"ĠprÃ©t":8609,"Ġkir":8610,"{\\":8611,"Ġmodernes":8612,"hington":8613,"Ġvariations":8614,"cil":8615,"ĠmÃ©lange":8616,"ĠappuyÃ©":8617,"Ġrestructuration":8618,"ĠprÃ©voient":8619,"Ġesprit":8620,"Ġpalestine":8621,"ĠmultilatÃ©ral":8622,"ĠkoweÃ¯t":8623,"rom":8624,"Ġregistres":8625,"Ġcontemp":8626,"Ġdouane":8627,"Ġsubstitu":8628,"Ġsuperficie":8629,"Ġveille":8630,"ĠcrÃ©e":8631,"Ġhas":8632,"Ġence":8633,"ĠdÃ©pendance":8634,"Ġimpu":8635,"Ġdiab":8636,"Ġdemi":8637,"Ġblanchiment":8638,"ek":8639,"ĠrÃ©conciliation":8640,"cal":8641,"Ġimmigrants":8642,"attÃ©nuation":8643,"ĠdÃ©passe":8644,"Ġdiminuer":8645,"Ġrythme":8646,"Ġcaisse":8647,"ita":8648,"ĠsupÃ©rieures":8649,"ock":8650,"anne":8651,"bu":8652,"Ġvent":8653,"carb":8654,"ĠpubliÃ©es":8655,"mal":8656,"Ġcontingents":8657,"ĠrÃ©actions":8658,"Ġnutrition":8659,"Ġuniforme":8660,"Ġhi":8661,"influence":8662,"ĠchÃ¢":8663,"Ġcertainement":8664,"Ġprouv":8665,"Ġdang":8666,"opa":8667,"Ġexploiter":8668,"pard":8669,"Ġcommentaire":8670,"ĠchargÃ©es":8671,"Ġdescriptif":8672,"Ġbata":8673,"Ġports":8674,"Ġcontrairement":8675,"79":8676,"ĠmÃ©morandu":8677,"Ġjard":8678,"ĠÃ©mer":8679,"Ġexercices":8680,"Ġstress":8681,"ĠsÃ©nat":8682,"ĠrÃ©jou":8683,"Ġcosta":8684,"Ġterrestres":8685,"Ġsemblable":8686,"importantes":8687,"ĠrÃ©duite":8688,"Ġsociety":8689,"ĠvaliditÃ©":8690,"Ġcommandes":8691,"Ġworld":8692,"Ġphilippines":8693,"ĠdÃ©couvrir":8694,"ĠÃ©valuÃ©":8695,"Ġverb":8696,"rase":8697,"Ġmoteurs":8698,"tauration":8699,"ĠhÃ´pitaux":8700,"Ġchris":8701,"Ġtv":8702,"accise":8703,"Ġlituanie":8704,"Ġpeter":8705,"Ġsimultan":8706,"entrepren":8707,"ĠindiquÃ©es":8708,"ool":8709,"Ġsuffisantes":8710,"Ġsomalie":8711,"Ġbiling":8712,"Ġtoxiques":8713,"mique":8714,"litÃ©":8715,"ambassadeur":8716,"Ġoubli":8717,"diteurs":8718,"ĠqualifiÃ©s":8719,"Ġoppos":8720,"Ġ76":8721,"ellÃ©":8722,"ĠconnaÃ®t":8723,"Ġcorrespondance":8724,"Ġhora":8725,"Ġautorisations":8726,"Ġfiscal":8727,"Ġboli":8728,"ĠrÃ©examen":8729,"Ġhalifax":8730,"Ġgarantiss":8731,"lÃ¨ge":8732,"Ġign":8733,"ator":8734,"ĠorganisÃ©s":8735,"71":8736,"Ġmaternelle":8737,"agissait":8738,"Ġfonci":8739,"aud":8740,"onnÃ©s":8741,"ĠbactÃ©ri":8742,"Ġbref":8743,"Ġvii":8744,"instruments":8745,"Ġsimples":8746,"Ġpond":8747,"berg":8748,"ĠÃ©tique":8749,"aisie":8750,"Ġdessins":8751,"arbitrage":8752,"Ġconfig":8753,"veloppement":8754,"Ġaccident":8755,"Ġerreurs":8756,"onf":8757,"ĠindemnitÃ©s":8758,"Ã±":8759,"ĠlibÃ©ralisation":8760,"Ġfrancophones":8761,"ust":8762,"ĠdÃ©clarer":8763,"Ġ69":8764,"Ġdumping":8765,"Ġsynd":8766,"Ġvisiter":8767,"ĠdÃ©ficit":8768,"ĠrÃ©ductions":8769,"Ġassumer":8770,"ĠconsacrÃ©s":8771,"Ġhui":8772,"den":8773,"ĠprÃ©voy":8774,"Ġutilisations":8775,"Ġinclut":8776,"laient":8777,"Ġtir":8778,"Ġint":8779,"work":8780,"ĠimpÃ©ra":8781,"fiants":8782,"Ġmajeur":8783,"itons":8784,"aqu":8785,"Ġharc":8786,"Ã©nag":8787,"ĠrÃ©clamations":8788,"Ġmauvaise":8789,"Ġordinateur":8790,"Ġnotant":8791,"Ġafgh":8792,"duites":8793,"ĠprÃ©cisÃ©":8794,"Ġdangers":8795,"Ġvin":8796,"ĠspÃ©cifiquement":8797,"nÃ©e":8798,"ĠÎ¼":8799,"Ġsem":8800,"attaquer":8801,"gov":8802,"ĠÃ©nergie":8803,"Ġfol":8804,"Ġmarin":8805,"Ġfamiliales":8806,"Ġaim":8807,"ĠÃ©cole":8808,"ĠÃ©vÃ©nement":8809,"arrÃª":8810,"ĠdÃ©gradation":8811,"tÃ©nÃ©g":8812,"Ã©doine":8813,"desh":8814,"indemnisation":8815,"Ġic":8816,"istra":8817,"ĠpossÃ©d":8818,"ĠÃ©limin":8819,"ĠprotÃ©gÃ©s":8820,"ĠespÃ©rons":8821,"Ġaustralie":8822,"unesco":8823,"Ġsignes":8824,"ĠversÃ©":8825,"Ġprison":8826,"Ġautonomes":8827,"ĠgÃ©nÃ©rations":8828,"ĠprÃ©sidents":8829,"ĠbÃ©larus":8830,"low":8831,"Ġcis":8832,"Ġ613":8833,"Ġproduisent":8834,"Ġcertificats":8835,"Ġconsultez":8836,"Ġuniversel":8837,"tvh":8838,"ciplin":8839,"gÃ¨nes":8840,"ĠreprÃ©sentante":8841,"ague":8842,"Ġarc":8843,"Ġ$.":8844,"atis":8845,"actifs":8846,"Ġapporte":8847,"cro":8848,"Ġaires":8849,"Ġsensiblement":8850,"Ġcultiv":8851,"ĠmacÃ©doine":8852,"ĠdÃ©finie":8853,"Ġprofondeur":8854,"76":8855,"ĠÃ©laboration":8856,"Ġtoxicom":8857,"prouv":8858,"Ġarriver":8859,"arr":8860,"Ġlaboratoires":8861,"expertise":8862,"onnÃ©es":8863,"Ġquasi":8864,"anciers":8865,"Ġnominations":8866,"Ġsent":8867,"risonnement":8868,"Ġsoulignant":8869,"cor":8870,"Ġcouche":8871,"Ġabandonn":8872,"Ġhay":8873,"Ġneur":8874,"instance":8875,"tain":8876,"83":8877,"Ġmodule":8878,"ĠuniÃ¨me":8879,"ns":8880,"ĠrÃ©insertion":8881,"ĠbÃ©nÃ©fice":8882,"Ġ900":8883,"umin":8884,"oÃ¹":8885,"Ġpatr":8886,"Ġassurant":8887,"ĠÃ©tudiÃ©":8888,"ĠcollÃ¨ge":8889,"Ġsauvetage":8890,"mail":8891,"Ġsuppression":8892,"Ġimpacts":8893,"ĠdÃ©posant":8894,"Ġfavorise":8895,"ĠchangÃ©":8896,"Ġcorrespondent":8897,"Ġpp":8898,"72":8899,"Ġchance":8900,"Ġlogique":8901,"Ġmobiliser":8902,"Ġ96":8903,"Ġcoali":8904,"Ġorateurs":8905,"ĠlÃ©gÃ¨rement":8906,"ĠtÃ©moin":8907,"Ġatteintes":8908,"ĠindemnitÃ©":8909,"gy":8910,"Ġmassive":8911,"Ġterritoriale":8912,"vergure":8913,"Ã©liminer":8914,"ĠrÃ©els":8915,"Ġhomme":8916,"Ġautomatiquement":8917,"Ġimparti":8918,"ĠdÃ©libÃ©rations":8919,"Ġenseignements":8920,"Ġsouci":8921,"Ġcesse":8922,"attend":8923,"ĠxÃ©nophob":8924,"89":8925,"obil":8926,"Ġsurmonter":8927,"Ġcontes":8928,"ĠthÃ©rapeu":8929,"Ġsensible":8930,"Ġphrase":8931,"Ġiso":8932,"ĠbasÃ©e":8933,"74":8934,"Ġdisparition":8935,"ĠsituÃ©es":8936,"andon":8937,"Ġexportateurs":8938,"iteurs":8939,"ĠvÃ©gÃ©t":8940,"Ġvaccin":8941,"Ġimplique":8942,"ĠcomplÃ©mentaire":8943,"ĠvariÃ©tÃ©":8944,"ĠÅĵuvres":8945,"Ġnormal":8946,"Ġrigh":8947,"ams":8948,"ĠstupÃ©":8949,"Ġvert":8950,"Ġkenya":8951,"Ġkh":8952,"Ġgel":8953,"Ġsyndicats":8954,"ĠindiquÃ©s":8955,"Ġcla":8956,"Ġcuisine":8957,"ĠdÃ©tÃ©ri":8958,"aviation":8959,"Ġadmis":8960,"Ġeconom":8961,"oise":8962,"jout":8963,"Ġtabag":8964,"ĠprÃ©servation":8965,"Ġfur":8966,"ao":8967,"Ġvouloir":8968,"Ġslovaquie":8969,"Ġarrive":8970,"Ġobligatoires":8971,"Ġcertes":8972,"ited":8973,"bur":8974,"Ġmanufact":8975,"Ġsimilaire":8976,"acceptation":8977,"Ġarguments":8978,"Ġreligieuses":8979,"ities":8980,"aisons":8981,"antiÃ¨me":8982,"ĠmultilatÃ©raux":8983,"Ġfilms":8984,"Ġinscrites":8985,"ua":8986,"Ġalig":8987,"ĠforÃªt":8988,"serv":8989,"Ã©mo":8990,"Ġcontractantes":8991,"Ġindividuelles":8992,"Ġfacul":8993,"Ġmercure":8994,"Ġfavorisant":8995,"Ġdesign":8996,"Ã©douard":8997,"ack":8998,"Ġannonc":8999,"Ġfasse":9000,"Ġsoumet":9001,"Ġ89":9002,"Ġsensibles":9003,"ĠfondÃ©s":9004,"Ġdig":9005,"Ġfonctionne":9006,"omen":9007,"Ġminimale":9008,"ĠprÃ©cÃ©dents":9009,"Ġsports":9010,"engage":9011,"sr":9012,"attente":9013,"ev":9014,"tÃ©nÃ©gro":9015,"Ġconcepts":9016,"Ġclause":9017,"giÃ¨ne":9018,"Ġorganiques":9019,"Ã©missions":9020,"Ġfront":9021,"Ġdons":9022,"Ġbiotechnologie":9023,"Ġenvironnemental":9024,"ĠintermÃ©diaire":9025,"Ġbell":9026,"ĠÃ©met":9027,"expert":9028,"Ġwashington":9029,"ĠÃ©cologiques":9030,"Ġsuffit":9031,"ef":9032,"euro":9033,"Ġcontempora":9034,"ĠapprouvÃ©e":9035,"Ġvictoria":9036,"Ġbor":9037,"Ġcontribuable":9038,"Ġrestauration":9039,"Ġsigner":9040,"Ġraff":9041,"Ġconfront":9042,"ĠmÃ©diation":9043,"ition":9044,"Ġjournaux":9045,"Ġbroch":9046,"Ġ%).":9047,"ĠdotÃ©s":9048,"ĠadressÃ©es":9049,"ĠsystÃ©ma":9050,"Ġexprimer":9051,"Ġstimuler":9052,"ĠbÃ©nÃ©ficiÃ©":9053,"Ġclos":9054,"Ġconcentrer":9055,"Ġmartin":9056,"Ġprime":9057,"Ġmessieurs":9058,"ĠÃ©dition":9059,"asfc":9060,"ige":9061,"culaire":9062,"Ġmeu":9063,"inclusion":9064,"Ġdevenue":9065,"Ġintention":9066,"sci":9067,"chÃ©es":9068,"ĠprÃ©co":9069,"hou":9070,"validitÃ©":9071,"Ġvendu":9072,"mala":9073,"Ġ71":9074,"ivoire":9075,"Ġ93":9076,"Ġ74":9077,"Ġthis":9078,"Ġreporter":9079,"Ġcens":9080,"Ġwal":9081,"Ã©chantillon":9082,"erican":9083,"reuve":9084,"Ġ[...":9085,"Ġpluri":9086,"Ġsouplesse":9087,"ĠadaptÃ©s":9088,"Ġtransporteurs":9089,"Ġirlande":9090,"ĠdÃ©lÃ©guÃ©s":9091,".),":9092,"Ġrenfer":9093,"Ġviande":9094,"Ġunis":9095,"ĠaxÃ©s":9096,"Ġtransfron":9097,"ĠÃ§a":9098,"Ġmorale":9099,"Ġanalyser":9100,"Ġconsistant":9101,"Ġemployeur":9102,"admission":9103,"Ġbiodivers":9104,"Ġpropag":9105,"Ġvacances":9106,"Ġtuber":9107,"Ġfermeture":9108,"Ġfonctionner":9109,"ĠrÃ©fÃ©r":9110,"Ġappartient":9111,"Ġburundi":9112,"ĠrejetÃ©":9113,"Ġrestriction":9114,"Ġaccueill":9115,"Ġtabagisme":9116,"ics":9117,"ular":9118,"Ġcaf":9119,"Ġabsolument":9120,"Ġcourants":9121,"ĠinÃ©g":9122,"docu":9123,"ĠrÃ©flÃ©ch":9124,"nd":9125,"Ġ81":9126,"enda":9127,"ologues":9128,"Ġautriche":9129,"Ġsympt":9130,"Ġfen":9131,"Ġrace":9132,"Ġinscrire":9133,"Ġaigu":9134,"ĠrÃ©sulte":9135,"Ġ110":9136,"bus":9137,"Ġlettonie":9138,"ĠdÃ©grad":9139,"Ġexemplaire":9140,"Ġtes":9141,"ĠthaÃ¯lande":9142,"infraction":9143,"ĠrÃ©unir":9144,"Ġattaques":9145,"Ġ83":9146,"ĠfÃ©liciter":9147,"Ġintra":9148,"Ġprogressivement":9149,"Ġwilli":9150,"Ġressource":9151,"gua":9152,"Ġplaign":9153,"Ġsecret":9154,"toral":9155,"Ġrefuser":9156,"ĠtouchÃ©es":9157,"Ġoccidentale":9158,"ĠexaminÃ©e":9159,"Ã¯n":9160,"atre":9161,"Ġcoeur":9162,"rables":9163,"ĠpÃ©nales":9164,"ĠpossÃ¨dent":9165,"ĠexcÃ©dent":9166,"Ġkaz":9167,"ĠcorrÃ©":9168,"oh":9169,"provin":9170,"ĠpÃ©rou":9171,"ural":9172,"Ġassurance":9173,"ĠvulnÃ©rabilitÃ©":9174,"Ġroms":9175,"Ġfiscaux":9176,"atteinte":9177,"Ġ86":9178,"Ġconclus":9179,"Ġmichael":9180,"instauration":9181,"Ġinformatiques":9182,"envis":9183,"Ġperception":9184,"Ġposent":9185,"ĠimmÃ©diate":9186,"Ġpanne":9187,"territ":9188,"Ġpratiquement":9189,"icitÃ©":9190,"Ġfamilial":9191,"ĠhaÃ¯ti":9192,"cinqu":9193,"Ġpairs":9194,"Ġintergouvernemental":9195,"ĠcausÃ©":9196,"umb":9197,"ĠleÃ§ons":9198,"Ġciter":9199,"ĠrÃ©adaptation":9200,"Ġpesti":9201,"ĠprospÃ©ritÃ©":9202,"Ġoffertes":9203,"ĠlÃ©gislatifs":9204,"Ġprononcer":9205,"ĠengagÃ©e":9206,"hab":9207,"ĠfrÃ©quemment":9208,"Ġfraude":9209,"observateur":9210,"Ġobtenues":9211,"Ġspir":9212,"conseil":9213,"entend":9214,"Ġinstitutionnel":9215,"Ġrecommander":9216,"Ġmenu":9217,"ĠautorisÃ©es":9218,"informer":9219,"ĠthÃ©Ã¢tre":9220,"ĠÃ©lus":9221,"iopie":9222,"Ġ92":9223,"Ġlibrement":9224,"ĠmÃ©dicales":9225,"Ã©tiquetage":9226,"verse":9227,"ĠprÃ©lev":9228,"ĠprotÃ©gÃ©es":9229,"Ġsouter":9230,"ĠmolÃ©cu":9231,"007":9232,"initiatives":9233,"Ġcoutu":9234,"Ġdos":9235,"Ġmagistra":9236,"apour":9237,"Ġphil":9238,"Ġdiversification":9239,"ĠintÃ©rieures":9240,"ĠprolifÃ©ration":9241,"ĠmenÃ©s":9242,"ĠfacilitÃ©":9243,"Ġfnuap":9244,"Ġlimitation":9245,"%)":9246,"ĠnÃ©gatifs":9247,"Ġpeux":9248,"fas":9249,"ĠministÃ©riels":9250,"ĠkilomÃ¨tres":9251,"ĠdÃ©putÃ©":9252,"Ġcommunique":9253,"dÃ©ter":9254,"Ġadditionnels":9255,".Â»":9256,"ĠpÃ©nit":9257,"outils":9258,"Ġsavons":9259,"curitÃ©":9260,"Ġinnova":9261,"ters":9262,"internation":9263,"ĠimprÃ©":9264,"sixiÃ¨me":9265,"Ġdoter":9266,"ĠnÃ©cessite":9267,"Ġcessation":9268,"lit":9269,"Ġconsultatifs":9270,"Ġsoumission":9271,"Ġcompromet":9272,"activ":9273,"ĠrÃ©pertoire":9274,"dg":9275,"importants":9276,"Ġpublier":9277,"ĠindiquÃ©e":9278,"ĠmÃ¨ne":9279,"icon":9280,"Ġcalculer":9281,"Ġhel":9282,"Ġstabilisation":9283,"akh":9284,"ĠmÃ©thodologie":9285,"Ġjoindre":9286,"habil":9287,"ĠplacÃ©":9288,"Ġrendent":9289,"ĠgarÃ§ons":9290,"Ġlibres":9291,"Ġapprouve":9292,"ĠrenforcÃ©":9293,"Ġlot":9294,"ĠamÃ©liorÃ©":9295,"ĠaxÃ©es":9296,"Ġai":9297,"Ġattirer":9298,"ladesh":9299,"Ġquantita":9300,"Ġpourrez":9301,"ench":9302,"burg":9303,"atemala":9304,"ĠsuggÃ©rÃ©":9305,"Ġhospital":9306,"Ġarbitra":9307,"Ġpath":9308,"ĠdÃ©signÃ©e":9309,"Ġtraduit":9310,"Ġ1982":9311,"ĠdiplÃ´me":9312,"ĠstupÃ©fiants":9313,"Ġstipule":9314,"Ġissues":9315,"Ġchauffage":9316,"Ġnettement":9317,"Ġprocurer":9318,"Ġouverts":9319,"ops":9320,"Ġnettoyage":9321,"ĠdÃ©ficience":9322,"Ã©sira":9323,"dium":9324,"Ġfestival":9325,"accus":9326,"efforts":9327,"lise":9328,"Ġmiss":9329,"ĠexprimÃ©es":9330,"Ġentreprendre":9331,"Ġcombustible":9332,"Ġhautement":9333,"offres":9334,"Ġviet":9335,"Ġouvrir":9336,"1995":9337,"Ġreligieux":9338,"Ġurbaines":9339,"ĠmÃ¢":9340,"Ġconnec":9341,"Ġrecueillies":9342,"ĠreÃ§ue":9343,"ĠindÃ©sira":9344,"Ġchemins":9345,"Ġassemb":9346,"Ġpoursuivi":9347,"Ġbiom":9348,"ĠconsacrÃ©es":9349,"ĠÃ©tage":9350,"Ġlait":9351,"expÃ©":9352,"Ġferont":9353,"Ġfigurer":9354,"Ġbourse":9355,"Ġpoliciers":9356,"Ġdent":9357,"86":9358,"Ġreconnue":9359,"Ġgraphique":9360,"accessibilitÃ©":9361,"Ġgab":9362,"Ġaccueille":9363,"Ġvarie":9364,"Ġdesc":9365,"vÃ©n":9366,"Ġofficiers":9367,"ĠlibellÃ©":9368,"Ġcontenues":9369,"ency":9370,"84":9371,"Ġprince":9372,"Ġapprendre":9373,"Ġsynth":9374,"bel":9375,"Ġoccasionn":9376,"stan":9377,"ĠpÃ©dago":9378,"osi":9379,"ĠblÃ©":9380,"Ġjames":9381,"ĠconcrÃ©":9382,"Ġexception":9383,"Ġrecr":9384,"Ġexigent":9385,"iness":9386,"Ġconstant":9387,"Ġmit":9388,"Ġvola":9389,"Ġsaurait":9390,"Ġhabitats":9391,"Ġsauvages":9392,"Ġrevoir":9393,"ĠharcÃ¨lement":9394,"Ġcollabor":9395,"Ã©parg":9396,"----------------":9397,"Ġindication":9398,"autÃ©":9399,"Ġgrossesse":9400,"ĠÐ":9401,"ize":9402,"Ġabus":9403,"Ġgagner":9404,"ĠespÃ¨re":9405,"lements":9406,"Ġconnaissent":9407,"Ġtradition":9408,"ĠsÃ©di":9409,"Ġconstitutionnelle":9410,"Ġgrandement":9411,"Ġprairies":9412,"Ġinterc":9413,"Ġdic":9414,"apec":9415,"cinquiÃ¨me":9416,"espoir":9417,"Ġlabrador":9418,"Ġmadrid":9419,"inno":9420,"Ġincidents":9421,"Ġintroduit":9422,"Ġquotidienne":9423,"ĠprÃ©voyant":9424,"ĠimpÃ´ts":9425,"ĠratifiÃ©":9426,"Ġcompensation":9427,"Ġexcellent":9428,"ĠdÃ©central":9429,"Ġbancaire":9430,"ĠmunicipalitÃ©":9431,"iert":9432,"Ġaver":9433,"Ġcouncil":9434,"Ġfardeau":9435,"ĠcontrÃ´leur":9436,"illets":9437,"Ġdarfour":9438,"ison":9439,"Ġgaza":9440,"empÃªcher":9441,"ĠdÃ©clen":9442,"tish":9443,"Ġrapides":9444,"ĠconsÃ©cu":9445,"Ġvivement":9446,"vÃ©es":9447,"urÃ©es":9448,"Ġibid":9449,"Ġconstamment":9450,"certitude":9451,"issez":9452,"Ġmunicipal":9453,"ĠextÃ©rieurs":9454,"Ġclub":9455,"Ġimprimer":9456,"obiles":9457,"Ġsaou":9458,"ĠÃ©ventuels":9459,"ĠÃ©lecteurs":9460,"Ġdistribuer":9461,"Ġradic":9462,"ĠbibliothÃ¨ques":9463,"nelles":9464,"utilitÃ©":9465,"dames":9466,"ĠdÃ©passer":9467,"Ġmat":9468,"ĠÃ©ventuelle":9469,"Ġgarantit":9470,"Ġprovisoires":9471,"Ġmutuelle":9472,"Ġ[...]":9473,"ĠÃ©manant":9474,"accompagn":9475,"Ġrares":9476,"alphab":9477,"Ġexiger":9478,"Ġdeviennent":9479,"Ġcapables":9480,"ĠprÃ©paratifs":9481,"colombie":9482,"signÃ©":9483,"Ġcopies":9484,"ĠsystÃ©matiquement":9485,"Ġqualifications":9486,"kg":9487,"Ġsuppose":9488,"ĠÃ©lectriques":9489,"ĠdiffÃ©rent":9490,"Ġaborder":9491,"Ġmunitions":9492,"istants":9493,"Ġaccessoires":9494,"tio":9495,"antis":9496,"ĠsubsÃ©qu":9497,"ĠlÃ©gitime":9498,"Ġcolle":9499,"Ġpassation":9500,"Ġcompta":9501,"Ġ1984":9502,"moi":9503,"accords":9504,"Ġcigare":9505,"ĠcaractÃ¨res":9506,"Ġsri":9507,"inflation":9508,"Ġrencontrer":9509,"orer":9510,"ĠaÃ®nÃ©s":9511,"Ġconcrets":9512,"isions":9513,"ml":9514,"Ġmesdames":9515,"uela":9516,"Ġportes":9517,"Ġcase":9518,"Ġbla":9519,"Ġnormalisation":9520,"ĠpriÃ¨re":9521,"Ġrisquent":9522,"Ġgas":9523,"Ġpuits":9524,"rey":9525,"Ġsitue":9526,"Ġ91":9527,"Ġfiables":9528,"Â§":9529,"intolÃ©rance":9530,"avocat":9531,"olvabilitÃ©":9532,"oxyde":9533,"ĠmÃ©morandum":9534,"Ġmains":9535,"ĠcompÃ©tent":9536,"inten":9537,"ĠÃ©quipement":9538,"Ġ79":9539,"Ġgrie":9540,"ĠapparaÃ®t":9541,"inqui":9542,"plus":9543,"bro":9544,"ĠgravitÃ©":9545,"Ġtol":9546,"Ġindividuelle":9547,"Ġattribuable":9548,"ĠcÃ©rÃ©monie":9549,"Ġcitoyen":9550,"Ġvoiture":9551,"Ġconsolider":9552,"option":9553,"Ġrejets":9554,"ĠnigÃ©ria":9555,"Ġexceptions":9556,"ling":9557,"Ġsingapour":9558,"aises":9559,"indemnitÃ©":9560,"Ġstre":9561,"Ġconju":9562,"2010":9563,"Ġdieu":9564,"Ġchir":9565,"locations":9566,"ĠbiodiversitÃ©":9567,"Ġfax":9568,"Ġconfron":9569,"Ġtouchent":9570,"Ġretrouve":9571,"Ġrencontres":9572,"ĠÃ©nergÃ©tiques":9573,"Ġcanal":9574,"Ġmultic":9575,"Ġannon":9576,"ĠspÃ©cialiste":9577,"ĠultÃ©rieurement":9578,"Ġadjo":9579,"Ġavenue":9580,"Ġmalaisie":9581,"Ġrespecte":9582,"iel":9583,"Ġmusic":9584,"verbal":9585,"ĠaidÃ©":9586,"projet":9587,"med":9588,"Ġcoalition":9589,"alliance":9590,"Ġdiplomatique":9591,"bul":9592,"sses":9593,"Ġproducteur":9594,"Ġgend":9595,"Ġaidera":9596,"Ġlitige":9597,"terie":9598,"emballage":9599,"Ġsaine":9600,"Ã¸":9601,"ĠexÃ©cuter":9602,"zz":9603,"Ġconversion":9604,"Ġbern":9605,"Ġagroalimentaire":9606,"Ġrica":9607,"Ġpet":9608,"ĠconcernÃ©e":9609,"ĠdÃ©cennies":9610,"Ġsainte":9611,"Ġlondres":9612,"Ġpure":9613,"Ġaccueilli":9614,"aurait":9615,"Ġquotidien":9616,"82":9617,"Ġparfaitement":9618,"version":9619,"ĠplacÃ©s":9620,"Ġ82":9621,"Ġfermement":9622,"Ġinhum":9623,"Ġdessin":9624,"ĠdÃ©veloppÃ©":9625,"Ġassister":9626,"ĠpÃªcheurs":9627,"ĠrÃ©cent":9628,"inventaire":9629,"Ġgratuitement":9630,"Ġfeux":9631,"Ġconnex":9632,"Ġcontacter":9633,"Ġhoc":9634,"ĠingrÃ©":9635,"Ġdors":9636,"miers":9637,"idemment":9638,"Ġbancaires":9639,"ĠingrÃ©di":9640,"emprisonnement":9641,"Ġvertic":9642,"Ġretomb":9643,"ĠplanÃ¨te":9644,"Ġenrich":9645,"ĠamÃ©ricaines":9646,"ini":9647,"Ġappareil":9648,"Ġtraditionnelle":9649,"Ġpnue":9650,"Ġincorpo":9651,"ĠdÃ©terminÃ©es":9652,"Ġinn":9653,"Ġgeorge":9654,"Ġfusion":9655,"Ġtemporaires":9656,"ĠsalariÃ©s":9657,"Ġenseignement":9658,"ĠapprouvÃ©es":9659,"Ġschool":9660,"ĠbÃ©nÃ©ficie":9661,"ĠversÃ©s":9662,"ĠÃ©prouv":9663,"Ã©rar":9664,"amend":9665,"Ġspirit":9666,"Ġchoc":9667,"ĠappelÃ©e":9668,"ĠconstituÃ©e":9669,"ĠdÃ©terminÃ©s":9670,"Ġguatemala":9671,"Ġacquise":9672,"Ġrevient":9673,"Ġrel":9674,"Ġexerce":9675,"mÃ©diaires":9676,"ĠrÃ©clamation":9677,"ĠÃ©chantillon":9678,"Ġmoldo":9679,"oriser":9680,"ĠÃ©carts":9681,"ĠÃ©dif":9682,"Ġsexuelles":9683,"occuper":9684,"ĠenquÃª":9685,"ĠÃ©labo":9686,"Ġentam":9687,"Ġsexuels":9688,"Ġfondant":9689,"Ġbomb":9690,"Ġkyoto":9691,"Ã©quival":9692,"autant":9693,"Ġtom":9694,"Ġplage":9695,"Ġabouti":9696,"ĠÂ±":9697,"ĠmÃ¨":9698,"Ġland":9699,"cuitÃ©":9700,"ĠprÃ©fÃ©rence":9701,"Ġsel":9702,"Ġlaur":9703,"Ġinsulaires":9704,"atrice":9705,"Ġcant":9706,"achÃ¨vement":9707,"ving":9708,"alo":9709,"ĠdotÃ©":9710,"Ġpositives":9711,"arienne":9712,"Ġinjus":9713,"cas":9714,"Ġouverture":9715,"Ġcfp":9716,"ĠdurabilitÃ©":9717,"Ġges":9718,"Ġspatiale":9719,"Ġexcessi":9720,"Ġsurpr":9721,"Ġrecyclage":9722,"Ġclassiques":9723,"ĠreprÃ©sentÃ©":9724,"Ġ%),":9725,"insolvabilitÃ©":9726,"exprimer":9727,"Ġparle":9728,"Ġincen":9729,"issants":9730,"Ġcourse":9731,"annes":9732,"Ġpromul":9733,"Ġpertinent":9734,"chau":9735,"Ġjournalistes":9736,"ĠprÃ©vision":9737,"Ġfoss":9738,"ĠdÃ©signer":9739,"ĠaÃ©riennes":9740,"ĠlÃ©s":9741,"nant":9742,"pire":9743,"ĠpayÃ©s":9744,"ĠnumÃ©riques":9745,"Ġbangladesh":9746,"torat":9747,"Ġposts":9748,"Ġcolumb":9749,"Ġcommises":9750,"ĠbasÃ©":9751,"Ġabu":9752,"Ġdemandent":9753,"Ġcharbon":9754,"ĠcommuniquÃ©es":9755,"ĠproblÃ©":9756,"Ġcommon":9757,"Ġpalestinienne":9758,"ĠdÃ©termine":9759,"Ġoriginal":9760,"Ġonu":9761,"ĠdÃ©duction":9762,"Ġvariable":9763,"Ġbillets":9764,"Ġwork":9765,"nouvelle":9766,"ĠaffectÃ©":9767,"assent":9768,"capit":9769,"Ġpesticides":9770,"ĠlevÃ©e":9771,"ĠfixÃ©e":9772,"faire":9773,"Ġcoeffic":9774,"Ġmalte":9775,"Ġadditionnel":9776,"Ġentrevues":9777,"entra":9778,"ordi":9779,"Ġheur":9780,"Ġajoute":9781,"ommage":9782,"oul":9783,"ĠÂ©":9784,"Ġexigence":9785,"acier":9786,"Ġpul":9787,"Ġinscrite":9788,"Ġyougoslave":9789,"Ġexcellence":9790,"ĠnÃ©gocier":9791,"ĠprÃ©alables":9792,"Ġrespectent":9793,"ĠrequÃ©rante":9794,"ĠÂ»)":9795,"page":9796,"hygiÃ¨ne":9797,"Ġdiscipline":9798,"Ġbienvenue":9799,"Ġpharmaceutiques":9800,"Ġsyner":9801,"Ġsouhaiter":9802,"Ġimmobiliers":9803,"Ġabsol":9804,"Ġiraq":9805,"lÃ¨tes":9806,"ambie":9807,"rop":9808,"Ġremarque":9809,"Ġaccro":9810,"Ġlongues":9811,"Ġetat":9812,"ory":9813,"Ġconnue":9814,"Ġcib":9815,"Ġestiment":9816,"Ġexpressions":9817,"ĠsÃ©paration":9818,"Ġpat":9819,"Ġram":9820,"Ġinfectie":9821,"ulÃ©s":9822,"Ġprescr":9823,"ÂŃ":9824,"ĠÃ©toiles":9825,"Ġrechercher":9826,"ĠsÃ©nÃ©gal":9827,"ĠhÃ´te":9828,"ĠinformÃ©s":9829,"Ġdemeurer":9830,"Ġaffirm":9831,"ĠscolaritÃ©":9832,"onction":9833,"Ġfortes":9834,"Ġoffres":9835,"Ġpare":9836,"employÃ©s":9837,"Ġcommet":9838,"Ġsauvegarde":9839,"ervise":9840,"apport":9841,"ulaire":9842,"ĠspÃ©cialisÃ©e":9843,"culaires":9844,"original":9845,"Ġsatisfa":9846,"ĠcausÃ©s":9847,"annÃ©es":9848,"ĠÃ©videmment":9849,"inclure":9850,"Ã©tendue":9851,"disciplin":9852,"Ġplanifier":9853,"ther":9854,"Ġhonora":9855,"Ġcomporter":9856,"maj":9857,"ĠprÃªte":9858,"comme":9859,"ĠrefusÃ©":9860,"uffis":9861,"ĠseptiÃ¨me":9862,"iso":9863,"aimer":9864,"view":9865,"ĠoccupÃ©s":9866,"ulÃ©e":9867,"ĠdÃ©taillÃ©s":9868,"autriche":9869,"Ġcentaines":9870,"Ġprostitution":9871,"direc":9872,"Ã¥":9873,"Ġlig":9874,"ĠnommÃ©s":9875,"Ġquitter":9876,"Ġracc":9877,"ĠvÃ©tÃ©":9878,"Ġcomposants":9879,"Ġtraduire":9880,"Ġdouce":9881,"hÃ´pital":9882,"isemb":9883,"ĠdensitÃ©":9884,"allocation":9885,"Ġspa":9886,"Ġprofils":9887,"Ã©valu":9888,"Ġavancer":9889,"Ġunila":9890,"rig":9891,"itage":9892,"ĠcohÃ©rente":9893,"ĠvÃ©rificateur":9894,"Ġanticip":9895,"acide":9896,"Ġtanz":9897,"lÃ¨ve":9898,"Ġrespira":9899,"ËĨ":9900,"rouge":9901,"Ã©lo":9902,"Ġproviennent":9903,"cule":9904,"Ġms":9905,"Ġautomobile":9906,"onnÃ©":9907,"Ġproro":9908,"Ġcandidates":9909,"Ġautomatique":9910,"Ġconsacrer":9911,"Ġpromoteur":9912,"erson":9913,"Ġconsultants":9914,"Ġattra":9915,"Ġedmonton":9916,"ĠlibÃ©ria":9917,"Ġoctro":9918,"Ġimposer":9919,"Ġessai":9920,"Ġplomb":9921,"Ġmagaz":9922,"Ġsole":9923,"Ġphosph":9924,"issantes":9925,"atmosphÃ¨re":9926,"isez":9927,"Ġengager":9928,"mines":9929,"Ġloisirs":9930,"tienne":9931,"Ġcontractante":9932,"Ġcompil":9933,"posage":9934,"Ġreprendre":9935,"hib":9936,"ĠcalculÃ©":9937,"Ġpeau":9938,"ĠexposÃ©es":9939,"Ġpisc":9940,"Ġvisibles":9941,"ĠxÃ©nophobie":9942,"Ġmedic":9943,"ulÃ©es":9944,"Ġfixation":9945,"ĠprÃ©liminaires":9946,"Ġminimales":9947,"Ġbc":9948,"Ġcouronne":9949,"Ġsupervise":9950,"Ġsir":9951,"agerie":9952,"ĠrÃ©agir":9953,"ĠcaractÃ©r":9954,"crimination":9955,"Ġrights":9956,"Ġgazette":9957,"Ġretenues":9958,"ĠvoilÃł":9959,"ĠappliquÃ©s":9960,"Ġukraine":9961,"Ġdemain":9962,"azote":9963,"ĠdÃ©tente":9964,"ĠrÃ©cupÃ©ration":9965,"uguay":9966,"ĠtirÃ©es":9967,"commissaire":9968,"ĠdÃ©crits":9969,"Ġencourageant":9970,"Ġsubsistance":9971,"Ġinformel":9972,"Ġtubercul":9973,"ĠprofondÃ©ment":9974,"Ġvenezuela":9975,"Ġcontenir":9976,"Ġmobiles":9977,"Ġwomen":9978,"Ġphotograph":9979,"endance":9980,"laurent":9981,"cieuse":9982,"vu":9983,"time":9984,"aller":9985,"Ġmoldova":9986,"ĠrÃ©tablir":9987,"sible":9988,"ĠprÃ©judici":9989,"bat":9990,"Ġtroupes":9991,"Ġterrestre":9992,"Ġkazakh":9993,"Ġcirconscription":9994,"Ġphases":9995,"Ġunited":9996,"Ġrapatri":9997,"Ġmini":9998,"Ġmusul":9999,"Ġpartiellement":10000,"âĢĿ,":10001,"Ġplant":10002,"Ġexpl":10003,"Ġtables":10004,"Ġopposition":10005,"Ġcouverts":10006,"Ġwood":10007,"Ġsemi":10008,"Ġrecueill":10009,"Ġ1970":10010,"ĠmaternitÃ©":10011,"avantages":10012,"ĠpÃ©nitenti":10013,"ĠcitÃ©":10014,"Ġcamer":10015,"comp":10016,"Ġvolets":10017,"Ġindividuel":10018,"ancienne":10019,"ĠdÃ©finitif":10020,"rif":10021,"Ġvraisemb":10022,"Ġaggra":10023,"anmar":10024,"Ġglace":10025,"sbourg":10026,"Ġsaumon":10027,"ador":10028,"ĠroutiÃ¨re":10029,"Ġfibres":10030,"ĠdÃ©mons":10031,"obi":10032,"Ġdouze":10033,"Ġpermanentes":10034,"tuellement":10035,"Ġessay":10036,"ĠcoopÃ©ratives":10037,"ĠinterprÃ©tÃ©":10038,"aimerais":10039,"Ġcorriger":10040,"ĠqualifiÃ©":10041,"tera":10042,"eration":10043,"trie":10044,"Ġpma":10045,"ser":10046,"econd":10047,"Ġvide":10048,"Ġpun":10049,"prÃ©sent":10050,"ĠrÃ©solu":10051,"ĠavancÃ©es":10052,"ĠassurÃ©e":10053,"Ġbritish":10054,"ĠarmÃ©":10055,"date":10056,"Ġplacements":10057,"Ġinjec":10058,"ĠdirigÃ©":10059,"Ġvastes":10060,"ĠsoulevÃ©es":10061,"Ġcompose":10062,"ĠdiscrÃ©":10063,"Ġboissons":10064,"Ġcycles":10065,"Ġaquatiques":10066,"ĠthÃ©matiques":10067,"Ġmanifeste":10068,"Ġexpositions":10069,"hal":10070,"Ġprogressive":10071,"Ġtransaction":10072,"labrador":10073,"Ġautorise":10074,"Ġcollectives":10075,"effectif":10076,"Ġviable":10077,"ĠinterprÃ©":10078,"ĠassistÃ©":10079,"Ġreb":10080,"ĠusÃ©es":10081,"ĠtirÃ©":10082,"ĠencouragÃ©":10083,"Ġidentiques":10084,"Ġgren":10085,"envisager":10086,"Ġterrains":10087,"Ġpluriann":10088,"Ġmentionner":10089,"Ġrevenir":10090,"Ġobservation":10091,"Ġcourante":10092,"Ġavocat":10093,"Ġaudiovis":10094,"interven":10095,"bol":10096,"Ġproduites":10097,"ĠlÃ©gislations":10098,"def":10099,"ĠfiabilitÃ©":10100,"ĠvÃ©ritablement":10101,"ĠcommÃ©mo":10102,"ĠdÃ©clin":10103,"riers":10104,"Ġordres":10105,"Ġpostsecond":10106,"Ġconnus":10107,"ĠlÃ©gale":10108,"Ġcriminels":10109,"Ġcontribuera":10110,"Ġversions":10111,"Ãªtres":10112,"Ġsouven":10113,"Ġbient":10114,"Ġtunisie":10115,"Ġperd":10116,"iera":10117,"Ġchaleur":10118,"Ġcamps":10119,"ĠprobabilitÃ©":10120,"Ġiran":10121,"Ġgratuit":10122,"Ġurbaine":10123,"Ġdues":10124,"Ġsubir":10125,"ĠintermÃ©diaires":10126,"Ġactionn":10127,"ĠfixÃ©es":10128,"Ã©vÃ©nement":10129,"indice":10130,"Ġvaccins":10131,"81":10132,"Ġï¿½":10133,"ĠminoritÃ©":10134,"ĠsÃ©parÃ©ment":10135,"alg":10136,"Ġpasseport":10137,"ĠdiplÃ´m":10138,"Ġmeur":10139,"Ġconfirmation":10140,"iconque":10141,"sser":10142,"Ġem":10143,"asser":10144,"jing":10145,"ĠidentitÃ©":10146,"Ġtraditionnel":10147,"ĠretombÃ©es":10148,"ĠacquÃ©rir":10149,"ĠtÃ©lÃ©charger":10150,"imb":10151,"Ġsalv":10152,"ĠrÃ©gulier":10153,"Ġattendre":10154,"accum":10155,"ĠdixiÃ¨me":10156,"Ã©noncÃ©":10157,"Ġpieds":10158,"Ġcauser":10159,"Ġabsor":10160,"secrÃ©":10161,"Ġsupervis":10162,"ĠdÃ©pense":10163,"Ġofferte":10164,"ĠnÃ©glig":10165,"ancier":10166,"ĠsymptÃ´mes":10167,"Ġlanka":10168,"ght":10169,"accÃ©der":10170,"exigence":10171,"Ġbateau":10172,"ĠÃ©laborÃ©s":10173,"ĠmarquÃ©":10174,"informatique":10175,"Ġoriginaires":10176,"Ġrurale":10177,"Ġsanitaire":10178,"Ã©pargne":10179,"ĠÃ©largi":10180,"Ġbritann":10181,"tueux":10182,"Ġanc":10183,"Ġconvenus":10184,"aculture":10185,"entraÃ®nement":10186,"Ġillustr":10187,"ĠindÃ©pendamment":10188,"Ġinstitutionnelles":10189,"Ġtraditions":10190,"fort":10191,"ĠcÃ©lÃ©b":10192,"Ġkar":10193,"Ã©dÃ©ration":10194,"Ġclima":10195,"Ġvisa":10196,"Ġ1981":10197,"Ġmonter":10198,"opt":10199,"olon":10200,"agisse":10201,"Ġcrucial":10202,"Ġdevis":10203,"rp":10204,"Ġdirections":10205,"irment":10206,"illage":10207,"ĠÃ©cri":10208,"ĠconsultÃ©":10209,"Ġimprimable":10210,"ĠmÃ¨res":10211,"entiels":10212,"zy":10213,"ipo":10214,"ĠcomposÃ©e":10215,"Ġcambod":10216,"Ġpy":10217,"ĠcÃ©lÃ¨":10218,"ĠprocÃ¨de":10219,"ĠdÃ©posÃ©es":10220,"Ġcic":10221,"ĠmÃ©tro":10222,"Ġprestataires":10223,"Ġinaccep":10224,"ĠrepÃ©":10225,"Ġ105":10226,"ĠapportÃ©e":10227,"Ġliquide":10228,"Ġfiche":10229,"ĠachevÃ©":10230,"Ġtru":10231,"gard":10232,"raisons":10233,"Ġmanip":10234,"Ġhyper":10235,"Ġfirst":10236,"Ġouvertes":10237,"Ġemplacement":10238,"ĠvallÃ©e":10239,"lc":10240,"isser":10241,"uss":10242,"ols":10243,"uil":10244,"ĠidentifiÃ©s":10245,"Ġurl":10246,"onge":10247,"Ġprimordi":10248,"ĠlÃ©gal":10249,"Ġchoisis":10250,"Ġnit":10251,"Ġjuger":10252,"Ġconstitutionnel":10253,"orme":10254,"Ġconcertation":10255,"ĠspÃ©cifications":10256,"Ġsalon":10257,"Ġtravailleur":10258,"Ġnormales":10259,"ĠÃ©lectorales":10260,"ĠrenforcÃ©e":10261,"ĠbientÃ´t":10262,"Ã¨tement":10263,"innocuitÃ©":10264,"Ġbelle":10265,"Ġ________________________________":10266,"ĠassurÃ©s":10267,"Ġinforme":10268,"Ġcombustibles":10269,"Ġproduite":10270,"Ġpin":10271,"ĠdÃ©posÃ©s":10272,"inture":10273,"Ġdois":10274,"efforcer":10275,"Ġpensons":10276,"ĠrÃ©digÃ©":10277,"ĠdÃ©couverte":10278,"ĠÃ©crites":10279,"Ġoccupe":10280,"issage":10281,"ĠnÃ©pal":10282,"Ġconviendrait":10283,"Ġbranche":10284,"Ġquiconque":10285,"ĠapportÃ©s":10286,"excÃ©d":10287,"arisation":10288,"ĠrÃ©uni":10289,"ĠbÃ©n":10290,"Ġmachine":10291,"ĠillÃ©gale":10292,"iennes":10293,"Ġarbres":10294,"Ġaident":10295,"Ġparrain":10296,"pf":10297,"Ġusines":10298,"Ġdec":10299,"Ġcourantes":10300,"Ġqualit":10301,"Ġmyanmar":10302,"Ġassum":10303,"phy":10304,"britÃ©":10305,"Ġaccomplir":10306,"Ġvalidation":10307,"Ġutilisez":10308,"Ġsouth":10309,"Ġaustrali":10310,"Ã©rarch":10311,"ĠmodifiÃ©s":10312,"Ġgravement":10313,"ĠrevÃªt":10314,"Ġprov":10315,"alphabÃ©":10316,"Ġsouhaitable":10317,"Ġenlev":10318,"Ġequ":10319,"ĠtransfÃ©rer":10320,"Ġrejo":10321,"issau":10322,"ĠattribuÃ©":10323,"Ġrup":10324,"Ġcroix":10325,"ĠmultilatÃ©rales":10326,"ĠdÃ©favoris":10327,"Ġincon":10328,"Ġlittoral":10329,"Ġponc":10330,"Ġtyp":10331,"ĠattÃ©nuer":10332,"Ġprendra":10333,"ĠcessÃ©":10334,"Ġquelqu":10335,"annulation":10336,"ĠadaptÃ©":10337,"ĠaccÃ©lÃ©rer":10338,"Ġmerci":10339,"Ġconjoints":10340,"lantation":10341,"Ġjoint":10342,"ĠsÃ©cher":10343,"Ġgolfe":10344,"sg":10345,"ĠcrÃ©dibilitÃ©":10346,"Ġcomportent":10347,"Ġbusiness":10348,"observ":10349,"Ġ**":10350,"Ġsmith":10351,"Ġredevances":10352,"Ġsoleil":10353,"simil":10354,"orial":10355,"Ġcatalogue":10356,"ĠhiÃ©rarch":10357,"Ã©tal":10358,"tination":10359,"Ġcolumbia":10360,"Ġsinc":10361,"ĠforcÃ©":10362,"ĠdiabÃ¨te":10363,"Ġplaces":10364,"Ġacides":10365,"Ġinsta":10366,"Ã©lÃ¨ve":10367,"ĠdistribuÃ©":10368,"ĠrÃ©capit":10369,"ĠindÃ©":10370,"estimation":10371,"Ġprogression":10372,"acia":10373,"ĠrÃ©sidus":10374,"essence":10375,"Ġsucre":10376,"kin":10377,"Ġpermettez":10378,"ĠdÃ©crite":10379,"ĠnÃ©er":10380,"ĠatmosphÃ©rique":10381,"rog":10382,"Ġtenter":10383,"Ġbulletins":10384,"Ġfacilitation":10385,"Ġredress":10386,"Ġolympiques":10387,"Ġheb":10388,"ĠrÃ©affirmant":10389,"ĠcoordonnÃ©e":10390,"Ġguid":10391,"indicateurs":10392,".);":10393,"ĠadÃ©quat":10394,"Ġstip":10395,"inscrit":10396,"uffisance":10397,"Ġpacifiques":10398,"ĠÃ©tendu":10399,"abri":10400,"ĠminiÃ¨re":10401,"ĠdÃ©coulent":10402,"Ġforest":10403,"Ġantiterr":10404,"Ġremet":10405,"asc":10406,"Ġcorrespondants":10407,"Ġkazakhstan":10408,"ĠdÃ©cel":10409,"Ġriches":10410,"alem":10411,"Ġjordanie":10412,"icaine":10413,"Ġabsence":10414,"lat":10415,"ĠintÃ©rieurs":10416,"nez":10417,"Ġhabitat":10418,"Ġarr":10419,"adn":10420,"Ġsortir":10421,"Ġhommage":10422,"Ġgeneral":10423,"ĠrencontrÃ©":10424,"ĠenregistrÃ©es":10425,"Ġfoyer":10426,"wood":10427,"attendre":10428,"Ġinfectieuses":10429,"Ġplacer":10430,"ĠpÃ©nÃ©":10431,"Ġimpliquant":10432,"Ġconfirme":10433,"Ġfier":10434,"ĠprocrÃ©":10435,"Ġconstituant":10436,"estime":10437,"agr":10438,"Ã¯s":10439,"Ġhautes":10440,"architecture":10441,"Ġmarines":10442,"Ġindicateur":10443,"Ġautomobiles":10444,"Ġcouleurs":10445,"Ġuni":10446,"ĠadaptÃ©es":10447,"rÃ©ditation":10448,"rats":10449,"Ġisland":10450,"ĠÃ©quivalent":10451,"Ã©gypte":10452,".\"":10453,"acquÃ©rir":10454,"ĠnÃ©fas":10455,"Ġregion":10456,"Ġargentine":10457,"envoi":10458,"ĠchaÃ®nes":10459,"Ġdevrions":10460,"ĠtÃ©moignage":10461,"partment":10462,"invaliditÃ©":10463,"Ġsoutenue":10464,"Ġtension":10465,"ĠrÃ©cla":10466,"entielles":10467,"Ġestimation":10468,"ayer":10469,"ressent":10470,"Ġultra":10471,"riez":10472,"Ġts":10473,"ĠdÃ©rogation":10474,"Ġanne":10475,"ĠsÃ©lec":10476,"Ġcoupe":10477,"ĠnÃ©gatives":10478,"ĠprÃ©valence":10479,"Ġfao":10480,"ĠrÃ©guliers":10481,"major":10482,"Ġprisonniers":10483,"ĠdÃ©roulement":10484,"Ġfluc":10485,"Ġdemandant":10486,"Ġreconnues":10487,"Ġperdre":10488,"Ġinnovation":10489,"Ġdistinct":10490,"Ġcroit":10491,"Ġmaurice":10492,"Ġcesser":10493,"ĠÃ©lectoral":10494,"ulp":10495,"Ġsaoudite":10496,"Ġtradu":10497,"Ã©curitÃ©":10498,"Ġinscri":10499,"Ġverbale":10500,"Ġrail":10501,"ĠamÃ©nag":10502,"ĠcafÃ©":10503,"ĠformulÃ©":10504,"ĠreflÃ¨tent":10505,"ĠidÃ©al":10506,"ĠavancÃ©e":10507,"Ġbeijing":10508,"Ġinuit":10509,"Ġtort":10510,"Ġconviction":10511,"itude":10512,"ĠprÃ©cieux":10513,"faits":10514,"Ġconfusion":10515,"Ġambassade":10516,"europÃ©":10517,"Ġnot":10518,"ĠsÃ©curitaire":10519,"ĠminÃ©raux":10520,"ĠaccordÃ©s":10521,"201":10522,"Ġtrim":10523,"Ġnoir":10524,"Ġtc":10525,"Ġriche":10526,"Ġpel":10527,"Ġtanzanie":10528,"acteurs":10529,"Ġfaisaient":10530,"tle":10531,"animitÃ©":10532,"Ġoccidental":10533,"ĠÃ©largir":10534,"arrang":10535,"ĠÃ©poque":10536,"domad":10537,"teau":10538,"vois":10539,"arth":10540,"Ġoptimis":10541,"ospÃ©ci":10542,"Ġinvestir":10543,"cop":10544,"Ġmanifestation":10545,"Ġbritanniques":10546,"Ġay":10547,"Ġlance":10548,"Ġtuberculose":10549,"Ġproches":10550,"Ġeffectue":10551,"Ġfoun":10552,"enseign":10553,"Ġvarient":10554,"Ġfigur":10555,"avez":10556,"aÃ¯que":10557,"groupe":10558,"Ġrad":10559,"Ġdistincts":10560,"sor":10561,"ĠsalubritÃ©":10562,"Ġobserve":10563,"ĠarriÃ¨re":10564,"cel":10565,"Ġcollections":10566,"Ġappris":10567,"ĠpÃ©nur":10568,"ieuse":10569,"ĠcrÃ©ant":10570,"iri":10571,"rÃ£":10572,"Ġsouscrit":10573,"Ġratifier":10574,"uad":10575,"Ġcontamination":10576,"Ġ$,":10577,"ĠfacultÃ©":10578,"ĠrÃ©vÃ¨le":10579,"ĠapparaÃ®tre":10580,"'Â«":10581,"ĠtoxicitÃ©":10582,"ĠdÃ©partements":10583,"ash":10584,"ĠexerÃ§ant":10585,"Ġmaximal":10586,"aliments":10587,"ĠparallÃ¨le":10588,"Ġjuridictions":10589,"ologies":10590,"icien":10591,"Ġfurent":10592,"Ġchapitres":10593,"],":10594,"Ġ09":10595,"Ġauxili":10596,"ĠrÃ©gie":10597,"enses":10598,"Ġcriminel":10599,"Ġtarifaires":10600,"ep":10601,"ĠopÃ©rateurs":10602,"dÃ©termination":10603,"aiea":10604,"Ġinspections":10605,"}\\":10606,"Ġchevau":10607,"ĠadhÃ©sion":10608,"icide":10609,"Ġbasse":10610,"Ġmarqu":10611,"mod":10612,"yau":10613,"ĠdÃ©cisionnel":10614,"ĠprÃ©coce":10615,"Ġcouvert":10616,"lissement":10617,"Ġrestreint":10618,"Ġsignification":10619,"ĠinhÃ©r":10620,"Ġdisciplin":10621,"espÃ¨ces":10622,"Ġcomplets":10623,"section":10624,"ĠenregistrÃ©e":10625,"ĠvÃ©tÃ©rin":10626,"Ġmoral":10627,"Ã©tant":10628,"Ġhabil":10629,"Ġacheter":10630,"ĠprotÃ©ines":10631,"Ġue":10632,"Ġexon":10633,"telle":10634,"Å¡":10635,"Ġvoitures":10636,"Ġvalable":10637,"gibles":10638,"Ġouvrages":10639,"bure":10640,"ĠmÃ£":10641,"ĠnÃ©gative":10642,"Ġrs":10643,"Ġmay":10644,"Ġ1983":10645,"ĠamÃ©liorÃ©e":10646,"Ġvillages":10647,"timÃ©":10648,"ĠdÃ©clarÃ©s":10649,"ĠsuggÃ¨re":10650,"ĠdÃ©rivÃ©s":10651,"ĠaÃ©roports":10652,"Ġcerner":10653,"bud":10654,"Ġsignaux":10655,"ĠnÃ©gatif":10656,"Ġsyndicat":10657,"dique":10658,"Ġmonu":10659,"Ġ125":10660,"Ã©chantillonnage":10661,"Ġinitialement":10662,"Ġ$)":10663,"adresser":10664,"Ġallocations":10665,"ĠmÃ©tÃ©orologiques":10666,"guÃ©e":10667,"ĠdÃ©terminant":10668,"ĠpassÃ©e":10669,"Ġeducation":10670,"ight":10671,"Ġsubdi":10672,"Ġhumides":10673,"ĠvÃ©ritÃ©":10674,"ĠparlÃ©":10675,"ĠmarquÃ©e":10676,"Ġtoile":10677,"Ġpand":10678,"Ġtextiles":10679,"Ġaccepte":10680,"Ġsouhaitez":10681,"personn":10682,"Ġrempli":10683,"Ã©levage":10684,"Ð¾":10685,"Ġcomptent":10686,"Ġclaires":10687,"Ġstructurels":10688,"ĠportÃ©es":10689,"ĠdÃ©montre":10690,"Ġev":10691,"ifÃ¨res":10692,"sen":10693,"âĪĴ":10694,"essentiel":10695,"octobre":10696,"ĠconsidÃ¨rent":10697,"Ġanalogues":10698,"Ġnommer":10699,"ĠsignÃ©e":10700,"Ġphysi":10701,"Ġconfort":10702,"Ġobtenue":10703,"ĠcongÃ©s":10704,"ĠÃ©galitÃ©":10705,"ĠnÃ©gli":10706,"Ġminoritaires":10707,"Ġenceintes":10708,"Ġinconn":10709,"ativitÃ©":10710,"Ġmontag":10711,"Ġcollectif":10712,"ĠsexospÃ©ci":10713,"agents":10714,"Ġmel":10715,"ĠformÃ©s":10716,"Ġtrouvant":10717,"Ġcompatible":10718,"tics":10719,"Ġmanufactur":10720,"Ġinscription":10721,"Ġfiable":10722,"Ġtransnationale":10723,"ĠarmÃ©e":10724,"ĠhabilitÃ©":10725,"ĠrÃ©affirmÃ©":10726,"exac":10727,"Ġconviennent":10728,"ĠthÃ©orie":10729,"Ġimpose":10730,"ĠrÃ©cipro":10731,"armac":10732,"Ġfluctu":10733,"Ġgran":10734,"Ġretrouver":10735,"ily":10736,"endum":10737,"Ġsyrienne":10738,"ĠdÃ©ser":10739,"ĠrÃ©volution":10740,"Ġaudiences":10741,"onudi":10742,"Ġtentative":10743,"Ġfassent":10744,"ĠparitÃ©":10745,"ĠreliÃ©s":10746,"Ġverre":10747,"Ġreligieuse":10748,"1994":10749,"ĠinfirmiÃ¨res":10750,"Ġsoumissionn":10751,"ĠÃ©tendue":10752,"Ġtouristique":10753,"Ġretenu":10754,"Ġcomparables":10755,"ceau":10756,"argentine":10757,"Ã©chÃ©":10758,"Ġspectre":10759,"Ġchrist":10760,"Ġorale":10761,"ĠprÃ©cip":10762,"phone":10763,"ĠguÃ¨re":10764,"800":10765,"Ġadditionnelles":10766,"ĠrentabilitÃ©":10767,"Ġinfections":10768,"Ġsouches":10769,"tiser":10770,"Ġcoloni":10771,"Ġcollo":10772,"Ġdiriger":10773,"kina":10774,"Ġretards":10775,"interaction":10776,"Ġferm":10777,"ĠcÃ´tiÃ¨re":10778,"ĠdÃ©tourn":10779,"gel":10780,"ĠmusÃ©es":10781,"Ġvisait":10782,"agrÃ©ment":10783,"Ġvendeur":10784,"Ġartif":10785,"Ġintellig":10786,"Ġsusciter":10787,"omas":10788,"Ġmack":10789,"Ġramen":10790,"Ġtransformer":10791,"ĠlÃ©gumes":10792,"ĠisraÃ©liennes":10793,"ĠcondamnÃ©":10794,"Ġrichard":10795,"Ġcomparer":10796,"vas":10797,"Ġindispensables":10798,"Ġinspir":10799,"ĠfÃ©minine":10800,"Ġredou":10801,"Ġmultination":10802,"ĠrelevÃ©s":10803,"ĠÃ©chel":10804,"ĠrÃ©putation":10805,"Ġchercheur":10806,"ĠdÃ©mographique":10807,"Ġfaill":10808,"Ġfruc":10809,"ati":10810,"np":10811,"Ġappendice":10812,"cnrc":10813,"oty":10814,"Ġdisque":10815,"Ġandre":10816,"ĠcontinuitÃ©":10817,"Ġdus":10818,"idu":10819,"ura":10820,"ĠindÃ©pendantes":10821,"ĠdemandÃ©e":10822,"carbures":10823,"Ġinteractions":10824,"Ġquart":10825,"Ġpark":10826,"Ġexploitants":10827,"ĠspÃ©cialisÃ©":10828,"ĠdÃ©marches":10829,"Ġmcc":10830,"Ġcumula":10831,"effort":10832,"Ġambiti":10833,"Ã©ronef":10834,"ĠvisibilitÃ©":10835,"intim":10836,"Ġfavorisent":10837,"indonÃ©sie":10838,"Ġconvergence":10839,"Ġincluent":10840,"Ġcontrepartie":10841,"liquant":10842,"Ġexpert":10843,"ĠrespectÃ©":10844,"ene":10845,"ĠzÃ©ro":10846,"Ġacquit":10847,"Ġintergouvernementale":10848,"Ġattendant":10849,"Ġcontaminants":10850,"Ġreproduc":10851,"Ġ---":10852,"Ġprofondes":10853,"mentation":10854,"Ġamerican":10855,"Ġcotisation":10856,"Ġout":10857,"mond":10858,"Ġversements":10859,"Ġhebdomad":10860,"Ġstagi":10861,"avril":10862,"Ġhaye":10863,"Ġguides":10864,"ĠconfrontÃ©s":10865,"alb":10866,"laira":10867,"Ġmunicipales":10868,"incertitude":10869,"Ġformations":10870,"ĠindÃ©sirables":10871,"Ġsant":10872,"objectifs":10873,"ĠaffectÃ©es":10874,"ĠdÃ©vers":10875,"unanimitÃ©":10876,"Ġsignale":10877,"omo":10878,"capacitÃ©":10879,"ĠdÃ©mographiques":10880,"ĠfinancÃ©es":10881,"arme":10882,"ĠÅĵuv":10883,"Ġparlements":10884,"Ġdistinctes":10885,"Ġvite":10886,"Ġpm":10887,"Ġengend":10888,"ĠmÃ©tis":10889,"ll":10890,"Ġdoha":10891,"ĠversÃ©e":10892,"Ġconsenti":10893,"Ġpencher":10894,"Ġhigh":10895,"ministÃ©ri":10896,"Ġprud":10897,"Ġhabitant":10898,"issaient":10899,"nom":10900,"Ġvaccination":10901,"Ġreconnaissent":10902,"Ġusagers":10903,"inspec":10904,"Ġparcours":10905,"Ġnaturellement":10906,"Ġoptique":10907,"Ġaffectation":10908,"Ġindirectement":10909,"ĠsignalÃ©s":10910,"usalem":10911,"Ġbir":10912,"Ġghana":10913,"ĠdÃ©livrÃ©":10914,"Ġfaisons":10915,"Ġinfanti":10916,"ĠinÃ©galitÃ©s":10917,"Ġinvent":10918,"financement":10919,"Ġregroupement":10920,"discrimination":10921,"Ġapparent":10922,"ratoire":10923,"Ġroutier":10924,"ogÃ¨nes":10925,"Ġfoyers":10926,"hos":10927,"Ġurbains":10928,"Ġdj":10929,"irait":10930,"Ġcompatibles":10931,"=-":10932,"Ġhor":10933,"ĠintÃ©grale":10934,"Ġdiscriminatoire":10935,"ĠjÃ©r":10936,"tibilitÃ©":10937,"ial":10938,"face":10939,"ĠtempÃ©ratures":10940,"ĠÃ©numÃ©rÃ©s":10941,"iew":10942,"opo":10943,"Ġgras":10944,"Ġdiversif":10945,"Ġfraction":10946,"Ġarmements":10947,"Ġmarie":10948,"rate":10949,"tÃ©lÃ©":10950,"ĠaccÃ©l":10951,"ĠdiplÃ´mÃ©s":10952,"ualitÃ©":10953,"ĠprononcÃ©":10954,"Ġcali":10955,"terdam":10956,"Ġrecon":10957,"Ġsupprim":10958,"Ġwhite":10959,"Ġvoulues":10960,"of":10961,"ĠdemandÃ©s":10962,"imbab":10963,"Ġchrom":10964,"Ġretenir":10965,"Ġwag":10966,"Ã©cou":10967,"Ġcarto":10968,"Ġcf":10969,"lah":10970,"dÃ©veloppement":10971,"ĠrÃ©side":10972,"ĠimpÃ´t":10973,"Ġtissu":10974,"bis":10975,"dou":10976,"dÃ©s":10977,"Ġcommunity":10978,"km":10979,"ĠflexibilitÃ©":10980,"itez":10981,"ĠarrivÃ©e":10982,"Ġmath":10983,"licopt":10984,"efforce":10985,"Ġbras":10986,"auf":10987,"alerte":10988,"Ġsubsidiaires":10989,"ĠposÃ©es":10990,"Ð°":10991,"Ġmorts":10992,"Ġallons":10993,"Ã©tendre":10994,"Ġtensions":10995,"ĠmodÃ©l":10996,"ĠministÃ©rielles":10997,"Ġinterdiction":10998,"Ġaval":10999,"entis":11000,"Ġami":11001,"Ġinfo":11002,"Ġros":11003,"Ġsalvador":11004,"ĠrÃ©colte":11005,"Ġlc":11006,"Ġpermanence":11007,"ĠformulÃ©e":11008,"Ġinstaurer":11009,"Ġmettra":11010,"Ġcession":11011,"Ġapproxim":11012,"Ġconstruit":11013,"ĠbarÃ¨me":11014,"Ġchroniques":11015,"Ġdesquelles":11016,"Ġmanifestement":11017,"ĠÃ©ventuel":11018,"Ġoxy":11019,"ĠreprÃ©sentÃ©s":11020,"ĠsensibilitÃ©":11021,"vr":11022,"Ġavion":11023,"Ġtun":11024,"entreposage":11025,"Ġcombustion":11026,"locution":11027,"Ġking":11028,"Ġnich":11029,"ĠclassÃ©s":11030,"idÃ©mi":11031,"ĠdÃ©bar":11032,"Ñģ":11033,"essais":11034,"Ġrn":11035,"ĠdÃ©fa":11036,"Ġguy":11037,"conn":11038,"Ġfleu":11039,"ilier":11040,"Ġratio":11041,"ĠlancÃ©e":11042,"ĠobservÃ©e":11043,"extension":11044,"Ġcity":11045,"ĠaccordÃ©es":11046,"lairage":11047,"mt":11048,"chim":11049,"Ġpolicy":11050,"Ġfmi":11051,"Ġfonde":11052,"Ġdp":11053,"001":11054,"Ġdre":11055,"Ġattitudes":11056,"ĠÃ©ventuelles":11057,"Ġabond":11058,"Ġcoordonnateurs":11059,"ĠdÃ©coule":11060,"minÃ©e":11061,"Ġformats":11062,"extradition":11063,"Ã©glise":11064,"lÃ¨ne":11065,"aco":11066,"Ġconscient":11067,"annonce":11068,"ĠrÃ©glementations":11069,"abandon":11070,"Ġassurent":11071,"bour":11072,"ward":11073,"ĠrÃ©crÃ©":11074,"ĠrÃ©comp":11075,"Ġoriental":11076,"ĠprÃ©cau":11077,"Ġinciter":11078,"Ġpassif":11079,"Ġsexuel":11080,"Ġprimes":11081,"Ġmaintenance":11082,"Ġliquides":11083,"seph":11084,"Ġelec":11085,"mas":11086,"Ġ1979":11087,"Ġdepartment":11088,"ĠchrÃ©":11089,"ander":11090,"Ġbarba":11091,"Ġconfiguration":11092,"Ġmamm":11093,"icara":11094,"Ġss":11095,")-":11096,"Ġautoriser":11097,"Ġgov":11098,"Ġdistincte":11099,"Ġconstituait":11100,"ĠcontaminÃ©s":11101,"ĠimportÃ©s":11102,"Ġvenant":11103,"invitation":11104,"initÃ©":11105,"ĠdÃ©pendent":11106,"entrepreneur":11107,"Ġdivisions":11108,"Ġindice":11109,"Ġespaces":11110,"atar":11111,"ĠrÃ©form":11112,"aug":11113,"Ġrespectives":11114,"Ġenvironmental":11115,"dt":11116,"Ġunif":11117,"Ġrajus":11118,"ĠsÃ©diments":11119,"Ġexactement":11120,"fil":11121,"Ġtrousse":11122,"reuves":11123,"Ġenc":11124,"france":11125,"Ġclauses":11126,"taine":11127,"medi":11128,"rira":11129,"Ġmontagne":11130,"Ġvaut":11131,"valle":11132,"Ġchauss":11133,"ĠdonnÃ©s":11134,"Ġattent":11135,"ĠindonÃ©sie":11136,"ocÃ©":11137,"Ġenglobe":11138,"ĠrelÃ¨vement":11139,"Ġpharmac":11140,"intimÃ©":11141,"Ġmoz":11142,"Ġjoh":11143,"ĠcrÃ©anciers":11144,"international":11145,"Ġgradu":11146,"Ġflor":11147,"Ġpropice":11148,"ĠlÃ©gitimes":11149,"apprÃ©ciation":11150,"fricaine":11151,"Ġlitiges":11152,"ĠarrÃªtÃ©s":11153,"ĠidentifiÃ©":11154,"ĠadÃ©quates":11155,"Ġhall":11156,"Ġcivilisations":11157,"Ðµ":11158,"Ġsah":11159,"ĠaccompagnÃ©":11160,"Ġmajeurs":11161,"Ġrepris":11162,"Ġ101":11163,"ĠÃ©ducatif":11164,"installations":11165,"armer":11166,"agas":11167,"tone":11168,"itar":11169,"tionnaire":11170,"phÃ©n":11171,"raser":11172,"Ġmotion":11173,"Ġsatisfaisante":11174,"ĠscÃ©nario":11175,"Ġprouver":11176,"ĠrÃ©servÃ©":11177,"autodÃ©termination":11178,"ĠenvisagÃ©es":11179,"Ġcyc":11180,"indiquer":11181,"Ġchronique":11182,"currence":11183,"Ġforment":11184,"Ġzimbab":11185,"Ġexplications":11186,"Ġregret":11187,"Ġimm":11188,"ros":11189,"Ġapprouver":11190,"Ġremarques":11191,"Ġretourner":11192,"Ġuse":11193,"ĠtÃ©lÃ©phonique":11194,"Ġmanuels":11195,"icier":11196,"Ġcorr":11197,"ĠdenrÃ©es":11198,"gre":11199,"ĠantÃ©rieurs":11200,"Ġimportateurs":11201,"crÃ©":11202,"arios":11203,"ĠexercÃ©":11204,"ĠbilatÃ©rales":11205,"Ġaddi":11206,"ĠposÃ©":11207,"Ġfumer":11208,"tenstein":11209,"ĠsÃ©rieusement":11210,"amÃ©ricaine":11211,"ĠrÃ©diger":11212,"Ġdesquels":11213,"plan":11214,"___":11215,"issÃ©":11216,"Ġnetwork":11217,"Ġdc":11218,"Ġfiches":11219,"ĠrespectÃ©es":11220,"Ġstrasbourg":11221,"Ġuniques":11222,"Ġsuspendu":11223,"ĠprÃ©sentement":11224,"ĠdÃ©monstration":11225,"exploiter":11226,"ompe":11227,"Ġprofessions":11228,"ĠexÃ©cutive":11229,"explique":11230,"ĠlÃ©gales":11231,"huile":11232,"iÃ£":11233,"Ġavoirs":11234,"Ġpromen":11235,"ĠinterministÃ©ri":11236,"Ġoriginale":11237,"Ġpav":11238,"Ġwilliam":11239,"eum":11240,"ĠdÃ©couv":11241,"Ġapplique":11242,"Ġaudit":11243,"Ġaccroissement":11244,"Ġ-,":11245,"oon":11246,"Ġconsister":11247,"orgi":11248,"ĠprÃ©cÃ¨de":11249,"Ġorigine":11250,"ĠdÃ©clarÃ©e":11251,"Ġmarchande":11252,"Ġsoy":11253,"Ġ1978":11254,"Ġdirectes":11255,"Ġpsychologique":11256,"ĠgÃ©noci":11257,"Ġvotes":11258,"Ġcameroun":11259,"expÃ©ri":11260,"entreprendre":11261,"ĠbrÃ»":11262,"Ġsinon":11263,"Ġtrade":11264,"ĠescomptÃ©s":11265,"Ġrecord":11266,"ĠenvisagÃ©":11267,"entendre":11268,"default":11269,"fem":11270,"Ġvendus":11271,"Ġglobales":11272,"ĠsoupÃ§":11273,"Ġstimul":11274,"efficience":11275,"Ġinhumains":11276,"Ġxxie":11277,"Ġbank":11278,"embar":11279,"Ġvisitez":11280,"ĠjÃ©rusalem":11281,"Ġarbitral":11282,"ĠtÃ©moigne":11283,"cou":11284,"ĠathlÃ¨tes":11285,"Ġchu":11286,"ĠcrÃ©ances":11287,"Ġimmeubles":11288,"Ġincer":11289,"gn":11290,"key":11291,"Ġstrictement":11292,"lablement":11293,"Ġpaysage":11294,"ĠËĨ":11295,"Ġinond":11296,"Ġcomptable":11297,"ĠÃ©valuÃ©s":11298,"Ġlecteur":11299,"Ġnoire":11300,"inscri":11301,"Ġinnovations":11302,"Ġrenouvelable":11303,"Ġouvre":11304,"matric":11305,"accepter":11306,"Ġappuient":11307,"Ġvape":11308,"Ġquotas":11309,"Ġhorizon":11310,"Ġdor":11311,"ĠquÃ©b":11312,"Ġsulf":11313,"appuie":11314,"rette":11315,"ĠrÃ©sidu":11316,"Ġrapporteurs":11317,"Ġconscients":11318,"enh":11319,"Ġperformances":11320,"Ġbh":11321,"Ġsurvenus":11322,"vais":11323,"Ġmodules":11324,"echtenstein":11325,"Ġadapter":11326,"erence":11327,"Ġcollege":11328,"Ġinsuff":11329,"Ġconserve":11330,"Ġexaminera":11331,"Ġraisonnablement":11332,"Ġcorro":11333,"osoph":11334,"Ġfaux":11335,"Ġformules":11336,"hÃ©bergement":11337,"âĢ²":11338,"yenne":11339,"Ġdisciplines":11340,"Ġpropagation":11341,"liÃ¨re":11342,"Ġperturb":11343,"apparition":11344,"apeca":11345,"ĠÃ¨":11346,"ĠÃ©largie":11347,"Ġgouvernemental":11348,"Ġconsciente":11349,"Ġglu":11350,"Ġbull":11351,"Ġdevenus":11352,"Ġenter":11353,"ĠdÃ©sertification":11354,"olie":11355,"Ġï£":11356,"leste":11357,"ql":11358,"Ġalex":11359,"ĠmentionnÃ©e":11360,"well":11361,"ajustement":11362,"Ġ130":11363,"Ġcalibre":11364,"Ġnicara":11365,"riques":11366,"Ġmascul":11367,"Ġpalais":11368,"landaise":11369,"Ġexplosifs":11370,"Ġfournira":11371,"ĠentrÃ©":11372,"Ġpaye":11373,"Ġmentionne":11374,"ĠemployÃ©es":11375,"ĠreflÃ©ter":11376,"Ġassujettis":11377,"ĠÎ¼g":11378,"orti":11379,"Ġquinze":11380,"ĠrÃ©viser":11381,"Ġstages":11382,"estations":11383,"hypothÃ¨se":11384,"ĠconcrÃ¨te":11385,"Ġsr":11386,"Ġchil":11387,"Ġki":11388,"Ġvraisemblablement":11389,"Ġyougoslavie":11390,"Ġgovern":11391,"ĠphÃ©nomÃ¨nes":11392,"Ġmut":11393,"appendice":11394,"Ġabsolue":11395,"miques":11396,"Ġacier":11397,"Ġremarquable":11398,"amor":11399,"espÃ©":11400,"Ġsar":11401,"ĠpÃ£":11402,"ett":11403,"mann":11404,"Ġchargement":11405,"prÃ©sidents":11406,"ĠdÃ©gradants":11407,"Ġ140":11408,"Ġcare":11409,"Ġfruit":11410,"Ġexclus":11411,"Ġchute":11412,"Ġmt":11413,"Ġuns":11414,"Ġgain":11415,"ĠcÃ´tÃ©s":11416,"ĠdÃ©lim":11417,"formitÃ©":11418,"Ġoug":11419,"Ġexpertise":11420,"irmiers":11421,"ĠdisparitÃ©s":11422,"Ġacceptables":11423,"ĠprotÃ©gÃ©":11424,"Ġleader":11425,"Ġsoufre":11426,"Ġdiscriminatoires":11427,"ĠintÃ©gralement":11428,"Ġfacilite":11429,"=-=-":11430,"ĠprÃ©lÃ¨vement":11431,"ĠfaisabilitÃ©":11432,"Ġdirigeant":11433,"ulaires":11434,"Ġalliance":11435,"Ġtad":11436,"Ġhond":11437,"Ġphilosoph":11438,"ciales":11439,"Ġfemelles":11440,"sembles":11441,"Ġkong":11442,"Ġanth":11443,"indique":11444,"ĠavancÃ©":11445,"onal":11446,"Ġfis":11447,"Ġclarifier":11448,"ĠproblÃ©matique":11449,"Ġvoulez":11450,"Ġcontinueront":11451,"Ġneige":11452,"Ġmagasins":11453,"Ġurgent":11454,"Ġfood":11455,"chlor":11456,"Ġdoses":11457,"Ġmunicipaux":11458,"oubli":11459,"Ġbrun":11460,"Ġrenferme":11461,"budg":11462,"Ġsteph":11463,"Ġri":11464,"anol":11465,"mit":11466,"Ġcolonies":11467,"Ġimag":11468,"cy":11469,"Ġamende":11470,"adrc":11471,"icatives":11472,"Ġsalue":11473,"ĠqualifiÃ©e":11474,"Ġmichel":11475,"*,":11476,"insuffisance":11477,"vation":11478,"Ã©chapp":11479,"Ġperfectionn":11480,"ĠprÃ©cÃ©dant":11481,"habilitation":11482,"ouer":11483,"Ġbruit":11484,"Ġfaso":11485,"Ġconnexion":11486,"Ġcond":11487,"Ġexces":11488,"Ġfrag":11489,"Ġsportives":11490,"Ġrarement":11491,"Ġartifici":11492,"Ġclassique":11493,"ilton":11494,"ĠtraitÃ©e":11495,"Ã©largir":11496,"Ġfonder":11497,"oe":11498,"Ġnovatrices":11499,"ĠcÃ©d":11500,"Ġah":11501,"Ġcondamnation":11502,"Ġargent":11503,"Ġcigarettes":11504,"dÃ©cision":11505,"ailles":11506,"ĠdÃ©tient":11507,"ĠthÃ©matique":11508,"ĠingrÃ©dients":11509,"ĠdÃ©tÃ©rioration":11510,"chauff":11511,"ĠÃ©thique":11512,"Ġfaim":11513,"Ġjardin":11514,"Ġfun":11515,"ĠdÃ©marrage":11516,"Ġbolivie":11517,"Ġappliquant":11518,"Ġgloss":11519,"ĠdiffÃ©rend":11520,"idÃ©mie":11521,"Ġrayonnement":11522,"Ġallocation":11523,"mans":11524,"ĠdÃ©charge":11525,"cev":11526,"Ġmineur":11527,"Ġly":11528,"ormes":11529,"ĠobservÃ©es":11530,"tentions":11531,"Ġcalculs":11532,"Ġcouvrant":11533,"Ġsph":11534,"Ġcellule":11535,"ĠsimultanÃ©ment":11536,"extraction":11537,"Ġafricain":11538,"Ġcambodge":11539,"enquÃª":11540,"Ġagit":11541,"expulsion":11542,"ĠsoixantiÃ¨me":11543,"ated":11544,"cos":11545,"Ġconciliation":11546,"Ġaccueillir":11547,"Ġactives":11548,"Ġrespectant":11549,"ĠÃ©laborÃ©es":11550,"Ġannex":11551,"ylÃ¨ne":11552,"Ġvita":11553,"info":11554,"Ġnews":11555,"up":11556,"ĠrÃ©servation":11557,"bureau":11558,"Ġportail":11559,"ĠimposÃ©e":11560,"Ġconcurrents":11561,"Ġtp":11562,"Ġnair":11563,"Ġrestaurants":11564,"Ġgarantis":11565,"ĠinstallÃ©":11566,"Ġpatrimoni":11567,"Ġ350":11568,"Ġartistique":11569,"hre":11570,"Ġwill":11571,"Ġexprime":11572,"cies":11573,"uminium":11574,"Ġsn":11575,"Ġrichesse":11576,"Ġabro":11577,"Ġnets":11578,"lÃ£":11579,"Ġtouristiques":11580,"Ġpalud":11581,"Ġdies":11582,"Ġressortir":11583,"ipel":11584,"Ġinfantile":11585,"Ġsoutiennent":11586,"Ġjaponais":11587,"rÃ¨g":11588,"ĠmodÃ©lisation":11589,"Ġbet":11590,"Ã©tation":11591,"Ġredressement":11592,"Ġcontraign":11593,"Ġentretien":11594,"Ġmutuellement":11595,"ĠconÃ§ue":11596,"ralement":11597,"nam":11598,"ĠnÃ©fastes":11599,"Ġclo":11600,"onique":11601,"amÃ©ricain":11602,"ĠexigÃ©":11603,"enant":11604,"Ġliechtenstein":11605,"ennement":11606,"Ġlangage":11607,"ray":11608,"ĠadaptÃ©e":11609,"ĠcommenÃ§ant":11610,"Ġsatisfaits":11611,"Ġnourr":11612,"Ã©preuve":11613,"nera":11614,"Ġpartielle":11615,"ball":11616,"bor":11617,"Ġservira":11618,"Ġmagnif":11619,"fm":11620,"ĠdÃ©terminants":11621,"ï¿½ï¿½":11622,"Ã©tend":11623,"ĠrÃ©unit":11624,"ĠboÃ®te":11625,"Ġrendues":11626,"ĠadressÃ©":11627,"ĠdÃ©signÃ©es":11628,"Ġsg":11629,"red":11630,"ĠcollÃ¨gue":11631,"Ġsimplifier":11632,"Ġchers":11633,"Ġgood":11634,"Ġquan":11635,"Ġantiterroriste":11636,"ĠrÃ©partis":11637,"vasion":11638,"Ġsubordonn":11639,"Ġoublier":11640,"ajout":11641,"Ġannonces":11642,"lay":11643,"ĠcinÃ©":11644,"Ġsat":11645,"ĠdÃ©bu":11646,"pin":11647,"impunitÃ©":11648,"Ġvalide":11649,"sn":11650,"ĠinfÃ©rieurs":11651,"Ġpaludisme":11652,"actives":11653,"Ġmaintenu":11654,"midi":11655,"sub":11656,"Ġinstitutionnelle":11657,"intÃ©ressÃ©":11658,"olÃ©":11659,"Ġwell":11660,"Ġrot":11661,"Ġruisse":11662,"ĠÃ©limination":11663,"Ġtire":11664,"Ġattribuables":11665,"Ġapprofondi":11666,"Ġfleuve":11667,"ĠÃ®le":11668,"Ġallait":11669,"Ġaugmentations":11670,"Ġangle":11671,"illÃ©":11672,"ĠobservÃ©s":11673,"Ġsand":11674,"Ġloy":11675,"opport":11676,"ĠespÃ£":11677,"ĠlÃ©gitim":11678,"Ġmultipli":11679,"ĠhuitiÃ¨me":11680,"ĠdÃ©veloppements":11681,"ĠrÃ©gulation":11682,"azerbaÃ¯djan":11683,"dumping":11684,"expÃ©dition":11685,"Ġzimbabwe":11686,"Ġordinateurs":11687,"Ġcandidatures":11688,"Ġcentraux":11689,"ĠcaractÃ©ristique":11690,"tou":11691,"mg":11692,"ĠdÃ©nomination":11693,"Ġagi":11694,"Ġtranche":11695,"orerie":11696,"appropri":11697,"Ġfoundation":11698,"dge":11699,"Ġml":11700,"reprÃ©sent":11701,"ĠconÃ§ues":11702,"ĠreliÃ©es":11703,"Ġmali":11704,"document":11705,"exactitude":11706,"Ġarchitec":11707,"adÃ©qu":11708,"Ġcontribuant":11709,"Äĩ":11710,"ĠentrÃ©es":11711,"Ġterminant":11712,"Ġtelec":11713,"ĠcompÃ©tition":11714,"appartenance":11715,"ĠinsistÃ©":11716,"ĠderriÃ¨re":11717,"ĠappelÃ©s":11718,"Ġbain":11719,"ĠdÃ©fenseurs":11720,"Ġsouris":11721,"ĠprÃ©occupÃ©e":11722,"Ġsignificatif":11723,"Ġreine":11724,"note":11725,"ĠaccompagnÃ©e":11726,"Ġrare":11727,"Ġrapportent":11728,"ĠprÃªter":11729,"Ġforestiers":11730,"Ġexcellente":11731,"Ġtransmises":11732,"Ġmeubles":11733,"Ġpartant":11734,"lim":11735,"donnÃ©es":11736,"imposer":11737,"accrÃ©ditation":11738,"Ġtraitant":11739,"aver":11740,"Ġinfirmiers":11741,"ĠdÃ©tenu":11742,"Ġenregistrements":11743,"Ġgare":11744,"mier":11745,"ĠblessÃ©s":11746,"ĠpassÃ©s":11747,"ĠgÃ©nocide":11748,"Ġrapporteuse":11749,"ĠlicenciÃ©e":11750,"analyser":11751,"Ã¨lent":11752,"autor":11753,"Ġgrain":11754,"Ġexplication":11755,"Ġfroid":11756,"Ġsecur":11757,"ĠtrÃ©sorerie":11758,"Ġvieux":11759,"ĠlimitÃ©s":11760,"diques":11761,"Ġauteur":11762,"Ġvenu":11763,"Ġthomas":11764,"Ġstatuts":11765,"Ġinterculture":11766,"ĠrÃ©ussir":11767,"ĠâĢĺ":11768,"ĠsÃ¨":11769,"Ġsurviv":11770,"ĠnÃ©cessiter":11771,"Ġburkina":11772,"Ġveux":11773,"Ġraccord":11774,"tml":11775,"ĠthÃ©rapeutiques":11776,"ĠvÃ©gÃ©tation":11777,"outs":11778,"Ġct":11779,"Ġkings":11780,"ĠrÃª":11781,"illus":11782,"ridge":11783,"Ġsain":11784,"Ġacide":11785,"Ġchanti":11786,"ĠdÃ©lÃ©guÃ©":11787,"Ġcorrectives":11788,"ĠÃ©ducatifs":11789,"Ġconducteur":11790,"Ġtribu":11791,"sk":11792,"Ġnairobi":11793,"ĠrÃ©pandu":11794,"ĠrÃ©flÃ©chir":11795,"incapacitÃ©":11796,"Ġdudit":11797,"pays":11798,"ĠrenforÃ§ant":11799,"ĠÃ©gypte":11800,"Ġstades":11801,"Ġchaud":11802,"Ġsable":11803,"Ġxvi":11804,"ortÃ©e":11805,"ĠÃ©nergies":11806,"tition":11807,"ĠcomplÃ¨tes":11808,"Ġtele":11809,"Ġexercent":11810,"Ġvoient":11811,"ĠterminÃ©e":11812,"Ġassis":11813,"Ġcherchent":11814,"Ġbalk":11815,"Ġproportionn":11816,"ĠdÃ©bouchÃ©s":11817,"Ġajustements":11818,"ocÃ©an":11819,"ĠmodifiÃ©es":11820,"ĠsusmentionnÃ©es":11821,"Ġvocation":11822,"illants":11823,"ĠcorrÃ©lation":11824,"Ġgrec":11825,"Ġinscrivez":11826,"Ġ1967":11827,"ĠpiÃ©":11828,"aborder":11829,"ĠÃ©nonce":11830,"Ġsignataires":11831,"Ġcirculaire":11832,"Ġexistante":11833,"chen":11834,"ĠatmosphÃ©riques":11835,"Ġmorales":11836,"Ġcalme":11837,"ĠÃ©labore":11838,"Ġparticipantes":11839,"Ġeuropean":11840,"impose":11841,"ĠscÃ©narios":11842,"vol":11843,"ĠâĤ¬":11844,"Ġviii":11845,"bar":11846,"ĠprononcÃ©e":11847,"veloppe":11848,"ĠsÃ©cheresse":11849,"argu":11850,"enquÃªtes":11851,"Ġexclusive":11852,"lass":11853,"Ġconnexe":11854,"imposent":11855,"holm":11856,"estes":11857,"Ġ1977":11858,"Ġinspecteurs":11859,"Ġrendez":11860,"Ġescadre":11861,"Ġnota":11862,"Ġshe":11863,"Ġdomestique":11864,"Ġconces":11865,"Ġillustre":11866,"ĠprÃ©parÃ©s":11867,"Ġmp":11868,"Ġton":11869,"secrÃ©taire":11870,"Ġattitude":11871,"eci":11872,"Ġbov":11873,"Ġrog":11874,"dec":11875,"intens":11876,"ĠimposÃ©":11877,"yougosla":11878,"ĠfÃ©licitÃ©":11879,"Ġexhaustive":11880,"antÃ©cÃ©d":11881,"ĠcÃ´tiÃ¨res":11882,"Ġorganisationnelle":11883,"Ġye":11884,"alise":11885,"ĠdÃ©tecter":11886,"Ġsystem":11887,"hau":11888,"Ð¸":11889,"ĠmonÃ©taires":11890,"ĠÃ©volu":11891,"ductions":11892,"Ġpiscine":11893,"jonction":11894,"idrc":11895,"aquaculture":11896,"Ġhtml":11897,"ĠhypothÃ¨ses":11898,"Ġhouse":11899,"Ġanglo":11900,"ĠdÃ©couvert":11901,"Ġconsultant":11902,"zbÃ©":11903,"Ã¯des":11904,"absor":11905,"ĠazerbaÃ¯djan":11906,"Ġrod":11907,"Ġrats":11908,"zbÃ©kistan":11909,"Ġdal":11910,"yougoslavie":11911,"ĠbriÃ¨vement":11912,"Ġportait":11913,"Ġentrent":11914,"Ġdiverg":11915,"Ġforts":11916,"Ġ104":11917,"ĠjugÃ©e":11918,"ĠpassÃ©es":11919,"ĠrÃ©troaction":11920,"mÃ©d":11921,"hÃ©r":11922,"Ġvies":11923,"Ġplaignante":11924,"Ġgrains":11925,"Ġtransporter":11926,"Ġwestern":11927,"ple":11928,"ĠtroisiÃ¨mement":11929,"ĠrÃ©fÃ©rendum":11930,"Ġforfait":11931,"Ġwindows":11932,"Ġviables":11933,"Ġrequiert":11934,"ĠcÃ¢ble":11935,"Ġhec":11936,"ocarb":11937,"Ġvenus":11938,"Ġcriminelles":11939,"ĠrÃ©unis":11940,"Ġinsuffisant":11941,"Ġgraines":11942,"Ġimmobilisations":11943,"drome":11944,"Ġberlin":11945,"Ġvigoure":11946,"auth":11947,"Ġadresser":11948,"Ġdonnera":11949,"opath":11950,"onum":11951,"Ġglossaire":11952,"atures":11953,"Ġsupports":11954,"atti":11955,"Ġka":11956,"Ã©quipage":11957,"Ġsystems":11958,"Ġantic":11959,"aspect":11960,"1992":11961,"Ġdemandons":11962,"ĠrÃ©guliÃ¨res":11963,"tus":11964,"ĠdiffÃ©renci":11965,"kes":11966,"Ġefficient":11967,"Ġtente":11968,"erreur":11969,"ound":11970,"Ġstreet":11971,"Ġadoptant":11972,"ĠpossÃ©der":11973,"ĠschÃ©":11974,"Ġlourd":11975,"Ġalimentation":11976,"Ġdistricts":11977,"ouissement":11978,"incor":11979,"ĠlaissÃ©":11980,"ĠpÃ©riph":11981,"ĠpartagÃ©e":11982,"Ġtransitoire":11983,"Ġolympique":11984,"ĠÃ©quilibrÃ©e":11985,"Ġlourds":11986,"acteur":11987,"ĠocÃ©an":11988,"ella":11989,"Ġatomique":11990,"Ġprisons":11991,"images":11992,"Ġcoupable":11993,"Ã©ral":11994,"Ġligue":11995,"Ġrecueillis":11996,"Ġmalades":11997,"ĠsÃ©ries":11998,"cton":11999,"Ġsig":12000,"Ġporno":12001,"rus":12002,"intensitÃ©":12003,"ado":12004,"Ġproject":12005,"ĠnÃ©glige":12006,"ĠdirigÃ©e":12007,"accÃ©lÃ©rer":12008,"ĠisraÃ©lien":12009,"Ġretenus":12010,"Ġfixes":12011,"Ġallemande":12012,"nations":12013,"Ġdilig":12014,"Ġsondages":12015,"encad":12016,"Ġhill":12017,"Ġserveur":12018,"Ã©mat":12019,"Ġglobalement":12020,"ĠfÃ©licitons":12021,"Ġminimal":12022,"ĠstÃ©rÃ©":12023,"Ġapprovisi":12024,"Ġassig":12025,"Ġmozamb":12026,"ĠintÃ©gral":12027,"ĠmÃ©nage":12028,"Ġdegr":12029,"estri":12030,"Ġclandes":12031,"Ġnicaragua":12032,"Ġfraser":12033,"Ġcollectifs":12034,"Ġsavent":12035,"ĠacceptÃ©e":12036,"minÃ©s":12037,"occupe":12038,"Ġcontrainte":12039,"ographique":12040,"rasse":12041,"Ġguider":12042,"Ġdistributeurs":12043,"Ġgarantissant":12044,"Ġproductions":12045,"sans":12046,"aliÃ©n":12047,"Ġsouple":12048,"Ġaudience":12049,"Ġtoucher":12050,"Ġimmigration":12051,"Ġ160":12052,"Ġsatellites":12053,"Äį":12054,"Ġcapitaine":12055,"Ġhaine":12056,"****":12057,"Ġcentra":12058,"ĠinquiÃ©tudes":12059,"Ġnuire":12060,"Ġsuffisants":12061,"armerie":12062,"Ġconcentre":12063,"habitation":12064,"ĠvÃ©cu":12065,"ĠdÃ©ployer":12066,"Ġsubstitution":12067,"Ġmcg":12068,"ĠdÃ©tenteurs":12069,"Ġdemanderesse":12070,"ogÃ¨ne":12071,"Ã¨ques":12072,"ressionn":12073,"Ġcharles":12074,"Ġrefu":12075,"individu":12076,"Ġfrontaliers":12077,"Ã¡Ã¡Ã¡Ã¡":12078,"Ġsun":12079,"idÃ©es":12080,"Ġoccupent":12081,"Ġledit":12082,"Ġpt":12083,"hor":12084,"Ġassurances":12085,"ĠquittÃ©":12086,"ĠexÃ©cutÃ©":12087,"ĠtentÃ©":12088,"ough":12089,"ĠaccrÃ©d":12090,"jetÃ©":12091,"ĠdÃ©gager":12092,"Ġparcour":12093,"ĠcÃ©lÃ¨bre":12094,"Ġrss":12095,"ĠconfÃ¨re":12096,"ref":12097,"Ġï£µ":12098,"Ġpaie":12099,"right":12100,"ĠrÃ©duisant":12101,"ĠbÃ©ta":12102,"Ġbalance":12103,"immeu":12104,"Ġcruels":12105,"Ġ103":12106,"Ġniger":12107,"Ġbec":12108,"1991":12109,"ĠjamaÃ¯que":12110,"rh":12111,"ĠpÃ©riodiquement":12112,"rÃ©gional":12113,"ĠexprimÃ©e":12114,"Ġtotaux":12115,"ĠimmÃ©diat":12116,"ĠdÃ©nomm":12117,"ĠrÃ©alitÃ©s":12118,"ĠlÃ©gÃ¨re":12119,"Ġmong":12120,"Ġindien":12121,"gis":12122,"yclo":12123,"ĠcoopÃ©rative":12124,"Ġcenter":12125,"omÃ¨tre":12126,"opÃ©ra":12127,"ĠforestiÃ¨re":12128,"ĠÃ©value":12129,"ĠgÃ¨re":12130,"Ġdeo":12131,"uds":12132,"ĠsusmentionnÃ©s":12133,"Ġferroviaires":12134,"Ġrassembler":12135,"Ġantidumping":12136,"bauche":12137,"Ġpersonnellement":12138,"Ġsouterra":12139,"Ġgreen":12140,"ĠÃ©tal":12141,"Ġanalytique":12142,"Ġinflig":12143,"ĠhÃ´tels":12144,"Ġboard":12145,"vd":12146,"olique":12147,"Ġconnues":12148,"ĠÃ©voquÃ©":12149,"Ġtentatives":12150,"Ġbataille":12151,"cd":12152,"Ġsangu":12153,"illance":12154,"ĠÃ©quiv":12155,"Ġdomestiques":12156,"Ġlargeur":12157,"Ġtransparente":12158,"exige":12159,"ĠallÃ©gation":12160,"sct":12161,"Ġprofesseurs":12162,"Ġsavez":12163,"Ġorganise":12164,"Ġarbitraire":12165,"Ġcomptant":12166,"Ġqualification":12167,"Ġgendarmerie":12168,"tats":12169,"antÃ©cÃ©dents":12170,"Ġsab":12171,"Ġinstituant":12172,"Ġcruciale":12173,"Ġaptitudes":12174,"appuyant":12175,"sch":12176,"ĠlinÃ©":12177,"now":12178,"Ġitin":12179,"Ġ2015":12180,"1993":12181,"Ġ(\"":12182,"Ġintensif":12183,"Ġinsiste":12184,"Ġexplicitement":12185,"ym":12186,"Ġrendant":12187,"Ġgib":12188,"Ġpoursuivent":12189,"ĠmaÃ¯s":12190,"extrÃªme":12191,"vements":12192,"Ġexcessive":12193,"Ġkirgh":12194,"Ġpatrou":12195,"ĠcrÃ©Ã©es":12196,"Ġlivrer":12197,"Ġdivid":12198,"Ġmidi":12199,"ona":12200,"Ġcardia":12201,"Ġconvaincue":12202,"Ġappartiennent":12203,"Ġsegment":12204,"acheteur":12205,"europa":12206,"Ġfri":12207,"ĠenvoyÃ©s":12208,"ernes":12209,"ĠbÃ©nin":12210,"Ġup":12211,"Ġinacceptable":12212,"Ġindices":12213,"Ġparas":12214,"ĠyÃ©m":12215,"Ġsymbole":12216,"Ġresources":12217,"Ġconcurrentiel":12218,"ĠrÃ©installation":12219,"Ġtechnology":12220,"Ã§ait":12221,"Ġour":12222,"Ġnaissances":12223,"Ġrat":12224,"Ġportug":12225,"Ġlos":12226,"Ġvoisinage":12227,"Ġrectifications":12228,"Ġstrate":12229,"Ġ108":12230,"ĠtÃ©lÃ©phoniques":12231,"Ġfact":12232,"assure":12233,"pop":12234,"uras":12235,"diteur":12236,"autoriser":12237,"Ġimmobilier":12238,"Ġstage":12239,"expliquer":12240,"Ġ1971":12241,"dren":12242,"exemption":12243,"Ġtraum":12244,"Ġ1975":12245,"Ġjouissent":12246,"Ġvoc":12247,"Ġcontribuables":12248,"Ġlamp":12249,"Ġventilation":12250,"enza":12251,"Ġvais":12252,"orateur":12253,"Ġindividuellement":12254,"Ġstockholm":12255,"Ġdevises":12256,"Ġexceptionnel":12257,"Ġble":12258,"Ġfonciers":12259,"incorpo":12260,"Ġneutra":12261,"lerie":12262,"Ġpilotage":12263,"invention":12264,"Ġcoton":12265,"Ġvolumes":12266,"Ġhoraires":12267,"Ġcessez":12268,"Ġsuspec":12269,"ĠfrÃ©quences":12270,"ĠimpliquÃ©s":12271,"Ġaccent":12272,"Ġcorrespondantes":12273,"Ġ(-":12274,"Ġ115":12275,"Ġtraitent":12276,"Ġprolongation":12277,"Ġprochains":12278,"Ġbiomasse":12279,"Ġprocur":12280,"Ġtransmissi":12281,"Ġbail":12282,"ums":12283,"ĠrequÃ©rants":12284,"Ġvisible":12285,"oo":12286,"Ġrues":12287,"patite":12288,"ĠdiamÃ¨tre":12289,"Ġrio":12290,"ĠdotÃ©e":12291,"Ġcomprise":12292,"Ġzambie":12293,"Ġremor":12294,"ĠcÃ©rÃ©ales":12295,"Ġmenant":12296,"Ġfragment":12297,"usine":12298,"ĠprÃ©pare":12299,"Ġgrippe":12300,"vants":12301,"Ġestonie":12302,"heures":12303,"Ġiraqui":12304,"Ġjoseph":12305,"esa":12306,"ĠÃ¡":12307,"ĠrÃ©sidant":12308,"Ġincont":12309,"ĠadministrÃ©":12310,"amendements":12311,"envergure":12312,"ĠschÃ©ma":12313,"respect":12314,"animaux":12315,"Ġincendies":12316,"ĠprÃ©cur":12317,"tox":12318,"otiques":12319,"Ġsouffrant":12320,"Ġeffor":12321,"Ġ107":12322,"Ġconcord":12323,"emprun":12324,"ĠmobiliÃ¨res":12325,"ĠnÃ©cessitent":12326,"ĠaffichÃ©":12327,"esty":12328,"ĠgrÃ©":12329,"arrangement":12330,"Ġdiamants":12331,"Ġ1373":12332,"ĠsÃ©ro":12333,"ĠdÃ©placer":12334,"Ġhc":12335,"loient":12336,"levait":12337,"Ġfacture":12338,"819":12339,"ĠÃ©numÃ©rÃ©es":12340,"ĠÃ©lectr":12341,"ĠillÃ©gales":12342,"ĠrecrutÃ©s":12343,"Ġprenne":12344,"Ġpraticiens":12345,"Ġstandards":12346,"Ġdiplomatiques":12347,"ĠlÃ©gitimitÃ©":12348,"ĠamÃ©liorant":12349,"ĠfumÃ©e":12350,"isitions":12351,"ĠmÃ¢les":12352,"Ġanimale":12353,"Ġsucces":12354,"Ġcass":12355,"Ġdescriptions":12356,"ryth":12357,"Ġfora":12358,"Ġqatar":12359,"avÃ¨re":12360,"Ã¡n":12361,"Ġidentique":12362,"ĠrÃ©putÃ©":12363,"Ġ________________":12364,"Ġappeler":12365,"chr":12366,"ĠvariÃ©tÃ©s":12367,"Ġchaleure":12368,"effets":12369,"gestion":12370,"Ġprojections":12371,"Ġfolk":12372,"ning":12373,"Ġpublie":12374,"ĠprogressÃ©":12375,"Ġquestionnaires":12376,"Ġhydra":12377,"avion":12378,"ĠdÃ©tenues":12379,"Ġtermine":12380,"Ġcoff":12381,"fig":12382,"van":12383,"ĠexÃ©cutÃ©s":12384,"Ġrenforce":12385,"Ġday":12386,"Ġbalkans":12387,"ĠÃ©noncÃ©e":12388,"oxygÃ¨ne":12389,"Ġdiesel":12390,"ĠprÃ©sentera":12391,"Ġsentir":12392,"Ġcontent":12393,"Ġlondon":12394,"bac":12395,"ĠdegrÃ©s":12396,"Ġestimons":12397,"Ġincombent":12398,"Ġtoxicomanie":12399,"gile":12400,"ĠprÃ©cisÃ©s":12401,"dÃ©p":12402,"ĠciblÃ©es":12403,"Ġattendus":12404,"yan":12405,"Ġplastique":12406,"ĠrÃ©vÃ¨lent":12407,"outi":12408,"Ãº":12409,"dont":12410,"Ġvapeur":12411,"Ġminus":12412,"rances":12413,"romp":12414,"type":12415,"ordinateur":12416,"ĠÃ©cart":12417,"ĠÃ©tudie":12418,"tÃ©l":12419,"Ġsto":12420,"Ġsouffrent":12421,"ĠÃ©quitables":12422,"Ġstar":12423,"105":12424,"2011":12425,"personnel":12426,"ĠarrivÃ©":12427,"tisÃ©":12428,"Ġmary":12429,"enregistre":12430,"sm":12431,"Ġconvaincus":12432,"Ġbrig":12433,"Ġhier":12434,"Ġsubsidiaire":12435,"Ġplaque":12436,"actualitÃ©":12437,"ĠenvisagÃ©e":12438,"ĠdÃ©vou":12439,"Ġimmeuble":12440,"sier":12441,"ĠprotÃ©gÃ©e":12442,"poli":12443,"Ġconsacre":12444,"Ġcomptabil":12445,"Ġdoctr":12446,"Ġuniformes":12447,"Ġblack":12448,"Ġdata":12449,"soft":12450,"Ġattributions":12451,"Ã©cran":12452,"Ġski":12453,"ĠrejetÃ©e":12454,"accomplissement":12455,"Ġdominicaine":12456,"tch":12457,"Ã©ron":12458,"ularitÃ©":12459,"ĠprivilÃ¨ges":12460,"Ġrapprochement":12461,"Ġallocution":12462,"ĠexpÃ©di":12463,"Ġreddition":12464,"ĠirrÃ©gu":12465,"Ġforums":12466,"ĠsupprimÃ©":12467,"Ġ1960":12468,"ĠÃ©ryth":12469,"eri":12470,"Ġpower":12471,"ĠmÃ©diterranÃ©":12472,"ĠdÃ©cÃ©d":12473,"investissements":12474,"Ġwar":12475,"Ġvag":12476,"ĠprÃ©voyait":12477,"inson":12478,"Ġinstruction":12479,"Ġvisas":12480,"alphabÃ©tisation":12481,"Ġclairs":12482,"Ġcuivre":12483,"occupent":12484,"Ġpaquet":12485,"traire":12486,"Ġdiminu":12487,"Ġprudence":12488,"tableau":12489,"Ġassume":12490,"ĠrÃ©visÃ©es":12491,"Ġtremb":12492,"Ġprorogation":12493,"Ġidentification":12494,"cieuses":12495,"ĠindÃ©pendance":12496,"Ġaffecter":12497,"Ġpermettraient":12498,"ame":12499,"Ġensembles":12500,"Ġdiman":12501,"Ġferait":12502,"Ġinitiales":12503,"Ġjug":12504,"ĠÃ©preuves":12505,"Ġquinqu":12506,"Ġadulte":12507,"Ġparticul":12508,"ĠsocioÃ©conomique":12509,"Ġprovoquer":12510,"grammes":12511,"Ġcollabore":12512,"ĠcrÃ©ativitÃ©":12513,"Ġcarburants":12514,"Ġautonum":12515,"Ġexceptionnelle":12516,"Ġtier":12517,"250":12518,"tp":12519,"Ġbilingue":12520,"Ġbassins":12521,"Ġcontingent":12522,"Ġdistinguer":12523,"rol":12524,"ÃŃa":12525,"peau":12526,"ĠÂ»;":12527,"tia":12528,"Ġgardi":12529,"Ġwil":12530,"ece":12531,"ccc":12532,"iro":12533,"Ġformelle":12534,"Ġmozambique":12535,"ĠreprÃ©sentaient":12536,"Ġ180":12537,"Ġpermette":12538,"Ġclefs":12539,"ĠadÃ©quats":12540,"Ġencad":12541,"Ġconcession":12542,"ĠbÃ©tail":12543,"Ġterroriste":12544,"ĠpÃ©nurie":12545,"ramme":12546,"Ġpanama":12547,">.":12548,"Ġbenz":12549,"instaurer":12550,"Ġfus":12551,"Ġrondes":12552,"ĠobligÃ©":12553,"sepac":12554,"Ġcorrectionnel":12555,"ĠcomtÃ©":12556,"Ġcommencent":12557,"Ġgouverneure":12558,"Ġexigeant":12559,"ĠflÃ©":12560,"Ġpromoteurs":12561,"arbitre":12562,"radi":12563,"Ġfermes":12564,"Ġfrancophone":12565,"Ġlatitude":12566,"docs":12567,"ĠrÃ©itÃ©":12568,"ĠaccusÃ©s":12569,"win":12570,"ĠpayÃ©e":12571,"enrich":12572,"Ġendomm":12573,"ĠneuviÃ¨me":12574,"ĠlittÃ©rature":12575,"occurrence":12576,"ĠarchÃ©":12577,"Ġpiste":12578,"Ġrecruter":12579,"Ġbill":12580,"Ġcyber":12581,"Ġrenvoy":12582,"Ġeg":12583,"Ġconsorti":12584,"iziÃ¨me":12585,"!!":12586,"Ġsaf":12587,"Ġrotation":12588,"Ġits":12589,"Ġfaculta":12590,"Ġexplorer":12591,"Ġaire":12592,"Ġmanqu":12593,"donald":12594,"Ġchildren":12595,"ĠantÃ©cÃ©dents":12596,"Ġentourant":12597,"Ġeli":12598,"Ġasc":12599,"ĠfÃªte":12600,"ĠdÃ®":12601,"Ġstagiaires":12602,"ĠprÃ©avis":12603,"Ġaspi":12604,"Ġnoci":12605,"Ġinspection":12606,"ĠÃ©valuÃ©es":12607,"Ġjuridiquement":12608,"Ġrevit":12609,"Ġmicrobi":12610,"Ġ).":12611,"rq":12612,"Ġece":12613,"Ġ1976":12614,"tilles":12615,"Ġroutiers":12616,"Ġintroduire":12617,"Ġutilisateur":12618,"Ġpeop":12619,"Ġinex":12620,"ĠtransfrontiÃ¨res":12621,"Ġexpression":12622,"Ã©chec":12623,"ming":12624,")).":12625,"Ġvec":12626,"appareils":12627,"Ġfund":12628,"Ġlever":12629,"ĠsuscitÃ©":12630,"itz":12631,"ĠpartagÃ©s":12632,"aille":12633,"Ġplaid":12634,"Ġsimplification":12635,"Ġadministrateur":12636,"Ġprocureurs":12637,"sol":12638,"ĠpandÃ©mie":12639,"ĠattribuÃ©s":12640,"Ġimplications":12641,"ittee":12642,"ĠbarriÃ¨res":12643,"Ġapportent":12644,"Ġsyl":12645,"ĠclassÃ©":12646,"Ġadjointe":12647,"ĠsoulevÃ©":12648,"endes":12649,"Ġcompromettre":12650,"Ġpotentiellement":12651,"ren":12652,"ĠÃ©tudiant":12653,"atisation":12654,"infrastructures":12655,"</":12656,"immobil":12657,"ĠdÃ©lits":12658,"ĠmÃ©diterranÃ©e":12659,"Ġincluses":12660,"Ġgreffier":12661,"ĠgÃ©rÃ©":12662,"Ġmorte":12663,"ressource":12664,"ĠrecrutÃ©":12665,"ĠdiscutÃ©":12666,"ĠprÃ©fÃ©rable":12667,"assin":12668,"Ġremplies":12669,"pas":12670,"Ġconventionnels":12671,"Ġbuff":12672,"sous":12673,"ull":12674,"obe":12675,"ĠtÃ©lÃ©s":12676,"Ġlende":12677,"opol":12678,"domin":12679,"Ġtap":12680,"Ġcari":12681,"Ã©clairage":12682,"Ġ106":12683,"ĠisraÃ©liens":12684,"ĠmontÃ©nÃ©gro":12685,"Ġautor":12686,"Ġportion":12687,"quiÃ©":12688,"Ġlibra":12689,"ambule":12690,"vus":12691,"ĠpostÃ©ri":12692,"Ġmigrateurs":12693,"chements":12694,"Ġtutelle":12695,"ĠalgÃ©rie":12696,"adr":12697,"exÃ©cuter":12698,"Ġsuivies":12699,"algÃ©rie":12700,"rup":12701,")/":12702,"nesty":12703,"ĠinÃ©v":12704,"ĠforestiÃ¨res":12705,"Ġmedia":12706,"ĠdemandÃ©es":12707,"\")":12708,"Ġnas":12709,"Ġpneu":12710,"ĠgÃ©nÃ©":12711,"attaque":12712,"Ġtadji":12713,"ĠmÃ©canique":12714,"ĠclassÃ©es":12715,"Ġrav":12716,"Ġ123":12717,"Ġregrette":12718,"ĠingÃ©nie":12719,"Ġpayable":12720,"Ġpartagent":12721,"Ġlieutenant":12722,"ĠÃ©chelons":12723,"lers":12724,"Ġexpul":12725,"Ġscrs":12726,"parc":12727,"sias":12728,"Ġusine":12729,"quin":12730,"ĠguÃ©r":12731,"ĠpossÃ©dant":12732,"ergy":12733,"sectori":12734,"ners":12735,"Ġregina":12736,"Ġcellulaire":12737,"Ġlind":12738,"Ġpromet":12739,"ĠprÃ©ju":12740,"Ġcriminelle":12741,"ĠjugÃ©s":12742,"Ġhabitudes":12743,"Ġanciennes":12744,"Ġauthor":12745,"Ġsuspens":12746,"Ġnamib":12747,"ĠrÃ©putÃ©e":12748,"bou":12749,"luents":12750,"ĠÃ©laborÃ©e":12751,"fra":12752,"entraide":12753,"ĠcompatibilitÃ©":12754,"ĠprotÃ¨ge":12755,"Ġcouches":12756,"ĠsÃ©journ":12757,"Ġcarol":12758,"Ġminoritaire":12759,"iat":12760,"ĠsÃ£":12761,"ĠbÃ¢tir":12762,"vingt":12763,"tilitÃ©":12764,"Ġproposent":12765,"Ġimpressionn":12766,"Ġattentats":12767,"aria":12768,"quien":12769,"Ġadresses":12770,"Ġpoursuivra":12771,"Ġep":12772,"Ġinventaire":12773,"Ġexploitations":12774,"Ġmontagnes":12775,"Ġterrasse":12776,"ĠÃ©puis":12777,"Ġordonnances":12778,"abond":12779,"ĠÃ©lectro":12780,"water":12781,"ĠexprimÃ©s":12782,"ĠprÃ©cisant":12783,"ĠconfÃ©dÃ©ration":12784,"Ġpanneaux":12785,"optique":12786,"ĠbÃ©nÃ©ficiant":12787,"Ġrevendication":12788,"Ġcomprenait":12789,"Ġwagons":12790,"ïĿ":12791,"Ġmotivation":12792,"ĠdÃ©mobilisation":12793,"Ġix":12794,"ĠagrÃ©able":12795,"trage":12796,"Ġtransparent":12797,"Ġembau":12798,"tueuse":12799,"Ġdeb":12800,"Ġdoctorat":12801,"Ġforestier":12802,"chang":12803,"ĠsouhaitÃ©":12804,"ĠprÃ©p":12805,"ĠparaÃ®t":12806,"Ġqc":12807,"ĠtouchÃ©":12808,"Ã´ne":12809,"illa":12810,"Ġobtient":12811,"ally":12812,"unitÃ©s":12813,"Ġcomptait":12814,"ken":12815,"Ġ2020":12816,"Ġhonduras":12817,"ĠonziÃ¨me":12818,"Ġannuellement":12819,"Ġsectorielles":12820,"Ġfaillite":12821,"Ġmandataire":12822,"gare":12823,"jonc":12824,"Ġlendemain":12825,"ĠdÃ©fende":12826,"Ġcanaux":12827,"Ġcomposant":12828,"Ġiraquien":12829,"Ġartistiques":12830,"Ġflotte":12831,"ĠfÃ©licitant":12832,"ĠintÃ¨g":12833,"Ġscc":12834,"ĠaccompagnÃ©s":12835,"Ġremerciements":12836,"dive":12837,"Ġsurfaces":12838,"âĢĿ.":12839,"ĠcollÃ¨ges":12840,"Ġvarier":12841,"roid":12842,"euse":12843,"ĠabrÃ©":12844,"ĠpersonnalitÃ©s":12845,"Ġchy":12846,"Ġaidant":12847,"nÃ£":12848,"Ġracines":12849,"ĠmultimÃ©di":12850,"Ġrevues":12851,"unie":12852,"pad":12853,"bb":12854,"Ġstates":12855,"Ġsauvegard":12856,"eries":12857,"Ġcorp":12858,"ĠimportÃ©es":12859,"igner":12860,"Ġblanche":12861,"enzie":12862,"Ġpasseports":12863,"ĠclartÃ©":12864,"rine":12865,"ĠsupplÃ©":12866,"Ġgis":12867,"ĠdÃ©passÃ©":12868,"Ġvisu":12869,"Ġdun":12870,"notamment":12871,"ĠdisposÃ©":12872,"ĠbÃ©nÃ©vole":12873,"Ġassimil":12874,"Ġlaiti":12875,"aptitude":12876,"sal":12877,"ĠrÃ©chauff":12878,"Ġbarc":12879,"Ġmoments":12880,"Ġexpansion":12881,"Ġ2011":12882,"accessible":12883,"Ġsuccurs":12884,"Ġhen":12885,"ĠmÃ©tabol":12886,"Ġpermission":12887,"introduire":12888,"Ġpeur":12889,"Ġestimatif":12890,"Ġrejoindre":12891,"vic":12892,"Ġmajeures":12893,"Ġerron":12894,"ĠrespectÃ©s":12895,"accident":12896,"ĠlÃ©galement":12897,"Ġparts":12898,"Ġambi":12899,"ĠadhÃ©rer":12900,"Ġpolon":12901,"lotte":12902,"Ġjustifie":12903,"Ġdynamiques":12904,"ĠdÃ©biteur":12905,"estÃ©":12906,"ĠprÃ©n":12907,"ĠÃ©chapp":12908,"pd":12909,"Ġsemestre":12910,"oiseaux":12911,"ĠmÃ©tiers":12912,"incen":12913,"texte":12914,"Ã©gide":12915,"Ġpassent":12916,"ĠrÃ©cepteur":12917,"ĠportÃ©s":12918,"Ġdiminue":12919,"ressources":12920,"Ġimposable":12921,"ĠÃ©tendre":12922,"Ġbrochure":12923,"iliers":12924,"Ġroulant":12925,"Ġlits":12926,"west":12927,"Ġlimitations":12928,"bissau":12929,"lon":12930,"ĠrencontrÃ©s":12931,"Ġku":12932,"Ġltc":12933,"Ġmobilier":12934,"wh":12935,"Ġescad":12936,"adie":12937,"ommun":12938,"Ġcomparable":12939,"ĠcalculÃ©e":12940,"Å¾":12941,"Ġaideront":12942,"ĠpersonnalitÃ©":12943,"ciÃ³n":12944,"Ġlife":12945,"aska":12946,"avÃ©rer":12947,"ĠtransfÃ©rÃ©":12948,"Ġsouhaitons":12949,"Ġhomologues":12950,"ĠrÃ©glementer":12951,"Ġfret":12952,"siers":12953,"ĠrÃ©novation":12954,"vah":12955,"ĠrÃ©duits":12956,"Ġinvitation":12957,"ĠprÃ©ambule":12958,"sauf":12959,"Ġoh":12960,"Ġsuspendre":12961,"ĠhÃ´tes":12962,"Ġindemnisation":12963,"Ġintensifier":12964,"Ġconjointes":12965,"wealth":12966,"Ġexistait":12967,"ĠdÃ©battre":12968,"los":12969,"Ġsv":12970,"ĠbrÃ¨ve":12971,"ĠdÃ©lit":12972,"Ġaugmentent":12973,"Ġsouffrances":12974,"Ġprovient":12975,"Ġreposent":12976,"Ġsolliciter":12977,"Ġinhib":12978,"Ġinterdisant":12979,"Ġquotidiennes":12980,"Ġrationnelle":12981,"Ġdite":12982,"ĠjournÃ©es":12983,"Ġdie":12984,"employer":12985,"Ã©mique":12986,"Ġrentable":12987,"ĠÃ©ri":12988,"Ġfoc":12989,"assur":12990,"tical":12991,"ĠcontrÃ´lÃ©e":12992,"Ġattribuer":12993,"Ġmic":12994,"Ġtchad":12995,"ÑĤ":12996,"Ġhamilton":12997,"Ġoptimale":12998,"Ġstructurelles":12999,"entrevue":13000,"ĠprÃ©paratoires":13001,"Ġpiles":13002,"Ġincomp":13003,"Ġreview":13004,"Ġrenvoie":13005,"Ġissue":13006,"Ġattente":13007,"ĠgÃ¨nes":13008,"Ġmarc":13009,"Ġone":13010,"ervent":13011,"Ġrem":13012,"ĠÃ©chec":13013,"prÃ©sidente":13014,"Ġsamedi":13015,"Ġwp":13016,"Ġconstructif":13017,"Ġcandidate":13018,"ĠrÃ©servoir":13019,"Ġrapatriement":13020,"insÃ©curitÃ©":13021,"Ġacquises":13022,"Ġmille":13023,"Ġsuccession":13024,"ordinateurs":13025,"ĠantÃ©rieurement":13026,"Ġgenres":13027,"ĠprÃ©fÃ©rences":13028,"Ġcontradic":13029,"ĠsoulÃ¨ve":13030,"Ġpommes":13031,"Ġliaisons":13032,"ĠperpÃ©tr":13033,"Ã©tiquette":13034,"Ġroche":13035,"ĠmÃ©talliques":13036,"ousses":13037,"housias":13038,"Ġther":13039,"Ġcopenh":13040,"ĠconcertÃ©e":13041,"Ġangola":13042,"agression":13043,"Ġstephen":13044,"Ġprescription":13045,"Ġplateau":13046,"Ġcardio":13047,"Ġvieilles":13048,"dites":13049,"Ġquartiers":13050,"ĠdotÃ©es":13051,"Ġmh":13052,"Ġterminologie":13053,"Ġradiation":13054,"Ġsauvage":13055,"ĠdÃ©montrent":13056,"Ġharbour":13057,"ĠyÃ©men":13058,"Ġnice":13059,"Ġremplace":13060,"ĠencouragÃ©s":13061,"Ġcarc":13062,"Ġsachant":13063,"Ġcoefficient":13064,"ĠcondamnÃ©s":13065,"Ġsaisonn":13066,"arde":13067,"Ġnettes":13068,"Ġtransmissibles":13069,"mus":13070,"Ġmed":13071,"1990":13072,"Ġfonctionnels":13073,"Ġjouir":13074,"Ġpostale":13075,"Ġ102":13076,"Ġpavillon":13077,"ĠâĪ":13078,"Ġhiver":13079,"Ġccs":13080,"ĠdÃ©clarÃ©es":13081,"Ġsovi":13082,"Ġreposant":13083,"tina":13084,"Ġbilingues":13085,"Ġambitieux":13086,"ĠemployÃ©e":13087,"sou":13088,"Ġpac":13089,"Ġinterdire":13090,"Ġstationnement":13091,"fran":13092,"Ġinformelle":13093,"rn":13094,"Ġbleu":13095,"Ġsuites":13096,"ĠprÃ©sidÃ©":13097,"pent":13098,"Ġ118":13099,"Ġancienne":13100,"Ġcircuits":13101,"Ġbit":13102,"phel":13103,"ĠindigÃ¨nes":13104,"160":13105,"ĠmÃ¨nent":13106,"Ġoctroy":13107,"Ġterritorial":13108,"illons":13109,"ĠlÃ©":13110,"Ġmoderniser":13111,"ĠretirÃ©":13112,"onciation":13113,"ĠacceptÃ©es":13114,"accumulation":13115,"irma":13116,"ĠconfiÃ©":13117,"Ġdure":13118,"inspire":13119,"Ġfille":13120,"____________":13121,"ĠexÃ©cutions":13122,"autique":13123,"ennant":13124,"Ġcommuniquez":13125,"envoyer":13126,"Ġroulement":13127,"approuver":13128,"Ġruisseau":13129,"ĠinterprÃ¨tes":13130,"ota":13131,"ĠbactÃ©ries":13132,"bn":13133,"Ġsatisfaisant":13134,"ÑĢ":13135,"enlÃ¨vement":13136,"ĠarrÃªter":13137,"incitation":13138,"Ġquator":13139,"ĠaffÃ©rentes":13140,"Ġsuppos":13141,"ĠcombinÃ©":13142,"ĠassemblÃ©es":13143,"Ġgouverneurs":13144,"exposÃ©":13145,"Ġsignalisation":13146,"ĠenvoyÃ©e":13147,"hÃ©patite":13148,"Ġincompati":13149,"Ġstables":13150,"ultur":13151,"Ġouganda":13152,"Ġoralement":13153,"Ġchypri":13154,"sitÃ©":13155,"Ġenregistrer":13156,"ĠrÃ©munÃ©rÃ©":13157,"trui":13158,"Ġinvers":13159,"ĠdÃ©taillants":13160,"ĠidentifiÃ©es":13161,"Ġcircul":13162,"Ġjet":13163,"\">":13164,"ĠÃ©thiopie":13165,"apprendre":13166,"Ġorganique":13167,"graphe":13168,"Ġcommonwealth":13169,"ĠbasÃ©es":13170,"ĠÃ©norme":13171,"Ġfluor":13172,"Ġpluriannuel":13173,"Ġcommittee":13174,"Ġboulev":13175,"ĠrÃ©fugiÃ©":13176,"ĠvidÃ©os":13177,"ĠprÃ©visible":13178,"soit":13179,"Ġgriefs":13180,"acuation":13181,"disciplinaire":13182,"Ġrenoncer":13183,"Ġbook":13184,"Ġsortes":13185,"Ġdimanche":13186,"pier":13187,"tiendra":13188,"xi":13189,"Ġtva":13190,"Ġinviter":13191,"Ġmarquage":13192,"Ġcomparative":13193,"Ġtadjikistan":13194,"ĠtÃ©lÃ©vis":13195,"Ġinte":13196,"Ġtravailleuses":13197,"ĠpÃ©nitentiaire":13198,"town":13199,"ĠhÃ©r":13200,"Ġjohannes":13201,"Ġlibyenne":13202,"Ġusages":13203,"pres":13204,"ĠÃĹ":13205,"Ġharmonisation":13206,"Ġorganiz":13207,"ĠdistribuÃ©s":13208,"chi":13209,"onse":13210,"affichage":13211,"Ġdoug":13212,"lÃ¨vements":13213,"Ġrehau":13214,"ĠrÃ©servoirs":13215,"Ġpourvu":13216,"ierie":13217,"Ġcerve":13218,"Ġthermique":13219,"Ġ111":13220,"Ġrejeter":13221,"ĠbilatÃ©ral":13222,"Ġapparemment":13223,
[...]
